{
  "version": "1.0",
  "truncation": null,
  "padding": null,
  "added_tokens": [
    {
      "id": 0,
      "content": "[UNK]",
      "single_word": false,
      "lstrip": false,
      "rstrip": false,
      "normalized": false,
      "special": true
    }
  ],
  "normalizer": null,
  "pre_tokenizer": {
    "type": "Whitespace"
  },
  "post_processor": null,
  "decoder": null,
  "model": {
    "type": "BPE",
    "dropout": null,
    "unk_token": "[UNK]",
    "continuing_subword_prefix": null,
    "end_of_word_suffix": null,
    "fuse_unk": false,
    "byte_fallback": false,
    "ignore_merges": false,
    "vocab": {
      "[UNK]": 0,
      "!": 1,
      "'": 2,
      ",": 3,
      "-": 4,
      ".": 5,
      ":": 6,
      ";": 7,
      "?": 8,
      "A": 9,
      "B": 10,
      "C": 11,
      "D": 12,
      "E": 13,
      "F": 14,
      "G": 15,
      "H": 16,
      "I": 17,
      "J": 18,
      "K": 19,
      "L": 20,
      "M": 21,
      "N": 22,
      "O": 23,
      "P": 24,
      "Q": 25,
      "R": 26,
      "S": 27,
      "T": 28,
      "U": 29,
      "V": 30,
      "W": 31,
      "Y": 32,
      "[": 33,
      "]": 34,
      "a": 35,
      "b": 36,
      "c": 37,
      "d": 38,
      "e": 39,
      "f": 40,
      "g": 41,
      "h": 42,
      "i": 43,
      "j": 44,
      "k": 45,
      "l": 46,
      "m": 47,
      "n": 48,
      "o": 49,
      "p": 50,
      "q": 51,
      "r": 52,
      "s": 53,
      "t": 54,
      "u": 55,
      "v": 56,
      "w": 57,
      "x": 58,
      "y": 59,
      "z": 60,
      "th": 61,
      "er": 62,
      "ou": 63,
      "an": 64,
      "in": 65,
      "the": 66,
      "or": 67,
      "st": 68,
      "ll": 69,
      "at": 70,
      "ar": 71,
      "is": 72,
      "and": 73,
      "me": 74,
      "he": 75,
      "on": 76,
      "re": 77,
      "to": 78,
      "no": 79,
      "se": 80,
      "ha": 81,
      "of": 82,
      "le": 83,
      "it": 84,
      "ve": 85,
      "you": 86,
      "be": 87,
      "ow": 88,
      "wi": 89,
      "for": 90,
      "en": 91,
      "as": 92,
      "ay": 93,
      "ing": 94,
      "ir": 95,
      "ld": 96,
      "my": 97,
      "hi": 98,
      "de": 99,
      "her": 100,
      "ut": 101,
      "li": 102,
      "ro": 103,
      "thou": 104,
      "nd": 105,
      "that": 106,
      "ce": 107,
      "hat": 108,
      "ri": 109,
      "ch": 110,
      "es": 111,
      "co": 112,
      "not": 113,
      "al": 114,
      "we": 115,
      "ther": 116,
      "ck": 117,
      "his": 118,
      "ter": 119,
      "gh": 120,
      "with": 121,
      "all": 122,
      "our": 123,
      "ast": 124,
      "so": 125,
      "et": 126,
      "oo": 127,
      "ak": 128,
      "ed": 129,
      "ad": 130,
      "un": 131,
      "him": 132,
      "And": 133,
      "thy": 134,
      "ra": 135,
      "ur": 136,
      "man": 137,
      "ver": 138,
      "here": 139,
      "am": 140,
      "this": 141,
      "ould": 142,
      "ho": 143,
      "thee": 144,
      "but": 145,
      "sha": 146,
      "ght": 147,
      "do": 148,
      "are": 149,
      "fa": 150,
      "id": 151,
      "sir": 152,
      "will": 153,
      "now": 154,
      "have": 155,
      "The": 156,
      "ly": 157,
      "wor": 158,
      "fe": 159,
      "sp": 160,
      "up": 161,
      "us": 162,
      "ne": 163,
      "your": 164,
      "ain": 165,
      "one": 166,
      "ill": 167,
      "rom": 168,
      "shall": 169,
      "sh": 170,
      "ood": 171,
      "hy": 172,
      "come": 173,
      "What": 174,
      "nt": 175,
      "fi": 176,
      "by": 177,
      "ake": 178,
      "ge": 179,
      "mp": 180,
      "ru": 181,
      "aster": 182,
      "su": 183,
      "ack": 184,
      "from": 185,
      "go": 186,
      "lo": 187,
      "ry": 188,
      "il": 189,
      "ss": 190,
      "bo": 191,
      "thin": 192,
      "ere": 193,
      "they": 194,
      "mor": 195,
      "mu": 196,
      "ous": 197,
      "she": 198,
      "ard": 199,
      "ran": 200,
      "ble": 201,
      "ff": 202,
      "end": 203,
      "ti": 204,
      "ke": 205,
      "own": 206,
      "aw": 207,
      "see": 208,
      "te": 209,
      "ent": 210,
      "ath": 211,
      "si": 212,
      "how": 213,
      "hou": 214,
      "wo": 215,
      "hen": 216,
      "art": 217,
      "ind": 218,
      "say": 219,
      "ong": 220,
      "Why": 221,
      "But": 222,
      "ome": 223,
      "est": 224,
      "lf": 225,
      "That": 226,
      "was": 227,
      "ave": 228,
      "them": 229,
      "good": 230,
      "No": 231,
      "mi": 232,
      "ive": 233,
      "ever": 234,
      "Go": 235,
      "ound": 236,
      "well": 237,
      "would": 238,
      "ear": 239,
      "ap": 240,
      "know": 241,
      "fore": 242,
      "their": 243,
      "what": 244,
      "bre": 245,
      "con": 246,
      "hor": 247,
      "day": 248,
      "el": 249,
      "master": 250,
      "if": 251,
      "lt": 252,
      "did": 253,
      "tru": 254,
      "ant": 255,
      "should": 256,
      "thing": 257,
      "ag": 258,
      "If": 259,
      "father": 260,
      "word": 261,
      "urn": 262,
      "For": 263,
      "make": 264,
      "hath": 265,
      "ie": 266,
      "bl": 267,
      "there": 268,
      "row": 269,
      "out": 270,
      "ame": 271,
      "then": 272,
      "nter": 273,
      "like": 274,
      "were": 275,
      "self": 276,
      "ell": 277,
      "let": 278,
      "ess": 279,
      "too": 280,
      "ase": 281,
      "than": 282,
      "when": 283,
      "pl": 284,
      "po": 285,
      "Ex": 286,
      "qu": 287,
      "gl": 288,
      "per": 289,
      "any": 290,
      "men": 291,
      "pr": 292,
      "ure": 293,
      "old": 294,
      "dev": 295,
      "Thou": 296,
      "more": 297,
      "Fran": 298,
      "hast": 299,
      "upon": 300,
      "horse": 301,
      "pe": 302,
      "sta": 303,
      "red": 304,
      "tis": 305,
      "cis": 306,
      "run": 307,
      "fu": 308,
      "ince": 309,
      "give": 310,
      "arry": 311,
      "must": 312,
      "ress": 313,
      "comes": 314,
      "ep": 315,
      "ord": 316,
      "To": 317,
      "ct": 318,
      "ms": 319,
      "Francis": 320,
      "mb": 321,
      "can": 322,
      "spe": 323,
      "ta": 324,
      "mo": 325,
      "reat": 326,
      "Jack": 327,
      "This": 328,
      "call": 329,
      "life": 330,
      "time": 331,
      "may": 332,
      "Enter": 333,
      "where": 334,
      "cy": 335,
      "ight": 336,
      "tri": 337,
      "ves": 338,
      "fri": 339,
      "bu": 340,
      "head": 341,
      "hand": 342,
      "ercy": 343,
      "sent": 344,
      "fire": 345,
      "long": 346,
      "devil": 347,
      "think": 348,
      "sc": 349,
      "pro": 350,
      "swe": 351,
      "bro": 352,
      "Wi": 353,
      "who": 354,
      "sa": 355,
      "ise": 356,
      "How": 357,
      "Sir": 358,
      "two": 359,
      "God": 360,
      "la": 361,
      "rest": 362,
      "hich": 363,
      "much": 364,
      "Percy": 365,
      "There": 366,
      "death": 367,
      "friend": 368,
      "ven": 369,
      "ers": 370,
      "les": 371,
      "hu": 372,
      "My": 373,
      "ma": 374,
      "gra": 375,
      "Fal": 376,
      "ark": 377,
      "ars": 378,
      "read": 379,
      "away": 380,
      "ious": 381,
      "mat": 382,
      "again": 383,
      "staff": 384,
      "speak": 385,
      "Within": 386,
      "ment": 387,
      "ol": 388,
      "gu": 389,
      "He": 390,
      "Falstaff": 391,
      "ft": 392,
      "ine": 393,
      "stress": 394,
      "ate": 395,
      ".]": 396,
      "By": 397,
      "Jo": 398,
      "che": 399,
      "ion": 400,
      "clo": 401,
      "Now": 402,
      "ser": 403,
      "yet": 404,
      "ning": 405,
      "ring": 406,
      "Rome": 407,
      "llow": 408,
      "many": 409,
      "ea": 410,
      "light": 411,
      "nock": 412,
      "brother": 413,
      "wer": 414,
      "Do": 415,
      "itt": 416,
      "unt": 417,
      "Be": 418,
      "hn": 419,
      "US": 420,
      "ner": 421,
      "Pr": 422,
      "lie": 423,
      "pur": 424,
      "deed": 425,
      "bra": 426,
      "dam": 427,
      "foo": 428,
      "ple": 429,
      "had": 430,
      "gar": 431,
      "ans": 432,
      "af": 433,
      "tell": 434,
      "turn": 435,
      "ours": 436,
      "Well": 437,
      "kill": 438,
      "fair": 439,
      "true": 440,
      "Exit": 441,
      "John": 442,
      "ity": 443,
      "ish": 444,
      "could": 445,
      "stand": 446,
      "noble": 447,
      "never": 448,
      "oul": 449,
      "Master": 450,
      "myself": 451,
      "knock": 452,
      "such": 453,
      "friends": 454,
      "fat": 455,
      "gr": 456,
      "take": 457,
      "use": 458,
      "pi": 459,
      "di": 460,
      "cou": 461,
      "way": 462,
      "ex": 463,
      "Ay": 464,
      "im": 465,
      "ins": 466,
      "des": 467,
      "lp": 468,
      "ree": 469,
      "car": 470,
      "cle": 471,
      "loo": 472,
      "Who": 473,
      "pri": 474,
      "hip": 475,
      "age": 476,
      "some": 477,
      "fle": 478,
      "jest": 479,
      "lord": 480,
      "name": 481,
      "mper": 482,
      "ey": 483,
      "ought": 484,
      "Marry": 485,
      "Where": 486,
      "great": 487,
      "sword": 488,
      "which": 489,
      "forth": 490,
      "blood": 491,
      "beast": 492,
      "break": 493,
      "ot": 494,
      "ful": 495,
      "ac": 496,
      "arewell": 497,
      "han": 498,
      "vi": 499,
      "low": 500,
      "So": 501,
      "ef": 502,
      "cal": 503,
      "As": 504,
      "It": 505,
      "Po": 506,
      "bar": 507,
      "ance": 508,
      "mistress": 509,
      "ali": 510,
      "pre": 511,
      "ith": 512,
      "wit": 513,
      "ass": 514,
      "alk": 515,
      "Let": 516,
      "off": 517,
      "other": 518,
      "Come": 519,
      "back": 520,
      "four": 521,
      "vill": 522,
      "wife": 523,
      "cold": 524,
      "comp": 525,
      "face": 526,
      "oney": 527,
      "pray": 528,
      "foot": 529,
      "these": 530,
      "house": 531,
      "woman": 532,
      "ready": 533,
      "after": 534,
      "Prince": 535,
      "uts": 536,
      "ps": 537,
      "matter": 538,
      "pa": 539,
      "hall": 540,
      "very": 541,
      "dead": 542,
      "being": 543,
      "av": 544,
      "till": 545,
      "ue": 546,
      "ls": 547,
      "son": 548,
      "wh": 549,
      "par": 550,
      "lu": 551,
      "hear": 552,
      "arm": 553,
      "ite": 554,
      "She": 555,
      "saw": 556,
      "We": 557,
      "mer": 558,
      "wen": 559,
      "ory": 560,
      "set": 561,
      "ets": 562,
      "Dou": 563,
      "Nay": 564,
      "pen": 565,
      "hot": 566,
      "new": 567,
      "boy": 568,
      "ence": 569,
      "Bar": 570,
      "find": 571,
      "litt": 572,
      "mind": 573,
      "ness": 574,
      "less": 575,
      "bear": 576,
      "show": 577,
      "down": 578,
      "gent": 579,
      "thie": 580,
      "hair": 581,
      "hold": 582,
      "play": 583,
      "glas": 584,
      "look": 585,
      "rong": 586,
      "night": 587,
      "since": 588,
      "world": 589,
      "thine": 590,
      "every": 591,
      "sweet": 592,
      "heart": 593,
      "ink": 594,
      "before": 595,
      "fellow": 596,
      "morrow": 597,
      "little": 598,
      "gentle": 599,
      "br": 600,
      "ba": 601,
      "nothing": 602,
      "wherein": 603,
      "Douglas": 604,
      "em": 605,
      "ore": 606,
      "Here": 607,
      "ci": 608,
      "therefore": 609,
      "Ma": 610,
      "ty": 611,
      "ster": 612,
      "ks": 613,
      "ob": 614,
      "Pe": 615,
      "ic": 616,
      "ud": 617,
      "bs": 618,
      "pra": 619,
      "lay": 620,
      "cha": 621,
      "hon": 622,
      "In": 623,
      "Lu": 624,
      "ather": 625,
      "tak": 626,
      "din": 627,
      "sl": 628,
      "Exe": 629,
      "une": 630,
      "cla": 631,
      "sle": 632,
      "ded": 633,
      "Not": 634,
      "nat": 635,
      "bet": 636,
      "Cur": 637,
      "Thy": 638,
      "bid": 639,
      "nor": 640,
      "ras": 641,
      "why": 642,
      "beg": 643,
      "ene": 644,
      "iff": 645,
      "ange": 646,
      "fear": 647,
      "lph": 648,
      "Your": 649,
      "band": 650,
      "burn": 651,
      "guts": 652,
      "arms": 653,
      "meet": 654,
      "been": 655,
      "ason": 656,
      "doth": 657,
      "gold": 658,
      "says": 659,
      "pock": 660,
      "most": 661,
      "said": 662,
      "ches": 663,
      "hang": 664,
      "fall": 665,
      "beat": 666,
      "plain": 667,
      "chol": 668,
      "earth": 669,
      "Emper": 670,
      "money": 671,
      "leave": 672,
      "dolph": 673,
      "purse": 674,
      "jesty": 675,
      "Poins": 676,
      "Exeunt": 677,
      "sister": 678,
      "things": 679,
      "Curtis": 680,
      "Majesty": 681,
      "Emperor": 682,
      "ving": 683,
      "Bardolph": 684,
      "sack": 685,
      "ts": 686,
      "fo": 687,
      "fie": 688,
      "ul": 689,
      "gre": 690,
      "ies": 691,
      "ste": 692,
      "mon": 693,
      "ough": 694,
      "ide": 695,
      "Wa": 696,
      "You": 697,
      "bt": 698,
      "!'": 699,
      "AR": 700,
      "IN": 701,
      "ON": 702,
      "Of": 703,
      "TI": 704,
      "iss": 705,
      "fort": 706,
      "live": 707,
      "lad": 708,
      "rob": 709,
      "ears": 710,
      "cur": 711,
      "dis": 712,
      "pt": 713,
      "rop": 714,
      "chi": 715,
      "cap": 716,
      "dou": 717,
      "oud": 718,
      "ini": 719,
      "Nor": 720,
      "Ned": 721,
      "Sat": 722,
      "Yea": 723,
      "gri": 724,
      "land": 725,
      "pay": 726,
      "its": 727,
      "rah": 728,
      "even": 729,
      "sm": 730,
      "ons": 731,
      "om": 732,
      "inst": 733,
      "hum": 734,
      "count": 735,
      "ca": 736,
      "app": 737,
      "tale": 738,
      "last": 739,
      "part": 740,
      "Adam": 741,
      "Call": 742,
      "When": 743,
      "base": 744,
      "gave": 745,
      "hind": 746,
      "soul": 747,
      "vali": 748,
      "walk": 749,
      "inct": 750,
      "stay": 751,
      "ones": 752,
      "bell": 753,
      "hill": 754,
      "hile": 755,
      "ross": 756,
      "char": 757,
      "Then": 758,
      "both": 759,
      "mies": 760,
      "else": 761,
      "runk": 762,
      "full": 763,
      "made": 764,
      "bald": 765,
      "able": 766,
      "ither": 767,
      "mand": 768,
      "dear": 769,
      "worth": 770,
      "quar": 771,
      "Shall": 772,
      "inter": 773,
      "heard": 774,
      "aside": 775,
      "thout": 776,
      "shalt": 777,
      "faith": 778,
      "clock": 779,
      "flesh": 780,
      "Wales": 781,
      "cious": 782,
      "answer": 783,
      "praise": 784,
      "honour": 785,
      "withal": 786,
      "dinner": 787,
      "better": 788,
      "rascal": 789,
      "masters": 790,
      "prithee": 791,
      "villain": 792,
      "thieves": 793,
      "valiant": 794,
      "Farewell": 795,
      "instinct": 796,
      "com": 797,
      "kn": 798,
      "dr": 799,
      "ny": 800,
      "gown": 801,
      "ig": 802,
      "deeds": 803,
      "cl": 804,
      "ee": 805,
      "eat": 806,
      "dy": 807,
      "ng": 808,
      "cr": 809,
      "ust": 810,
      "io": 811,
      "ime": 812,
      "um": 813,
      "ace": 814,
      "der": 815,
      "spo": 816,
      "ab": 817,
      "int": 818,
      "sto": 819,
      "fac": 820,
      "ze": 821,
      "anc": 822,
      "mad": 823,
      "ught": 824,
      "ings": 825,
      "min": 826,
      "pit": 827,
      "ret": 828,
      "uff": 829,
      "!-": 830,
      ",'": 831,
      "AT": 832,
      "Am": 833,
      "Or": 834,
      "UC": 835,
      "ows": 836,
      "side": 837,
      "abo": 838,
      "ger": 839,
      "ges": 840,
      "jo": 841,
      "die": 842,
      "fet": 843,
      "get": 844,
      "ship": 845,
      "rid": 846,
      "ters": 847,
      "ush": 848,
      "Hot": 849,
      "Swe": 850,
      "Was": 851,
      "Yet": 852,
      "cow": 853,
      "dd": 854,
      "mou": 855,
      "por": 856,
      "sor": 857,
      "sun": 858,
      "sup": 859,
      "zen": 860,
      "atch": 861,
      "vey": 862,
      "tain": 863,
      "atter": 864,
      "arri": 865,
      "cri": 866,
      "ats": 867,
      "irst": 868,
      "lies": 869,
      "sure": 870,
      "temp": 871,
      "aven": 872,
      "Give": 873,
      "hour": 874,
      "lest": 875,
      "rial": 876,
      "damn": 877,
      "Away": 878,
      "Drom": 879,
      "Lav": 880,
      "Some": 881,
      "Tell": 882,
      "Time": 883,
      "came": 884,
      "case": 885,
      "foul": 886,
      "hard": 887,
      "none": 888,
      "prom": 889,
      "tall": 890,
      "vant": 891,
      "eric": 892,
      "heel": 893,
      "half": 894,
      "offi": 895,
      "left": 896,
      "beef": 897,
      "wilt": 898,
      "door": 899,
      "dost": 900,
      "They": 901,
      "lost": 902,
      "keep": 903,
      "eyes": 904,
      "cius": 905,
      "Peto": 906,
      "inia": 907,
      "want": 908,
      "ites": 909,
      "soon": 910,
      "vern": 911,
      "buff": 912,
      "wench": 913,
      "claim": 914,
      "sound": 915,
      "tent": 916,
      "uncle": 917,
      "host": 918,
      "shame": 919,
      "sight": 920,
      "thank": 921,
      "brave": 922,
      "Harry": 923,
      "Which": 924,
      "bound": 925,
      "wrong": 926,
      "three": 927,
      "means": 928,
      "rever": 929,
      "youth": 930,
      "besee": 931,
      "geant": 932,
      "tired": 933,
      "tears": 934,
      "conce": 935,
      "trump": 936,
      "whose": 937,
      "grave": 938,
      "close": 939,
      "penny": 940,
      "chain": 941,
      "child": 942,
      "though": 943,
      "arrow": 944,
      "breath": 945,
      "pocket": 946,
      "An": 947,
      "heaven": 948,
      "reason": 949,
      "hither": 950,
      "heriff": 951,
      "awhile": 952,
      "convey": 953,
      "horses": 954,
      "burial": 955,
      "please": 956,
      "ground": 957,
      "Lucius": 958,
      "beaten": 959,
      "coward": 960,
      "Dromio": 961,
      "limb": 962,
      "without": 963,
      "already": 964,
      "himself": 965,
      "running": 966,
      "mustard": 967,
      "counter": 968,
      "enemies": 969,
      "fortune": 970,
      "Lavinia": 971,
      "beseech": 972,
      "farewell": 973,
      "gracious": 974,
      "sergeant": 975,
      "brothers": 976,
      "choleric": 977,
      "fr": 978,
      "wherefore": 979,
      "raw": 980,
      "Th": 981,
      "rt": 982,
      "high": 983,
      "ead": 984,
      "indeed": 985,
      "Goth": 986,
      "som": 987,
      "lips": 988,
      "cry": 989,
      "wel": 990,
      "mis": 991,
      "ye": 992,
      "ison": 993,
      "ses": 994,
      "sel": 995,
      "Mar": 996,
      "gs": 997,
      "igh": 998,
      "ted": 999,
      "fl": 1000,
      "Ro": 1001,
      "sk": 1002,
      "tal": 1003,
      "ugh": 1004,
      "liv": 1005,
      "king": 1006,
      "ok": 1007,
      "thr": 1008,
      "tre": 1009,
      "lead": 1010,
      "ban": 1011,
      "swor": 1012,
      "ren": 1013,
      "tion": 1014,
      "gue": 1015,
      "St": 1016,
      "TH": 1017,
      "Un": 1018,
      "doo": 1019,
      "ek": 1020,
      "ice": 1021,
      "rous": 1022,
      ".'": 1023,
      "EN": 1024,
      "GO": 1025,
      "IL": 1026,
      "TR": 1027,
      "UR": 1028,
      "ick": 1029,
      "ult": 1030,
      "Tis": 1031,
      "pie": 1032,
      "tro": 1033,
      "Sp": 1034,
      "Sco": 1035,
      "Up": 1036,
      "cut": 1037,
      "kne": 1038,
      "put": 1039,
      "tit": 1040,
      "once": 1041,
      "rel": 1042,
      "cel": 1043,
      "AAR": 1044,
      "Art": 1045,
      "Fie": 1046,
      "His": 1047,
      "IUS": 1048,
      "LUC": 1049,
      "Mi": 1050,
      "Our": 1051,
      "Pea": 1052,
      "Say": 1053,
      "See": 1054,
      "TUS": 1055,
      "ds": 1056,
      "dut": 1057,
      "gate": 1058,
      "lar": 1059,
      "stra": 1060,
      "lean": 1061,
      "ask": 1062,
      "ama": 1063,
      "got": 1064,
      "lose": 1065,
      "whit": 1066,
      "hed": 1067,
      "form": 1068,
      "ute": 1069,
      "race": 1070,
      "glor": 1071,
      "Many": 1072,
      "bast": 1073,
      "cer": 1074,
      "cour": 1075,
      "dur": 1076,
      "kiss": 1077,
      "round": 1078,
      "med": 1079,
      "reco": 1080,
      "irt": 1081,
      "love": 1082,
      "pleas": 1083,
      "dig": 1084,
      "Hath": 1085,
      "Lend": 1086,
      "Lord": 1087,
      "Till": 1088,
      "bill": 1089,
      "bark": 1090,
      "done": 1091,
      "drop": 1092,
      "fast": 1093,
      "gone": 1094,
      "mark": 1095,
      "open": 1096,
      "sake": 1097,
      "save": 1098,
      "tong": 1099,
      "talk": 1100,
      "whor": 1101,
      "warm": 1102,
      "thus": 1103,
      "ouch": 1104,
      "into": 1105,
      "stri": 1106,
      "meat": 1107,
      "help": 1108,
      "rede": 1109,
      "rece": 1110,
      "reck": 1111,
      "hide": 1112,
      "room": 1113,
      "nder": 1114,
      "rich": 1115,
      "unto": 1116,
      "spir": 1117,
      "spur": 1118,
      "neat": 1119,
      "near": 1120,
      "need": 1121,
      "body": 1122,
      "bled": 1123,
      "seek": 1124,
      "glad": 1125,
      "trim": 1126,
      "Sirs": 1127,
      "hund": 1128,
      "wert": 1129,
      "Dost": 1130,
      "join": 1131,
      "GOTH": 1132,
      "dare": 1133,
      "fine": 1134,
      "days": 1135,
      "lted": 1136,
      "angel": 1137,
      "hone": 1138,
      "throw": 1139,
      "ries": 1140,
      "right": 1141,
      "prove": 1142,
      "maid": 1143,
      "white": 1144,
      "sleep": 1145,
      "Lanc": 1146,
      "found": 1147,
      "stain": 1148,
      "still": 1149,
      "stran": 1150,
      "stuff": 1151,
      "ished": 1152,
      "liver": 1153,
      "lives": 1154,
      "rogue": 1155,
      "rides": 1156,
      "eson": 1157,
      "alone": 1158,
      "fault": 1159,
      "worst": 1160,
      "worse": 1161,
      "fight": 1162,
      "might": 1163,
      "known": 1164,
      "iful": 1165,
      "didst": 1166,
      "truth": 1167,
      "order": 1168,
      "canst": 1169,
      "heads": 1170,
      "swear": 1171,
      "grace": 1172,
      "hadst": 1173,
      "kills": 1174,
      "grown": 1175,
      "clean": 1176,
      "alive": 1177,
      "merry": 1178,
      "taken": 1179,
      "slave": 1180,
      "field": 1181,
      "steel": 1182,
      "TITUS": 1183,
      "doubt": 1184,
      "grief": 1185,
      "cause": 1186,
      "spoon": 1187,
      "about": 1188,
      "Sweet": 1189,
      "piece": 1190,
      "AARON": 1191,
      "Peace": 1192,
      "gross": 1193,
      "rites": 1194,
      "conf": 1195,
      "proof": 1196,
      "lute": 1197,
      "charge": 1198,
      "fought": 1199,
      "behind": 1200,
      "thous": 1201,
      "butter": 1202,
      "worthy": 1203,
      "sayest": 1204,
      "breast": 1205,
      "trifle": 1206,
      "longer": 1207,
      "thinks": 1208,
      "Sirrah": 1209,
      "laugh": 1210,
      "rested": 1211,
      "stands": 1212,
      "parcel": 1213,
      "nature": 1214,
      "ladder": 1215,
      "Saturn": 1216,
      "tallow": 1217,
      "selves": 1218,
      "reckon": 1219,
      "honest": 1220,
      "strong": 1221,
      "ton": 1222,
      "another": 1223,
      "thought": 1224,
      "thyself": 1225,
      "morning": 1226,
      "against": 1227,
      "garment": 1228,
      "present": 1229,
      "offence": 1230,
      "wenches": 1231,
      "brought": 1232,
      "humours": 1233,
      "Hotspur": 1234,
      "hostess": 1235,
      "recover": 1236,
      "receive": 1237,
      "hundred": 1238,
      "quarrel": 1239,
      "shoulder": 1240,
      "beastly": 1241,
      "shouldst": 1242,
      "anything": 1243,
      "breaking": 1244,
      "Mistress": 1245,
      "straight": 1246,
      "glorious": 1247,
      "whoreson": 1248,
      "thousand": 1249,
      "limbs": 1250,
      "pity": 1251,
      "Lancaster": 1252,
      "Saturnine": 1253,
      "hew": 1254,
      "pennyworth": 1255,
      "ni": 1256,
      "button": 1257,
      "draw": 1258,
      "ev": 1259,
      "fro": 1260,
      "iv": 1261,
      "res": 1262,
      "wn": 1263,
      "sho": 1264,
      "tho": 1265,
      "drink": 1266,
      "na": 1267,
      "oun": 1268,
      "Fa": 1269,
      "ost": 1270,
      "pu": 1271,
      "va": 1272,
      "sen": 1273,
      "bosom": 1274,
      "sin": 1275,
      "ten": 1276,
      "hal": 1277,
      "prison": 1278,
      "ph": 1279,
      "Ad": 1280,
      "Emp": 1281,
      "fin": 1282,
      "fell": 1283,
      "brea": 1284,
      "peak": 1285,
      "Wel": 1286,
      "gain": 1287,
      "lain": 1288,
      "war": 1289,
      "stre": 1290,
      "bel": 1291,
      "irs": 1292,
      "col": 1293,
      "alt": 1294,
      "rave": 1295,
      "ron": 1296,
      "nob": 1297,
      "ady": 1298,
      "emp": 1299,
      "oor": 1300,
      "led": 1301,
      "lov": 1302,
      "mio": 1303,
      "eves": 1304,
      "Pri": 1305,
      "Re": 1306,
      "bal": 1307,
      "eth": 1308,
      "een": 1309,
      "fal": 1310,
      "kin": 1311,
      "ror": 1312,
      "yo": 1313,
      "den": 1314,
      "ius": 1315,
      "lan": 1316,
      "ned": 1317,
      "hes": 1318,
      "sed": 1319,
      "cks": 1320,
      "ilt": 1321,
      "IO": 1322,
      "bb": 1323,
      "hir": 1324,
      "hus": 1325,
      "van": 1326,
      "val": 1327,
      "sig": 1328,
      "eye": 1329,
      "De": 1330,
      "Er": 1331,
      "Man": 1332,
      "Pa": 1333,
      "Wal": 1334,
      "cus": 1335,
      "far": 1336,
      "over": 1337,
      "pat": 1338,
      "ond": 1339,
      "sea": 1340,
      "ils": 1341,
      "brav": 1342,
      "'?": 1343,
      "AE": 1344,
      "AN": 1345,
      "Ah": 1346,
      "At": 1347,
      "ER": 1348,
      "Hen": 1349,
      "Is": 1350,
      "OR": 1351,
      "Qu": 1352,
      "].": 1353,
      "fol": 1354,
      "ling": 1355,
      "smo": 1356,
      "woo": 1357,
      "ward": 1358,
      "ati": 1359,
      "heav": 1360,
      "ape": 1361,
      "Pro": 1362,
      "gat": 1363,
      "grow": 1364,
      "ler": 1365,
      "pin": 1366,
      "pal": 1367,
      "rup": 1368,
      "tran": 1369,
      "wear": 1370,
      "ads": 1371,
      "dom": 1372,
      "nest": 1373,
      "fig": 1374,
      "sum": 1375,
      "news": 1376,
      "Are": 1377,
      "Cli": 1378,
      "Did": 1379,
      "Gru": 1380,
      "Mut": 1381,
      "MIL": 1382,
      "Ni": 1383,
      "NIN": 1384,
      "Out": 1385,
      "One": 1386,
      "SAT": 1387,
      "Tit": 1388,
      "VIN": 1389,
      "Yes": 1390,
      "ago": 1391,
      "baw": 1392,
      "bag": 1393,
      "cra": 1394,
      "cup": 1395,
      "dry": 1396,
      "dag": 1397,
      "due": 1398,
      "ebb": 1399,
      "fly": 1400,
      "fru": 1401,
      "gg": 1402,
      "imp": 1403,
      "ims": 1404,
      "jer": 1405,
      "jud": 1406,
      "kit": 1407,
      "law": 1408,
      "mour": 1409,
      "mur": 1410,
      "mid": 1411,
      "pes": 1412,
      "pup": 1413,
      "pate": 1414,
      "vow": 1415,
      "year": 1416,
      "inj": 1417,
      "sew": 1418,
      "hab": 1419,
      "oft": 1420,
      "bed": 1421,
      "asy": 1422,
      "cking": 1423,
      "rap": 1424,
      "dog": 1425,
      "fav": 1426,
      "suit": 1427,
      "god": 1428,
      "seem": 1429,
      "buy": 1430,
      "vice": 1431,
      "ign": 1432,
      "Bre": 1433,
      "bun": 1434,
      "emi": 1435,
      "iel": 1436,
      "sing": 1437,
      "ums": 1438,
      "wind": 1439,
      "ation": 1440,
      "hell": 1441,
      "reg": 1442,
      "deep": 1443,
      "lion": 1444,
      "amb": 1445,
      "idle": 1446,
      "sub": 1447,
      "test": 1448,
      "woe": 1449,
      "pect": 1450,
      "fty": 1451,
      "lust": 1452,
      "doom": 1453,
      "Scot": 1454,
      "knee": 1455,
      "Cent": 1456,
      "Good": 1457,
      "Hold": 1458,
      "Lest": 1459,
      "Lady": 1460,
      "More": 1461,
      "Moor": 1462,
      "Nath": 1463,
      "Than": 1464,
      "Vint": 1465,
      "Will": 1466,
      "Were": 1467,
      "aur": 1468,
      "bare": 1469,
      "cast": 1470,
      "chen": 1471,
      "cure": 1472,
      "dirt": 1473,
      "fing": 1474,
      "free": 1475,
      "flow": 1476,
      "first": 1477,
      "gall": 1478,
      "just": 1479,
      "kind": 1480,
      "rare": 1481,
      "tree": 1482,
      "twel": 1483,
      "ues": 1484,
      "wood": 1485,
      "wart": 1486,
      "argu": 1487,
      "mean": 1488,
      "meed": 1489,
      "told": 1490,
      "noon": 1491,
      "nose": 1492,
      "send": 1493,
      "hack": 1494,
      "haps": 1495,
      "lend": 1496,
      "owls": 1497,
      "wipe": 1498,
      "debt": 1499,
      "list": 1500,
      "lius": 1501,
      "roar": 1502,
      "rope": 1503,
      "rily": 1504,
      "ribs": 1505,
      "cock": 1506,
      "comb": 1507,
      "weap": 1508,
      "weep": 1509,
      "week": 1510,
      "thern": 1511,
      "amor": 1512,
      "home": 1513,
      "sirs": 1514,
      "work": 1515,
      "fect": 1516,
      "neck": 1517,
      "sull": 1518,
      "goes": 1519,
      "bold": 1520,
      "bomb": 1521,
      "ards": 1522,
      "kept": 1523,
      "sire": 1524,
      "hence": 1525,
      "blue": 1526,
      "took": 1527,
      "poor": 1528,
      "mbly": 1529,
      "moon": 1530,
      "laid": 1531,
      "huge": 1532,
      "unts": 1533,
      "pled": 1534,
      "pile": 1535,
      "ways": 1536,
      "desk": 1537,
      "carri": 1538,
      "calf": 1539,
      "Poor": 1540,
      "paid": 1541,
      "icus": 1542,
      "Luce": 1543,
      "robb": 1544,
      "charg": 1545,
      "Upon": 1546,
      "duty": 1547,
      "amaz": 1548,
      "murd": 1549,
      "aded": 1550,
      "pound": 1551,
      "ised": 1552,
      "deal": 1553,
      "desp": 1554,
      "cept": 1555,
      "hate": 1556,
      "arest": 1557,
      "gest": 1558,
      "acks": 1559,
      "mult": 1560,
      "words": 1561,
      "peri": 1562,
      "proud": 1563,
      "fool": 1564,
      "pair": 1565,
      "capon": 1566,
      "humour": 1567,
      "knave": 1568,
      "fetch": 1569,
      "Aemi": 1570,
      "Bring": 1571,
      "First": 1572,
      "Grace": 1573,
      "Speak": 1574,
      "bring": 1575,
      "bones": 1576,
      "creat": 1577,
      "crest": 1578,
      "cross": 1579,
      "catch": 1580,
      "drunk": 1581,
      "eight": 1582,
      "either": 1583,
      "marri": 1584,
      "pard": 1585,
      "tarry": 1586,
      "trunk": 1587,
      "touch": 1588,
      "wound": 1589,
      "years": 1590,
      "thir": 1591,
      "anion": 1592,
      "theft": 1593,
      "stone": 1594,
      "story": 1595,
      "isses": 1596,
      "memor": 1597,
      "reven": 1598,
      "relie": 1599,
      "toge": 1600,
      "least": 1601,
      "ition": 1602,
      "young": 1603,
      "bears": 1604,
      "belie": 1605,
      "enter": 1606,
      "eness": 1607,
      "liest": 1608,
      "cozen": 1609,
      "hopes": 1610,
      "arell": 1611,
      "ident": 1612,
      "These": 1613,
      "spare": 1614,
      "spake": 1615,
      "spent": 1616,
      "fiend": 1617,
      "sugar": 1618,
      "suits": 1619,
      "bleed": 1620,
      "tiger": 1621,
      "owner": 1622,
      "seems": 1623,
      "sible": 1624,
      "bread": 1625,
      "truly": 1626,
      "place": 1627,
      "point": 1628,
      "quite": 1629,
      "glory": 1630,
      "haste": 1631,
      "speed": 1632,
      "tales": 1633,
      "hands": 1634,
      "score": 1635,
      "whole": 1636,
      "sacri": 1637,
      "iseth": 1638,
      "match": 1639,
      "fton": 1640,
      "serve": 1641,
      "fairy": 1642,
      "loose": 1643,
      "Whose": 1644,
      "otter": 1645,
      "lower": 1646,
      "witch": 1647,
      "thief": 1648,
      "brown": 1649,
      "takes": 1650,
      "slain": 1651,
      "begin": 1652,
      "monst": 1653,
      "Satan": 1654,
      "small": 1655,
      "belly": 1656,
      "crown": 1657,
      "ridge": 1658,
      "mouth": 1659,
      "mount": 1660,
      "sorry": 1661,
      "tempt": 1662,
      "office": 1663,
      "Roman": 1664,
      "swore": 1665,
      "Stand": 1666,
      "URNIN": 1667,
      "Faith": 1668,
      "pated": 1669,
      "AEMIL": 1670,
      "Henry": 1671,
      "folks": 1672,
      "heavy": 1673,
      "gates": 1674,
      "trans": 1675,
      "fruit": 1676,
      "eting": 1677,
      "lting": 1678,
      "villan": 1679,
      "steal": 1680,
      "dding": 1681,
      "court": 1682,
      "tongue": 1683,
      "spirit": 1684,
      "latter": 1685,
      "nought": 1686,
      "narrow": 1687,
      "winter": 1688,
      "thread": 1689,
      "season": 1690,
      "haunts": 1691,
      "besi": 1692,
      "behold": 1693,
      "behalf": 1694,
      "enough": 1695,
      "demand": 1696,
      "living": 1697,
      "colted": 1698,
      "within": 1699,
      "ourish": 1700,
      "advant": 1701,
      "Andron": 1702,
      "raven": 1703,
      "manner": 1704,
      "sirrah": 1705,
      "loving": 1706,
      "athing": 1707,
      "whence": 1708,
      "stairs": 1709,
      "cannot": 1710,
      "tavern": 1711,
      "sweats": 1712,
      "deaths": 1713,
      "mation": 1714,
      "Before": 1715,
      "bloody": 1716,
      "beasts": 1717,
      "barous": 1718,
      "houses": 1719,
      "claims": 1720,
      "angels": 1721,
      "cholas": 1722,
      "leaves": 1723,
      "follow": 1724,
      "double": 1725,
      "dearer": 1726,
      "aboard": 1727,
      "porter": 1728,
      "sorrow": 1729,
      "supper": 1730,
      "wrongs": 1731,
      "trumpet": 1732,
      "Marcus": 1733,
      "livion": 1734,
      "titles": 1735,
      "redeem": 1736,
      "trimm": 1737,
      "maiden": 1738,
      "halter": 1739,
      "vanity": 1740,
      "Walter": 1741,
      "figure": 1742,
      "Grumio": 1743,
      "Mutius": 1744,
      "dagger": 1745,
      "jerkin": 1746,
      "lawful": 1747,
      "Nathan": 1748,
      "twelve": 1749,
      "pardon": 1750,
      "thirty": 1751,
      "reveng": 1752,
      "oubled": 1753,
      "govern": 1754,
      "Sheriff": 1755,
      "sheriff": 1756,
      "attempt": 1757,
      "leather": 1758,
      "forward": 1759,
      "deliver": 1760,
      "sparrow": 1761,
      "neither": 1762,
      "Nothing": 1763,
      "earnest": 1764,
      "content": 1765,
      "perform": 1766,
      "perhaps": 1767,
      "procure": 1768,
      "servant": 1769,
      "couldst": 1770,
      "greater": 1771,
      "breaker": 1772,
      "account": 1773,
      "bargain": 1774,
      "witness": 1775,
      "merrily": 1776,
      "sleeves": 1777,
      "burning": 1778,
      "pockets": 1779,
      "hanging": 1780,
      "lasting": 1781,
      "command": 1782,
      "pitiful": 1783,
      "retreat": 1784,
      "officer": 1785,
      "soundly": 1786,
      "bravely": 1787,
      "through": 1788,
      "bastard": 1789,
      "durance": 1790,
      "roundly": 1791,
      "confess": 1792,
      "Empress": 1793,
      "breathe": 1794,
      "Welcome": 1795,
      "Prithee": 1796,
      "husband": 1797,
      "Clifton": 1798,
      "kitchen": 1799,
      "favours": 1800,
      "Centaur": 1801,
      "Vintner": 1802,
      "pledges": 1803,
      "carried": 1804,
      "sacrifi": 1805,
      "URNINUS": 1806,
      "besides": 1807,
      "solute": 1808,
      "believe": 1809,
      "methinks": 1810,
      "although": 1811,
      "knocking": 1812,
      "complain": 1813,
      "oblivion": 1814,
      "apparell": 1815,
      "quarters": 1816,
      "trumpets": 1817,
      "sensible": 1818,
      "Nicholas": 1819,
      "argument": 1820,
      "Aemilius": 1821,
      "creature": 1822,
      "marriage": 1823,
      "together": 1824,
      "mountain": 1825,
      "AEMILIUS": 1826,
      "ravenous": 1827,
      "reckoning": 1828,
      "solutely": 1829,
      "encounter": 1830,
      "barbarous": 1831,
      "companion": 1832,
      "gentleman": 1833,
      "monstrous": 1834,
      "villanous": 1835,
      "advantage": 1836,
      "Nathaniel": 1837,
      "themselves": 1838,
      "honourable": 1839,
      "SATURNINUS": 1840,
      "Andronicus": 1841,
      "everlasting": 1842,
      "cher": 1843,
      "Take": 1844,
      "tr": 1845,
      "tha": 1846,
      "thi": 1847,
      "mast": 1848,
      "Goths": 1849,
      "ns": 1850,
      "whe": 1851,
      "Even": 1852,
      "bir": 1853,
      "whi": 1854,
      "ends": 1855,
      "oth": 1856,
      "mist": 1857,
      "All": 1858,
      "bea": 1859,
      "mas": 1860,
      "birds": 1861,
      "Ho": 1862,
      "tle": 1863,
      "vil": 1864,
      "heir": 1865,
      "mak": 1866,
      "Fare": 1867,
      "tw": 1868,
      "lik": 1869,
      "has": 1870,
      "dest": 1871,
      "gi": 1872,
      "las": 1873,
      "op": 1874,
      "En": 1875,
      "Wh": 1876,
      "mar": 1877,
      "inc": 1878,
      "aste": 1879,
      "ang": 1880,
      "har": 1881,
      "dee": 1882,
      "prou": 1883,
      "eep": 1884,
      "je": 1885,
      "swo": 1886,
      "ting": 1887,
      "taff": 1888,
      "evil": 1889,
      "tu": 1890,
      "ug": 1891,
      "cho": 1892,
      "chance": 1893,
      "urs": 1894,
      "suc": 1895,
      "Co": 1896,
      "du": 1897,
      "ray": 1898,
      "bur": 1899,
      "cre": 1900,
      "ile": 1901,
      "pp": 1902,
      "sou": 1903,
      "tra": 1904,
      "enc": 1905,
      "ney": 1906,
      "proudest": 1907,
      "ease": 1908,
      "xe": 1909,
      "ort": 1910,
      "orrow": 1911,
      "spar": 1912,
      "qua": 1913,
      "qui": 1914,
      "Her": 1915,
      "ah": 1916,
      "bou": 1917,
      "ding": 1918,
      "lk": 1919,
      "lse": 1920,
      "win": 1921,
      "pea": 1922,
      "dar": 1923,
      "glo": 1924,
      "oil": 1925,
      "ttle": 1926,
      "ump": 1927,
      "wr": 1928,
      "thro": 1929,
      "hel": 1930,
      "eng": 1931,
      "ces": 1932,
      "herein": 1933,
      "bot": 1934,
      "morr": 1935,
      "sac": 1936,
      "serv": 1937,
      "aim": 1938,
      "cat": 1939,
      "cli": 1940,
      "dro": 1941,
      "dri": 1942,
      "ffi": 1943,
      "oof": 1944,
      "tir": 1945,
      "vy": 1946,
      "yes": 1947,
      "yea": 1948,
      "sti": 1949,
      "iry": 1950,
      "lip": 1951,
      "rav": 1952,
      "emb": 1953,
      "ied": 1954,
      "ily": 1955,
      "lin": 1956,
      "ox": 1957,
      "ole": 1958,
      "sli": 1959,
      "sid": 1960,
      "uck": 1961,
      "owe": 1962,
      "hig": 1963,
      "roof": 1964,
      "ride": 1965,
      "als": 1966,
      "ung": 1967,
      "raise": 1968,
      "amn": 1969,
      "tear": 1970,
      "Got": 1971,
      "elp": 1972,
      "tage": 1973,
      "sav": 1974,
      "acc": 1975,
      "lows": 1976,
      "eaten": 1977,
      "BU": 1978,
      "CH": 1979,
      "IA": 1980,
      "Imp": 1981,
      "LA": 1982,
      "RS": 1983,
      "ach": 1984,
      "dru": 1985,
      "fra": 1986,
      "kes": 1987,
      "mit": 1988,
      "obe": 1989,
      "oes": 1990,
      "pet": 1991,
      "pper": 1992,
      "rite": 1993,
      "rink": 1994,
      "rough": 1995,
      "sit": 1996,
      "soun": 1997,
      "uri": 1998,
      "wis": 1999,
      "while": 2000,
      "orn": 2001,
      "ary": 2002,
      "tom": 2003,
      "leg": 2004,
      "lease": 2005,
      "wip": 2006,
      "deem": 2007,
      "uty": 2008,
      "riff": 2009,
      "astly": 2010,
      "unter": 2011,
      "nown": 2012,
      "ills": 2013,
      "illain": 2014,
      "shed": 2015,
      "tire": 2016,
      "conc": 2017,
      "answ": 2018,
      "pick": 2019,
      "';": 2020,
      "?'": 2021,
      "AM": 2022,
      "Bl": 2023,
      "DE": 2024,
      "ES": 2025,
      "FI": 2026,
      "Fl": 2027,
      "GM": 2028,
      "Hy": 2029,
      "LL": 2030,
      "Mor": 2031,
      "OU": 2032,
      "PE": 2033,
      "Sta": 2034,
      "Tar": 2035,
      "bone": 2036,
      "bru": 2037,
      "dge": 2038,
      "hut": 2039,
      "ja": 2040,
      "lam": 2041,
      "mbo": 2042,
      "miss": 2043,
      "nut": 2044,
      "nches": 2045,
      "odd": 2046,
      "plo": 2047,
      "pets": 2048,
      "pud": 2049,
      "rush": 2050,
      "sse": 2051,
      "sal": 2052,
      "tam": 2053,
      "wond": 2054,
      "llo": 2055,
      "ater": 2056,
      "ont": 2057,
      "top": 2058,
      "hap": 2059,
      "ley": 2060,
      "leep": 2061,
      "itch": 2062,
      "beha": 2063,
      "ens": 2064,
      "asure": 2065,
      "dec": 2066,
      "heri": 2067,
      "utter": 2068,
      "rot": 2069,
      "alth": 2070,
      "sob": 2071,
      "ool": 2072,
      "ooth": 2073,
      "add": 2074,
      "unning": 2075,
      "hole": 2076,
      "hope": 2077,
      "fil": 2078,
      "ruly": 2079,
      "sue": 2080,
      "teen": 2081,
      "appe": 2082,
      "cont": 2083,
      "bla": 2084,
      "blow": 2085,
      "pot": 2086,
      "others": 2087,
      "port": 2088,
      "promis": 2089,
      "harge": 2090,
      "AL": 2091,
      "Ap": 2092,
      "BI": 2093,
      "BUS": 2094,
      "Cer": 2095,
      "Can": 2096,
      "Che": 2097,
      "Cit": 2098,
      "CUS": 2099,
      "CUR": 2100,
      "Des": 2101,
      "Del": 2102,
      "Ep": 2103,
      "Ere": 2104,
      "Ele": 2105,
      "Fly": 2106,
      "Get": 2107,
      "Gaw": 2108,
      "Ill": 2109,
      "IAN": 2110,
      "IBU": 2111,
      "Jud": 2112,
      "KAT": 2113,
      "Lay": 2114,
      "Lie": 2115,
      "May": 2116,
      "MAR": 2117,
      "NES": 2118,
      "Par": 2119,
      "Pit": 2120,
      "Phi": 2121,
      "Ral": 2122,
      "Run": 2123,
      "Riv": 2124,
      "Su": 2125,
      "Set": 2126,
      "Ste": 2127,
      "SON": 2128,
      "SEN": 2129,
      "SER": 2130,
      "Tri": 2131,
      "Too": 2132,
      "Try": 2133,
      "Two": 2134,
      "TAM": 2135,
      "Ven": 2136,
      "YOU": 2137,
      "aught": 2138,
      "axe": 2139,
      "ber": 2140,
      "bay": 2141,
      "boo": 2142,
      "bus": 2143,
      "bune": 2144,
      "big": 2145,
      "dise": 2146,
      "elo": 2147,
      "eks": 2148,
      "fy": 2149,
      "fit": 2150,
      "fam": 2151,
      "fid": 2152,
      "flu": 2153,
      "gle": 2154,
      "gran": 2155,
      "hare": 2156,
      "harm": 2157,
      "ima": 2158,
      "kid": 2159,
      "lack": 2160,
      "lame": 2161,
      "link": 2162,
      "loud": 2163,
      "mine": 2164,
      "nay": 2165,
      "oats": 2166,
      "pow": 2167,
      "ped": 2168,
      "pear": 2169,
      "rhe": 2170,
      "rus": 2171,
      "rhy": 2172,
      "tun": 2173,
      "ument": 2174,
      "vit": 2175,
      "vas": 2176,
      "vap": 2177,
      "yal": 2178,
      "ana": 2179,
      "iner": 2180,
      "inte": 2181,
      "ors": 2182,
      "stol": 2183,
      "lla": 2184,
      "arn": 2185,
      "mend": 2186,
      "melt": 2187,
      "reme": 2188,
      "repro": 2189,
      "sey": 2190,
      "vex": 2191,
      "owes": 2192,
      "wig": 2193,
      "hire": 2194,
      "dex": 2195,
      "esy": 2196,
      "cob": 2197,
      "cox": 2198,
      "coat": 2199,
      "wet": 2200,
      "west": 2201,
      "asting": 2202,
      "sop": 2203,
      "ram": 2204,
      "rail": 2205,
      "urb": 2206,
      "ury": 2207,
      "hob": 2208,
      "butto": 2209,
      "rub": 2210,
      "board": 2211,
      "ffer": 2212,
      "tic": 2213,
      "sio": 2214,
      "six": 2215,
      "wash": 2216,
      "aph": 2217,
      "anted": 2218,
      "ames": 2219,
      "pox": 2220,
      "scar": 2221,
      "Beg": 2222,
      "braw": 2223,
      "tells": 2224,
      "pip": 2225,
      "exc": 2226,
      "vile": 2227,
      "viol": 2228,
      "Ask": 2229,
      "lux": 2230,
      "luck": 2231,
      "Pew": 2232,
      "lays": 2233,
      "natur": 2234,
      "tsy": 2235,
      "INA": 2236,
      "TIO": 2237,
      "TIS": 2238,
      "cape": 2239,
      "kna": 2240,
      "stock": 2241,
      "piti": 2242,
      "UCH": 2243,
      "sky": 2244,
      "ILD": 2245,
      "trot": 2246,
      "title": 2247,
      "shoe": 2248,
      "nail": 2249,
      "ostess": 2250,
      "ORA": 2251,
      "ORS": 2252,
      "rupt": 2253,
      "mourn": 2254,
      "RST": 2255,
      "LLO": 2256,
      "Adie": 2257,
      "Alar": 2258,
      "Alas": 2259,
      "Con": 2260,
      "Cas": 2261,
      "Chir": 2262,
      "Dow": 2263,
      "Dra": 2264,
      "Dear": 2265,
      "Dame": 2266,
      "Dead": 2267,
      "East": 2268,
      "Emb": 2269,
      "Else": 2270,
      "Each": 2271,
      "Five": 2272,
      "Face": 2273,
      "Gab": 2274,
      "Hall": 2275,
      "Home": 2276,
      "Have": 2277,
      "Hark": 2278,
      "High": 2279,
      "HER": 2280,
      "Hang": 2281,
      "Help": 2282,
      "June": 2283,
      "Know": 2284,
      "Kend": 2285,
      "Knock": 2286,
      "Keep": 2287,
      "Lat": 2288,
      "Lead": 2289,
      "Mon": 2290,
      "Mome": 2291,
      "Mark": 2292,
      "Nell": 2293,
      "Othe": 2294,
      "Pol": 2295,
      "Rend": 2296,
      "Read": 2297,
      "Send": 2298,
      "Sear": 2299,
      "Shor": 2300,
      "Sure": 2301,
      "Stri": 2302,
      "Shir": 2303,
      "Sung": 2304,
      "Tend": 2305,
      "Tart": 2306,
      "Temp": 2307,
      "Tues": 2308,
      "West": 2309,
      "Wilt": 2310,
      "aqua": 2311,
      "ball": 2312,
      "bass": 2313,
      "brid": 2314,
      "cand": 2315,
      "cad": 2316,
      "care": 2317,
      "cred": 2318,
      "cles": 2319,
      "cree": 2320,
      "clay": 2321,
      "crop": 2322,
      "cuff": 2323,
      "dark": 2324,
      "dish": 2325,
      "danc": 2326,
      "dren": 2327,
      "emper": 2328,
      "fun": 2329,
      "fill": 2330,
      "food": 2331,
      "fant": 2332,
      "furn": 2333,
      "fish": 2334,
      "hark": 2335,
      "igo": 2336,
      "iot": 2337,
      "jure": 2338,
      "knot": 2339,
      "knew": 2340,
      "mart": 2341,
      "mity": 2342,
      "mask": 2343,
      "malt": 2344,
      "miry": 2345,
      "nance": 2346,
      "oath": 2347,
      "ople": 2348,
      "oily": 2349,
      "pill": 2350,
      "pap": 2351,
      "pure": 2352,
      "press": 2353,
      "puts": 2354,
      "pink": 2355,
      "san": 2356,
      "sat": 2357,
      "sam": 2358,
      "same": 2359,
      "sway": 2360,
      "slow": 2361,
      "snat": 2362,
      "sapp": 2363,
      "salt": 2364,
      "soft": 2365,
      "sadd": 2366,
      "twas": 2367,
      "tty": 2368,
      "trop": 2369,
      "task": 2370,
      "vain": 2371,
      "wand": 2372,
      "won": 2373,
      "wall": 2374,
      "wast": 2375,
      "went": 2376,
      "wise": 2377,
      "wars": 2378,
      "wine": 2379,
      "wish": 2380,
      "wret": 2381,
      "yr": 2382,
      "yok": 2383,
      "thri": 2384,
      "thaw": 2385,
      "erly": 2386,
      "ergo": 2387,
      "anon": 2388,
      "anish": 2389,
      "insu": 2390,
      "stal": 2391,
      "stru": 2392,
      "step": 2393,
      "atly": 2394,
      "atru": 2395,
      "ises": 2396,
      "mete": 2397,
      "hein": 2398,
      "hest": 2399,
      "heal": 2400,
      "ony": 2401,
      "only": 2402,
      "rebe": 2403,
      "resc": 2404,
      "regu": 2405,
      "rebel": 2406,
      "tomb": 2407,
      "town": 2408,
      "sear": 2409,
      "seld": 2410,
      "seph": 2411,
      "hallow": 2412,
      "ofs": 2413,
      "leap": 2414,
      "legs": 2415,
      "itu": 2416,
      "ities": 2417,
      "vet": 2418,
      "vein": 2419,
      "vent": 2420,
      "bemo": 2421,
      "begu": 2422,
      "ford": 2423,
      "ense": 2424,
      "asha": 2425,
      "ayed": 2426,
      "irts": 2427,
      "ldly": 2428,
      "hies": 2429,
      "deth": 2430,
      "deer": 2431,
      "dece": 2432,
      "dete": 2433,
      "deaf": 2434,
      "lily": 2435,
      "roan": 2436,
      "robe": 2437,
      "ceed": 2438,
      "cess": 2439,
      "riel": 2440,
      "chin": 2441,
      "coin": 2442,
      "cost": 2443,
      "cook": 2444,
      "note": 2445,
      "ween": 2446,
      "weed": 2447,
      "weav": 2448,
      "webs": 2449,
      "sold": 2450,
      "sobs": 2451,
      "eta": 2452,
      "unch": 2453,
      "unex": 2454,
      "rags": 2455,
      "holi": 2456,
      "fact": 2457,
      "feet": 2458,
      "feed": 2459,
      "feel": 2460,
      "felt": 2461,
      "spru": 2462,
      "spite": 2463,
      "upper": 2464,
      "nep": 2465,
      "shut": 2466,
      "nty": 2467,
      "ntly": 2468,
      "five": 2469,
      "fies": 2470,
      "mps": 2471,
      "rule": 2472,
      "sust": 2473,
      "suck": 2474,
      "loy": 2475,
      "lopp": 2476,
      "ilty": 2477,
      "ssus": 2478,
      "bogs": 2479,
      "rant": 2480,
      "bless": 2481,
      "ffs": 2482,
      "ender": 2483,
      "tive": 2484,
      "sies": 2485,
      "sify": 2486,
      "wolf": 2487,
      "Noah": 2488,
      "appar": 2489,
      "cony": 2490,
      "horn": 2491,
      "ages": 2492,
      "ieth": 2493,
      "pose": 2494,
      "quin": 2495,
      "perfor": 2496,
      "pron": 2497,
      "runs": 2498,
      "fume": 2499,
      "epit": 2500,
      "tail": 2501,
      "mole": 2502,
      "trick": 2503,
      "bull": 2504,
      "buck": 2505,
      "sci": 2506,
      "scr": 2507,
      "mace": 2508,
      "ched": 2509,
      "each": 2510,
      "Doth": 2511,
      "Pray": 2512,
      "used": 2513,
      "pike": 2514,
      "pict": 2515,
      "div": 2516,
      "dist": 2517,
      "dies": 2518,
      "died": 2519,
      "exam": 2520,
      "imit": 2521,
      "Whom": 2522,
      "fled": 2523,
      "eys": 2524,
      "vide": 2525,
      "bary": 2526,
      "prey": 2527,
      "assur": 2528,
      "pale": 2529,
      "lude": 2530,
      "lugg": 2531,
      "sets": 2532,
      "boys": 2533,
      "baby": 2534,
      "embo": 2535,
      "obse": 2536,
      "obje": 2537,
      "foil": 2538,
      "grey": 2539,
      "ONDE": 2540,
      "lady": 2541,
      "curse": 2542,
      "North": 2543,
      "knit": 2544,
      "igno": 2545,
      "clin": 2546,
      "stop": 2547,
      "zeal": 2548,
      "joll": 2549,
      "Anon": 2550,
      "fray": 2551,
      "Thus": 2552,
      "skin": 2553,
      "bank": 2554,
      "Stay": 2555,
      "Unto": 2556,
      "TRAN": 2557,
      "amaze": 2558,
      "ounc": 2559,
      "puke": 2560,
      "tenu": 2561,
      "Adri": 2562,
      "deny": 2563,
      "lane": 2564,
      "Deme": 2565,
      "Ergo": 2566,
      "Paul": 2567,
      "Quit": 2568,
      "palm": 2569,
      "bags": 2570,
      "craft": 2571,
      "cups": 2572,
      "habit": 2573,
      "gild": 2574,
      "Engl": 2575,
      "ugly": 2576,
      "Colo": 2577,
      "dumb": 2578,
      "umph": 2579,
      "helm": 2580,
      "drops": 2581,
      "obey": 2582,
      "GMEN": 2583,
      "PETR": 2584,
      "lamp": 2585,
      "odds": 2586,
      "ALAR": 2587,
      "Epid": 2588,
      "IANA": 2589,
      "Judg": 2590,
      "Rivo": 2591,
      "SONS": 2592,
      "fidd": 2593,
      "vitx": 2594,
      "Bears": 2595,
      "Blows": 2596,
      "Could": 2597,
      "Carri": 2598,
      "Ditch": 2599,
      "Gads": 2600,
      "Greg": 2601,
      "Hence": 2602,
      "Imper": 2603,
      "Lond": 2604,
      "Money": 2605,
      "Never": 2606,
      "Right": 2607,
      "Rem": 2608,
      "Sound": 2609,
      "Seven": 2610,
      "Swart": 2611,
      "Tamor": 2612,
      "Under": 2613,
      "Would": 2614,
      "aud": 2615,
      "bour": 2616,
      "cing": 2617,
      "climb": 2618,
      "flie": 2619,
      "fowls": 2620,
      "hours": 2621,
      "honey": 2622,
      "harms": 2623,
      "iers": 2624,
      "jacks": 2625,
      "jills": 2626,
      "lards": 2627,
      "marry": 2628,
      "mercy": 2629,
      "nate": 2630,
      "pass": 2631,
      "patch": 2632,
      "pouch": 2633,
      "sitt": 2634,
      "skill": 2635,
      "scold": 2636,
      "sconce": 2637,
      "scept": 2638,
      "tread": 2639,
      "trave": 2640,
      "taste": 2641,
      "tames": 2642,
      "under": 2643,
      "uries": 2644,
      "waf": 2645,
      "warri": 2646,
      "wheel": 2647,
      "waded": 2648,
      "water": 2649,
      "thim": 2650,
      "ering": 2651,
      "eral": 2652,
      "error": 2653,
      "oured": 2654,
      "anci": 2655,
      "inhu": 2656,
      "incar": 2657,
      "stood": 2658,
      "stout": 2659,
      "stark": 2660,
      "stars": 2661,
      "state": 2662,
      "store": 2663,
      "stiff": 2664,
      "stum": 2665,
      "stret": 2666,
      "stool": 2667,
      "attra": 2668,
      "arras": 2669,
      "armed": 2670,
      "isons": 2671,
      "metal": 2672,
      "heark": 2673,
      "hears": 2674,
      "heigh": 2675,
      "respe": 2676,
      "reign": 2677,
      "today": 2678,
      "seven": 2679,
      "leges": 2680,
      "learn": 2681,
      "iture": 2682,
      "itory": 2683,
      "best": 2684,
      "behe": 2685,
      "become": 2686,
      "beads": 2687,
      "owest": 2688,
      "owell": 2689,
      "forso": 2690,
      "ensue": 2691,
      "hires": 2692,
      "desir": 2693,
      "demon": 2694,
      "utes": 2695,
      "lions": 2696,
      "limbo": 2697,
      "liber": 2698,
      "royal": 2699,
      "cease": 2700,
      "cels": 2701,
      "hatch": 2702,
      "coats": 2703,
      "along": 2704,
      "aloof": 2705,
      "welf": 2706,
      "terms": 2707,
      "asted": 2708,
      "akbag": 2709,
      "adise": 2710,
      "adorn": 2711,
      "unyok": 2712,
      "ragg": 2713,
      "manes": 2714,
      "verse": 2715,
      "among": 2716,
      "amiss": 2717,
      "hoofs": 2718,
      "shad": 2719,
      "shake": 2720,
      "shape": 2721,
      "doing": 2722,
      "dozen": 2723,
      "idiot": 2724,
      "worms": 2725,
      "fears": 2726,
      "fewer": 2727,
      "spraw": 2728,
      "sport": 2729,
      "aint": 2730,
      "share": 2731,
      "shown": 2732,
      "fifty": 2733,
      "ruffi": 2734,
      "sume": 2735,
      "suers": 2736,
      "going": 2737,
      "gobl": 2738,
      "lover": 2739,
      "iling": 2740,
      "ility": 2741,
      "morel": 2742,
      "bles": 2743,
      "timer": 2744,
      "tions": 2745,
      "teeth": 2746,
      "sion": 2747,
      "hound": 2748,
      "goods": 2749,
      "Noble": 2750,
      "miles": 2751,
      "apper": 2752,
      "knows": 2753,
      "breth": 2754,
      "trust": 2755,
      "aglet": 2756,
      "agate": 2757,
      "Foret": 2758,
      "black": 2759,
      "blown": 2760,
      "blust": 2761,
      "blows": 2762,
      "blush": 2763,
      "amend": 2764,
      "ells": 2765,
      "letter": 2766,
      "tooth": 2767,
      "ases": 2768,
      "pling": 2769,
      "pluck": 2770,
      "poses": 2771,
      "Exped": 2772,
      "quity": 2773,
      "quick": 2774,
      "queen": 2775,
      "quilt": 2776,
      "glitt": 2777,
      "prise": 2778,
      "devis": 2779,
      "peace": 2780,
      "stabs": 2781,
      "fusti": 2782,
      "given": 2783,
      "gives": 2784,
      "msday": 2785,
      "mother": 2786,
      "calls": 2787,
      "mayst": 2788,
      "trial": 2789,
      "tripe": 2790,
      "scour": 2791,
      "scath": 2792,
      "scars": 2793,
      "scene": 2794,
      "scape": 2795,
      "swept": 2796,
      "broil": 2797,
      "brook": 2798,
      "sabel": 2799,
      "grain": 2800,
      "guess": 2801,
      "guine": 2802,
      "Heigh": 2803,
      "cheth": 2804,
      "cheap": 2805,
      "itten": 2806,
      "Being": 2807,
      "Proud": 2808,
      "purge": 2809,
      "brain": 2810,
      "brawn": 2811,
      "garter": 2812,
      "garly": 2813,
      "turns": 2814,
      "grand": 2815,
      "grass": 2816,
      "piest": 2817,
      "dials": 2818,
      "exch": 2819,
      "extre": 2820,
      "explo": 2821,
      "carve": 2822,
      "clear": 2823,
      "pride": 2824,
      "prize": 2825,
      "privy": 2826,
      "lords": 2827,
      "viour": 2828,
      "viole": 2829,
      "paces": 2830,
      "armad": 2831,
      "minds": 2832,
      "holds": 2833,
      "plays": 2834,
      "brush": 2835,
      "civil": 2836,
      "Peter": 2837,
      "chase": 2838,
      "chalk": 2839,
      "sland": 2840,
      "sleek": 2841,
      "enemy": 2842,
      "bands": 2843,
      "hangs": 2844,
      "falls": 2845,
      "ulars": 2846,
      "green": 2847,
      "month": 2848,
      "curst": 2849,
      "disgu": 2850,
      "ouds": 2851,
      "grime": 2852,
      "griev": 2853,
      "lands": 2854,
      "appear": 2855,
      "lasts": 2856,
      "souls": 2857,
      "walks": 2858,
      "stays": 2859,
      "fully": 2860,
      "mands": 2861,
      "drown": 2862,
      "clink": 2863,
      "ustry": 2864,
      "spoil": 2865,
      "miny": 2866,
      "ATORS": 2867,
      "above": 2868,
      "dden": 2869,
      "super": 2870,
      "cries": 2871,
      "cried": 2872,
      "promise": 2873,
      "heels": 2874,
      "keeps": 2875,
      "wants": 2876,
      "front": 2877,
      "Thurs": 2878,
      "March": 2879,
      "flood": 2880,
      "flame": 2881,
      "Roder": 2882,
      "banish": 2883,
      "sworn": 2884,
      "Uncle": 2885,
      "ENTIO": 2886,
      "TRIBU": 2887,
      "ickly": 2888,
      "troth": 2889,
      "Spain": 2890,
      "Spake": 2891,
      "Scots": 2892,
      "knees": 2893,
      "durst": 2894,
      "digal": 2895,
      "Lends": 2896,
      "marks": 2897,
      "needs": 2898,
      "GOTHS": 2899,
      "draws": 2900,
      "frost": 2901,
      "shoes": 2902,
      "those": 2903,
      "nails": 2904,
      "pumps": 2905,
      "vaunt": 2906,
      "strew": 2907,
      "colour": 2908,
      "nobly": 2909,
      "false": 2910,
      "signs": 2911,
      "Death": 2912,
      "Error": 2913,
      "fares": 2914,
      "smoke": 2915,
      "grows": 2916,
      "pinch": 2917,
      "palpa": 2918,
      "weary": 2919,
      "Didst": 2920,
      "Titan": 2921,
      "Titus": 2922,
      "VINIA": 2923,
      "bawdy": 2924,
      "bawds": 2925,
      "judges": 2926,
      "pupil": 2927,
      "Break": 2928,
      "bunes": 2929,
      "lusty": 2930,
      "finger": 2931,
      "weapon": 2932,
      "weeps": 2933,
      "sully": 2934,
      "whene": 2935,
      "whist": 2936,
      "mists": 2937,
      "Holla": 2938,
      "twain": 2939,
      "march": 2940,
      "swoll": 2941,
      "choly": 2942,
      "burst": 2943,
      "cream": 2944,
      "quiet": 2945,
      "globe": 2946,
      "drive": 2947,
      "slide": 2948,
      "CHILD": 2949,
      "Impri": 2950,
      "Blunt": 2951,
      "FIRST": 2952,
      "Hybla": 2953,
      "bruis": 2954,
      "hutch": 2955,
      "jades": 2956,
      "ssess": 2957,
      "salve": 2958,
      "Delay": 2959,
      "Ralph": 2960,
      "Steps": 2961,
      "boots": 2962,
      "eloqu": 2963,
      "image": 2964,
      "pearl": 2965,
      "rheum": 2966,
      "rhyme": 2967,
      "UCHIO": 2968,
      "Adieu": 2969,
      "Latin": 2970,
      "Shore": 2971,
      "candy": 2972,
      "satis": 2973,
      "atrum": 2974,
      "metey": 2975,
      "Charge": 2976,
      "Darest": 2977,
      "Either": 2978,
      "Father": 2979,
      "Kather": 2980,
      "Kisses": 2981,
      "Lastly": 2982,
      "Sconce": 2983,
      "alight": 2984,
      "bought": 2985,
      "batter": 2986,
      "bright": 2987,
      "borrow": 2988,
      "fford": 2989,
      "gled": 2990,
      "knight": 2991,
      "kisses": 2992,
      "mutter": 2993,
      "riseth": 2994,
      "slight": 2995,
      "tender": 2996,
      "threat": 2997,
      "erent": 2998,
      "inches": 2999
    },
    "merges": [
      [
        "t",
        "h"
      ],
      [
        "e",
        "r"
      ],
      [
        "o",
        "u"
      ],
      [
        "a",
        "n"
      ],
      [
        "i",
        "n"
      ],
      [
        "th",
        "e"
      ],
      [
        "o",
        "r"
      ],
      [
        "s",
        "t"
      ],
      [
        "l",
        "l"
      ],
      [
        "a",
        "t"
      ],
      [
        "a",
        "r"
      ],
      [
        "i",
        "s"
      ],
      [
        "an",
        "d"
      ],
      [
        "m",
        "e"
      ],
      [
        "h",
        "e"
      ],
      [
        "o",
        "n"
      ],
      [
        "r",
        "e"
      ],
      [
        "t",
        "o"
      ],
      [
        "n",
        "o"
      ],
      [
        "s",
        "e"
      ],
      [
        "h",
        "a"
      ],
      [
        "o",
        "f"
      ],
      [
        "l",
        "e"
      ],
      [
        "i",
        "t"
      ],
      [
        "v",
        "e"
      ],
      [
        "y",
        "ou"
      ],
      [
        "b",
        "e"
      ],
      [
        "o",
        "w"
      ],
      [
        "w",
        "i"
      ],
      [
        "f",
        "or"
      ],
      [
        "e",
        "n"
      ],
      [
        "a",
        "s"
      ],
      [
        "a",
        "y"
      ],
      [
        "in",
        "g"
      ],
      [
        "i",
        "r"
      ],
      [
        "l",
        "d"
      ],
      [
        "m",
        "y"
      ],
      [
        "h",
        "i"
      ],
      [
        "d",
        "e"
      ],
      [
        "h",
        "er"
      ],
      [
        "u",
        "t"
      ],
      [
        "l",
        "i"
      ],
      [
        "r",
        "o"
      ],
      [
        "th",
        "ou"
      ],
      [
        "n",
        "d"
      ],
      [
        "th",
        "at"
      ],
      [
        "c",
        "e"
      ],
      [
        "h",
        "at"
      ],
      [
        "r",
        "i"
      ],
      [
        "c",
        "h"
      ],
      [
        "e",
        "s"
      ],
      [
        "c",
        "o"
      ],
      [
        "no",
        "t"
      ],
      [
        "a",
        "l"
      ],
      [
        "w",
        "e"
      ],
      [
        "th",
        "er"
      ],
      [
        "c",
        "k"
      ],
      [
        "h",
        "is"
      ],
      [
        "t",
        "er"
      ],
      [
        "g",
        "h"
      ],
      [
        "wi",
        "th"
      ],
      [
        "a",
        "ll"
      ],
      [
        "ou",
        "r"
      ],
      [
        "a",
        "st"
      ],
      [
        "s",
        "o"
      ],
      [
        "e",
        "t"
      ],
      [
        "o",
        "o"
      ],
      [
        "a",
        "k"
      ],
      [
        "e",
        "d"
      ],
      [
        "a",
        "d"
      ],
      [
        "u",
        "n"
      ],
      [
        "hi",
        "m"
      ],
      [
        "A",
        "nd"
      ],
      [
        "th",
        "y"
      ],
      [
        "r",
        "a"
      ],
      [
        "u",
        "r"
      ],
      [
        "m",
        "an"
      ],
      [
        "v",
        "er"
      ],
      [
        "her",
        "e"
      ],
      [
        "a",
        "m"
      ],
      [
        "th",
        "is"
      ],
      [
        "ou",
        "ld"
      ],
      [
        "h",
        "o"
      ],
      [
        "the",
        "e"
      ],
      [
        "b",
        "ut"
      ],
      [
        "s",
        "ha"
      ],
      [
        "gh",
        "t"
      ],
      [
        "d",
        "o"
      ],
      [
        "ar",
        "e"
      ],
      [
        "f",
        "a"
      ],
      [
        "i",
        "d"
      ],
      [
        "s",
        "ir"
      ],
      [
        "wi",
        "ll"
      ],
      [
        "no",
        "w"
      ],
      [
        "ha",
        "ve"
      ],
      [
        "T",
        "he"
      ],
      [
        "l",
        "y"
      ],
      [
        "w",
        "or"
      ],
      [
        "f",
        "e"
      ],
      [
        "s",
        "p"
      ],
      [
        "u",
        "p"
      ],
      [
        "u",
        "s"
      ],
      [
        "n",
        "e"
      ],
      [
        "you",
        "r"
      ],
      [
        "a",
        "in"
      ],
      [
        "on",
        "e"
      ],
      [
        "i",
        "ll"
      ],
      [
        "ro",
        "m"
      ],
      [
        "sha",
        "ll"
      ],
      [
        "s",
        "h"
      ],
      [
        "oo",
        "d"
      ],
      [
        "h",
        "y"
      ],
      [
        "co",
        "me"
      ],
      [
        "W",
        "hat"
      ],
      [
        "n",
        "t"
      ],
      [
        "f",
        "i"
      ],
      [
        "b",
        "y"
      ],
      [
        "ak",
        "e"
      ],
      [
        "g",
        "e"
      ],
      [
        "m",
        "p"
      ],
      [
        "r",
        "u"
      ],
      [
        "ast",
        "er"
      ],
      [
        "s",
        "u"
      ],
      [
        "a",
        "ck"
      ],
      [
        "f",
        "rom"
      ],
      [
        "g",
        "o"
      ],
      [
        "l",
        "o"
      ],
      [
        "r",
        "y"
      ],
      [
        "i",
        "l"
      ],
      [
        "s",
        "s"
      ],
      [
        "b",
        "o"
      ],
      [
        "th",
        "in"
      ],
      [
        "er",
        "e"
      ],
      [
        "the",
        "y"
      ],
      [
        "m",
        "or"
      ],
      [
        "m",
        "u"
      ],
      [
        "ou",
        "s"
      ],
      [
        "s",
        "he"
      ],
      [
        "ar",
        "d"
      ],
      [
        "r",
        "an"
      ],
      [
        "b",
        "le"
      ],
      [
        "f",
        "f"
      ],
      [
        "en",
        "d"
      ],
      [
        "t",
        "i"
      ],
      [
        "k",
        "e"
      ],
      [
        "ow",
        "n"
      ],
      [
        "a",
        "w"
      ],
      [
        "se",
        "e"
      ],
      [
        "t",
        "e"
      ],
      [
        "en",
        "t"
      ],
      [
        "a",
        "th"
      ],
      [
        "s",
        "i"
      ],
      [
        "h",
        "ow"
      ],
      [
        "h",
        "ou"
      ],
      [
        "w",
        "o"
      ],
      [
        "he",
        "n"
      ],
      [
        "ar",
        "t"
      ],
      [
        "in",
        "d"
      ],
      [
        "s",
        "ay"
      ],
      [
        "on",
        "g"
      ],
      [
        "W",
        "hy"
      ],
      [
        "B",
        "ut"
      ],
      [
        "o",
        "me"
      ],
      [
        "e",
        "st"
      ],
      [
        "l",
        "f"
      ],
      [
        "T",
        "hat"
      ],
      [
        "w",
        "as"
      ],
      [
        "a",
        "ve"
      ],
      [
        "the",
        "m"
      ],
      [
        "g",
        "ood"
      ],
      [
        "N",
        "o"
      ],
      [
        "m",
        "i"
      ],
      [
        "i",
        "ve"
      ],
      [
        "e",
        "ver"
      ],
      [
        "G",
        "o"
      ],
      [
        "ou",
        "nd"
      ],
      [
        "we",
        "ll"
      ],
      [
        "w",
        "ould"
      ],
      [
        "e",
        "ar"
      ],
      [
        "a",
        "p"
      ],
      [
        "k",
        "now"
      ],
      [
        "for",
        "e"
      ],
      [
        "the",
        "ir"
      ],
      [
        "w",
        "hat"
      ],
      [
        "b",
        "re"
      ],
      [
        "c",
        "on"
      ],
      [
        "h",
        "or"
      ],
      [
        "d",
        "ay"
      ],
      [
        "e",
        "l"
      ],
      [
        "m",
        "aster"
      ],
      [
        "i",
        "f"
      ],
      [
        "l",
        "t"
      ],
      [
        "d",
        "id"
      ],
      [
        "t",
        "ru"
      ],
      [
        "an",
        "t"
      ],
      [
        "sh",
        "ould"
      ],
      [
        "th",
        "ing"
      ],
      [
        "a",
        "g"
      ],
      [
        "I",
        "f"
      ],
      [
        "fa",
        "ther"
      ],
      [
        "wor",
        "d"
      ],
      [
        "ur",
        "n"
      ],
      [
        "F",
        "or"
      ],
      [
        "m",
        "ake"
      ],
      [
        "ha",
        "th"
      ],
      [
        "i",
        "e"
      ],
      [
        "b",
        "l"
      ],
      [
        "ther",
        "e"
      ],
      [
        "r",
        "ow"
      ],
      [
        "ou",
        "t"
      ],
      [
        "a",
        "me"
      ],
      [
        "the",
        "n"
      ],
      [
        "n",
        "ter"
      ],
      [
        "li",
        "ke"
      ],
      [
        "w",
        "ere"
      ],
      [
        "se",
        "lf"
      ],
      [
        "e",
        "ll"
      ],
      [
        "le",
        "t"
      ],
      [
        "es",
        "s"
      ],
      [
        "to",
        "o"
      ],
      [
        "a",
        "se"
      ],
      [
        "th",
        "an"
      ],
      [
        "w",
        "hen"
      ],
      [
        "p",
        "l"
      ],
      [
        "p",
        "o"
      ],
      [
        "E",
        "x"
      ],
      [
        "q",
        "u"
      ],
      [
        "g",
        "l"
      ],
      [
        "p",
        "er"
      ],
      [
        "an",
        "y"
      ],
      [
        "me",
        "n"
      ],
      [
        "p",
        "r"
      ],
      [
        "u",
        "re"
      ],
      [
        "o",
        "ld"
      ],
      [
        "de",
        "v"
      ],
      [
        "T",
        "hou"
      ],
      [
        "mor",
        "e"
      ],
      [
        "F",
        "ran"
      ],
      [
        "ha",
        "st"
      ],
      [
        "up",
        "on"
      ],
      [
        "hor",
        "se"
      ],
      [
        "p",
        "e"
      ],
      [
        "st",
        "a"
      ],
      [
        "re",
        "d"
      ],
      [
        "t",
        "is"
      ],
      [
        "c",
        "is"
      ],
      [
        "r",
        "un"
      ],
      [
        "f",
        "u"
      ],
      [
        "in",
        "ce"
      ],
      [
        "g",
        "ive"
      ],
      [
        "ar",
        "ry"
      ],
      [
        "mu",
        "st"
      ],
      [
        "re",
        "ss"
      ],
      [
        "come",
        "s"
      ],
      [
        "e",
        "p"
      ],
      [
        "or",
        "d"
      ],
      [
        "T",
        "o"
      ],
      [
        "c",
        "t"
      ],
      [
        "m",
        "s"
      ],
      [
        "Fran",
        "cis"
      ],
      [
        "m",
        "b"
      ],
      [
        "c",
        "an"
      ],
      [
        "sp",
        "e"
      ],
      [
        "t",
        "a"
      ],
      [
        "m",
        "o"
      ],
      [
        "re",
        "at"
      ],
      [
        "J",
        "ack"
      ],
      [
        "T",
        "his"
      ],
      [
        "c",
        "all"
      ],
      [
        "li",
        "fe"
      ],
      [
        "ti",
        "me"
      ],
      [
        "m",
        "ay"
      ],
      [
        "E",
        "nter"
      ],
      [
        "w",
        "here"
      ],
      [
        "c",
        "y"
      ],
      [
        "i",
        "ght"
      ],
      [
        "t",
        "ri"
      ],
      [
        "ve",
        "s"
      ],
      [
        "f",
        "ri"
      ],
      [
        "b",
        "u"
      ],
      [
        "he",
        "ad"
      ],
      [
        "h",
        "and"
      ],
      [
        "er",
        "cy"
      ],
      [
        "se",
        "nt"
      ],
      [
        "fi",
        "re"
      ],
      [
        "l",
        "ong"
      ],
      [
        "dev",
        "il"
      ],
      [
        "thin",
        "k"
      ],
      [
        "s",
        "c"
      ],
      [
        "p",
        "ro"
      ],
      [
        "s",
        "we"
      ],
      [
        "b",
        "ro"
      ],
      [
        "W",
        "i"
      ],
      [
        "w",
        "ho"
      ],
      [
        "s",
        "a"
      ],
      [
        "is",
        "e"
      ],
      [
        "H",
        "ow"
      ],
      [
        "S",
        "ir"
      ],
      [
        "t",
        "wo"
      ],
      [
        "Go",
        "d"
      ],
      [
        "l",
        "a"
      ],
      [
        "re",
        "st"
      ],
      [
        "hi",
        "ch"
      ],
      [
        "mu",
        "ch"
      ],
      [
        "P",
        "ercy"
      ],
      [
        "T",
        "here"
      ],
      [
        "de",
        "ath"
      ],
      [
        "fri",
        "end"
      ],
      [
        "ve",
        "n"
      ],
      [
        "er",
        "s"
      ],
      [
        "le",
        "s"
      ],
      [
        "h",
        "u"
      ],
      [
        "M",
        "y"
      ],
      [
        "m",
        "a"
      ],
      [
        "g",
        "ra"
      ],
      [
        "F",
        "al"
      ],
      [
        "ar",
        "k"
      ],
      [
        "ar",
        "s"
      ],
      [
        "re",
        "ad"
      ],
      [
        "aw",
        "ay"
      ],
      [
        "i",
        "ous"
      ],
      [
        "m",
        "at"
      ],
      [
        "ag",
        "ain"
      ],
      [
        "sta",
        "ff"
      ],
      [
        "spe",
        "ak"
      ],
      [
        "Wi",
        "thin"
      ],
      [
        "me",
        "nt"
      ],
      [
        "o",
        "l"
      ],
      [
        "g",
        "u"
      ],
      [
        "H",
        "e"
      ],
      [
        "Fal",
        "staff"
      ],
      [
        "f",
        "t"
      ],
      [
        "in",
        "e"
      ],
      [
        "st",
        "ress"
      ],
      [
        "at",
        "e"
      ],
      [
        ".",
        "]"
      ],
      [
        "B",
        "y"
      ],
      [
        "J",
        "o"
      ],
      [
        "c",
        "he"
      ],
      [
        "i",
        "on"
      ],
      [
        "c",
        "lo"
      ],
      [
        "N",
        "ow"
      ],
      [
        "s",
        "er"
      ],
      [
        "y",
        "et"
      ],
      [
        "n",
        "ing"
      ],
      [
        "r",
        "ing"
      ],
      [
        "R",
        "ome"
      ],
      [
        "ll",
        "ow"
      ],
      [
        "man",
        "y"
      ],
      [
        "e",
        "a"
      ],
      [
        "li",
        "ght"
      ],
      [
        "no",
        "ck"
      ],
      [
        "bro",
        "ther"
      ],
      [
        "w",
        "er"
      ],
      [
        "D",
        "o"
      ],
      [
        "it",
        "t"
      ],
      [
        "un",
        "t"
      ],
      [
        "B",
        "e"
      ],
      [
        "h",
        "n"
      ],
      [
        "U",
        "S"
      ],
      [
        "n",
        "er"
      ],
      [
        "P",
        "r"
      ],
      [
        "li",
        "e"
      ],
      [
        "p",
        "ur"
      ],
      [
        "de",
        "ed"
      ],
      [
        "b",
        "ra"
      ],
      [
        "d",
        "am"
      ],
      [
        "f",
        "oo"
      ],
      [
        "p",
        "le"
      ],
      [
        "ha",
        "d"
      ],
      [
        "g",
        "ar"
      ],
      [
        "an",
        "s"
      ],
      [
        "a",
        "f"
      ],
      [
        "te",
        "ll"
      ],
      [
        "t",
        "urn"
      ],
      [
        "our",
        "s"
      ],
      [
        "W",
        "ell"
      ],
      [
        "k",
        "ill"
      ],
      [
        "fa",
        "ir"
      ],
      [
        "tru",
        "e"
      ],
      [
        "Ex",
        "it"
      ],
      [
        "Jo",
        "hn"
      ],
      [
        "it",
        "y"
      ],
      [
        "is",
        "h"
      ],
      [
        "c",
        "ould"
      ],
      [
        "st",
        "and"
      ],
      [
        "no",
        "ble"
      ],
      [
        "ne",
        "ver"
      ],
      [
        "ou",
        "l"
      ],
      [
        "M",
        "aster"
      ],
      [
        "my",
        "self"
      ],
      [
        "k",
        "nock"
      ],
      [
        "su",
        "ch"
      ],
      [
        "friend",
        "s"
      ],
      [
        "f",
        "at"
      ],
      [
        "g",
        "r"
      ],
      [
        "t",
        "ake"
      ],
      [
        "u",
        "se"
      ],
      [
        "p",
        "i"
      ],
      [
        "d",
        "i"
      ],
      [
        "c",
        "ou"
      ],
      [
        "w",
        "ay"
      ],
      [
        "e",
        "x"
      ],
      [
        "A",
        "y"
      ],
      [
        "i",
        "m"
      ],
      [
        "in",
        "s"
      ],
      [
        "de",
        "s"
      ],
      [
        "l",
        "p"
      ],
      [
        "re",
        "e"
      ],
      [
        "c",
        "ar"
      ],
      [
        "c",
        "le"
      ],
      [
        "l",
        "oo"
      ],
      [
        "W",
        "ho"
      ],
      [
        "p",
        "ri"
      ],
      [
        "hi",
        "p"
      ],
      [
        "a",
        "ge"
      ],
      [
        "so",
        "me"
      ],
      [
        "f",
        "le"
      ],
      [
        "j",
        "est"
      ],
      [
        "l",
        "ord"
      ],
      [
        "n",
        "ame"
      ],
      [
        "mp",
        "er"
      ],
      [
        "e",
        "y"
      ],
      [
        "ou",
        "ght"
      ],
      [
        "M",
        "arry"
      ],
      [
        "W",
        "here"
      ],
      [
        "g",
        "reat"
      ],
      [
        "s",
        "word"
      ],
      [
        "w",
        "hich"
      ],
      [
        "for",
        "th"
      ],
      [
        "bl",
        "ood"
      ],
      [
        "be",
        "ast"
      ],
      [
        "bre",
        "ak"
      ],
      [
        "o",
        "t"
      ],
      [
        "fu",
        "l"
      ],
      [
        "a",
        "c"
      ],
      [
        "are",
        "well"
      ],
      [
        "h",
        "an"
      ],
      [
        "v",
        "i"
      ],
      [
        "l",
        "ow"
      ],
      [
        "S",
        "o"
      ],
      [
        "e",
        "f"
      ],
      [
        "c",
        "al"
      ],
      [
        "A",
        "s"
      ],
      [
        "I",
        "t"
      ],
      [
        "P",
        "o"
      ],
      [
        "b",
        "ar"
      ],
      [
        "an",
        "ce"
      ],
      [
        "mi",
        "stress"
      ],
      [
        "a",
        "li"
      ],
      [
        "p",
        "re"
      ],
      [
        "i",
        "th"
      ],
      [
        "w",
        "it"
      ],
      [
        "as",
        "s"
      ],
      [
        "al",
        "k"
      ],
      [
        "L",
        "et"
      ],
      [
        "of",
        "f"
      ],
      [
        "o",
        "ther"
      ],
      [
        "C",
        "ome"
      ],
      [
        "b",
        "ack"
      ],
      [
        "f",
        "our"
      ],
      [
        "v",
        "ill"
      ],
      [
        "wi",
        "fe"
      ],
      [
        "co",
        "ld"
      ],
      [
        "co",
        "mp"
      ],
      [
        "fa",
        "ce"
      ],
      [
        "one",
        "y"
      ],
      [
        "pr",
        "ay"
      ],
      [
        "foo",
        "t"
      ],
      [
        "the",
        "se"
      ],
      [
        "hou",
        "se"
      ],
      [
        "wo",
        "man"
      ],
      [
        "read",
        "y"
      ],
      [
        "af",
        "ter"
      ],
      [
        "Pr",
        "ince"
      ],
      [
        "ut",
        "s"
      ],
      [
        "p",
        "s"
      ],
      [
        "mat",
        "ter"
      ],
      [
        "p",
        "a"
      ],
      [
        "ha",
        "ll"
      ],
      [
        "ver",
        "y"
      ],
      [
        "de",
        "ad"
      ],
      [
        "be",
        "ing"
      ],
      [
        "a",
        "v"
      ],
      [
        "t",
        "ill"
      ],
      [
        "u",
        "e"
      ],
      [
        "l",
        "s"
      ],
      [
        "s",
        "on"
      ],
      [
        "w",
        "h"
      ],
      [
        "p",
        "ar"
      ],
      [
        "l",
        "u"
      ],
      [
        "he",
        "ar"
      ],
      [
        "ar",
        "m"
      ],
      [
        "it",
        "e"
      ],
      [
        "S",
        "he"
      ],
      [
        "s",
        "aw"
      ],
      [
        "W",
        "e"
      ],
      [
        "m",
        "er"
      ],
      [
        "w",
        "en"
      ],
      [
        "or",
        "y"
      ],
      [
        "se",
        "t"
      ],
      [
        "et",
        "s"
      ],
      [
        "D",
        "ou"
      ],
      [
        "N",
        "ay"
      ],
      [
        "p",
        "en"
      ],
      [
        "ho",
        "t"
      ],
      [
        "ne",
        "w"
      ],
      [
        "bo",
        "y"
      ],
      [
        "en",
        "ce"
      ],
      [
        "B",
        "ar"
      ],
      [
        "f",
        "ind"
      ],
      [
        "l",
        "itt"
      ],
      [
        "m",
        "ind"
      ],
      [
        "n",
        "ess"
      ],
      [
        "le",
        "ss"
      ],
      [
        "be",
        "ar"
      ],
      [
        "sh",
        "ow"
      ],
      [
        "d",
        "own"
      ],
      [
        "g",
        "ent"
      ],
      [
        "th",
        "ie"
      ],
      [
        "ha",
        "ir"
      ],
      [
        "ho",
        "ld"
      ],
      [
        "pl",
        "ay"
      ],
      [
        "gl",
        "as"
      ],
      [
        "loo",
        "k"
      ],
      [
        "r",
        "ong"
      ],
      [
        "n",
        "ight"
      ],
      [
        "s",
        "ince"
      ],
      [
        "wor",
        "ld"
      ],
      [
        "thin",
        "e"
      ],
      [
        "ever",
        "y"
      ],
      [
        "swe",
        "et"
      ],
      [
        "he",
        "art"
      ],
      [
        "in",
        "k"
      ],
      [
        "be",
        "fore"
      ],
      [
        "fe",
        "llow"
      ],
      [
        "mor",
        "row"
      ],
      [
        "litt",
        "le"
      ],
      [
        "gent",
        "le"
      ],
      [
        "b",
        "r"
      ],
      [
        "b",
        "a"
      ],
      [
        "no",
        "thing"
      ],
      [
        "where",
        "in"
      ],
      [
        "Dou",
        "glas"
      ],
      [
        "e",
        "m"
      ],
      [
        "or",
        "e"
      ],
      [
        "H",
        "ere"
      ],
      [
        "c",
        "i"
      ],
      [
        "there",
        "fore"
      ],
      [
        "M",
        "a"
      ],
      [
        "t",
        "y"
      ],
      [
        "st",
        "er"
      ],
      [
        "k",
        "s"
      ],
      [
        "o",
        "b"
      ],
      [
        "P",
        "e"
      ],
      [
        "i",
        "c"
      ],
      [
        "u",
        "d"
      ],
      [
        "b",
        "s"
      ],
      [
        "p",
        "ra"
      ],
      [
        "l",
        "ay"
      ],
      [
        "c",
        "ha"
      ],
      [
        "h",
        "on"
      ],
      [
        "I",
        "n"
      ],
      [
        "L",
        "u"
      ],
      [
        "a",
        "ther"
      ],
      [
        "t",
        "ak"
      ],
      [
        "d",
        "in"
      ],
      [
        "s",
        "l"
      ],
      [
        "Ex",
        "e"
      ],
      [
        "un",
        "e"
      ],
      [
        "c",
        "la"
      ],
      [
        "s",
        "le"
      ],
      [
        "de",
        "d"
      ],
      [
        "No",
        "t"
      ],
      [
        "n",
        "at"
      ],
      [
        "be",
        "t"
      ],
      [
        "C",
        "ur"
      ],
      [
        "T",
        "hy"
      ],
      [
        "b",
        "id"
      ],
      [
        "n",
        "or"
      ],
      [
        "r",
        "as"
      ],
      [
        "w",
        "hy"
      ],
      [
        "be",
        "g"
      ],
      [
        "en",
        "e"
      ],
      [
        "i",
        "ff"
      ],
      [
        "an",
        "ge"
      ],
      [
        "fe",
        "ar"
      ],
      [
        "lp",
        "h"
      ],
      [
        "Y",
        "our"
      ],
      [
        "b",
        "and"
      ],
      [
        "b",
        "urn"
      ],
      [
        "g",
        "uts"
      ],
      [
        "ar",
        "ms"
      ],
      [
        "me",
        "et"
      ],
      [
        "be",
        "en"
      ],
      [
        "as",
        "on"
      ],
      [
        "do",
        "th"
      ],
      [
        "go",
        "ld"
      ],
      [
        "say",
        "s"
      ],
      [
        "po",
        "ck"
      ],
      [
        "mo",
        "st"
      ],
      [
        "sa",
        "id"
      ],
      [
        "che",
        "s"
      ],
      [
        "han",
        "g"
      ],
      [
        "f",
        "all"
      ],
      [
        "be",
        "at"
      ],
      [
        "pl",
        "ain"
      ],
      [
        "ch",
        "ol"
      ],
      [
        "ear",
        "th"
      ],
      [
        "E",
        "mper"
      ],
      [
        "m",
        "oney"
      ],
      [
        "le",
        "ave"
      ],
      [
        "do",
        "lph"
      ],
      [
        "pur",
        "se"
      ],
      [
        "jest",
        "y"
      ],
      [
        "Po",
        "ins"
      ],
      [
        "Exe",
        "unt"
      ],
      [
        "si",
        "ster"
      ],
      [
        "thing",
        "s"
      ],
      [
        "Cur",
        "tis"
      ],
      [
        "Ma",
        "jesty"
      ],
      [
        "Emper",
        "or"
      ],
      [
        "v",
        "ing"
      ],
      [
        "Bar",
        "dolph"
      ],
      [
        "s",
        "ack"
      ],
      [
        "t",
        "s"
      ],
      [
        "f",
        "o"
      ],
      [
        "fi",
        "e"
      ],
      [
        "u",
        "l"
      ],
      [
        "g",
        "re"
      ],
      [
        "i",
        "es"
      ],
      [
        "st",
        "e"
      ],
      [
        "m",
        "on"
      ],
      [
        "ou",
        "gh"
      ],
      [
        "i",
        "de"
      ],
      [
        "W",
        "a"
      ],
      [
        "Y",
        "ou"
      ],
      [
        "b",
        "t"
      ],
      [
        "!",
        "'"
      ],
      [
        "A",
        "R"
      ],
      [
        "I",
        "N"
      ],
      [
        "O",
        "N"
      ],
      [
        "O",
        "f"
      ],
      [
        "T",
        "I"
      ],
      [
        "is",
        "s"
      ],
      [
        "for",
        "t"
      ],
      [
        "li",
        "ve"
      ],
      [
        "l",
        "ad"
      ],
      [
        "ro",
        "b"
      ],
      [
        "ear",
        "s"
      ],
      [
        "c",
        "ur"
      ],
      [
        "d",
        "is"
      ],
      [
        "p",
        "t"
      ],
      [
        "ro",
        "p"
      ],
      [
        "c",
        "hi"
      ],
      [
        "c",
        "ap"
      ],
      [
        "d",
        "ou"
      ],
      [
        "ou",
        "d"
      ],
      [
        "in",
        "i"
      ],
      [
        "N",
        "or"
      ],
      [
        "N",
        "ed"
      ],
      [
        "S",
        "at"
      ],
      [
        "Y",
        "ea"
      ],
      [
        "g",
        "ri"
      ],
      [
        "l",
        "and"
      ],
      [
        "p",
        "ay"
      ],
      [
        "it",
        "s"
      ],
      [
        "ra",
        "h"
      ],
      [
        "e",
        "ven"
      ],
      [
        "s",
        "m"
      ],
      [
        "on",
        "s"
      ],
      [
        "o",
        "m"
      ],
      [
        "in",
        "st"
      ],
      [
        "hu",
        "m"
      ],
      [
        "cou",
        "nt"
      ],
      [
        "c",
        "a"
      ],
      [
        "ap",
        "p"
      ],
      [
        "ta",
        "le"
      ],
      [
        "l",
        "ast"
      ],
      [
        "p",
        "art"
      ],
      [
        "A",
        "dam"
      ],
      [
        "C",
        "all"
      ],
      [
        "W",
        "hen"
      ],
      [
        "b",
        "ase"
      ],
      [
        "g",
        "ave"
      ],
      [
        "h",
        "ind"
      ],
      [
        "s",
        "oul"
      ],
      [
        "v",
        "ali"
      ],
      [
        "w",
        "alk"
      ],
      [
        "in",
        "ct"
      ],
      [
        "st",
        "ay"
      ],
      [
        "on",
        "es"
      ],
      [
        "be",
        "ll"
      ],
      [
        "hi",
        "ll"
      ],
      [
        "hi",
        "le"
      ],
      [
        "ro",
        "ss"
      ],
      [
        "ch",
        "ar"
      ],
      [
        "The",
        "n"
      ],
      [
        "bo",
        "th"
      ],
      [
        "mi",
        "es"
      ],
      [
        "el",
        "se"
      ],
      [
        "run",
        "k"
      ],
      [
        "fu",
        "ll"
      ],
      [
        "ma",
        "de"
      ],
      [
        "ba",
        "ld"
      ],
      [
        "a",
        "ble"
      ],
      [
        "i",
        "ther"
      ],
      [
        "m",
        "and"
      ],
      [
        "de",
        "ar"
      ],
      [
        "wor",
        "th"
      ],
      [
        "qu",
        "ar"
      ],
      [
        "S",
        "hall"
      ],
      [
        "in",
        "ter"
      ],
      [
        "he",
        "ard"
      ],
      [
        "as",
        "ide"
      ],
      [
        "thou",
        "t"
      ],
      [
        "sha",
        "lt"
      ],
      [
        "fa",
        "ith"
      ],
      [
        "clo",
        "ck"
      ],
      [
        "fle",
        "sh"
      ],
      [
        "Wa",
        "les"
      ],
      [
        "c",
        "ious"
      ],
      [
        "ans",
        "wer"
      ],
      [
        "pra",
        "ise"
      ],
      [
        "hon",
        "our"
      ],
      [
        "with",
        "al"
      ],
      [
        "din",
        "ner"
      ],
      [
        "bet",
        "ter"
      ],
      [
        "ras",
        "cal"
      ],
      [
        "master",
        "s"
      ],
      [
        "pri",
        "thee"
      ],
      [
        "vill",
        "ain"
      ],
      [
        "thie",
        "ves"
      ],
      [
        "vali",
        "ant"
      ],
      [
        "F",
        "arewell"
      ],
      [
        "inst",
        "inct"
      ],
      [
        "co",
        "m"
      ],
      [
        "k",
        "n"
      ],
      [
        "d",
        "r"
      ],
      [
        "n",
        "y"
      ],
      [
        "g",
        "own"
      ],
      [
        "i",
        "g"
      ],
      [
        "deed",
        "s"
      ],
      [
        "c",
        "l"
      ],
      [
        "e",
        "e"
      ],
      [
        "e",
        "at"
      ],
      [
        "d",
        "y"
      ],
      [
        "n",
        "g"
      ],
      [
        "c",
        "r"
      ],
      [
        "u",
        "st"
      ],
      [
        "i",
        "o"
      ],
      [
        "i",
        "me"
      ],
      [
        "u",
        "m"
      ],
      [
        "a",
        "ce"
      ],
      [
        "d",
        "er"
      ],
      [
        "sp",
        "o"
      ],
      [
        "a",
        "b"
      ],
      [
        "in",
        "t"
      ],
      [
        "st",
        "o"
      ],
      [
        "fa",
        "c"
      ],
      [
        "z",
        "e"
      ],
      [
        "an",
        "c"
      ],
      [
        "m",
        "ad"
      ],
      [
        "u",
        "ght"
      ],
      [
        "ing",
        "s"
      ],
      [
        "m",
        "in"
      ],
      [
        "p",
        "it"
      ],
      [
        "re",
        "t"
      ],
      [
        "u",
        "ff"
      ],
      [
        "!",
        "-"
      ],
      [
        ",",
        "'"
      ],
      [
        "A",
        "T"
      ],
      [
        "A",
        "m"
      ],
      [
        "O",
        "r"
      ],
      [
        "U",
        "C"
      ],
      [
        "ow",
        "s"
      ],
      [
        "si",
        "de"
      ],
      [
        "a",
        "bo"
      ],
      [
        "g",
        "er"
      ],
      [
        "g",
        "es"
      ],
      [
        "j",
        "o"
      ],
      [
        "d",
        "ie"
      ],
      [
        "f",
        "et"
      ],
      [
        "g",
        "et"
      ],
      [
        "s",
        "hip"
      ],
      [
        "ri",
        "d"
      ],
      [
        "ter",
        "s"
      ],
      [
        "us",
        "h"
      ],
      [
        "H",
        "ot"
      ],
      [
        "S",
        "we"
      ],
      [
        "W",
        "as"
      ],
      [
        "Y",
        "et"
      ],
      [
        "c",
        "ow"
      ],
      [
        "d",
        "d"
      ],
      [
        "m",
        "ou"
      ],
      [
        "p",
        "or"
      ],
      [
        "s",
        "or"
      ],
      [
        "s",
        "un"
      ],
      [
        "s",
        "up"
      ],
      [
        "z",
        "en"
      ],
      [
        "at",
        "ch"
      ],
      [
        "ve",
        "y"
      ],
      [
        "t",
        "ain"
      ],
      [
        "at",
        "ter"
      ],
      [
        "ar",
        "ri"
      ],
      [
        "c",
        "ri"
      ],
      [
        "at",
        "s"
      ],
      [
        "ir",
        "st"
      ],
      [
        "li",
        "es"
      ],
      [
        "su",
        "re"
      ],
      [
        "te",
        "mp"
      ],
      [
        "ave",
        "n"
      ],
      [
        "G",
        "ive"
      ],
      [
        "h",
        "our"
      ],
      [
        "le",
        "st"
      ],
      [
        "ri",
        "al"
      ],
      [
        "dam",
        "n"
      ],
      [
        "A",
        "way"
      ],
      [
        "D",
        "rom"
      ],
      [
        "L",
        "av"
      ],
      [
        "S",
        "ome"
      ],
      [
        "T",
        "ell"
      ],
      [
        "T",
        "ime"
      ],
      [
        "c",
        "ame"
      ],
      [
        "c",
        "ase"
      ],
      [
        "f",
        "oul"
      ],
      [
        "h",
        "ard"
      ],
      [
        "n",
        "one"
      ],
      [
        "p",
        "rom"
      ],
      [
        "t",
        "all"
      ],
      [
        "v",
        "ant"
      ],
      [
        "er",
        "ic"
      ],
      [
        "he",
        "el"
      ],
      [
        "ha",
        "lf"
      ],
      [
        "of",
        "fi"
      ],
      [
        "le",
        "ft"
      ],
      [
        "be",
        "ef"
      ],
      [
        "wi",
        "lt"
      ],
      [
        "do",
        "or"
      ],
      [
        "do",
        "st"
      ],
      [
        "The",
        "y"
      ],
      [
        "lo",
        "st"
      ],
      [
        "ke",
        "ep"
      ],
      [
        "ey",
        "es"
      ],
      [
        "ci",
        "us"
      ],
      [
        "Pe",
        "to"
      ],
      [
        "ini",
        "a"
      ],
      [
        "w",
        "ant"
      ],
      [
        "it",
        "es"
      ],
      [
        "so",
        "on"
      ],
      [
        "ver",
        "n"
      ],
      [
        "bu",
        "ff"
      ],
      [
        "wen",
        "ch"
      ],
      [
        "cla",
        "im"
      ],
      [
        "s",
        "ound"
      ],
      [
        "t",
        "ent"
      ],
      [
        "un",
        "cle"
      ],
      [
        "ho",
        "st"
      ],
      [
        "sha",
        "me"
      ],
      [
        "si",
        "ght"
      ],
      [
        "than",
        "k"
      ],
      [
        "bra",
        "ve"
      ],
      [
        "H",
        "arry"
      ],
      [
        "W",
        "hich"
      ],
      [
        "b",
        "ound"
      ],
      [
        "w",
        "rong"
      ],
      [
        "th",
        "ree"
      ],
      [
        "me",
        "ans"
      ],
      [
        "re",
        "ver"
      ],
      [
        "you",
        "th"
      ],
      [
        "be",
        "see"
      ],
      [
        "ge",
        "ant"
      ],
      [
        "ti",
        "red"
      ],
      [
        "te",
        "ars"
      ],
      [
        "con",
        "ce"
      ],
      [
        "tru",
        "mp"
      ],
      [
        "who",
        "se"
      ],
      [
        "gra",
        "ve"
      ],
      [
        "clo",
        "se"
      ],
      [
        "pen",
        "ny"
      ],
      [
        "cha",
        "in"
      ],
      [
        "chi",
        "ld"
      ],
      [
        "thou",
        "gh"
      ],
      [
        "ar",
        "row"
      ],
      [
        "bre",
        "ath"
      ],
      [
        "pock",
        "et"
      ],
      [
        "A",
        "n"
      ],
      [
        "he",
        "aven"
      ],
      [
        "re",
        "ason"
      ],
      [
        "hi",
        "ther"
      ],
      [
        "her",
        "iff"
      ],
      [
        "aw",
        "hile"
      ],
      [
        "con",
        "vey"
      ],
      [
        "horse",
        "s"
      ],
      [
        "bu",
        "rial"
      ],
      [
        "ple",
        "ase"
      ],
      [
        "gr",
        "ound"
      ],
      [
        "Lu",
        "cius"
      ],
      [
        "beat",
        "en"
      ],
      [
        "cow",
        "ard"
      ],
      [
        "Drom",
        "io"
      ],
      [
        "li",
        "mb"
      ],
      [
        "wi",
        "thout"
      ],
      [
        "al",
        "ready"
      ],
      [
        "him",
        "self"
      ],
      [
        "run",
        "ning"
      ],
      [
        "must",
        "ard"
      ],
      [
        "cou",
        "nter"
      ],
      [
        "ene",
        "mies"
      ],
      [
        "fort",
        "une"
      ],
      [
        "Lav",
        "inia"
      ],
      [
        "besee",
        "ch"
      ],
      [
        "f",
        "arewell"
      ],
      [
        "gra",
        "cious"
      ],
      [
        "ser",
        "geant"
      ],
      [
        "brother",
        "s"
      ],
      [
        "chol",
        "eric"
      ],
      [
        "f",
        "r"
      ],
      [
        "where",
        "fore"
      ],
      [
        "ra",
        "w"
      ],
      [
        "T",
        "h"
      ],
      [
        "r",
        "t"
      ],
      [
        "hi",
        "gh"
      ],
      [
        "e",
        "ad"
      ],
      [
        "in",
        "deed"
      ],
      [
        "Go",
        "th"
      ],
      [
        "so",
        "m"
      ],
      [
        "li",
        "ps"
      ],
      [
        "c",
        "ry"
      ],
      [
        "we",
        "l"
      ],
      [
        "m",
        "is"
      ],
      [
        "y",
        "e"
      ],
      [
        "is",
        "on"
      ],
      [
        "se",
        "s"
      ],
      [
        "se",
        "l"
      ],
      [
        "M",
        "ar"
      ],
      [
        "g",
        "s"
      ],
      [
        "i",
        "gh"
      ],
      [
        "t",
        "ed"
      ],
      [
        "f",
        "l"
      ],
      [
        "R",
        "o"
      ],
      [
        "s",
        "k"
      ],
      [
        "t",
        "al"
      ],
      [
        "u",
        "gh"
      ],
      [
        "li",
        "v"
      ],
      [
        "k",
        "ing"
      ],
      [
        "o",
        "k"
      ],
      [
        "th",
        "r"
      ],
      [
        "t",
        "re"
      ],
      [
        "le",
        "ad"
      ],
      [
        "b",
        "an"
      ],
      [
        "s",
        "wor"
      ],
      [
        "re",
        "n"
      ],
      [
        "ti",
        "on"
      ],
      [
        "gu",
        "e"
      ],
      [
        "S",
        "t"
      ],
      [
        "T",
        "H"
      ],
      [
        "U",
        "n"
      ],
      [
        "d",
        "oo"
      ],
      [
        "e",
        "k"
      ],
      [
        "i",
        "ce"
      ],
      [
        "r",
        "ous"
      ],
      [
        ".",
        "'"
      ],
      [
        "E",
        "N"
      ],
      [
        "G",
        "O"
      ],
      [
        "I",
        "L"
      ],
      [
        "T",
        "R"
      ],
      [
        "U",
        "R"
      ],
      [
        "i",
        "ck"
      ],
      [
        "u",
        "lt"
      ],
      [
        "T",
        "is"
      ],
      [
        "p",
        "ie"
      ],
      [
        "t",
        "ro"
      ],
      [
        "S",
        "p"
      ],
      [
        "S",
        "co"
      ],
      [
        "U",
        "p"
      ],
      [
        "c",
        "ut"
      ],
      [
        "k",
        "ne"
      ],
      [
        "p",
        "ut"
      ],
      [
        "t",
        "it"
      ],
      [
        "on",
        "ce"
      ],
      [
        "re",
        "l"
      ],
      [
        "ce",
        "l"
      ],
      [
        "A",
        "AR"
      ],
      [
        "A",
        "rt"
      ],
      [
        "F",
        "ie"
      ],
      [
        "H",
        "is"
      ],
      [
        "I",
        "US"
      ],
      [
        "L",
        "UC"
      ],
      [
        "M",
        "i"
      ],
      [
        "O",
        "ur"
      ],
      [
        "P",
        "ea"
      ],
      [
        "S",
        "ay"
      ],
      [
        "S",
        "ee"
      ],
      [
        "T",
        "US"
      ],
      [
        "d",
        "s"
      ],
      [
        "d",
        "ut"
      ],
      [
        "g",
        "ate"
      ],
      [
        "l",
        "ar"
      ],
      [
        "st",
        "ra"
      ],
      [
        "le",
        "an"
      ],
      [
        "as",
        "k"
      ],
      [
        "am",
        "a"
      ],
      [
        "go",
        "t"
      ],
      [
        "lo",
        "se"
      ],
      [
        "wh",
        "it"
      ],
      [
        "he",
        "d"
      ],
      [
        "for",
        "m"
      ],
      [
        "ut",
        "e"
      ],
      [
        "ra",
        "ce"
      ],
      [
        "gl",
        "or"
      ],
      [
        "M",
        "any"
      ],
      [
        "b",
        "ast"
      ],
      [
        "c",
        "er"
      ],
      [
        "c",
        "our"
      ],
      [
        "d",
        "ur"
      ],
      [
        "k",
        "iss"
      ],
      [
        "r",
        "ound"
      ],
      [
        "me",
        "d"
      ],
      [
        "re",
        "co"
      ],
      [
        "ir",
        "t"
      ],
      [
        "lo",
        "ve"
      ],
      [
        "ple",
        "as"
      ],
      [
        "di",
        "g"
      ],
      [
        "H",
        "ath"
      ],
      [
        "L",
        "end"
      ],
      [
        "L",
        "ord"
      ],
      [
        "T",
        "ill"
      ],
      [
        "b",
        "ill"
      ],
      [
        "b",
        "ark"
      ],
      [
        "d",
        "one"
      ],
      [
        "d",
        "rop"
      ],
      [
        "f",
        "ast"
      ],
      [
        "g",
        "one"
      ],
      [
        "m",
        "ark"
      ],
      [
        "o",
        "pen"
      ],
      [
        "s",
        "ake"
      ],
      [
        "s",
        "ave"
      ],
      [
        "t",
        "ong"
      ],
      [
        "t",
        "alk"
      ],
      [
        "w",
        "hor"
      ],
      [
        "w",
        "arm"
      ],
      [
        "th",
        "us"
      ],
      [
        "ou",
        "ch"
      ],
      [
        "in",
        "to"
      ],
      [
        "st",
        "ri"
      ],
      [
        "me",
        "at"
      ],
      [
        "he",
        "lp"
      ],
      [
        "re",
        "de"
      ],
      [
        "re",
        "ce"
      ],
      [
        "re",
        "ck"
      ],
      [
        "hi",
        "de"
      ],
      [
        "ro",
        "om"
      ],
      [
        "nd",
        "er"
      ],
      [
        "ri",
        "ch"
      ],
      [
        "un",
        "to"
      ],
      [
        "sp",
        "ir"
      ],
      [
        "sp",
        "ur"
      ],
      [
        "ne",
        "at"
      ],
      [
        "ne",
        "ar"
      ],
      [
        "ne",
        "ed"
      ],
      [
        "bo",
        "dy"
      ],
      [
        "ble",
        "d"
      ],
      [
        "see",
        "k"
      ],
      [
        "gl",
        "ad"
      ],
      [
        "tri",
        "m"
      ],
      [
        "Sir",
        "s"
      ],
      [
        "hu",
        "nd"
      ],
      [
        "wer",
        "t"
      ],
      [
        "Do",
        "st"
      ],
      [
        "jo",
        "in"
      ],
      [
        "GO",
        "TH"
      ],
      [
        "d",
        "are"
      ],
      [
        "f",
        "ine"
      ],
      [
        "day",
        "s"
      ],
      [
        "lt",
        "ed"
      ],
      [
        "ange",
        "l"
      ],
      [
        "h",
        "one"
      ],
      [
        "th",
        "row"
      ],
      [
        "ri",
        "es"
      ],
      [
        "ri",
        "ght"
      ],
      [
        "pro",
        "ve"
      ],
      [
        "ma",
        "id"
      ],
      [
        "wh",
        "ite"
      ],
      [
        "sle",
        "ep"
      ],
      [
        "L",
        "anc"
      ],
      [
        "f",
        "ound"
      ],
      [
        "st",
        "ain"
      ],
      [
        "st",
        "ill"
      ],
      [
        "st",
        "ran"
      ],
      [
        "st",
        "uff"
      ],
      [
        "is",
        "hed"
      ],
      [
        "li",
        "ver"
      ],
      [
        "li",
        "ves"
      ],
      [
        "ro",
        "gue"
      ],
      [
        "ri",
        "des"
      ],
      [
        "es",
        "on"
      ],
      [
        "al",
        "one"
      ],
      [
        "fa",
        "ult"
      ],
      [
        "wor",
        "st"
      ],
      [
        "wor",
        "se"
      ],
      [
        "fi",
        "ght"
      ],
      [
        "mi",
        "ght"
      ],
      [
        "know",
        "n"
      ],
      [
        "if",
        "ul"
      ],
      [
        "did",
        "st"
      ],
      [
        "tru",
        "th"
      ],
      [
        "ord",
        "er"
      ],
      [
        "can",
        "st"
      ],
      [
        "head",
        "s"
      ],
      [
        "swe",
        "ar"
      ],
      [
        "gra",
        "ce"
      ],
      [
        "had",
        "st"
      ],
      [
        "kill",
        "s"
      ],
      [
        "gr",
        "own"
      ],
      [
        "cle",
        "an"
      ],
      [
        "ali",
        "ve"
      ],
      [
        "mer",
        "ry"
      ],
      [
        "tak",
        "en"
      ],
      [
        "sl",
        "ave"
      ],
      [
        "fie",
        "ld"
      ],
      [
        "ste",
        "el"
      ],
      [
        "TI",
        "TUS"
      ],
      [
        "dou",
        "bt"
      ],
      [
        "gri",
        "ef"
      ],
      [
        "ca",
        "use"
      ],
      [
        "spo",
        "on"
      ],
      [
        "ab",
        "out"
      ],
      [
        "Swe",
        "et"
      ],
      [
        "pie",
        "ce"
      ],
      [
        "AAR",
        "ON"
      ],
      [
        "Pea",
        "ce"
      ],
      [
        "g",
        "ross"
      ],
      [
        "r",
        "ites"
      ],
      [
        "con",
        "f"
      ],
      [
        "pro",
        "of"
      ],
      [
        "l",
        "ute"
      ],
      [
        "char",
        "ge"
      ],
      [
        "f",
        "ought"
      ],
      [
        "be",
        "hind"
      ],
      [
        "thou",
        "s"
      ],
      [
        "but",
        "ter"
      ],
      [
        "wor",
        "thy"
      ],
      [
        "say",
        "est"
      ],
      [
        "bre",
        "ast"
      ],
      [
        "tri",
        "fle"
      ],
      [
        "long",
        "er"
      ],
      [
        "think",
        "s"
      ],
      [
        "Sir",
        "rah"
      ],
      [
        "la",
        "ugh"
      ],
      [
        "rest",
        "ed"
      ],
      [
        "stand",
        "s"
      ],
      [
        "par",
        "cel"
      ],
      [
        "nat",
        "ure"
      ],
      [
        "lad",
        "der"
      ],
      [
        "Sat",
        "urn"
      ],
      [
        "tall",
        "ow"
      ],
      [
        "sel",
        "ves"
      ],
      [
        "reck",
        "on"
      ],
      [
        "hone",
        "st"
      ],
      [
        "st",
        "rong"
      ],
      [
        "t",
        "on"
      ],
      [
        "an",
        "other"
      ],
      [
        "thou",
        "ght"
      ],
      [
        "thy",
        "self"
      ],
      [
        "mor",
        "ning"
      ],
      [
        "again",
        "st"
      ],
      [
        "gar",
        "ment"
      ],
      [
        "pre",
        "sent"
      ],
      [
        "off",
        "ence"
      ],
      [
        "wen",
        "ches"
      ],
      [
        "br",
        "ought"
      ],
      [
        "hum",
        "ours"
      ],
      [
        "Hot",
        "spur"
      ],
      [
        "host",
        "ess"
      ],
      [
        "reco",
        "ver"
      ],
      [
        "rece",
        "ive"
      ],
      [
        "hund",
        "red"
      ],
      [
        "quar",
        "rel"
      ],
      [
        "should",
        "er"
      ],
      [
        "beast",
        "ly"
      ],
      [
        "should",
        "st"
      ],
      [
        "any",
        "thing"
      ],
      [
        "break",
        "ing"
      ],
      [
        "Mi",
        "stress"
      ],
      [
        "stra",
        "ight"
      ],
      [
        "glor",
        "ious"
      ],
      [
        "whor",
        "eson"
      ],
      [
        "thous",
        "and"
      ],
      [
        "limb",
        "s"
      ],
      [
        "p",
        "ity"
      ],
      [
        "Lanc",
        "aster"
      ],
      [
        "Saturn",
        "ine"
      ],
      [
        "he",
        "w"
      ],
      [
        "penny",
        "worth"
      ],
      [
        "n",
        "i"
      ],
      [
        "but",
        "ton"
      ],
      [
        "d",
        "raw"
      ],
      [
        "e",
        "v"
      ],
      [
        "f",
        "ro"
      ],
      [
        "i",
        "v"
      ],
      [
        "re",
        "s"
      ],
      [
        "w",
        "n"
      ],
      [
        "s",
        "ho"
      ],
      [
        "th",
        "o"
      ],
      [
        "dr",
        "ink"
      ],
      [
        "n",
        "a"
      ],
      [
        "ou",
        "n"
      ],
      [
        "F",
        "a"
      ],
      [
        "o",
        "st"
      ],
      [
        "p",
        "u"
      ],
      [
        "v",
        "a"
      ],
      [
        "se",
        "n"
      ],
      [
        "bo",
        "som"
      ],
      [
        "s",
        "in"
      ],
      [
        "t",
        "en"
      ],
      [
        "ha",
        "l"
      ],
      [
        "pr",
        "ison"
      ],
      [
        "p",
        "h"
      ],
      [
        "A",
        "d"
      ],
      [
        "E",
        "mp"
      ],
      [
        "f",
        "in"
      ],
      [
        "fe",
        "ll"
      ],
      [
        "bre",
        "a"
      ],
      [
        "pe",
        "ak"
      ],
      [
        "W",
        "el"
      ],
      [
        "g",
        "ain"
      ],
      [
        "l",
        "ain"
      ],
      [
        "w",
        "ar"
      ],
      [
        "st",
        "re"
      ],
      [
        "be",
        "l"
      ],
      [
        "ir",
        "s"
      ],
      [
        "co",
        "l"
      ],
      [
        "al",
        "t"
      ],
      [
        "ra",
        "ve"
      ],
      [
        "r",
        "on"
      ],
      [
        "no",
        "b"
      ],
      [
        "ad",
        "y"
      ],
      [
        "e",
        "mp"
      ],
      [
        "o",
        "or"
      ],
      [
        "le",
        "d"
      ],
      [
        "lo",
        "v"
      ],
      [
        "mi",
        "o"
      ],
      [
        "e",
        "ves"
      ],
      [
        "P",
        "ri"
      ],
      [
        "R",
        "e"
      ],
      [
        "b",
        "al"
      ],
      [
        "e",
        "th"
      ],
      [
        "e",
        "en"
      ],
      [
        "f",
        "al"
      ],
      [
        "k",
        "in"
      ],
      [
        "r",
        "or"
      ],
      [
        "y",
        "o"
      ],
      [
        "d",
        "en"
      ],
      [
        "i",
        "us"
      ],
      [
        "l",
        "an"
      ],
      [
        "n",
        "ed"
      ],
      [
        "he",
        "s"
      ],
      [
        "se",
        "d"
      ],
      [
        "ck",
        "s"
      ],
      [
        "il",
        "t"
      ],
      [
        "I",
        "O"
      ],
      [
        "b",
        "b"
      ],
      [
        "h",
        "ir"
      ],
      [
        "h",
        "us"
      ],
      [
        "v",
        "an"
      ],
      [
        "v",
        "al"
      ],
      [
        "si",
        "g"
      ],
      [
        "ey",
        "e"
      ],
      [
        "D",
        "e"
      ],
      [
        "E",
        "r"
      ],
      [
        "M",
        "an"
      ],
      [
        "P",
        "a"
      ],
      [
        "W",
        "al"
      ],
      [
        "c",
        "us"
      ],
      [
        "f",
        "ar"
      ],
      [
        "o",
        "ver"
      ],
      [
        "p",
        "at"
      ],
      [
        "on",
        "d"
      ],
      [
        "se",
        "a"
      ],
      [
        "il",
        "s"
      ],
      [
        "bra",
        "v"
      ],
      [
        "'",
        "?"
      ],
      [
        "A",
        "E"
      ],
      [
        "A",
        "N"
      ],
      [
        "A",
        "h"
      ],
      [
        "A",
        "t"
      ],
      [
        "E",
        "R"
      ],
      [
        "H",
        "en"
      ],
      [
        "I",
        "s"
      ],
      [
        "O",
        "R"
      ],
      [
        "Q",
        "u"
      ],
      [
        "]",
        "."
      ],
      [
        "f",
        "ol"
      ],
      [
        "l",
        "ing"
      ],
      [
        "s",
        "mo"
      ],
      [
        "w",
        "oo"
      ],
      [
        "w",
        "ard"
      ],
      [
        "at",
        "i"
      ],
      [
        "he",
        "av"
      ],
      [
        "ap",
        "e"
      ],
      [
        "P",
        "ro"
      ],
      [
        "g",
        "at"
      ],
      [
        "g",
        "row"
      ],
      [
        "l",
        "er"
      ],
      [
        "p",
        "in"
      ],
      [
        "p",
        "al"
      ],
      [
        "r",
        "up"
      ],
      [
        "t",
        "ran"
      ],
      [
        "we",
        "ar"
      ],
      [
        "ad",
        "s"
      ],
      [
        "do",
        "m"
      ],
      [
        "ne",
        "st"
      ],
      [
        "fi",
        "g"
      ],
      [
        "su",
        "m"
      ],
      [
        "new",
        "s"
      ],
      [
        "A",
        "re"
      ],
      [
        "C",
        "li"
      ],
      [
        "D",
        "id"
      ],
      [
        "G",
        "ru"
      ],
      [
        "M",
        "ut"
      ],
      [
        "M",
        "IL"
      ],
      [
        "N",
        "i"
      ],
      [
        "N",
        "IN"
      ],
      [
        "O",
        "ut"
      ],
      [
        "O",
        "ne"
      ],
      [
        "S",
        "AT"
      ],
      [
        "T",
        "it"
      ],
      [
        "V",
        "IN"
      ],
      [
        "Y",
        "es"
      ],
      [
        "a",
        "go"
      ],
      [
        "b",
        "aw"
      ],
      [
        "b",
        "ag"
      ],
      [
        "c",
        "ra"
      ],
      [
        "c",
        "up"
      ],
      [
        "d",
        "ry"
      ],
      [
        "d",
        "ag"
      ],
      [
        "d",
        "ue"
      ],
      [
        "e",
        "bb"
      ],
      [
        "f",
        "ly"
      ],
      [
        "f",
        "ru"
      ],
      [
        "g",
        "g"
      ],
      [
        "i",
        "mp"
      ],
      [
        "i",
        "ms"
      ],
      [
        "j",
        "er"
      ],
      [
        "j",
        "ud"
      ],
      [
        "k",
        "it"
      ],
      [
        "l",
        "aw"
      ],
      [
        "m",
        "our"
      ],
      [
        "m",
        "ur"
      ],
      [
        "m",
        "id"
      ],
      [
        "p",
        "es"
      ],
      [
        "p",
        "up"
      ],
      [
        "p",
        "ate"
      ],
      [
        "v",
        "ow"
      ],
      [
        "y",
        "ear"
      ],
      [
        "in",
        "j"
      ],
      [
        "se",
        "w"
      ],
      [
        "ha",
        "b"
      ],
      [
        "of",
        "t"
      ],
      [
        "be",
        "d"
      ],
      [
        "as",
        "y"
      ],
      [
        "ck",
        "ing"
      ],
      [
        "ra",
        "p"
      ],
      [
        "do",
        "g"
      ],
      [
        "fa",
        "v"
      ],
      [
        "su",
        "it"
      ],
      [
        "go",
        "d"
      ],
      [
        "see",
        "m"
      ],
      [
        "bu",
        "y"
      ],
      [
        "vi",
        "ce"
      ],
      [
        "ig",
        "n"
      ],
      [
        "B",
        "re"
      ],
      [
        "b",
        "un"
      ],
      [
        "e",
        "mi"
      ],
      [
        "i",
        "el"
      ],
      [
        "s",
        "ing"
      ],
      [
        "u",
        "ms"
      ],
      [
        "w",
        "ind"
      ],
      [
        "at",
        "ion"
      ],
      [
        "he",
        "ll"
      ],
      [
        "re",
        "g"
      ],
      [
        "de",
        "ep"
      ],
      [
        "li",
        "on"
      ],
      [
        "am",
        "b"
      ],
      [
        "id",
        "le"
      ],
      [
        "su",
        "b"
      ],
      [
        "te",
        "st"
      ],
      [
        "wo",
        "e"
      ],
      [
        "pe",
        "ct"
      ],
      [
        "ft",
        "y"
      ],
      [
        "lu",
        "st"
      ],
      [
        "doo",
        "m"
      ],
      [
        "Sco",
        "t"
      ],
      [
        "kne",
        "e"
      ],
      [
        "C",
        "ent"
      ],
      [
        "G",
        "ood"
      ],
      [
        "H",
        "old"
      ],
      [
        "L",
        "est"
      ],
      [
        "L",
        "ady"
      ],
      [
        "M",
        "ore"
      ],
      [
        "M",
        "oor"
      ],
      [
        "N",
        "ath"
      ],
      [
        "T",
        "han"
      ],
      [
        "V",
        "int"
      ],
      [
        "W",
        "ill"
      ],
      [
        "W",
        "ere"
      ],
      [
        "a",
        "ur"
      ],
      [
        "b",
        "are"
      ],
      [
        "c",
        "ast"
      ],
      [
        "c",
        "hen"
      ],
      [
        "c",
        "ure"
      ],
      [
        "d",
        "irt"
      ],
      [
        "f",
        "ing"
      ],
      [
        "f",
        "ree"
      ],
      [
        "f",
        "low"
      ],
      [
        "f",
        "irst"
      ],
      [
        "g",
        "all"
      ],
      [
        "j",
        "ust"
      ],
      [
        "k",
        "ind"
      ],
      [
        "r",
        "are"
      ],
      [
        "t",
        "ree"
      ],
      [
        "t",
        "wel"
      ],
      [
        "u",
        "es"
      ],
      [
        "w",
        "ood"
      ],
      [
        "w",
        "art"
      ],
      [
        "ar",
        "gu"
      ],
      [
        "me",
        "an"
      ],
      [
        "me",
        "ed"
      ],
      [
        "to",
        "ld"
      ],
      [
        "no",
        "on"
      ],
      [
        "no",
        "se"
      ],
      [
        "se",
        "nd"
      ],
      [
        "ha",
        "ck"
      ],
      [
        "ha",
        "ps"
      ],
      [
        "le",
        "nd"
      ],
      [
        "ow",
        "ls"
      ],
      [
        "wi",
        "pe"
      ],
      [
        "de",
        "bt"
      ],
      [
        "li",
        "st"
      ],
      [
        "li",
        "us"
      ],
      [
        "ro",
        "ar"
      ],
      [
        "ro",
        "pe"
      ],
      [
        "ri",
        "ly"
      ],
      [
        "ri",
        "bs"
      ],
      [
        "co",
        "ck"
      ],
      [
        "co",
        "mb"
      ],
      [
        "we",
        "ap"
      ],
      [
        "we",
        "ep"
      ],
      [
        "we",
        "ek"
      ],
      [
        "ther",
        "n"
      ],
      [
        "am",
        "or"
      ],
      [
        "ho",
        "me"
      ],
      [
        "sir",
        "s"
      ],
      [
        "wor",
        "k"
      ],
      [
        "fe",
        "ct"
      ],
      [
        "ne",
        "ck"
      ],
      [
        "su",
        "ll"
      ],
      [
        "go",
        "es"
      ],
      [
        "bo",
        "ld"
      ],
      [
        "bo",
        "mb"
      ],
      [
        "ard",
        "s"
      ],
      [
        "ke",
        "pt"
      ],
      [
        "si",
        "re"
      ],
      [
        "hen",
        "ce"
      ],
      [
        "bl",
        "ue"
      ],
      [
        "too",
        "k"
      ],
      [
        "po",
        "or"
      ],
      [
        "mb",
        "ly"
      ],
      [
        "mo",
        "on"
      ],
      [
        "la",
        "id"
      ],
      [
        "hu",
        "ge"
      ],
      [
        "unt",
        "s"
      ],
      [
        "ple",
        "d"
      ],
      [
        "pi",
        "le"
      ],
      [
        "way",
        "s"
      ],
      [
        "des",
        "k"
      ],
      [
        "car",
        "ri"
      ],
      [
        "cal",
        "f"
      ],
      [
        "Po",
        "or"
      ],
      [
        "pa",
        "id"
      ],
      [
        "ic",
        "us"
      ],
      [
        "Lu",
        "ce"
      ],
      [
        "rob",
        "b"
      ],
      [
        "char",
        "g"
      ],
      [
        "Up",
        "on"
      ],
      [
        "dut",
        "y"
      ],
      [
        "ama",
        "z"
      ],
      [
        "mur",
        "d"
      ],
      [
        "a",
        "ded"
      ],
      [
        "p",
        "ound"
      ],
      [
        "is",
        "ed"
      ],
      [
        "de",
        "al"
      ],
      [
        "de",
        "sp"
      ],
      [
        "ce",
        "pt"
      ],
      [
        "hat",
        "e"
      ],
      [
        "are",
        "st"
      ],
      [
        "ge",
        "st"
      ],
      [
        "ack",
        "s"
      ],
      [
        "mu",
        "lt"
      ],
      [
        "word",
        "s"
      ],
      [
        "per",
        "i"
      ],
      [
        "pr",
        "oud"
      ],
      [
        "foo",
        "l"
      ],
      [
        "pa",
        "ir"
      ],
      [
        "cap",
        "on"
      ],
      [
        "hum",
        "our"
      ],
      [
        "kn",
        "ave"
      ],
      [
        "fet",
        "ch"
      ],
      [
        "A",
        "emi"
      ],
      [
        "B",
        "ring"
      ],
      [
        "F",
        "irst"
      ],
      [
        "G",
        "race"
      ],
      [
        "S",
        "peak"
      ],
      [
        "b",
        "ring"
      ],
      [
        "b",
        "ones"
      ],
      [
        "c",
        "reat"
      ],
      [
        "c",
        "rest"
      ],
      [
        "c",
        "ross"
      ],
      [
        "c",
        "atch"
      ],
      [
        "d",
        "runk"
      ],
      [
        "e",
        "ight"
      ],
      [
        "e",
        "ither"
      ],
      [
        "m",
        "arri"
      ],
      [
        "p",
        "ard"
      ],
      [
        "t",
        "arry"
      ],
      [
        "t",
        "runk"
      ],
      [
        "t",
        "ouch"
      ],
      [
        "w",
        "ound"
      ],
      [
        "y",
        "ears"
      ],
      [
        "th",
        "ir"
      ],
      [
        "an",
        "ion"
      ],
      [
        "the",
        "ft"
      ],
      [
        "st",
        "one"
      ],
      [
        "st",
        "ory"
      ],
      [
        "is",
        "ses"
      ],
      [
        "me",
        "mor"
      ],
      [
        "re",
        "ven"
      ],
      [
        "re",
        "lie"
      ],
      [
        "to",
        "ge"
      ],
      [
        "le",
        "ast"
      ],
      [
        "it",
        "ion"
      ],
      [
        "you",
        "ng"
      ],
      [
        "be",
        "ars"
      ],
      [
        "be",
        "lie"
      ],
      [
        "en",
        "ter"
      ],
      [
        "en",
        "ess"
      ],
      [
        "li",
        "est"
      ],
      [
        "co",
        "zen"
      ],
      [
        "ho",
        "pes"
      ],
      [
        "are",
        "ll"
      ],
      [
        "id",
        "ent"
      ],
      [
        "The",
        "se"
      ],
      [
        "sp",
        "are"
      ],
      [
        "sp",
        "ake"
      ],
      [
        "sp",
        "ent"
      ],
      [
        "fi",
        "end"
      ],
      [
        "su",
        "gar"
      ],
      [
        "su",
        "its"
      ],
      [
        "ble",
        "ed"
      ],
      [
        "ti",
        "ger"
      ],
      [
        "own",
        "er"
      ],
      [
        "see",
        "ms"
      ],
      [
        "si",
        "ble"
      ],
      [
        "bre",
        "ad"
      ],
      [
        "tru",
        "ly"
      ],
      [
        "pl",
        "ace"
      ],
      [
        "po",
        "int"
      ],
      [
        "qu",
        "ite"
      ],
      [
        "gl",
        "ory"
      ],
      [
        "hast",
        "e"
      ],
      [
        "spe",
        "ed"
      ],
      [
        "ta",
        "les"
      ],
      [
        "hand",
        "s"
      ],
      [
        "sc",
        "ore"
      ],
      [
        "who",
        "le"
      ],
      [
        "sa",
        "cri"
      ],
      [
        "ise",
        "th"
      ],
      [
        "mat",
        "ch"
      ],
      [
        "ft",
        "on"
      ],
      [
        "ser",
        "ve"
      ],
      [
        "fair",
        "y"
      ],
      [
        "loo",
        "se"
      ],
      [
        "Who",
        "se"
      ],
      [
        "ot",
        "ter"
      ],
      [
        "low",
        "er"
      ],
      [
        "wit",
        "ch"
      ],
      [
        "thie",
        "f"
      ],
      [
        "br",
        "own"
      ],
      [
        "tak",
        "es"
      ],
      [
        "sl",
        "ain"
      ],
      [
        "beg",
        "in"
      ],
      [
        "mon",
        "st"
      ],
      [
        "Sat",
        "an"
      ],
      [
        "sm",
        "all"
      ],
      [
        "bell",
        "y"
      ],
      [
        "cr",
        "own"
      ],
      [
        "rid",
        "ge"
      ],
      [
        "mou",
        "th"
      ],
      [
        "mou",
        "nt"
      ],
      [
        "sor",
        "ry"
      ],
      [
        "temp",
        "t"
      ],
      [
        "offi",
        "ce"
      ],
      [
        "Ro",
        "man"
      ],
      [
        "swor",
        "e"
      ],
      [
        "St",
        "and"
      ],
      [
        "UR",
        "NIN"
      ],
      [
        "Fa",
        "ith"
      ],
      [
        "pat",
        "ed"
      ],
      [
        "AE",
        "MIL"
      ],
      [
        "Hen",
        "ry"
      ],
      [
        "fol",
        "ks"
      ],
      [
        "heav",
        "y"
      ],
      [
        "gat",
        "es"
      ],
      [
        "tran",
        "s"
      ],
      [
        "fru",
        "it"
      ],
      [
        "et",
        "ing"
      ],
      [
        "lt",
        "ing"
      ],
      [
        "vill",
        "an"
      ],
      [
        "ste",
        "al"
      ],
      [
        "dd",
        "ing"
      ],
      [
        "cour",
        "t"
      ],
      [
        "tong",
        "ue"
      ],
      [
        "spir",
        "it"
      ],
      [
        "l",
        "atter"
      ],
      [
        "n",
        "ought"
      ],
      [
        "n",
        "arrow"
      ],
      [
        "w",
        "inter"
      ],
      [
        "th",
        "read"
      ],
      [
        "se",
        "ason"
      ],
      [
        "ha",
        "unts"
      ],
      [
        "be",
        "si"
      ],
      [
        "be",
        "hold"
      ],
      [
        "be",
        "half"
      ],
      [
        "en",
        "ough"
      ],
      [
        "de",
        "mand"
      ],
      [
        "li",
        "ving"
      ],
      [
        "co",
        "lted"
      ],
      [
        "with",
        "in"
      ],
      [
        "our",
        "ish"
      ],
      [
        "ad",
        "vant"
      ],
      [
        "And",
        "ron"
      ],
      [
        "ra",
        "ven"
      ],
      [
        "man",
        "ner"
      ],
      [
        "sir",
        "rah"
      ],
      [
        "lo",
        "ving"
      ],
      [
        "ath",
        "ing"
      ],
      [
        "when",
        "ce"
      ],
      [
        "sta",
        "irs"
      ],
      [
        "can",
        "not"
      ],
      [
        "ta",
        "vern"
      ],
      [
        "swe",
        "ats"
      ],
      [
        "death",
        "s"
      ],
      [
        "mat",
        "ion"
      ],
      [
        "Be",
        "fore"
      ],
      [
        "blood",
        "y"
      ],
      [
        "beast",
        "s"
      ],
      [
        "bar",
        "ous"
      ],
      [
        "house",
        "s"
      ],
      [
        "cla",
        "ims"
      ],
      [
        "ange",
        "ls"
      ],
      [
        "chol",
        "as"
      ],
      [
        "leave",
        "s"
      ],
      [
        "fo",
        "llow"
      ],
      [
        "dou",
        "ble"
      ],
      [
        "dear",
        "er"
      ],
      [
        "abo",
        "ard"
      ],
      [
        "por",
        "ter"
      ],
      [
        "sor",
        "row"
      ],
      [
        "sup",
        "per"
      ],
      [
        "wrong",
        "s"
      ],
      [
        "trump",
        "et"
      ],
      [
        "Mar",
        "cus"
      ],
      [
        "liv",
        "ion"
      ],
      [
        "tit",
        "les"
      ],
      [
        "rede",
        "em"
      ],
      [
        "trim",
        "m"
      ],
      [
        "maid",
        "en"
      ],
      [
        "hal",
        "ter"
      ],
      [
        "van",
        "ity"
      ],
      [
        "Wal",
        "ter"
      ],
      [
        "fig",
        "ure"
      ],
      [
        "Gru",
        "mio"
      ],
      [
        "Mut",
        "ius"
      ],
      [
        "dag",
        "ger"
      ],
      [
        "jer",
        "kin"
      ],
      [
        "law",
        "ful"
      ],
      [
        "Nath",
        "an"
      ],
      [
        "twel",
        "ve"
      ],
      [
        "pard",
        "on"
      ],
      [
        "thir",
        "ty"
      ],
      [
        "reven",
        "g"
      ],
      [
        "ou",
        "bled"
      ],
      [
        "go",
        "vern"
      ],
      [
        "S",
        "heriff"
      ],
      [
        "s",
        "heriff"
      ],
      [
        "at",
        "tempt"
      ],
      [
        "le",
        "ather"
      ],
      [
        "for",
        "ward"
      ],
      [
        "de",
        "liver"
      ],
      [
        "sp",
        "arrow"
      ],
      [
        "ne",
        "ither"
      ],
      [
        "No",
        "thing"
      ],
      [
        "ear",
        "nest"
      ],
      [
        "con",
        "tent"
      ],
      [
        "per",
        "form"
      ],
      [
        "per",
        "haps"
      ],
      [
        "pro",
        "cure"
      ],
      [
        "ser",
        "vant"
      ],
      [
        "could",
        "st"
      ],
      [
        "great",
        "er"
      ],
      [
        "break",
        "er"
      ],
      [
        "ac",
        "count"
      ],
      [
        "bar",
        "gain"
      ],
      [
        "wit",
        "ness"
      ],
      [
        "mer",
        "rily"
      ],
      [
        "sle",
        "eves"
      ],
      [
        "burn",
        "ing"
      ],
      [
        "pock",
        "ets"
      ],
      [
        "hang",
        "ing"
      ],
      [
        "last",
        "ing"
      ],
      [
        "com",
        "mand"
      ],
      [
        "pit",
        "iful"
      ],
      [
        "ret",
        "reat"
      ],
      [
        "offi",
        "cer"
      ],
      [
        "sound",
        "ly"
      ],
      [
        "brave",
        "ly"
      ],
      [
        "thr",
        "ough"
      ],
      [
        "bast",
        "ard"
      ],
      [
        "dur",
        "ance"
      ],
      [
        "round",
        "ly"
      ],
      [
        "conf",
        "ess"
      ],
      [
        "Emp",
        "ress"
      ],
      [
        "brea",
        "the"
      ],
      [
        "Wel",
        "come"
      ],
      [
        "Pri",
        "thee"
      ],
      [
        "hus",
        "band"
      ],
      [
        "Cli",
        "fton"
      ],
      [
        "kit",
        "chen"
      ],
      [
        "fav",
        "ours"
      ],
      [
        "Cent",
        "aur"
      ],
      [
        "Vint",
        "ner"
      ],
      [
        "pled",
        "ges"
      ],
      [
        "carri",
        "ed"
      ],
      [
        "sacri",
        "fi"
      ],
      [
        "URNIN",
        "US"
      ],
      [
        "besi",
        "des"
      ],
      [
        "so",
        "lute"
      ],
      [
        "belie",
        "ve"
      ],
      [
        "me",
        "thinks"
      ],
      [
        "al",
        "though"
      ],
      [
        "knock",
        "ing"
      ],
      [
        "comp",
        "lain"
      ],
      [
        "ob",
        "livion"
      ],
      [
        "app",
        "arell"
      ],
      [
        "quar",
        "ters"
      ],
      [
        "trump",
        "ets"
      ],
      [
        "sen",
        "sible"
      ],
      [
        "Ni",
        "cholas"
      ],
      [
        "argu",
        "ment"
      ],
      [
        "Aemi",
        "lius"
      ],
      [
        "creat",
        "ure"
      ],
      [
        "marri",
        "age"
      ],
      [
        "toge",
        "ther"
      ],
      [
        "mount",
        "ain"
      ],
      [
        "AEMIL",
        "IUS"
      ],
      [
        "raven",
        "ous"
      ],
      [
        "reckon",
        "ing"
      ],
      [
        "solute",
        "ly"
      ],
      [
        "en",
        "counter"
      ],
      [
        "bar",
        "barous"
      ],
      [
        "comp",
        "anion"
      ],
      [
        "gentle",
        "man"
      ],
      [
        "monst",
        "rous"
      ],
      [
        "villan",
        "ous"
      ],
      [
        "advant",
        "age"
      ],
      [
        "Nathan",
        "iel"
      ],
      [
        "them",
        "selves"
      ],
      [
        "honour",
        "able"
      ],
      [
        "SAT",
        "URNINUS"
      ],
      [
        "Andron",
        "icus"
      ],
      [
        "ever",
        "lasting"
      ],
      [
        "c",
        "her"
      ],
      [
        "T",
        "ake"
      ],
      [
        "t",
        "r"
      ],
      [
        "th",
        "a"
      ],
      [
        "th",
        "i"
      ],
      [
        "m",
        "ast"
      ],
      [
        "Goth",
        "s"
      ],
      [
        "n",
        "s"
      ],
      [
        "w",
        "he"
      ],
      [
        "E",
        "ven"
      ],
      [
        "b",
        "ir"
      ],
      [
        "w",
        "hi"
      ],
      [
        "end",
        "s"
      ],
      [
        "o",
        "th"
      ],
      [
        "mi",
        "st"
      ],
      [
        "A",
        "ll"
      ],
      [
        "be",
        "a"
      ],
      [
        "m",
        "as"
      ],
      [
        "bir",
        "ds"
      ],
      [
        "H",
        "o"
      ],
      [
        "t",
        "le"
      ],
      [
        "v",
        "il"
      ],
      [
        "he",
        "ir"
      ],
      [
        "m",
        "ak"
      ],
      [
        "F",
        "are"
      ],
      [
        "t",
        "w"
      ],
      [
        "li",
        "k"
      ],
      [
        "ha",
        "s"
      ],
      [
        "de",
        "st"
      ],
      [
        "g",
        "i"
      ],
      [
        "l",
        "as"
      ],
      [
        "o",
        "p"
      ],
      [
        "E",
        "n"
      ],
      [
        "W",
        "h"
      ],
      [
        "m",
        "ar"
      ],
      [
        "in",
        "c"
      ],
      [
        "ast",
        "e"
      ],
      [
        "an",
        "g"
      ],
      [
        "h",
        "ar"
      ],
      [
        "de",
        "e"
      ],
      [
        "pr",
        "ou"
      ],
      [
        "e",
        "ep"
      ],
      [
        "j",
        "e"
      ],
      [
        "s",
        "wo"
      ],
      [
        "t",
        "ing"
      ],
      [
        "ta",
        "ff"
      ],
      [
        "ev",
        "il"
      ],
      [
        "t",
        "u"
      ],
      [
        "u",
        "g"
      ],
      [
        "ch",
        "o"
      ],
      [
        "ch",
        "ance"
      ],
      [
        "ur",
        "s"
      ],
      [
        "su",
        "c"
      ],
      [
        "C",
        "o"
      ],
      [
        "d",
        "u"
      ],
      [
        "r",
        "ay"
      ],
      [
        "b",
        "ur"
      ],
      [
        "c",
        "re"
      ],
      [
        "i",
        "le"
      ],
      [
        "p",
        "p"
      ],
      [
        "s",
        "ou"
      ],
      [
        "t",
        "ra"
      ],
      [
        "en",
        "c"
      ],
      [
        "ne",
        "y"
      ],
      [
        "prou",
        "dest"
      ],
      [
        "e",
        "ase"
      ],
      [
        "x",
        "e"
      ],
      [
        "or",
        "t"
      ],
      [
        "or",
        "row"
      ],
      [
        "sp",
        "ar"
      ],
      [
        "qu",
        "a"
      ],
      [
        "qu",
        "i"
      ],
      [
        "H",
        "er"
      ],
      [
        "a",
        "h"
      ],
      [
        "b",
        "ou"
      ],
      [
        "d",
        "ing"
      ],
      [
        "l",
        "k"
      ],
      [
        "l",
        "se"
      ],
      [
        "w",
        "in"
      ],
      [
        "pe",
        "a"
      ],
      [
        "d",
        "ar"
      ],
      [
        "g",
        "lo"
      ],
      [
        "o",
        "il"
      ],
      [
        "t",
        "tle"
      ],
      [
        "u",
        "mp"
      ],
      [
        "w",
        "r"
      ],
      [
        "th",
        "ro"
      ],
      [
        "he",
        "l"
      ],
      [
        "en",
        "g"
      ],
      [
        "ce",
        "s"
      ],
      [
        "here",
        "in"
      ],
      [
        "bo",
        "t"
      ],
      [
        "mor",
        "r"
      ],
      [
        "sa",
        "c"
      ],
      [
        "ser",
        "v"
      ],
      [
        "a",
        "im"
      ],
      [
        "c",
        "at"
      ],
      [
        "c",
        "li"
      ],
      [
        "d",
        "ro"
      ],
      [
        "d",
        "ri"
      ],
      [
        "f",
        "fi"
      ],
      [
        "o",
        "of"
      ],
      [
        "t",
        "ir"
      ],
      [
        "v",
        "y"
      ],
      [
        "y",
        "es"
      ],
      [
        "y",
        "ea"
      ],
      [
        "st",
        "i"
      ],
      [
        "ir",
        "y"
      ],
      [
        "li",
        "p"
      ],
      [
        "ra",
        "v"
      ],
      [
        "e",
        "mb"
      ],
      [
        "i",
        "ed"
      ],
      [
        "i",
        "ly"
      ],
      [
        "l",
        "in"
      ],
      [
        "o",
        "x"
      ],
      [
        "o",
        "le"
      ],
      [
        "s",
        "li"
      ],
      [
        "s",
        "id"
      ],
      [
        "u",
        "ck"
      ],
      [
        "ow",
        "e"
      ],
      [
        "hi",
        "g"
      ],
      [
        "ro",
        "of"
      ],
      [
        "ri",
        "de"
      ],
      [
        "al",
        "s"
      ],
      [
        "un",
        "g"
      ],
      [
        "ra",
        "ise"
      ],
      [
        "am",
        "n"
      ],
      [
        "te",
        "ar"
      ],
      [
        "Go",
        "t"
      ],
      [
        "el",
        "p"
      ],
      [
        "ta",
        "ge"
      ],
      [
        "sa",
        "v"
      ],
      [
        "ac",
        "c"
      ],
      [
        "low",
        "s"
      ],
      [
        "eat",
        "en"
      ],
      [
        "B",
        "U"
      ],
      [
        "C",
        "H"
      ],
      [
        "I",
        "A"
      ],
      [
        "I",
        "mp"
      ],
      [
        "L",
        "A"
      ],
      [
        "R",
        "S"
      ],
      [
        "a",
        "ch"
      ],
      [
        "d",
        "ru"
      ],
      [
        "f",
        "ra"
      ],
      [
        "k",
        "es"
      ],
      [
        "m",
        "it"
      ],
      [
        "o",
        "be"
      ],
      [
        "o",
        "es"
      ],
      [
        "p",
        "et"
      ],
      [
        "p",
        "per"
      ],
      [
        "r",
        "ite"
      ],
      [
        "r",
        "ink"
      ],
      [
        "r",
        "ough"
      ],
      [
        "s",
        "it"
      ],
      [
        "s",
        "oun"
      ],
      [
        "u",
        "ri"
      ],
      [
        "w",
        "is"
      ],
      [
        "w",
        "hile"
      ],
      [
        "or",
        "n"
      ],
      [
        "ar",
        "y"
      ],
      [
        "to",
        "m"
      ],
      [
        "le",
        "g"
      ],
      [
        "le",
        "ase"
      ],
      [
        "wi",
        "p"
      ],
      [
        "de",
        "em"
      ],
      [
        "ut",
        "y"
      ],
      [
        "ri",
        "ff"
      ],
      [
        "ast",
        "ly"
      ],
      [
        "un",
        "ter"
      ],
      [
        "now",
        "n"
      ],
      [
        "ill",
        "s"
      ],
      [
        "ill",
        "ain"
      ],
      [
        "she",
        "d"
      ],
      [
        "ti",
        "re"
      ],
      [
        "con",
        "c"
      ],
      [
        "ans",
        "w"
      ],
      [
        "pi",
        "ck"
      ],
      [
        "'",
        ";"
      ],
      [
        "?",
        "'"
      ],
      [
        "A",
        "M"
      ],
      [
        "B",
        "l"
      ],
      [
        "D",
        "E"
      ],
      [
        "E",
        "S"
      ],
      [
        "F",
        "I"
      ],
      [
        "F",
        "l"
      ],
      [
        "G",
        "M"
      ],
      [
        "H",
        "y"
      ],
      [
        "L",
        "L"
      ],
      [
        "M",
        "or"
      ],
      [
        "O",
        "U"
      ],
      [
        "P",
        "E"
      ],
      [
        "S",
        "ta"
      ],
      [
        "T",
        "ar"
      ],
      [
        "b",
        "one"
      ],
      [
        "b",
        "ru"
      ],
      [
        "d",
        "ge"
      ],
      [
        "h",
        "ut"
      ],
      [
        "j",
        "a"
      ],
      [
        "l",
        "am"
      ],
      [
        "m",
        "bo"
      ],
      [
        "m",
        "iss"
      ],
      [
        "n",
        "ut"
      ],
      [
        "n",
        "ches"
      ],
      [
        "o",
        "dd"
      ],
      [
        "p",
        "lo"
      ],
      [
        "p",
        "ets"
      ],
      [
        "p",
        "ud"
      ],
      [
        "r",
        "ush"
      ],
      [
        "s",
        "se"
      ],
      [
        "s",
        "al"
      ],
      [
        "t",
        "am"
      ],
      [
        "w",
        "ond"
      ],
      [
        "ll",
        "o"
      ],
      [
        "at",
        "er"
      ],
      [
        "on",
        "t"
      ],
      [
        "to",
        "p"
      ],
      [
        "ha",
        "p"
      ],
      [
        "le",
        "y"
      ],
      [
        "le",
        "ep"
      ],
      [
        "it",
        "ch"
      ],
      [
        "be",
        "ha"
      ],
      [
        "en",
        "s"
      ],
      [
        "as",
        "ure"
      ],
      [
        "de",
        "c"
      ],
      [
        "her",
        "i"
      ],
      [
        "ut",
        "ter"
      ],
      [
        "ro",
        "t"
      ],
      [
        "al",
        "th"
      ],
      [
        "so",
        "b"
      ],
      [
        "oo",
        "l"
      ],
      [
        "oo",
        "th"
      ],
      [
        "ad",
        "d"
      ],
      [
        "un",
        "ning"
      ],
      [
        "ho",
        "le"
      ],
      [
        "ho",
        "pe"
      ],
      [
        "fi",
        "l"
      ],
      [
        "ru",
        "ly"
      ],
      [
        "su",
        "e"
      ],
      [
        "te",
        "en"
      ],
      [
        "ap",
        "pe"
      ],
      [
        "con",
        "t"
      ],
      [
        "bl",
        "a"
      ],
      [
        "bl",
        "ow"
      ],
      [
        "po",
        "t"
      ],
      [
        "other",
        "s"
      ],
      [
        "por",
        "t"
      ],
      [
        "prom",
        "is"
      ],
      [
        "har",
        "ge"
      ],
      [
        "A",
        "L"
      ],
      [
        "A",
        "p"
      ],
      [
        "B",
        "I"
      ],
      [
        "B",
        "US"
      ],
      [
        "C",
        "er"
      ],
      [
        "C",
        "an"
      ],
      [
        "C",
        "he"
      ],
      [
        "C",
        "it"
      ],
      [
        "C",
        "US"
      ],
      [
        "C",
        "UR"
      ],
      [
        "D",
        "es"
      ],
      [
        "D",
        "el"
      ],
      [
        "E",
        "p"
      ],
      [
        "E",
        "re"
      ],
      [
        "E",
        "le"
      ],
      [
        "F",
        "ly"
      ],
      [
        "G",
        "et"
      ],
      [
        "G",
        "aw"
      ],
      [
        "I",
        "ll"
      ],
      [
        "I",
        "AN"
      ],
      [
        "I",
        "BU"
      ],
      [
        "J",
        "ud"
      ],
      [
        "K",
        "AT"
      ],
      [
        "L",
        "ay"
      ],
      [
        "L",
        "ie"
      ],
      [
        "M",
        "ay"
      ],
      [
        "M",
        "AR"
      ],
      [
        "N",
        "ES"
      ],
      [
        "P",
        "ar"
      ],
      [
        "P",
        "it"
      ],
      [
        "P",
        "hi"
      ],
      [
        "R",
        "al"
      ],
      [
        "R",
        "un"
      ],
      [
        "R",
        "iv"
      ],
      [
        "S",
        "u"
      ],
      [
        "S",
        "et"
      ],
      [
        "S",
        "te"
      ],
      [
        "S",
        "ON"
      ],
      [
        "S",
        "EN"
      ],
      [
        "S",
        "ER"
      ],
      [
        "T",
        "ri"
      ],
      [
        "T",
        "oo"
      ],
      [
        "T",
        "ry"
      ],
      [
        "T",
        "wo"
      ],
      [
        "T",
        "AM"
      ],
      [
        "V",
        "en"
      ],
      [
        "Y",
        "OU"
      ],
      [
        "a",
        "ught"
      ],
      [
        "a",
        "xe"
      ],
      [
        "b",
        "er"
      ],
      [
        "b",
        "ay"
      ],
      [
        "b",
        "oo"
      ],
      [
        "b",
        "us"
      ],
      [
        "b",
        "une"
      ],
      [
        "b",
        "ig"
      ],
      [
        "d",
        "ise"
      ],
      [
        "e",
        "lo"
      ],
      [
        "e",
        "ks"
      ],
      [
        "f",
        "y"
      ],
      [
        "f",
        "it"
      ],
      [
        "f",
        "am"
      ],
      [
        "f",
        "id"
      ],
      [
        "f",
        "lu"
      ],
      [
        "g",
        "le"
      ],
      [
        "g",
        "ran"
      ],
      [
        "h",
        "are"
      ],
      [
        "h",
        "arm"
      ],
      [
        "i",
        "ma"
      ],
      [
        "k",
        "id"
      ],
      [
        "l",
        "ack"
      ],
      [
        "l",
        "ame"
      ],
      [
        "l",
        "ink"
      ],
      [
        "l",
        "oud"
      ],
      [
        "m",
        "ine"
      ],
      [
        "n",
        "ay"
      ],
      [
        "o",
        "ats"
      ],
      [
        "p",
        "ow"
      ],
      [
        "p",
        "ed"
      ],
      [
        "p",
        "ear"
      ],
      [
        "r",
        "he"
      ],
      [
        "r",
        "us"
      ],
      [
        "r",
        "hy"
      ],
      [
        "t",
        "un"
      ],
      [
        "u",
        "ment"
      ],
      [
        "v",
        "it"
      ],
      [
        "v",
        "as"
      ],
      [
        "v",
        "ap"
      ],
      [
        "y",
        "al"
      ],
      [
        "an",
        "a"
      ],
      [
        "in",
        "er"
      ],
      [
        "in",
        "te"
      ],
      [
        "or",
        "s"
      ],
      [
        "st",
        "ol"
      ],
      [
        "ll",
        "a"
      ],
      [
        "ar",
        "n"
      ],
      [
        "me",
        "nd"
      ],
      [
        "me",
        "lt"
      ],
      [
        "re",
        "me"
      ],
      [
        "re",
        "pro"
      ],
      [
        "se",
        "y"
      ],
      [
        "ve",
        "x"
      ],
      [
        "ow",
        "es"
      ],
      [
        "wi",
        "g"
      ],
      [
        "hi",
        "re"
      ],
      [
        "de",
        "x"
      ],
      [
        "es",
        "y"
      ],
      [
        "co",
        "b"
      ],
      [
        "co",
        "x"
      ],
      [
        "co",
        "at"
      ],
      [
        "we",
        "t"
      ],
      [
        "we",
        "st"
      ],
      [
        "ast",
        "ing"
      ],
      [
        "so",
        "p"
      ],
      [
        "ra",
        "m"
      ],
      [
        "ra",
        "il"
      ],
      [
        "ur",
        "b"
      ],
      [
        "ur",
        "y"
      ],
      [
        "ho",
        "b"
      ],
      [
        "but",
        "to"
      ],
      [
        "ru",
        "b"
      ],
      [
        "bo",
        "ard"
      ],
      [
        "ff",
        "er"
      ],
      [
        "ti",
        "c"
      ],
      [
        "si",
        "o"
      ],
      [
        "si",
        "x"
      ],
      [
        "was",
        "h"
      ],
      [
        "ap",
        "h"
      ],
      [
        "ant",
        "ed"
      ],
      [
        "ame",
        "s"
      ],
      [
        "po",
        "x"
      ],
      [
        "sc",
        "ar"
      ],
      [
        "Be",
        "g"
      ],
      [
        "bra",
        "w"
      ],
      [
        "tell",
        "s"
      ],
      [
        "pi",
        "p"
      ],
      [
        "ex",
        "c"
      ],
      [
        "vi",
        "le"
      ],
      [
        "vi",
        "ol"
      ],
      [
        "As",
        "k"
      ],
      [
        "lu",
        "x"
      ],
      [
        "lu",
        "ck"
      ],
      [
        "Pe",
        "w"
      ],
      [
        "lay",
        "s"
      ],
      [
        "nat",
        "ur"
      ],
      [
        "ts",
        "y"
      ],
      [
        "IN",
        "A"
      ],
      [
        "TI",
        "O"
      ],
      [
        "TI",
        "S"
      ],
      [
        "cap",
        "e"
      ],
      [
        "kn",
        "a"
      ],
      [
        "sto",
        "ck"
      ],
      [
        "pit",
        "i"
      ],
      [
        "UC",
        "H"
      ],
      [
        "sk",
        "y"
      ],
      [
        "IL",
        "D"
      ],
      [
        "tro",
        "t"
      ],
      [
        "tit",
        "le"
      ],
      [
        "sho",
        "e"
      ],
      [
        "na",
        "il"
      ],
      [
        "ost",
        "ess"
      ],
      [
        "OR",
        "A"
      ],
      [
        "OR",
        "S"
      ],
      [
        "rup",
        "t"
      ],
      [
        "mour",
        "n"
      ],
      [
        "RS",
        "T"
      ],
      [
        "LL",
        "O"
      ],
      [
        "A",
        "die"
      ],
      [
        "A",
        "lar"
      ],
      [
        "A",
        "las"
      ],
      [
        "C",
        "on"
      ],
      [
        "C",
        "as"
      ],
      [
        "C",
        "hir"
      ],
      [
        "D",
        "ow"
      ],
      [
        "D",
        "ra"
      ],
      [
        "D",
        "ear"
      ],
      [
        "D",
        "ame"
      ],
      [
        "D",
        "ead"
      ],
      [
        "E",
        "ast"
      ],
      [
        "E",
        "mb"
      ],
      [
        "E",
        "lse"
      ],
      [
        "E",
        "ach"
      ],
      [
        "F",
        "ive"
      ],
      [
        "F",
        "ace"
      ],
      [
        "G",
        "ab"
      ],
      [
        "H",
        "all"
      ],
      [
        "H",
        "ome"
      ],
      [
        "H",
        "ave"
      ],
      [
        "H",
        "ark"
      ],
      [
        "H",
        "igh"
      ],
      [
        "H",
        "ER"
      ],
      [
        "H",
        "ang"
      ],
      [
        "H",
        "elp"
      ],
      [
        "J",
        "une"
      ],
      [
        "K",
        "now"
      ],
      [
        "K",
        "end"
      ],
      [
        "K",
        "nock"
      ],
      [
        "K",
        "eep"
      ],
      [
        "L",
        "at"
      ],
      [
        "L",
        "ead"
      ],
      [
        "M",
        "on"
      ],
      [
        "M",
        "ome"
      ],
      [
        "M",
        "ark"
      ],
      [
        "N",
        "ell"
      ],
      [
        "O",
        "the"
      ],
      [
        "P",
        "ol"
      ],
      [
        "R",
        "end"
      ],
      [
        "R",
        "ead"
      ],
      [
        "S",
        "end"
      ],
      [
        "S",
        "ear"
      ],
      [
        "S",
        "hor"
      ],
      [
        "S",
        "ure"
      ],
      [
        "S",
        "tri"
      ],
      [
        "S",
        "hir"
      ],
      [
        "S",
        "ung"
      ],
      [
        "T",
        "end"
      ],
      [
        "T",
        "art"
      ],
      [
        "T",
        "emp"
      ],
      [
        "T",
        "ues"
      ],
      [
        "W",
        "est"
      ],
      [
        "W",
        "ilt"
      ],
      [
        "a",
        "qua"
      ],
      [
        "b",
        "all"
      ],
      [
        "b",
        "ass"
      ],
      [
        "b",
        "rid"
      ],
      [
        "c",
        "and"
      ],
      [
        "c",
        "ad"
      ],
      [
        "c",
        "are"
      ],
      [
        "c",
        "red"
      ],
      [
        "c",
        "les"
      ],
      [
        "c",
        "ree"
      ],
      [
        "c",
        "lay"
      ],
      [
        "c",
        "rop"
      ],
      [
        "c",
        "uff"
      ],
      [
        "d",
        "ark"
      ],
      [
        "d",
        "ish"
      ],
      [
        "d",
        "anc"
      ],
      [
        "d",
        "ren"
      ],
      [
        "e",
        "mper"
      ],
      [
        "f",
        "un"
      ],
      [
        "f",
        "ill"
      ],
      [
        "f",
        "ood"
      ],
      [
        "f",
        "ant"
      ],
      [
        "f",
        "urn"
      ],
      [
        "f",
        "ish"
      ],
      [
        "h",
        "ark"
      ],
      [
        "i",
        "go"
      ],
      [
        "i",
        "ot"
      ],
      [
        "j",
        "ure"
      ],
      [
        "k",
        "not"
      ],
      [
        "k",
        "new"
      ],
      [
        "m",
        "art"
      ],
      [
        "m",
        "ity"
      ],
      [
        "m",
        "ask"
      ],
      [
        "m",
        "alt"
      ],
      [
        "m",
        "iry"
      ],
      [
        "n",
        "ance"
      ],
      [
        "o",
        "ath"
      ],
      [
        "o",
        "ple"
      ],
      [
        "o",
        "ily"
      ],
      [
        "p",
        "ill"
      ],
      [
        "p",
        "ap"
      ],
      [
        "p",
        "ure"
      ],
      [
        "p",
        "ress"
      ],
      [
        "p",
        "uts"
      ],
      [
        "p",
        "ink"
      ],
      [
        "s",
        "an"
      ],
      [
        "s",
        "at"
      ],
      [
        "s",
        "am"
      ],
      [
        "s",
        "ame"
      ],
      [
        "s",
        "way"
      ],
      [
        "s",
        "low"
      ],
      [
        "s",
        "nat"
      ],
      [
        "s",
        "app"
      ],
      [
        "s",
        "alt"
      ],
      [
        "s",
        "oft"
      ],
      [
        "s",
        "add"
      ],
      [
        "t",
        "was"
      ],
      [
        "t",
        "ty"
      ],
      [
        "t",
        "rop"
      ],
      [
        "t",
        "ask"
      ],
      [
        "v",
        "ain"
      ],
      [
        "w",
        "and"
      ],
      [
        "w",
        "on"
      ],
      [
        "w",
        "all"
      ],
      [
        "w",
        "ast"
      ],
      [
        "w",
        "ent"
      ],
      [
        "w",
        "ise"
      ],
      [
        "w",
        "ars"
      ],
      [
        "w",
        "ine"
      ],
      [
        "w",
        "ish"
      ],
      [
        "w",
        "ret"
      ],
      [
        "y",
        "r"
      ],
      [
        "y",
        "ok"
      ],
      [
        "th",
        "ri"
      ],
      [
        "th",
        "aw"
      ],
      [
        "er",
        "ly"
      ],
      [
        "er",
        "go"
      ],
      [
        "an",
        "on"
      ],
      [
        "an",
        "ish"
      ],
      [
        "in",
        "su"
      ],
      [
        "st",
        "al"
      ],
      [
        "st",
        "ru"
      ],
      [
        "st",
        "ep"
      ],
      [
        "at",
        "ly"
      ],
      [
        "at",
        "ru"
      ],
      [
        "is",
        "es"
      ],
      [
        "me",
        "te"
      ],
      [
        "he",
        "in"
      ],
      [
        "he",
        "st"
      ],
      [
        "he",
        "al"
      ],
      [
        "on",
        "y"
      ],
      [
        "on",
        "ly"
      ],
      [
        "re",
        "be"
      ],
      [
        "re",
        "sc"
      ],
      [
        "re",
        "gu"
      ],
      [
        "re",
        "bel"
      ],
      [
        "to",
        "mb"
      ],
      [
        "to",
        "wn"
      ],
      [
        "se",
        "ar"
      ],
      [
        "se",
        "ld"
      ],
      [
        "se",
        "ph"
      ],
      [
        "ha",
        "llow"
      ],
      [
        "of",
        "s"
      ],
      [
        "le",
        "ap"
      ],
      [
        "le",
        "gs"
      ],
      [
        "it",
        "u"
      ],
      [
        "it",
        "ies"
      ],
      [
        "ve",
        "t"
      ],
      [
        "ve",
        "in"
      ],
      [
        "ve",
        "nt"
      ],
      [
        "be",
        "mo"
      ],
      [
        "be",
        "gu"
      ],
      [
        "for",
        "d"
      ],
      [
        "en",
        "se"
      ],
      [
        "as",
        "ha"
      ],
      [
        "ay",
        "ed"
      ],
      [
        "ir",
        "ts"
      ],
      [
        "ld",
        "ly"
      ],
      [
        "hi",
        "es"
      ],
      [
        "de",
        "th"
      ],
      [
        "de",
        "er"
      ],
      [
        "de",
        "ce"
      ],
      [
        "de",
        "te"
      ],
      [
        "de",
        "af"
      ],
      [
        "li",
        "ly"
      ],
      [
        "ro",
        "an"
      ],
      [
        "ro",
        "be"
      ],
      [
        "ce",
        "ed"
      ],
      [
        "ce",
        "ss"
      ],
      [
        "ri",
        "el"
      ],
      [
        "ch",
        "in"
      ],
      [
        "co",
        "in"
      ],
      [
        "co",
        "st"
      ],
      [
        "co",
        "ok"
      ],
      [
        "not",
        "e"
      ],
      [
        "we",
        "en"
      ],
      [
        "we",
        "ed"
      ],
      [
        "we",
        "av"
      ],
      [
        "we",
        "bs"
      ],
      [
        "so",
        "ld"
      ],
      [
        "so",
        "bs"
      ],
      [
        "et",
        "a"
      ],
      [
        "un",
        "ch"
      ],
      [
        "un",
        "ex"
      ],
      [
        "ra",
        "gs"
      ],
      [
        "ho",
        "li"
      ],
      [
        "fa",
        "ct"
      ],
      [
        "fe",
        "et"
      ],
      [
        "fe",
        "ed"
      ],
      [
        "fe",
        "el"
      ],
      [
        "fe",
        "lt"
      ],
      [
        "sp",
        "ru"
      ],
      [
        "sp",
        "ite"
      ],
      [
        "up",
        "per"
      ],
      [
        "ne",
        "p"
      ],
      [
        "sh",
        "ut"
      ],
      [
        "nt",
        "y"
      ],
      [
        "nt",
        "ly"
      ],
      [
        "fi",
        "ve"
      ],
      [
        "fi",
        "es"
      ],
      [
        "mp",
        "s"
      ],
      [
        "ru",
        "le"
      ],
      [
        "su",
        "st"
      ],
      [
        "su",
        "ck"
      ],
      [
        "lo",
        "y"
      ],
      [
        "lo",
        "pp"
      ],
      [
        "il",
        "ty"
      ],
      [
        "ss",
        "us"
      ],
      [
        "bo",
        "gs"
      ],
      [
        "ran",
        "t"
      ],
      [
        "ble",
        "ss"
      ],
      [
        "ff",
        "s"
      ],
      [
        "end",
        "er"
      ],
      [
        "ti",
        "ve"
      ],
      [
        "si",
        "es"
      ],
      [
        "si",
        "fy"
      ],
      [
        "wo",
        "lf"
      ],
      [
        "No",
        "ah"
      ],
      [
        "ap",
        "par"
      ],
      [
        "con",
        "y"
      ],
      [
        "hor",
        "n"
      ],
      [
        "ag",
        "es"
      ],
      [
        "ie",
        "th"
      ],
      [
        "po",
        "se"
      ],
      [
        "qu",
        "in"
      ],
      [
        "per",
        "for"
      ],
      [
        "pr",
        "on"
      ],
      [
        "run",
        "s"
      ],
      [
        "fu",
        "me"
      ],
      [
        "ep",
        "it"
      ],
      [
        "ta",
        "il"
      ],
      [
        "mo",
        "le"
      ],
      [
        "tri",
        "ck"
      ],
      [
        "bu",
        "ll"
      ],
      [
        "bu",
        "ck"
      ],
      [
        "sc",
        "i"
      ],
      [
        "sc",
        "r"
      ],
      [
        "ma",
        "ce"
      ],
      [
        "che",
        "d"
      ],
      [
        "ea",
        "ch"
      ],
      [
        "Do",
        "th"
      ],
      [
        "Pr",
        "ay"
      ],
      [
        "use",
        "d"
      ],
      [
        "pi",
        "ke"
      ],
      [
        "pi",
        "ct"
      ],
      [
        "di",
        "v"
      ],
      [
        "di",
        "st"
      ],
      [
        "di",
        "es"
      ],
      [
        "di",
        "ed"
      ],
      [
        "ex",
        "am"
      ],
      [
        "im",
        "it"
      ],
      [
        "Who",
        "m"
      ],
      [
        "fle",
        "d"
      ],
      [
        "ey",
        "s"
      ],
      [
        "vi",
        "de"
      ],
      [
        "bar",
        "y"
      ],
      [
        "pre",
        "y"
      ],
      [
        "ass",
        "ur"
      ],
      [
        "pa",
        "le"
      ],
      [
        "lu",
        "de"
      ],
      [
        "lu",
        "gg"
      ],
      [
        "set",
        "s"
      ],
      [
        "boy",
        "s"
      ],
      [
        "ba",
        "by"
      ],
      [
        "em",
        "bo"
      ],
      [
        "ob",
        "se"
      ],
      [
        "ob",
        "je"
      ],
      [
        "fo",
        "il"
      ],
      [
        "gre",
        "y"
      ],
      [
        "ON",
        "DE"
      ],
      [
        "lad",
        "y"
      ],
      [
        "cur",
        "se"
      ],
      [
        "Nor",
        "th"
      ],
      [
        "kn",
        "it"
      ],
      [
        "ig",
        "no"
      ],
      [
        "cl",
        "in"
      ],
      [
        "sto",
        "p"
      ],
      [
        "ze",
        "al"
      ],
      [
        "jo",
        "ll"
      ],
      [
        "An",
        "on"
      ],
      [
        "fr",
        "ay"
      ],
      [
        "Th",
        "us"
      ],
      [
        "sk",
        "in"
      ],
      [
        "ban",
        "k"
      ],
      [
        "St",
        "ay"
      ],
      [
        "Un",
        "to"
      ],
      [
        "TR",
        "AN"
      ],
      [
        "ama",
        "ze"
      ],
      [
        "oun",
        "c"
      ],
      [
        "pu",
        "ke"
      ],
      [
        "ten",
        "u"
      ],
      [
        "Ad",
        "ri"
      ],
      [
        "den",
        "y"
      ],
      [
        "lan",
        "e"
      ],
      [
        "De",
        "me"
      ],
      [
        "Er",
        "go"
      ],
      [
        "Pa",
        "ul"
      ],
      [
        "Qu",
        "it"
      ],
      [
        "pal",
        "m"
      ],
      [
        "bag",
        "s"
      ],
      [
        "cra",
        "ft"
      ],
      [
        "cup",
        "s"
      ],
      [
        "hab",
        "it"
      ],
      [
        "gi",
        "ld"
      ],
      [
        "En",
        "gl"
      ],
      [
        "ug",
        "ly"
      ],
      [
        "Co",
        "lo"
      ],
      [
        "du",
        "mb"
      ],
      [
        "ump",
        "h"
      ],
      [
        "hel",
        "m"
      ],
      [
        "dro",
        "ps"
      ],
      [
        "obe",
        "y"
      ],
      [
        "GM",
        "EN"
      ],
      [
        "PE",
        "TR"
      ],
      [
        "lam",
        "p"
      ],
      [
        "odd",
        "s"
      ],
      [
        "AL",
        "AR"
      ],
      [
        "Ep",
        "id"
      ],
      [
        "IAN",
        "A"
      ],
      [
        "Jud",
        "g"
      ],
      [
        "Riv",
        "o"
      ],
      [
        "SON",
        "S"
      ],
      [
        "fid",
        "d"
      ],
      [
        "vit",
        "x"
      ],
      [
        "B",
        "ears"
      ],
      [
        "B",
        "lows"
      ],
      [
        "C",
        "ould"
      ],
      [
        "C",
        "arri"
      ],
      [
        "D",
        "itch"
      ],
      [
        "G",
        "ads"
      ],
      [
        "G",
        "reg"
      ],
      [
        "H",
        "ence"
      ],
      [
        "I",
        "mper"
      ],
      [
        "L",
        "ond"
      ],
      [
        "M",
        "oney"
      ],
      [
        "N",
        "ever"
      ],
      [
        "R",
        "ight"
      ],
      [
        "R",
        "em"
      ],
      [
        "S",
        "ound"
      ],
      [
        "S",
        "even"
      ],
      [
        "S",
        "wart"
      ],
      [
        "T",
        "amor"
      ],
      [
        "U",
        "nder"
      ],
      [
        "W",
        "ould"
      ],
      [
        "a",
        "ud"
      ],
      [
        "b",
        "our"
      ],
      [
        "c",
        "ing"
      ],
      [
        "c",
        "limb"
      ],
      [
        "f",
        "lie"
      ],
      [
        "f",
        "owls"
      ],
      [
        "h",
        "ours"
      ],
      [
        "h",
        "oney"
      ],
      [
        "h",
        "arms"
      ],
      [
        "i",
        "ers"
      ],
      [
        "j",
        "acks"
      ],
      [
        "j",
        "ills"
      ],
      [
        "l",
        "ards"
      ],
      [
        "m",
        "arry"
      ],
      [
        "m",
        "ercy"
      ],
      [
        "n",
        "ate"
      ],
      [
        "p",
        "ass"
      ],
      [
        "p",
        "atch"
      ],
      [
        "p",
        "ouch"
      ],
      [
        "s",
        "itt"
      ],
      [
        "s",
        "kill"
      ],
      [
        "s",
        "cold"
      ],
      [
        "s",
        "conce"
      ],
      [
        "s",
        "cept"
      ],
      [
        "t",
        "read"
      ],
      [
        "t",
        "rave"
      ],
      [
        "t",
        "aste"
      ],
      [
        "t",
        "ames"
      ],
      [
        "u",
        "nder"
      ],
      [
        "u",
        "ries"
      ],
      [
        "w",
        "af"
      ],
      [
        "w",
        "arri"
      ],
      [
        "w",
        "heel"
      ],
      [
        "w",
        "aded"
      ],
      [
        "w",
        "ater"
      ],
      [
        "th",
        "im"
      ],
      [
        "er",
        "ing"
      ],
      [
        "er",
        "al"
      ],
      [
        "er",
        "ror"
      ],
      [
        "ou",
        "red"
      ],
      [
        "an",
        "ci"
      ],
      [
        "in",
        "hu"
      ],
      [
        "in",
        "car"
      ],
      [
        "st",
        "ood"
      ],
      [
        "st",
        "out"
      ],
      [
        "st",
        "ark"
      ],
      [
        "st",
        "ars"
      ],
      [
        "st",
        "ate"
      ],
      [
        "st",
        "ore"
      ],
      [
        "st",
        "iff"
      ],
      [
        "st",
        "um"
      ],
      [
        "st",
        "ret"
      ],
      [
        "st",
        "ool"
      ],
      [
        "at",
        "tra"
      ],
      [
        "ar",
        "ras"
      ],
      [
        "ar",
        "med"
      ],
      [
        "is",
        "ons"
      ],
      [
        "me",
        "tal"
      ],
      [
        "he",
        "ark"
      ],
      [
        "he",
        "ars"
      ],
      [
        "he",
        "igh"
      ],
      [
        "re",
        "spe"
      ],
      [
        "re",
        "ign"
      ],
      [
        "to",
        "day"
      ],
      [
        "se",
        "ven"
      ],
      [
        "le",
        "ges"
      ],
      [
        "le",
        "arn"
      ],
      [
        "it",
        "ure"
      ],
      [
        "it",
        "ory"
      ],
      [
        "be",
        "st"
      ],
      [
        "be",
        "he"
      ],
      [
        "be",
        "come"
      ],
      [
        "be",
        "ads"
      ],
      [
        "ow",
        "est"
      ],
      [
        "ow",
        "ell"
      ],
      [
        "for",
        "so"
      ],
      [
        "en",
        "sue"
      ],
      [
        "hi",
        "res"
      ],
      [
        "de",
        "sir"
      ],
      [
        "de",
        "mon"
      ],
      [
        "ut",
        "es"
      ],
      [
        "li",
        "ons"
      ],
      [
        "li",
        "mbo"
      ],
      [
        "li",
        "ber"
      ],
      [
        "ro",
        "yal"
      ],
      [
        "ce",
        "ase"
      ],
      [
        "ce",
        "ls"
      ],
      [
        "hat",
        "ch"
      ],
      [
        "co",
        "ats"
      ],
      [
        "al",
        "ong"
      ],
      [
        "al",
        "oof"
      ],
      [
        "we",
        "lf"
      ],
      [
        "ter",
        "ms"
      ],
      [
        "ast",
        "ed"
      ],
      [
        "ak",
        "bag"
      ],
      [
        "ad",
        "ise"
      ],
      [
        "ad",
        "orn"
      ],
      [
        "un",
        "yok"
      ],
      [
        "ra",
        "gg"
      ],
      [
        "man",
        "es"
      ],
      [
        "ver",
        "se"
      ],
      [
        "am",
        "ong"
      ],
      [
        "am",
        "iss"
      ],
      [
        "ho",
        "ofs"
      ],
      [
        "sha",
        "d"
      ],
      [
        "sha",
        "ke"
      ],
      [
        "sha",
        "pe"
      ],
      [
        "do",
        "ing"
      ],
      [
        "do",
        "zen"
      ],
      [
        "id",
        "iot"
      ],
      [
        "wor",
        "ms"
      ],
      [
        "fe",
        "ars"
      ],
      [
        "fe",
        "wer"
      ],
      [
        "sp",
        "raw"
      ],
      [
        "sp",
        "ort"
      ],
      [
        "ain",
        "t"
      ],
      [
        "sh",
        "are"
      ],
      [
        "sh",
        "own"
      ],
      [
        "fi",
        "fty"
      ],
      [
        "ru",
        "ffi"
      ],
      [
        "su",
        "me"
      ],
      [
        "su",
        "ers"
      ],
      [
        "go",
        "ing"
      ],
      [
        "go",
        "bl"
      ],
      [
        "lo",
        "ver"
      ],
      [
        "il",
        "ing"
      ],
      [
        "il",
        "ity"
      ],
      [
        "mor",
        "el"
      ],
      [
        "ble",
        "s"
      ],
      [
        "ti",
        "mer"
      ],
      [
        "ti",
        "ons"
      ],
      [
        "te",
        "eth"
      ],
      [
        "si",
        "on"
      ],
      [
        "hou",
        "nd"
      ],
      [
        "good",
        "s"
      ],
      [
        "No",
        "ble"
      ],
      [
        "mi",
        "les"
      ],
      [
        "ap",
        "per"
      ],
      [
        "know",
        "s"
      ],
      [
        "bre",
        "th"
      ],
      [
        "tru",
        "st"
      ],
      [
        "ag",
        "let"
      ],
      [
        "ag",
        "ate"
      ],
      [
        "For",
        "et"
      ],
      [
        "bl",
        "ack"
      ],
      [
        "bl",
        "own"
      ],
      [
        "bl",
        "ust"
      ],
      [
        "bl",
        "ows"
      ],
      [
        "bl",
        "ush"
      ],
      [
        "ame",
        "nd"
      ],
      [
        "ell",
        "s"
      ],
      [
        "let",
        "ter"
      ],
      [
        "too",
        "th"
      ],
      [
        "ase",
        "s"
      ],
      [
        "pl",
        "ing"
      ],
      [
        "pl",
        "uck"
      ],
      [
        "po",
        "ses"
      ],
      [
        "Ex",
        "ped"
      ],
      [
        "qu",
        "ity"
      ],
      [
        "qu",
        "ick"
      ],
      [
        "qu",
        "een"
      ],
      [
        "qu",
        "ilt"
      ],
      [
        "gl",
        "itt"
      ],
      [
        "pr",
        "ise"
      ],
      [
        "dev",
        "is"
      ],
      [
        "pe",
        "ace"
      ],
      [
        "sta",
        "bs"
      ],
      [
        "fu",
        "sti"
      ],
      [
        "give",
        "n"
      ],
      [
        "give",
        "s"
      ],
      [
        "ms",
        "day"
      ],
      [
        "mo",
        "ther"
      ],
      [
        "call",
        "s"
      ],
      [
        "may",
        "st"
      ],
      [
        "tri",
        "al"
      ],
      [
        "tri",
        "pe"
      ],
      [
        "sc",
        "our"
      ],
      [
        "sc",
        "ath"
      ],
      [
        "sc",
        "ars"
      ],
      [
        "sc",
        "ene"
      ],
      [
        "sc",
        "ape"
      ],
      [
        "swe",
        "pt"
      ],
      [
        "bro",
        "il"
      ],
      [
        "bro",
        "ok"
      ],
      [
        "sa",
        "bel"
      ],
      [
        "gra",
        "in"
      ],
      [
        "gu",
        "ess"
      ],
      [
        "gu",
        "ine"
      ],
      [
        "He",
        "igh"
      ],
      [
        "che",
        "th"
      ],
      [
        "che",
        "ap"
      ],
      [
        "itt",
        "en"
      ],
      [
        "Be",
        "ing"
      ],
      [
        "Pr",
        "oud"
      ],
      [
        "pur",
        "ge"
      ],
      [
        "bra",
        "in"
      ],
      [
        "bra",
        "wn"
      ],
      [
        "gar",
        "ter"
      ],
      [
        "gar",
        "ly"
      ],
      [
        "turn",
        "s"
      ],
      [
        "gr",
        "and"
      ],
      [
        "gr",
        "ass"
      ],
      [
        "pi",
        "est"
      ],
      [
        "di",
        "als"
      ],
      [
        "ex",
        "ch"
      ],
      [
        "ex",
        "tre"
      ],
      [
        "ex",
        "plo"
      ],
      [
        "car",
        "ve"
      ],
      [
        "cle",
        "ar"
      ],
      [
        "pri",
        "de"
      ],
      [
        "pri",
        "ze"
      ],
      [
        "pri",
        "vy"
      ],
      [
        "lord",
        "s"
      ],
      [
        "vi",
        "our"
      ],
      [
        "vi",
        "ole"
      ],
      [
        "pa",
        "ces"
      ],
      [
        "arm",
        "ad"
      ],
      [
        "mind",
        "s"
      ],
      [
        "hold",
        "s"
      ],
      [
        "play",
        "s"
      ],
      [
        "br",
        "ush"
      ],
      [
        "ci",
        "vil"
      ],
      [
        "Pe",
        "ter"
      ],
      [
        "cha",
        "se"
      ],
      [
        "cha",
        "lk"
      ],
      [
        "sl",
        "and"
      ],
      [
        "sle",
        "ek"
      ],
      [
        "ene",
        "my"
      ],
      [
        "band",
        "s"
      ],
      [
        "hang",
        "s"
      ],
      [
        "fall",
        "s"
      ],
      [
        "ul",
        "ars"
      ],
      [
        "gre",
        "en"
      ],
      [
        "mon",
        "th"
      ],
      [
        "cur",
        "st"
      ],
      [
        "dis",
        "gu"
      ],
      [
        "oud",
        "s"
      ],
      [
        "gri",
        "me"
      ],
      [
        "gri",
        "ev"
      ],
      [
        "land",
        "s"
      ],
      [
        "app",
        "ear"
      ],
      [
        "last",
        "s"
      ],
      [
        "soul",
        "s"
      ],
      [
        "walk",
        "s"
      ],
      [
        "stay",
        "s"
      ],
      [
        "full",
        "y"
      ],
      [
        "mand",
        "s"
      ],
      [
        "dr",
        "own"
      ],
      [
        "cl",
        "ink"
      ],
      [
        "ust",
        "ry"
      ],
      [
        "spo",
        "il"
      ],
      [
        "min",
        "y"
      ],
      [
        "AT",
        "ORS"
      ],
      [
        "abo",
        "ve"
      ],
      [
        "dd",
        "en"
      ],
      [
        "sup",
        "er"
      ],
      [
        "cri",
        "es"
      ],
      [
        "cri",
        "ed"
      ],
      [
        "prom",
        "ise"
      ],
      [
        "heel",
        "s"
      ],
      [
        "keep",
        "s"
      ],
      [
        "want",
        "s"
      ],
      [
        "fr",
        "ont"
      ],
      [
        "Th",
        "urs"
      ],
      [
        "Mar",
        "ch"
      ],
      [
        "fl",
        "ood"
      ],
      [
        "fl",
        "ame"
      ],
      [
        "Ro",
        "der"
      ],
      [
        "ban",
        "ish"
      ],
      [
        "swor",
        "n"
      ],
      [
        "Un",
        "cle"
      ],
      [
        "EN",
        "TIO"
      ],
      [
        "TR",
        "IBU"
      ],
      [
        "ick",
        "ly"
      ],
      [
        "tro",
        "th"
      ],
      [
        "Sp",
        "ain"
      ],
      [
        "Sp",
        "ake"
      ],
      [
        "Sco",
        "ts"
      ],
      [
        "kne",
        "es"
      ],
      [
        "dur",
        "st"
      ],
      [
        "dig",
        "al"
      ],
      [
        "Lend",
        "s"
      ],
      [
        "mark",
        "s"
      ],
      [
        "need",
        "s"
      ],
      [
        "GOTH",
        "S"
      ],
      [
        "draw",
        "s"
      ],
      [
        "fro",
        "st"
      ],
      [
        "sho",
        "es"
      ],
      [
        "tho",
        "se"
      ],
      [
        "na",
        "ils"
      ],
      [
        "pu",
        "mps"
      ],
      [
        "va",
        "unt"
      ],
      [
        "stre",
        "w"
      ],
      [
        "col",
        "our"
      ],
      [
        "nob",
        "ly"
      ],
      [
        "fal",
        "se"
      ],
      [
        "sig",
        "ns"
      ],
      [
        "De",
        "ath"
      ],
      [
        "Er",
        "ror"
      ],
      [
        "far",
        "es"
      ],
      [
        "smo",
        "ke"
      ],
      [
        "grow",
        "s"
      ],
      [
        "pin",
        "ch"
      ],
      [
        "pal",
        "pa"
      ],
      [
        "wear",
        "y"
      ],
      [
        "Did",
        "st"
      ],
      [
        "Tit",
        "an"
      ],
      [
        "Tit",
        "us"
      ],
      [
        "VIN",
        "IA"
      ],
      [
        "baw",
        "dy"
      ],
      [
        "baw",
        "ds"
      ],
      [
        "jud",
        "ges"
      ],
      [
        "pup",
        "il"
      ],
      [
        "Bre",
        "ak"
      ],
      [
        "bun",
        "es"
      ],
      [
        "lust",
        "y"
      ],
      [
        "fing",
        "er"
      ],
      [
        "weap",
        "on"
      ],
      [
        "weep",
        "s"
      ],
      [
        "sull",
        "y"
      ],
      [
        "whe",
        "ne"
      ],
      [
        "whi",
        "st"
      ],
      [
        "mist",
        "s"
      ],
      [
        "Ho",
        "lla"
      ],
      [
        "tw",
        "ain"
      ],
      [
        "mar",
        "ch"
      ],
      [
        "swo",
        "ll"
      ],
      [
        "cho",
        "ly"
      ],
      [
        "bur",
        "st"
      ],
      [
        "cre",
        "am"
      ],
      [
        "qui",
        "et"
      ],
      [
        "glo",
        "be"
      ],
      [
        "dri",
        "ve"
      ],
      [
        "sli",
        "de"
      ],
      [
        "CH",
        "ILD"
      ],
      [
        "Imp",
        "ri"
      ],
      [
        "Bl",
        "unt"
      ],
      [
        "FI",
        "RST"
      ],
      [
        "Hy",
        "bla"
      ],
      [
        "bru",
        "is"
      ],
      [
        "hut",
        "ch"
      ],
      [
        "ja",
        "des"
      ],
      [
        "sse",
        "ss"
      ],
      [
        "sal",
        "ve"
      ],
      [
        "Del",
        "ay"
      ],
      [
        "Ral",
        "ph"
      ],
      [
        "Ste",
        "ps"
      ],
      [
        "boo",
        "ts"
      ],
      [
        "elo",
        "qu"
      ],
      [
        "ima",
        "ge"
      ],
      [
        "pear",
        "l"
      ],
      [
        "rhe",
        "um"
      ],
      [
        "rhy",
        "me"
      ],
      [
        "UCH",
        "IO"
      ],
      [
        "Adie",
        "u"
      ],
      [
        "Lat",
        "in"
      ],
      [
        "Shor",
        "e"
      ],
      [
        "cand",
        "y"
      ],
      [
        "sat",
        "is"
      ],
      [
        "atru",
        "m"
      ],
      [
        "mete",
        "y"
      ],
      [
        "C",
        "harge"
      ],
      [
        "D",
        "arest"
      ],
      [
        "E",
        "ither"
      ],
      [
        "F",
        "ather"
      ],
      [
        "K",
        "ather"
      ],
      [
        "K",
        "isses"
      ],
      [
        "L",
        "astly"
      ],
      [
        "S",
        "conce"
      ],
      [
        "a",
        "light"
      ],
      [
        "b",
        "ought"
      ],
      [
        "b",
        "atter"
      ],
      [
        "b",
        "right"
      ],
      [
        "b",
        "orrow"
      ],
      [
        "f",
        "ford"
      ],
      [
        "g",
        "led"
      ],
      [
        "k",
        "night"
      ],
      [
        "k",
        "isses"
      ],
      [
        "m",
        "utter"
      ],
      [
        "r",
        "iseth"
      ],
      [
        "s",
        "light"
      ],
      [
        "t",
        "ender"
      ],
      [
        "th",
        "reat"
      ],
      [
        "er",
        "ent"
      ],
      [
        "in",
        "ches"
      ]
    ]
  }
}