{
  "version": "1.0",
  "truncation": null,
  "padding": null,
  "added_tokens": [
    {
      "id": 0,
      "content": "[UNK]",
      "single_word": false,
      "lstrip": false,
      "rstrip": false,
      "normalized": false,
      "special": true
    },
    {
      "id": 1,
      "content": "[PAD]",
      "single_word": false,
      "lstrip": false,
      "rstrip": false,
      "normalized": false,
      "special": true
    },
    {
      "id": 2,
      "content": "[CLS]",
      "single_word": false,
      "lstrip": false,
      "rstrip": false,
      "normalized": false,
      "special": true
    },
    {
      "id": 3,
      "content": "[SEP]",
      "single_word": false,
      "lstrip": false,
      "rstrip": false,
      "normalized": false,
      "special": true
    }
  ],
  "normalizer": null,
  "pre_tokenizer": {
    "type": "ByteLevel",
    "add_prefix_space": true,
    "trim_offsets": true,
    "use_regex": true
  },
  "post_processor": null,
  "decoder": null,
  "model": {
    "type": "BPE",
    "dropout": null,
    "unk_token": "[UNK]",
    "continuing_subword_prefix": null,
    "end_of_word_suffix": null,
    "fuse_unk": false,
    "byte_fallback": false,
    "ignore_merges": false,
    "vocab": {
      "[UNK]": 0,
      "[PAD]": 1,
      "[CLS]": 2,
      "[SEP]": 3,
      "!": 4,
      "'": 5,
      ",": 6,
      "-": 7,
      ".": 8,
      "0": 9,
      "1": 10,
      "2": 11,
      "3": 12,
      "4": 13,
      "5": 14,
      "6": 15,
      "7": 16,
      "8": 17,
      "9": 18,
      ":": 19,
      ";": 20,
      "?": 21,
      "a": 22,
      "b": 23,
      "c": 24,
      "d": 25,
      "e": 26,
      "f": 27,
      "g": 28,
      "h": 29,
      "i": 30,
      "j": 31,
      "k": 32,
      "l": 33,
      "m": 34,
      "n": 35,
      "o": 36,
      "p": 37,
      "q": 38,
      "r": 39,
      "s": 40,
      "t": 41,
      "u": 42,
      "v": 43,
      "w": 44,
      "x": 45,
      "y": 46,
      "z": 47,
      "Ġ": 48,
      "Ġa": 49,
      "Ġt": 50,
      "in": 51,
      "he": 52,
      "re": 53,
      "on": 54,
      "Ġs": 55,
      "at": 56,
      "er": 57,
      "Ġo": 58,
      "Ġc": 59,
      "en": 60,
      "Ġthe": 61,
      "al": 62,
      "Ġp": 63,
      "is": 64,
      "Ġin": 65,
      "es": 66,
      "it": 67,
      "Ġm": 68,
      "or": 69,
      "ed": 70,
      "Ġw": 71,
      "Ġan": 72,
      "Ġb": 73,
      "Ġ,": 74,
      "Ġf": 75,
      "an": 76,
      "ic": 77,
      "Ġd": 78,
      "Ġof": 79,
      "ar": 80,
      "ro": 81,
      "ion": 82,
      "as": 83,
      "Ġand": 84,
      "Ġh": 85,
      "ing": 86,
      "ent": 87,
      "Ġl": 88,
      "Ġre": 89,
      "Ġ.": 90,
      "Ġto": 91,
      "us": 92,
      "ct": 93,
      "Ġe": 94,
      "Ġn": 95,
      "om": 96,
      "le": 97,
      "Ġth": 98,
      "ve": 99,
      "Ġg": 100,
      "ur": 101,
      "ly": 102,
      "id": 103,
      "os": 104,
      "ul": 105,
      "un": 106,
      "il": 107,
      "ation": 108,
      "et": 109,
      "ra": 110,
      "ut": 111,
      "im": 112,
      "Ġis": 113,
      "Ġ-": 114,
      "ol": 115,
      "Ġst": 116,
      "ce": 117,
      "Ġbe": 118,
      "Ġfor": 119,
      "ig": 120,
      "ith": 121,
      "Ġwith": 122,
      "ot": 123,
      "Ġas": 124,
      "Ġde": 125,
      "Ġon": 126,
      "ter": 127,
      "ir": 128,
      "el": 129,
      "ay": 130,
      "st": 131,
      "Ġpro": 132,
      "ow": 133,
      "Ġhe": 134,
      "ch": 135,
      "ver": 136,
      "op": 137,
      "am": 138,
      "Ġcon": 139,
      "Ġ1": 140,
      "ad": 141,
      "um": 142,
      "if": 143,
      "Ġcom": 144,
      "ia": 145,
      "res": 146,
      "Ġv": 147,
      "ive": 148,
      "Ġal": 149,
      "Ġr": 150,
      "oc": 151,
      "ical": 152,
      "ect": 153,
      "ment": 154,
      "od": 155,
      "Ġthat": 156,
      "ort": 157,
      "Ġ2": 158,
      "Ġch": 159,
      "ity": 160,
      "og": 161,
      "Ġit": 162,
      "Ġor": 163,
      "Ġse": 164,
      "th": 165,
      "Ġare": 166,
      "rom": 167,
      "qu": 168,
      "Ġdis": 169,
      "Ġex": 170,
      "ies": 171,
      "Ġwh": 172,
      "Ġsu": 173,
      "Ġat": 174,
      "ial": 175,
      "Ġne": 176,
      "Ġby": 177,
      "ers": 178,
      "est": 179,
      "ate": 180,
      "ge": 181,
      "Ġwe": 182,
      "Ġy": 183,
      "ant": 184,
      "Ġk": 185,
      "em": 186,
      "ain": 187,
      "ated": 188,
      "ud": 189,
      "Ġ3": 190,
      "ill": 191,
      "ac": 192,
      "Ġinc": 193,
      "iv": 194,
      "Ġpat": 195,
      "ast": 196,
      "her": 197,
      "Ġun": 198,
      "se": 199,
      "ab": 200,
      "ess": 201,
      "ase": 202,
      "ient": 203,
      "ell": 204,
      "ost": 205,
      "ist": 206,
      "igh": 207,
      "Ġus": 208,
      "Ġsh": 209,
      "ib": 210,
      "pp": 211,
      "ore": 212,
      "Ġha": 213,
      "ous": 214,
      "pt": 215,
      "Ġim": 216,
      "Ġwas": 217,
      "Ġsp": 218,
      "act": 219,
      "ure": 220,
      "Ġcomp": 221,
      "Ġle": 222,
      "Ġad": 223,
      "Ġfrom": 224,
      "Ġcan": 225,
      "ug": 226,
      "Ġres": 227,
      "00": 228,
      "Ġhas": 229,
      "and": 230,
      "Ġhave": 231,
      "Ġen": 232,
      "Ġac": 233,
      "ear": 234,
      "Ġpatient": 235,
      "ip": 236,
      "iz": 237,
      "ren": 238,
      "oun": 239,
      "ine": 240,
      "Ġca": 241,
      "ult": 242,
      "port": 243,
      "all": 244,
      "red": 245,
      "Ġcl": 246,
      "Ġthis": 247,
      "ph": 248,
      "Ġaf": 249,
      "Ġsy": 250,
      "ary": 251,
      "Ġint": 252,
      "Ġi": 253,
      "ak": 254,
      "mon": 255,
      "fect": 256,
      "up": 257,
      "Ġj": 258,
      "per": 259,
      "Ġtr": 260,
      "Ġbeen": 261,
      "ction": 262,
      "ans": 263,
      "art": 264,
      "ide": 265,
      "ular": 266,
      "ich": 267,
      "uc": 268,
      "Ġper": 269,
      "ag": 270,
      "der": 271,
      "reat": 272,
      "Ġra": 273,
      "ence": 274,
      "day": 275,
      "ard": 276,
      "olog": 277,
      "Ġab": 278,
      "ight": 279,
      "Ġpre": 280,
      "Ġman": 281,
      "Ġpl": 282,
      "ors": 283,
      "Ġpatients": 284,
      "our": 285,
      "ations": 286,
      "ress": 287,
      "Ġdise": 288,
      "vel": 289,
      "ions": 290,
      "Ġrec": 291,
      "Ġnot": 292,
      "ue": 293,
      "ld": 294,
      "Ġcont": 295,
      "ys": 296,
      "Ġwhich": 297,
      "ens": 298,
      "orm": 299,
      "ory": 300,
      "ign": 301,
      "'s": 302,
      "ugh": 303,
      "Ġapp": 304,
      "age": 305,
      "ri": 306,
      "Ġwere": 307,
      "Ġro": 308,
      "ome": 309,
      "Ġind": 310,
      "pe": 311,
      "Ġ39": 312,
      "Ġgen": 313,
      "Ġar": 314,
      "Ġme": 315,
      "pl": 316,
      "end": 317,
      "Ġsur": 318,
      "Ġreport": 319,
      "Ġag": 320,
      "Ġwor": 321,
      "Ġhis": 322,
      "Ġso": 323,
      "Ġpres": 324,
      "Ġstud": 325,
      "te": 326,
      "ood": 327,
      "ric": 328,
      "Ġcell": 329,
      "Ġass": 330,
      "ance": 331,
      "ath": 332,
      "ou": 333,
      "Ġbut": 334,
      "Ġmed": 335,
      "Ġsc": 336,
      "ases": 337,
      "Ġqu": 338,
      "ual": 339,
      "Ġits": 340,
      "ks": 341,
      "Ġnew": 342,
      "Ġam": 343,
      "Ġinf": 344,
      "Ġmost": 345,
      "ron": 346,
      "Ġdia": 347,
      "Ġall": 348,
      "Ġ4": 349,
      "ition": 350,
      "ie": 351,
      "Ġph": 352,
      "Ġdisease": 353,
      "Ġte": 354,
      "Ġyear": 355,
      "Ġco": 356,
      "Ġno": 357,
      "hen": 358,
      "ther": 359,
      "Ġmy": 360,
      "Ġinter": 361,
      "Ġ5": 362,
      "Ġmet": 363,
      "cer": 364,
      "one": 365,
      "ust": 366,
      "inal": 367,
      "ke": 368,
      "ord": 369,
      "ific": 370,
      "cc": 371,
      "ap": 372,
      "Ġover": 373,
      "Ġtheir": 374,
      "Ġmore": 375,
      "Ġbl": 376,
      "lic": 377,
      "use": 378,
      "lud": 379,
      "Ġacc": 380,
      "osis": 381,
      "Ġafter": 382,
      "Ġgro": 383,
      "Ġincre": 384,
      "own": 385,
      "out": 386,
      "ased": 387,
      "ative": 388,
      "ious": 389,
      "Ġone": 390,
      "Ġev": 391,
      "Ġinv": 392,
      "anc": 393,
      "Ġtreat": 394,
      "ft": 395,
      "ub": 396,
      "gn": 397,
      "iss": 398,
      "ms": 399,
      "velop": 400,
      "du": 401,
      "ass": 402,
      "Ġinclud": 403,
      "Ġdes": 404,
      "Ġkn": 405,
      "uld": 406,
      "able": 407,
      "Ġheal": 408,
      "ates": 409,
      "Ġup": 410,
      "oci": 411,
      "Ġcons": 412,
      "ec": 413,
      "Ġsa": 414,
      "Ġdevelop": 415,
      "ru": 416,
      "Ġmay": 417,
      "rent": 418,
      "ile": 419,
      "Ġob": 420,
      "Ġthere": 421,
      "ree": 422,
      "fic": 423,
      "Ġsuch": 424,
      "Ġhy": 425,
      "erv": 426,
      "Ġfir": 427,
      "Ġtw": 428,
      "Ġrel": 429,
      "Ġreg": 430,
      "Ġout": 431,
      "ry": 432,
      "old": 433,
      "Ġem": 434,
      "fe": 435,
      "Ġthese": 436,
      "Ġwill": 437,
      "Ġsub": 438,
      "Ġhealth": 439,
      "ob": 440,
      "Ġthan": 441,
      "ized": 442,
      "ire": 443,
      "Ġtreatment": 444,
      "Ġtra": 445,
      "Ġef": 446,
      "Ġ200": 447,
      "Ġmon": 448,
      "ace": 449,
      "ond": 450,
      "av": 451,
      "ong": 452,
      "ount": 453,
      "so": 454,
      "ose": 455,
      "ite": 456,
      "we": 457,
      "Ġtrans": 458,
      "Ġprev": 459,
      "Ġhigh": 460,
      "Ġhow": 461,
      "ind": 462,
      "Ġ;": 463,
      "ack": 464,
      "ang": 465,
      "enc": 466,
      "stem": 467,
      "Ġclin": 468,
      "Ġ6": 469,
      "Ġimp": 470,
      "Ġcommon": 471,
      "ents": 472,
      "Ġpr": 473,
      "ian": 474,
      "Ġpart": 475,
      "Ġassoci": 476,
      "Ġma": 477,
      "Ġsec": 478,
      "Ġfirst": 479,
      "Ġmar": 480,
      "ound": 481,
      "Ġap": 482,
      "Ġgo": 483,
      "Ġris": 484,
      "oth": 485,
      "ail": 486,
      "erm": 487,
      "Ġwho": 488,
      "Ġtwo": 489,
      "Ġdif": 490,
      "Ġsystem": 491,
      "ice": 492,
      "Ġfun": 493,
      "Ġu": 494,
      "Ġant": 495,
      "Ġend": 496,
      "Ġgl": 497,
      "Ġexp": 498,
      "rib": 499,
      "ater": 500,
      "Ġyears": 501,
      "Ġact": 502,
      "Ġbet": 503,
      "Ġfl": 504,
      "Ġcancer": 505,
      "acter": 506,
      "ild": 507,
      "Ġother": 508,
      "Ġli": 509,
      "Ġpe": 510,
      "Ġlead": 511,
      "Ġthey": 512,
      "ics": 513,
      "Ġty": 514,
      "uters": 515,
      "ital": 516,
      "Ġcr": 517,
      "ays": 518,
      "cular": 519,
      "Ġfe": 520,
      "mun": 521,
      "oll": 522,
      "Ġworld": 523,
      "ility": 524,
      "Ġ19": 525,
      "Ġpresent": 526,
      "Ġbec": 527,
      "ble": 528,
      "ins": 529,
      "ures": 530,
      "Ġpo": 531,
      "ied": 532,
      "Ġvar": 533,
      "ough": 534,
      "Ġreuters": 535,
      "Ġfact": 536,
      "Ġdec": 537,
      "ime": 538,
      "Ġsign": 539,
      "Ġunder": 540,
      "io": 541,
      "ological": 542,
      "oma": 543,
      "Ġmal": 544,
      "Ġocc": 545,
      "Ġyou": 546,
      "Ġclinical": 547,
      "Ġ20": 548,
      "ll": 549,
      "Ġdiagn": 550,
      "Ġresp": 551,
      "Ġinfect": 552,
      "uring": 553,
      "Ġchar": 554,
      "Ġext": 555,
      "Ġher": 556,
      "Ġcar": 557,
      "are": 558,
      "hed": 559,
      "Ġresult": 560,
      "Ġreported": 561,
      "ber": 562,
      "Ġhim": 563,
      "Ġappro": 564,
      "itis": 565,
      "ulation": 566,
      "ach": 567,
      "Ġatt": 568,
      "Ġalso": 569,
      "ake": 570,
      "ep": 571,
      "hes": 572,
      "..": 573,
      "ident": 574,
      "Ġcor": 575,
      "Ġear": 576,
      "ral": 577,
      "Ġour": 578,
      "Ġspec": 579,
      "Ġsaid": 580,
      "ating": 581,
      "ould": 582,
      "ons": 583,
      "ym": 584,
      "ros": 585,
      "ited": 586,
      "Ġ'": 587,
      "Ġtum": 588,
      "Ġassociated": 589,
      "ok": 590,
      "lect": 591,
      "ever": 592,
      "rap": 593,
      "Ġmo": 594,
      "form": 595,
      "ities": 596,
      "Ġproc": 597,
      "Ġsyn": 598,
      "atory": 599,
      "ues": 600,
      "Ġdep": 601,
      "Ġsurg": 602,
      "ality": 603,
      "oss": 604,
      "Ġhowever": 605,
      "Ġdet": 606,
      "Ġeffect": 607,
      "ally": 608,
      "Ġlow": 609,
      "Ġdr": 610,
      "ne": 611,
      "Ġold": 612,
      "Ġused": 613,
      "lym": 614,
      "ology": 615,
      "amm": 616,
      "Ġinto": 617,
      "Ġret": 618,
      "Ġhad": 619,
      "Ġinfl": 620,
      "Ġcells": 621,
      "Ġet": 622,
      "Ġwell": 623,
      "Ġlif": 624,
      "Ġwom": 625,
      "ract": 626,
      "Ġcol": 627,
      "'d": 628,
      "ved": 629,
      "rome": 630,
      "Ġ7": 631,
      "yt": 632,
      "hem": 633,
      "int": 634,
      "ute": 635,
      "uro": 636,
      "Ġimport": 637,
      "Ġmany": 638,
      "Ġduring": 639,
      "les": 640,
      "atic": 641,
      "Ġhum": 642,
      "ational": 643,
      "vers": 644,
      "Ġstudies": 645,
      "Ġrisk": 646,
      "Ġsm": 647,
      "Ġmic": 648,
      "ock": 649,
      "Ġform": 650,
      "chn": 651,
      "very": 652,
      "ween": 653,
      "Ġbetween": 654,
      "urs": 655,
      "fer": 656,
      "Ġfunction": 657,
      "ning": 658,
      "cept": 659,
      "Ġstudy": 660,
      "Ġdue": 661,
      "Ġincluding": 662,
      "Ġser": 663,
      "Ġmod": 664,
      "idence": 665,
      "fore": 666,
      "Ġcaus": 667,
      "Ġsome": 668,
      "Ġchild": 669,
      "gan": 670,
      "Ġrem": 671,
      "illion": 672,
      "ane": 673,
      "Ġpath": 674,
      "dition": 675,
      "Ġhist": 676,
      "ful": 677,
      "Ġprote": 678,
      "oid": 679,
      "year": 680,
      "Ġcases": 681,
      "ogen": 682,
      "Ġmaj": 683,
      "Ġgener": 684,
      "Ġabout": 685,
      "Ġest": 686,
      "Ġpop": 687,
      "Ġwhen": 688,
      "Ġcent": 689,
      "Ġdiffe": 690,
      "und": 691,
      "Ġ8": 692,
      "Ġdo": 693,
      "Ġmajor": 694,
      "rough": 695,
      "Ġmin": 696,
      "Ġcount": 697,
      "Ġnum": 698,
      "Ġbi": 699,
      "Ġuse": 700,
      "rapy": 701,
      "Ġpar": 702,
      "Ġrep": 703,
      "Ġins": 704,
      "yl": 705,
      "bet": 706,
      "Ġcur": 707,
      "Ġtechn": 708,
      "Ġrecent": 709,
      "Ġfat": 710,
      "Ġactiv": 711,
      "gen": 712,
      "ronic": 713,
      "urn": 714,
      "Ġcharacter": 715,
      "ior": 716,
      "ish": 717,
      "Ġcase": 718,
      "Ġdiabet": 719,
      "lymp": 720,
      "Ġolymp": 721,
      "Ġ10": 722,
      "osed": 723,
      "ants": 724,
      "arg": 725,
      "eric": 726,
      "na": 727,
      "Ġgrow": 728,
      "Ġshe": 729,
      "amp": 730,
      "Ġdist": 731,
      "Ġnon": 732,
      "Ġmain": 733,
      "Ġep": 734,
      "Ġprov": 735,
      "ogra": 736,
      "ject": 737,
      "Ġtime": 738,
      "Ġsecond": 739,
      "com": 740,
      "itt": 741,
      "Ġimportant": 742,
      "Ġlong": 743,
      "Ġcause": 744,
      "ines": 745,
      "nal": 746,
      "Ġshow": 747,
      "ature": 748,
      "ention": 749,
      "Ġpain": 750,
      "Ġprog": 751,
      "Ġmus": 752,
      "ily": 753,
      "ascular": 754,
      "ame": 755,
      "Ġmicro": 756,
      "Ġthy": 757,
      "ization": 758,
      "ined": 759,
      "Ġlife": 760,
      "Ġblood": 761,
      "Ġgroup": 762,
      "Ġdifferent": 763,
      "Ġif": 764,
      "Ġmult": 765,
      "Ġcare": 766,
      "Ġtiss": 767,
      "Ġrad": 768,
      "erg": 769,
      "Ġdef": 770,
      "Ġdrug": 771,
      "ptom": 772,
      "Ġaut": 773,
      "pital": 774,
      "arch": 775,
      "Ġgra": 776,
      "Ġsym": 777,
      "Ġcard": 778,
      "Ġdeath": 779,
      "ruct": 780,
      "Ġinvol": 781,
      "ause": 782,
      "ible": 783,
      "ency": 784,
      "duct": 785,
      "ments": 786,
      "ness": 787,
      "cle": 788,
      "Ġsever": 789,
      "Ġage": 790,
      "ont": 791,
      "duc": 792,
      "als": 793,
      "crib": 794,
      "Ġpeop": 795,
      "omy": 796,
      "Ġcontro": 797,
      "ically": 798,
      "ium": 799,
      "ise": 800,
      "Ġcomple": 801,
      "Ġ:": 802,
      "Ġsl": 803,
      "Ġboth": 804,
      "ential": 805,
      "Ġlt": 806,
      "Ġent": 807,
      "Ġfr": 808,
      "Ġrese": 809,
      "Ġonly": 810,
      "ism": 811,
      "Ġhyper": 812,
      "ps": 813,
      "its": 814,
      "ination": 815,
      "Ġwhe": 816,
      "Ġlike": 817,
      "Ġpost": 818,
      "Ġpeople": 819,
      "Ġimmun": 820,
      "ollow": 821,
      "cl": 822,
      "Ġthrough": 823,
      "ade": 824,
      "Ġsin": 825,
      "Ġamon": 826,
      "Ġlast": 827,
      "ural": 828,
      "Ġamong": 829,
      "Ġrare": 830,
      "Ġfollow": 831,
      "Ġsupp": 832,
      "Ġprim": 833,
      "Ġbre": 834,
      "Ġthree": 835,
      "ere": 836,
      "Ġes": 837,
      "Ġdat": 838,
      "Ġbecause": 839,
      "co": 840,
      "ograph": 841,
      "Ġorgan": 842,
      "Ġloc": 843,
      "Ġbra": 844,
      "tain": 845,
      "Ġadv": 846,
      "ery": 847,
      "ange": 848,
      "Ġlim": 849,
      "ression": 850,
      "Ġlo": 851,
      "ek": 852,
      "Ġfactors": 853,
      "Ġaffect": 854,
      "Ġphys": 855,
      "Ġbr": 856,
      "Ġwhat": 857,
      "ually": 858,
      "oph": 859,
      "Ġdiabetes": 860,
      "Ġchronic": 861,
      "quent": 862,
      "ody": 863,
      "Ġwomen": 864,
      "Ġalth": 865,
      "Ġalthough": 866,
      "Ġmeth": 867,
      "Ġknown": 868,
      "Ġpub": 869,
      "Ġbo": 870,
      "ork": 871,
      "Ġtest": 872,
      "Ġsynd": 873,
      "Ġseveral": 874,
      "Ġdevelopment": 875,
      "Ġpartic": 876,
      "Ġgt": 877,
      "ick": 878,
      "Ġmillion": 879,
      "Ġdi": 880,
      "ict": 881,
      "Ġsymptom": 882,
      "cent": 883,
      "Ġdiseases": 884,
      "Ġhuman": 885,
      "ately": 886,
      "Ġdescrib": 887,
      "Ġset": 888,
      "Ġpos": 889,
      "ified": 890,
      "Ġgold": 891,
      "Ġlevel": 892,
      "ck": 893,
      "ten": 894,
      "Ġmort": 895,
      "Ġincreased": 896,
      "Ġvis": 897,
      "Ġ9": 898,
      "Ġhem": 899,
      "Ġperform": 900,
      "ospital": 901,
      "hens": 902,
      "Ġprocess": 903,
      "li": 904,
      "Ġinflamm": 905,
      "Ġmen": 906,
      "ution": 907,
      "row": 908,
      "Ġsignific": 909,
      "Ġanal": 910,
      "raq": 911,
      "Ġcy": 912,
      "Ġhospital": 913,
      "cop": 914,
      "000": 915,
      "Ġtype": 916,
      "ormal": 917,
      "Ġnumber": 918,
      "etic": 919,
      "af": 920,
      "tic": 921,
      "Ġiraq": 922,
      "de": 923,
      "ix": 924,
      "ester": 925,
      "Ġsw": 926,
      "Ġvir": 927,
      "iqu": 928,
      "Ġoccur": 929,
      "Ġagain": 930,
      "ina": 931,
      "Ġbased": 932,
      "Ġimpro": 933,
      "gest": 934,
      "Ġair": 935,
      "Ġwould": 936,
      "Ġpot": 937,
      "ivid": 938,
      "Ġmark": 939,
      "Ġsat": 940,
      "Ġop": 941,
      "Ġfre": 942,
      "aw": 943,
      "Ġ201": 944,
      "Ġfound": 945,
      "Ġ--": 946,
      "arge": 947,
      "Ġserv": 948,
      "Ġmedical": 949,
      "Ġwhile": 950,
      "air": 951,
      "asing": 952,
      "ings": 953,
      "hel": 954,
      "ists": 955,
      "Ġcomplic": 956,
      "Ġpopulation": 957,
      "Ġsince": 958,
      "Ġrev": 959,
      "Ġstand": 960,
      "Ġneuro": 961,
      "Ġsyndrome": 962,
      "let": 963,
      "Ġquot": 964,
      "itive": 965,
      "Ġel": 966,
      "Ġmor": 967,
      "ration": 968,
      "Ġinj": 969,
      "Ġrelated": 970,
      "iter": 971,
      "pect": 972,
      "Ġinvest": 973,
      "cin": 974,
      "Ġsignificant": 975,
      "Ġir": 976,
      "Ġav": 977,
      "Ġintra": 978,
      "Ġusing": 979,
      "ull": 980,
      "Ġpreval": 981,
      "Ġinst": 982,
      "Ġdata": 983,
      "Ġident": 984,
      "Ġloss": 985,
      "Ġprof": 986,
      "any": 987,
      "Ġmonth": 988,
      "Ġoil": 989,
      "Ġearly": 990,
      "Ġwar": 991,
      "ental": 992,
      "Ġathens": 993,
      "Ġjo": 994,
      "Ġrequ": 995,
      "ired": 996,
      "Ġhand": 997,
      "Ġexper": 998,
      "Ġinfection": 999,
      "Ġresearch": 1000,
      "ets": 1001,
      "ty": 1002,
      "Ġnow": 1003,
      "ox": 1004,
      "Ġsk": 1005,
      "Ġtherapy": 1006,
      "Ġameric": 1007,
      "iew": 1008,
      "ces": 1009,
      "xim": 1010,
      "ving": 1011,
      "vir": 1012,
      "ially": 1013,
      "Ġbeing": 1014,
      "ries": 1015,
      "duction": 1016,
      "Ġsurgery": 1017,
      "Ġintern": 1018,
      "Ġthou": 1019,
      "Ġcould": 1020,
      "way": 1021,
      "Ġlet": 1022,
      "Ġmem": 1023,
      "Ġtissue": 1024,
      "Ġgreat": 1025,
      "Ġgu": 1026,
      "ished": 1027,
      "Ġhistory": 1028,
      "olic": 1029,
      "Ġaccord": 1030,
      "ials": 1031,
      "Ġang": 1032,
      "Ġgood": 1033,
      "Ġhead": 1034,
      "Ġincidence": 1035,
      "Ġdiagnosis": 1036,
      "Ġunited": 1037,
      "Ġolympic": 1038,
      "Ġmortality": 1039,
      "Ġtumor": 1040,
      "Ġwhere": 1041,
      "ury": 1042,
      "ung": 1043,
      "Ġproble": 1044,
      "Ġpric": 1045,
      "ilit": 1046,
      "Ġbel": 1047,
      "Ġinit": 1048,
      "elf": 1049,
      "Ġwork": 1050,
      "ale": 1051,
      "ection": 1052,
      "Ġchem": 1053,
      "led": 1054,
      "Ġhere": 1055,
      "Ġcharacterized": 1056,
      "ption": 1057,
      "Ġacute": 1058,
      "Ġclass": 1059,
      "Ġchildren": 1060,
      "ds": 1061,
      "ns": 1062,
      "Ġleft": 1063,
      "Ġpa": 1064,
      "Ġprotein": 1065,
      "Ġlarge": 1066,
      "Ġbro": 1067,
      "Ġrate": 1068,
      "Ġmat": 1069,
      "Ġfour": 1070,
      "Ġ15": 1071,
      "br": 1072,
      "ability": 1073,
      "Ġoften": 1074,
      "Ġright": 1075,
      "Ġadm": 1076,
      "Ġstruct": 1077,
      "ize": 1078,
      "Ġpers": 1079,
      "Ġany": 1080,
      "Ġprot": 1081,
      "Ġsymptoms": 1082,
      "cul": 1083,
      "Ġmass": 1084,
      "ef": 1085,
      "els": 1086,
      "ety": 1087,
      "Ġstr": 1088,
      "Ġback": 1089,
      "Ġprimary": 1090,
      "ides": 1091,
      "chan": 1092,
      "Ġvarious": 1093,
      "Ġremain": 1094,
      "Ġben": 1095,
      "Ġterm": 1096,
      "Ġfail": 1097,
      "Ġfam": 1098,
      "Ġles": 1099,
      "Ġfather": 1100,
      "ension": 1101,
      "Ġsim": 1102,
      "Ġoff": 1103,
      "Ġbefore": 1104,
      "Ġhel": 1105,
      "Ġsee": 1106,
      "Ġaccording": 1107,
      "Ġed": 1108,
      "Ġey": 1109,
      "ogn": 1110,
      "Ġmethod": 1111,
      "Ġhig": 1112,
      "Ġindivid": 1113,
      "Ġincreasing": 1114,
      "Ġtyp": 1115,
      "iation": 1116,
      "Ġbody": 1117,
      "Ġwithin": 1118,
      "Ġec": 1119,
      "ister": 1120,
      "rop": 1121,
      "Ġsmall": 1122,
      "Ġcontrol": 1123,
      "Ġban": 1124,
      "Ġshould": 1125,
      "Ġplay": 1126,
      "Ġ0": 1127,
      "Ġann": 1128,
      "uss": 1129,
      "Ġadult": 1130,
      "Ġmedic": 1131,
      "Ġindividual": 1132,
      "Ġz": 1133,
      "vere": 1134,
      "Ġprevious": 1135,
      "sy": 1136,
      "Ġleading": 1137,
      "ival": 1138,
      "Ġagainst": 1139,
      "Ġmot": 1140,
      "Ġelect": 1141,
      "ton": 1142,
      "Ġtarg": 1143,
      "ysis": 1144,
      "line": 1145,
      "Ġdys": 1146,
      "vascular": 1147,
      "Ġhyp": 1148,
      "Ġer": 1149,
      "Ġmechan": 1150,
      "Ġestim": 1151,
      "Ġneed": 1152,
      "Ġ199": 1153,
      "Ġpotential": 1154,
      "Ġconf": 1155,
      "Ġgrowth": 1156,
      "Ġperi": 1157,
      "Ġresults": 1158,
      "hing": 1159,
      "Ġwide": 1160,
      "Ġmake": 1161,
      "Ġsoft": 1162,
      "Ġrest": 1163,
      "ices": 1164,
      "Ġstates": 1165,
      "Ġbus": 1166,
      "ink": 1167,
      "aging": 1168,
      "vern": 1169,
      "Ġbone": 1170,
      "ters": 1171,
      "ram": 1172,
      "Ġcall": 1173,
      "Ġdev": 1174,
      "Ġpress": 1175,
      "ites": 1176,
      "Ġrele": 1177,
      "ting": 1178,
      "Ġprevalence": 1179,
      "ves": 1180,
      "ening": 1181,
      "Ġpred": 1182,
      "ts": 1183,
      "nes": 1184,
      "Ġbas": 1185,
      "Ġcountries": 1186,
      "Ġoffic": 1187,
      "Ġarter": 1188,
      "ges": 1189,
      "Ġsevere": 1190,
      "ared": 1191,
      "Ġcat": 1192,
      "Ġchang": 1193,
      "Ġlym": 1194,
      "Ġexam": 1195,
      "Ġkill": 1196,
      "ages": 1197,
      "Ġgr": 1198,
      "roph": 1199,
      "Ġspecific": 1200,
      "Ġ12": 1201,
      "Ġsir": 1202,
      "Ġlower": 1203,
      "Ġche": 1204,
      "Ġcost": 1205,
      "Ġrole": 1206,
      "Ġke": 1207,
      "Ġdescribed": 1208,
      "iel": 1209,
      "Ġsun": 1210,
      "Ġfig": 1211,
      "Ġincrease": 1212,
      "Ġx": 1213,
      "Ġur": 1214,
      "ives": 1215,
      "iple": 1216,
      "Ġsal": 1217,
      "Ġcal": 1218,
      "itions": 1219,
      "Ġcomm": 1220,
      "Ġmanage": 1221,
      "iday": 1222,
      "str": 1223,
      "Ġweek": 1224,
      "Ġshall": 1225,
      "pat": 1226,
      "Ġcour": 1227,
      "order": 1228,
      "ission": 1229,
      "Ġgeneral": 1230,
      "Ġbu": 1231,
      "Ġdem": 1232,
      "Ġmonday": 1233,
      "Ġinform": 1234,
      "rong": 1235,
      "ex": 1236,
      "Ġfem": 1237,
      "Ġprom": 1238,
      "rence": 1239,
      "Ġsurgical": 1240,
      "duced": 1241,
      "Ġdown": 1242,
      "Ġele": 1243,
      "Ġgovern": 1244,
      "ography": 1245,
      "Ġlymph": 1246,
      "Ġter": 1247,
      "dom": 1248,
      "Ġwin": 1249,
      "Ġthurs": 1250,
      "Ġthursday": 1251,
      "Ġthem": 1252,
      "Ġgast": 1253,
      "Ġheart": 1254,
      "Ġpublic": 1255,
      "Ġve": 1256,
      "Ġcompany": 1257,
      "usion": 1258,
      "aneous": 1259,
      "ird": 1260,
      "Ġval": 1261,
      "ner": 1262,
      "Ġsol": 1263,
      "Ġlab": 1264,
      "med": 1265,
      "Ġcle": 1266,
      "Ġaddition": 1267,
      "Ġnet": 1268,
      "Ġ13": 1269,
      "ressive": 1270,
      "Ġmole": 1271,
      "Ġcurrent": 1272,
      "erative": 1273,
      "land": 1274,
      "Ġwithout": 1275,
      "Ġnear": 1276,
      "Ġyour": 1277,
      "Ġtumors": 1278,
      "Ġoper": 1279,
      "orders": 1280,
      "Ġbur": 1281,
      "Ġmetab": 1282,
      "Ġproced": 1283,
      "viron": 1284,
      "ius": 1285,
      "Ġbrain": 1286,
      "wide": 1287,
      "Ġregion": 1288,
      "Ġfrequent": 1289,
      "opath": 1290,
      "...": 1291,
      "Ġmanagement": 1292,
      "Ġsug": 1293,
      "Ġtechniqu": 1294,
      "Ġaug": 1295,
      "Ġfib": 1296,
      "Ġfriday": 1297,
      "Ġfind": 1298,
      "Ġref": 1299,
      "Ġplan": 1300,
      "Ġcontin": 1301,
      "bs": 1302,
      "ision": 1303,
      "Ġday": 1304,
      "ven": 1305,
      "Ġbar": 1306,
      "Ġusually": 1307,
      "arm": 1308,
      "ucle": 1309,
      "Ġinclude": 1310,
      "bid": 1311,
      "Ġtues": 1312,
      "Ġmak": 1313,
      "Ġmalign": 1314,
      "Ġtuesday": 1315,
      "vement": 1316,
      "Ġperiod": 1317,
      "Ġopt": 1318,
      "ret": 1319,
      "ows": 1320,
      "man": 1321,
      "Ġtre": 1322,
      "Ġeffects": 1323,
      "Ġfire": 1324,
      "Ġliver": 1325,
      "Ġmater": 1326,
      "omic": 1327,
      "Ġenviron": 1328,
      "Ġcome": 1329,
      "Ġyork": 1330,
      "Ġna": 1331,
      "Ġbreast": 1332,
      "idered": 1333,
      "Ġhelp": 1334,
      "Ġhigher": 1335,
      "oscop": 1336,
      "Ġeven": 1337,
      "Ġconsidered": 1338,
      "Ġvery": 1339,
      "round": 1340,
      "Ġtarget": 1341,
      "orn": 1342,
      "Ġwed": 1343,
      "ensive": 1344,
      "ification": 1345,
      "Ġox": 1346,
      "Ġstill": 1347,
      "Ġdisorder": 1348,
      "Ġknow": 1349,
      "Ġpresented": 1350,
      "Ġcaused": 1351,
      "ends": 1352,
      "asm": 1353,
      "Ġnational": 1354,
      "Ġdisorders": 1355,
      "Ġinflammatory": 1356,
      "Ġless": 1357,
      "Ġshown": 1358,
      "Ġapproxim": 1359,
      "Ġsuggest": 1360,
      "Ġsing": 1361,
      "ulin": 1362,
      "Ġcond": 1363,
      "Ġdeveloped": 1364,
      "ave": 1365,
      "hib": 1366,
      "tal": 1367,
      "Ġdesp": 1368,
      "Ġcarcin": 1369,
      "Ġfac": 1370,
      "isms": 1371,
      "ived": 1372,
      "cess": 1373,
      "Ġstate": 1374,
      "Ġsucc": 1375,
      "Ġobes": 1376,
      "Ġtit": 1377,
      "Ġpul": 1378,
      "Ġsout": 1379,
      "ones": 1380,
      "Ġrome": 1381,
      "Ġnormal": 1382,
      "Ġposs": 1383,
      "terior": 1384,
      "Ġtherefore": 1385,
      "plant": 1386,
      "Ġmultiple": 1387,
      "nesday": 1388,
      "Ġwednesday": 1389,
      "Ġdire": 1390,
      "aster": 1391,
      "Ġfollowing": 1392,
      "Ġ50": 1393,
      "of": 1394,
      "Ġpol": 1395,
      "eth": 1396,
      "Ġ18": 1397,
      "Ġsens": 1398,
      "Ġ30": 1399,
      "pec": 1400,
      "Ġlip": 1401,
      "ocks": 1402,
      "Ġthose": 1403,
      "Ġmeas": 1404,
      "ax": 1405,
      "Ġcentral": 1406,
      "Ġrenal": 1407,
      "opl": 1408,
      "ected": 1409,
      "Ġdisc": 1410,
      "Ġfew": 1411,
      "Ġworldwide": 1412,
      "Ġmade": 1413,
      "Ġvirus": 1414,
      "Ġmonths": 1415,
      "Ġapproximately": 1416,
      "arc": 1417,
      "Ġsuccess": 1418,
      "otic": 1419,
      "alu": 1420,
      "Ġfactor": 1421,
      "Ġmut": 1422,
      "Ġresist": 1423,
      "Ġtake": 1424,
      "Ġcomput": 1425,
      "ward": 1426,
      "Ġsus": 1427,
      "Ġdel": 1428,
      "Ġparticular": 1429,
      "Ġbeh": 1430,
      "Ġchanges": 1431,
      "Ġpercent": 1432,
      "Ġpast": 1433,
      "ider": 1434,
      "Ġproduct": 1435,
      "Ġinvestig": 1436,
      "eng": 1437,
      "Ġflu": 1438,
      "tis": 1439,
      "Ġenter": 1440,
      "par": 1441,
      "Ġthen": 1442,
      "Ġobs": 1443,
      "Ġprices": 1444,
      "iat": 1445,
      "ades": 1446,
      "Ġcomplex": 1447,
      "Ġcommun": 1448,
      "Ġsurv": 1449,
      "Ġeuro": 1450,
      "othe": 1451,
      "Ġevalu": 1452,
      "Ġvari": 1453,
      "Ġshowed": 1454,
      "Ġfinal": 1455,
      "ancy": 1456,
      "Ġteam": 1457,
      "Ġlocal": 1458,
      "ason": 1459,
      "Ġenvironment": 1460,
      "lished": 1461,
      "Ġhome": 1462,
      "iving": 1463,
      "Ġthee": 1464,
      "Ġdam": 1465,
      "Ġlung": 1466,
      "Ġreve": 1467,
      "Ġreact": 1468,
      "ids": 1469,
      "Ġproper": 1470,
      "Ġleast": 1471,
      "Ġmilit": 1472,
      "orth": 1473,
      "Ġcomplications": 1474,
      "ised": 1475,
      "cell": 1476,
      "Ġglob": 1477,
      "ames": 1478,
      "Ġabdom": 1479,
      "Ġcorp": 1480,
      "verse": 1481,
      "Ġ100": 1482,
      "onse": 1483,
      "asis": 1484,
      "Ġcut": 1485,
      "Ġactivity": 1486,
      "uk": 1487,
      "vention": 1488,
      "ield": 1489,
      "Ġever": 1490,
      "Ġexpl": 1491,
      "Ġopen": 1492,
      "Ġgovernment": 1493,
      "Ġmetast": 1494,
      "Ġresponse": 1495,
      "emia": 1496,
      "Ġdecre": 1497,
      "Ġinjury": 1498,
      "Ġsay": 1499,
      "Ġspe": 1500,
      "Ġrespons": 1501,
      "Ġdespite": 1502,
      "Ġcauses": 1503,
      "Ġreview": 1504,
      "Ġinformation": 1505,
      "rel": 1506,
      "Ġfur": 1507,
      "Ġphysical": 1508,
      "Ġperformed": 1509,
      "rem": 1510,
      "Ġsch": 1511,
      "Ġrecord": 1512,
      "ands": 1513,
      "hip": 1514,
      "ler": 1515,
      "apan": 1516,
      "Ġcommonly": 1517,
      "Ġanim": 1518,
      "ivers": 1519,
      "Ġeach": 1520,
      "Ġmuscle": 1521,
      "Ġstandard": 1522,
      "Ġfailure": 1523,
      "Ġconditions": 1524,
      "erc": 1525,
      "Ġjust": 1526,
      "Ġaccount": 1527,
      "Ġlevels": 1528,
      "Ġemerg": 1529,
      "Ġrece": 1530,
      "ears": 1531,
      "Ġcyt": 1532,
      "Ġfood": 1533,
      "ste": 1534,
      "Ġface": 1535,
      "Ġstra": 1536,
      "omet": 1537,
      "ling": 1538,
      "Ġhal": 1539,
      "Ġeffective": 1540,
      "Ġweight": 1541,
      "Ġevidence": 1542,
      "Ġcardio": 1543,
      "Ġskin": 1544,
      "Ġecon": 1545,
      "Ġdiagnosed": 1546,
      "ov": 1547,
      "Ġpow": 1548,
      "Ġmid": 1549,
      "Ġbeg": 1550,
      "Ġ11": 1551,
      "Ġgene": 1552,
      "Ġfo": 1553,
      "Ġrap": 1554,
      "aled": 1555,
      "Ġsupport": 1556,
      "Ġ14": 1557,
      "Ġquality": 1558,
      "Ġhypert": 1559,
      "Ġdefined": 1560,
      "Ġcomb": 1561,
      "Ġtal": 1562,
      "ced": 1563,
      "Ġpc": 1564,
      "Ġdom": 1565,
      "Ġthough": 1566,
      "less": 1567,
      "Ġtop": 1568,
      "Ġeng": 1569,
      "Ġabs": 1570,
      "Ġadvanc": 1571,
      "Ġfurther": 1572,
      "read": 1573,
      "Ġrecept": 1574,
      "iven": 1575,
      "Ġpresident": 1576,
      "Ġwoman": 1577,
      "Ġpract": 1578,
      "ote": 1579,
      "Ġ25": 1580,
      "Ġjapan": 1581,
      "Ġavail": 1582,
      "set": 1583,
      "ator": 1584,
      "ocyt": 1585,
      "Ġquar": 1586,
      "Ġdeterm": 1587,
      "Ġchina": 1588,
      "Ġthird": 1589,
      "Ġgive": 1590,
      "Ġdemon": 1591,
      "Ġsystems": 1592,
      "Ġbacter": 1593,
      "Ġfin": 1594,
      "Ġtak": 1595,
      "ert": 1596,
      "ured": 1597,
      "Ġemb": 1598,
      "Ġrecently": 1599,
      "Ġmorbid": 1600,
      "Ġfall": 1601,
      "Ġliter": 1602,
      "ney": 1603,
      "aring": 1604,
      "ateral": 1605,
      "Ġestimated": 1606,
      "Ġnucle": 1607,
      "Ġstocks": 1608,
      "iological": 1609,
      "Ġmm": 1610,
      "Ġstart": 1611,
      "Ġrange": 1612,
      "Ġpoor": 1613,
      "Ġamerican": 1614,
      "Ġpressure": 1615,
      "xt": 1616,
      "onal": 1617,
      "unction": 1618,
      "Ġimaging": 1619,
      "Ġdirect": 1620,
      "rh": 1621,
      "Ġtotal": 1622,
      "Ġmedal": 1623,
      "Ġconsum": 1624,
      "Ġeurope": 1625,
      "Ġfore": 1626,
      "ribut": 1627,
      "ify": 1628,
      "ruction": 1629,
      "Ġconst": 1630,
      "Ġturn": 1631,
      "Ġmac": 1632,
      "Ġinfections": 1633,
      "Ġlesions": 1634,
      "esis": 1635,
      "erest": 1636,
      "Ġkid": 1637,
      "Ġut": 1638,
      "iac": 1639,
      "Ġoral": 1640,
      "roid": 1641,
      "other": 1642,
      "Ġrun": 1643,
      "Ġcardiovascular": 1644,
      "Ġaust": 1645,
      "Ġunt": 1646,
      "ross": 1647,
      "soft": 1648,
      "ark": 1649,
      "Ġcrit": 1650,
      "Ġstat": 1651,
      "Ġdrugs": 1652,
      "ars": 1653,
      "Ġ...": 1654,
      "Ġbank": 1655,
      "sych": 1656,
      "ience": 1657,
      "ending": 1658,
      "Ġinflu": 1659,
      "Ġeye": 1660,
      "oy": 1661,
      "Ġcir": 1662,
      "Ġsunday": 1663,
      "Ġobserv": 1664,
      "ither": 1665,
      "Ġreports": 1666,
      "Ġmale": 1667,
      "Ġadults": 1668,
      "Ġprost": 1669,
      "Ġyester": 1670,
      "Ġdiffic": 1671,
      "Ġsoc": 1672,
      "Ġla": 1673,
      "Ġanti": 1674,
      "Ġdemonstr": 1675,
      "Ġyesterday": 1676,
      "Ġfree": 1677,
      "ians": 1678,
      "Ġdays": 1679,
      "Ġindic": 1680,
      "ring": 1681,
      "Ġwater": 1682,
      "omas": 1683,
      "Ġcap": 1684,
      "Ġespec": 1685,
      "Ġspecies": 1686,
      "Ġinsulin": 1687,
      "Ġorig": 1688,
      "Ġobesity": 1689,
      "ware": 1690,
      "Ġknock": 1691,
      "Ġproteins": 1692,
      "Ġespecially": 1693,
      "eration": 1694,
      "Ġnight": 1695,
      "Ġsequ": 1696,
      "Ġinterest": 1697,
      "fort": 1698,
      "Ġow": 1699,
      "Ġregul": 1700,
      "Ġapplic": 1701,
      "Ġmicrosoft": 1702,
      "Ġlabor": 1703,
      "iting": 1704,
      "ologic": 1705,
      "Ġfamily": 1706,
      "Ġdifficult": 1707,
      "Ġven": 1708,
      "Ġassess": 1709,
      "Ġsecur": 1710,
      "atures": 1711,
      "Ġdead": 1712,
      "Ġprop": 1713,
      "Ġgoog": 1714,
      "Ġrepres": 1715,
      "az": 1716,
      "eral": 1717,
      "Ġtem": 1718,
      "Ġcondition": 1719,
      "Ġmarket": 1720,
      "Ġnaj": 1721,
      "uch": 1722,
      "Ġsour": 1723,
      "Ġconcer": 1724,
      "ged": 1725,
      "Ġexamination": 1726,
      "otherapy": 1727,
      "fici": 1728,
      "ences": 1729,
      "Ġtoday": 1730,
      "Ġgi": 1731,
      "Ġstro": 1732,
      "Ġchall": 1733,
      "Ġunderst": 1734,
      "Ġextra": 1735,
      "iology": 1736,
      "ivity": 1737,
      "Ġbecome": 1738,
      "Ġcyst": 1739,
      "imes": 1740,
      "estinal": 1741,
      "Ġgenetic": 1742,
      "Ġver": 1743,
      "Ġafp": 1744,
      "Ġmorbidity": 1745,
      "Ġliterature": 1746,
      "iness": 1747,
      "Ġfri": 1748,
      "ned": 1749,
      "Ġwall": 1750,
      "duce": 1751,
      "Ġindividuals": 1752,
      "Ġvascular": 1753,
      "Ġfull": 1754,
      "Ġhath": 1755,
      "Ġacqu": 1756,
      "Ġnajaf": 1757,
      "tle": 1758,
      "Ġtom": 1759,
      "Ġalter": 1760,
      "go": 1761,
      "monary": 1762,
      "Ġservice": 1763,
      "Ġoccurs": 1764,
      "Ġsuper": 1765,
      "Ġshort": 1766,
      "Ġconsider": 1767,
      "Ġside": 1768,
      "Ġvent": 1769,
      "Ġyoun": 1770,
      "Ġunivers": 1771,
      "ense": 1772,
      "Ġanother": 1773,
      "Ġ24": 1774,
      "Ġsays": 1775,
      "Ġthus": 1776,
      "Ġsha": 1777,
      "Ġsurf": 1778,
      "Ġgoogle": 1779,
      "cy": 1780,
      "Ġpsych": 1781,
      "Ġrates": 1782,
      "astic": 1783,
      "Ġprol": 1784,
      "Ġfunctional": 1785,
      "Ġhost": 1786,
      "Ġgree": 1787,
      "Ġabn": 1788,
      "Ġol": 1789,
      "Ġobtain": 1790,
      "Ġvol": 1791,
      "Ġabdominal": 1792,
      "ateg": 1793,
      "Ġ40": 1794,
      "Ġconse": 1795,
      "Ġneg": 1796,
      "Ġinternational": 1797,
      "Ġepid": 1798,
      "Ġimmune": 1799,
      "Ġyoung": 1800,
      "iated": 1801,
      "Ġinhib": 1802,
      "Ġequ": 1803,
      "Ġnews": 1804,
      "ising": 1805,
      "ended": 1806,
      "ided": 1807,
      "Ġrecogn": 1808,
      "come": 1809,
      "Ġrevealed": 1810,
      "ae": 1811,
      "Ġswe": 1812,
      "Ġfoc": 1813,
      "Ġstress": 1814,
      "Ġavailable": 1815,
      "Ġult": 1816,
      "Ġrat": 1817,
      "lected": 1818,
      "Ġsurvival": 1819,
      "Ġaustral": 1820,
      "ining": 1821,
      "Ġdepart": 1822,
      "helial": 1823,
      "ball": 1824,
      "Ġsubst": 1825,
      "Ġsubject": 1826,
      "Ġantib": 1827,
      "erve": 1828,
      "Ġstrong": 1829,
      "Ġproblems": 1830,
      "den": 1831,
      "ators": 1832,
      "Ġlitt": 1833,
      "Ġsingle": 1834,
      "Ġbir": 1835,
      "Ġruss": 1836,
      "Ġacid": 1837,
      "aps": 1838,
      "Ġ2004": 1839,
      "Ġanalysis": 1840,
      "Ġmethods": 1841,
      "rape": 1842,
      "Ġproblem": 1843,
      "Ġill": 1844,
      "Ġstage": 1845,
      "Ġupon": 1846,
      "rapeut": 1847,
      "eg": 1848,
      "Ġdna": 1849,
      "Ġestab": 1850,
      "10": 1851,
      "Ġpathogen": 1852,
      "Ġinstit": 1853,
      "cri": 1854,
      "eks": 1855,
      "ample": 1856,
      "Ġnetw": 1857,
      "Ġcarcinoma": 1858,
      "Ġlittle": 1859,
      "Ġip": 1860,
      "Ġfive": 1861,
      "ash": 1862,
      "Ġlive": 1863,
      "Ġiss": 1864,
      "Ġste": 1865,
      "ains": 1866,
      "Ġce": 1867,
      "ostic": 1868,
      "Ġpresence": 1869,
      "Ġlat": 1870,
      "Ġlight": 1871,
      "Ġinternet": 1872,
      "Ġsuf": 1873,
      "Ġgluc": 1874,
      "omal": 1875,
      "Ġpoly": 1876,
      "Ġidentified": 1877,
      "Ġstroke": 1878,
      "inary": 1879,
      "Ġsite": 1880,
      "be": 1881,
      "Ġcere": 1882,
      "Ġfed": 1883,
      "Ġafric": 1884,
      "Ġfemale": 1885,
      "Ġsouth": 1886,
      "ump": 1887,
      "endent": 1888,
      "Ġfrequently": 1889,
      "osph": 1890,
      "Ġdeveloping": 1891,
      "Ġfil": 1892,
      "Ġtraum": 1893,
      "Ġradi": 1894,
      "Ġinvolved": 1895,
      "ficiency": 1896,
      "Ġrecur": 1897,
      "Ġrelative": 1898,
      "Ġartery": 1899,
      "ror": 1900,
      "ted": 1901,
      "ively": 1902,
      "Ġolympics": 1903,
      "Ġos": 1904,
      "Ġbetter": 1905,
      "Ġcoron": 1906,
      "Ġsam": 1907,
      "Ġbig": 1908,
      "operative": 1909,
      "Ġvit": 1910,
      "Ġobst": 1911,
      "anding": 1912,
      "Ġpregn": 1913,
      "Ġsatur": 1914,
      "Ġhom": 1915,
      "Ġindia": 1916,
      "Ġcardiac": 1917,
      "rine": 1918,
      "Ġpoint": 1919,
      "hy": 1920,
      "Ġct": 1921,
      "Ġnas": 1922,
      "Ġinduc": 1923,
      "Ġhypertension": 1924,
      "por": 1925,
      "Ġcity": 1926,
      "Ġassociation": 1927,
      "Ġfeatures": 1928,
      "Ġscient": 1929,
      "fact": 1930,
      "Ġlaw": 1931,
      "amin": 1932,
      "ode": 1933,
      "Ġadmin": 1934,
      "Ġmetabolic": 1935,
      "Ġmuc": 1936,
      "romb": 1937,
      "Ġii": 1938,
      "ief": 1939,
      "Ġminister": 1940,
      "Ġtechnology": 1941,
      "Ġresistance": 1942,
      "Ġsecurity": 1943,
      "Ġwind": 1944,
      "Ġhor": 1945,
      "Ġnext": 1946,
      "Ġrapid": 1947,
      "Ġdou": 1948,
      "Ġpur": 1949,
      "Ġdid": 1950,
      "Ġglobal": 1951,
      "Ġnat": 1952,
      "oscopic": 1953,
      "Ġaim": 1954,
      "Ġheav": 1955,
      "Ġvisual": 1956,
      "rum": 1957,
      "ways": 1958,
      "Ġoste": 1959,
      "raw": 1960,
      "ties": 1961,
      "ison": 1962,
      "Ġadd": 1963,
      "Ġkore": 1964,
      "Ġresulting": 1965,
      "Ġremains": 1966,
      "Ġdepartment": 1967,
      "unt": 1968,
      "Ġsex": 1969,
      "Ġcompon": 1970,
      "rapeutic": 1971,
      "Ġfract": 1972,
      "Ġget": 1973,
      "Ġgames": 1974,
      "Ġdeal": 1975,
      "Ġhepat": 1976,
      "Ġsystemic": 1977,
      "Ġinitial": 1978,
      "Ġadminist": 1979,
      "Ġil": 1980,
      "Ġtub": 1981,
      "lex": 1982,
      "Ġenc": 1983,
      "Ġregard": 1984,
      "ergy": 1985,
      "Ġwidely": 1986,
      "Ġinflammation": 1987,
      "Ġbehav": 1988,
      "Ġisol": 1989,
      "Ġstim": 1990,
      "Ġpulmonary": 1991,
      "Ġabnormal": 1992,
      "Ġcoronary": 1993,
      "Ġq": 1994,
      "Ġbillion": 1995,
      "Ġintro": 1996,
      "iatric": 1997,
      "Ġsix": 1998,
      "pper": 1999,
      "Ġcomplete": 2000,
      "Ġlimited": 2001,
      "Ġsoftware": 2002,
      "iate": 2003,
      "ole": 2004,
      "Ġhiv": 2005,
      "umb": 2006,
      "acks": 2007,
      "Ġlook": 2008,
      "Ġsize": 2009,
      "Ġexc": 2010,
      "Ġcompared": 2011,
      "Ġscre": 2012,
      "Ġtypes": 2013,
      "Ġbusiness": 2014,
      "Ġcd": 2015,
      "Ġrepl": 2016,
      "Ġextrem": 2017,
      "ah": 2018,
      "Ġarea": 2019,
      "Ġprovide": 2020,
      "Ġtro": 2021,
      "Ġreb": 2022,
      "ots": 2023,
      "Ġ17": 2024,
      "ouse": 2025,
      "Ġtissues": 2026,
      "Ġmolecular": 2027,
      "Ġmag": 2028,
      "omp": 2029,
      "Ġspace": 2030,
      "Ġuniversity": 2031,
      "ores": 2032,
      "Ġvict": 2033,
      "Ġdesign": 2034,
      "Ġapproach": 2035,
      "Ġgastro": 2036,
      "Ġtreated": 2037,
      "Ġpower": 2038,
      "over": 2039,
      "ibility": 2040,
      "itted": 2041,
      "Ġimprove": 2042,
      "Ġcalled": 2043,
      "Ġopp": 2044,
      "Ġluc": 2045,
      "Ġwhy": 2046,
      "Ġaccess": 2047,
      "ferred": 2048,
      "Ġmuch": 2049,
      "Ġoffer": 2050,
      "Ġprevent": 2051,
      "Ġaround": 2052,
      "Ġjoint": 2053,
      "Ġmembr": 2054,
      "yn": 2055,
      "Ġay": 2056,
      "Ġline": 2057,
      "Ġred": 2058,
      "istan": 2059,
      "Ġinteract": 2060,
      "Ġcountry": 2061,
      "Ġcop": 2062,
      "Ġmel": 2063,
      "Ġfield": 2064,
      "vey": 2065,
      "dro": 2066,
      "Ġthreat": 2067,
      "Ġuncle": 2068,
      "lled": 2069,
      "Ġauth": 2070,
      "Ġsaturday": 2071,
      "osition": 2072,
      "Ġgerm": 2073,
      "Ġindust": 2074,
      "hington": 2075,
      "Ġbase": 2076,
      "ols": 2077,
      "Ġcourt": 2078,
      "iratory": 2079,
      "Ġpreviously": 2080,
      "function": 2081,
      "ier": 2082,
      "Ġwon": 2083,
      "Ġthromb": 2084,
      "Ġproduction": 2085,
      "Ġagents": 2086,
      "Ġinvas": 2087,
      "Ġsecondary": 2088,
      "ley": 2089,
      "Ġsud": 2090,
      "Ġcompl": 2091,
      "Ġfigure": 2092,
      "Ġsocial": 2093,
      "Ġmaster": 2094,
      "Ġweeks": 2095,
      "Ġmanif": 2096,
      "Ġimpact": 2097,
      "Ġaway": 2098,
      "Ġkey": 2099,
      "12": 2100,
      "Ġcanad": 2101,
      "Ġdamage": 2102,
      "zym": 2103,
      "Ġbat": 2104,
      "Ġgoth": 2105,
      "ained": 2106,
      "Ġsil": 2107,
      "ilar": 2108,
      "Ġseen": 2109,
      "empt": 2110,
      "Ġareas": 2111,
      "Ġpredict": 2112,
      "Ġmanifest": 2113,
      "the": 2114,
      "Ġupper": 2115,
      "Ġcereb": 2116,
      "itu": 2117,
      "itor": 2118,
      "Ġlarg": 2119,
      "Ġ16": 2120,
      "Ġwashington": 2121,
      "Ġpositive": 2122,
      "Ġpal": 2123,
      "Ġmotor": 2124,
      "Ġson": 2125,
      "Ġmight": 2126,
      "Ġnor": 2127,
      "fl": 2128,
      "rial": 2129,
      "inant": 2130,
      "Ġpanc": 2131,
      "Ġway": 2132,
      "osure": 2133,
      "Ġservices": 2134,
      "Ġannoun": 2135,
      "Ġcer": 2136,
      "Ġhighly": 2137,
      "Ġda": 2138,
      "Ġeither": 2139,
      "Ġsem": 2140,
      "Ġdecades": 2141,
      "Ġsales": 2142,
      "cellular": 2143,
      "cut": 2144,
      "Ġcomes": 2145,
      "Ġprogressive": 2146,
      "Ġquarter": 2147,
      "ee": 2148,
      "Ġsame": 2149,
      "Ġvi": 2150,
      "Ġach": 2151,
      "Ġphen": 2152,
      "used": 2153,
      "ocard": 2154,
      "Ġproperties": 2155,
      "Ġsites": 2156,
      "Ġput": 2157,
      "eding": 2158,
      "Ġtract": 2159,
      "Ġpossible": 2160,
      "Ġdental": 2161,
      "Ġorder": 2162,
      "Ġspect": 2163,
      "Ġplasm": 2164,
      "Ġcharacterist": 2165,
      "pr": 2166,
      "Ġess": 2167,
      "Ġdent": 2168,
      "Ġdig": 2169,
      "Ġtransm": 2170,
      "opathy": 2171,
      "Ġsuccessful": 2172,
      "Ġconduct": 2173,
      "Ġmechanisms": 2174,
      "Ġmalignant": 2175,
      "Ġkidney": 2176,
      "Ġfriends": 2177,
      "bers": 2178,
      "acy": 2179,
      "Ġbroad": 2180,
      "log": 2181,
      "vent": 2182,
      "Ġmust": 2183,
      "ann": 2184,
      "Ġdeb": 2185,
      "Ġrespiratory": 2186,
      "Ġcenter": 2187,
      "Ġparticip": 2188,
      "Ġtechniques": 2189,
      "Ġsampl": 2190,
      "Ġeth": 2191,
      "Ġstre": 2192,
      "Ġparticularly": 2193,
      "Ġdemonstrated": 2194,
      "cers": 2195,
      "Ġanterior": 2196,
      "Ġfra": 2197,
      "oty": 2198,
      "Ġdefect": 2199,
      "aining": 2200,
      "Ġsent": 2201,
      "Ġbil": 2202,
      "Ġcla": 2203,
      "Ġdiagnostic": 2204,
      "Ġattempt": 2205,
      "Ġbiological": 2206,
      "Ġchemical": 2207,
      "Ġtherapeutic": 2208,
      "Ġrecom": 2209,
      "Ġ198": 2210,
      "Ġconfir": 2211,
      "Ġhalf": 2212,
      "Ġport": 2213,
      "Ġbal": 2214,
      "emic": 2215,
      "amic": 2216,
      "Ġleg": 2217,
      "ze": 2218,
      "ca": 2219,
      "Ġple": 2220,
      "Ġchamp": 2221,
      "Ġdisco": 2222,
      "ances": 2223,
      "Ġformation": 2224,
      "Ġjoh": 2225,
      "Ġdysfunction": 2226,
      "ered": 2227,
      "xic": 2228,
      "Ġlack": 2229,
      "Ġevery": 2230,
      "Ġearth": 2231,
      "Ġprocedure": 2232,
      "Ġcritical": 2233,
      "most": 2234,
      "Ġgenes": 2235,
      "Ġpharm": 2236,
      "Ġspeak": 2237,
      "Ġcm": 2238,
      "Ġder": 2239,
      "Ġread": 2240,
      "cs": 2241,
      "Ġability": 2242,
      "Ġproducts": 2243,
      "lo": 2244,
      "rest": 2245,
      "ament": 2246,
      "Ġgroups": 2247,
      "Ġexperim": 2248,
      "Ġreduced": 2249,
      "Ġneck": 2250,
      "Ġenergy": 2251,
      "gra": 2252,
      "iable": 2253,
      "Ġsurface": 2254,
      "ched": 2255,
      "get": 2256,
      "Ġble": 2257,
      "Ġnerv": 2258,
      "lying": 2259,
      "Ġgrowing": 2260,
      "Ġdeaths": 2261,
      "Ġmedicine": 2262,
      "app": 2263,
      "Ġ35": 2264,
      "Ġteeth": 2265,
      "Ġrang": 2266,
      "Ġexpression": 2267,
      "Ġbelie": 2268,
      "Ġessential": 2269,
      "ma": 2270,
      "Ġangi": 2271,
      "Ġstructure": 2272,
      "Ġobserved": 2273,
      "Ġglucose": 2274,
      "Ġcult": 2275,
      "Ġmg": 2276,
      "ours": 2277,
      "Ġonset": 2278,
      "Ġapproved": 2279,
      "Ġsimilar": 2280,
      "cr": 2281,
      "last": 2282,
      "Ġsoci": 2283,
      "itus": 2284,
      "Ġmob": 2285,
      "Ġled": 2286,
      "oles": 2287,
      "Ġprogn": 2288,
      "elling": 2289,
      "Ġtransplant": 2290,
      "Ġsle": 2291,
      "Ġincluded": 2292,
      "Ġbest": 2293,
      "Ġcompet": 2294,
      "Ġnoble": 2295,
      "Ġcolle": 2296,
      "Ġofficials": 2297,
      "ficient": 2298,
      "Ġcurtis": 2299,
      "ires": 2300,
      "oly": 2301,
      "ux": 2302,
      "Ġiran": 2303,
      "Ġchallen": 2304,
      "oses": 2305,
      "Ġperip": 2306,
      "Ġepit": 2307,
      "Ġrelease": 2308,
      "hers": 2309,
      "Ġemper": 2310,
      "Ġprocedures": 2311,
      "Ġadvanced": 2312,
      "Ġcogn": 2313,
      "Ġdu": 2314,
      "rief": 2315,
      "Ġcurrently": 2316,
      "ai": 2317,
      "ises": 2318,
      "Ġupd": 2319,
      "Ġleads": 2320,
      "utr": 2321,
      "Ġconn": 2322,
      "izing": 2323,
      "Ġmaintain": 2324,
      "Ġauto": 2325,
      "Ġtechnique": 2326,
      "Ġpractice": 2327,
      "13": 2328,
      "Ġic": 2329,
      "Ġcoll": 2330,
      "Ġms": 2331,
      "Ġgenerally": 2332,
      "Ġstri": 2333,
      "Ġcontinu": 2334,
      "Ġorigin": 2335,
      "Ġconvention": 2336,
      "adder": 2337,
      "Ġcellular": 2338,
      "Ġtradition": 2339,
      "hesis": 2340,
      "Ġmiss": 2341,
      "Ġwal": 2342,
      "Ġlap": 2343,
      "cem": 2344,
      "Ġaffected": 2345,
      "Ġvariety": 2346,
      "Ġpri": 2347,
      "Ġdoc": 2348,
      "ume": 2349,
      "Ġker": 2350,
      "Ġexpected": 2351,
      "Ġbenef": 2352,
      "Ġcomputer": 2353,
      "Ġreal": 2354,
      "Ġgre": 2355,
      "Ġenzym": 2356,
      "Ġinteg": 2357,
      "Ġobtained": 2358,
      "Ġemperor": 2359,
      "Ġaction": 2360,
      "Ġdeli": 2361,
      "inia": 2362,
      "ops": 2363,
      "Ġneur": 2364,
      "outh": 2365,
      "Ġclaim": 2366,
      "Ġmoder": 2367,
      "bo": 2368,
      "olution": 2369,
      "Ġbeat": 2370,
      "Ġserum": 2371,
      "Ġserious": 2372,
      "Ġprofit": 2373,
      "Ġachie": 2374,
      "ules": 2375,
      "ument": 2376,
      "pped": 2377,
      "ressed": 2378,
      "Ġtooth": 2379,
      "ule": 2380,
      "Ġov": 2381,
      "Ġfast": 2382,
      "Ġlink": 2383,
      "Ġgreater": 2384,
      "Ġtomography": 2385,
      "chem": 2386,
      "Ġge": 2387,
      "Ġpatter": 2388,
      "athy": 2389,
      "Ġbron": 2390,
      "Ġnorth": 2391,
      "Ġaccept": 2392,
      "Ġrepresent": 2393,
      "Ġinduced": 2394,
      "aly": 2395,
      "ication": 2396,
      "ude": 2397,
      "Ġclose": 2398,
      "comes": 2399,
      "rect": 2400,
      "Ġalmost": 2401,
      "Ġbid": 2402,
      "urb": 2403,
      "rael": 2404,
      "Ġrelations": 2405,
      "Ġclear": 2406,
      "Ġestablished": 2407,
      "Ġsaturn": 2408,
      "Ġbush": 2409,
      "Ġfell": 2410,
      "Ġnegative": 2411,
      "cription": 2412,
      "Ġlav": 2413,
      "Ġsept": 2414,
      "Ġeconomic": 2415,
      "Ġib": 2416,
      "Ġdm": 2417,
      "Ġplace": 2418,
      "Ġrise": 2419,
      "Ġenvironmental": 2420,
      "Ġresponsible": 2421,
      "Ġself": 2422,
      "Ġbind": 2423,
      "ional": 2424,
      "Ġnerve": 2425,
      "Ġdiss": 2426,
      "Ġclinic": 2427,
      "Ġprogram": 2428,
      "Ġthyroid": 2429,
      "Ġnatural": 2430,
      "dle": 2431,
      "Ġlay": 2432,
      "Ġlate": 2433,
      "Ġisrael": 2434,
      "Ġconcent": 2435,
      "Ġalong": 2436,
      "Ġsport": 2437,
      "Ġperipher": 2438,
      "Ġcry": 2439,
      "eter": 2440,
      "Ġ60": 2441,
      "Ġcolon": 2442,
      "Ġbirth": 2443,
      "cus": 2444,
      "Ġfar": 2445,
      "Ġyet": 2446,
      "Ġspinal": 2447,
      "Ġsignal": 2448,
      "Ġgreece": 2449,
      "Ġmagn": 2450,
      "Ġlapar": 2451,
      "Ġsan": 2452,
      "Ġpay": 2453,
      "Ġhar": 2454,
      "omes": 2455,
      "adr": 2456,
      "Ġprocesses": 2457,
      "Ġstrateg": 2458,
      "Ġelev": 2459,
      "Ġrelatively": 2460,
      "Ġwindows": 2461,
      "rob": 2462,
      "kn": 2463,
      "itation": 2464,
      "Ġonline": 2465,
      "ploy": 2466,
      "Ġallow": 2467,
      "Ġevent": 2468,
      "Ġrepair": 2469,
      "ygen": 2470,
      "Ġdim": 2471,
      "Ġgame": 2472,
      "Ġ36": 2473,
      "Ġlaboratory": 2474,
      "Ġnan": 2475,
      "Ġquest": 2476,
      "Ġeffort": 2477,
      "intestinal": 2478,
      "Ġbrother": 2479,
      "Ġtimes": 2480,
      "Ġmind": 2481,
      "Ġsearch": 2482,
      "Ġexerc": 2483,
      "ably": 2484,
      "Ġmajority": 2485,
      "Ġmainly": 2486,
      "Ġanimal": 2487,
      "Ġshares": 2488,
      "inc": 2489,
      "Ġhur": 2490,
      "Ġgiven": 2491,
      "osing": 2492,
      "Ġappear": 2493,
      "Ġmove": 2494,
      "Ġgastrointestinal": 2495,
      "ored": 2496,
      "Ġformer": 2497,
      "Ġmeasure": 2498,
      "Ġreceptor": 2499,
      "Ġhormon": 2500,
      "han": 2501,
      "lement": 2502,
      "Ġstem": 2503,
      "Ġsecret": 2504,
      "Ġfund": 2505,
      "Ġcourse": 2506,
      "Ġtrauma": 2507,
      "ove": 2508,
      "Ġadj": 2509,
      "Ġjud": 2510,
      "Ġnearly": 2511,
      "Ġfindings": 2512,
      "Ġstatus": 2513,
      "Ġmembrane": 2514,
      "ool": 2515,
      "head": 2516,
      "Ġpass": 2517,
      "arily": 2518,
      "odes": 2519,
      "Ġquick": 2520,
      "Ġblock": 2521,
      "Ġconsist": 2522,
      "Ġlikely": 2523,
      "Ġiraqi": 2524,
      "Ġgiant": 2525,
      "Ġwound": 2526,
      "Ġstock": 2527,
      "Ġweb": 2528,
      "aches": 2529,
      "Ġju": 2530,
      "tered": 2531,
      "Ġhealthy": 2532,
      "Ġinvasive": 2533,
      "11": 2534,
      "for": 2535,
      "Ġcerv": 2536,
      "Ġexposure": 2537,
      "Ġattack": 2538,
      "rosis": 2539,
      "Ġterror": 2540,
      "uel": 2541,
      "Ġsister": 2542,
      "Ġcre": 2543,
      "ortic": 2544,
      "Ġresid": 2545,
      "Ġoutcomes": 2546,
      "Ġminim": 2547,
      "Ġbom": 2548,
      "ank": 2549,
      "Ġgly": 2550,
      "uries": 2551,
      "Ġattention": 2552,
      "Ġevaluation": 2553,
      "Ġaustralia": 2554,
      "Ġnetwork": 2555,
      "Ġvers": 2556,
      "Ġneopl": 2557,
      "Ġcancers": 2558,
      "Ġart": 2559,
      "Ġcriter": 2560,
      "Ġrespect": 2561,
      "Ġtalks": 2562,
      "ese": 2563,
      "Ġacross": 2564,
      "Ġslow": 2565,
      "Ġresearc": 2566,
      "Ġkilled": 2567,
      "Ġrecomm": 2568,
      "uration": 2569,
      "olism": 2570,
      "istry": 2571,
      "Ġagg": 2572,
      "ducing": 2573,
      "Ġown": 2574,
      "Ġkorea": 2575,
      "Ġlargest": 2576,
      "Ġlater": 2577,
      "Ġincreases": 2578,
      "Ġpolym": 2579,
      "ogenic": 2580,
      "Ġ80": 2581,
      "Ġten": 2582,
      "Ġfet": 2583,
      "Ġreduction": 2584,
      "Ġstep": 2585,
      "Ġphot": 2586,
      "Ġactivities": 2587,
      "Ġbenign": 2588,
      "Ġlesion": 2589,
      "Ġconducted": 2590,
      "erous": 2591,
      "Ġlig": 2592,
      "hern": 2593,
      "Ġevents": 2594,
      "rown": 2595,
      "Ġemergency": 2596,
      "Ġbehavior": 2597,
      "Ġlucius": 2598,
      "ik": 2599,
      "Ġhit": 2600,
      "Ġfollowed": 2601,
      "Ġmaterials": 2602,
      "Ġax": 2603,
      "Ġreferred": 2604,
      "olar": 2605,
      "Ġenh": 2606,
      "Ġhumans": 2607,
      "estern": 2608,
      "Ġcognitive": 2609,
      "urg": 2610,
      "une": 2611,
      "Ġvia": 2612,
      "Ġmeans": 2613,
      "Ġorganization": 2614,
      "Ġmatter": 2615,
      "Ġaugust": 2616,
      "Ġpregnancy": 2617,
      "Ġadministration": 2618,
      "Ġvictory": 2619,
      "Ġcomplain": 2620,
      "Ġmell": 2621,
      "orrh": 2622,
      "utes": 2623,
      "verage": 2624,
      "Ġweak": 2625,
      "Ġshi": 2626,
      "Ġaden": 2627,
      "ensity": 2628,
      "Ġfoot": 2629,
      "Ġventric": 2630,
      "15": 2631,
      "by": 2632,
      "tr": 2633,
      "val": 2634,
      "Ġul": 2635,
      "Ġps": 2636,
      "Ġadverse": 2637,
      "Ġhydro": 2638,
      "Ġdiet": 2639,
      "Ġdelay": 2640,
      "Ġthought": 2641,
      "Ġperipheral": 2642,
      "Ġchrom": 2643,
      "rict": 2644,
      "Ġcosts": 2645,
      "Ġdecreased": 2646,
      "sequent": 2647,
      "Ġsubsequent": 2648,
      "Ġprime": 2649,
      "66": 2650,
      "Ġvac": 2651,
      "ologies": 2652,
      "Ġmusic": 2653,
      "ledge": 2654,
      "Ġcriteria": 2655,
      "rast": 2656,
      "Ġmr": 2657,
      "Ġplans": 2658,
      "Ġpublished": 2659,
      "Ġolder": 2660,
      "Ġfederal": 2661,
      "Ġped": 2662,
      "aron": 2663,
      "Ġischem": 2664,
      "Ġbuy": 2665,
      "Ġprostate": 2666,
      "Ġstimul": 2667,
      "Ġroot": 2668,
      "Ġothers": 2669,
      "Ġrequire": 2670,
      "Ġaltern": 2671,
      "Ġsamples": 2672,
      "Ġprior": 2673,
      "Ġmellitus": 2674,
      "apt": 2675,
      "to": 2676,
      "Ġarm": 2677,
      "Ġmodel": 2678,
      "Ġcirc": 2679,
      "Ġrelationship": 2680,
      "Ġreduce": 2681,
      "que": 2682,
      "Ġusa": 2683,
      "yself": 2684,
      "Ġimpair": 2685,
      "odies": 2686,
      "Ġ23": 2687,
      "Ġexample": 2688,
      "Ġendot": 2689,
      "Ġreturn": 2690,
      "Ġseries": 2691,
      "Ġinvolvement": 2692,
      "Ġneurolog": 2693,
      "Ġeuropean": 2694,
      "Ġlavinia": 2695,
      "reg": 2696,
      "Ġdone": 2697,
      "aria": 2698,
      "Ġtele": 2699,
      "Ġstructures": 2700,
      "Ġtypically": 2701,
      "Ġknowledge": 2702,
      "Ġsuggested": 2703,
      "Ġcamp": 2704,
      "Ġpen": 2705,
      "Ġshare": 2706,
      "Ġago": 2707,
      "Ġ70": 2708,
      "Ġelder": 2709,
      "Ġchest": 2710,
      "ocytes": 2711,
      "Ġnervous": 2712,
      "Ġsen": 2713,
      "Ġsold": 2714,
      "Ġpak": 2715,
      "Ġmes": 2716,
      "Ġwo": 2717,
      "aged": 2718,
      "Ġphosph": 2719,
      "Ġdepression": 2720,
      "Ġposterior": 2721,
      "Ġcommit": 2722,
      "ulations": 2723,
      "iger": 2724,
      "illary": 2725,
      "Ġchemotherapy": 2726,
      "Ġimplant": 2727,
      "Ġmiddle": 2728,
      "Ġsweet": 2729,
      "Ġtry": 2730,
      "Ġactive": 2731,
      "genital": 2732,
      "Ġreceived": 2733,
      "cal": 2734,
      "Ġtears": 2735,
      "Ġhop": 2736,
      "Ġtoward": 2737,
      "ils": 2738,
      "Ġcho": 2739,
      "Ġfunctions": 2740,
      "Ġmaking": 2741,
      "Ġoxygen": 2742,
      "ritis": 2743,
      "asia": 2744,
      "ectomy": 2745,
      "oney": 2746,
      "Ġpancreat": 2747,
      "itors": 2748,
      "Ġdon": 2749,
      "Ġhp": 2750,
      "omat": 2751,
      "Ġheter": 2752,
      "ife": 2753,
      "Ġimproved": 2754,
      "pected": 2755,
      "venous": 2756,
      "Ġelderly": 2757,
      "Ġcv": 2758,
      "kelet": 2759,
      "Ġfever": 2760,
      "Ġsynt": 2761,
      "Ġanimals": 2762,
      "Ġsource": 2763,
      "hood": 2764,
      "hetic": 2765,
      "ctal": 2766,
      "Ġchange": 2767,
      "Ġguid": 2768,
      "Ġannounced": 2769,
      "Ġmig": 2770,
      "Ġfight": 2771,
      "Ġonce": 2772,
      "Ġoutcome": 2773,
      "Ġnuclear": 2774,
      "Ġdaily": 2775,
      "ony": 2776,
      "Ġhold": 2777,
      "Ġmean": 2778,
      "Ġaffects": 2779,
      "Ġaffecting": 2780,
      "Ġprolif": 2781,
      "Ġillness": 2782,
      "Ġupdate": 2783,
      "atal": 2784,
      "Ġanat": 2785,
      "Ġ2005": 2786,
      "Ġwhether": 2787,
      "yle": 2788,
      "Ġseason": 2789,
      "Ġwhose": 2790,
      "Ġhemat": 2791,
      "Ġexperience": 2792,
      "Ġpolice": 2793,
      "Ġunderstanding": 2794,
      "uf": 2795,
      "Ġforms": 2796,
      "ocy": 2797,
      "Ġwhite": 2798,
      "Ġspecial": 2799,
      "Ġlaun": 2800,
      "Ġhang": 2801,
      "Ġenem": 2802,
      "Ġrequired": 2803,
      "Ġsleep": 2804,
      "pro": 2805,
      "Ġsn": 2806,
      "Ġsqu": 2807,
      "Ġtrue": 2808,
      "riate": 2809,
      "ounds": 2810,
      "Ġimportance": 2811,
      "ographic": 2812,
      "Ġapplications": 2813,
      "vant": 2814,
      "Ġnature": 2815,
      "Ġcontribut": 2816,
      "pective": 2817,
      "cules": 2818,
      "arian": 2819,
      "Ġprec": 2820,
      "enced": 2821,
      "Ġpeace": 2822,
      "Ġbegin": 2823,
      "pes": 2824,
      "yr": 2825,
      "Ġtrial": 2826,
      "ught": 2827,
      "Ġgastric": 2828,
      "Ġprognosis": 2829,
      "Ġsight": 2830,
      "Ġliving": 2831,
      "Ġtoo": 2832,
      "Ġexec": 2833,
      "Ġsho": 2834,
      "Ġround": 2835,
      "Ġarrest": 2836,
      "Ġaccum": 2837,
      "Ġprice": 2838,
      "Ġfamil": 2839,
      "Ġeg": 2840,
      "ida": 2841,
      "ula": 2842,
      "Ġalle": 2843,
      "Ġarth": 2844,
      "Ġperformance": 2845,
      "fo": 2846,
      "Ġnutr": 2847,
      "Ġcongenital": 2848,
      "Ġchol": 2849,
      "Ġtrib": 2850,
      "itish": 2851,
      "lier": 2852,
      "rogen": 2853,
      "Ġstay": 2854,
      "Ġimpl": 2855,
      "reng": 2856,
      "Ġincludes": 2857,
      "Ġsigns": 2858,
      "Ġprogression": 2859,
      "hold": 2860,
      "Ġlear": 2861,
      "Ġcontract": 2862,
      "Ġartic": 2863,
      "Ġextensive": 2864,
      "Ġbritish": 2865,
      "Ġuntil": 2866,
      "ches": 2867,
      "sh": 2868,
      "Ġtend": 2869,
      "rench": 2870,
      "Ġobject": 2871,
      "Ġactivation": 2872,
      "Ġcalc": 2873,
      "Ġcervical": 2874,
      "hd": 2875,
      "put": 2876,
      "Ġlord": 2877,
      "Ġsepar": 2878,
      "Ġprevention": 2879,
      "Ġcombination": 2880,
      "Ġreceptors": 2881,
      "Ġmental": 2882,
      "Ġlin": 2883,
      "Ġeas": 2884,
      "Ġstreng": 2885,
      "Ġ21": 2886,
      "Ġphase": 2887,
      "Ġintervention": 2888,
      "Ġanaly": 2889,
      "Ġidentify": 2890,
      "Ġsuffer": 2891,
      "Ġpakistan": 2892,
      "Ġpap": 2893,
      "itness": 2894,
      "Ġbm": 2895,
      "omer": 2896,
      "Ġplac": 2897,
      "Ġsignificantly": 2898,
      "Ġfut": 2899,
      "Ġreach": 2900,
      "Ġtoxic": 2901,
      "ference": 2902,
      "Ġpept": 2903,
      "Ġrestor": 2904,
      "Ġindustry": 2905,
      "Ġcertain": 2906,
      "Ġmobile": 2907,
      "Ġsum": 2908,
      "Ġwestern": 2909,
      "Ġeight": 2910,
      "Ġthor": 2911,
      "Ġhen": 2912,
      "Ġkin": 2913,
      "Ġcav": 2914,
      "Ġcomplication": 2915,
      "Ġrecognized": 2916,
      "Ġrussian": 2917,
      "ding": 2918,
      "Ġsor": 2919,
      "Ġproject": 2920,
      "Ġleuk": 2921,
      "ips": 2922,
      "ague": 2923,
      "Ġsmok": 2924,
      "Ġdoes": 2925,
      "Ġeyes": 2926,
      "Ġultr": 2927,
      "Ġcharacteristics": 2928,
      "cles": 2929,
      "och": 2930,
      "Ġod": 2931,
      "Ġbag": 2932,
      "Ġfol": 2933,
      "Ġ2009": 2934,
      "Ġinvolving": 2935,
      "Ġdescribe": 2936,
      "Ġ90": 2937,
      "Ġmaterial": 2938,
      "'ll": 2939,
      "ming": 2940,
      "Ġtill": 2941,
      "ino": 2942,
      "atin": 2943,
      "Ġpra": 2944,
      "Ġprob": 2945,
      "Ġexist": 2946,
      "Ġresection": 2947,
      "neum": 2948,
      "Ġdemand": 2949,
      "Ġsac": 2950,
      "Ġpd": 2951,
      "Ġbow": 2952,
      "Ġster": 2953,
      "Ġnecess": 2954,
      "Ġaged": 2955,
      "Ġbacterial": 2956,
      "Ġresearchers": 2957,
      "patic": 2958,
      "Ġdependent": 2959,
      "Ġdisturb": 2960,
      "ky": 2961,
      "Ġcompan": 2962,
      "Ġrob": 2963,
      "Ġmyocard": 2964,
      "Ġregions": 2965,
      "Ġpresentation": 2966,
      "Ġposition": 2967,
      "Ġhemorrh": 2968,
      "Ġpharmac": 2969,
      "Ġnort": 2970,
      "immun": 2971,
      "Ġexcess": 2972,
      "cler": 2973,
      "Ġrout": 2974,
      "aves": 2975,
      "Ġdetection": 2976,
      "Ġoptim": 2977,
      "lin": 2978,
      "Ġml": 2979,
      "orks": 2980,
      "Ġwr": 2981,
      "Ġfa": 2982,
      "Ġradiation": 2983,
      "Ġ2010": 2984,
      "bus": 2985,
      "itivity": 2986,
      "Ġwrong": 2987,
      "Ġname": 2988,
      "Ġdeg": 2989,
      "Ġhew": 2990,
      "Ġknee": 2991,
      "Ġdiabetic": 2992,
      "more": 2993,
      "Ġtb": 2994,
      "Ġhours": 2995,
      "vered": 2996,
      "Ġathe": 2997,
      "Ġinjuries": 2998,
      "Ġurinary": 2999,
      "Ġtemper": 3000,
      "Ġcommitte": 3001,
      "Ġmice": 3002,
      "Ġappe": 3003,
      "Ġfinanc": 3004,
      "Ġrecurrent": 3005,
      "Ġextreme": 3006,
      "Ġdocument": 3007,
      "oral": 3008,
      "Ġtook": 3009,
      "Ġ22": 3010,
      "Ġnec": 3011,
      "Ġkg": 3012,
      "phal": 3013,
      "rupt": 3014,
      "Ġapprop": 3015,
      "ger": 3016,
      "Ġmix": 3017,
      "Ġana": 3018,
      "Ġden": 3019,
      "Ġjob": 3020,
      "Ġemploy": 3021,
      "Ġ2006": 3022,
      "Ġcarri": 3023,
      "Ġattacks": 3024,
      "Ġparas": 3025,
      "Ġadmitted": 3026,
      "Ġfocus": 3027,
      "Ġconfirmed": 3028,
      "Ġtor": 3029,
      "Ġmil": 3030,
      "Ġhol": 3031,
      "Ġbeast": 3032,
      "Ġusers": 3033,
      "Ġfirm": 3034,
      "Ġundergo": 3035,
      "Ġprogress": 3036,
      "Ġcommunity": 3037,
      "Ġbacteria": 3038,
      "Ġhepatitis": 3039,
      "inct": 3040,
      "Ġpel": 3041,
      "Ġmri": 3042,
      "Ġderm": 3043,
      "aryn": 3044,
      "Ġepidem": 3045,
      "Ġmelan": 3046,
      "oon": 3047,
      "Ġtam": 3048,
      "Ġpneum": 3049,
      "osa": 3050,
      "ills": 3051,
      "Ġhaving": 3052,
      "Ġquant": 3053,
      "nings": 3054,
      "Ġpersist": 3055,
      "Ġproposed": 3056,
      "keletal": 3057,
      "50": 3058,
      "ew": 3059,
      "Ġaw": 3060,
      "Ġtell": 3061,
      "Ġmild": 3062,
      "Ġbond": 3063,
      "Ġorth": 3064,
      "Ġindex": 3065,
      "Ġcomputed": 3066,
      "Ġmilitary": 3067,
      "Ġafrica": 3068,
      "Ġjohn": 3069,
      "Ġexercise": 3070,
      "Ġbomb": 3071,
      "lish": 3072,
      "ene": 3073,
      "Ġmit": 3074,
      "Ġunit": 3075,
      "Ġunderlying": 3076,
      "Ġinfected": 3077,
      "roscop": 3078,
      "Ġnumerous": 3079,
      "Ġradical": 3080,
      "Ġclassified": 3081,
      "Ġperiodont": 3082,
      "Ġauthor": 3083,
      "Ġcerebral": 3084,
      "'t": 3085,
      "cast": 3086,
      "itone": 3087,
      "Ġsubjects": 3088,
      "fur": 3089,
      "Ġsound": 3090,
      "Ġcs": 3091,
      "Ġcold": 3092,
      "anial": 3093,
      "Ġprem": 3094,
      "Ġindu": 3095,
      "Ġclinically": 3096,
      "Ġbreak": 3097,
      "Ġlocated": 3098,
      "Ġtitus": 3099,
      "Ġabsence": 3100,
      "Ġdouble": 3101,
      "Ġcomponents": 3102,
      "Ġisolated": 3103,
      "Ġig": 3104,
      "enz": 3105,
      "isco": 3106,
      "ask": 3107,
      "Ġneph": 3108,
      "Ġmeet": 3109,
      "ribution": 3110,
      "Ġflow": 3111,
      "Ġleader": 3112,
      "ogene": 3113,
      "Ġmorph": 3114,
      "Ġabnormalities": 3115,
      "Ġure": 3116,
      "Ġwins": 3117,
      "Ġgas": 3118,
      "Ġcapital": 3119,
      "Ġcontent": 3120,
      "Ġgenome": 3121,
      "Ġamount": 3122,
      "Ġburial": 3123,
      "Ġsudan": 3124,
      "Ġplasma": 3125,
      "Ġchallenge": 3126,
      "Ġconnect": 3127,
      "fusion": 3128,
      "iers": 3129,
      "pa": 3130,
      "ats": 3131,
      "Ġdar": 3132,
      "ema": 3133,
      "Ġbiom": 3134,
      "ique": 3135,
      "Ġoxid": 3136,
      "Ġfluid": 3137,
      "Ġassessment": 3138,
      "Ġviol": 3139,
      "eur": 3140,
      "iam": 3141,
      "ket": 3142,
      "ened": 3143,
      "isp": 3144,
      "Ġdeep": 3145,
      "Ġrna": 3146,
      "Ġexpect": 3147,
      "rought": 3148,
      "Ġgraft": 3149,
      "Ġprimarily": 3150,
      "Ġsources": 3151,
      "Ġbleeding": 3152,
      "Ġjuly": 3153,
      "Ġaem": 3154,
      "Ġsitu": 3155,
      "ather": 3156,
      "Ġwest": 3157,
      "Ġfix": 3158,
      "icon": 3159,
      "Ġhot": 3160,
      "Ġnation": 3161,
      "igen": 3162,
      "Ġsaf": 3163,
      "Ġcompanies": 3164,
      "onia": 3165,
      "Ġpig": 3166,
      "Ġwood": 3167,
      "opt": 3168,
      "Ġstudied": 3169,
      "Ġoverall": 3170,
      "Ġcollected": 3171,
      "Ġdiscuss": 3172,
      "Ġbrothers": 3173,
      "ii": 3174,
      "ilities": 3175,
      "Ġasym": 3176,
      "odont": 3177,
      "Ġuk": 3178,
      "Ġretinal": 3179,
      "Ġretail": 3180,
      "Ġacquired": 3181,
      "Ġautoimmun": 3182,
      "Ġbinding": 3183,
      "gment": 3184,
      "ref": 3185,
      "itary": 3186,
      "Ġmis": 3187,
      "Ġvess": 3188,
      "Ġcleric": 3189,
      "Ġ2008": 3190,
      "Ġearlier": 3191,
      "Ġkeep": 3192,
      "Ġmolecules": 3193,
      "Ġburden": 3194,
      "Ġmagnetic": 3195,
      "Ġelevated": 3196,
      "Ġaud": 3197,
      "Ġcross": 3198,
      "Ġfif": 3199,
      "opro": 3200,
      "Ġvill": 3201,
      "Ġaccur": 3202,
      "Ġlimbs": 3203,
      "Ġcytok": 3204,
      "Ġforeign": 3205,
      "Ġlaparoscopic": 3206,
      ".,": 3207,
      "30": 3208,
      "gans": 3209,
      "ss": 3210,
      "well": 3211,
      "Ġpack": 3212,
      "Ġhouse": 3213,
      "Ġforce": 3214,
      "Ġcontrast": 3215,
      "Ġcoup": 3216,
      "Ġcausing": 3217,
      "Ġphysiological": 3218,
      "Ġincreasingly": 3219,
      "rin": 3220,
      "Ġide": 3221,
      "ales": 3222,
      "Ġanest": 3223,
      "Ġview": 3224,
      "Ġrand": 3225,
      "Ġseek": 3226,
      "emb": 3227,
      "acity": 3228,
      "Ġmedia": 3229,
      "Ġdevices": 3230,
      "Ġtitle": 3231,
      "Ġconcern": 3232,
      "Ġaemil": 3233,
      "20": 3234,
      "Ġlives": 3235,
      "Ġimage": 3236,
      "Ġtrials": 3237,
      "Ġaging": 3238,
      "Ġinternal": 3239,
      "Ġmoreover": 3240,
      "Ġdefin": 3241,
      "Ġexperi": 3242,
      "Ġconsequ": 3243,
      "Ġheavy": 3244,
      "Ġdelivery": 3245,
      "Ġcommittee": 3246,
      "iot": 3247,
      "king": 3248,
      "Ġnod": 3249,
      "ilt": 3250,
      "Ġpostoperative": 3251,
      "Ġtests": 3252,
      "Ġreleased": 3253,
      "Ġapplication": 3254,
      "Ġobstruction": 3255,
      "Ġconventional": 3256,
      "Ġath": 3257,
      "rous": 3258,
      "Ġhard": 3259,
      "Ġlas": 3260,
      "osomal": 3261,
      "ching": 3262,
      "Ġchief": 3263,
      "Ġmicrob": 3264,
      "pects": 3265,
      "Ġavoid": 3266,
      "Ġfourth": 3267,
      "cher": 3268,
      "Ġseven": 3269,
      "Ġunique": 3270,
      "Ġindep": 3271,
      "coh": 3272,
      "Ġscreening": 3273,
      "ira": 3274,
      "Ġinject": 3275,
      "Ġdest": 3276,
      "Ġdose": 3277,
      "ago": 3278,
      "Ġappropriate": 3279,
      "da": 3280,
      "Ġwife": 3281,
      "Ġbones": 3282,
      "Ġcompr": 3283,
      "Ġprofile": 3284,
      "Ġstructural": 3285,
      "Ġcalif": 3286,
      "Ġfurthermore": 3287,
      "Ġreplace": 3288,
      "Ġalternative": 3289,
      "upt": 3290,
      "Ġid": 3291,
      "Ġdeficiency": 3292,
      "Ġagre": 3293,
      "ruit": 3294,
      "Ġemp": 3295,
      "Ġtreatments": 3296,
      "Ġmalaria": 3297,
      "Ġsimp": 3298,
      "Ġpathogenesis": 3299,
      "Ġepithelial": 3300,
      "Ġtraditional": 3301,
      "Ġfav": 3302,
      "Ġtoget": 3303,
      "pping": 3304,
      "Ġprison": 3305,
      "Ġsmo": 3306,
      "Ġinvestors": 3307,
      "Ġprofess": 3308,
      "Ġwarm": 3309,
      "nas": 3310,
      "Ġuncom": 3311,
      "Ġ2007": 3312,
      "Ġelectro": 3313,
      "Ġaemilius": 3314,
      "Ġtogether": 3315,
      "Ġpan": 3316,
      "Ġmouth": 3317,
      "organ": 3318,
      "Ġpros": 3319,
      "Ġnever": 3320,
      "ancies": 3321,
      "Ġdecl": 3322,
      "Ġinvolves": 3323,
      "Ġcontrolled": 3324,
      "Ġengine": 3325,
      "Ġrom": 3326,
      "Ġbio": 3327,
      "Ġforces": 3328,
      "elines": 3329,
      "ochem": 3330,
      "Ġ28": 3331,
      "Ġamerica": 3332,
      "Ġofficial": 3333,
      "back": 3334,
      "Ġcort": 3335,
      "Ġhc": 3336,
      "Ġhref": 3337,
      "Ġvas": 3338,
      "Ġorgans": 3339,
      "Ġworst": 3340,
      "Ġcorne": 3341,
      "Ġmovement": 3342,
      "Ġprovided": 3343,
      "like": 3344,
      "Ġmechanical": 3345,
      "ributed": 3346,
      "ora": 3347,
      "opsy": 3348,
      "Ġdisability": 3349,
      "Ġcanal": 3350,
      "Ġapple": 3351,
      "Ġdetail": 3352,
      "Ġventricular": 3353,
      "Ġsafety": 3354,
      "upp": 3355,
      "onst": 3356,
      "Ġoct": 3357,
      "Ġpoll": 3358,
      "Ġgent": 3359,
      "Ġ2003": 3360,
      "ogenesis": 3361,
      "Ġ2011": 3362,
      "Ġvalue": 3363,
      "Ġmetastatic": 3364,
      "Ġpelv": 3365,
      "Ġinn": 3366,
      "Ġwat": 3367,
      "Ġdro": 3368,
      "Ġdie": 3369,
      "Ġgod": 3370,
      "Ġhearing": 3371,
      "Ġchic": 3372,
      "ialysis": 3373,
      "Ġtrig": 3374,
      "uck": 3375,
      "Ġconserv": 3376,
      "angi": 3377,
      "roscler": 3378,
      "Ġchildhood": 3379,
      "Ġesoph": 3380,
      "Ġprotoc": 3381,
      "rophy": 3382,
      "Ġpolit": 3383,
      "Ġmutations": 3384,
      "Ġfracture": 3385,
      "iasis": 3386,
      "time": 3387,
      "here": 3388,
      "Ġmand": 3389,
      "osal": 3390,
      "Ġvide": 3391,
      "ocrine": 3392,
      "Ġdispl": 3393,
      "Ġsusp": 3394,
      "Ġtuber": 3395,
      "Ġregarding": 3396,
      "Ġversion": 3397,
      "rs": 3398,
      "Ġiv": 3399,
      "Ġsomet": 3400,
      "Ġmc": 3401,
      "Ġbrought": 3402,
      "arr": 3403,
      "iab": 3404,
      "Ġcand": 3405,
      "rences": 3406,
      "Ġinfectious": 3407,
      "Ġintroduced": 3408,
      "Ġvacc": 3409,
      "Ġfinancial": 3410,
      "aired": 3411,
      "met": 3412,
      "inated": 3413,
      "Ġwire": 3414,
      "Ġarr": 3415,
      "Ġgrade": 3416,
      "Ġpromot": 3417,
      "Ġadvances": 3418,
      "Ġderived": 3419,
      "Ġsports": 3420,
      "Ġstrength": 3421,
      "Ġwitness": 3422,
      "Ġleague": 3423,
      "Ġ2000": 3424,
      "Ġ197": 3425,
      "Ġmodels": 3426,
      "Ġdifferentiation": 3427,
      "Ġreaction": 3428,
      "Ġlatest": 3429,
      "Ġscientific": 3430,
      "Ġoffering": 3431,
      "Ġsumm": 3432,
      "Ġroutine": 3433,
      "Ġautoimmune": 3434,
      "iary": 3435,
      "Ġcust": 3436,
      "quency": 3437,
      "Ġreson": 3438,
      "Ġviral": 3439,
      "Ġelection": 3440,
      "Ġcanadian": 3441,
      "Ġatheroscler": 3442,
      "Ġrandom": 3443,
      "bl": 3444,
      "bor": 3445,
      "ias": 3446,
      "ta": 3447,
      "Ġlond": 3448,
      "Ġforth": 3449,
      "Ġjour": 3450,
      "Ġstudents": 3451,
      "Ġmyel": 3452,
      "Ġpopulations": 3453,
      "Ġadvant": 3454,
      "Ġamericans": 3455,
      "Ġafrican": 3456,
      "Ġbilateral": 3457,
      "Ġchicago": 3458,
      "Ġlondon": 3459,
      "hab": 3460,
      "Ġtable": 3461,
      "Ġmos": 3462,
      "Ġcontact": 3463,
      "Ġeffic": 3464,
      "Ġcarb": 3465,
      "Ġthroughout": 3466,
      "Ġboy": 3467,
      "oscopy": 3468,
      "Ġissue": 3469,
      "dr": 3470,
      "lied": 3471,
      "Ġast": 3472,
      "amed": 3473,
      "Ġrose": 3474,
      "Ġphone": 3475,
      "Ġmonitor": 3476,
      "Ġtranscription": 3477,
      "angl": 3478,
      "Ġgoal": 3479,
      "Ġdecade": 3480,
      "Ġrepro": 3481,
      "Ġrarely": 3482,
      "Ġprevalent": 3483,
      "Ġaccounts": 3484,
      "Ġvolume": 3485,
      "Ġscientists": 3486,
      "Ġaneur": 3487,
      "Ġadoles": 3488,
      "Ġsurvey": 3489,
      "encing": 3490,
      "Ġgrad": 3491,
      "Ġwhereas": 3492,
      "Ġperson": 3493,
      "Ġparticipants": 3494,
      "Ġtransplantation": 3495,
      "known": 3496,
      "Ġpediatric": 3497,
      "Ġmist": 3498,
      "icular": 3499,
      "ada": 3500,
      "Ġspont": 3501,
      "Ġplays": 3502,
      "Ġsoon": 3503,
      "Ġetiology": 3504,
      "Ġbasket": 3505,
      "Ġgran": 3506,
      "Ġterms": 3507,
      "Ġconsumer": 3508,
      "Ġdoub": 3509,
      "Ġlinked": 3510,
      "Ġmyocardial": 3511,
      "Ġresonance": 3512,
      "Ġsust": 3513,
      "Ġadapt": 3514,
      "Ġintestinal": 3515,
      "Ġscore": 3516,
      "Ġamp": 3517,
      "Ġnovel": 3518,
      "Ġangel": 3519,
      "Ġeduc": 3520,
      "Ġpurp": 3521,
      "Ġspontaneous": 3522,
      "che": 3523,
      "lob": 3524,
      "side": 3525,
      "Ġmamm": 3526,
      "Ġannual": 3527,
      "Ġaneurys": 3528,
      "oint": 3529,
      "icated": 3530,
      "Ġrepe": 3531,
      "Ġselect": 3532,
      "Ġcontaining": 3533,
      "hesia": 3534,
      "Ġmaker": 3535,
      "Ġcapacity": 3536,
      "Ġbenefits": 3537,
      "Ġdarfur": 3538,
      "Ġah": 3539,
      "Ġpet": 3540,
      "Ġmoney": 3541,
      "Ġworth": 3542,
      "Ġful": 3543,
      "Ġdav": 3544,
      "imb": 3545,
      "Ġstop": 3546,
      "ached": 3547,
      "Ġscience": 3548,
      "Ġimpaired": 3549,
      "Ġhern": 3550,
      "Ġpathological": 3551,
      "Ġparam": 3552,
      "Ġprovid": 3553,
      "Ġtesting": 3554,
      "Ġworkers": 3555,
      "Ġuncommon": 3556,
      "based": 3557,
      "Ġaverage": 3558,
      "ories": 3559,
      "Ġfrench": 3560,
      "Ġduration": 3561,
      "Ġdefic": 3562,
      "Ġdegen": 3563,
      "Ġarg": 3564,
      "Ġscler": 3565,
      "Ġpresenting": 3566,
      "Ġgeneration": 3567,
      "Ġpopular": 3568,
      "Ġprovides": 3569,
      "Ġphysic": 3570,
      "Ġinstitution": 3571,
      "Ġfractures": 3572,
      "Ġsociety": 3573,
      "Ġnutrition": 3574,
      "Ġtax": 3575,
      "Ġcoun": 3576,
      "Ġcup": 3577,
      "alian": 3578,
      "Ġhamm": 3579,
      "Ġgrief": 3580,
      "Ġund": 3581,
      "Ġintensive": 3582,
      "Ġ46": 3583,
      "Ġmarch": 3584,
      "Ġpotentially": 3585,
      "Ġbasketball": 3586,
      "lim": 3587,
      "Ġaaron": 3588,
      "onic": 3589,
      "Ġdra": 3590,
      "Ġbear": 3591,
      "Ġunknown": 3592,
      "Ġarch": 3593,
      "Ġunderw": 3594,
      "Ġdistinct": 3595,
      "Ġdatab": 3596,
      "Ġ2012": 3597,
      "Ġsolid": 3598,
      "Ġrussia": 3599,
      "Ġcomponent": 3600,
      "Ġrespectively": 3601,
      "Ġproliferation": 3602,
      "gal": 3603,
      "lation": 3604,
      "Ġcompounds": 3605,
      "Ġpla": 3606,
      "Ġagree": 3607,
      "Ġdistribution": 3608,
      "Ġbring": 3609,
      "oxic": 3610,
      "Ġmechanism": 3611,
      "Ġeconomy": 3612,
      "cutaneous": 3613,
      "Ġimpairment": 3614,
      "info": 3615,
      "itory": 3616,
      "Ġmur": 3617,
      "Ġmich": 3618,
      "Ġdate": 3619,
      "Ġconcept": 3620,
      "Ġalcoh": 3621,
      "Ġexe": 3622,
      "Ġsurge": 3623,
      "Ġmediated": 3624,
      "Ġ65": 3625,
      "Ġprotect": 3626,
      "Ġresponses": 3627,
      "Ġconstit": 3628,
      "Ġrepresents": 3629,
      "Ġdigital": 3630,
      "Ġquestion": 3631,
      "Ġneurological": 3632,
      "Ġfuture": 3633,
      "equ": 3634,
      "lusion": 3635,
      "Ġwel": 3636,
      "Ġstab": 3637,
      "Ġ27": 3638,
      "Ġtraining": 3639,
      "Ġdecision": 3640,
      "Ġidentification": 3641,
      "otype": 3642,
      "Ġdefects": 3643,
      "Ġovarian": 3644,
      "Ġjournal": 3645,
      "Ġdraw": 3646,
      "Ġgate": 3647,
      "Ġ26": 3648,
      "Ġweap": 3649,
      "ipe": 3650,
      "Ġafg": 3651,
      "Ġable": 3652,
      "weight": 3653,
      "Ġoccurring": 3654,
      "Ġinfluenz": 3655,
      "Ġcavity": 3656,
      "14": 3657,
      "bar": 3658,
      "Ġcore": 3659,
      "orph": 3660,
      "Ġbreat": 3661,
      "Ġdoll": 3662,
      "unk": 3663,
      "quote": 3664,
      "oids": 3665,
      "Ġrequires": 3666,
      "Ġoptions": 3667,
      "ength": 3668,
      "Ġdecrease": 3669,
      "iveness": 3670,
      "Ġfullquote": 3671,
      "Ġbiggest": 3672,
      "Ġtransmission": 3673,
      "Ġquickinfo": 3674,
      "Ġindependent": 3675,
      "Ġtubercul": 3676,
      "ls": 3677,
      "Ġmad": 3678,
      "Ġanc": 3679,
      "omen": 3680,
      "Ġproud": 3681,
      "Ġchain": 3682,
      "Ġcompar": 3683,
      "Ġapproaches": 3684,
      "Ġmuscles": 3685,
      "Ġxp": 3686,
      "Ġcutaneous": 3687,
      "Ġmetastasis": 3688,
      "Ġdetermine": 3689,
      "Ġagreed": 3690,
      "Ġgentle": 3691,
      "care": 3692,
      "Ġdop": 3693,
      "Ġstar": 3694,
      "amine": 3695,
      "asty": 3696,
      "aff": 3697,
      "Ġlymphoma": 3698,
      "off": 3699,
      "Ġresistant": 3700,
      "Ġguidelines": 3701,
      "Ġexecut": 3702,
      "pan": 3703,
      "Ġho": 3704,
      "Ġspread": 3705,
      "Ġrace": 3706,
      "Ġmetal": 3707,
      "Ġbladder": 3708,
      "Ġpersonal": 3709,
      "Ġcathe": 3710,
      "Ġutil": 3711,
      "Ġprolong": 3712,
      "Ġrebels": 3713,
      "Ġmanifestations": 3714,
      "Ġpancreatic": 3715,
      "Ġextremely": 3716,
      "uge": 3717,
      "ulated": 3718,
      "Ġconvey": 3719,
      "estyle": 3720,
      "Ġunion": 3721,
      "Ġresour": 3722,
      "Ġintel": 3723,
      "Ġmembers": 3724,
      "Ġinitially": 3725,
      "Ġpredom": 3726,
      "Ġmalignancy": 3727,
      "Ġgermany": 3728,
      "Ġbowel": 3729,
      "Ġhemorrhage": 3730,
      "itoneal": 3731,
      "eds": 3732,
      "Ġproduced": 3733,
      "Ġword": 3734,
      "Ġshows": 3735,
      "Ġhypot": 3736,
      "Ġschool": 3737,
      "Ġstraight": 3738,
      "Ġtempor": 3739,
      "Ġsubstant": 3740,
      "Ġinstitute": 3741,
      "Ġendothelial": 3742,
      "Ġchoice": 3743,
      "cious": 3744,
      "ker": 3745,
      "me": 3746,
      "Ġfare": 3747,
      "Ġdement": 3748,
      "Ġseem": 3749,
      "Ġenough": 3750,
      "Ġreco": 3751,
      "Ġagent": 3752,
      "Ġefficacy": 3753,
      "ez": 3754,
      "ipp": 3755,
      "Ġpt": 3756,
      "isfact": 3757,
      "Ġlist": 3758,
      "Ġtool": 3759,
      "Ġkiss": 3760,
      "Ġshrine": 3761,
      "Ġabove": 3762,
      "ublic": 3763,
      "Ġmarcus": 3764,
      "Ġinvestigation": 3765,
      "Ġaccounting": 3766,
      "Ġsequence": 3767,
      "Ġipo": 3768,
      "Ġinteractions": 3769,
      "Ġcanada": 3770,
      "Ġhormone": 3771,
      "Ġaggressive": 3772,
      "Ġpolic": 3773,
      "Ġhall": 3774,
      "Ġchann": 3775,
      "Ġray": 3776,
      "Ġ2002": 3777,
      "Ġepis": 3778,
      "Ġsupplement": 3779,
      "Ġlimit": 3780,
      "Ġcycl": 3781,
      "Ġbuild": 3782,
      "Ġtaking": 3783,
      "Ġintegr": 3784,
      "Ġdegree": 3785,
      "ij": 3786,
      "Ġmyself": 3787,
      "anted": 3788,
      "Ġcrude": 3789,
      "Ġrepublic": 3790,
      "Ġmemory": 3791,
      "Ġtaken": 3792,
      "Ġverte": 3793,
      "Ġenemies": 3794,
      "Ġsmoking": 3795,
      "oz": 3796,
      "sa": 3797,
      "Ġfie": 3798,
      "Ġlost": 3799,
      "Ġwithal": 3800,
      "Ġasia": 3801,
      "Ġsup": 3802,
      "Ġleave": 3803,
      "ugg": 3804,
      "Ġintervent": 3805,
      "Ġblack": 3806,
      "Ġvision": 3807,
      "Ġimprovement": 3808,
      "Ġsignaling": 3809,
      "Ġstrategies": 3810,
      "Ġtemperature": 3811,
      "Ġexeunt": 3812,
      "pal": 3813,
      "Ġara": 3814,
      "Ġocular": 3815,
      "Ġcp": 3816,
      "Ġheld": 3817,
      "Ġinfar": 3818,
      "Ġdetected": 3819,
      "Ġoccurrence": 3820,
      "Ġfrequency": 3821,
      "Ġadditional": 3822,
      "Ġunto": 3823,
      "Ġrapidly": 3824,
      "Ġphenomen": 3825,
      "Ġpattern": 3826,
      "haps": 3827,
      "Ġsample": 3828,
      "erior": 3829,
      "Ġcra": 3830,
      "Ġflex": 3831,
      "Ġham": 3832,
      "anded": 3833,
      "Ġhealthcare": 3834,
      "Ġtrack": 3835,
      "Ġmetabolism": 3836,
      "Ġreactions": 3837,
      "ocyte": 3838,
      "Ġunderwent": 3839,
      "Ġanomal": 3840,
      "Ġdog": 3841,
      "Ġhb": 3842,
      "Ġlateral": 3843,
      "oster": 3844,
      "Ġplant": 3845,
      "Ġcardi": 3846,
      "Ġbrit": 3847,
      "ophil": 3848,
      "Ġdevil": 3849,
      "Ġissues": 3850,
      "Ġchampions": 3851,
      "Ġdyn": 3852,
      "Ġreason": 3853,
      "osin": 3854,
      "Ġ29": 3855,
      "Ġselected": 3856,
      "Ġapplied": 3857,
      "Ġsafe": 3858,
      "Ġcruc": 3859,
      "Ġcolor": 3860,
      "Ġvideo": 3861,
      "hest": 3862,
      "Ġpus": 3863,
      "Ġwa": 3864,
      "uria": 3865,
      "ternal": 3866,
      "Ġhepatic": 3867,
      "Ġprepar": 3868,
      "Ġgland": 3869,
      "Ġflat": 3870,
      "Ġsetting": 3871,
      "Ġneeded": 3872,
      "Ġvitamin": 3873,
      "Ġhence": 3874,
      "bre": 3875,
      "pass": 3876,
      "Ġthous": 3877,
      "unes": 3878,
      "ococ": 3879,
      "ipl": 3880,
      "Ġperhaps": 3881,
      "agen": 3882,
      "Ġscale": 3883,
      "Ġantic": 3884,
      "Ġcorrect": 3885,
      "Ġboost": 3886,
      "Ġpersons": 3887,
      "Ġinfluence": 3888,
      "Ġafghan": 3889,
      "Ġinfluenza": 3890,
      "Ġinterventions": 3891,
      "Ġaortic": 3892,
      "het": 3893,
      "Ġmir": 3894,
      "usal": 3895,
      "omers": 3896,
      "unct": 3897,
      "Ġasp": 3898,
      "ibular": 3899,
      "Ġregulation": 3900,
      "Ġdetect": 3901,
      "Ġmetastases": 3902,
      "Ġauthors": 3903,
      "Ġdocumented": 3904,
      "Ġdivid": 3905,
      "osome": 3906,
      "oglob": 3907,
      "Ġshut": 3908,
      "Ġreconst": 3909,
      "Ġassist": 3910,
      "Ġtransport": 3911,
      "ribute": 3912,
      "Ġcorrel": 3913,
      "Ġcontrovers": 3914,
      "psis": 3915,
      "Ġboard": 3916,
      "Ġuter": 3917,
      "Ġbronch": 3918,
      "Ġaccepted": 3919,
      "Ġefforts": 3920,
      "Ġsynthesis": 3921,
      "Ġaccumulation": 3922,
      "gi": 3923,
      "mal": 3924,
      "ream": 3925,
      "Ġpil": 3926,
      "Ġrul": 3927,
      "Ġexch": 3928,
      "Ġneu": 3929,
      "Ġneon": 3930,
      "Ġspine": 3931,
      "Ġadren": 3932,
      "Ġsubty": 3933,
      "Ġmax": 3934,
      "Ġairway": 3935,
      "Ġcommission": 3936,
      "Ġchampion": 3937,
      "Ġibm": 3938,
      "Ġfarewell": 3939,
      "Ġdementia": 3940,
      ";...": 3941,
      "down": 3942,
      "Ġcreat": 3943,
      "Ġmas": 3944,
      "Ġfron": 3945,
      "Ġproduce": 3946,
      "Ġsepsis": 3947,
      "Ġexhib": 3948,
      "Ġarms": 3949,
      "Ġphil": 3950,
      "Ġpark": 3951,
      "Ġsouthern": 3952,
      "Ġdetermined": 3953,
      "Ġspectrum": 3954,
      "Ġbalance": 3955,
      "Ġsaturnine": 3956,
      "Ġwireless": 3957,
      "Ġrecovery": 3958,
      "hal": 3959,
      "Ġcord": 3960,
      "uls": 3961,
      "Ġcapt": 3962,
      "Ġjan": 3963,
      "ageal": 3964,
      "Ġswelling": 3965,
      "Ġsuspected": 3966,
      "Ġengland": 3967,
      "Ġconcerns": 3968,
      "Ġpsychological": 3969,
      "Ġischemic": 3970,
      "Ġfighting": 3971,
      "Ġnecessary": 3972,
      "ochemical": 3973,
      "bal": 3974,
      "hea": 3975,
      "iring": 3976,
      "ogens": 3977,
      "thm": 3978,
      "Ġcontra": 3979,
      "plasia": 3980,
      "encies": 3981,
      "Ġfacial": 3982,
      "Ġpip": 3983,
      "isis": 3984,
      "Ġdut": 3985,
      "Ġstages": 3986,
      "rend": 3987,
      "Ġaff": 3988,
      "Ġmostly": 3989,
      "itting": 3990,
      "Ġclassification": 3991,
      "Ġclean": 3992,
      "Ġcompetition": 3993,
      "Ġrecommended": 3994,
      "19": 3995,
      "ael": 3996,
      "card": 3997,
      "sp": 3998,
      "Ġahead": 3999,
      "Ġlength": 4000,
      "uses": 4001,
      "Ġring": 4002,
      "Ġrich": 4003,
      "Ġpled": 4004,
      "Ġprinc": 4005,
      "Ġparty": 4006,
      "Ġdiff": 4007,
      "Ġ2013": 4008,
      "Ġinstrum": 4009,
      "Ġbasis": 4010,
      "Ġmakes": 4011,
      "Ġtakes": 4012,
      "Ġkerry": 4013,
      "Ġultras": 4014,
      "Ġhcv": 4015,
      "auc": 4016,
      "net": 4017,
      "uit": 4018,
      "Ġhip": 4019,
      "lection": 4020,
      "Ġgir": 4021,
      "thal": 4022,
      "ache": 4023,
      "ients": 4024,
      "Ġshock": 4025,
      "Ġpreserv": 4026,
      "rapies": 4027,
      "ception": 4028,
      "Ġlips": 4029,
      "Ġcombined": 4030,
      "Ġchalleng": 4031,
      "Ġulcer": 4032,
      "aign": 4033,
      "rim": 4034,
      "ria": 4035,
      "tt": 4036,
      "Ġdiv": 4037,
      "asons": 4038,
      "Ġeast": 4039,
      "ulder": 4040,
      "Ġindian": 4041,
      "Ġexpressed": 4042,
      "Ġretro": 4043,
      "Ġhistological": 4044,
      "Ġseverity": 4045,
      "duces": 4046,
      "Ġsettle": 4047,
      "Ġmatch": 4048,
      "arcoma": 4049,
      "Ġdiscovered": 4050,
      "Ġreplacement": 4051,
      "gf": 4052,
      "Ġcas": 4053,
      "Ġcateg": 4054,
      "Ġthick": 4055,
      "ift": 4056,
      "Ġaccomp": 4057,
      "Ġpriv": 4058,
      "Ġbiopsy": 4059,
      "ructive": 4060,
      "Ġworking": 4061,
      "Ġpaul": 4062,
      "Ġhighest": 4063,
      "Ġfalls": 4064,
      "Ġmodern": 4065,
      "odontic": 4066,
      "Ġsimple": 4067,
      "Ġadolesc": 4068,
      "Ġtuberculosis": 4069,
      "Ġtur": 4070,
      "Ġpull": 4071,
      "itic": 4072,
      "Ġmill": 4073,
      "Ġlumb": 4074,
      "eling": 4075,
      "istic": 4076,
      "Ġadhes": 4077,
      "Ġcontribute": 4078,
      "Ġpathology": 4079,
      "Ġfemales": 4080,
      "Ġoperating": 4081,
      "Ġjapanese": 4082,
      "Ġquarrel": 4083,
      "Ġconsiderable": 4084,
      "Ġtroops": 4085,
      "Ġdelayed": 4086,
      "ging": 4087,
      "Ġcam": 4088,
      "Ġdil": 4089,
      "Ġlib": 4090,
      "Ġnit": 4091,
      "Ġgym": 4092,
      "Ġexternal": 4093,
      "Ġadip": 4094,
      "Ġplants": 4095,
      "Ġ45": 4096,
      "inals": 4097,
      "ptomatic": 4098,
      "Ġlipid": 4099,
      "Ġoriginal": 4100,
      "Ġsudden": 4101,
      "Ġranging": 4102,
      "lor": 4103,
      "Ġdrop": 4104,
      "Ġtoler": 4105,
      "Ġnm": 4106,
      "Ġhair": 4107,
      "Ġimm": 4108,
      "Ġscan": 4109,
      "inese": 4110,
      "Ġthreatening": 4111,
      "Ġexperimental": 4112,
      "Ġachieve": 4113,
      "Ġconcentr": 4114,
      "Ġpolymer": 4115,
      "Ġultrasound": 4116,
      "heim": 4117,
      "Ġskeletal": 4118,
      "resh": 4119,
      "Ġvary": 4120,
      "Ġvag": 4121,
      "Ġoccup": 4122,
      "formation": 4123,
      "Ġ75": 4124,
      "Ġcontinues": 4125,
      "Ġreceive": 4126,
      "Ġvenous": 4127,
      "Ġrecurrence": 4128,
      "Ġiii": 4129,
      "Ġcopd": 4130,
      "Ġstreet": 4131,
      "Ġenhanc": 4132,
      "Ġcampaign": 4133,
      "Ġpredominant": 4134,
      "18": 4135,
      "bc": 4136,
      "Ġchinese": 4137,
      "Ġimmed": 4138,
      "fered": 4139,
      "Ġlonger": 4140,
      "Ġfranc": 4141,
      "Ġnetworks": 4142,
      "load": 4143,
      "Ġasymptomatic": 4144,
      "Ġgymn": 4145,
      "Ġta": 4146,
      "Ġsell": 4147,
      "orption": 4148,
      "Ġclosed": 4149,
      "Ġintr": 4150,
      "Ġ2001": 4151,
      "undred": 4152,
      "Ġnumbers": 4153,
      "ophys": 4154,
      "ximal": 4155,
      "Ġcontinue": 4156,
      "Ġsensitivity": 4157,
      "Ġsilver": 4158,
      "Ġstrike": 4159,
      "Ġsoldiers": 4160,
      "Ġperiodontal": 4161,
      "Ġinfarction": 4162,
      "ha": 4163,
      "Ġtask": 4164,
      "Ġcast": 4165,
      "Ġpse": 4166,
      "Ġunus": 4167,
      "Ġnothing": 4168,
      "obacter": 4169,
      "iox": 4170,
      "Ġearnings": 4171,
      "Ġpathways": 4172,
      "Ġorganisms": 4173,
      "Ġadvance": 4174,
      "Ġlimb": 4175,
      "Ġneeds": 4176,
      "Ġcvd": 4177,
      "Ġcatheter": 4178,
      "light": 4179,
      "yg": 4180,
      "Ġion": 4181,
      "Ġcame": 4182,
      "Ġbill": 4183,
      "Ġfruit": 4184,
      "Ġdensity": 4185,
      "Ġhd": 4186,
      "Ġstability": 4187,
      "Ġproport": 4188,
      "ocr": 4189,
      "ocar": 4190,
      "Ġ37": 4191,
      "Ġsurve": 4192,
      "Ġmarg": 4193,
      "Ġvariable": 4194,
      "Ġpathway": 4195,
      "ergic": 4196,
      "Ġsett": 4197,
      "Ġairways": 4198,
      "Ġarterial": 4199,
      "Ġsensory": 4200,
      "ready": 4201,
      "Ġdesigned": 4202,
      "Ġgoths": 4203,
      "Ġsuccessfully": 4204,
      "Ġdiscovery": 4205,
      "Ġenzyme": 4206,
      "Ġweakness": 4207,
      "Ġbritain": 4208,
      "Ġpseud": 4209,
      "Ġpy": 4210,
      "Ġwides": 4211,
      "Ġhous": 4212,
      "Ġreject": 4213,
      "Ġtools": 4214,
      "Ġgone": 4215,
      "Ġsure": 4216,
      "aces": 4217,
      "orectal": 4218,
      "Ġplate": 4219,
      "Ġpresents": 4220,
      "Ġblue": 4221,
      "Ġbecomes": 4222,
      "Ġrespond": 4223,
      "Ġmultif": 4224,
      "Ġsupply": 4225,
      "Ġoperative": 4226,
      "Ġaustralian": 4227,
      "Ġathlet": 4228,
      "Ġmichael": 4229,
      "Ġexchange": 4230,
      "16": 4231,
      "pread": 4232,
      "zil": 4233,
      "inus": 4234,
      "Ġpm": 4235,
      "Ġwild": 4236,
      "Ġbrief": 4237,
      "Ġfill": 4238,
      "Ġhundred": 4239,
      "utions": 4240,
      "Ġisl": 4241,
      "cephal": 4242,
      "Ġperfor": 4243,
      "Ġsurround": 4244,
      "Ġendoscopic": 4245,
      "Ġsatisfact": 4246,
      "Ġexplos": 4247,
      "Ġgreek": 4248,
      "Ġrather": 4249,
      "Ġsexual": 4250,
      "Ġshoulder": 4251,
      "Ġpersistent": 4252,
      "Ġcaliforn": 4253,
      "Ġwidespread": 4254,
      "son": 4255,
      "Ġber": 4256,
      "Ġlos": 4257,
      "Ġthrow": 4258,
      "Ġwithd": 4259,
      "Ġva": 4260,
      "Ġalready": 4261,
      "Ġsegment": 4262,
      "Ġmanu": 4263,
      "Ġparts": 4264,
      "ogenous": 4265,
      "Ġdoom": 4266,
      "Ġbelow": 4267,
      "Ġelectron": 4268,
      "cemia": 4269,
      "kyo": 4270,
      "Ġdermat": 4271,
      "Ġcytokines": 4272,
      "Ġancient": 4273,
      "Ġgymnast": 4274,
      "40": 4275,
      "Ġsar": 4276,
      "Ġther": 4277,
      "Ġtherapies": 4278,
      "alities": 4279,
      "Ġfis": 4280,
      "Ġfear": 4281,
      "Ġtokyo": 4282,
      "ember": 4283,
      "Ġtrunk": 4284,
      "Ġ48": 4285,
      "Ġremov": 4286,
      "Ġuseful": 4287,
      "Ġdirectly": 4288,
      "ders": 4289,
      "ners": 4290,
      "zen": 4291,
      "Ġdy": 4292,
      "Ġreducing": 4293,
      "Ġreasons": 4294,
      "Ġech": 4295,
      "Ġalone": 4296,
      "Ġappears": 4297,
      "Ġrelief": 4298,
      "Ġemph": 4299,
      "Ġcrisis": 4300,
      "Ġreactive": 4301,
      "Ġcysts": 4302,
      "cranial": 4303,
      "Ġconcentration": 4304,
      "Ġheterogene": 4305,
      "Ġcorneal": 4306,
      "Ġsometimes": 4307,
      "Ġcandid": 4308,
      "25": 4309,
      "loc": 4310,
      "Ġfresh": 4311,
      "Ġlob": 4312,
      "imens": 4313,
      "Ġshar": 4314,
      "Ġspl": 4315,
      "Ġblast": 4316,
      "Ġregular": 4317,
      "Ġoutside": 4318,
      "Ġglauc": 4319,
      "Ġattract": 4320,
      "Ġfrance": 4321,
      "Ġvein": 4322,
      "Ġsuperior": 4323,
      "Ġisraeli": 4324,
      "Ġexcessive": 4325,
      "Ġpneumonia": 4326,
      "Ġvessels": 4327,
      "ya": 4328,
      "itable": 4329,
      "Ġgates": 4330,
      "Ġasth": 4331,
      "Ġexit": 4332,
      "acic": 4333,
      "ager": 4334,
      "ologists": 4335,
      "Ġantigen": 4336,
      "Ġtypical": 4337,
      "Ġbasic": 4338,
      "Ġbarri": 4339,
      "Ġstatist": 4340,
      "Ġconsidering": 4341,
      "Ġcontinuous": 4342,
      "Ġviolence": 4343,
      "Ġcalifornia": 4344,
      "Ġasthma": 4345,
      "sc": 4346,
      "Ġsection": 4347,
      "Ġcub": 4348,
      "Ġdialysis": 4349,
      "Ġga": 4350,
      "eters": 4351,
      "sts": 4352,
      "Ġvul": 4353,
      "estin": 4354,
      "Ġevolution": 4355,
      "Ġcycle": 4356,
      "Ġsuscept": 4357,
      "Ġmilitants": 4358,
      "Ġcrucial": 4359,
      "Ġunusual": 4360,
      "17": 4361,
      "band": 4362,
      "Ġhors": 4363,
      "olved": 4364,
      "eline": 4365,
      "Ġatl": 4366,
      "Ġye": 4367,
      "Ġyan": 4368,
      "Ġprep": 4369,
      "ficial": 4370,
      "Ġdiverse": 4371,
      "Ġlargely": 4372,
      "Ġprotest": 4373,
      "Ġobese": 4374,
      "Ġduct": 4375,
      "Ġenzymes": 4376,
      "Ġprolonged": 4377,
      "Ġmanufact": 4378,
      "bit": 4379,
      "gs": 4380,
      "oration": 4381,
      "Ġneural": 4382,
      "phyl": 4383,
      "rix": 4384,
      "Ġinfants": 4385,
      "Ġthank": 4386,
      "Ġgoes": 4387,
      "Ġbecame": 4388,
      "nea": 4389,
      "Ġbrazil": 4390,
      "Ġmedications": 4391,
      "Ġmalignancies": 4392,
      "Ġdomain": 4393,
      "Ġstarted": 4394,
      "Ġforecast": 4395,
      "Ġculture": 4396,
      "Ġmoderate": 4397,
      "Ġpatterns": 4398,
      "Ġpelvic": 4399,
      "thalm": 4400,
      "Ġlumbar": 4401,
      "ban": 4402,
      "har": 4403,
      "oks": 4404,
      "Ġmour": 4405,
      "ications": 4406,
      "Ġask": 4407,
      "Ġvo": 4408,
      "oding": 4409,
      "odium": 4410,
      "Ġdisp": 4411,
      "Ġwhom": 4412,
      "Ġacet": 4413,
      "Ġvisit": 4414,
      "Ġplayers": 4415,
      "Ġclaims": 4416,
      "Ġatherosclerosis": 4417,
      "iotic": 4418,
      "Ġpron": 4419,
      "rams": 4420,
      "ola": 4421,
      "Ġshr": 4422,
      "Ġadequ": 4423,
      "Ġsox": 4424,
      "Ġallows": 4425,
      "Ġrising": 4426,
      "Ġdecline": 4427,
      "Ġcentury": 4428,
      "Ġtechnologies": 4429,
      "Ġoperation": 4430,
      "Ġviruses": 4431,
      "Ġembry": 4432,
      "Ġinhibitors": 4433,
      "Ġneurons": 4434,
      "Ġbronze": 4435,
      "Ġappearance": 4436,
      "Ġmixed": 4437,
      "Ġlaser": 4438,
      "Ġdatabase": 4439,
      "Ġhorses": 4440,
      "wan": 4441,
      "Ġwi": 4442,
      "Ġfears": 4443,
      "Ġdram": 4444,
      "Ġhast": 4445,
      "Ġthink": 4446,
      "Ġisland": 4447,
      "elves": 4448,
      "Ġintake": 4449,
      "Ġjump": 4450,
      "tein": 4451,
      "Ġmedi": 4452,
      "Ġpartial": 4453,
      "Ġcharges": 4454,
      "Ġextract": 4455,
      "oidal": 4456,
      "Ġkilling": 4457,
      "Ġfinding": 4458,
      "Ġcommunication": 4459,
      "Ġopposition": 4460,
      "Ġmonitoring": 4461,
      "gia": 4462,
      "men": 4463,
      "nis": 4464,
      "Ġnons": 4465,
      "oming": 4466,
      "Ġthin": 4467,
      "uth": 4468,
      "ott": 4469,
      "Ġchor": 4470,
      "Ġfeature": 4471,
      "Ġactivated": 4472,
      "Ġmainten": 4473,
      "Ġlocation": 4474,
      "Ġparent": 4475,
      "Ġtargets": 4476,
      "Ġdevice": 4477,
      "Ġtitles": 4478,
      "Ġindicated": 4479,
      "Ġcystic": 4480,
      "hdad": 4481,
      "Ġbaghdad": 4482,
      "Ġmaintenance": 4483,
      "Ġcns": 4484,
      "Ġpile": 4485,
      "Ġrupt": 4486,
      "Ġ38": 4487,
      "Ġincident": 4488,
      "izes": 4489,
      "Ġscar": 4490,
      "Ġitself": 4491,
      "Ġsubstr": 4492,
      "Ġtravel": 4493,
      "angu": 4494,
      "Ġantim": 4495,
      "Ġprograms": 4496,
      "Ġradio": 4497,
      "Ġheadache": 4498,
      "Ġencoun": 4499,
      "Ġhurric": 4500,
      "Ġpolitical": 4501,
      "Ġinstitutional": 4502,
      "ocarcin": 4503,
      "rific": 4504,
      "yp": 4505,
      "Ġtiger": 4506,
      "Ġways": 4507,
      "Ġanemia": 4508,
      "Ġnurs": 4509,
      "Ġbegan": 4510,
      "iff": 4511,
      "Ġshot": 4512,
      "Ġrot": 4513,
      "oblast": 4514,
      "Ġoccurred": 4515,
      "Ġquote": 4516,
      "Ġbehind": 4517,
      "Ġstrains": 4518,
      "Ġpalestin": 4519,
      "Ġshiite": 4520,
      "Ġthousands": 4521,
      "oe": 4522,
      "Ġthems": 4523,
      "isions": 4524,
      "orous": 4525,
      "Ġbird": 4526,
      "Ġren": 4527,
      "ortun": 4528,
      "Ġagency": 4529,
      "obic": 4530,
      "Ġtrade": 4531,
      "Ġmening": 4532,
      "Ġbelong": 4533,
      "Ġelectronic": 4534,
      "Ġregulatory": 4535,
      "Ġvenez": 4536,
      "Ġpoints": 4537,
      "Ġopportun": 4538,
      "Ġinteraction": 4539,
      "Ġgreen": 4540,
      "Ġglyc": 4541,
      "Ġanatom": 4542,
      "Ġarticle": 4543,
      "Ġeducation": 4544,
      "Ġvenezuel": 4545,
      "atives": 4546,
      "ceed": 4547,
      "Ġconc": 4548,
      "resp": 4549,
      "Ġneut": 4550,
      "ested": 4551,
      "estic": 4552,
      "Ġcoh": 4553,
      "Ġcoach": 4554,
      "Ġattributed": 4555,
      "Ġpathogens": 4556,
      "Ġhistor": 4557,
      "Ġminutes": 4558,
      "Ġsymptomatic": 4559,
      "Ġirr": 4560,
      "Ġadmission": 4561,
      "patient": 4562,
      "Ġfinally": 4563,
      "Ġstrain": 4564,
      "Ġnasal": 4565,
      "Ġkinase": 4566,
      "Ġremoval": 4567,
      "Ġphel": 4568,
      "ana": 4569,
      "ashed": 4570,
      "Ġnations": 4571,
      "Ġgain": 4572,
      "ulate": 4573,
      "uts": 4574,
      "Ġstable": 4575,
      "Ġonc": 4576,
      "Ġconv": 4577,
      "Ġchip": 4578,
      "Ġseiz": 4579,
      "Ġspr": 4580,
      "Ġroom": 4581,
      "Ġ400": 4582,
      "apse": 4583,
      "Ġwhole": 4584,
      "Ġretros": 4585,
      "break": 4586,
      "Ġphelps": 4587,
      "inate": 4588,
      "oring": 4589,
      "Ġball": 4590,
      "Ġfuel": 4591,
      "Ġthir": 4592,
      "amous": 4593,
      "Ġcenters": 4594,
      "Ġorganic": 4595,
      "Ġcomplicated": 4596,
      "Ġneurop": 4597,
      "Ġpaper": 4598,
      "oplasm": 4599,
      "Ġultim": 4600,
      "Ġbelieve": 4601,
      "Ġgranul": 4602,
      "Ġglaucoma": 4603,
      "Ġthemselves": 4604,
      "gu": 4605,
      "iety": 4606,
      "lines": 4607,
      "mark": 4608,
      "rill": 4609,
      "sadr": 4610,
      "Ġsed": 4611,
      "ashes": 4612,
      "Ġtold": 4613,
      "opp": 4614,
      "Ġcoming": 4615,
      "Ġali": 4616,
      "Ġexcl": 4617,
      "Ġspan": 4618,
      "Ġens": 4619,
      "Ġdifferences": 4620,
      "Ġdistal": 4621,
      "Ġdefense": 4622,
      "Ġentity": 4623,
      "Ġiron": 4624,
      "Ġintracellular": 4625,
      "Ġrelevant": 4626,
      "Ġmaternal": 4627,
      "Ġmeasures": 4628,
      "Ġstimulation": 4629,
      "Ġgerman": 4630,
      "Ġbelieved": 4631,
      "Ġgeor": 4632,
      "Ġanesthesia": 4633,
      "Ġprotocol": 4634,
      "Ġadrenal": 4635,
      "23": 4636,
      "Ġbangl": 4637,
      "Ġheat": 4638,
      "Ġvital": 4639,
      "Ġry": 4640,
      "Ġsci": 4641,
      "Ġblind": 4642,
      "Ġconsent": 4643,
      "Ġemot": 4644,
      "Ġsubs": 4645,
      "Ġexposed": 4646,
      "Ġestimates": 4647,
      "Ġdominant": 4648,
      "Ġturned": 4649,
      "Ġextracellular": 4650,
      "Ġconsequent": 4651,
      "cript": 4652,
      "Ġintroduction": 4653,
      "Ġexperiments": 4654,
      "Ġsacrific": 4655,
      "Ġmelanoma": 4656,
      "Ġaccurate": 4657,
      "Ġprospective": 4658,
      "Ġdivided": 4659,
      "Ġwithdraw": 4660,
      "65": 4661,
      "Ġaer": 4662,
      "ering": 4663,
      "Ġom": 4664,
      "Ġpit": 4665,
      "Ġfist": 4666,
      "aries": 4667,
      "rot": 4668,
      "osp": 4669,
      "Ġstent": 4670,
      "otomy": 4671,
      "Ġaspects": 4672,
      "Ġviv": 4673,
      "ptic": 4674,
      "active": 4675,
      "Ġacids": 4676,
      "Ġblow": 4677,
      "Ġtransfer": 4678,
      "Ġdevelopmental": 4679,
      "Ġimproving": 4680,
      "Ġmatrix": 4681,
      "Ġannually": 4682,
      "Ġbarbar": 4683,
      "Ġevaluated": 4684,
      "Ġpcr": 4685,
      "Ġbenefit": 4686,
      "Ġcalcium": 4687,
      "Ġalcohol": 4688,
      "Ġwelcome": 4689,
      "con": 4690,
      "ey": 4691,
      "Ġoption": 4692,
      "Ġmart": 4693,
      "Ġdear": 4694,
      "ums": 4695,
      "athon": 4696,
      "Ġelim": 4697,
      "adesh": 4698,
      "Ġfocused": 4699,
      "Ġestablish": 4700,
      "Ġready": 4701,
      "Ġlearning": 4702,
      "Ġfifth": 4703,
      "Ġfrancisco": 4704,
      "Ġbangladesh": 4705,
      "nic": 4706,
      "uary": 4707,
      "anes": 4708,
      "Ġholy": 4709,
      "enter": 4710,
      "Ġging": 4711,
      "Ġitaly": 4712,
      "acial": 4713,
      "month": 4714,
      "Ġlifestyle": 4715,
      "hemat": 4716,
      "Ġdiam": 4717,
      "Ġdiarr": 4718,
      "helium": 4719,
      "Ġinjured": 4720,
      "Ġsirs": 4721,
      "Ġfoul": 4722,
      "Ġconsumption": 4723,
      "Ġacquis": 4724,
      "Ġthrombosis": 4725,
      "Ġfamilies": 4726,
      "Ġcarried": 4727,
      "Ġcohort": 4728,
      "ees": 4729,
      "ford": 4730,
      "iet": 4731,
      "ued": 4732,
      "icles": 4733,
      "Ġhate": 4734,
      "Ġhcc": 4735,
      "Ġrh": 4736,
      "Ġsuic": 4737,
      "Ġweep": 4738,
      "Ġamid": 4739,
      "Ġ57": 4740,
      "luded": 4741,
      "Ġmales": 4742,
      "Ġdepending": 4743,
      "Ġplayer": 4744,
      "opathic": 4745,
      "Ġconsecut": 4746,
      "Ġdietary": 4747,
      "Ġchromosome": 4748,
      "Ġinduce": 4749,
      "Ġfavor": 4750,
      "Ġdollar": 4751,
      "Ġaccompan": 4752,
      "Ġyanke": 4753,
      "Ġhurricane": 4754,
      "Ġau": 4755,
      "Ġlust": 4756,
      "urance": 4757,
      "igo": 4758,
      "ifically": 4759,
      "ultaneous": 4760,
      "Ġjones": 4761,
      "Ġpathophys": 4762,
      "Ġ85": 4763,
      "Ġinsuf": 4764,
      "Ġfatal": 4765,
      "Ġshowing": 4766,
      "Ġregional": 4767,
      "ethyl": 4768,
      "Ġsubstance": 4769,
      "Ġmigration": 4770,
      "Ġbmi": 4771,
      "Ġchallenging": 4772,
      "Ġcred": 4773,
      "Ġpac": 4774,
      "arter": 4775,
      "asms": 4776,
      "Ġnd": 4777,
      "Ġgh": 4778,
      "iles": 4779,
      "Ġrally": 4780,
      "Ġcomposed": 4781,
      "Ġtrim": 4782,
      "Ġraised": 4783,
      "Ġground": 4784,
      "Ġtreating": 4785,
      "Ġtyph": 4786,
      "Ġoffice": 4787,
      "Ġwinning": 4788,
      "ifying": 4789,
      "Ġalleged": 4790,
      "Ġpeptide": 4791,
      "Ġnorthern": 4792,
      "Ġreconstruction": 4793,
      "mia": 4794,
      "zed": 4795,
      "itude": 4796,
      "Ġtow": 4797,
      "Ġgest": 4798,
      "Ġbell": 4799,
      "Ġatrial": 4800,
      "Ġ34": 4801,
      "Ġhaem": 4802,
      "Ġrelie": 4803,
      "Ġrisks": 4804,
      "Ġgrave": 4805,
      "Ġimmunos": 4806,
      "esterol": 4807,
      "heless": 4808,
      "Ġfailed": 4809,
      "Ġ1999": 4810,
      "Ġconflic": 4811,
      "Ġcommerc": 4812,
      "Ġfluor": 4813,
      "Ġbirds": 4814,
      "va": 4815,
      "Ġtai": 4816,
      "Ġanx": 4817,
      "Ġba": 4818,
      "Ġasian": 4819,
      "Ġdeed": 4820,
      "Ġ31": 4821,
      "Ġamb": 4822,
      "Ġcolorectal": 4823,
      "ductive": 4824,
      "Ġmarked": 4825,
      "Ġneurode": 4826,
      "Ġgrand": 4827,
      "astern": 4828,
      "Ġsubsequently": 4829,
      "Ġcholesterol": 4830,
      "Ġexperienced": 4831,
      "Ġparameters": 4832,
      "Ġphenomenon": 4833,
      "--": 4834,
      "rd": 4835,
      "Ġsect": 4836,
      "enia": 4837,
      "Ġfer": 4838,
      "Ġfish": 4839,
      "Ġnic": 4840,
      "Ġniger": 4841,
      "Ġrules": 4842,
      "geal": 4843,
      "Ġ32": 4844,
      "ella": 4845,
      "ipid": 4846,
      "ctions": 4847,
      "ourish": 4848,
      "Ġserve": 4849,
      "Ġbiology": 4850,
      "Ġinvolve": 4851,
      "onto": 4852,
      "ontin": 4853,
      "rows": 4854,
      "Ġsword": 4855,
      "Ġ2014": 4856,
      "Ġintracranial": 4857,
      "Ġfibrosis": 4858,
      "Ġplanning": 4859,
      "Ġinvestigated": 4860,
      "Ġreviewed": 4861,
      "Ġnasa": 4862,
      "Ġlayer": 4863,
      "Ġsharp": 4864,
      "'?": 4865,
      "vas": 4866,
      "view": 4867,
      "Ġciting": 4868,
      "orate": 4869,
      "Ġwipe": 4870,
      "Ġrevers": 4871,
      "Ġgave": 4872,
      "Ġconj": 4873,
      "Ġvot": 4874,
      "Ġalar": 4875,
      "oden": 4876,
      "Ġmeed": 4877,
      "Ġleaders": 4878,
      "Ġfeed": 4879,
      "Ġvariab": 4880,
      "new": 4881,
      "Ġretin": 4882,
      "Ġmicroscop": 4883,
      "Ġautosomal": 4884,
      "Ġedema": 4885,
      "Ġfacilit": 4886,
      "Ġdeadly": 4887,
      "Ġrecognition": 4888,
      "Ġantibodies": 4889,
      "Ġtraumatic": 4890,
      "Ġradiotherapy": 4891,
      "Ġosteop": 4892,
      "Ġarrested": 4893,
      "Ġplaced": 4894,
      "Ġcarbon": 4895,
      "Ġproviding": 4896,
      "Ġjanuary": 4897,
      "Ġpledges": 4898,
      "Ġdiffuse": 4899,
      "Ġcit": 4900,
      "enosis": 4901,
      "Ġpure": 4902,
      "Ġmouse": 4903,
      "Ġland": 4904,
      "iled": 4905,
      "ray": 4906,
      "opa": 4907,
      "Ġnepal": 4908,
      "akes": 4909,
      "Ġqual": 4910,
      "Ġ47": 4911,
      "Ġtrading": 4912,
      "Ġapopt": 4913,
      "Ġglad": 4914,
      "Ġfatty": 4915,
      "Ġload": 4916,
      "Ġsimultaneous": 4917,
      "Ġeryt": 4918,
      "Ġlocalized": 4919,
      "Ġrunning": 4920,
      "Ġratio": 4921,
      "Ġlaws": 4922,
      "Ġtroub": 4923,
      "Ġbattle": 4924,
      "grad": 4925,
      "grade": 4926,
      "Ġwoe": 4927,
      "Ġarthritis": 4928,
      "Ġpigment": 4929,
      "Ġconsequences": 4930,
      "Ġexecutive": 4931,
      "gl": 4932,
      "iar": 4933,
      "onomic": 4934,
      "Ġfusion": 4935,
      "rolled": 4936,
      "Ġect": 4937,
      "Ġnorm": 4938,
      "ama": 4939,
      "oston": 4940,
      "ostasis": 4941,
      "Ġleaves": 4942,
      "Ġclimb": 4943,
      "Ġtruth": 4944,
      "Ġaccused": 4945,
      "Ġimplement": 4946,
      "Ġendocrine": 4947,
      "berg": 4948,
      "Ġspecifically": 4949,
      "Ġautom": 4950,
      "Ġevaluate": 4951,
      "Ġpowerful": 4952,
      "Ġcryst": 4953,
      "trans": 4954,
      "Ġischemia": 4955,
      "Ġleukemia": 4956,
      "Ġpraise": 4957,
      "Ġaspir": 4958,
      "Ġub": 4959,
      "Ġaids": 4960,
      "inous": 4961,
      "Ġbp": 4962,
      "Ġreached": 4963,
      "Ġnh": 4964,
      "Ġnay": 4965,
      "otoxic": 4966,
      "aby": 4967,
      "Ġcompos": 4968,
      "Ġ49": 4969,
      "Ġtex": 4970,
      "Ġmarathon": 4971,
      "Ġgrown": 4972,
      "Ġslight": 4973,
      "Ġswear": 4974,
      "ensional": 4975,
      "Ġmedication": 4976,
      "Ġreflect": 4977,
      "Ġoptical": 4978,
      "Ġmutation": 4979,
      "Ġtalk": 4980,
      "Ġmissing": 4981,
      "Ġlaunch": 4982,
      "Ġwrongs": 4983,
      "Ġundergoing": 4984,
      "Ġtamora": 4985,
      "Ġsmoke": 4986,
      "Ġresources": 4987,
      "Ġgirl": 4988,
      "Ġheterogeneous": 4989,
      "Ġconsecutive": 4990,
      "Ġtaiwan": 4991,
      "bi": 4992,
      "ech": 4993,
      "iologic": 4994,
      "ka": 4995,
      "ran": 4996,
      "Ġtim": 4997,
      "Ġmess": 4998,
      "Ġboston": 4999
    },
    "merges": [
      [
        "Ġ",
        "a"
      ],
      [
        "Ġ",
        "t"
      ],
      [
        "i",
        "n"
      ],
      [
        "h",
        "e"
      ],
      [
        "r",
        "e"
      ],
      [
        "o",
        "n"
      ],
      [
        "Ġ",
        "s"
      ],
      [
        "a",
        "t"
      ],
      [
        "e",
        "r"
      ],
      [
        "Ġ",
        "o"
      ],
      [
        "Ġ",
        "c"
      ],
      [
        "e",
        "n"
      ],
      [
        "Ġt",
        "he"
      ],
      [
        "a",
        "l"
      ],
      [
        "Ġ",
        "p"
      ],
      [
        "i",
        "s"
      ],
      [
        "Ġ",
        "in"
      ],
      [
        "e",
        "s"
      ],
      [
        "i",
        "t"
      ],
      [
        "Ġ",
        "m"
      ],
      [
        "o",
        "r"
      ],
      [
        "e",
        "d"
      ],
      [
        "Ġ",
        "w"
      ],
      [
        "Ġa",
        "n"
      ],
      [
        "Ġ",
        "b"
      ],
      [
        "Ġ",
        ","
      ],
      [
        "Ġ",
        "f"
      ],
      [
        "a",
        "n"
      ],
      [
        "i",
        "c"
      ],
      [
        "Ġ",
        "d"
      ],
      [
        "Ġo",
        "f"
      ],
      [
        "a",
        "r"
      ],
      [
        "r",
        "o"
      ],
      [
        "i",
        "on"
      ],
      [
        "a",
        "s"
      ],
      [
        "Ġan",
        "d"
      ],
      [
        "Ġ",
        "h"
      ],
      [
        "in",
        "g"
      ],
      [
        "en",
        "t"
      ],
      [
        "Ġ",
        "l"
      ],
      [
        "Ġ",
        "re"
      ],
      [
        "Ġ",
        "."
      ],
      [
        "Ġt",
        "o"
      ],
      [
        "u",
        "s"
      ],
      [
        "c",
        "t"
      ],
      [
        "Ġ",
        "e"
      ],
      [
        "Ġ",
        "n"
      ],
      [
        "o",
        "m"
      ],
      [
        "l",
        "e"
      ],
      [
        "Ġt",
        "h"
      ],
      [
        "v",
        "e"
      ],
      [
        "Ġ",
        "g"
      ],
      [
        "u",
        "r"
      ],
      [
        "l",
        "y"
      ],
      [
        "i",
        "d"
      ],
      [
        "o",
        "s"
      ],
      [
        "u",
        "l"
      ],
      [
        "u",
        "n"
      ],
      [
        "i",
        "l"
      ],
      [
        "at",
        "ion"
      ],
      [
        "e",
        "t"
      ],
      [
        "r",
        "a"
      ],
      [
        "u",
        "t"
      ],
      [
        "i",
        "m"
      ],
      [
        "Ġ",
        "is"
      ],
      [
        "Ġ",
        "-"
      ],
      [
        "o",
        "l"
      ],
      [
        "Ġs",
        "t"
      ],
      [
        "c",
        "e"
      ],
      [
        "Ġb",
        "e"
      ],
      [
        "Ġf",
        "or"
      ],
      [
        "i",
        "g"
      ],
      [
        "it",
        "h"
      ],
      [
        "Ġw",
        "ith"
      ],
      [
        "o",
        "t"
      ],
      [
        "Ġa",
        "s"
      ],
      [
        "Ġd",
        "e"
      ],
      [
        "Ġ",
        "on"
      ],
      [
        "t",
        "er"
      ],
      [
        "i",
        "r"
      ],
      [
        "e",
        "l"
      ],
      [
        "a",
        "y"
      ],
      [
        "s",
        "t"
      ],
      [
        "Ġp",
        "ro"
      ],
      [
        "o",
        "w"
      ],
      [
        "Ġ",
        "he"
      ],
      [
        "c",
        "h"
      ],
      [
        "v",
        "er"
      ],
      [
        "o",
        "p"
      ],
      [
        "a",
        "m"
      ],
      [
        "Ġc",
        "on"
      ],
      [
        "Ġ",
        "1"
      ],
      [
        "a",
        "d"
      ],
      [
        "u",
        "m"
      ],
      [
        "i",
        "f"
      ],
      [
        "Ġc",
        "om"
      ],
      [
        "i",
        "a"
      ],
      [
        "re",
        "s"
      ],
      [
        "Ġ",
        "v"
      ],
      [
        "i",
        "ve"
      ],
      [
        "Ġa",
        "l"
      ],
      [
        "Ġ",
        "r"
      ],
      [
        "o",
        "c"
      ],
      [
        "ic",
        "al"
      ],
      [
        "e",
        "ct"
      ],
      [
        "m",
        "ent"
      ],
      [
        "o",
        "d"
      ],
      [
        "Ġth",
        "at"
      ],
      [
        "or",
        "t"
      ],
      [
        "Ġ",
        "2"
      ],
      [
        "Ġc",
        "h"
      ],
      [
        "it",
        "y"
      ],
      [
        "o",
        "g"
      ],
      [
        "Ġ",
        "it"
      ],
      [
        "Ġo",
        "r"
      ],
      [
        "Ġs",
        "e"
      ],
      [
        "t",
        "h"
      ],
      [
        "Ġa",
        "re"
      ],
      [
        "ro",
        "m"
      ],
      [
        "q",
        "u"
      ],
      [
        "Ġd",
        "is"
      ],
      [
        "Ġe",
        "x"
      ],
      [
        "i",
        "es"
      ],
      [
        "Ġw",
        "h"
      ],
      [
        "Ġs",
        "u"
      ],
      [
        "Ġa",
        "t"
      ],
      [
        "i",
        "al"
      ],
      [
        "Ġn",
        "e"
      ],
      [
        "Ġb",
        "y"
      ],
      [
        "er",
        "s"
      ],
      [
        "es",
        "t"
      ],
      [
        "at",
        "e"
      ],
      [
        "g",
        "e"
      ],
      [
        "Ġw",
        "e"
      ],
      [
        "Ġ",
        "y"
      ],
      [
        "an",
        "t"
      ],
      [
        "Ġ",
        "k"
      ],
      [
        "e",
        "m"
      ],
      [
        "a",
        "in"
      ],
      [
        "at",
        "ed"
      ],
      [
        "u",
        "d"
      ],
      [
        "Ġ",
        "3"
      ],
      [
        "il",
        "l"
      ],
      [
        "a",
        "c"
      ],
      [
        "Ġin",
        "c"
      ],
      [
        "i",
        "v"
      ],
      [
        "Ġp",
        "at"
      ],
      [
        "as",
        "t"
      ],
      [
        "he",
        "r"
      ],
      [
        "Ġ",
        "un"
      ],
      [
        "s",
        "e"
      ],
      [
        "a",
        "b"
      ],
      [
        "es",
        "s"
      ],
      [
        "as",
        "e"
      ],
      [
        "i",
        "ent"
      ],
      [
        "el",
        "l"
      ],
      [
        "os",
        "t"
      ],
      [
        "is",
        "t"
      ],
      [
        "ig",
        "h"
      ],
      [
        "Ġ",
        "us"
      ],
      [
        "Ġs",
        "h"
      ],
      [
        "i",
        "b"
      ],
      [
        "p",
        "p"
      ],
      [
        "o",
        "re"
      ],
      [
        "Ġh",
        "a"
      ],
      [
        "o",
        "us"
      ],
      [
        "p",
        "t"
      ],
      [
        "Ġ",
        "im"
      ],
      [
        "Ġw",
        "as"
      ],
      [
        "Ġs",
        "p"
      ],
      [
        "a",
        "ct"
      ],
      [
        "u",
        "re"
      ],
      [
        "Ġcom",
        "p"
      ],
      [
        "Ġl",
        "e"
      ],
      [
        "Ġa",
        "d"
      ],
      [
        "Ġf",
        "rom"
      ],
      [
        "Ġc",
        "an"
      ],
      [
        "u",
        "g"
      ],
      [
        "Ġre",
        "s"
      ],
      [
        "0",
        "0"
      ],
      [
        "Ġh",
        "as"
      ],
      [
        "an",
        "d"
      ],
      [
        "Ġha",
        "ve"
      ],
      [
        "Ġ",
        "en"
      ],
      [
        "Ġa",
        "c"
      ],
      [
        "e",
        "ar"
      ],
      [
        "Ġpat",
        "ient"
      ],
      [
        "i",
        "p"
      ],
      [
        "i",
        "z"
      ],
      [
        "re",
        "n"
      ],
      [
        "o",
        "un"
      ],
      [
        "in",
        "e"
      ],
      [
        "Ġc",
        "a"
      ],
      [
        "ul",
        "t"
      ],
      [
        "p",
        "ort"
      ],
      [
        "al",
        "l"
      ],
      [
        "re",
        "d"
      ],
      [
        "Ġc",
        "l"
      ],
      [
        "Ġth",
        "is"
      ],
      [
        "p",
        "h"
      ],
      [
        "Ġa",
        "f"
      ],
      [
        "Ġs",
        "y"
      ],
      [
        "ar",
        "y"
      ],
      [
        "Ġin",
        "t"
      ],
      [
        "Ġ",
        "i"
      ],
      [
        "a",
        "k"
      ],
      [
        "m",
        "on"
      ],
      [
        "f",
        "ect"
      ],
      [
        "u",
        "p"
      ],
      [
        "Ġ",
        "j"
      ],
      [
        "p",
        "er"
      ],
      [
        "Ġt",
        "r"
      ],
      [
        "Ġbe",
        "en"
      ],
      [
        "ct",
        "ion"
      ],
      [
        "an",
        "s"
      ],
      [
        "ar",
        "t"
      ],
      [
        "id",
        "e"
      ],
      [
        "ul",
        "ar"
      ],
      [
        "ic",
        "h"
      ],
      [
        "u",
        "c"
      ],
      [
        "Ġp",
        "er"
      ],
      [
        "a",
        "g"
      ],
      [
        "d",
        "er"
      ],
      [
        "re",
        "at"
      ],
      [
        "Ġ",
        "ra"
      ],
      [
        "en",
        "ce"
      ],
      [
        "d",
        "ay"
      ],
      [
        "ar",
        "d"
      ],
      [
        "ol",
        "og"
      ],
      [
        "Ġa",
        "b"
      ],
      [
        "igh",
        "t"
      ],
      [
        "Ġp",
        "re"
      ],
      [
        "Ġm",
        "an"
      ],
      [
        "Ġp",
        "l"
      ],
      [
        "or",
        "s"
      ],
      [
        "Ġpatient",
        "s"
      ],
      [
        "o",
        "ur"
      ],
      [
        "ation",
        "s"
      ],
      [
        "res",
        "s"
      ],
      [
        "Ġdis",
        "e"
      ],
      [
        "ve",
        "l"
      ],
      [
        "ion",
        "s"
      ],
      [
        "Ġre",
        "c"
      ],
      [
        "Ġn",
        "ot"
      ],
      [
        "u",
        "e"
      ],
      [
        "l",
        "d"
      ],
      [
        "Ġcon",
        "t"
      ],
      [
        "y",
        "s"
      ],
      [
        "Ġwh",
        "ich"
      ],
      [
        "en",
        "s"
      ],
      [
        "or",
        "m"
      ],
      [
        "or",
        "y"
      ],
      [
        "ig",
        "n"
      ],
      [
        "'",
        "s"
      ],
      [
        "ug",
        "h"
      ],
      [
        "Ġa",
        "pp"
      ],
      [
        "a",
        "ge"
      ],
      [
        "r",
        "i"
      ],
      [
        "Ġwe",
        "re"
      ],
      [
        "Ġ",
        "ro"
      ],
      [
        "om",
        "e"
      ],
      [
        "Ġin",
        "d"
      ],
      [
        "p",
        "e"
      ],
      [
        "Ġ3",
        "9"
      ],
      [
        "Ġg",
        "en"
      ],
      [
        "Ġa",
        "r"
      ],
      [
        "Ġm",
        "e"
      ],
      [
        "p",
        "l"
      ],
      [
        "en",
        "d"
      ],
      [
        "Ġs",
        "ur"
      ],
      [
        "Ġre",
        "port"
      ],
      [
        "Ġa",
        "g"
      ],
      [
        "Ġw",
        "or"
      ],
      [
        "Ġh",
        "is"
      ],
      [
        "Ġs",
        "o"
      ],
      [
        "Ġp",
        "res"
      ],
      [
        "Ġst",
        "ud"
      ],
      [
        "t",
        "e"
      ],
      [
        "o",
        "od"
      ],
      [
        "r",
        "ic"
      ],
      [
        "Ġc",
        "ell"
      ],
      [
        "Ġas",
        "s"
      ],
      [
        "an",
        "ce"
      ],
      [
        "at",
        "h"
      ],
      [
        "o",
        "u"
      ],
      [
        "Ġb",
        "ut"
      ],
      [
        "Ġm",
        "ed"
      ],
      [
        "Ġs",
        "c"
      ],
      [
        "as",
        "es"
      ],
      [
        "Ġ",
        "qu"
      ],
      [
        "u",
        "al"
      ],
      [
        "Ġit",
        "s"
      ],
      [
        "k",
        "s"
      ],
      [
        "Ġne",
        "w"
      ],
      [
        "Ġa",
        "m"
      ],
      [
        "Ġin",
        "f"
      ],
      [
        "Ġm",
        "ost"
      ],
      [
        "r",
        "on"
      ],
      [
        "Ġd",
        "ia"
      ],
      [
        "Ġal",
        "l"
      ],
      [
        "Ġ",
        "4"
      ],
      [
        "it",
        "ion"
      ],
      [
        "i",
        "e"
      ],
      [
        "Ġp",
        "h"
      ],
      [
        "Ġdise",
        "ase"
      ],
      [
        "Ġt",
        "e"
      ],
      [
        "Ġy",
        "ear"
      ],
      [
        "Ġc",
        "o"
      ],
      [
        "Ġn",
        "o"
      ],
      [
        "he",
        "n"
      ],
      [
        "t",
        "her"
      ],
      [
        "Ġm",
        "y"
      ],
      [
        "Ġin",
        "ter"
      ],
      [
        "Ġ",
        "5"
      ],
      [
        "Ġm",
        "et"
      ],
      [
        "c",
        "er"
      ],
      [
        "on",
        "e"
      ],
      [
        "us",
        "t"
      ],
      [
        "in",
        "al"
      ],
      [
        "k",
        "e"
      ],
      [
        "or",
        "d"
      ],
      [
        "if",
        "ic"
      ],
      [
        "c",
        "c"
      ],
      [
        "a",
        "p"
      ],
      [
        "Ġo",
        "ver"
      ],
      [
        "Ġthe",
        "ir"
      ],
      [
        "Ġm",
        "ore"
      ],
      [
        "Ġb",
        "l"
      ],
      [
        "l",
        "ic"
      ],
      [
        "us",
        "e"
      ],
      [
        "l",
        "ud"
      ],
      [
        "Ġac",
        "c"
      ],
      [
        "os",
        "is"
      ],
      [
        "Ġaf",
        "ter"
      ],
      [
        "Ġg",
        "ro"
      ],
      [
        "Ġinc",
        "re"
      ],
      [
        "ow",
        "n"
      ],
      [
        "o",
        "ut"
      ],
      [
        "as",
        "ed"
      ],
      [
        "at",
        "ive"
      ],
      [
        "i",
        "ous"
      ],
      [
        "Ġon",
        "e"
      ],
      [
        "Ġe",
        "v"
      ],
      [
        "Ġin",
        "v"
      ],
      [
        "an",
        "c"
      ],
      [
        "Ġt",
        "reat"
      ],
      [
        "f",
        "t"
      ],
      [
        "u",
        "b"
      ],
      [
        "g",
        "n"
      ],
      [
        "is",
        "s"
      ],
      [
        "m",
        "s"
      ],
      [
        "vel",
        "op"
      ],
      [
        "d",
        "u"
      ],
      [
        "as",
        "s"
      ],
      [
        "Ġinc",
        "lud"
      ],
      [
        "Ġd",
        "es"
      ],
      [
        "Ġk",
        "n"
      ],
      [
        "ul",
        "d"
      ],
      [
        "ab",
        "le"
      ],
      [
        "Ġhe",
        "al"
      ],
      [
        "at",
        "es"
      ],
      [
        "Ġ",
        "up"
      ],
      [
        "oc",
        "i"
      ],
      [
        "Ġcon",
        "s"
      ],
      [
        "e",
        "c"
      ],
      [
        "Ġs",
        "a"
      ],
      [
        "Ġde",
        "velop"
      ],
      [
        "r",
        "u"
      ],
      [
        "Ġm",
        "ay"
      ],
      [
        "ren",
        "t"
      ],
      [
        "i",
        "le"
      ],
      [
        "Ġo",
        "b"
      ],
      [
        "Ġthe",
        "re"
      ],
      [
        "re",
        "e"
      ],
      [
        "f",
        "ic"
      ],
      [
        "Ġsu",
        "ch"
      ],
      [
        "Ġh",
        "y"
      ],
      [
        "er",
        "v"
      ],
      [
        "Ġf",
        "ir"
      ],
      [
        "Ġt",
        "w"
      ],
      [
        "Ġre",
        "l"
      ],
      [
        "Ġre",
        "g"
      ],
      [
        "Ġo",
        "ut"
      ],
      [
        "r",
        "y"
      ],
      [
        "ol",
        "d"
      ],
      [
        "Ġe",
        "m"
      ],
      [
        "f",
        "e"
      ],
      [
        "Ġthe",
        "se"
      ],
      [
        "Ġw",
        "ill"
      ],
      [
        "Ġsu",
        "b"
      ],
      [
        "Ġheal",
        "th"
      ],
      [
        "o",
        "b"
      ],
      [
        "Ġth",
        "an"
      ],
      [
        "iz",
        "ed"
      ],
      [
        "i",
        "re"
      ],
      [
        "Ġtreat",
        "ment"
      ],
      [
        "Ġt",
        "ra"
      ],
      [
        "Ġe",
        "f"
      ],
      [
        "Ġ2",
        "00"
      ],
      [
        "Ġm",
        "on"
      ],
      [
        "a",
        "ce"
      ],
      [
        "on",
        "d"
      ],
      [
        "a",
        "v"
      ],
      [
        "on",
        "g"
      ],
      [
        "oun",
        "t"
      ],
      [
        "s",
        "o"
      ],
      [
        "os",
        "e"
      ],
      [
        "it",
        "e"
      ],
      [
        "w",
        "e"
      ],
      [
        "Ġtr",
        "ans"
      ],
      [
        "Ġpre",
        "v"
      ],
      [
        "Ġh",
        "igh"
      ],
      [
        "Ġh",
        "ow"
      ],
      [
        "in",
        "d"
      ],
      [
        "Ġ",
        ";"
      ],
      [
        "ac",
        "k"
      ],
      [
        "an",
        "g"
      ],
      [
        "en",
        "c"
      ],
      [
        "st",
        "em"
      ],
      [
        "Ġcl",
        "in"
      ],
      [
        "Ġ",
        "6"
      ],
      [
        "Ġim",
        "p"
      ],
      [
        "Ġcom",
        "mon"
      ],
      [
        "ent",
        "s"
      ],
      [
        "Ġp",
        "r"
      ],
      [
        "i",
        "an"
      ],
      [
        "Ġp",
        "art"
      ],
      [
        "Ġass",
        "oci"
      ],
      [
        "Ġm",
        "a"
      ],
      [
        "Ġse",
        "c"
      ],
      [
        "Ġfir",
        "st"
      ],
      [
        "Ġm",
        "ar"
      ],
      [
        "oun",
        "d"
      ],
      [
        "Ġa",
        "p"
      ],
      [
        "Ġg",
        "o"
      ],
      [
        "Ġr",
        "is"
      ],
      [
        "ot",
        "h"
      ],
      [
        "a",
        "il"
      ],
      [
        "er",
        "m"
      ],
      [
        "Ġwh",
        "o"
      ],
      [
        "Ġtw",
        "o"
      ],
      [
        "Ġd",
        "if"
      ],
      [
        "Ġsy",
        "stem"
      ],
      [
        "ic",
        "e"
      ],
      [
        "Ġf",
        "un"
      ],
      [
        "Ġ",
        "u"
      ],
      [
        "Ġan",
        "t"
      ],
      [
        "Ġen",
        "d"
      ],
      [
        "Ġg",
        "l"
      ],
      [
        "Ġex",
        "p"
      ],
      [
        "r",
        "ib"
      ],
      [
        "at",
        "er"
      ],
      [
        "Ġyear",
        "s"
      ],
      [
        "Ġa",
        "ct"
      ],
      [
        "Ġb",
        "et"
      ],
      [
        "Ġf",
        "l"
      ],
      [
        "Ġcan",
        "cer"
      ],
      [
        "act",
        "er"
      ],
      [
        "il",
        "d"
      ],
      [
        "Ġo",
        "ther"
      ],
      [
        "Ġl",
        "i"
      ],
      [
        "Ġp",
        "e"
      ],
      [
        "Ġle",
        "ad"
      ],
      [
        "Ġthe",
        "y"
      ],
      [
        "ic",
        "s"
      ],
      [
        "Ġt",
        "y"
      ],
      [
        "ut",
        "ers"
      ],
      [
        "it",
        "al"
      ],
      [
        "Ġc",
        "r"
      ],
      [
        "ay",
        "s"
      ],
      [
        "c",
        "ular"
      ],
      [
        "Ġf",
        "e"
      ],
      [
        "m",
        "un"
      ],
      [
        "ol",
        "l"
      ],
      [
        "Ġwor",
        "ld"
      ],
      [
        "il",
        "ity"
      ],
      [
        "Ġ1",
        "9"
      ],
      [
        "Ġpres",
        "ent"
      ],
      [
        "Ġbe",
        "c"
      ],
      [
        "b",
        "le"
      ],
      [
        "in",
        "s"
      ],
      [
        "u",
        "res"
      ],
      [
        "Ġp",
        "o"
      ],
      [
        "i",
        "ed"
      ],
      [
        "Ġv",
        "ar"
      ],
      [
        "o",
        "ugh"
      ],
      [
        "Ġre",
        "uters"
      ],
      [
        "Ġf",
        "act"
      ],
      [
        "Ġde",
        "c"
      ],
      [
        "im",
        "e"
      ],
      [
        "Ġs",
        "ign"
      ],
      [
        "Ġun",
        "der"
      ],
      [
        "i",
        "o"
      ],
      [
        "olog",
        "ical"
      ],
      [
        "om",
        "a"
      ],
      [
        "Ġm",
        "al"
      ],
      [
        "Ġo",
        "cc"
      ],
      [
        "Ġy",
        "ou"
      ],
      [
        "Ġclin",
        "ical"
      ],
      [
        "Ġ2",
        "0"
      ],
      [
        "l",
        "l"
      ],
      [
        "Ġdia",
        "gn"
      ],
      [
        "Ġres",
        "p"
      ],
      [
        "Ġin",
        "fect"
      ],
      [
        "ur",
        "ing"
      ],
      [
        "Ġch",
        "ar"
      ],
      [
        "Ġex",
        "t"
      ],
      [
        "Ġhe",
        "r"
      ],
      [
        "Ġc",
        "ar"
      ],
      [
        "a",
        "re"
      ],
      [
        "he",
        "d"
      ],
      [
        "Ġres",
        "ult"
      ],
      [
        "Ġreport",
        "ed"
      ],
      [
        "b",
        "er"
      ],
      [
        "Ġh",
        "im"
      ],
      [
        "Ġapp",
        "ro"
      ],
      [
        "it",
        "is"
      ],
      [
        "ul",
        "ation"
      ],
      [
        "a",
        "ch"
      ],
      [
        "Ġat",
        "t"
      ],
      [
        "Ġal",
        "so"
      ],
      [
        "ak",
        "e"
      ],
      [
        "e",
        "p"
      ],
      [
        "he",
        "s"
      ],
      [
        ".",
        "."
      ],
      [
        "id",
        "ent"
      ],
      [
        "Ġc",
        "or"
      ],
      [
        "Ġe",
        "ar"
      ],
      [
        "r",
        "al"
      ],
      [
        "Ġo",
        "ur"
      ],
      [
        "Ġsp",
        "ec"
      ],
      [
        "Ġsa",
        "id"
      ],
      [
        "at",
        "ing"
      ],
      [
        "o",
        "uld"
      ],
      [
        "on",
        "s"
      ],
      [
        "y",
        "m"
      ],
      [
        "ro",
        "s"
      ],
      [
        "it",
        "ed"
      ],
      [
        "Ġ",
        "'"
      ],
      [
        "Ġt",
        "um"
      ],
      [
        "Ġassoci",
        "ated"
      ],
      [
        "o",
        "k"
      ],
      [
        "le",
        "ct"
      ],
      [
        "e",
        "ver"
      ],
      [
        "ra",
        "p"
      ],
      [
        "Ġm",
        "o"
      ],
      [
        "f",
        "orm"
      ],
      [
        "it",
        "ies"
      ],
      [
        "Ġpro",
        "c"
      ],
      [
        "Ġsy",
        "n"
      ],
      [
        "at",
        "ory"
      ],
      [
        "u",
        "es"
      ],
      [
        "Ġde",
        "p"
      ],
      [
        "Ġsur",
        "g"
      ],
      [
        "al",
        "ity"
      ],
      [
        "os",
        "s"
      ],
      [
        "Ġhow",
        "ever"
      ],
      [
        "Ġd",
        "et"
      ],
      [
        "Ġef",
        "fect"
      ],
      [
        "al",
        "ly"
      ],
      [
        "Ġl",
        "ow"
      ],
      [
        "Ġd",
        "r"
      ],
      [
        "n",
        "e"
      ],
      [
        "Ġo",
        "ld"
      ],
      [
        "Ġus",
        "ed"
      ],
      [
        "ly",
        "m"
      ],
      [
        "olog",
        "y"
      ],
      [
        "am",
        "m"
      ],
      [
        "Ġint",
        "o"
      ],
      [
        "Ġre",
        "t"
      ],
      [
        "Ġh",
        "ad"
      ],
      [
        "Ġinf",
        "l"
      ],
      [
        "Ġcell",
        "s"
      ],
      [
        "Ġe",
        "t"
      ],
      [
        "Ġw",
        "ell"
      ],
      [
        "Ġl",
        "if"
      ],
      [
        "Ġw",
        "om"
      ],
      [
        "ra",
        "ct"
      ],
      [
        "Ġc",
        "ol"
      ],
      [
        "'",
        "d"
      ],
      [
        "v",
        "ed"
      ],
      [
        "rom",
        "e"
      ],
      [
        "Ġ",
        "7"
      ],
      [
        "y",
        "t"
      ],
      [
        "he",
        "m"
      ],
      [
        "in",
        "t"
      ],
      [
        "ut",
        "e"
      ],
      [
        "u",
        "ro"
      ],
      [
        "Ġim",
        "port"
      ],
      [
        "Ġman",
        "y"
      ],
      [
        "Ġd",
        "uring"
      ],
      [
        "l",
        "es"
      ],
      [
        "at",
        "ic"
      ],
      [
        "Ġh",
        "um"
      ],
      [
        "ation",
        "al"
      ],
      [
        "ver",
        "s"
      ],
      [
        "Ġstud",
        "ies"
      ],
      [
        "Ġris",
        "k"
      ],
      [
        "Ġs",
        "m"
      ],
      [
        "Ġm",
        "ic"
      ],
      [
        "oc",
        "k"
      ],
      [
        "Ġfor",
        "m"
      ],
      [
        "ch",
        "n"
      ],
      [
        "ver",
        "y"
      ],
      [
        "we",
        "en"
      ],
      [
        "Ġbet",
        "ween"
      ],
      [
        "ur",
        "s"
      ],
      [
        "f",
        "er"
      ],
      [
        "Ġfun",
        "ction"
      ],
      [
        "n",
        "ing"
      ],
      [
        "ce",
        "pt"
      ],
      [
        "Ġstud",
        "y"
      ],
      [
        "Ġd",
        "ue"
      ],
      [
        "Ġinclud",
        "ing"
      ],
      [
        "Ġs",
        "er"
      ],
      [
        "Ġm",
        "od"
      ],
      [
        "id",
        "ence"
      ],
      [
        "f",
        "ore"
      ],
      [
        "Ġca",
        "us"
      ],
      [
        "Ġs",
        "ome"
      ],
      [
        "Ġch",
        "ild"
      ],
      [
        "g",
        "an"
      ],
      [
        "Ġre",
        "m"
      ],
      [
        "ill",
        "ion"
      ],
      [
        "an",
        "e"
      ],
      [
        "Ġpat",
        "h"
      ],
      [
        "d",
        "ition"
      ],
      [
        "Ġh",
        "ist"
      ],
      [
        "f",
        "ul"
      ],
      [
        "Ġpro",
        "te"
      ],
      [
        "o",
        "id"
      ],
      [
        "y",
        "ear"
      ],
      [
        "Ġc",
        "ases"
      ],
      [
        "og",
        "en"
      ],
      [
        "Ġma",
        "j"
      ],
      [
        "Ġgen",
        "er"
      ],
      [
        "Ġab",
        "out"
      ],
      [
        "Ġ",
        "est"
      ],
      [
        "Ġp",
        "op"
      ],
      [
        "Ġw",
        "hen"
      ],
      [
        "Ġc",
        "ent"
      ],
      [
        "Ġdif",
        "fe"
      ],
      [
        "un",
        "d"
      ],
      [
        "Ġ",
        "8"
      ],
      [
        "Ġd",
        "o"
      ],
      [
        "Ġmaj",
        "or"
      ],
      [
        "ro",
        "ugh"
      ],
      [
        "Ġm",
        "in"
      ],
      [
        "Ġc",
        "ount"
      ],
      [
        "Ġn",
        "um"
      ],
      [
        "Ġb",
        "i"
      ],
      [
        "Ġus",
        "e"
      ],
      [
        "rap",
        "y"
      ],
      [
        "Ġp",
        "ar"
      ],
      [
        "Ġre",
        "p"
      ],
      [
        "Ġin",
        "s"
      ],
      [
        "y",
        "l"
      ],
      [
        "b",
        "et"
      ],
      [
        "Ġc",
        "ur"
      ],
      [
        "Ġte",
        "chn"
      ],
      [
        "Ġrec",
        "ent"
      ],
      [
        "Ġf",
        "at"
      ],
      [
        "Ġact",
        "iv"
      ],
      [
        "g",
        "en"
      ],
      [
        "ron",
        "ic"
      ],
      [
        "ur",
        "n"
      ],
      [
        "Ġchar",
        "acter"
      ],
      [
        "i",
        "or"
      ],
      [
        "is",
        "h"
      ],
      [
        "Ġc",
        "ase"
      ],
      [
        "Ġdia",
        "bet"
      ],
      [
        "lym",
        "p"
      ],
      [
        "Ġo",
        "lymp"
      ],
      [
        "Ġ1",
        "0"
      ],
      [
        "os",
        "ed"
      ],
      [
        "ant",
        "s"
      ],
      [
        "ar",
        "g"
      ],
      [
        "er",
        "ic"
      ],
      [
        "n",
        "a"
      ],
      [
        "Ġgro",
        "w"
      ],
      [
        "Ġs",
        "he"
      ],
      [
        "am",
        "p"
      ],
      [
        "Ġdis",
        "t"
      ],
      [
        "Ġn",
        "on"
      ],
      [
        "Ġm",
        "ain"
      ],
      [
        "Ġe",
        "p"
      ],
      [
        "Ġpro",
        "v"
      ],
      [
        "og",
        "ra"
      ],
      [
        "j",
        "ect"
      ],
      [
        "Ġt",
        "ime"
      ],
      [
        "Ġsec",
        "ond"
      ],
      [
        "c",
        "om"
      ],
      [
        "it",
        "t"
      ],
      [
        "Ġimport",
        "ant"
      ],
      [
        "Ġl",
        "ong"
      ],
      [
        "Ġca",
        "use"
      ],
      [
        "in",
        "es"
      ],
      [
        "n",
        "al"
      ],
      [
        "Ġsh",
        "ow"
      ],
      [
        "at",
        "ure"
      ],
      [
        "ent",
        "ion"
      ],
      [
        "Ġp",
        "ain"
      ],
      [
        "Ġpro",
        "g"
      ],
      [
        "Ġm",
        "us"
      ],
      [
        "i",
        "ly"
      ],
      [
        "as",
        "cular"
      ],
      [
        "am",
        "e"
      ],
      [
        "Ġmic",
        "ro"
      ],
      [
        "Ġth",
        "y"
      ],
      [
        "iz",
        "ation"
      ],
      [
        "in",
        "ed"
      ],
      [
        "Ġlif",
        "e"
      ],
      [
        "Ġbl",
        "ood"
      ],
      [
        "Ġgro",
        "up"
      ],
      [
        "Ġdiffe",
        "rent"
      ],
      [
        "Ġ",
        "if"
      ],
      [
        "Ġm",
        "ult"
      ],
      [
        "Ġca",
        "re"
      ],
      [
        "Ġt",
        "iss"
      ],
      [
        "Ġra",
        "d"
      ],
      [
        "er",
        "g"
      ],
      [
        "Ġde",
        "f"
      ],
      [
        "Ġdr",
        "ug"
      ],
      [
        "pt",
        "om"
      ],
      [
        "Ġa",
        "ut"
      ],
      [
        "p",
        "ital"
      ],
      [
        "ar",
        "ch"
      ],
      [
        "Ġg",
        "ra"
      ],
      [
        "Ġsy",
        "m"
      ],
      [
        "Ġc",
        "ard"
      ],
      [
        "Ġde",
        "ath"
      ],
      [
        "ru",
        "ct"
      ],
      [
        "Ġinv",
        "ol"
      ],
      [
        "a",
        "use"
      ],
      [
        "ib",
        "le"
      ],
      [
        "enc",
        "y"
      ],
      [
        "du",
        "ct"
      ],
      [
        "ment",
        "s"
      ],
      [
        "n",
        "ess"
      ],
      [
        "c",
        "le"
      ],
      [
        "Ġse",
        "ver"
      ],
      [
        "Ġa",
        "ge"
      ],
      [
        "on",
        "t"
      ],
      [
        "d",
        "uc"
      ],
      [
        "al",
        "s"
      ],
      [
        "c",
        "rib"
      ],
      [
        "Ġpe",
        "op"
      ],
      [
        "om",
        "y"
      ],
      [
        "Ġcont",
        "ro"
      ],
      [
        "ical",
        "ly"
      ],
      [
        "i",
        "um"
      ],
      [
        "is",
        "e"
      ],
      [
        "Ġcomp",
        "le"
      ],
      [
        "Ġ",
        ":"
      ],
      [
        "Ġs",
        "l"
      ],
      [
        "Ġb",
        "oth"
      ],
      [
        "ent",
        "ial"
      ],
      [
        "Ġl",
        "t"
      ],
      [
        "Ġ",
        "ent"
      ],
      [
        "Ġf",
        "r"
      ],
      [
        "Ġre",
        "se"
      ],
      [
        "Ġon",
        "ly"
      ],
      [
        "is",
        "m"
      ],
      [
        "Ġhy",
        "per"
      ],
      [
        "p",
        "s"
      ],
      [
        "it",
        "s"
      ],
      [
        "in",
        "ation"
      ],
      [
        "Ġw",
        "he"
      ],
      [
        "Ġli",
        "ke"
      ],
      [
        "Ġp",
        "ost"
      ],
      [
        "Ġpeop",
        "le"
      ],
      [
        "Ġim",
        "mun"
      ],
      [
        "oll",
        "ow"
      ],
      [
        "c",
        "l"
      ],
      [
        "Ġth",
        "rough"
      ],
      [
        "ad",
        "e"
      ],
      [
        "Ġs",
        "in"
      ],
      [
        "Ġa",
        "mon"
      ],
      [
        "Ġl",
        "ast"
      ],
      [
        "ur",
        "al"
      ],
      [
        "Ġamon",
        "g"
      ],
      [
        "Ġra",
        "re"
      ],
      [
        "Ġf",
        "ollow"
      ],
      [
        "Ġsu",
        "pp"
      ],
      [
        "Ġpr",
        "im"
      ],
      [
        "Ġb",
        "re"
      ],
      [
        "Ġth",
        "ree"
      ],
      [
        "e",
        "re"
      ],
      [
        "Ġ",
        "es"
      ],
      [
        "Ġd",
        "at"
      ],
      [
        "Ġbec",
        "ause"
      ],
      [
        "c",
        "o"
      ],
      [
        "ogra",
        "ph"
      ],
      [
        "Ġor",
        "gan"
      ],
      [
        "Ġl",
        "oc"
      ],
      [
        "Ġb",
        "ra"
      ],
      [
        "t",
        "ain"
      ],
      [
        "Ġad",
        "v"
      ],
      [
        "er",
        "y"
      ],
      [
        "an",
        "ge"
      ],
      [
        "Ġl",
        "im"
      ],
      [
        "ress",
        "ion"
      ],
      [
        "Ġl",
        "o"
      ],
      [
        "e",
        "k"
      ],
      [
        "Ġfact",
        "ors"
      ],
      [
        "Ġaf",
        "fect"
      ],
      [
        "Ġph",
        "ys"
      ],
      [
        "Ġb",
        "r"
      ],
      [
        "Ġwh",
        "at"
      ],
      [
        "ual",
        "ly"
      ],
      [
        "op",
        "h"
      ],
      [
        "Ġdiabet",
        "es"
      ],
      [
        "Ġch",
        "ronic"
      ],
      [
        "qu",
        "ent"
      ],
      [
        "od",
        "y"
      ],
      [
        "Ġwom",
        "en"
      ],
      [
        "Ġal",
        "th"
      ],
      [
        "Ġalth",
        "ough"
      ],
      [
        "Ġmet",
        "h"
      ],
      [
        "Ġkn",
        "own"
      ],
      [
        "Ġp",
        "ub"
      ],
      [
        "Ġb",
        "o"
      ],
      [
        "or",
        "k"
      ],
      [
        "Ġt",
        "est"
      ],
      [
        "Ġsyn",
        "d"
      ],
      [
        "Ġsever",
        "al"
      ],
      [
        "Ġdevelop",
        "ment"
      ],
      [
        "Ġpart",
        "ic"
      ],
      [
        "Ġg",
        "t"
      ],
      [
        "ic",
        "k"
      ],
      [
        "Ġm",
        "illion"
      ],
      [
        "Ġd",
        "i"
      ],
      [
        "ic",
        "t"
      ],
      [
        "Ġsym",
        "ptom"
      ],
      [
        "c",
        "ent"
      ],
      [
        "Ġdise",
        "ases"
      ],
      [
        "Ġhum",
        "an"
      ],
      [
        "ate",
        "ly"
      ],
      [
        "Ġdes",
        "crib"
      ],
      [
        "Ġs",
        "et"
      ],
      [
        "Ġp",
        "os"
      ],
      [
        "if",
        "ied"
      ],
      [
        "Ġg",
        "old"
      ],
      [
        "Ġle",
        "vel"
      ],
      [
        "c",
        "k"
      ],
      [
        "t",
        "en"
      ],
      [
        "Ġm",
        "ort"
      ],
      [
        "Ġincre",
        "ased"
      ],
      [
        "Ġv",
        "is"
      ],
      [
        "Ġ",
        "9"
      ],
      [
        "Ġhe",
        "m"
      ],
      [
        "Ġper",
        "form"
      ],
      [
        "os",
        "pital"
      ],
      [
        "hen",
        "s"
      ],
      [
        "Ġproc",
        "ess"
      ],
      [
        "l",
        "i"
      ],
      [
        "Ġinfl",
        "amm"
      ],
      [
        "Ġm",
        "en"
      ],
      [
        "ut",
        "ion"
      ],
      [
        "ro",
        "w"
      ],
      [
        "Ġsign",
        "ific"
      ],
      [
        "Ġan",
        "al"
      ],
      [
        "ra",
        "q"
      ],
      [
        "Ġc",
        "y"
      ],
      [
        "Ġh",
        "ospital"
      ],
      [
        "c",
        "op"
      ],
      [
        "00",
        "0"
      ],
      [
        "Ġty",
        "pe"
      ],
      [
        "orm",
        "al"
      ],
      [
        "Ġnum",
        "ber"
      ],
      [
        "et",
        "ic"
      ],
      [
        "a",
        "f"
      ],
      [
        "t",
        "ic"
      ],
      [
        "Ġi",
        "raq"
      ],
      [
        "d",
        "e"
      ],
      [
        "i",
        "x"
      ],
      [
        "es",
        "ter"
      ],
      [
        "Ġs",
        "w"
      ],
      [
        "Ġv",
        "ir"
      ],
      [
        "i",
        "qu"
      ],
      [
        "Ġocc",
        "ur"
      ],
      [
        "Ġag",
        "ain"
      ],
      [
        "in",
        "a"
      ],
      [
        "Ġb",
        "ased"
      ],
      [
        "Ġimp",
        "ro"
      ],
      [
        "g",
        "est"
      ],
      [
        "Ġa",
        "ir"
      ],
      [
        "Ġw",
        "ould"
      ],
      [
        "Ġp",
        "ot"
      ],
      [
        "iv",
        "id"
      ],
      [
        "Ġmar",
        "k"
      ],
      [
        "Ġs",
        "at"
      ],
      [
        "Ġo",
        "p"
      ],
      [
        "Ġf",
        "re"
      ],
      [
        "a",
        "w"
      ],
      [
        "Ġ20",
        "1"
      ],
      [
        "Ġf",
        "ound"
      ],
      [
        "Ġ-",
        "-"
      ],
      [
        "ar",
        "ge"
      ],
      [
        "Ġs",
        "erv"
      ],
      [
        "Ġmed",
        "ical"
      ],
      [
        "Ġwh",
        "ile"
      ],
      [
        "a",
        "ir"
      ],
      [
        "as",
        "ing"
      ],
      [
        "ing",
        "s"
      ],
      [
        "he",
        "l"
      ],
      [
        "ist",
        "s"
      ],
      [
        "Ġcomp",
        "lic"
      ],
      [
        "Ġpop",
        "ulation"
      ],
      [
        "Ġsin",
        "ce"
      ],
      [
        "Ġre",
        "v"
      ],
      [
        "Ġst",
        "and"
      ],
      [
        "Ġne",
        "uro"
      ],
      [
        "Ġsynd",
        "rome"
      ],
      [
        "le",
        "t"
      ],
      [
        "Ġqu",
        "ot"
      ],
      [
        "it",
        "ive"
      ],
      [
        "Ġe",
        "l"
      ],
      [
        "Ġm",
        "or"
      ],
      [
        "r",
        "ation"
      ],
      [
        "Ġin",
        "j"
      ],
      [
        "Ġrel",
        "ated"
      ],
      [
        "it",
        "er"
      ],
      [
        "p",
        "ect"
      ],
      [
        "Ġinv",
        "est"
      ],
      [
        "c",
        "in"
      ],
      [
        "Ġsignific",
        "ant"
      ],
      [
        "Ġ",
        "ir"
      ],
      [
        "Ġa",
        "v"
      ],
      [
        "Ġint",
        "ra"
      ],
      [
        "Ġus",
        "ing"
      ],
      [
        "ul",
        "l"
      ],
      [
        "Ġprev",
        "al"
      ],
      [
        "Ġin",
        "st"
      ],
      [
        "Ġdat",
        "a"
      ],
      [
        "Ġ",
        "ident"
      ],
      [
        "Ġl",
        "oss"
      ],
      [
        "Ġpro",
        "f"
      ],
      [
        "an",
        "y"
      ],
      [
        "Ġmon",
        "th"
      ],
      [
        "Ġo",
        "il"
      ],
      [
        "Ġear",
        "ly"
      ],
      [
        "Ġw",
        "ar"
      ],
      [
        "ent",
        "al"
      ],
      [
        "Ġat",
        "hens"
      ],
      [
        "Ġj",
        "o"
      ],
      [
        "Ġre",
        "qu"
      ],
      [
        "i",
        "red"
      ],
      [
        "Ġh",
        "and"
      ],
      [
        "Ġex",
        "per"
      ],
      [
        "Ġinfect",
        "ion"
      ],
      [
        "Ġrese",
        "arch"
      ],
      [
        "et",
        "s"
      ],
      [
        "t",
        "y"
      ],
      [
        "Ġn",
        "ow"
      ],
      [
        "o",
        "x"
      ],
      [
        "Ġs",
        "k"
      ],
      [
        "Ġthe",
        "rapy"
      ],
      [
        "Ġam",
        "eric"
      ],
      [
        "ie",
        "w"
      ],
      [
        "c",
        "es"
      ],
      [
        "x",
        "im"
      ],
      [
        "v",
        "ing"
      ],
      [
        "v",
        "ir"
      ],
      [
        "ial",
        "ly"
      ],
      [
        "Ġbe",
        "ing"
      ],
      [
        "r",
        "ies"
      ],
      [
        "du",
        "ction"
      ],
      [
        "Ġsurg",
        "ery"
      ],
      [
        "Ġinter",
        "n"
      ],
      [
        "Ġth",
        "ou"
      ],
      [
        "Ġco",
        "uld"
      ],
      [
        "w",
        "ay"
      ],
      [
        "Ġl",
        "et"
      ],
      [
        "Ġm",
        "em"
      ],
      [
        "Ġtiss",
        "ue"
      ],
      [
        "Ġg",
        "reat"
      ],
      [
        "Ġg",
        "u"
      ],
      [
        "is",
        "hed"
      ],
      [
        "Ġhist",
        "ory"
      ],
      [
        "ol",
        "ic"
      ],
      [
        "Ġacc",
        "ord"
      ],
      [
        "ial",
        "s"
      ],
      [
        "Ġan",
        "g"
      ],
      [
        "Ġg",
        "ood"
      ],
      [
        "Ġhe",
        "ad"
      ],
      [
        "Ġinc",
        "idence"
      ],
      [
        "Ġdiagn",
        "osis"
      ],
      [
        "Ġun",
        "ited"
      ],
      [
        "Ġolymp",
        "ic"
      ],
      [
        "Ġmort",
        "ality"
      ],
      [
        "Ġtum",
        "or"
      ],
      [
        "Ġwhe",
        "re"
      ],
      [
        "ur",
        "y"
      ],
      [
        "un",
        "g"
      ],
      [
        "Ġpro",
        "ble"
      ],
      [
        "Ġp",
        "ric"
      ],
      [
        "il",
        "it"
      ],
      [
        "Ġbe",
        "l"
      ],
      [
        "Ġin",
        "it"
      ],
      [
        "el",
        "f"
      ],
      [
        "Ġwor",
        "k"
      ],
      [
        "al",
        "e"
      ],
      [
        "ect",
        "ion"
      ],
      [
        "Ġc",
        "hem"
      ],
      [
        "l",
        "ed"
      ],
      [
        "Ġhe",
        "re"
      ],
      [
        "Ġcharacter",
        "ized"
      ],
      [
        "pt",
        "ion"
      ],
      [
        "Ġac",
        "ute"
      ],
      [
        "Ġcl",
        "ass"
      ],
      [
        "Ġchild",
        "ren"
      ],
      [
        "d",
        "s"
      ],
      [
        "n",
        "s"
      ],
      [
        "Ġle",
        "ft"
      ],
      [
        "Ġp",
        "a"
      ],
      [
        "Ġprote",
        "in"
      ],
      [
        "Ġl",
        "arge"
      ],
      [
        "Ġb",
        "ro"
      ],
      [
        "Ġr",
        "ate"
      ],
      [
        "Ġm",
        "at"
      ],
      [
        "Ġf",
        "our"
      ],
      [
        "Ġ1",
        "5"
      ],
      [
        "b",
        "r"
      ],
      [
        "ab",
        "ility"
      ],
      [
        "Ġof",
        "ten"
      ],
      [
        "Ġr",
        "ight"
      ],
      [
        "Ġad",
        "m"
      ],
      [
        "Ġst",
        "ruct"
      ],
      [
        "iz",
        "e"
      ],
      [
        "Ġp",
        "ers"
      ],
      [
        "Ġan",
        "y"
      ],
      [
        "Ġpro",
        "t"
      ],
      [
        "Ġsymptom",
        "s"
      ],
      [
        "c",
        "ul"
      ],
      [
        "Ġm",
        "ass"
      ],
      [
        "e",
        "f"
      ],
      [
        "el",
        "s"
      ],
      [
        "et",
        "y"
      ],
      [
        "Ġst",
        "r"
      ],
      [
        "Ġb",
        "ack"
      ],
      [
        "Ġprim",
        "ary"
      ],
      [
        "id",
        "es"
      ],
      [
        "ch",
        "an"
      ],
      [
        "Ġvar",
        "ious"
      ],
      [
        "Ġrem",
        "ain"
      ],
      [
        "Ġb",
        "en"
      ],
      [
        "Ġt",
        "erm"
      ],
      [
        "Ġf",
        "ail"
      ],
      [
        "Ġf",
        "am"
      ],
      [
        "Ġl",
        "es"
      ],
      [
        "Ġfat",
        "her"
      ],
      [
        "ens",
        "ion"
      ],
      [
        "Ġs",
        "im"
      ],
      [
        "Ġof",
        "f"
      ],
      [
        "Ġbe",
        "fore"
      ],
      [
        "Ġhe",
        "l"
      ],
      [
        "Ġse",
        "e"
      ],
      [
        "Ġaccord",
        "ing"
      ],
      [
        "Ġ",
        "ed"
      ],
      [
        "Ġe",
        "y"
      ],
      [
        "og",
        "n"
      ],
      [
        "Ġmeth",
        "od"
      ],
      [
        "Ġh",
        "ig"
      ],
      [
        "Ġind",
        "ivid"
      ],
      [
        "Ġincre",
        "asing"
      ],
      [
        "Ġty",
        "p"
      ],
      [
        "i",
        "ation"
      ],
      [
        "Ġb",
        "ody"
      ],
      [
        "Ġwith",
        "in"
      ],
      [
        "Ġe",
        "c"
      ],
      [
        "is",
        "ter"
      ],
      [
        "ro",
        "p"
      ],
      [
        "Ġsm",
        "all"
      ],
      [
        "Ġcontro",
        "l"
      ],
      [
        "Ġb",
        "an"
      ],
      [
        "Ġsh",
        "ould"
      ],
      [
        "Ġpl",
        "ay"
      ],
      [
        "Ġ",
        "0"
      ],
      [
        "Ġan",
        "n"
      ],
      [
        "us",
        "s"
      ],
      [
        "Ġad",
        "ult"
      ],
      [
        "Ġmed",
        "ic"
      ],
      [
        "Ġindivid",
        "ual"
      ],
      [
        "Ġ",
        "z"
      ],
      [
        "ve",
        "re"
      ],
      [
        "Ġprev",
        "ious"
      ],
      [
        "s",
        "y"
      ],
      [
        "Ġlead",
        "ing"
      ],
      [
        "iv",
        "al"
      ],
      [
        "Ġagain",
        "st"
      ],
      [
        "Ġm",
        "ot"
      ],
      [
        "Ġe",
        "lect"
      ],
      [
        "t",
        "on"
      ],
      [
        "Ġt",
        "arg"
      ],
      [
        "ys",
        "is"
      ],
      [
        "l",
        "ine"
      ],
      [
        "Ġd",
        "ys"
      ],
      [
        "v",
        "ascular"
      ],
      [
        "Ġhy",
        "p"
      ],
      [
        "Ġ",
        "er"
      ],
      [
        "Ġme",
        "chan"
      ],
      [
        "Ġest",
        "im"
      ],
      [
        "Ġne",
        "ed"
      ],
      [
        "Ġ19",
        "9"
      ],
      [
        "Ġpot",
        "ential"
      ],
      [
        "Ġcon",
        "f"
      ],
      [
        "Ġgrow",
        "th"
      ],
      [
        "Ġper",
        "i"
      ],
      [
        "Ġresult",
        "s"
      ],
      [
        "h",
        "ing"
      ],
      [
        "Ġw",
        "ide"
      ],
      [
        "Ġm",
        "ake"
      ],
      [
        "Ġso",
        "ft"
      ],
      [
        "Ġre",
        "st"
      ],
      [
        "ic",
        "es"
      ],
      [
        "Ġst",
        "ates"
      ],
      [
        "Ġb",
        "us"
      ],
      [
        "in",
        "k"
      ],
      [
        "ag",
        "ing"
      ],
      [
        "ver",
        "n"
      ],
      [
        "Ġb",
        "one"
      ],
      [
        "ter",
        "s"
      ],
      [
        "ra",
        "m"
      ],
      [
        "Ġc",
        "all"
      ],
      [
        "Ġde",
        "v"
      ],
      [
        "Ġp",
        "ress"
      ],
      [
        "it",
        "es"
      ],
      [
        "Ġre",
        "le"
      ],
      [
        "t",
        "ing"
      ],
      [
        "Ġpreval",
        "ence"
      ],
      [
        "v",
        "es"
      ],
      [
        "en",
        "ing"
      ],
      [
        "Ġp",
        "red"
      ],
      [
        "t",
        "s"
      ],
      [
        "n",
        "es"
      ],
      [
        "Ġb",
        "as"
      ],
      [
        "Ġcount",
        "ries"
      ],
      [
        "Ġof",
        "fic"
      ],
      [
        "Ġar",
        "ter"
      ],
      [
        "g",
        "es"
      ],
      [
        "Ġse",
        "vere"
      ],
      [
        "a",
        "red"
      ],
      [
        "Ġc",
        "at"
      ],
      [
        "Ġch",
        "ang"
      ],
      [
        "Ġl",
        "ym"
      ],
      [
        "Ġex",
        "am"
      ],
      [
        "Ġk",
        "ill"
      ],
      [
        "ag",
        "es"
      ],
      [
        "Ġg",
        "r"
      ],
      [
        "ro",
        "ph"
      ],
      [
        "Ġspec",
        "ific"
      ],
      [
        "Ġ1",
        "2"
      ],
      [
        "Ġs",
        "ir"
      ],
      [
        "Ġlow",
        "er"
      ],
      [
        "Ġc",
        "he"
      ],
      [
        "Ġc",
        "ost"
      ],
      [
        "Ġro",
        "le"
      ],
      [
        "Ġk",
        "e"
      ],
      [
        "Ġdescrib",
        "ed"
      ],
      [
        "i",
        "el"
      ],
      [
        "Ġs",
        "un"
      ],
      [
        "Ġf",
        "ig"
      ],
      [
        "Ġincre",
        "ase"
      ],
      [
        "Ġ",
        "x"
      ],
      [
        "Ġ",
        "ur"
      ],
      [
        "iv",
        "es"
      ],
      [
        "ip",
        "le"
      ],
      [
        "Ġs",
        "al"
      ],
      [
        "Ġc",
        "al"
      ],
      [
        "it",
        "ions"
      ],
      [
        "Ġcom",
        "m"
      ],
      [
        "Ġman",
        "age"
      ],
      [
        "id",
        "ay"
      ],
      [
        "st",
        "r"
      ],
      [
        "Ġwe",
        "ek"
      ],
      [
        "Ġsh",
        "all"
      ],
      [
        "p",
        "at"
      ],
      [
        "Ġc",
        "our"
      ],
      [
        "or",
        "der"
      ],
      [
        "iss",
        "ion"
      ],
      [
        "Ġgener",
        "al"
      ],
      [
        "Ġb",
        "u"
      ],
      [
        "Ġde",
        "m"
      ],
      [
        "Ġmon",
        "day"
      ],
      [
        "Ġinf",
        "orm"
      ],
      [
        "ron",
        "g"
      ],
      [
        "e",
        "x"
      ],
      [
        "Ġf",
        "em"
      ],
      [
        "Ġpro",
        "m"
      ],
      [
        "ren",
        "ce"
      ],
      [
        "Ġsurg",
        "ical"
      ],
      [
        "duc",
        "ed"
      ],
      [
        "Ġd",
        "own"
      ],
      [
        "Ġe",
        "le"
      ],
      [
        "Ġgo",
        "vern"
      ],
      [
        "ograph",
        "y"
      ],
      [
        "Ġlym",
        "ph"
      ],
      [
        "Ġt",
        "er"
      ],
      [
        "d",
        "om"
      ],
      [
        "Ġw",
        "in"
      ],
      [
        "Ġth",
        "urs"
      ],
      [
        "Ġthurs",
        "day"
      ],
      [
        "Ġthe",
        "m"
      ],
      [
        "Ġg",
        "ast"
      ],
      [
        "Ġhe",
        "art"
      ],
      [
        "Ġpub",
        "lic"
      ],
      [
        "Ġ",
        "ve"
      ],
      [
        "Ġcomp",
        "any"
      ],
      [
        "us",
        "ion"
      ],
      [
        "ane",
        "ous"
      ],
      [
        "ir",
        "d"
      ],
      [
        "Ġv",
        "al"
      ],
      [
        "n",
        "er"
      ],
      [
        "Ġs",
        "ol"
      ],
      [
        "Ġl",
        "ab"
      ],
      [
        "m",
        "ed"
      ],
      [
        "Ġc",
        "le"
      ],
      [
        "Ġad",
        "dition"
      ],
      [
        "Ġn",
        "et"
      ],
      [
        "Ġ1",
        "3"
      ],
      [
        "ress",
        "ive"
      ],
      [
        "Ġmo",
        "le"
      ],
      [
        "Ġcur",
        "rent"
      ],
      [
        "er",
        "ative"
      ],
      [
        "l",
        "and"
      ],
      [
        "Ġwith",
        "out"
      ],
      [
        "Ġne",
        "ar"
      ],
      [
        "Ġy",
        "our"
      ],
      [
        "Ġtum",
        "ors"
      ],
      [
        "Ġo",
        "per"
      ],
      [
        "ord",
        "ers"
      ],
      [
        "Ġb",
        "ur"
      ],
      [
        "Ġmet",
        "ab"
      ],
      [
        "Ġproc",
        "ed"
      ],
      [
        "vir",
        "on"
      ],
      [
        "i",
        "us"
      ],
      [
        "Ġbra",
        "in"
      ],
      [
        "w",
        "ide"
      ],
      [
        "Ġreg",
        "ion"
      ],
      [
        "Ġfre",
        "quent"
      ],
      [
        "op",
        "ath"
      ],
      [
        "..",
        "."
      ],
      [
        "Ġmanage",
        "ment"
      ],
      [
        "Ġsu",
        "g"
      ],
      [
        "Ġtechn",
        "iqu"
      ],
      [
        "Ġa",
        "ug"
      ],
      [
        "Ġf",
        "ib"
      ],
      [
        "Ġfr",
        "iday"
      ],
      [
        "Ġf",
        "ind"
      ],
      [
        "Ġre",
        "f"
      ],
      [
        "Ġpl",
        "an"
      ],
      [
        "Ġcont",
        "in"
      ],
      [
        "b",
        "s"
      ],
      [
        "is",
        "ion"
      ],
      [
        "Ġd",
        "ay"
      ],
      [
        "v",
        "en"
      ],
      [
        "Ġb",
        "ar"
      ],
      [
        "Ġus",
        "ually"
      ],
      [
        "ar",
        "m"
      ],
      [
        "uc",
        "le"
      ],
      [
        "Ġinclud",
        "e"
      ],
      [
        "b",
        "id"
      ],
      [
        "Ġt",
        "ues"
      ],
      [
        "Ġm",
        "ak"
      ],
      [
        "Ġmal",
        "ign"
      ],
      [
        "Ġtues",
        "day"
      ],
      [
        "ve",
        "ment"
      ],
      [
        "Ġperi",
        "od"
      ],
      [
        "Ġo",
        "pt"
      ],
      [
        "re",
        "t"
      ],
      [
        "ow",
        "s"
      ],
      [
        "m",
        "an"
      ],
      [
        "Ġt",
        "re"
      ],
      [
        "Ġeffect",
        "s"
      ],
      [
        "Ġf",
        "ire"
      ],
      [
        "Ġli",
        "ver"
      ],
      [
        "Ġm",
        "ater"
      ],
      [
        "om",
        "ic"
      ],
      [
        "Ġen",
        "viron"
      ],
      [
        "Ġcom",
        "e"
      ],
      [
        "Ġy",
        "ork"
      ],
      [
        "Ġn",
        "a"
      ],
      [
        "Ġbre",
        "ast"
      ],
      [
        "ide",
        "red"
      ],
      [
        "Ġhel",
        "p"
      ],
      [
        "Ġhig",
        "her"
      ],
      [
        "os",
        "cop"
      ],
      [
        "Ġev",
        "en"
      ],
      [
        "Ġcons",
        "idered"
      ],
      [
        "Ġ",
        "very"
      ],
      [
        "ro",
        "und"
      ],
      [
        "Ġtarg",
        "et"
      ],
      [
        "or",
        "n"
      ],
      [
        "Ġw",
        "ed"
      ],
      [
        "ens",
        "ive"
      ],
      [
        "ific",
        "ation"
      ],
      [
        "Ġo",
        "x"
      ],
      [
        "Ġst",
        "ill"
      ],
      [
        "Ġdis",
        "order"
      ],
      [
        "Ġkn",
        "ow"
      ],
      [
        "Ġpresent",
        "ed"
      ],
      [
        "Ġcaus",
        "ed"
      ],
      [
        "end",
        "s"
      ],
      [
        "as",
        "m"
      ],
      [
        "Ġn",
        "ational"
      ],
      [
        "Ġdis",
        "orders"
      ],
      [
        "Ġinflamm",
        "atory"
      ],
      [
        "Ġl",
        "ess"
      ],
      [
        "Ġsh",
        "own"
      ],
      [
        "Ġappro",
        "xim"
      ],
      [
        "Ġsug",
        "gest"
      ],
      [
        "Ġs",
        "ing"
      ],
      [
        "ul",
        "in"
      ],
      [
        "Ġcon",
        "d"
      ],
      [
        "Ġdevelop",
        "ed"
      ],
      [
        "a",
        "ve"
      ],
      [
        "h",
        "ib"
      ],
      [
        "t",
        "al"
      ],
      [
        "Ġdes",
        "p"
      ],
      [
        "Ġcar",
        "cin"
      ],
      [
        "Ġf",
        "ac"
      ],
      [
        "is",
        "ms"
      ],
      [
        "iv",
        "ed"
      ],
      [
        "c",
        "ess"
      ],
      [
        "Ġst",
        "ate"
      ],
      [
        "Ġsu",
        "cc"
      ],
      [
        "Ġob",
        "es"
      ],
      [
        "Ġt",
        "it"
      ],
      [
        "Ġp",
        "ul"
      ],
      [
        "Ġso",
        "ut"
      ],
      [
        "on",
        "es"
      ],
      [
        "Ġ",
        "rome"
      ],
      [
        "Ġn",
        "ormal"
      ],
      [
        "Ġp",
        "oss"
      ],
      [
        "ter",
        "ior"
      ],
      [
        "Ġthere",
        "fore"
      ],
      [
        "pl",
        "ant"
      ],
      [
        "Ġmult",
        "iple"
      ],
      [
        "nes",
        "day"
      ],
      [
        "Ġwed",
        "nesday"
      ],
      [
        "Ġd",
        "ire"
      ],
      [
        "as",
        "ter"
      ],
      [
        "Ġfollow",
        "ing"
      ],
      [
        "Ġ5",
        "0"
      ],
      [
        "o",
        "f"
      ],
      [
        "Ġp",
        "ol"
      ],
      [
        "et",
        "h"
      ],
      [
        "Ġ1",
        "8"
      ],
      [
        "Ġs",
        "ens"
      ],
      [
        "Ġ3",
        "0"
      ],
      [
        "pe",
        "c"
      ],
      [
        "Ġl",
        "ip"
      ],
      [
        "oc",
        "ks"
      ],
      [
        "Ġth",
        "ose"
      ],
      [
        "Ġme",
        "as"
      ],
      [
        "a",
        "x"
      ],
      [
        "Ġcent",
        "ral"
      ],
      [
        "Ġre",
        "nal"
      ],
      [
        "op",
        "l"
      ],
      [
        "ect",
        "ed"
      ],
      [
        "Ġdis",
        "c"
      ],
      [
        "Ġfe",
        "w"
      ],
      [
        "Ġworld",
        "wide"
      ],
      [
        "Ġm",
        "ade"
      ],
      [
        "Ġvir",
        "us"
      ],
      [
        "Ġmonth",
        "s"
      ],
      [
        "Ġapproxim",
        "ately"
      ],
      [
        "ar",
        "c"
      ],
      [
        "Ġsucc",
        "ess"
      ],
      [
        "ot",
        "ic"
      ],
      [
        "al",
        "u"
      ],
      [
        "Ġfact",
        "or"
      ],
      [
        "Ġm",
        "ut"
      ],
      [
        "Ġres",
        "ist"
      ],
      [
        "Ġt",
        "ake"
      ],
      [
        "Ġcomp",
        "ut"
      ],
      [
        "w",
        "ard"
      ],
      [
        "Ġs",
        "us"
      ],
      [
        "Ġde",
        "l"
      ],
      [
        "Ġpartic",
        "ular"
      ],
      [
        "Ġbe",
        "h"
      ],
      [
        "Ġchang",
        "es"
      ],
      [
        "Ġper",
        "cent"
      ],
      [
        "Ġp",
        "ast"
      ],
      [
        "id",
        "er"
      ],
      [
        "Ġpro",
        "duct"
      ],
      [
        "Ġinvest",
        "ig"
      ],
      [
        "en",
        "g"
      ],
      [
        "Ġfl",
        "u"
      ],
      [
        "t",
        "is"
      ],
      [
        "Ġent",
        "er"
      ],
      [
        "p",
        "ar"
      ],
      [
        "Ġthe",
        "n"
      ],
      [
        "Ġob",
        "s"
      ],
      [
        "Ġpric",
        "es"
      ],
      [
        "i",
        "at"
      ],
      [
        "ad",
        "es"
      ],
      [
        "Ġcomple",
        "x"
      ],
      [
        "Ġcom",
        "mun"
      ],
      [
        "Ġsur",
        "v"
      ],
      [
        "Ġe",
        "uro"
      ],
      [
        "ot",
        "he"
      ],
      [
        "Ġev",
        "alu"
      ],
      [
        "Ġvar",
        "i"
      ],
      [
        "Ġshow",
        "ed"
      ],
      [
        "Ġf",
        "inal"
      ],
      [
        "anc",
        "y"
      ],
      [
        "Ġte",
        "am"
      ],
      [
        "Ġloc",
        "al"
      ],
      [
        "as",
        "on"
      ],
      [
        "Ġenviron",
        "ment"
      ],
      [
        "l",
        "ished"
      ],
      [
        "Ġh",
        "ome"
      ],
      [
        "iv",
        "ing"
      ],
      [
        "Ġthe",
        "e"
      ],
      [
        "Ġd",
        "am"
      ],
      [
        "Ġl",
        "ung"
      ],
      [
        "Ġre",
        "ve"
      ],
      [
        "Ġre",
        "act"
      ],
      [
        "id",
        "s"
      ],
      [
        "Ġpro",
        "per"
      ],
      [
        "Ġle",
        "ast"
      ],
      [
        "Ġm",
        "ilit"
      ],
      [
        "ort",
        "h"
      ],
      [
        "Ġcomplic",
        "ations"
      ],
      [
        "is",
        "ed"
      ],
      [
        "ce",
        "ll"
      ],
      [
        "Ġgl",
        "ob"
      ],
      [
        "am",
        "es"
      ],
      [
        "Ġab",
        "dom"
      ],
      [
        "Ġcor",
        "p"
      ],
      [
        "ver",
        "se"
      ],
      [
        "Ġ1",
        "00"
      ],
      [
        "on",
        "se"
      ],
      [
        "as",
        "is"
      ],
      [
        "Ġc",
        "ut"
      ],
      [
        "Ġactiv",
        "ity"
      ],
      [
        "u",
        "k"
      ],
      [
        "v",
        "ention"
      ],
      [
        "iel",
        "d"
      ],
      [
        "Ġe",
        "ver"
      ],
      [
        "Ġex",
        "pl"
      ],
      [
        "Ġop",
        "en"
      ],
      [
        "Ġgovern",
        "ment"
      ],
      [
        "Ġmet",
        "ast"
      ],
      [
        "Ġresp",
        "onse"
      ],
      [
        "em",
        "ia"
      ],
      [
        "Ġdec",
        "re"
      ],
      [
        "Ġinj",
        "ury"
      ],
      [
        "Ġs",
        "ay"
      ],
      [
        "Ġsp",
        "e"
      ],
      [
        "Ġresp",
        "ons"
      ],
      [
        "Ġdesp",
        "ite"
      ],
      [
        "Ġcaus",
        "es"
      ],
      [
        "Ġrev",
        "iew"
      ],
      [
        "Ġinform",
        "ation"
      ],
      [
        "re",
        "l"
      ],
      [
        "Ġf",
        "ur"
      ],
      [
        "Ġphys",
        "ical"
      ],
      [
        "Ġperform",
        "ed"
      ],
      [
        "re",
        "m"
      ],
      [
        "Ġs",
        "ch"
      ],
      [
        "Ġrec",
        "ord"
      ],
      [
        "and",
        "s"
      ],
      [
        "h",
        "ip"
      ],
      [
        "l",
        "er"
      ],
      [
        "ap",
        "an"
      ],
      [
        "Ġcommon",
        "ly"
      ],
      [
        "Ġan",
        "im"
      ],
      [
        "i",
        "vers"
      ],
      [
        "Ġe",
        "ach"
      ],
      [
        "Ġmus",
        "cle"
      ],
      [
        "Ġstand",
        "ard"
      ],
      [
        "Ġfail",
        "ure"
      ],
      [
        "Ġcond",
        "itions"
      ],
      [
        "er",
        "c"
      ],
      [
        "Ġj",
        "ust"
      ],
      [
        "Ġacc",
        "ount"
      ],
      [
        "Ġlevel",
        "s"
      ],
      [
        "Ġem",
        "erg"
      ],
      [
        "Ġre",
        "ce"
      ],
      [
        "ear",
        "s"
      ],
      [
        "Ġc",
        "yt"
      ],
      [
        "Ġf",
        "ood"
      ],
      [
        "st",
        "e"
      ],
      [
        "Ġf",
        "ace"
      ],
      [
        "Ġst",
        "ra"
      ],
      [
        "om",
        "et"
      ],
      [
        "l",
        "ing"
      ],
      [
        "Ġh",
        "al"
      ],
      [
        "Ġeffect",
        "ive"
      ],
      [
        "Ġwe",
        "ight"
      ],
      [
        "Ġev",
        "idence"
      ],
      [
        "Ġcard",
        "io"
      ],
      [
        "Ġsk",
        "in"
      ],
      [
        "Ġec",
        "on"
      ],
      [
        "Ġdiagn",
        "osed"
      ],
      [
        "o",
        "v"
      ],
      [
        "Ġp",
        "ow"
      ],
      [
        "Ġm",
        "id"
      ],
      [
        "Ġbe",
        "g"
      ],
      [
        "Ġ1",
        "1"
      ],
      [
        "Ġgen",
        "e"
      ],
      [
        "Ġf",
        "o"
      ],
      [
        "Ġra",
        "p"
      ],
      [
        "al",
        "ed"
      ],
      [
        "Ġsupp",
        "ort"
      ],
      [
        "Ġ1",
        "4"
      ],
      [
        "Ġqu",
        "ality"
      ],
      [
        "Ġhyper",
        "t"
      ],
      [
        "Ġdef",
        "ined"
      ],
      [
        "Ġcom",
        "b"
      ],
      [
        "Ġt",
        "al"
      ],
      [
        "c",
        "ed"
      ],
      [
        "Ġp",
        "c"
      ],
      [
        "Ġd",
        "om"
      ],
      [
        "Ġth",
        "ough"
      ],
      [
        "l",
        "ess"
      ],
      [
        "Ġto",
        "p"
      ],
      [
        "Ġen",
        "g"
      ],
      [
        "Ġab",
        "s"
      ],
      [
        "Ġadv",
        "anc"
      ],
      [
        "Ġfur",
        "ther"
      ],
      [
        "re",
        "ad"
      ],
      [
        "Ġre",
        "cept"
      ],
      [
        "iv",
        "en"
      ],
      [
        "Ġpres",
        "ident"
      ],
      [
        "Ġwom",
        "an"
      ],
      [
        "Ġp",
        "ract"
      ],
      [
        "ot",
        "e"
      ],
      [
        "Ġ2",
        "5"
      ],
      [
        "Ġj",
        "apan"
      ],
      [
        "Ġav",
        "ail"
      ],
      [
        "s",
        "et"
      ],
      [
        "at",
        "or"
      ],
      [
        "oc",
        "yt"
      ],
      [
        "Ġqu",
        "ar"
      ],
      [
        "Ġdet",
        "erm"
      ],
      [
        "Ġch",
        "ina"
      ],
      [
        "Ġth",
        "ird"
      ],
      [
        "Ġg",
        "ive"
      ],
      [
        "Ġde",
        "mon"
      ],
      [
        "Ġsystem",
        "s"
      ],
      [
        "Ġb",
        "acter"
      ],
      [
        "Ġf",
        "in"
      ],
      [
        "Ġt",
        "ak"
      ],
      [
        "er",
        "t"
      ],
      [
        "ure",
        "d"
      ],
      [
        "Ġem",
        "b"
      ],
      [
        "Ġrecent",
        "ly"
      ],
      [
        "Ġmor",
        "bid"
      ],
      [
        "Ġf",
        "all"
      ],
      [
        "Ġl",
        "iter"
      ],
      [
        "ne",
        "y"
      ],
      [
        "ar",
        "ing"
      ],
      [
        "ater",
        "al"
      ],
      [
        "Ġestim",
        "ated"
      ],
      [
        "Ġn",
        "ucle"
      ],
      [
        "Ġst",
        "ocks"
      ],
      [
        "i",
        "ological"
      ],
      [
        "Ġm",
        "m"
      ],
      [
        "Ġst",
        "art"
      ],
      [
        "Ġr",
        "ange"
      ],
      [
        "Ġpo",
        "or"
      ],
      [
        "Ġameric",
        "an"
      ],
      [
        "Ġpress",
        "ure"
      ],
      [
        "x",
        "t"
      ],
      [
        "on",
        "al"
      ],
      [
        "un",
        "ction"
      ],
      [
        "Ġim",
        "aging"
      ],
      [
        "Ġdire",
        "ct"
      ],
      [
        "r",
        "h"
      ],
      [
        "Ġto",
        "tal"
      ],
      [
        "Ġmed",
        "al"
      ],
      [
        "Ġcons",
        "um"
      ],
      [
        "Ġeuro",
        "pe"
      ],
      [
        "Ġf",
        "ore"
      ],
      [
        "rib",
        "ut"
      ],
      [
        "if",
        "y"
      ],
      [
        "ru",
        "ction"
      ],
      [
        "Ġcon",
        "st"
      ],
      [
        "Ġt",
        "urn"
      ],
      [
        "Ġm",
        "ac"
      ],
      [
        "Ġinfect",
        "ions"
      ],
      [
        "Ġles",
        "ions"
      ],
      [
        "es",
        "is"
      ],
      [
        "ere",
        "st"
      ],
      [
        "Ġk",
        "id"
      ],
      [
        "Ġ",
        "ut"
      ],
      [
        "ia",
        "c"
      ],
      [
        "Ġor",
        "al"
      ],
      [
        "ro",
        "id"
      ],
      [
        "ot",
        "her"
      ],
      [
        "Ġr",
        "un"
      ],
      [
        "Ġcardio",
        "vascular"
      ],
      [
        "Ġa",
        "ust"
      ],
      [
        "Ġun",
        "t"
      ],
      [
        "ros",
        "s"
      ],
      [
        "so",
        "ft"
      ],
      [
        "ar",
        "k"
      ],
      [
        "Ġcr",
        "it"
      ],
      [
        "Ġst",
        "at"
      ],
      [
        "Ġdrug",
        "s"
      ],
      [
        "ar",
        "s"
      ],
      [
        "Ġ.",
        ".."
      ],
      [
        "Ġban",
        "k"
      ],
      [
        "sy",
        "ch"
      ],
      [
        "i",
        "ence"
      ],
      [
        "end",
        "ing"
      ],
      [
        "Ġinfl",
        "u"
      ],
      [
        "Ġey",
        "e"
      ],
      [
        "o",
        "y"
      ],
      [
        "Ġc",
        "ir"
      ],
      [
        "Ġsun",
        "day"
      ],
      [
        "Ġobs",
        "erv"
      ],
      [
        "it",
        "her"
      ],
      [
        "Ġreport",
        "s"
      ],
      [
        "Ġmal",
        "e"
      ],
      [
        "Ġadult",
        "s"
      ],
      [
        "Ġpro",
        "st"
      ],
      [
        "Ġy",
        "ester"
      ],
      [
        "Ġdif",
        "fic"
      ],
      [
        "Ġs",
        "oc"
      ],
      [
        "Ġl",
        "a"
      ],
      [
        "Ġant",
        "i"
      ],
      [
        "Ġdemon",
        "str"
      ],
      [
        "Ġyester",
        "day"
      ],
      [
        "Ġf",
        "ree"
      ],
      [
        "i",
        "ans"
      ],
      [
        "Ġd",
        "ays"
      ],
      [
        "Ġind",
        "ic"
      ],
      [
        "r",
        "ing"
      ],
      [
        "Ġw",
        "ater"
      ],
      [
        "om",
        "as"
      ],
      [
        "Ġca",
        "p"
      ],
      [
        "Ġes",
        "pec"
      ],
      [
        "Ġspec",
        "ies"
      ],
      [
        "Ġins",
        "ulin"
      ],
      [
        "Ġor",
        "ig"
      ],
      [
        "Ġobes",
        "ity"
      ],
      [
        "w",
        "are"
      ],
      [
        "Ġkn",
        "ock"
      ],
      [
        "Ġprote",
        "ins"
      ],
      [
        "Ġespec",
        "ially"
      ],
      [
        "er",
        "ation"
      ],
      [
        "Ġn",
        "ight"
      ],
      [
        "Ġse",
        "qu"
      ],
      [
        "Ġint",
        "erest"
      ],
      [
        "f",
        "ort"
      ],
      [
        "Ġo",
        "w"
      ],
      [
        "Ġreg",
        "ul"
      ],
      [
        "Ġapp",
        "lic"
      ],
      [
        "Ġmicro",
        "soft"
      ],
      [
        "Ġlab",
        "or"
      ],
      [
        "it",
        "ing"
      ],
      [
        "olog",
        "ic"
      ],
      [
        "Ġfam",
        "ily"
      ],
      [
        "Ġdiffic",
        "ult"
      ],
      [
        "Ġv",
        "en"
      ],
      [
        "Ġass",
        "ess"
      ],
      [
        "Ġsec",
        "ur"
      ],
      [
        "at",
        "ures"
      ],
      [
        "Ġde",
        "ad"
      ],
      [
        "Ġpro",
        "p"
      ],
      [
        "Ġgo",
        "og"
      ],
      [
        "Ġrep",
        "res"
      ],
      [
        "a",
        "z"
      ],
      [
        "er",
        "al"
      ],
      [
        "Ġt",
        "em"
      ],
      [
        "Ġcon",
        "dition"
      ],
      [
        "Ġmark",
        "et"
      ],
      [
        "Ġna",
        "j"
      ],
      [
        "u",
        "ch"
      ],
      [
        "Ġs",
        "our"
      ],
      [
        "Ġcon",
        "cer"
      ],
      [
        "g",
        "ed"
      ],
      [
        "Ġexam",
        "ination"
      ],
      [
        "othe",
        "rapy"
      ],
      [
        "fic",
        "i"
      ],
      [
        "enc",
        "es"
      ],
      [
        "Ġto",
        "day"
      ],
      [
        "Ġg",
        "i"
      ],
      [
        "Ġst",
        "ro"
      ],
      [
        "Ġch",
        "all"
      ],
      [
        "Ġunder",
        "st"
      ],
      [
        "Ġext",
        "ra"
      ],
      [
        "i",
        "ology"
      ],
      [
        "iv",
        "ity"
      ],
      [
        "Ġbec",
        "ome"
      ],
      [
        "Ġcy",
        "st"
      ],
      [
        "im",
        "es"
      ],
      [
        "est",
        "inal"
      ],
      [
        "Ġgen",
        "etic"
      ],
      [
        "Ġ",
        "ver"
      ],
      [
        "Ġaf",
        "p"
      ],
      [
        "Ġmorbid",
        "ity"
      ],
      [
        "Ġliter",
        "ature"
      ],
      [
        "in",
        "ess"
      ],
      [
        "Ġf",
        "ri"
      ],
      [
        "n",
        "ed"
      ],
      [
        "Ġw",
        "all"
      ],
      [
        "du",
        "ce"
      ],
      [
        "Ġindividual",
        "s"
      ],
      [
        "Ġv",
        "ascular"
      ],
      [
        "Ġf",
        "ull"
      ],
      [
        "Ġh",
        "ath"
      ],
      [
        "Ġac",
        "qu"
      ],
      [
        "Ġnaj",
        "af"
      ],
      [
        "t",
        "le"
      ],
      [
        "Ġto",
        "m"
      ],
      [
        "Ġal",
        "ter"
      ],
      [
        "g",
        "o"
      ],
      [
        "mon",
        "ary"
      ],
      [
        "Ġserv",
        "ice"
      ],
      [
        "Ġocc",
        "urs"
      ],
      [
        "Ġsu",
        "per"
      ],
      [
        "Ġsh",
        "ort"
      ],
      [
        "Ġcons",
        "ider"
      ],
      [
        "Ġs",
        "ide"
      ],
      [
        "Ġv",
        "ent"
      ],
      [
        "Ġy",
        "oun"
      ],
      [
        "Ġun",
        "ivers"
      ],
      [
        "en",
        "se"
      ],
      [
        "Ġan",
        "other"
      ],
      [
        "Ġ2",
        "4"
      ],
      [
        "Ġs",
        "ays"
      ],
      [
        "Ġth",
        "us"
      ],
      [
        "Ġsh",
        "a"
      ],
      [
        "Ġsur",
        "f"
      ],
      [
        "Ġgoog",
        "le"
      ],
      [
        "c",
        "y"
      ],
      [
        "Ġp",
        "sych"
      ],
      [
        "Ġr",
        "ates"
      ],
      [
        "ast",
        "ic"
      ],
      [
        "Ġpro",
        "l"
      ],
      [
        "Ġfunction",
        "al"
      ],
      [
        "Ġh",
        "ost"
      ],
      [
        "Ġg",
        "ree"
      ],
      [
        "Ġab",
        "n"
      ],
      [
        "Ġo",
        "l"
      ],
      [
        "Ġob",
        "tain"
      ],
      [
        "Ġv",
        "ol"
      ],
      [
        "Ġabdom",
        "inal"
      ],
      [
        "ate",
        "g"
      ],
      [
        "Ġ4",
        "0"
      ],
      [
        "Ġcon",
        "se"
      ],
      [
        "Ġne",
        "g"
      ],
      [
        "Ġintern",
        "ational"
      ],
      [
        "Ġep",
        "id"
      ],
      [
        "Ġimmun",
        "e"
      ],
      [
        "Ġyoun",
        "g"
      ],
      [
        "i",
        "ated"
      ],
      [
        "Ġin",
        "hib"
      ],
      [
        "Ġe",
        "qu"
      ],
      [
        "Ġnew",
        "s"
      ],
      [
        "is",
        "ing"
      ],
      [
        "end",
        "ed"
      ],
      [
        "id",
        "ed"
      ],
      [
        "Ġrec",
        "ogn"
      ],
      [
        "c",
        "ome"
      ],
      [
        "Ġreve",
        "aled"
      ],
      [
        "a",
        "e"
      ],
      [
        "Ġs",
        "we"
      ],
      [
        "Ġf",
        "oc"
      ],
      [
        "Ġst",
        "ress"
      ],
      [
        "Ġavail",
        "able"
      ],
      [
        "Ġ",
        "ult"
      ],
      [
        "Ġr",
        "at"
      ],
      [
        "lect",
        "ed"
      ],
      [
        "Ġsurv",
        "ival"
      ],
      [
        "Ġaust",
        "ral"
      ],
      [
        "in",
        "ing"
      ],
      [
        "Ġdep",
        "art"
      ],
      [
        "hel",
        "ial"
      ],
      [
        "b",
        "all"
      ],
      [
        "Ġsub",
        "st"
      ],
      [
        "Ġsub",
        "ject"
      ],
      [
        "Ġant",
        "ib"
      ],
      [
        "er",
        "ve"
      ],
      [
        "Ġst",
        "rong"
      ],
      [
        "Ġproble",
        "ms"
      ],
      [
        "d",
        "en"
      ],
      [
        "at",
        "ors"
      ],
      [
        "Ġl",
        "itt"
      ],
      [
        "Ġsing",
        "le"
      ],
      [
        "Ġb",
        "ir"
      ],
      [
        "Ġr",
        "uss"
      ],
      [
        "Ġac",
        "id"
      ],
      [
        "ap",
        "s"
      ],
      [
        "Ġ200",
        "4"
      ],
      [
        "Ġanal",
        "ysis"
      ],
      [
        "Ġmethod",
        "s"
      ],
      [
        "ra",
        "pe"
      ],
      [
        "Ġproble",
        "m"
      ],
      [
        "Ġ",
        "ill"
      ],
      [
        "Ġst",
        "age"
      ],
      [
        "Ġup",
        "on"
      ],
      [
        "rape",
        "ut"
      ],
      [
        "e",
        "g"
      ],
      [
        "Ġd",
        "na"
      ],
      [
        "Ġest",
        "ab"
      ],
      [
        "1",
        "0"
      ],
      [
        "Ġpath",
        "ogen"
      ],
      [
        "Ġinst",
        "it"
      ],
      [
        "c",
        "ri"
      ],
      [
        "e",
        "ks"
      ],
      [
        "amp",
        "le"
      ],
      [
        "Ġnet",
        "w"
      ],
      [
        "Ġcarcin",
        "oma"
      ],
      [
        "Ġlitt",
        "le"
      ],
      [
        "Ġ",
        "ip"
      ],
      [
        "Ġf",
        "ive"
      ],
      [
        "as",
        "h"
      ],
      [
        "Ġl",
        "ive"
      ],
      [
        "Ġis",
        "s"
      ],
      [
        "Ġst",
        "e"
      ],
      [
        "ain",
        "s"
      ],
      [
        "Ġc",
        "e"
      ],
      [
        "ost",
        "ic"
      ],
      [
        "Ġpres",
        "ence"
      ],
      [
        "Ġl",
        "at"
      ],
      [
        "Ġl",
        "ight"
      ],
      [
        "Ġintern",
        "et"
      ],
      [
        "Ġsu",
        "f"
      ],
      [
        "Ġgl",
        "uc"
      ],
      [
        "om",
        "al"
      ],
      [
        "Ġpo",
        "ly"
      ],
      [
        "Ġident",
        "ified"
      ],
      [
        "Ġstro",
        "ke"
      ],
      [
        "in",
        "ary"
      ],
      [
        "Ġs",
        "ite"
      ],
      [
        "b",
        "e"
      ],
      [
        "Ġc",
        "ere"
      ],
      [
        "Ġf",
        "ed"
      ],
      [
        "Ġaf",
        "ric"
      ],
      [
        "Ġfem",
        "ale"
      ],
      [
        "Ġsout",
        "h"
      ],
      [
        "um",
        "p"
      ],
      [
        "end",
        "ent"
      ],
      [
        "Ġfrequent",
        "ly"
      ],
      [
        "os",
        "ph"
      ],
      [
        "Ġdevelop",
        "ing"
      ],
      [
        "Ġf",
        "il"
      ],
      [
        "Ġtra",
        "um"
      ],
      [
        "Ġrad",
        "i"
      ],
      [
        "Ġinvol",
        "ved"
      ],
      [
        "fici",
        "ency"
      ],
      [
        "Ġrec",
        "ur"
      ],
      [
        "Ġrel",
        "ative"
      ],
      [
        "Ġarter",
        "y"
      ],
      [
        "r",
        "or"
      ],
      [
        "t",
        "ed"
      ],
      [
        "ive",
        "ly"
      ],
      [
        "Ġolymp",
        "ics"
      ],
      [
        "Ġo",
        "s"
      ],
      [
        "Ġbet",
        "ter"
      ],
      [
        "Ġcor",
        "on"
      ],
      [
        "Ġs",
        "am"
      ],
      [
        "Ġb",
        "ig"
      ],
      [
        "op",
        "erative"
      ],
      [
        "Ġv",
        "it"
      ],
      [
        "Ġob",
        "st"
      ],
      [
        "and",
        "ing"
      ],
      [
        "Ġpre",
        "gn"
      ],
      [
        "Ġsat",
        "ur"
      ],
      [
        "Ġh",
        "om"
      ],
      [
        "Ġind",
        "ia"
      ],
      [
        "Ġcard",
        "iac"
      ],
      [
        "r",
        "ine"
      ],
      [
        "Ġpo",
        "int"
      ],
      [
        "h",
        "y"
      ],
      [
        "Ġc",
        "t"
      ],
      [
        "Ġn",
        "as"
      ],
      [
        "Ġind",
        "uc"
      ],
      [
        "Ġhypert",
        "ension"
      ],
      [
        "p",
        "or"
      ],
      [
        "Ġc",
        "ity"
      ],
      [
        "Ġassoci",
        "ation"
      ],
      [
        "Ġfe",
        "atures"
      ],
      [
        "Ġsc",
        "ient"
      ],
      [
        "f",
        "act"
      ],
      [
        "Ġl",
        "aw"
      ],
      [
        "am",
        "in"
      ],
      [
        "od",
        "e"
      ],
      [
        "Ġadm",
        "in"
      ],
      [
        "Ġmetab",
        "olic"
      ],
      [
        "Ġm",
        "uc"
      ],
      [
        "rom",
        "b"
      ],
      [
        "Ġi",
        "i"
      ],
      [
        "ie",
        "f"
      ],
      [
        "Ġmin",
        "ister"
      ],
      [
        "Ġtechn",
        "ology"
      ],
      [
        "Ġresist",
        "ance"
      ],
      [
        "Ġsecur",
        "ity"
      ],
      [
        "Ġw",
        "ind"
      ],
      [
        "Ġh",
        "or"
      ],
      [
        "Ġne",
        "xt"
      ],
      [
        "Ġrap",
        "id"
      ],
      [
        "Ġd",
        "ou"
      ],
      [
        "Ġp",
        "ur"
      ],
      [
        "Ġd",
        "id"
      ],
      [
        "Ġglob",
        "al"
      ],
      [
        "Ġn",
        "at"
      ],
      [
        "oscop",
        "ic"
      ],
      [
        "Ġa",
        "im"
      ],
      [
        "Ġhe",
        "av"
      ],
      [
        "Ġvis",
        "ual"
      ],
      [
        "r",
        "um"
      ],
      [
        "w",
        "ays"
      ],
      [
        "Ġo",
        "ste"
      ],
      [
        "ra",
        "w"
      ],
      [
        "t",
        "ies"
      ],
      [
        "is",
        "on"
      ],
      [
        "Ġad",
        "d"
      ],
      [
        "Ġk",
        "ore"
      ],
      [
        "Ġresult",
        "ing"
      ],
      [
        "Ġremain",
        "s"
      ],
      [
        "Ġdepart",
        "ment"
      ],
      [
        "un",
        "t"
      ],
      [
        "Ġse",
        "x"
      ],
      [
        "Ġcomp",
        "on"
      ],
      [
        "rapeut",
        "ic"
      ],
      [
        "Ġf",
        "ract"
      ],
      [
        "Ġg",
        "et"
      ],
      [
        "Ġg",
        "ames"
      ],
      [
        "Ġde",
        "al"
      ],
      [
        "Ġhe",
        "pat"
      ],
      [
        "Ġsystem",
        "ic"
      ],
      [
        "Ġinit",
        "ial"
      ],
      [
        "Ġadmin",
        "ist"
      ],
      [
        "Ġ",
        "il"
      ],
      [
        "Ġt",
        "ub"
      ],
      [
        "le",
        "x"
      ],
      [
        "Ġen",
        "c"
      ],
      [
        "Ġreg",
        "ard"
      ],
      [
        "erg",
        "y"
      ],
      [
        "Ġwide",
        "ly"
      ],
      [
        "Ġinflamm",
        "ation"
      ],
      [
        "Ġbeh",
        "av"
      ],
      [
        "Ġis",
        "ol"
      ],
      [
        "Ġst",
        "im"
      ],
      [
        "Ġpul",
        "monary"
      ],
      [
        "Ġabn",
        "ormal"
      ],
      [
        "Ġcoron",
        "ary"
      ],
      [
        "Ġ",
        "q"
      ],
      [
        "Ġb",
        "illion"
      ],
      [
        "Ġint",
        "ro"
      ],
      [
        "iat",
        "ric"
      ],
      [
        "Ġs",
        "ix"
      ],
      [
        "pp",
        "er"
      ],
      [
        "Ġcomple",
        "te"
      ],
      [
        "Ġlim",
        "ited"
      ],
      [
        "Ġsoft",
        "ware"
      ],
      [
        "i",
        "ate"
      ],
      [
        "o",
        "le"
      ],
      [
        "Ġh",
        "iv"
      ],
      [
        "um",
        "b"
      ],
      [
        "ac",
        "ks"
      ],
      [
        "Ġlo",
        "ok"
      ],
      [
        "Ġs",
        "ize"
      ],
      [
        "Ġex",
        "c"
      ],
      [
        "Ġcomp",
        "ared"
      ],
      [
        "Ġsc",
        "re"
      ],
      [
        "Ġtyp",
        "es"
      ],
      [
        "Ġbus",
        "iness"
      ],
      [
        "Ġc",
        "d"
      ],
      [
        "Ġre",
        "pl"
      ],
      [
        "Ġext",
        "rem"
      ],
      [
        "a",
        "h"
      ],
      [
        "Ġare",
        "a"
      ],
      [
        "Ġprov",
        "ide"
      ],
      [
        "Ġt",
        "ro"
      ],
      [
        "Ġre",
        "b"
      ],
      [
        "ot",
        "s"
      ],
      [
        "Ġ1",
        "7"
      ],
      [
        "ous",
        "e"
      ],
      [
        "Ġtiss",
        "ues"
      ],
      [
        "Ġmole",
        "cular"
      ],
      [
        "Ġm",
        "ag"
      ],
      [
        "om",
        "p"
      ],
      [
        "Ġsp",
        "ace"
      ],
      [
        "Ġunivers",
        "ity"
      ],
      [
        "o",
        "res"
      ],
      [
        "Ġv",
        "ict"
      ],
      [
        "Ġdes",
        "ign"
      ],
      [
        "Ġappro",
        "ach"
      ],
      [
        "Ġgast",
        "ro"
      ],
      [
        "Ġtre",
        "ated"
      ],
      [
        "Ġpow",
        "er"
      ],
      [
        "o",
        "ver"
      ],
      [
        "ib",
        "ility"
      ],
      [
        "itt",
        "ed"
      ],
      [
        "Ġimpro",
        "ve"
      ],
      [
        "Ġcall",
        "ed"
      ],
      [
        "Ġo",
        "pp"
      ],
      [
        "Ġl",
        "uc"
      ],
      [
        "Ġwh",
        "y"
      ],
      [
        "Ġacc",
        "ess"
      ],
      [
        "fer",
        "red"
      ],
      [
        "Ġm",
        "uch"
      ],
      [
        "Ġof",
        "fer"
      ],
      [
        "Ġprev",
        "ent"
      ],
      [
        "Ġa",
        "round"
      ],
      [
        "Ġjo",
        "int"
      ],
      [
        "Ġmem",
        "br"
      ],
      [
        "y",
        "n"
      ],
      [
        "Ġa",
        "y"
      ],
      [
        "Ġl",
        "ine"
      ],
      [
        "Ġre",
        "d"
      ],
      [
        "ist",
        "an"
      ],
      [
        "Ġinter",
        "act"
      ],
      [
        "Ġcount",
        "ry"
      ],
      [
        "Ġc",
        "op"
      ],
      [
        "Ġm",
        "el"
      ],
      [
        "Ġf",
        "ield"
      ],
      [
        "ve",
        "y"
      ],
      [
        "d",
        "ro"
      ],
      [
        "Ġth",
        "reat"
      ],
      [
        "Ġun",
        "cle"
      ],
      [
        "ll",
        "ed"
      ],
      [
        "Ġaut",
        "h"
      ],
      [
        "Ġsatur",
        "day"
      ],
      [
        "os",
        "ition"
      ],
      [
        "Ġg",
        "erm"
      ],
      [
        "Ġind",
        "ust"
      ],
      [
        "hing",
        "ton"
      ],
      [
        "Ġb",
        "ase"
      ],
      [
        "ol",
        "s"
      ],
      [
        "Ġcour",
        "t"
      ],
      [
        "ir",
        "atory"
      ],
      [
        "Ġprevious",
        "ly"
      ],
      [
        "f",
        "unction"
      ],
      [
        "i",
        "er"
      ],
      [
        "Ġw",
        "on"
      ],
      [
        "Ġth",
        "romb"
      ],
      [
        "Ġpro",
        "duction"
      ],
      [
        "Ġag",
        "ents"
      ],
      [
        "Ġinv",
        "as"
      ],
      [
        "Ġsecond",
        "ary"
      ],
      [
        "le",
        "y"
      ],
      [
        "Ġsu",
        "d"
      ],
      [
        "Ġcomp",
        "l"
      ],
      [
        "Ġfig",
        "ure"
      ],
      [
        "Ġsoc",
[...]
