{
  "version": "1.0",
  "truncation": null,
  "padding": null,
  "added_tokens": [
    {
      "id": 0,
      "content": "[UNK]",
      "single_word": false,
      "lstrip": false,
      "rstrip": false,
      "normalized": false,
      "special": true
    }
  ],
  "normalizer": null,
  "pre_tokenizer": {
    "type": "ByteLevel",
    "add_prefix_space": true,
    "trim_offsets": true,
    "use_regex": true
  },
  "post_processor": null,
  "decoder": null,
  "model": {
    "type": "BPE",
    "dropout": null,
    "unk_token": "[UNK]",
    "continuing_subword_prefix": null,
    "end_of_word_suffix": null,
    "fuse_unk": false,
    "byte_fallback": false,
    "ignore_merges": false,
    "vocab": {
      "[UNK]": 0,
      "!": 1,
      "'": 2,
      ",": 3,
      ".": 4,
      ":": 5,
      ";": 6,
      "?": 7,
      "_": 8,
      "a": 9,
      "b": 10,
      "c": 11,
      "d": 12,
      "e": 13,
      "f": 14,
      "g": 15,
      "h": 16,
      "i": 17,
      "j": 18,
      "k": 19,
      "l": 20,
      "m": 21,
      "n": 22,
      "o": 23,
      "p": 24,
      "q": 25,
      "r": 26,
      "s": 27,
      "t": 28,
      "u": 29,
      "v": 30,
      "w": 31,
      "x": 32,
      "y": 33,
      "z": 34,
      "Ġ": 35,
      "Ġa": 36,
      "Ġt": 37,
      "in": 38,
      "re": 39,
      "he": 40,
      "on": 41,
      "ti": 42,
      "Ġo": 43,
      "en": 44,
      "Ġc": 45,
      "Ġs": 46,
      "Ġ,": 47,
      "al": 48,
      "Ġthe": 49,
      "er": 50,
      "Ġp": 51,
      "Ġin": 52,
      "is": 53,
      "Ġan": 54,
      "ed": 55,
      "es": 56,
      "Ġof": 57,
      "or": 58,
      "Ġd": 59,
      "Ġm": 60,
      "at": 61,
      "an": 62,
      "Ġ.": 63,
      "it": 64,
      "Ġw": 65,
      "Ġb": 66,
      "Ġf": 67,
      "ic": 68,
      "ar": 69,
      "as": 70,
      "Ġand": 71,
      "ro": 72,
      "tion": 73,
      "ent": 74,
      "ing": 75,
      "Ġre": 76,
      "Ġh": 77,
      "le": 78,
      "Ġe": 79,
      "om": 80,
      "Ġto": 81,
      "us": 82,
      "ve": 83,
      "ly": 84,
      "os": 85,
      "ation": 86,
      "Ġn": 87,
      "ul": 88,
      "ec": 89,
      "Ġl": 90,
      "ac": 91,
      "Ġis": 92,
      "id": 93,
      "Ġth": 94,
      "ur": 95,
      "un": 96,
      "ol": 97,
      "Ġg": 98,
      "im": 99,
      "ith": 100,
      "Ġwith": 101,
      "ra": 102,
      "et": 103,
      "Ġas": 104,
      "ce": 105,
      "ll": 106,
      "ati": 107,
      "Ġpro": 108,
      "Ġfor": 109,
      "Ġst": 110,
      "ig": 111,
      "ter": 112,
      "op": 113,
      "uc": 114,
      "Ġbe": 115,
      "ut": 116,
      "Ġcon": 117,
      "um": 118,
      "res": 119,
      "Ġv": 120,
      "Ġde": 121,
      "ia": 122,
      "st": 123,
      "ical": 124,
      "ot": 125,
      "ow": 126,
      "ment": 127,
      "oc": 128,
      "il": 129,
      "tic": 130,
      "ir": 131,
      "og": 132,
      "Ġor": 133,
      "ver": 134,
      "Ġdis": 135,
      "di": 136,
      "Ġcom": 137,
      "ity": 138,
      "Ġon": 139,
      "Ġare": 140,
      "ated": 141,
      "Ġhe": 142,
      "si": 143,
      "od": 144,
      "am": 145,
      "th": 146,
      "Ġex": 147,
      "Ġr": 148,
      "Ġwe": 149,
      "ts": 150,
      "if": 151,
      "Ġac": 152,
      "ri": 153,
      "Ġch": 154,
      "ate": 155,
      "rom": 156,
      "em": 157,
      "ge": 158,
      "Ġthat": 159,
      "Ġinc": 160,
      "Ġby": 161,
      "ase": 162,
      "ort": 163,
      "Ġha": 164,
      "Ġal": 165,
      "qu": 166,
      "ents": 167,
      "ab": 168,
      "se": 169,
      "Ġim": 170,
      "ain": 171,
      "Ġpati": 172,
      "Ġwh": 173,
      "ure": 174,
      "ous": 175,
      "ant": 176,
      "Ġres": 177,
      "Ġcan": 178,
      "Ġse": 179,
      "Ġad": 180,
      "pl": 181,
      "ad": 182,
      "Ġit": 183,
      "ph": 184,
      "Ġus": 185,
      "ud": 186,
      "Ġwas": 187,
      "fec": 188,
      "ren": 189,
      "Ġun": 190,
      "ess": 191,
      "Ġca": 192,
      "Ġat": 193,
      "Ġne": 194,
      "ost": 195,
      "ay": 196,
      "iz": 197,
      "Ġhave": 198,
      "mon": 199,
      "Ġsy": 200,
      "ular": 201,
      "Ġen": 202,
      "Ġpre": 203,
      "Ġsu": 204,
      "ary": 205,
      "yp": 206,
      "her": 207,
      "port": 208,
      "Ġy": 209,
      "ell": 210,
      "Ġfrom": 211,
      "Ġle": 212,
      "ion": 213,
      "ial": 214,
      "Ġper": 215,
      "Ġhas": 216,
      "der": 217,
      "Ġpatients": 218,
      "Ġbeen": 219,
      "ast": 220,
      "ore": 221,
      "igh": 222,
      "ine": 223,
      "olog": 224,
      "Ġsp": 225,
      "Ġdise": 226,
      "Ġk": 227,
      "ted": 228,
      "te": 229,
      "ear": 230,
      "ence": 231,
      "ug": 232,
      "Ġcl": 233,
      "tive": 234,
      "act": 235,
      "ran": 236,
      "ide": 237,
      "pp": 238,
      "ich": 239,
      "vel": 240,
      "Ġcomp": 241,
      "oun": 242,
      "est": 243,
      "reat": 244,
      "Ġthis": 245,
      "ist": 246,
      "ations": 247,
      "Ġyear": 248,
      "ath": 249,
      "Ġab": 250,
      "Ġdia": 251,
      "Ġwhich": 252,
      "ch": 253,
      "Ġgen": 254,
      "Ġrec": 255,
      "Ġint": 256,
      "orm": 257,
      "red": 258,
      "Ġcell": 259,
      "ally": 260,
      "ors": 261,
      "ory": 262,
      "Ġra": 263,
      "ag": 264,
      "duc": 265,
      "ld": 266,
      "Ġpres": 267,
      "ases": 268,
      "Ġwere": 269,
      "Ġdisease": 270,
      "ys": 271,
      "Ġcont": 272,
      "iv": 273,
      "Ġsur": 274,
      "cer": 275,
      "Ġaf": 276,
      "Ġsh": 277,
      "ue": 278,
      "Ġass": 279,
      "sion": 280,
      "pt": 281,
      "ign": 282,
      "Ġman": 283,
      "Ġsuc": 284,
      "Ġinf": 285,
      "ies": 286,
      "age": 287,
      "Ġmost": 288,
      "osis": 289,
      "ill": 290,
      "gn": 291,
      "Ġpar": 292,
      "iti": 293,
      "Ġmet": 294,
      "ip": 295,
      "and": 296,
      "per": 297,
      "Ġph": 298,
      "tions": 299,
      "Ġtreat": 300,
      "el": 301,
      "lud": 302,
      "ance": 303,
      "Ġincre": 304,
      "enti": 305,
      "ative": 306,
      "Ġcar": 307,
      "Ġcaus": 308,
      "ten": 309,
      "ugh": 310,
      "ult": 311,
      "fic": 312,
      "Ġreport": 313,
      "ome": 314,
      "lec": 315,
      "oci": 316,
      "Ġinclud": 317,
      "Ġmed": 318,
      "Ġsuch": 319,
      "all": 320,
      "Ġar": 321,
      "Ġcons": 322,
      "Ġpl": 323,
      "velop": 324,
      "ble": 325,
      "Ġtreatment": 326,
      "Ġ;": 327,
      "up": 328,
      "ther": 329,
      "Ġheal": 330,
      "Ġdevelop": 331,
      "Ġnot": 332,
      "Ġev": 333,
      "ased": 334,
      "cc": 335,
      "able": 336,
      "Ġcancer": 337,
      "Ġob": 338,
      "Ġapp": 339,
      "Ġthese": 340,
      "Ġprev": 341,
      "Ġtran": 342,
      "Ġsub": 343,
      "Ġhealth": 344,
      "Ġsc": 345,
      "Ġclin": 346,
      "Ġall": 347,
      "Ġef": 348,
      "Ġcommon": 349,
      "rap": 350,
      "ric": 351,
      "inal": 352,
      "ms": 353,
      "ron": 354,
      "Ġco": 355,
      "ized": 356,
      "Ġinter": 357,
      "Ġdif": 358,
      "unc": 359,
      "Ġrel": 360,
      "Ġassoci": 361,
      "Ġacc": 362,
      "anc": 363,
      "ie": 364,
      "ke": 365,
      "Ġreg": 366,
      "ding": 367,
      "ers": 368,
      "tiv": 369,
      "ood": 370,
      "Ġinv": 371,
      "ap": 372,
      "fe": 373,
      "Ġthere": 374,
      "ari": 375,
      "ib": 376,
      "ight": 377,
      "Ġro": 378,
      "enc": 379,
      "Ġtrans": 380,
      "acter": 381,
      "Ġone": 382,
      "one": 383,
      "Ġag": 384,
      "rac": 385,
      "ever": 386,
      "ech": 387,
      "Ġma": 388,
      "Ġdes": 389,
      "ual": 390,
      "Ġwor": 391,
      "Ġhyp": 392,
      "Ġdiagn": 393,
      "erm": 394,
      "ose": 395,
      "stem": 396,
      "Ġhigh": 397,
      "rib": 398,
      "ific": 399,
      "Ġclinical": 400,
      "Ġmay": 401,
      "rent": 402,
      "out": 403,
      "ological": 404,
      "Ġpresent": 405,
      "Ġocc": 406,
      "Ġspec": 407,
      "Ġinfec": 408,
      "Ġmore": 409,
      "Ġhow": 410,
      "Ġris": 411,
      "Ġfact": 412,
      "Ġtyp": 413,
      "Ġimp": 414,
      "Ġmal": 415,
      "own": 416,
      "udi": 417,
      "Ġbl": 418,
      "Ġsystem": 419,
      "tim": 420,
      "Ġgro": 421,
      "ates": 422,
      "oma": 423,
      "erv": 424,
      "so": 425,
      "ater": 426,
      "ulation": 427,
      "Ġstudi": 428,
      "ruc": 429,
      "Ġmo": 430,
      "mun": 431,
      "Ġyears": 432,
      "atic": 433,
      "Ġresp": 434,
      "Ġalso": 435,
      "Ġtum": 436,
      "Ġassociated": 437,
      "ures": 438,
      "ub": 439,
      "Ġhowever": 440,
      "Ġgl": 441,
      "Ġj": 442,
      "Ġdur": 443,
      "sive": 444,
      "ne": 445,
      "pit": 446,
      "Ġother": 447,
      "atory": 448,
      "Ġreported": 449,
      "Ġover": 450,
      "Ġes": 451,
      "Ġunder": 452,
      "Ġdec": 453,
      "Ġwhe": 454,
      "Ġsyn": 455,
      "unction": 456,
      "Ġrisk": 457,
      "plic": 458,
      "ery": 459,
      "Ġbet": 460,
      "ility": 461,
      "Ġtheir": 462,
      "ality": 463,
      "Ġpatient": 464,
      "ogen": 465,
      "Ġsurg": 466,
      "Ġeffec": 467,
      "Ġbi": 468,
      "Ġcor": 469,
      "end": 470,
      "Ġcells": 471,
      "Ġused": 472,
      "cular": 473,
      "Ġpo": 474,
      "Ġproc": 475,
      "Ġend": 476,
      "ob": 477,
      "iver": 478,
      "oth": 479,
      "Ġappro": 480,
      "ong": 481,
      "Ġbut": 482,
      "Ġstudies": 483,
      "Ġexp": 484,
      "ct": 485,
      "low": 486,
      "Ġbec": 487,
      "Ġam": 488,
      "Ġind": 489,
      "Ġcol": 490,
      "Ġsign": 491,
      "we": 492,
      "Ġinfl": 493,
      "ang": 494,
      "hem": 495,
      "Ġem": 496,
      "gen": 497,
      "ros": 498,
      "Ġafter": 499,
      "Ġpr": 500,
      "Ġstud": 501,
      "gan": 502,
      "Ġpos": 503,
      "tein": 504,
      "ild": 505,
      "our": 506,
      "Ġdep": 507,
      "Ġrep": 508,
      "Ġimport": 509,
      "ep": 510,
      "ach": 511,
      "ting": 512,
      "Ġanti": 513,
      "form": 514,
      "rapy": 515,
      "Ġoccur": 516,
      "Ġpath": 517,
      "Ġins": 518,
      "Ġvari": 519,
      "Ġchar": 520,
      "ard": 521,
      "ass": 522,
      "ail": 523,
      "Ġcases": 524,
      "yl": 525,
      "Ġduring": 526,
      "Ġnon": 527,
      "Ġdiffe": 528,
      "dition": 529,
      "ough": 530,
      "uro": 531,
      "Ġits": 532,
      "iss": 533,
      "ute": 534,
      "ound": 535,
      "Ġdet": 536,
      "idence": 537,
      "ology": 538,
      "Ġthan": 539,
      "Ġold": 540,
      "Ġet": 541,
      "Ġstudy": 542,
      "Ġincluding": 543,
      "Ġdue": 544,
      "amm": 545,
      "Ġlow": 546,
      "ber": 547,
      "oid": 548,
      "ov": 549,
      "ied": 550,
      "ple": 551,
      "ating": 552,
      "Ġi": 553,
      "Ġcharacter": 554,
      "use": 555,
      "ond": 556,
      "Ġprotein": 557,
      "ral": 558,
      "ween": 559,
      "ens": 560,
      "Ġdiab": 561,
      "ace": 562,
      "vid": 563,
      "Ġqu": 564,
      "Ġbetween": 565,
      "ogra": 566,
      "order": 567,
      "Ġfol": 568,
      "Ġtw": 569,
      "Ġcy": 570,
      "Ġwell": 571,
      "Ġme": 572,
      "Ġno": 573,
      "rain": 574,
      "Ġdr": 575,
      "Ġworld": 576,
      "Ġfe": 577,
      "tal": 578,
      "Ġhum": 579,
      "Ġkn": 580,
      "ount": 581,
      "Ġsec": 582,
      "ft": 583,
      "ious": 584,
      "Ġnum": 585,
      "Ġmon": 586,
      "Ġdisorder": 587,
      "Ġhist": 588,
      "ascular": 589,
      "ress": 590,
      "Ġlead": 591,
      "Ġgener": 592,
      "Ġpop": 593,
      "ved": 594,
      "Ġtiss": 595,
      "Ġform": 596,
      "Ġout": 597,
      "ities": 598,
      "ently": 599,
      "Ġactiv": 600,
      "Ġimportant": 601,
      "Ġwho": 602,
      "Ġfunction": 603,
      "pec": 604,
      "Ġpain": 605,
      "ptom": 606,
      "Ġorgan": 607,
      "cl": 608,
      "Ġchild": 609,
      "Ġfir": 610,
      "tain": 611,
      "art": 612,
      "Ġmain": 613,
      "Ġcase": 614,
      "Ġmul": 615,
      "ni": 616,
      "Ġrem": 617,
      "mptom": 618,
      "Ġmany": 619,
      "ronic": 620,
      "ior": 621,
      "Ġsm": 622,
      "Ġ:": 623,
      "Ġop": 624,
      "Ġcause": 625,
      "Ġu": 626,
      "Ġage": 627,
      "Ġuse": 628,
      "jor": 629,
      "Ġdi": 630,
      "Ġhuman": 631,
      "Ġmic": 632,
      "Ġfirst": 633,
      "ak": 634,
      "Ġmajor": 635,
      "Ġinvol": 636,
      "ination": 637,
      "ization": 638,
      "ature": 639,
      "ree": 640,
      "Ġhyper": 641,
      "Ġsever": 642,
      "Ġimmun": 643,
      "Ġext": 644,
      "av": 645,
      "Ġprim": 646,
      "ograph": 647,
      "Ġcare": 648,
      "ile": 649,
      "ression": 650,
      "osed": 651,
      "Ġdesc": 652,
      "nal": 653,
      "Ġcent": 654,
      "etes": 655,
      "Ġtwo": 656,
      "Ġser": 657,
      "Ġtim": 658,
      "Ġfactors": 659,
      "als": 660,
      "ited": 661,
      "Ġ'": 662,
      "ural": 663,
      "Ġcardi": 664,
      "tis": 665,
      "oph": 666,
      "Ġmod": 667,
      "Ġdiabetes": 668,
      "lym": 669,
      "ults": 670,
      "Ġlif": 671,
      "Ġgene": 672,
      "ause": 673,
      "fer": 674,
      "Ġap": 675,
      "Ġtr": 676,
      "Ġcomple": 677,
      "ect": 678,
      "Ġboth": 679,
      "mong": 680,
      "Ġamong": 681,
      "Ġprog": 682,
      "Ġchronic": 683,
      "Ġrare": 684,
      "ency": 685,
      "ined": 686,
      "ack": 687,
      "Ġsome": 688,
      "Ġaffec": 689,
      "Ġblood": 690,
      "Ġtype": 691,
      "ven": 692,
      "Ġhad": 693,
      "Ġloc": 694,
      "Ġfollow": 695,
      "drom": 696,
      "Ġid": 697,
      "Ġdrug": 698,
      "Ġmeth": 699,
      "Ġdevelopment": 700,
      "hes": 701,
      "Ġsymptom": 702,
      "na": 703,
      "Ġtech": 704,
      "Ġthey": 705,
      "ions": 706,
      "Ġmulti": 707,
      "Ġhem": 708,
      "ox": 709,
      "Ġdiseases": 710,
      "Ġinflamm": 711,
      "Ġonly": 712,
      "Ġsyndrom": 713,
      "erg": 714,
      "Ġrespon": 715,
      "ite": 716,
      "Ġwom": 717,
      "ry": 718,
      "Ġmus": 719,
      "ually": 720,
      "kin": 721,
      "omy": 722,
      "ive": 723,
      "Ġfl": 724,
      "Ġincreased": 725,
      "Ġproduc": 726,
      "Ġpartic": 727,
      "arly": 728,
      "Ġlevel": 729,
      "cop": 730,
      "ays": 731,
      "Ġcontro": 732,
      "Ġdescrib": 733,
      "Ġtra": 734,
      "uld": 735,
      "Ġinto": 736,
      "Ġlar": 737,
      "ormal": 738,
      "Ġep": 739,
      "Ġsignific": 740,
      "Ġinj": 741,
      "Ġbecause": 742,
      "Ġseveral": 743,
      "Ġaut": 744,
      "Ġexam": 745,
      "hed": 746,
      "rough": 747,
      "Ġneuro": 748,
      "Ġresult": 749,
      "ody": 750,
      "though": 751,
      "Ġalthough": 752,
      "cin": 753,
      "Ġcomplic": 754,
      "ruct": 755,
      "Ġrelated": 756,
      "ism": 757,
      "tit": 758,
      "ments": 759,
      "ately": 760,
      "ian": 761,
      "Ġhos": 762,
      "Ġsyndrome": 763,
      "Ġknown": 764,
      "Ġtherapy": 765,
      "Ġpreval": 766,
      "Ġbased": 767,
      "Ġcount": 768,
      "Ġpopulation": 769,
      "sy": 770,
      "Ġmedical": 771,
      "Ġnew": 772,
      "Ġsin": 773,
      "Ġlife": 774,
      "Ġdef": 775,
      "ness": 776,
      "Ġup": 777,
      "Ġthrough": 778,
      "Ġinfection": 779,
      "Ġtumor": 780,
      "Ġpe": 781,
      "Ġdist": 782,
      "iter": 783,
      "Ġindi": 784,
      "Ġprocess": 785,
      "Ġnumber": 786,
      "ational": 787,
      "Ġsignificant": 788,
      "ants": 789,
      "ental": 790,
      "requ": 791,
      "xim": 792,
      "Ġanal": 793,
      "Ġdiagnosis": 794,
      "Ġhospit": 795,
      "Ġperform": 796,
      "Ġso": 797,
      "urrent": 798,
      "Ġshow": 799,
      "Ġgrow": 800,
      "ues": 801,
      "Ġtissue": 802,
      "Ġusing": 803,
      "Ġret": 804,
      "Ġtime": 805,
      "Ġradi": 806,
      "fore": 807,
      "Ġincidence": 808,
      "Ġpost": 809,
      "cept": 810,
      "Ġdat": 811,
      "Ġwhen": 812,
      "und": 813,
      "qui": 814,
      "Ġmort": 815,
      "othe": 816,
      "tical": 817,
      "de": 818,
      "Ġvir": 819,
      "ential": 820,
      "Ġlim": 821,
      "Ġlong": 822,
      "Ġdeath": 823,
      "Ġmy": 824,
      "Ġcharacterized": 825,
      "Ġchem": 826,
      "Ġli": 827,
      "Ġsurgery": 828,
      "ection": 829,
      "asing": 830,
      "Ġmortality": 831,
      "Ġvis": 832,
      "arch": 833,
      "Ġabout": 834,
      "ution": 835,
      "Ġgra": 836,
      "Ġsam": 837,
      "Ġpot": 838,
      "ane": 839,
      "Ġdifferent": 840,
      "Ġimpro": 841,
      "Ġidenti": 842,
      "Ġoften": 843,
      "Ġstruct": 844,
      "Ġfrequ": 845,
      "Ġgroup": 846,
      "Ġmin": 847,
      "Ġour": 848,
      "Ġsymptoms": 849,
      "str": 850,
      "Ġacute": 851,
      "Ġadv": 852,
      "Ġmethod": 853,
      "Ġchildren": 854,
      "ically": 855,
      "echan": 856,
      "Ġmor": 857,
      "Ġhospital": 858,
      "Ġles": 859,
      "Ġprimary": 860,
      "ung": 861,
      "duced": 862,
      "oss": 863,
      "dom": 864,
      "ily": 865,
      "ful": 866,
      "Ġterm": 867,
      "ym": 868,
      "Ġphys": 869,
      "king": 870,
      "ons": 871,
      "fied": 872,
      "ries": 873,
      "lect": 874,
      "fici": 875,
      "Ġel": 876,
      "Ġrese": 877,
      "Ġdys": 878,
      "ges": 879,
      "Ġdisc": 880,
      "Ġlym": 881,
      "Ġvarious": 882,
      "tern": 883,
      "ety": 884,
      "ration": 885,
      "Ġlarge": 886,
      "Ġmechan": 887,
      "Ġindivid": 888,
      "Ġbone": 889,
      "olic": 890,
      "Ġexper": 891,
      "int": 892,
      "Ġrate": 893,
      "ark": 894,
      "Ġarter": 895,
      "ocy": 896,
      "Ġperi": 897,
      "Ġwomen": 898,
      "Ġlymph": 899,
      "ability": 900,
      "Ġproble": 901,
      "cle": 902,
      "Ġav": 903,
      "Ġmicro": 904,
      "Ġearly": 905,
      "Ġprevalence": 906,
      "Ġhistory": 907,
      "Ġsecond": 908,
      "itis": 909,
      "Ġmedic": 910,
      "its": 911,
      "Ġindividual": 912,
      "lis": 913,
      "Ġben": 914,
      "Ġincreasing": 915,
      "Ġinjur": 916,
      "asis": 917,
      "Ġmem": 918,
      "vere": 919,
      "Ġfound": 920,
      "Ġloss": 921,
      "Ġir": 922,
      "vir": 923,
      "Ġher": 924,
      "Ġsince": 925,
      "ography": 926,
      "ption": 927,
      "Ġgast": 928,
      "Ġcr": 929,
      "usion": 930,
      "Ġsim": 931,
      "Ġdata": 932,
      "Ġrecent": 933,
      "sible": 934,
      "Ġleft": 935,
      "ysis": 936,
      "Ġfem": 937,
      "Ġlike": 938,
      "Ġprevious": 939,
      "Ġsevere": 940,
      "Ġsurgical": 941,
      "Ġwide": 942,
      "tics": 943,
      "ition": 944,
      "iew": 945,
      "ks": 946,
      "Ġspecific": 947,
      "Ġmonth": 948,
      "rop": 949,
      "Ġdescribed": 950,
      "ening": 951,
      "com": 952,
      "ium": 953,
      "ange": 954,
      "Ġnec": 955,
      "illion": 956,
      "Ġadm": 957,
      "Ġcountries": 958,
      "les": 959,
      "que": 960,
      "ople": 961,
      "ade": 962,
      "Ġtumors": 963,
      "lic": 964,
      "rect": 965,
      "Ġestim": 966,
      "Ġbody": 967,
      "Ġpub": 968,
      "Ġrole": 969,
      "ise": 970,
      "ces": 971,
      "Ġiniti": 972,
      "Ġmalign": 973,
      "over": 974,
      "arg": 975,
      "las": 976,
      "Ġcontrol": 977,
      "erative": 978,
      "Ġpers": 979,
      "Ġproced": 980,
      "Ġright": 981,
      "Ġmolec": 982,
      "Ġpeople": 983,
      "aging": 984,
      "Ġbre": 985,
      "Ġrequi": 986,
      "Ġaddition": 987,
      "ds": 988,
      "hen": 989,
      "alu": 990,
      "ale": 991,
      "Ġhy": 992,
      "anges": 993,
      "Ġox": 994,
      "opath": 995,
      "Ġdisorders": 996,
      "rence": 997,
      "Ġpul": 998,
      "Ġeffects": 999,
      "Ġusually": 1000,
      "Ġperiod": 1001,
      "cess": 1002,
      "roph": 1003,
      "Ġwithin": 1004,
      "Ġinclude": 1005,
      "Ġbrain": 1006,
      "oscop": 1007,
      "ressive": 1008,
      "ulin": 1009,
      "Ġwhile": 1010,
      "Ġmetab": 1011,
      "Ġfam": 1012,
      "Ġfib": 1013,
      "bid": 1014,
      "ving": 1015,
      "Ġintra": 1016,
      "aneous": 1017,
      "Ġincrease": 1018,
      "Ġresults": 1019,
      "Ġremain": 1020,
      "Ġpa": 1021,
      "Ġliver": 1022,
      "Ġdo": 1023,
      "Ġsmall": 1024,
      "Ġmass": 1025,
      "Ġinflammatory": 1026,
      "Ġcurrent": 1027,
      "Ġresearch": 1028,
      "idered": 1029,
      "Ġconsidered": 1030,
      "Ġfail": 1031,
      "ize": 1032,
      "ix": 1033,
      "Ġtechni": 1034,
      "isms": 1035,
      "Ġmultiple": 1036,
      "Ġhep": 1037,
      "ract": 1038,
      "Ġest": 1039,
      "Ġmater": 1040,
      "Ġfig": 1041,
      "ines": 1042,
      "Ġobes": 1043,
      "Ġur": 1044,
      "Ġaccor": 1045,
      "Ġcat": 1046,
      "ins": 1047,
      "til": 1048,
      "ital": 1049,
      "Ġapproxim": 1050,
      "Ġrev": 1051,
      "Ġpresented": 1052,
      "Ġsug": 1053,
      "erc": 1054,
      "ps": 1055,
      "Ġinte": 1056,
      "Ġwhere": 1057,
      "inding": 1058,
      "plant": 1059,
      "Ġatt": 1060,
      "sequ": 1061,
      "are": 1062,
      "ages": 1063,
      "Ġce": 1064,
      "Ġshown": 1065,
      "ovascular": 1066,
      "Ġmeas": 1067,
      "Ġcarcin": 1068,
      "Ġneed": 1069,
      "Ġnormal": 1070,
      "Ġthree": 1071,
      "Ġevalu": 1072,
      "arc": 1073,
      "ste": 1074,
      "viron": 1075,
      "Ġreac": 1076,
      "ancy": 1077,
      "Ġsol": 1078,
      "vement": 1079,
      "Ġdel": 1080,
      "Ġte": 1081,
      "terior": 1082,
      "Ġapproximately": 1083,
      "Ġinform": 1084,
      "ival": 1085,
      "Ġrest": 1086,
      "wide": 1087,
      "Ġmuc": 1088,
      "ust": 1089,
      "Ġmillion": 1090,
      "Ġrenal": 1091,
      "Ġresist": 1092,
      "Ġcomplications": 1093,
      "hib": 1094,
      "ties": 1095,
      "Ġmanage": 1096,
      "Ġfactor": 1097,
      "cent": 1098,
      "Ġcaused": 1099,
      "Ġdeveloped": 1100,
      "Ġgeneral": 1101,
      "Ġvirus": 1102,
      "Ġz": 1103,
      "Ġelect": 1104,
      "Ġwithout": 1105,
      "tional": 1106,
      "Ġparticular": 1107,
      "Ġenviron": 1108,
      "Ġcauses": 1109,
      "Ġworldwide": 1110,
      "Ġlower": 1111,
      "Ġhig": 1112,
      "omic": 1113,
      "Ġany": 1114,
      "Ġcomplex": 1115,
      "otic": 1116,
      "Ġlab": 1117,
      "Ġleading": 1118,
      "Ġaccording": 1119,
      "Ġang": 1120,
      "Ġmm": 1121,
      "ves": 1122,
      "sych": 1123,
      "Ġdiagnosed": 1124,
      "Ġgrowth": 1125,
      "Ġphysical": 1126,
      "struc": 1127,
      "Ġacid": 1128,
      "duction": 1129,
      "Ġmetast": 1130,
      "ma": 1131,
      "ially": 1132,
      "Ġabdom": 1133,
      "emia": 1134,
      "jec": 1135,
      "Ġthose": 1136,
      "uce": 1137,
      "Ġpathogen": 1138,
      "ucle": 1139,
      "Ġperformed": 1140,
      "ould": 1141,
      "Ġstand": 1142,
      "Ġcyt": 1143,
      "ont": 1144,
      "Ġdifferen": 1145,
      "Ġobs": 1146,
      "orts": 1147,
      "Ġlung": 1148,
      "Ġdefined": 1149,
      "Ġsurv": 1150,
      "Ġskin": 1151,
      "Ġchanges": 1152,
      "Ġdecre": 1153,
      "Ġmanagement": 1154,
      "tig": 1155,
      "Ġey": 1156,
      "yro": 1157,
      "Ġprot": 1158,
      "Ġbeing": 1159,
      "ared": 1160,
      "Ġheart": 1161,
      "Ġcommonly": 1162,
      "air": 1163,
      "Ġtherap": 1164,
      "por": 1165,
      "arm": 1166,
      "Ġgenetic": 1167,
      "ice": 1168,
      "Ġoral": 1169,
      "Ġfollowing": 1170,
      "ans": 1171,
      "Ġif": 1172,
      "hel": 1173,
      "Ġvery": 1174,
      "ateral": 1175,
      "tension": 1176,
      "Ġfew": 1177,
      "Ġactivity": 1178,
      "Ġlevels": 1179,
      "med": 1180,
      "Ġrecept": 1181,
      "Ġshowed": 1182,
      "Ġpred": 1183,
      "esis": 1184,
      "Ġresponse": 1185,
      "Ġinjury": 1186,
      "Ġele": 1187,
      "Ġbreast": 1188,
      "Ġfur": 1189,
      "Ġed": 1190,
      "Ġbacter": 1191,
      "Ġless": 1192,
      "Ġflu": 1193,
      "Ġval": 1194,
      "ardi": 1195,
      "af": 1196,
      "Ġmen": 1197,
      "Ġquality": 1198,
      "Ġpotential": 1199,
      "sure": 1200,
      "Ġtre": 1201,
      "Ġanim": 1202,
      "ditions": 1203,
      "Ġcentral": 1204,
      "lished": 1205,
      "Ġfailure": 1206,
      "Ġliter": 1207,
      "Ġsequ": 1208,
      "Ġve": 1209,
      "Ġenvironment": 1210,
      "Ġsup": 1211,
      "Ġmuscle": 1212,
      "yroid": 1213,
      "Ġlocal": 1214,
      "Ġmorbid": 1215,
      "Ġprost": 1216,
      "Ġsit": 1217,
      "Ġconditions": 1218,
      "Ġproteins": 1219,
      "uted": 1220,
      "Ġmale": 1221,
      "otherapy": 1222,
      "Ġeffective": 1223,
      "Ġlesions": 1224,
      "Ġfurther": 1225,
      "rh": 1226,
      "Ġemerg": 1227,
      "Ġdeterm": 1228,
      "eric": 1229,
      "Ġobserv": 1230,
      "Ġprovid": 1231,
      "Ġabs": 1232,
      "Ġcardiovascular": 1233,
      "Ġreve": 1234,
      "Ġdemon": 1235,
      "aria": 1236,
      "ex": 1237,
      "ission": 1238,
      "ologic": 1239,
      "tained": 1240,
      "Ġlip": 1241,
      "Ġregion": 1242,
      "Ġgreat": 1243,
      "Ġcondition": 1244,
      "Ġinfections": 1245,
      "Ġmemb": 1246,
      "Ġtotal": 1247,
      "Ġmonths": 1248,
      "Ġdemonstr": 1249,
      "Ġtherefore": 1250,
      "Ġeach": 1251,
      "Ġexamination": 1252,
      "Ġevidence": 1253,
      "Ġprom": 1254,
      "Ġimaging": 1255,
      "fication": 1256,
      "Ġobesity": 1257,
      "ning": 1258,
      "Ġindic": 1259,
      "Ġgu": 1260,
      "Ġinsulin": 1261,
      "Ġref": 1262,
      "Ġespec": 1263,
      "ysi": 1264,
      "Ġmaterial": 1265,
      "Ġreview": 1266,
      "ists": 1267,
      "Ġconf": 1268,
      "Ġcal": 1269,
      "ram": 1270,
      "Ġinflu": 1271,
      "Ġespecially": 1272,
      "co": 1273,
      "Ġshe": 1274,
      "eth": 1275,
      "oplas": 1276,
      "Ġestimated": 1277,
      "Ġtri": 1278,
      "Ġindividuals": 1279,
      "Ġhead": 1280,
      "Ġoccurs": 1281,
      "iat": 1282,
      "Ġliterature": 1283,
      "Ġsti": 1284,
      "Ġpsych": 1285,
      "eu": 1286,
      "monary": 1287,
      "Ġrecently": 1288,
      "Ġcoron": 1289,
      "Ġreveal": 1290,
      "Ġsupp": 1291,
      "Ġassess": 1292,
      "Ġcomb": 1293,
      "Ġavail": 1294,
      "Ġprac": 1295,
      "estinal": 1296,
      "ler": 1297,
      "Ġhis": 1298,
      "arget": 1299,
      "Ġrepres": 1300,
      "Ġfac": 1301,
      "Ġvascular": 1302,
      "Ġsw": 1303,
      "ences": 1304,
      "ocyt": 1305,
      "assi": 1306,
      "Ġprov": 1307,
      "ns": 1308,
      "Ġpregn": 1309,
      "Ġabn": 1310,
      "ield": 1311,
      "Ġmethods": 1312,
      "Ġtarget": 1313,
      "Ġadults": 1314,
      "Ġmorbidity": 1315,
      "Ġdiagnos": 1316,
      "Ġepid": 1317,
      "Ġcle": 1318,
      "Ġred": 1319,
      "Ġproper": 1320,
      "Ġpressure": 1321,
      "Ġeven": 1322,
      "Ġgluc": 1323,
      "osph": 1324,
      "Ġsuccess": 1325,
      "Ġdiffic": 1326,
      "Ġcould": 1327,
      "Ġinhib": 1328,
      "ules": 1329,
      "Ġantib": 1330,
      "Ġfunctional": 1331,
      "Ġdrugs": 1332,
      "Ġprol": 1333,
      "Ġcontin": 1334,
      "Ġplas": 1335,
      "itive": 1336,
      "Ġsing": 1337,
      "Ġorig": 1338,
      "Ġtest": 1339,
      "Ġec": 1340,
      "Ġwill": 1341,
      "Ġpart": 1342,
      "rate": 1343,
      "Ġdam": 1344,
      "Ġimmune": 1345,
      "eration": 1346,
      "Ġbeh": 1347,
      "Ġdem": 1348,
      "Ġweight": 1349,
      "ances": 1350,
      "Ġfamily": 1351,
      "Ġsurvival": 1352,
      "mit": 1353,
      "Ġcir": 1354,
      "Ġsus": 1355,
      "Ġfemale": 1356,
      "Ġinformation": 1357,
      "Ġabdominal": 1358,
      "Ġunderst": 1359,
      "omas": 1360,
      "Ġhigher": 1361,
      "Ġer": 1362,
      "Ġstress": 1363,
      "ivers": 1364,
      "Ġtraum": 1365,
      "Ġartery": 1366,
      "ected": 1367,
      "Ġinves": 1368,
      "reb": 1369,
      "Ġspecies": 1370,
      "Ġstandard": 1371,
      "ides": 1372,
      "ef": 1373,
      "par": 1374,
      "Ġtem": 1375,
      "Ġrecog": 1376,
      "Ġdepend": 1377,
      "Ġinvestig": 1378,
      "Ġfat": 1379,
      "Ġrange": 1380,
      "Ġexten": 1381,
      "Ġestab": 1382,
      "ok": 1383,
      "pid": 1384,
      "Ġmodel": 1385,
      "Ġhyd": 1386,
      "Ġdifferenti": 1387,
      "Ġsci": 1388,
      "Ġrevealed": 1389,
      "bility": 1390,
      "ices": 1391,
      "of": 1392,
      "operative": 1393,
      "ock": 1394,
      "Ġwee": 1395,
      "Ġglob": 1396,
      "Ġstage": 1397,
      "plain": 1398,
      "Ġtypes": 1399,
      "ensi": 1400,
      "Ġisol": 1401,
      "Ġsurf": 1402,
      "Ġpoor": 1403,
      "Ġpoly": 1404,
      "ived": 1405,
      "Ġcarcinoma": 1406,
      "Ġcoronary": 1407,
      "Ġdeveloping": 1408,
      "Ġwork": 1409,
      "Ġhypertension": 1410,
      "ind": 1411,
      "Ġmut": 1412,
      "ques": 1413,
      "Ġanalysis": 1414,
      "ics": 1415,
      "tivity": 1416,
      "rem": 1417,
      "Ġoper": 1418,
      "ised": 1419,
      "omal": 1420,
      "Ġthus": 1421,
      "Ġclassi": 1422,
      "Ġpast": 1423,
      "Ġcardiac": 1424,
      "Ġexperi": 1425,
      "Ġdom": 1426,
      "Ġmac": 1427,
      "lf": 1428,
      "Ġnucle": 1429,
      "Ġstates": 1430,
      "Ġsingle": 1431,
      "Ġrelative": 1432,
      "Ġresistance": 1433,
      "line": 1434,
      "Ġoste": 1435,
      "Ġpresence": 1436,
      "led": 1437,
      "Ġrates": 1438,
      "Ġtechn": 1439,
      "Ġpulmonary": 1440,
      "ick": 1441,
      "ficiency": 1442,
      "Ġstim": 1443,
      "atures": 1444,
      "Ġidentified": 1445,
      "Ġpublic": 1446,
      "ae": 1447,
      "Ġx": 1448,
      "Ġstro": 1449,
      "eng": 1450,
      "Ġcontrib": 1451,
      "pite": 1452,
      "Ġct": 1453,
      "lected": 1454,
      "zym": 1455,
      "Ġche": 1456,
      "Ġlast": 1457,
      "romb": 1458,
      "Ġdespite": 1459,
      "Ġdna": 1460,
      "Ġhiv": 1461,
      "den": 1462,
      "ish": 1463,
      "verse": 1464,
      "rane": 1465,
      "Ġsystems": 1466,
      "ring": 1467,
      "set": 1468,
      "Ġtub": 1469,
      "Ġmat": 1470,
      "etic": 1471,
      "Ġbur": 1472,
      "atitis": 1473,
      "Ġproblem": 1474,
      "onal": 1475,
      "Ġfract": 1476,
      "Ġcri": 1477,
      "Ġrele": 1478,
      "Ġstill": 1479,
      "Ġabnormal": 1480,
      "oles": 1481,
      "Ġcap": 1482,
      "Ġmetabolic": 1483,
      "Ġlabor": 1484,
      "eutic": 1485,
      "odi": 1486,
      "amin": 1487,
      "ision": 1488,
      "Ġdev": 1489,
      "Ġinflammation": 1490,
      "Ġtreated": 1491,
      "Ġbefore": 1492,
      "Ġcontain": 1493,
      "Ġresulting": 1494,
      "Ġwidely": 1495,
      "Ġmeasure": 1496,
      "Ġcommun": 1497,
      "Ġkid": 1498,
      "Ġsystemic": 1499,
      "Ġfrequently": 1500,
      "Ġavailable": 1501,
      "omp": 1502,
      "Ġcereb": 1503,
      "Ġbehav": 1504,
      "Ġdental": 1505,
      "Ġfour": 1506,
      "Ġcm": 1507,
      "ples": 1508,
      "Ġrapid": 1509,
      "Ġpat": 1510,
      "Ġjo": 1511,
      "Ġinvolved": 1512,
      "Ġtes": 1513,
      "Ġgastro": 1514,
      "Ġinterven": 1515,
      "Ġkidne": 1516,
      "Ġnod": 1517,
      "Ġcompared": 1518,
      "oscopic": 1519,
      "ty": 1520,
      "Ġpanc": 1521,
      "ocial": 1522,
      "Ġneg": 1523,
      "Ġsugges": 1524,
      "ax": 1525,
      "Ġol": 1526,
      "ither": 1527,
      "Ġprof": 1528,
      "inary": 1529,
      "Ġill": 1530,
      "Ġmot": 1531,
      "Ġmolecular": 1532,
      "Ġent": 1533,
      "emic": 1534,
      "Ġangi": 1535,
      "Ġvit": 1536,
      "Ġchall": 1537,
      "Ġconsid": 1538,
      "Ġinstit": 1539,
      "Ġfoc": 1540,
      "Ġver": 1541,
      "Ġtissues": 1542,
      "anced": 1543,
      "Ġdifficult": 1544,
      "Ġset": 1545,
      "Ġmark": 1546,
      "itation": 1547,
      "utaneous": 1548,
      "Ġcompon": 1549,
      "ands": 1550,
      "Ġeffect": 1551,
      "rec": 1552,
      "Ġfinding": 1553,
      "Ġexc": 1554,
      "Ġbecome": 1555,
      "Ġsecondary": 1556,
      "yn": 1557,
      "read": 1558,
      "ids": 1559,
      "Ġthir": 1560,
      "ferred": 1561,
      "pe": 1562,
      "Ġunited": 1563,
      "Ġinvas": 1564,
      "iratory": 1565,
      "Ġstroke": 1566,
      "round": 1567,
      "rest": 1568,
      "ades": 1569,
      "iving": 1570,
      "Ġassociation": 1571,
      "ded": 1572,
      "Ġthromb": 1573,
      "Ġmanif": 1574,
      "Ġproblems": 1575,
      "Ġmalignant": 1576,
      "Ġii": 1577,
      "ru": 1578,
      "eding": 1579,
      "Ġmg": 1580,
      "pper": 1581,
      "Ġcomplete": 1582,
      "Ġvisual": 1583,
      "cul": 1584,
      "Ġach": 1585,
      "Ġeye": 1586,
      "Ġmid": 1587,
      "hetic": 1588,
      ".,": 1589,
      "Ġserv": 1590,
      "Ġdirect": 1591,
      "Ġpancre": 1592,
      "Ġpri": 1593,
      "Ġfood": 1594,
      "ective": 1595,
      "Ġclass": 1596,
      "olar": 1597,
      "Ġremains": 1598,
      "row": 1599,
      "Ġsuper": 1600,
      "ls": 1601,
      "Ġpositive": 1602,
      "Ġupper": 1603,
      "Ġthem": 1604,
      "erve": 1605,
      "Ġcyst": 1606,
      "Ġorigin": 1607,
      "ake": 1608,
      "Ġphen": 1609,
      "cep": 1610,
      "Ġshort": 1611,
      "Ġshould": 1612,
      "Ġdiagnostic": 1613,
      "Ġhor": 1614,
      "Ġtract": 1615,
      "iatric": 1616,
      "Ġglucose": 1617,
      "Ġprop": 1618,
      "Ġsex": 1619,
      "Ġatten": 1620,
      "Ġbiological": 1621,
      "Ġdemonstrated": 1622,
      "Ġcharacteris": 1623,
      "Ġformation": 1624,
      "Ġeither": 1625,
      "Ġenzym": 1626,
      "Ġfeatures": 1627,
      "Ġobserved": 1628,
      "Ġday": 1629,
      "Ġapplic": 1630,
      "Ġback": 1631,
      "Ġfield": 1632,
      "Ġsynt": 1633,
      "Ġlimited": 1634,
      "ras": 1635,
      "Ġpc": 1636,
      "Ġregul": 1637,
      "Ġreports": 1638,
      "ull": 1639,
      "Ġapproach": 1640,
      "inc": 1641,
      "Ġpur": 1642,
      "entric": 1643,
      "Ġrecom": 1644,
      "Ġmechanisms": 1645,
      "uk": 1646,
      "Ġdays": 1647,
      "osure": 1648,
      "inant": 1649,
      "Ġsch": 1650,
      "Ġappear": 1651,
      "function": 1652,
      "rogen": 1653,
      "Ġagents": 1654,
      "Ġprogressive": 1655,
      "log": 1656,
      "Ġhere": 1657,
      "Ġrespiratory": 1658,
      "Ġparticip": 1659,
      "fy": 1660,
      "way": 1661,
      "Ġair": 1662,
      "Ġtherapeutic": 1663,
      "Ġcd": 1664,
      "Ġbil": 1665,
      "Ġthough": 1666,
      "Ġstructure": 1667,
      "Ġke": 1668,
      "ove": 1669,
      "Ġsite": 1670,
      "anti": 1671,
      "Ġpreviously": 1672,
      "Ġpredic": 1673,
      "man": 1674,
      "Ġsimil": 1675,
      "Ġprocedure": 1676,
      "Ġparticularly": 1677,
      "iversity": 1678,
      "Ġda": 1679,
      "Ġnat": 1680,
      "Ġtechniques": 1681,
      "Ġtom": 1682,
      "rial": 1683,
      "Ġameric": 1684,
      "ator": 1685,
      "Ġgenes": 1686,
      "hy": 1687,
      "Ġsocial": 1688,
      "Ġconcer": 1689,
      "uf": 1690,
      "Ġmedi": 1691,
      "itus": 1692,
      "Ġnow": 1693,
      "Ġexpression": 1694,
      "Ġextrem": 1695,
      "Ġpracti": 1696,
      "atus": 1697,
      "Ġthyroid": 1698,
      "Ġves": 1699,
      "Ġenc": 1700,
      "struction": 1701,
      "Ġsupport": 1702,
      "Ġdamage": 1703,
      "ward": 1704,
      "Ġsa": 1705,
      "Ġrece": 1706,
      "Ġsuf": 1707,
      "Ġyoun": 1708,
      "Ġconsider": 1709,
      "Ġyoung": 1710,
      "ink": 1711,
      "Ġextrac": 1712,
      "Ġserum": 1713,
      "Ġchemical": 1714,
      "ocardi": 1715,
      "Ġarea": 1716,
      "Ġscre": 1717,
      "Ġhighly": 1718,
      "Ġinduced": 1719,
      "ross": 1720,
      "Ġdefec": 1721,
      "Ġability": 1722,
      "Ġsubjec": 1723,
      "hesis": 1724,
      "Ġproperties": 1725,
      "go": 1726,
      "Ġwater": 1727,
      "li": 1728,
      "Ġess": 1729,
      "Ġbel": 1730,
      "Ġimprove": 1731,
      "Ġkidney": 1732,
      "cri": 1733,
      "Ġanterior": 1734,
      "Ġnational": 1735,
      "Ġside": 1736,
      "Ġdeg": 1737,
      "acy": 1738,
      "Ġconsequ": 1739,
      "Ġareas": 1740,
      "artment": 1741,
      "Ġunderstand": 1742,
      "gest": 1743,
      "Ġonset": 1744,
      "Ġproduction": 1745,
      "Ġinhibit": 1746,
      "ner": 1747,
      "Ġphysi": 1748,
      "pithel": 1749,
      "Ġvariety": 1750,
      "Ġprovide": 1751,
      "Ġsurface": 1752,
      "ses": 1753,
      "Ġprogn": 1754,
      "Ġperip": 1755,
      "ogenic": 1756,
      "Ġconduc": 1757,
      "tered": 1758,
      "Ġdecades": 1759,
      "Ġgenerally": 1760,
      "Ġprocedures": 1761,
      "Ġdoc": 1762,
      "Ġcer": 1763,
      "Ġnerv": 1764,
      "Ġintro": 1765,
      "opathy": 1766,
      "Ġult": 1767,
      "Ġter": 1768,
      "utri": 1769,
      "Ġachie": 1770,
      "tid": 1771,
      "Ġaffected": 1772,
      "Ġrecogn": 1773,
      "Ġemb": 1774,
      "rosis": 1775,
      "cs": 1776,
      "Ġsour": 1777,
      "Ġtox": 1778,
      "otyp": 1779,
      "Ġintrac": 1780,
      "Ġincluded": 1781,
      "Ġprevent": 1782,
      "Ġmedicine": 1783,
      "Ġos": 1784,
      "Ġsoci": 1785,
      "ument": 1786,
      "Ġdeaths": 1787,
      "Ġcritical": 1788,
      "Ġdysfunction": 1789,
      "Ġadmin": 1790,
      "Ġtrauma": 1791,
      "Ġeth": 1792,
      "omet": 1793,
      "unctions": 1794,
      "Ġul": 1795,
      "Ġconcent": 1796,
      "Ġvol": 1797,
      "Ġplay": 1798,
      "Ġtransplant": 1799,
      "Ġelev": 1800,
      "Ġil": 1801,
      "Ġobtained": 1802,
      "Ġexperim": 1803,
      "ina": 1804,
      "Ġcurrently": 1805,
      "Ġgo": 1806,
      "ising": 1807,
      "Ġphosph": 1808,
      "Ġnegative": 1809,
      "Ġreduced": 1810,
      "Ġmag": 1811,
      "aring": 1812,
      "Ġneur": 1813,
      "Ġcolon": 1814,
      "Ġknow": 1815,
      "Ġmainly": 1816,
      "Ġfigure": 1817,
      "Ġtomography": 1818,
      "Ġcult": 1819,
      "lying": 1820,
      "Ġinterac": 1821,
      "Ġminim": 1822,
      "Ġthen": 1823,
      "ician": 1824,
      "Ġspect": 1825,
      "Ġauto": 1826,
      "Ġpregnancy": 1827,
      "Ġestablished": 1828,
      "chem": 1829,
      "Ġsens": 1830,
      "Ġmade": 1831,
      "lled": 1832,
      "ergy": 1833,
      "come": 1834,
      "Ġfree": 1835,
      "Ġallow": 1836,
      "Ġlack": 1837,
      "Ġleast": 1838,
      "intestinal": 1839,
      "Ġbenign": 1840,
      "Ġsle": 1841,
      "Ġaccoun": 1842,
      "Ġcriter": 1843,
      "Ġmanifest": 1844,
      "Ġsal": 1845,
      "Ġnerve": 1846,
      "Ġlap": 1847,
      "Ġmodi": 1848,
      "Ġsize": 1849,
      "amic": 1850,
      "Ġagain": 1851,
      "Ġdiet": 1852,
      "Ġlaboratory": 1853,
      "Ġgastrointestinal": 1854,
      "Ġorder": 1855,
      "Ġsimilar": 1856,
      "Ġtechnique": 1857,
      "Ġthird": 1858,
      "Ġder": 1859,
      "Ġstate": 1860,
      "Ġreceptor": 1861,
      "Ġcho": 1862,
      "Ġneoplas": 1863,
      "Ġsuccessful": 1864,
      "Ġic": 1865,
      "Ġever": 1866,
      "Ġpattern": 1867,
      "ule": 1868,
      "Ġbir": 1869,
      "Ġadult": 1870,
      "Ġdepartment": 1871,
      "Ġsmo": 1872,
      "Ġperipher": 1873,
      "ai": 1874,
      "mend": 1875,
      "atis": 1876,
      "pective": 1877,
      "lation": 1878,
      "Ġrepresent": 1879,
      "Ġcerv": 1880,
      "Ġeti": 1881,
      "Ġadj": 1882,
      "Ġmembrane": 1883,
      "oy": 1884,
      "och": 1885,
      "Ġprec": 1886,
      "zed": 1887,
      "Ġsensi": 1888,
      "Ġdm": 1889,
      "emi": 1890,
      "Ġspinal": 1891,
      "Ġq": 1892,
      "Ġms": 1893,
      "Ġlesion": 1894,
      "Ġinvasive": 1895,
      "Ġcriteria": 1896,
      "Ġeuro": 1897,
      "Ġpharm": 1898,
      "Ġexposure": 1899,
      "Ġgastric": 1900,
      "Ġfocus": 1901,
      "Ġessential": 1902,
      "vity": 1903,
      "Ġnan": 1904,
      "Ġresid": 1905,
      "Ġsubsequ": 1906,
      "Ġlapar": 1907,
      "ygen": 1908,
      "ones": 1909,
      "Ġann": 1910,
      "Ġcomplain": 1911,
      "Ġroot": 1912,
      "ficient": 1913,
      "ores": 1914,
      "Ġmes": 1915,
      "Ġline": 1916,
      "Ġcellular": 1917,
      "Ġsamples": 1918,
      "Ġstimul": 1919,
      "Ġepithel": 1920,
      "Ġhydro": 1921,
      "Ġlo": 1922,
      "Ġagg": 1923,
      "Ġtradition": 1924,
      "comes": 1925,
      "Ġevaluation": 1926,
      "Ġcop": 1927,
      "Ġcall": 1928,
      "ann": 1929,
      "Ġdiss": 1930,
      "Ġoutcomes": 1931,
      "aly": 1932,
      "Ġmell": 1933,
      "Ġseen": 1934,
      "Ġsubst": 1935,
      "Ġpossible": 1936,
      "Ġchemotherapy": 1937,
      "Ġfindings": 1938,
      "Ġeurope": 1939,
      "Ġmel": 1940,
      "old": 1941,
      "Ġgly": 1942,
      "Ġcancers": 1943,
      "ectomy": 1944,
      "Ġfollowed": 1945,
      "Ġsites": 1946,
      "Ġuniversity": 1947,
      "Ġprocesses": 1948,
      "met": 1949,
      "Ġdim": 1950,
      "Ġiss": 1951,
      "ame": 1952,
      "Ġchrom": 1953,
      "Ġrequire": 1954,
      "Ġrelatively": 1955,
      "orrh": 1956,
      "Ġpreven": 1957,
      "Ġpractice": 1958,
      "Ġagainst": 1959,
      "erous": 1960,
      "Ġsignal": 1961,
      "Ġwall": 1962,
      "Ġbas": 1963,
      "Ġfever": 1964,
      "Ġdesign": 1965,
      "Ġhumans": 1966,
      "Ġexample": 1967,
      "Ġmellitus": 1968,
      "hip": 1969,
      "mia": 1970,
      "Ġlig": 1971,
      "Ġwoman": 1972,
      "let": 1973,
      "Ġpolym": 1974,
      "Ġteeth": 1975,
      "Ġenvironmental": 1976,
      "last": 1977,
      "Ġcog": 1978,
      "Ġble": 1979,
      "lement": 1980,
      "Ġventric": 1981,
      "Ġrat": 1982,
      "Ġanimal": 1983,
      "Ġhormon": 1984,
      "Ġhand": 1985,
      "ided": 1986,
      "olution": 1987,
      "Ġadverse": 1988,
      "lex": 1989,
      "Ġtooth": 1990,
      "Ġischem": 1991,
      "ols": 1992,
      "Ġneurolog": 1993,
      "Ġsame": 1994,
      "onomic": 1995,
      "Ġact": 1996,
      "Ġserious": 1997,
      "Ġperipheral": 1998,
      "ways": 1999,
      "ret": 2000,
      "Ġcour": 2001,
      "Ġneck": 2002,
      "Ġchest": 2003,
      "Ġnatural": 2004,
      "ension": 2005,
      "Ġrecommend": 2006,
      "ritis": 2007,
      "Ġimplant": 2008,
      "Ġbehavior": 2009,
      "Ġprior": 2010,
      "pos": 2011,
      "vant": 2012,
      "Ġreferred": 2013,
      "Ġmoder": 2014,
      "Ġgroups": 2015,
      "Ġaround": 2016,
      "Ġequ": 2017,
      "olism": 2018,
      "Ġvia": 2019,
      "Ġactive": 2020,
      "Ġaden": 2021,
      "Ġincreases": 2022,
      "Ġprostate": 2023,
      "Ġdepression": 2024,
      "Ġresponsible": 2025,
      "Ġov": 2026,
      "Ġweeks": 2027,
      ",,": 2028,
      "arily": 2029,
      "Ġposterior": 2030,
      "Ġstructures": 2031,
      "iting": 2032,
      "Ġear": 2033,
      "Ġstatus": 2034,
      "Ġself": 2035,
      "Ġleads": 2036,
      "Ġactivities": 2037,
      "ledge": 2038,
      "Ġsuggested": 2039,
      "Ġreas": 2040,
      "Ġconven": 2041,
      "illary": 2042,
      "Ġimpact": 2043,
      "Ġoutcome": 2044,
      "Ġpep": 2045,
      "ode": 2046,
      "abil": 2047,
      "Ġaccum": 2048,
      "Ġtypically": 2049,
      "ressed": 2050,
      "Ġbenef": 2051,
      "Ġinteg": 2052,
      "Ġdecreased": 2053,
      "ocytes": 2054,
      "Ġstrate": 2055,
      "Ġsoft": 2056,
      "Ġcogni": 2057,
      "Ġstrateg": 2058,
      "Ġgiv": 2059,
      "Ġconfir": 2060,
      "Ġreduce": 2061,
      "xt": 2062,
      "Ġped": 2063,
      "ellular": 2064,
      "ensity": 2065,
      "acement": 2066,
      "Ġhemat": 2067,
      "Ġglobal": 2068,
      "Ġattention": 2069,
      "Ġknowledge": 2070,
      "Ġenergy": 2071,
      "Ġinvolvement": 2072,
      "Ġinitial": 2073,
      "overy": 2074,
      "Ġemergency": 2075,
      "Ġconducted": 2076,
      "tide": 2077,
      "atin": 2078,
      "Ġfunctions": 2079,
      "omes": 2080,
      "Ġaffects": 2081,
      "Ġcontinu": 2082,
      "Ġnervous": 2083,
      "Ġhel": 2084,
      "Ġalong": 2085,
      "Ġprogression": 2086,
      "Ġelder": 2087,
      "Ġvac": 2088,
      "Ġheter": 2089,
      "elling": 2090,
      "Ġmajority": 2091,
      "Ġaffect": 2092,
      "Ġdeliver": 2093,
      "Ġcervical": 2094,
      "rine": 2095,
      "Ġimpair": 2096,
      "Ġprognosis": 2097,
      "Ġenh": 2098,
      "Ġadvanced": 2099,
      "Ġmotor": 2100,
      "Ġchallen": 2101,
      "ensive": 2102,
      "Ġanat": 2103,
      "utes": 2104,
      "Ġevents": 2105,
      "mic": 2106,
      "rast": 2107,
      "Ġcarb": 2108,
      "apan": 2109,
      "Ġindia": 2110,
      "Ġcalc": 2111,
      "rs": 2112,
      "Ġnutri": 2113,
      "Ġstrain": 2114,
      "Ġextensive": 2115,
      "Ġultras": 2116,
      "ably": 2117,
      "Ġelderly": 2118,
      "Ġmar": 2119,
      "Ġvaria": 2120,
      "Ġsurve": 2121,
      "Ġtranscri": 2122,
      "fort": 2123,
      "Ġps": 2124,
      "Ġarth": 2125,
      "Ġoxygen": 2126,
      "Ġrestor": 2127,
      "odies": 2128,
      "Ġven": 2129,
      "Ġconsum": 2130,
      "Ġhealthy": 2131,
      "Ġillness": 2132,
      "Ġtoxic": 2133,
      "Ġsl": 2134,
      "ord": 2135,
      "Ġcongen": 2136,
      "elv": 2137,
      "Ġforms": 2138,
      "Ġregions": 2139,
      "Ġselec": 2140,
      "ologies": 2141,
      "ographic": 2142,
      "Ġanimals": 2143,
      "Ġmaterials": 2144,
      "ulations": 2145,
      "umb": 2146,
      "Ġrelations": 2147,
      "Ġauth": 2148,
      "Ġfrequent": 2149,
      "Ġkey": 2150,
      "tial": 2151,
      "Ġmental": 2152,
      "outh": 2153,
      "Ġtak": 2154,
      "Ġphase": 2155,
      "Ġorganization": 2156,
      "Ġcombination": 2157,
      "Ġcourse": 2158,
      "Ġcost": 2159,
      "itted": 2160,
      "Ġresection": 2161,
      "Ġaffecting": 2162,
      "Ġurinary": 2163,
      "Ġprolif": 2164,
      "Ġbirth": 2165,
      "reg": 2166,
      "Ġcv": 2167,
      "neum": 2168,
      "Ġimportance": 2169,
      "Ġrecognized": 2170,
      "aw": 2171,
      "Ġtb": 2172,
      "Ġexerc": 2173,
      "Ġphot": 2174,
      "Ġguide": 2175,
      "Ġcharacteristics": 2176,
      "fusion": 2177,
      "Ġaim": 2178,
      "Ġmig": 2179,
      "Ġbinding": 2180,
      "rag": 2181,
      "plas": 2182,
      "phal": 2183,
      "Ġcenter": 2184,
      "Ġoxid": 2185,
      "Ġbacterial": 2186,
      "Ġreduction": 2187,
      "lys": 2188,
      "Ġbiom": 2189,
      "Ġsleep": 2190,
      "Ġprevention": 2191,
      "Ġdose": 2192,
      "immun": 2193,
      "other": 2194,
      "Ġrna": 2195,
      "Ġaltern": 2196,
      "Ġdocument": 2197,
      "Ġcalled": 2198,
      "Ġcognitive": 2199,
      "io": 2200,
      "emb": 2201,
      "Ġmaintain": 2202,
      "Ġlocated": 2203,
      "Ġnecess": 2204,
      "Ġhepatitis": 2205,
      "Ġisolated": 2206,
      "ense": 2207,
      "Ġactivation": 2208,
      "Ġrequired": 2209,
      "Ġcerebral": 2210,
      "Ġjoint": 2211,
      "Ġunderstanding": 2212,
      "Ġevery": 2213,
      "Ġrelationship": 2214,
      "ites": 2215,
      "Ġlater": 2216,
      "cler": 2217,
      "Ġsignificantly": 2218,
      "Ġradiation": 2219,
      "Ġhemorrh": 2220,
      "Ġdependent": 2221,
      "Ġolder": 2222,
      "Ġnet": 2223,
      "Ġnumerous": 2224,
      "medi": 2225,
      "Ġsubjects": 2226,
      "Ġgiven": 2227,
      "Ġcongenital": 2228,
      "most": 2229,
      "Ġcos": 2230,
      "Ġhc": 2231,
      "Ġhost": 2232,
      "odon": 2233,
      "Ġrecurrent": 2234,
      "Ġproducts": 2235,
      "Ġcomplication": 2236,
      "Ġcirc": 2237,
      "Ġtend": 2238,
      "itary": 2239,
      "Ġfil": 2240,
      "Ġreduc": 2241,
      "Ġlink": 2242,
      "riate": 2243,
      "Ġinfected": 2244,
      "Ġunderlying": 2245,
      "ours": 2246,
      "Ġremov": 2247,
      "Ġax": 2248,
      "cell": 2249,
      "ters": 2250,
      "adder": 2251,
      "izing": 2252,
      "ranial": 2253,
      "Ġafric": 2254,
      "enced": 2255,
      "cles": 2256,
      "Ġadmitted": 2257,
      "Ġelevated": 2258,
      "Ġod": 2259,
      "Ġpneum": 2260,
      "Ġcompound": 2261,
      "isting": 2262,
      "kele": 2263,
      "roscop": 2264,
      "Ġreceptors": 2265,
      "atal": 2266,
      "Ġhal": 2267,
      "Ġkg": 2268,
      "Ġesoph": 2269,
      "Ġopen": 2270,
      "Ġgrowing": 2271,
      "bs": 2272,
      "less": 2273,
      "Ġpd": 2274,
      "Ġeas": 2275,
      "Ġkin": 2276,
      "rong": 2277,
      "Ġmean": 2278,
      "othel": 2279,
      "Ġdaily": 2280,
      "keletal": 2281,
      "Ġbro": 2282,
      "Ġliving": 2283,
      "Ġidentify": 2284,
      "Ġabsence": 2285,
      "Ġtur": 2286,
      "Ġclinically": 2287,
      "Ġvesse": 2288,
      "az": 2289,
      "itor": 2290,
      "urys": 2291,
      "Ġadhe": 2292,
      "Ġjapan": 2293,
      "netic": 2294,
      "Ġbleeding": 2295,
      "hood": 2296,
      "more": 2297,
      "Ġdiver": 2298,
      "Ġhome": 2299,
      "opro": 2300,
      "Ġleuk": 2301,
      "Ġaged": 2302,
      "Ġstudied": 2303,
      "Ġpathogenesis": 2304,
      "Ġadminist": 2305,
      "fl": 2306,
      "Ġpal": 2307,
      "Ġbar": 2308,
      "Ġgenome": 2309,
      "Ġsecre": 2310,
      "Ġelectro": 2311,
      "Ġfluid": 2312,
      "ament": 2313,
      "ending": 2314,
      "rob": 2315,
      "Ġlight": 2316,
      "Ġinterest": 2317,
      "coh": 2318,
      "Ġbase": 2319,
      "Ġkore": 2320,
      "Ġplasma": 2321,
      "Ġexperience": 2322,
      "osomal": 2323,
      "Ġcomputed": 2324,
      "Ġundergo": 2325,
      "Ġposition": 2326,
      "Ġmyocardi": 2327,
      "Ġimproved": 2328,
      "Ġinjuries": 2329,
      "Ġmolecules": 2330,
      "ino": 2331,
      "Ġdiv": 2332,
      "itone": 2333,
      "Ġbm": 2334,
      "Ġprob": 2335,
      "Ġusa": 2336,
      "Ġinvolving": 2337,
      "Ġabnormalities": 2338,
      "Ġautoimmun": 2339,
      "Ġintern": 2340,
      "Ġaccess": 2341,
      "Ġmoreover": 2342,
      "Ġdistrib": 2343,
      "Ġmorph": 2344,
      "Ġbacteria": 2345,
      "wor": 2346,
      "Ġpelv": 2347,
      "ession": 2348,
      "Ġrepl": 2349,
      "ema": 2350,
      "Ġeng": 2351,
      "Ġplac": 2352,
      "aps": 2353,
      "Ġpresentation": 2354,
      "ogene": 2355,
      "Ġapproved": 2356,
      "ling": 2357,
      "Ġtemper": 2358,
      "Ġclassified": 2359,
      "ci": 2360,
      "ible": 2361,
      "rel": 2362,
      "Ġster": 2363,
      "ured": 2364,
      "Ġathe": 2365,
      "Ġcontrast": 2366,
      "Ġtransm": 2367,
      "Ġcur": 2368,
      "Ġml": 2369,
      "Ġnas": 2370,
      "Ġvas": 2371,
      "Ġadoles": 2372,
      "istent": 2373,
      "Ġantigen": 2374,
      "Ġdetection": 2375,
      "Ġure": 2376,
      "rad": 2377,
      "Ġsubt": 2378,
      "ancies": 2379,
      "Ġprimarily": 2380,
      "Ġfurthermore": 2381,
      "Ġscienti": 2382,
      "Ġmelan": 2383,
      "orn": 2384,
      "Ġderm": 2385,
      "Ġneph": 2386,
      "Ġrespective": 2387,
      "Ġcoll": 2388,
      "Ġpostoperative": 2389,
      "Ġgreater": 2390,
      "Ġassessment": 2391,
      "Ġepidemi": 2392,
      "Ġbest": 2393,
      "omat": 2394,
      "entially": 2395,
      "Ġapprop": 2396,
      "Ġdescribe": 2397,
      "Ġphysiological": 2398,
      "Ġconventional": 2399,
      "Ġtop": 2400,
      "aryn": 2401,
      "Ġincludes": 2402,
      "Ġartic": 2403,
      "Ġdiabetic": 2404,
      "Ġpublished": 2405,
      "Ġscreening": 2406,
      "tious": 2407,
      "Ġanest": 2408,
      "ators": 2409,
      "Ġstem": 2410,
      "Ġstructural": 2411,
      "Ġsk": 2412,
      "Ġorth": 2413,
      "Ġcs": 2414,
      "ales": 2415,
      "Ġrad": 2416,
      "kines": 2417,
      "ortic": 2418,
      "Ġdent": 2419,
      "Ġmri": 2420,
      "ocrine": 2421,
      "Ġcompr": 2422,
      "Ġrecur": 2423,
      "Ġaccur": 2424,
      "Ġburden": 2425,
      "arding": 2426,
      "aches": 2427,
      "Ġspecial": 2428,
      "Ġendothel": 2429,
      "Ġdomain": 2430,
      "ject": 2431,
      "Ġtrac": 2432,
      "Ġpen": 2433,
      "Ġwould": 2434,
      "Ġfive": 2435,
      "ication": 2436,
      "Ġgood": 2437,
      "Ġstrong": 2438,
      "ficial": 2439,
      "Ġcorne": 2440,
      "Ġrepe": 2441,
      "Ġsuggest": 2442,
      "Ġservices": 2443,
      "Ġmagnetic": 2444,
      "ilic": 2445,
      "Ġalmost": 2446,
      "Ġparas": 2447,
      "Ġcollected": 2448,
      "oids": 2449,
      "Ġdefin": 2450,
      "Ġperiodon": 2451,
      "Ġfamil": 2452,
      "Ġdelivery": 2453,
      "enz": 2454,
      "Ġmucos": 2455,
      "Ġpharmac": 2456,
      "ca": 2457,
      "get": 2458,
      "organ": 2459,
      "Ġconn": 2460,
      "Ġrand": 2461,
      "Ġbetter": 2462,
      "Ġcertain": 2463,
      "ises": 2464,
      "Ġane": 2465,
      "Ġflow": 2466,
      "Ġoverall": 2467,
      "Ġrepair": 2468,
      "Ġmechanism": 2469,
      "oscopy": 2470,
      "Ġlaparoscopic": 2471,
      "Ġventricular": 2472,
      "Ġmit": 2473,
      "Ġbo": 2474,
      "Ġfar": 2475,
      "Ġthor": 2476,
      "urb": 2477,
      "Ġdeficiency": 2478,
      "Ġuncom": 2479,
      "Ġtransi": 2480,
      "Ġmalaria": 2481,
      "Ġoptim": 2482,
      "Ġutil": 2483,
      "Ġsetting": 2484,
      "dle": 2485,
      "Ġduc": 2486,
      "thal": 2487,
      "Ġseg": 2488,
      "kn": 2489,
      "Ġbal": 2490,
      "ored": 2491,
      "Ġcompos": 2492,
      "Ġanaly": 2493,
      "Ġclear": 2494,
      "icians": 2495,
      "Ġste": 2496,
      "Ġvar": 2497,
      "Ġpancreatic": 2498,
      "val": 2499,
      "onia": 2500,
      "Ġsix": 2501,
      "Ġpor": 2502,
      "Ġana": 2503,
      "Ġeg": 2504,
      "Ġweak": 2505,
      "Ġneurop": 2506,
      "Ġtranscription": 2507,
      "Ġgran": 2508,
      "Ġspont": 2509,
      "Ġorgans": 2510,
      "Ġmuch": 2511,
      "Ġautoimmune": 2512,
      "ole": 2513,
      "teb": 2514,
      "Ġmechanical": 2515,
      "Ġspontaneous": 2516,
      "fs": 2517,
      "iasis": 2518,
      "son": 2519,
      "tle": 2520,
      "Ġlay": 2521,
      "Ġcausing": 2522,
      "Ġconstit": 2523,
      "Ġinvolves": 2524,
      "Ġmutations": 2525,
      "Ġamerican": 2526,
      "Ġadministration": 2527,
      "Ġrandom": 2528,
      "Ġaneurys": 2529,
      "ula": 2530,
      "urg": 2531,
      "Ġalter": 2532,
      "Ġuni": 2533,
      "athy": 2534,
      "Ġobstruction": 2535,
      "Ġinfectious": 2536,
      "Ġrepro": 2537,
      "Ġviral": 2538,
      "Ġgrade": 2539,
      "Ġcomponents": 2540,
      "lines": 2541,
      "Ġfund": 2542,
      "Ġacqui": 2543,
      "Ġtreatments": 2544,
      "Ġeffic": 2545,
      "Ġlymphoma": 2546,
      "Ġmetastatic": 2547,
      "Ġfracture": 2548,
      "Ġbr": 2549,
      "opsy": 2550,
      "Ġcavity": 2551,
      "Ġclose": 2552,
      "ogenesis": 2553,
      "hesia": 2554,
      "Ġmicrob": 2555,
      "Ġintervention": 2556,
      "Ġextreme": 2557,
      "Ġulcer": 2558,
      "Ġanother": 2559,
      "ilt": 2560,
      "Ġiran": 2561,
      "Ġappropriate": 2562,
      "Ġig": 2563,
      "onic": 2564,
      "quate": 2565,
      "Ġcanal": 2566,
      "Ġregard": 2567,
      "Ġduration": 2568,
      "angi": 2569,
      "Ġprogram": 2570,
      "rophy": 2571,
      "Ġbilateral": 2572,
      "Ġpt": 2573,
      "Ġpap": 2574,
      "Ġaspec": 2575,
      "epend": 2576,
      "Ġreaction": 2577,
      "Ġfractures": 2578,
      "Ġconcern": 2579,
      "okines": 2580,
      "Ġery": 2581,
      "Ġfo": 2582,
      "Ġthreat": 2583,
      "ochem": 2584,
      "verage": 2585,
      "Ġtimes": 2586,
      "Ġsitu": 2587,
      "oral": 2588,
      "Ġsee": 2589,
      "plied": 2590,
      "Ġmediated": 2591,
      "Ġneurological": 2592,
      "Ġexercise": 2593,
      "Ġunique": 2594,
      "put": 2595,
      "ints": 2596,
      "ene": 2597,
      "isted": 2598,
      "Ġled": 2599,
      "Ġstar": 2600,
      "Ġwhite": 2601,
      "Ġreson": 2602,
      "ystic": 2603,
      "Ġregarding": 2604,
      "roscler": 2605,
      "Ġmetastasis": 2606,
      "Ġtrials": 2607,
      "Ġmiddle": 2608,
      "Ġparticipants": 2609,
      "Ġpediatric": 2610,
      "rum": 2611,
      "Ġiv": 2612,
      "Ġnor": 2613,
      "Ġlas": 2614,
      "Ġindex": 2615,
      "Ġcontrolled": 2616,
      "Ġepithelial": 2617,
      "Ġhalf": 2618,
      "Ġten": 2619,
      "Ġpol": 2620,
      "Ġstren": 2621,
      "Ġalcoh": 2622,
      "Ġscler": 2623,
      "Ġpresenting": 2624,
      "Ġretinal": 2625,
      "lish": 2626,
      "Ġprovided": 2627,
      "Ġvolum": 2628,
      "Ġtraditional": 2629,
      "cutaneous": 2630,
      "estern": 2631,
      "Ġmr": 2632,
      "Ġpla": 2633,
      "Ġinternal": 2634,
      "Ġprevalent": 2635,
      "Ġmyel": 2636,
      "Ġdelay": 2637,
      "Ġrespectively": 2638,
      "Ġuncommon": 2639,
      "Ġresonance": 2640,
      "Ġmix": 2641,
      "ouse": 2642,
      "Ġadd": 2643,
      "Ġkne": 2644,
      "aged": 2645,
      "Ġoccurring": 2646,
      "Ġmice": 2647,
      "Ġfrequency": 2648,
      "Ġsupplement": 2649,
      "Ġcomponent": 2650,
      "Ġderived": 2651,
      "Ġtable": 2652,
      "ified": 2653,
      "Ġunderw": 2654,
      "Ġperformance": 2655,
      "Ġswelling": 2656,
      "Ġlate": 2657,
      "ident": 2658,
      "Ġrout": 2659,
      "anging": 2660,
      "Ġtrig": 2661,
      "Ġrarely": 2662,
      "Ġenter": 2663,
      "Ġatheroscler": 2664,
      "Ġstreng": 2665,
      "lusion": 2666,
      "uble": 2667,
      "Ġfin": 2668,
      "Ġfast": 2669,
      "Ġfix": 2670,
      "Ġdisability": 2671,
      "Ġyet": 2672,
      "Ġcompar": 2673,
      "Ġaging": 2674,
      "Ġextra": 2675,
      "Ġhepat": 2676,
      "Ġcontaining": 2677,
      "Ġproposed": 2678,
      "Ġsuffer": 2679,
      "pose": 2680,
      "Ġmas": 2681,
      "odes": 2682,
      "Ġchange": 2683,
      "encing": 2684,
      "Ġtests": 2685,
      "Ġunderwent": 2686,
      "Ġroutine": 2687,
      "uter": 2688,
      "ison": 2689,
      "Ġfet": 2690,
      "Ġtoward": 2691,
      "Ġexpl": 2692,
      "Ġpathological": 2693,
      "Ġchildhood": 2694,
      "Ġresponses": 2695,
      "Ġthought": 2696,
      "Ġtransplantation": 2697,
      "Ġinternational": 2698,
      "Ġhom": 2699,
      "Ġnature": 2700,
      "Ġlateral": 2701,
      "Ġsigns": 2702,
      "Ġprogress": 2703,
      "Ġprotoc": 2704,
      "ength": 2705,
      "Ġsource": 2706,
      "lob": 2707,
      "ulated": 2708,
      "Ġindepend": 2709,
      "oxic": 2710,
      "Ġmuscles": 2711,
      "Ġlikely": 2712,
      "for": 2713,
      "inct": 2714,
      "Ġcross": 2715,
      "Ġpig": 2716,
      "Ġhb": 2717,
      "occ": 2718,
      "Ġconserv": 2719,
      "Ġclinic": 2720,
      "Ġbladder": 2721,
      "Ġincreasingly": 2722,
      "ercul": 2723,
      "Ġtechnology": 2724,
      "aired": 2725,
      "Ġmyocardial": 2726,
      "Ġow": 2727,
      "Ġdri": 2728,
      "Ġdeb": 2729,
      "hers": 2730,
      "Ġmovement": 2731,
      "Ġmalignancy": 2732,
      "hyd": 2733,
      "Ġimpairment": 2734,
      "Ġalternative": 2735,
      "known": 2736,
      "Ġefficacy": 2737,
      "tor": 2738,
      "Ġunknown": 2739,
      "Ġevent": 2740,
      "Ġcathe": 2741,
      "Ġinfluenz": 2742,
      "Ġrepresents": 2743,
      "Ġetiology": 2744,
      "Ġanomal": 2745,
      "Ġdil": 2746,
      "Ġplan": 2747,
      "ronch": 2748,
      "Ġmonitor": 2749,
      "Ġepis": 2750,
      "ria": 2751,
      "Ġtrain": 2752,
      "Ġcre": 2753,
      "Ġsaf": 2754,
      "Ġgi": 2755,
      "ternal": 2756,
      "ageal": 2757,
      "Ġgland": 2758,
      "Ġfacil": 2759,
      "Ġmodels": 2760,
      "Ġsmoking": 2761,
      "Ġaccumulation": 2762,
      "Ġconfirmed": 2763,
      "Ġadolesc": 2764,
      "ger": 2765,
      "Ġdegen": 2766,
      "ference": 2767,
      "arian": 2768,
      "Ġoccurrence": 2769,
      "Ġwhereas": 2770,
      "Ġbelie": 2771,
      "land": 2772,
      "oster": 2773,
      "uring": 2774,
      "Ġconst": 2775,
      "amp": 2776,
      "Ġpercent": 2777,
      "rans": 2778,
      "Ġintensive": 2779,
      "Ġparam": 2780,
      "Ġattrib": 2781,
      "Ġinstitution": 2782,
      "Ġsynthesis": 2783,
      "Ġdefects": 2784,
      "Ġinteractions": 2785,
      "Ġproliferation": 2786,
      "Ġbroad": 2787,
      "Ġendothelial": 2788,
      "Ġwestern": 2789,
      "Ġspine": 2790,
      "Ġcycl": 2791,
      "Ġinitially": 2792,
      "Ġsequence": 2793,
      "Ġapplications": 2794,
      "Ġacquired": 2795,
      "rin": 2796,
      "yt": 2797,
      "erior": 2798,
      "Ġdon": 2799,
      "Ġuntil": 2800,
      "Ġplays": 2801,
      "Ġdiff": 2802,
      "Ġregulation": 2803,
      "Ġseries": 2804,
      "Ġdistinct": 2805,
      "Ġadvances": 2806,
      "Ġhepatic": 2807,
      "Ġresistant": 2808,
      "Ġpromot": 2809,
      "Ġprolong": 2810,
      "Ġmanifestations": 2811,
      "Ġcompounds": 2812,
      "Ġslow": 2813,
      "Ġinst": 2814,
      "Ġprote": 2815,
      "Ġvag": 2816,
      "Ġpopulations": 2817,
      "Ġretro": 2818,
      "Ġadvant": 2819,
      "Ġcommunity": 2820,
      "itoneal": 2821,
      "Ġmild": 2822,
      "Ġbow": 2823,
      "omen": 2824,
      "acity": 2825,
      "Ġhaving": 2826,
      "Ġpredom": 2827,
      "Ġmax": 2828,
      "Ġreactions": 2829,
      "Ġintroduced": 2830,
      "rhe": 2831,
      "Ġmamm": 2832,
      "Ġfung": 2833,
      "uria": 2834,
      "Ġspe": 2835,
      "Ġques": 2836,
      "Ġseverity": 2837,
      "Ġmust": 2838,
      "Ġrequires": 2839,
      "Ġdifferentiation": 2840,
      "Ġsubsequent": 2841,
      "Ġguidelines": 2842,
      "nas": 2843,
      "Ġocular": 2844,
      "Ġple": 2845,
      "Ġstep": 2846,
      "Ġneu": 2847,
      "Ġdecade": 2848,
      "Ġapproaches": 2849,
      "Ġdisturb": 2850,
      "Ġsimple": 2851,
      "Ġdecrease": 2852,
      "Ġprovides": 2853,
      "Ġterms": 2854,
      "Ġhemorrhage": 2855,
      "Ġtemperature": 2856,
      "care": 2857,
      "gor": 2858,
      "Ġgerm": 2859,
      "Ġadren": 2860,
      "Ġintestinal": 2861,
      "raction": 2862,
      "Ġnovel": 2863,
      "Ġvision": 2864,
      "Ġsample": 2865,
      "Ġtubercul": 2866,
      "Ġreceived": 2867,
      "Ġsociety": 2868,
      "bular": 2869,
      "Ġmetal": 2870,
      "Ġmake": 2871,
      "Ġimpaired": 2872,
      "ocyte": 2873,
      "Ġdementi": 2874,
      "Ġenzyme": 2875,
      "Ġaccounts": 2876,
      "Ġrecurrence": 2877,
      "Ġinfluenza": 2878,
      "Ġsafety": 2879,
      "ire": 2880,
      "Ġantic": 2881,
      "Ġdyn": 2882,
      "Ġlat": 2883,
      "ache": 2884,
      "Ġga": 2885,
      "Ġbeg": 2886,
      "Ġspace": 2887,
      "Ġshap": 2888,
      "Ġweek": 2889,
      "Ġhormone": 2890,
      "odontic": 2891,
      "osin": 2892,
      "ception": 2893,
      "Ġagent": 2894,
      "Ġthroughout": 2895,
      "Ġclassification": 2896,
      "Ġrapidly": 2897,
      "Ġdocumented": 2898,
      "Ġoct": 2899,
      "Ġdid": 2900,
      "Ġfall": 2901,
      "Ġnit": 2902,
      "ury": 2903,
      "Ġexternal": 2904,
      "ploy": 2905,
      "Ġidentification": 2906,
      "Ġphenomen": 2907,
      "Ġdegree": 2908,
      "Ġsignaling": 2909,
      "Ġultrasound": 2910,
      "Ġnecessary": 2911,
      "Ġkorea": 2912,
      "Ġbowel": 2913,
      "Ġide": 2914,
      "Ġcoun": 2915,
      "Ġcutaneous": 2916,
      "Ġpros": 2917,
      "Ġsepar": 2918,
      "Ġleg": 2919,
      "Ġpotentially": 2920,
      "Ġpsychological": 2921,
      "Ġmetastases": 2922,
      "Ġenzymes": 2923,
      "Ġchallenge": 2924,
      "Ġauthors": 2925,
      "Ġdementia": 2926,
      "ii": 2927,
      "pati": 2928,
      "Ġcommit": 2929,
      "istry": 2930,
      "Ġrecor": 2931,
      "Ġcontact": 2932,
      "Ġscale": 2933,
      "Ġaccount": 2934,
      "Ġwhether": 2935,
      "Ġpossi": 2936,
      "Ġdetected": 2937,
      "Ġuter": 2938,
      "Ġmetabolism": 2939,
      "Ġverteb": 2940,
      "Ġstrength": 2941,
      "bal": 2942,
      "duce": 2943,
      "amine": 2944,
      "Ġhealthcare": 2945,
      "Ġcollec": 2946,
      "Ġapplied": 2947,
      "Ġarterial": 2948,
      "Ġpersons": 2949,
      "Ġadditional": 2950,
      "Ġdetermine": 2951,
      "Ġeconomic": 2952,
      "Ġconcentration": 2953,
      "Ġaggressive": 2954,
      "lor": 2955,
      "upt": 2956,
      "ymptom": 2957,
      "ining": 2958,
      "Ġmight": 2959,
      "uss": 2960,
      "osome": 2961,
      "oglob": 2962,
      "Ġhistological": 2963,
      "Ġproduced": 2964,
      "Ġinfluence": 2965,
      "Ġdevices": 2966,
      "Ġstrategies": 2967,
      "Ġvenous": 2968,
      "Ġknee": 2969,
      "Ġaortic": 2970,
      "Ġpy": 2971,
      "Ġbasis": 2972,
      "Ġresour": 2973,
      "Ġplate": 2974,
      "Ġamount": 2975,
      "Ġdoes": 2976,
      "Ġattem": 2977,
      "Ġrelease": 2978,
      "Ġapplication": 2979,
      "Ġachieve": 2980,
      "Ġsensitivity": 2981,
      "Ġsubtyp": 2982,
      "ient": 2983,
      "loc": 2984,
      "me": 2985,
      "oz": 2986,
      "ture": 2987,
      "Ġpow": 2988,
      "orph": 2989,
      "Ġge": 2990,
      "Ġview": 2991,
      "Ġnearly": 2992,
      "Ġscan": 2993,
      "Ġindust": 2994,
      "Ġovarian": 2995,
      "Ġhelp": 2996,
      "Ġtransmission": 2997,
      "Ġscientific": 2998,
      "ymptomatic": 2999
    },
    "merges": [
      [
        "Ġ",
        "a"
      ],
      [
        "Ġ",
        "t"
      ],
      [
        "i",
        "n"
      ],
      [
        "r",
        "e"
      ],
      [
        "h",
        "e"
      ],
      [
        "o",
        "n"
      ],
      [
        "t",
        "i"
      ],
      [
        "Ġ",
        "o"
      ],
      [
        "e",
        "n"
      ],
      [
        "Ġ",
        "c"
      ],
      [
        "Ġ",
        "s"
      ],
      [
        "Ġ",
        ","
      ],
      [
        "a",
        "l"
      ],
      [
        "Ġt",
        "he"
      ],
      [
        "e",
        "r"
      ],
      [
        "Ġ",
        "p"
      ],
      [
        "Ġ",
        "in"
      ],
      [
        "i",
        "s"
      ],
      [
        "Ġa",
        "n"
      ],
      [
        "e",
        "d"
      ],
      [
        "e",
        "s"
      ],
      [
        "Ġo",
        "f"
      ],
      [
        "o",
        "r"
      ],
      [
        "Ġ",
        "d"
      ],
      [
        "Ġ",
        "m"
      ],
      [
        "a",
        "t"
      ],
      [
        "a",
        "n"
      ],
      [
        "Ġ",
        "."
      ],
      [
        "i",
        "t"
      ],
      [
        "Ġ",
        "w"
      ],
      [
        "Ġ",
        "b"
      ],
      [
        "Ġ",
        "f"
      ],
      [
        "i",
        "c"
      ],
      [
        "a",
        "r"
      ],
      [
        "a",
        "s"
      ],
      [
        "Ġan",
        "d"
      ],
      [
        "r",
        "o"
      ],
      [
        "ti",
        "on"
      ],
      [
        "en",
        "t"
      ],
      [
        "in",
        "g"
      ],
      [
        "Ġ",
        "re"
      ],
      [
        "Ġ",
        "h"
      ],
      [
        "l",
        "e"
      ],
      [
        "Ġ",
        "e"
      ],
      [
        "o",
        "m"
      ],
      [
        "Ġt",
        "o"
      ],
      [
        "u",
        "s"
      ],
      [
        "v",
        "e"
      ],
      [
        "l",
        "y"
      ],
      [
        "o",
        "s"
      ],
      [
        "a",
        "tion"
      ],
      [
        "Ġ",
        "n"
      ],
      [
        "u",
        "l"
      ],
      [
        "e",
        "c"
      ],
      [
        "Ġ",
        "l"
      ],
      [
        "a",
        "c"
      ],
      [
        "Ġ",
        "is"
      ],
      [
        "i",
        "d"
      ],
      [
        "Ġt",
        "h"
      ],
      [
        "u",
        "r"
      ],
      [
        "u",
        "n"
      ],
      [
        "o",
        "l"
      ],
      [
        "Ġ",
        "g"
      ],
      [
        "i",
        "m"
      ],
      [
        "it",
        "h"
      ],
      [
        "Ġw",
        "ith"
      ],
      [
        "r",
        "a"
      ],
      [
        "e",
        "t"
      ],
      [
        "Ġa",
        "s"
      ],
      [
        "c",
        "e"
      ],
      [
        "l",
        "l"
      ],
      [
        "a",
        "ti"
      ],
      [
        "Ġp",
        "ro"
      ],
      [
        "Ġf",
        "or"
      ],
      [
        "Ġs",
        "t"
      ],
      [
        "i",
        "g"
      ],
      [
        "t",
        "er"
      ],
      [
        "o",
        "p"
      ],
      [
        "u",
        "c"
      ],
      [
        "Ġb",
        "e"
      ],
      [
        "u",
        "t"
      ],
      [
        "Ġc",
        "on"
      ],
      [
        "u",
        "m"
      ],
      [
        "re",
        "s"
      ],
      [
        "Ġ",
        "v"
      ],
      [
        "Ġd",
        "e"
      ],
      [
        "i",
        "a"
      ],
      [
        "s",
        "t"
      ],
      [
        "ic",
        "al"
      ],
      [
        "o",
        "t"
      ],
      [
        "o",
        "w"
      ],
      [
        "m",
        "ent"
      ],
      [
        "o",
        "c"
      ],
      [
        "i",
        "l"
      ],
      [
        "ti",
        "c"
      ],
      [
        "i",
        "r"
      ],
      [
        "o",
        "g"
      ],
      [
        "Ġo",
        "r"
      ],
      [
        "v",
        "er"
      ],
      [
        "Ġd",
        "is"
      ],
      [
        "d",
        "i"
      ],
      [
        "Ġc",
        "om"
      ],
      [
        "it",
        "y"
      ],
      [
        "Ġ",
        "on"
      ],
      [
        "Ġa",
        "re"
      ],
      [
        "at",
        "ed"
      ],
      [
        "Ġ",
        "he"
      ],
      [
        "s",
        "i"
      ],
      [
        "o",
        "d"
      ],
      [
        "a",
        "m"
      ],
      [
        "t",
        "h"
      ],
      [
        "Ġe",
        "x"
      ],
      [
        "Ġ",
        "r"
      ],
      [
        "Ġw",
        "e"
      ],
      [
        "t",
        "s"
      ],
      [
        "i",
        "f"
      ],
      [
        "Ġa",
        "c"
      ],
      [
        "r",
        "i"
      ],
      [
        "Ġc",
        "h"
      ],
      [
        "at",
        "e"
      ],
      [
        "ro",
        "m"
      ],
      [
        "e",
        "m"
      ],
      [
        "g",
        "e"
      ],
      [
        "Ġth",
        "at"
      ],
      [
        "Ġin",
        "c"
      ],
      [
        "Ġb",
        "y"
      ],
      [
        "as",
        "e"
      ],
      [
        "or",
        "t"
      ],
      [
        "Ġh",
        "a"
      ],
      [
        "Ġa",
        "l"
      ],
      [
        "q",
        "u"
      ],
      [
        "ent",
        "s"
      ],
      [
        "a",
        "b"
      ],
      [
        "s",
        "e"
      ],
      [
        "Ġ",
        "im"
      ],
      [
        "a",
        "in"
      ],
      [
        "Ġp",
        "ati"
      ],
      [
        "Ġw",
        "h"
      ],
      [
        "u",
        "re"
      ],
      [
        "o",
        "us"
      ],
      [
        "an",
        "t"
      ],
      [
        "Ġre",
        "s"
      ],
      [
        "Ġc",
        "an"
      ],
      [
        "Ġs",
        "e"
      ],
      [
        "Ġa",
        "d"
      ],
      [
        "p",
        "l"
      ],
      [
        "a",
        "d"
      ],
      [
        "Ġ",
        "it"
      ],
      [
        "p",
        "h"
      ],
      [
        "Ġ",
        "us"
      ],
      [
        "u",
        "d"
      ],
      [
        "Ġw",
        "as"
      ],
      [
        "f",
        "ec"
      ],
      [
        "re",
        "n"
      ],
      [
        "Ġ",
        "un"
      ],
      [
        "es",
        "s"
      ],
      [
        "Ġc",
        "a"
      ],
      [
        "Ġa",
        "t"
      ],
      [
        "Ġn",
        "e"
      ],
      [
        "os",
        "t"
      ],
      [
        "a",
        "y"
      ],
      [
        "i",
        "z"
      ],
      [
        "Ġha",
        "ve"
      ],
      [
        "m",
        "on"
      ],
      [
        "Ġs",
        "y"
      ],
      [
        "ul",
        "ar"
      ],
      [
        "Ġ",
        "en"
      ],
      [
        "Ġp",
        "re"
      ],
      [
        "Ġs",
        "u"
      ],
      [
        "ar",
        "y"
      ],
      [
        "y",
        "p"
      ],
      [
        "he",
        "r"
      ],
      [
        "p",
        "ort"
      ],
      [
        "Ġ",
        "y"
      ],
      [
        "e",
        "ll"
      ],
      [
        "Ġf",
        "rom"
      ],
      [
        "Ġ",
        "le"
      ],
      [
        "i",
        "on"
      ],
      [
        "i",
        "al"
      ],
      [
        "Ġp",
        "er"
      ],
      [
        "Ġh",
        "as"
      ],
      [
        "d",
        "er"
      ],
      [
        "Ġpati",
        "ents"
      ],
      [
        "Ġbe",
        "en"
      ],
      [
        "as",
        "t"
      ],
      [
        "o",
        "re"
      ],
      [
        "ig",
        "h"
      ],
      [
        "in",
        "e"
      ],
      [
        "ol",
        "og"
      ],
      [
        "Ġs",
        "p"
      ],
      [
        "Ġdis",
        "e"
      ],
      [
        "Ġ",
        "k"
      ],
      [
        "t",
        "ed"
      ],
      [
        "t",
        "e"
      ],
      [
        "e",
        "ar"
      ],
      [
        "en",
        "ce"
      ],
      [
        "u",
        "g"
      ],
      [
        "Ġc",
        "l"
      ],
      [
        "ti",
        "ve"
      ],
      [
        "ac",
        "t"
      ],
      [
        "r",
        "an"
      ],
      [
        "id",
        "e"
      ],
      [
        "p",
        "p"
      ],
      [
        "ic",
        "h"
      ],
      [
        "ve",
        "l"
      ],
      [
        "Ġcom",
        "p"
      ],
      [
        "o",
        "un"
      ],
      [
        "es",
        "t"
      ],
      [
        "re",
        "at"
      ],
      [
        "Ġth",
        "is"
      ],
      [
        "is",
        "t"
      ],
      [
        "ation",
        "s"
      ],
      [
        "Ġy",
        "ear"
      ],
      [
        "at",
        "h"
      ],
      [
        "Ġa",
        "b"
      ],
      [
        "Ġd",
        "ia"
      ],
      [
        "Ġwh",
        "ich"
      ],
      [
        "c",
        "h"
      ],
      [
        "Ġg",
        "en"
      ],
      [
        "Ġre",
        "c"
      ],
      [
        "Ġin",
        "t"
      ],
      [
        "or",
        "m"
      ],
      [
        "re",
        "d"
      ],
      [
        "Ġc",
        "ell"
      ],
      [
        "al",
        "ly"
      ],
      [
        "or",
        "s"
      ],
      [
        "or",
        "y"
      ],
      [
        "Ġ",
        "ra"
      ],
      [
        "a",
        "g"
      ],
      [
        "d",
        "uc"
      ],
      [
        "l",
        "d"
      ],
      [
        "Ġp",
        "res"
      ],
      [
        "as",
        "es"
      ],
      [
        "Ġwe",
        "re"
      ],
      [
        "Ġdise",
        "ase"
      ],
      [
        "y",
        "s"
      ],
      [
        "Ġcon",
        "t"
      ],
      [
        "i",
        "v"
      ],
      [
        "Ġs",
        "ur"
      ],
      [
        "c",
        "er"
      ],
      [
        "Ġa",
        "f"
      ],
      [
        "Ġs",
        "h"
      ],
      [
        "u",
        "e"
      ],
      [
        "Ġas",
        "s"
      ],
      [
        "si",
        "on"
      ],
      [
        "p",
        "t"
      ],
      [
        "ig",
        "n"
      ],
      [
        "Ġm",
        "an"
      ],
      [
        "Ġs",
        "uc"
      ],
      [
        "Ġin",
        "f"
      ],
      [
        "i",
        "es"
      ],
      [
        "a",
        "ge"
      ],
      [
        "Ġm",
        "ost"
      ],
      [
        "os",
        "is"
      ],
      [
        "i",
        "ll"
      ],
      [
        "g",
        "n"
      ],
      [
        "Ġp",
        "ar"
      ],
      [
        "i",
        "ti"
      ],
      [
        "Ġm",
        "et"
      ],
      [
        "i",
        "p"
      ],
      [
        "an",
        "d"
      ],
      [
        "p",
        "er"
      ],
      [
        "Ġp",
        "h"
      ],
      [
        "tion",
        "s"
      ],
      [
        "Ġt",
        "reat"
      ],
      [
        "e",
        "l"
      ],
      [
        "l",
        "ud"
      ],
      [
        "an",
        "ce"
      ],
      [
        "Ġinc",
        "re"
      ],
      [
        "en",
        "ti"
      ],
      [
        "ati",
        "ve"
      ],
      [
        "Ġc",
        "ar"
      ],
      [
        "Ġca",
        "us"
      ],
      [
        "t",
        "en"
      ],
      [
        "ug",
        "h"
      ],
      [
        "ul",
        "t"
      ],
      [
        "f",
        "ic"
      ],
      [
        "Ġre",
        "port"
      ],
      [
        "om",
        "e"
      ],
      [
        "le",
        "c"
      ],
      [
        "oc",
        "i"
      ],
      [
        "Ġinc",
        "lud"
      ],
      [
        "Ġm",
        "ed"
      ],
      [
        "Ġsuc",
        "h"
      ],
      [
        "al",
        "l"
      ],
      [
        "Ġa",
        "r"
      ],
      [
        "Ġcon",
        "s"
      ],
      [
        "Ġp",
        "l"
      ],
      [
        "vel",
        "op"
      ],
      [
        "b",
        "le"
      ],
      [
        "Ġtreat",
        "ment"
      ],
      [
        "Ġ",
        ";"
      ],
      [
        "u",
        "p"
      ],
      [
        "t",
        "her"
      ],
      [
        "Ġhe",
        "al"
      ],
      [
        "Ġde",
        "velop"
      ],
      [
        "Ġn",
        "ot"
      ],
      [
        "Ġe",
        "v"
      ],
      [
        "as",
        "ed"
      ],
      [
        "c",
        "c"
      ],
      [
        "ab",
        "le"
      ],
      [
        "Ġcan",
        "cer"
      ],
      [
        "Ġo",
        "b"
      ],
      [
        "Ġa",
        "pp"
      ],
      [
        "Ġthe",
        "se"
      ],
      [
        "Ġpre",
        "v"
      ],
      [
        "Ġt",
        "ran"
      ],
      [
        "Ġsu",
        "b"
      ],
      [
        "Ġheal",
        "th"
      ],
      [
        "Ġs",
        "c"
      ],
      [
        "Ġcl",
        "in"
      ],
      [
        "Ġa",
        "ll"
      ],
      [
        "Ġe",
        "f"
      ],
      [
        "Ġcom",
        "mon"
      ],
      [
        "ra",
        "p"
      ],
      [
        "r",
        "ic"
      ],
      [
        "in",
        "al"
      ],
      [
        "m",
        "s"
      ],
      [
        "r",
        "on"
      ],
      [
        "Ġc",
        "o"
      ],
      [
        "iz",
        "ed"
      ],
      [
        "Ġin",
        "ter"
      ],
      [
        "Ġd",
        "if"
      ],
      [
        "un",
        "c"
      ],
      [
        "Ġre",
        "l"
      ],
      [
        "Ġass",
        "oci"
      ],
      [
        "Ġac",
        "c"
      ],
      [
        "an",
        "c"
      ],
      [
        "i",
        "e"
      ],
      [
        "k",
        "e"
      ],
      [
        "Ġre",
        "g"
      ],
      [
        "d",
        "ing"
      ],
      [
        "er",
        "s"
      ],
      [
        "ti",
        "v"
      ],
      [
        "o",
        "od"
      ],
      [
        "Ġin",
        "v"
      ],
      [
        "a",
        "p"
      ],
      [
        "f",
        "e"
      ],
      [
        "Ġthe",
        "re"
      ],
      [
        "ar",
        "i"
      ],
      [
        "i",
        "b"
      ],
      [
        "igh",
        "t"
      ],
      [
        "Ġ",
        "ro"
      ],
      [
        "en",
        "c"
      ],
      [
        "Ġtran",
        "s"
      ],
      [
        "ac",
        "ter"
      ],
      [
        "Ġon",
        "e"
      ],
      [
        "on",
        "e"
      ],
      [
        "Ġa",
        "g"
      ],
      [
        "r",
        "ac"
      ],
      [
        "e",
        "ver"
      ],
      [
        "ec",
        "h"
      ],
      [
        "Ġm",
        "a"
      ],
      [
        "Ġd",
        "es"
      ],
      [
        "u",
        "al"
      ],
      [
        "Ġw",
        "or"
      ],
      [
        "Ġh",
        "yp"
      ],
      [
        "Ġdia",
        "gn"
      ],
      [
        "er",
        "m"
      ],
      [
        "os",
        "e"
      ],
      [
        "st",
        "em"
      ],
      [
        "Ġh",
        "igh"
      ],
      [
        "ri",
        "b"
      ],
      [
        "if",
        "ic"
      ],
      [
        "Ġclin",
        "ical"
      ],
      [
        "Ġm",
        "ay"
      ],
      [
        "ren",
        "t"
      ],
      [
        "o",
        "ut"
      ],
      [
        "olog",
        "ical"
      ],
      [
        "Ġpres",
        "ent"
      ],
      [
        "Ġo",
        "cc"
      ],
      [
        "Ġsp",
        "ec"
      ],
      [
        "Ġin",
        "fec"
      ],
      [
        "Ġm",
        "ore"
      ],
      [
        "Ġh",
        "ow"
      ],
      [
        "Ġr",
        "is"
      ],
      [
        "Ġf",
        "act"
      ],
      [
        "Ġt",
        "yp"
      ],
      [
        "Ġim",
        "p"
      ],
      [
        "Ġm",
        "al"
      ],
      [
        "ow",
        "n"
      ],
      [
        "u",
        "di"
      ],
      [
        "Ġb",
        "l"
      ],
      [
        "Ġsy",
        "stem"
      ],
      [
        "ti",
        "m"
      ],
      [
        "Ġg",
        "ro"
      ],
      [
        "at",
        "es"
      ],
      [
        "om",
        "a"
      ],
      [
        "er",
        "v"
      ],
      [
        "s",
        "o"
      ],
      [
        "at",
        "er"
      ],
      [
        "ul",
        "ation"
      ],
      [
        "Ġst",
        "udi"
      ],
      [
        "r",
        "uc"
      ],
      [
        "Ġm",
        "o"
      ],
      [
        "m",
        "un"
      ],
      [
        "Ġyear",
        "s"
      ],
      [
        "ati",
        "c"
      ],
      [
        "Ġres",
        "p"
      ],
      [
        "Ġal",
        "so"
      ],
      [
        "Ġt",
        "um"
      ],
      [
        "Ġassoci",
        "ated"
      ],
      [
        "u",
        "res"
      ],
      [
        "u",
        "b"
      ],
      [
        "Ġhow",
        "ever"
      ],
      [
        "Ġg",
        "l"
      ],
      [
        "Ġ",
        "j"
      ],
      [
        "Ġd",
        "ur"
      ],
      [
        "si",
        "ve"
      ],
      [
        "n",
        "e"
      ],
      [
        "p",
        "it"
      ],
      [
        "Ġo",
        "ther"
      ],
      [
        "at",
        "ory"
      ],
      [
        "Ġreport",
        "ed"
      ],
      [
        "Ġo",
        "ver"
      ],
      [
        "Ġ",
        "es"
      ],
      [
        "Ġun",
        "der"
      ],
      [
        "Ġd",
        "ec"
      ],
      [
        "Ġw",
        "he"
      ],
      [
        "Ġsy",
        "n"
      ],
      [
        "unc",
        "tion"
      ],
      [
        "Ġris",
        "k"
      ],
      [
        "pl",
        "ic"
      ],
      [
        "er",
        "y"
      ],
      [
        "Ġb",
        "et"
      ],
      [
        "il",
        "ity"
      ],
      [
        "Ġthe",
        "ir"
      ],
      [
        "al",
        "ity"
      ],
      [
        "Ġpati",
        "ent"
      ],
      [
        "og",
        "en"
      ],
      [
        "Ġsur",
        "g"
      ],
      [
        "Ġef",
        "fec"
      ],
      [
        "Ġb",
        "i"
      ],
      [
        "Ġc",
        "or"
      ],
      [
        "en",
        "d"
      ],
      [
        "Ġcell",
        "s"
      ],
      [
        "Ġus",
        "ed"
      ],
      [
        "c",
        "ular"
      ],
      [
        "Ġp",
        "o"
      ],
      [
        "Ġpro",
        "c"
      ],
      [
        "Ġen",
        "d"
      ],
      [
        "o",
        "b"
      ],
      [
        "i",
        "ver"
      ],
      [
        "ot",
        "h"
      ],
      [
        "Ġapp",
        "ro"
      ],
      [
        "on",
        "g"
      ],
      [
        "Ġb",
        "ut"
      ],
      [
        "Ġstudi",
        "es"
      ],
      [
        "Ġex",
        "p"
      ],
      [
        "c",
        "t"
      ],
      [
        "l",
        "ow"
      ],
      [
        "Ġb",
        "ec"
      ],
      [
        "Ġa",
        "m"
      ],
      [
        "Ġin",
        "d"
      ],
      [
        "Ġc",
        "ol"
      ],
      [
        "Ġs",
        "ign"
      ],
      [
        "w",
        "e"
      ],
      [
        "Ġinf",
        "l"
      ],
      [
        "an",
        "g"
      ],
      [
        "he",
        "m"
      ],
      [
        "Ġe",
        "m"
      ],
      [
        "g",
        "en"
      ],
      [
        "ro",
        "s"
      ],
      [
        "Ġaf",
        "ter"
      ],
      [
        "Ġp",
        "r"
      ],
      [
        "Ġst",
        "ud"
      ],
      [
        "g",
        "an"
      ],
      [
        "Ġp",
        "os"
      ],
      [
        "te",
        "in"
      ],
      [
        "il",
        "d"
      ],
      [
        "o",
        "ur"
      ],
      [
        "Ġde",
        "p"
      ],
      [
        "Ġre",
        "p"
      ],
      [
        "Ġim",
        "port"
      ],
      [
        "e",
        "p"
      ],
      [
        "ac",
        "h"
      ],
      [
        "t",
        "ing"
      ],
      [
        "Ġan",
        "ti"
      ],
      [
        "f",
        "orm"
      ],
      [
        "rap",
        "y"
      ],
      [
        "Ġocc",
        "ur"
      ],
      [
        "Ġp",
        "ath"
      ],
      [
        "Ġin",
        "s"
      ],
      [
        "Ġv",
        "ari"
      ],
      [
        "Ġch",
        "ar"
      ],
      [
        "ar",
        "d"
      ],
      [
        "as",
        "s"
      ],
      [
        "a",
        "il"
      ],
      [
        "Ġc",
        "ases"
      ],
      [
        "y",
        "l"
      ],
      [
        "Ġdur",
        "ing"
      ],
      [
        "Ġn",
        "on"
      ],
      [
        "Ġdif",
        "fe"
      ],
      [
        "di",
        "tion"
      ],
      [
        "o",
        "ugh"
      ],
      [
        "u",
        "ro"
      ],
      [
        "Ġit",
        "s"
      ],
      [
        "is",
        "s"
      ],
      [
        "ut",
        "e"
      ],
      [
        "oun",
        "d"
      ],
      [
        "Ġd",
        "et"
      ],
      [
        "id",
        "ence"
      ],
      [
        "olog",
        "y"
      ],
      [
        "Ġth",
        "an"
      ],
      [
        "Ġo",
        "ld"
      ],
      [
        "Ġe",
        "t"
      ],
      [
        "Ġstud",
        "y"
      ],
      [
        "Ġinclud",
        "ing"
      ],
      [
        "Ġd",
        "ue"
      ],
      [
        "am",
        "m"
      ],
      [
        "Ġl",
        "ow"
      ],
      [
        "b",
        "er"
      ],
      [
        "o",
        "id"
      ],
      [
        "o",
        "v"
      ],
      [
        "i",
        "ed"
      ],
      [
        "p",
        "le"
      ],
      [
        "at",
        "ing"
      ],
      [
        "Ġ",
        "i"
      ],
      [
        "Ġchar",
        "acter"
      ],
      [
        "us",
        "e"
      ],
      [
        "on",
        "d"
      ],
      [
        "Ġpro",
        "tein"
      ],
      [
        "r",
        "al"
      ],
      [
        "we",
        "en"
      ],
      [
        "en",
        "s"
      ],
      [
        "Ġdia",
        "b"
      ],
      [
        "ac",
        "e"
      ],
      [
        "v",
        "id"
      ],
      [
        "Ġ",
        "qu"
      ],
      [
        "Ġbet",
        "ween"
      ],
      [
        "og",
        "ra"
      ],
      [
        "or",
        "der"
      ],
      [
        "Ġf",
        "ol"
      ],
      [
        "Ġt",
        "w"
      ],
      [
        "Ġc",
        "y"
      ],
      [
        "Ġwe",
        "ll"
      ],
      [
        "Ġm",
        "e"
      ],
      [
        "Ġn",
        "o"
      ],
      [
        "ra",
        "in"
      ],
      [
        "Ġd",
        "r"
      ],
      [
        "Ġwor",
        "ld"
      ],
      [
        "Ġf",
        "e"
      ],
      [
        "t",
        "al"
      ],
      [
        "Ġh",
        "um"
      ],
      [
        "Ġk",
        "n"
      ],
      [
        "oun",
        "t"
      ],
      [
        "Ġs",
        "ec"
      ],
      [
        "f",
        "t"
      ],
      [
        "i",
        "ous"
      ],
      [
        "Ġn",
        "um"
      ],
      [
        "Ġm",
        "on"
      ],
      [
        "Ġdis",
        "order"
      ],
      [
        "Ġh",
        "ist"
      ],
      [
        "as",
        "cular"
      ],
      [
        "res",
        "s"
      ],
      [
        "Ġle",
        "ad"
      ],
      [
        "Ġgen",
        "er"
      ],
      [
        "Ġp",
        "op"
      ],
      [
        "v",
        "ed"
      ],
      [
        "Ġt",
        "iss"
      ],
      [
        "Ġfor",
        "m"
      ],
      [
        "Ġo",
        "ut"
      ],
      [
        "iti",
        "es"
      ],
      [
        "ent",
        "ly"
      ],
      [
        "Ġac",
        "tiv"
      ],
      [
        "Ġimport",
        "ant"
      ],
      [
        "Ġwh",
        "o"
      ],
      [
        "Ġf",
        "unction"
      ],
      [
        "p",
        "ec"
      ],
      [
        "Ġp",
        "ain"
      ],
      [
        "pt",
        "om"
      ],
      [
        "Ġor",
        "gan"
      ],
      [
        "c",
        "l"
      ],
      [
        "Ġch",
        "ild"
      ],
      [
        "Ġf",
        "ir"
      ],
      [
        "t",
        "ain"
      ],
      [
        "ar",
        "t"
      ],
      [
        "Ġm",
        "ain"
      ],
      [
        "Ġc",
        "ase"
      ],
      [
        "Ġm",
        "ul"
      ],
      [
        "n",
        "i"
      ],
      [
        "Ġre",
        "m"
      ],
      [
        "m",
        "ptom"
      ],
      [
        "Ġman",
        "y"
      ],
      [
        "ron",
        "ic"
      ],
      [
        "i",
        "or"
      ],
      [
        "Ġs",
        "m"
      ],
      [
        "Ġ",
        ":"
      ],
      [
        "Ġo",
        "p"
      ],
      [
        "Ġcaus",
        "e"
      ],
      [
        "Ġ",
        "u"
      ],
      [
        "Ġa",
        "ge"
      ],
      [
        "Ġus",
        "e"
      ],
      [
        "j",
        "or"
      ],
      [
        "Ġd",
        "i"
      ],
      [
        "Ġhum",
        "an"
      ],
      [
        "Ġm",
        "ic"
      ],
      [
        "Ġfir",
        "st"
      ],
      [
        "a",
        "k"
      ],
      [
        "Ġma",
        "jor"
      ],
      [
        "Ġinv",
        "ol"
      ],
      [
        "in",
        "ation"
      ],
      [
        "iz",
        "ation"
      ],
      [
        "at",
        "ure"
      ],
      [
        "re",
        "e"
      ],
      [
        "Ġhyp",
        "er"
      ],
      [
        "Ġse",
        "ver"
      ],
      [
        "Ġim",
        "mun"
      ],
      [
        "Ġex",
        "t"
      ],
      [
        "a",
        "v"
      ],
      [
        "Ġpr",
        "im"
      ],
      [
        "ogra",
        "ph"
      ],
      [
        "Ġca",
        "re"
      ],
      [
        "i",
        "le"
      ],
      [
        "res",
        "sion"
      ],
      [
        "os",
        "ed"
      ],
      [
        "Ġdes",
        "c"
      ],
      [
        "n",
        "al"
      ],
      [
        "Ġc",
        "ent"
      ],
      [
        "et",
        "es"
      ],
      [
        "Ġtw",
        "o"
      ],
      [
        "Ġs",
        "er"
      ],
      [
        "Ġt",
        "im"
      ],
      [
        "Ġfact",
        "ors"
      ],
      [
        "al",
        "s"
      ],
      [
        "it",
        "ed"
      ],
      [
        "Ġ",
        "'"
      ],
      [
        "ur",
        "al"
      ],
      [
        "Ġcar",
        "di"
      ],
      [
        "ti",
        "s"
      ],
      [
        "op",
        "h"
      ],
      [
        "Ġm",
        "od"
      ],
      [
        "Ġdiab",
        "etes"
      ],
      [
        "ly",
        "m"
      ],
      [
        "ul",
        "ts"
      ],
      [
        "Ġl",
        "if"
      ],
      [
        "Ġgen",
        "e"
      ],
      [
        "a",
        "use"
      ],
      [
        "f",
        "er"
      ],
      [
        "Ġa",
        "p"
      ],
      [
        "Ġt",
        "r"
      ],
      [
        "Ġcomp",
        "le"
      ],
      [
        "ec",
        "t"
      ],
      [
        "Ġb",
        "oth"
      ],
      [
        "mon",
        "g"
      ],
      [
        "Ġa",
        "mong"
      ],
      [
        "Ġpro",
        "g"
      ],
      [
        "Ġch",
        "ronic"
      ],
      [
        "Ġra",
        "re"
      ],
      [
        "enc",
        "y"
      ],
      [
        "in",
        "ed"
      ],
      [
        "ac",
        "k"
      ],
      [
        "Ġs",
        "ome"
      ],
      [
        "Ġaf",
        "fec"
      ],
      [
        "Ġbl",
        "ood"
      ],
      [
        "Ġtyp",
        "e"
      ],
      [
        "v",
        "en"
      ],
      [
        "Ġha",
        "d"
      ],
      [
        "Ġl",
        "oc"
      ],
      [
        "Ġfol",
        "low"
      ],
      [
        "d",
        "rom"
      ],
      [
        "Ġ",
        "id"
      ],
      [
        "Ġdr",
        "ug"
      ],
      [
        "Ġmet",
        "h"
      ],
      [
        "Ġdevelop",
        "ment"
      ],
      [
        "he",
        "s"
      ],
      [
        "Ġsy",
        "mptom"
      ],
      [
        "n",
        "a"
      ],
      [
        "Ġt",
        "ech"
      ],
      [
        "Ġthe",
        "y"
      ],
      [
        "ion",
        "s"
      ],
      [
        "Ġmul",
        "ti"
      ],
      [
        "Ġhe",
        "m"
      ],
      [
        "o",
        "x"
      ],
      [
        "Ġdise",
        "ases"
      ],
      [
        "Ġinfl",
        "amm"
      ],
      [
        "Ġon",
        "ly"
      ],
      [
        "Ġsyn",
        "drom"
      ],
      [
        "er",
        "g"
      ],
      [
        "Ġresp",
        "on"
      ],
      [
        "it",
        "e"
      ],
      [
        "Ġw",
        "om"
      ],
      [
        "r",
        "y"
      ],
      [
        "Ġm",
        "us"
      ],
      [
        "u",
        "ally"
      ],
      [
        "k",
        "in"
      ],
      [
        "om",
        "y"
      ],
      [
        "i",
        "ve"
      ],
      [
        "Ġf",
        "l"
      ],
      [
        "Ġincre",
        "ased"
      ],
      [
        "Ġpro",
        "duc"
      ],
      [
        "Ġpar",
        "tic"
      ],
      [
        "ar",
        "ly"
      ],
      [
        "Ġle",
        "vel"
      ],
      [
        "c",
        "op"
      ],
      [
        "ay",
        "s"
      ],
      [
        "Ġcont",
        "ro"
      ],
      [
        "Ġdesc",
        "rib"
      ],
      [
        "Ġt",
        "ra"
      ],
      [
        "ul",
        "d"
      ],
      [
        "Ġint",
        "o"
      ],
      [
        "Ġl",
        "ar"
      ],
      [
        "orm",
        "al"
      ],
      [
        "Ġe",
        "p"
      ],
      [
        "Ġsign",
        "ific"
      ],
      [
        "Ġin",
        "j"
      ],
      [
        "Ġbec",
        "ause"
      ],
      [
        "Ġsever",
        "al"
      ],
      [
        "Ġa",
        "ut"
      ],
      [
        "Ġex",
        "am"
      ],
      [
        "he",
        "d"
      ],
      [
        "ro",
        "ugh"
      ],
      [
        "Ġne",
        "uro"
      ],
      [
        "Ġres",
        "ult"
      ],
      [
        "od",
        "y"
      ],
      [
        "th",
        "ough"
      ],
      [
        "Ġal",
        "though"
      ],
      [
        "c",
        "in"
      ],
      [
        "Ġcom",
        "plic"
      ],
      [
        "ruc",
        "t"
      ],
      [
        "Ġrel",
        "ated"
      ],
      [
        "is",
        "m"
      ],
      [
        "ti",
        "t"
      ],
      [
        "ment",
        "s"
      ],
      [
        "ate",
        "ly"
      ],
      [
        "i",
        "an"
      ],
      [
        "Ġh",
        "os"
      ],
      [
        "Ġsyndrom",
        "e"
      ],
      [
        "Ġkn",
        "own"
      ],
      [
        "Ġthe",
        "rapy"
      ],
      [
        "Ġprev",
        "al"
      ],
      [
        "Ġb",
        "ased"
      ],
      [
        "Ġc",
        "ount"
      ],
      [
        "Ġpop",
        "ulation"
      ],
      [
        "s",
        "y"
      ],
      [
        "Ġmed",
        "ical"
      ],
      [
        "Ġne",
        "w"
      ],
      [
        "Ġs",
        "in"
      ],
      [
        "Ġlif",
        "e"
      ],
      [
        "Ġde",
        "f"
      ],
      [
        "n",
        "ess"
      ],
      [
        "Ġ",
        "up"
      ],
      [
        "Ġth",
        "rough"
      ],
      [
        "Ġinfec",
        "tion"
      ],
      [
        "Ġtum",
        "or"
      ],
      [
        "Ġp",
        "e"
      ],
      [
        "Ġdis",
        "t"
      ],
      [
        "it",
        "er"
      ],
      [
        "Ġin",
        "di"
      ],
      [
        "Ġproc",
        "ess"
      ],
      [
        "Ġnum",
        "ber"
      ],
      [
        "ation",
        "al"
      ],
      [
        "Ġsignific",
        "ant"
      ],
      [
        "an",
        "ts"
      ],
      [
        "ent",
        "al"
      ],
      [
        "re",
        "qu"
      ],
      [
        "x",
        "im"
      ],
      [
        "Ġan",
        "al"
      ],
      [
        "Ġdiagn",
        "osis"
      ],
      [
        "Ġhos",
        "pit"
      ],
      [
        "Ġper",
        "form"
      ],
      [
        "Ġs",
        "o"
      ],
      [
        "ur",
        "rent"
      ],
      [
        "Ġsh",
        "ow"
      ],
      [
        "Ġgro",
        "w"
      ],
      [
        "u",
        "es"
      ],
      [
        "Ġtiss",
        "ue"
      ],
      [
        "Ġus",
        "ing"
      ],
      [
        "Ġre",
        "t"
      ],
      [
        "Ġtim",
        "e"
      ],
      [
        "Ġra",
        "di"
      ],
      [
        "f",
        "ore"
      ],
      [
        "Ġinc",
        "idence"
      ],
      [
        "Ġp",
        "ost"
      ],
      [
        "ce",
        "pt"
      ],
      [
        "Ġd",
        "at"
      ],
      [
        "Ġwhe",
        "n"
      ],
      [
        "un",
        "d"
      ],
      [
        "qu",
        "i"
      ],
      [
        "Ġm",
        "ort"
      ],
      [
        "ot",
        "he"
      ],
      [
        "tic",
        "al"
      ],
      [
        "d",
        "e"
      ],
      [
        "Ġv",
        "ir"
      ],
      [
        "enti",
        "al"
      ],
      [
        "Ġl",
        "im"
      ],
      [
        "Ġl",
        "ong"
      ],
      [
        "Ġde",
        "ath"
      ],
      [
        "Ġm",
        "y"
      ],
      [
        "Ġcharacter",
        "ized"
      ],
      [
        "Ġc",
        "hem"
      ],
      [
        "Ġl",
        "i"
      ],
      [
        "Ġsurg",
        "ery"
      ],
      [
        "ec",
        "tion"
      ],
      [
        "as",
        "ing"
      ],
      [
        "Ġmort",
        "ality"
      ],
      [
        "Ġv",
        "is"
      ],
      [
        "ar",
        "ch"
      ],
      [
        "Ġab",
        "out"
      ],
      [
        "u",
        "tion"
      ],
      [
        "Ġg",
        "ra"
      ],
      [
        "Ġs",
        "am"
      ],
      [
        "Ġp",
        "ot"
      ],
      [
        "an",
        "e"
      ],
      [
        "Ġdiffe",
        "rent"
      ],
      [
        "Ġimp",
        "ro"
      ],
      [
        "Ġid",
        "enti"
      ],
      [
        "Ġof",
        "ten"
      ],
      [
        "Ġst",
        "ruct"
      ],
      [
        "Ġf",
        "requ"
      ],
      [
        "Ġgro",
        "up"
      ],
      [
        "Ġm",
        "in"
      ],
      [
        "Ġo",
        "ur"
      ],
      [
        "Ġsymptom",
        "s"
      ],
      [
        "st",
        "r"
      ],
      [
        "Ġac",
        "ute"
      ],
      [
        "Ġad",
        "v"
      ],
      [
        "Ġmeth",
        "od"
      ],
      [
        "Ġchild",
        "ren"
      ],
      [
        "ical",
        "ly"
      ],
      [
        "ech",
        "an"
      ],
      [
        "Ġm",
        "or"
      ],
      [
        "Ġhospit",
        "al"
      ],
      [
        "Ġl",
        "es"
      ],
      [
        "Ġprim",
        "ary"
      ],
      [
        "un",
        "g"
      ],
      [
        "duc",
        "ed"
      ],
      [
        "os",
        "s"
      ],
      [
        "d",
        "om"
      ],
      [
        "i",
        "ly"
      ],
      [
        "f",
        "ul"
      ],
      [
        "Ġt",
        "erm"
      ],
      [
        "y",
        "m"
      ],
      [
        "Ġph",
        "ys"
      ],
      [
        "k",
        "ing"
      ],
      [
        "on",
        "s"
      ],
      [
        "f",
        "ied"
      ],
      [
        "ri",
        "es"
      ],
      [
        "lec",
        "t"
      ],
      [
        "fic",
        "i"
      ],
      [
        "Ġe",
        "l"
      ],
      [
        "Ġre",
        "se"
      ],
      [
        "Ġd",
        "ys"
      ],
      [
        "g",
        "es"
      ],
      [
        "Ġdis",
        "c"
      ],
      [
        "Ġ",
        "lym"
      ],
      [
        "Ġvari",
        "ous"
      ],
      [
        "ter",
        "n"
      ],
      [
        "et",
        "y"
      ],
      [
        "r",
        "ation"
      ],
      [
        "Ġlar",
        "ge"
      ],
      [
        "Ġm",
        "echan"
      ],
      [
        "Ġindi",
        "vid"
      ],
      [
        "Ġb",
        "one"
      ],
      [
        "ol",
        "ic"
      ],
      [
        "Ġex",
        "per"
      ],
      [
        "in",
        "t"
      ],
      [
        "Ġr",
        "ate"
      ],
      [
        "ar",
        "k"
      ],
      [
        "Ġar",
        "ter"
      ],
      [
        "oc",
        "y"
      ],
      [
        "Ġper",
        "i"
      ],
      [
        "Ġwom",
        "en"
      ],
      [
        "Ġlym",
        "ph"
      ],
      [
        "ab",
        "ility"
      ],
      [
        "Ġpro",
        "ble"
      ],
      [
        "c",
        "le"
      ],
      [
        "Ġa",
        "v"
      ],
      [
        "Ġmic",
        "ro"
      ],
      [
        "Ġe",
        "arly"
      ],
      [
        "Ġpreval",
        "ence"
      ],
      [
        "Ġhist",
        "ory"
      ],
      [
        "Ġsec",
        "ond"
      ],
      [
        "iti",
        "s"
      ],
      [
        "Ġmed",
        "ic"
      ],
      [
        "it",
        "s"
      ],
      [
        "Ġindivid",
        "ual"
      ],
      [
        "l",
        "is"
      ],
      [
        "Ġb",
        "en"
      ],
      [
        "Ġincre",
        "asing"
      ],
      [
        "Ġinj",
        "ur"
      ],
      [
        "as",
        "is"
      ],
      [
        "Ġm",
        "em"
      ],
      [
        "ve",
        "re"
      ],
      [
        "Ġf",
        "ound"
      ],
      [
        "Ġl",
        "oss"
      ],
      [
        "Ġ",
        "ir"
      ],
      [
        "v",
        "ir"
      ],
      [
        "Ġhe",
        "r"
      ],
      [
        "Ġsin",
        "ce"
      ],
      [
        "ograph",
        "y"
      ],
      [
        "p",
        "tion"
      ],
      [
        "Ġg",
        "ast"
      ],
      [
        "Ġc",
        "r"
      ],
      [
        "us",
        "ion"
      ],
      [
        "Ġs",
        "im"
      ],
      [
        "Ġdat",
        "a"
      ],
      [
        "Ġrec",
        "ent"
      ],
      [
        "si",
        "ble"
      ],
      [
        "Ġle",
        "ft"
      ],
      [
        "ys",
        "is"
      ],
      [
        "Ġf",
        "em"
      ],
      [
        "Ġli",
        "ke"
      ],
      [
        "Ġprev",
        "ious"
      ],
      [
        "Ġse",
        "vere"
      ],
      [
        "Ġsurg",
        "ical"
      ],
      [
        "Ġw",
        "ide"
      ],
      [
        "tic",
        "s"
      ],
      [
        "i",
        "tion"
      ],
      [
        "ie",
        "w"
      ],
      [
        "k",
        "s"
      ],
      [
        "Ġspec",
        "ific"
      ],
      [
        "Ġmon",
        "th"
      ],
      [
        "ro",
        "p"
      ],
      [
        "Ġdescrib",
        "ed"
      ],
      [
        "en",
        "ing"
      ],
      [
        "c",
        "om"
      ],
      [
        "i",
        "um"
      ],
      [
        "an",
        "ge"
      ],
      [
        "Ġn",
        "ec"
      ],
      [
        "ill",
        "ion"
      ],
      [
        "Ġad",
        "m"
      ],
      [
        "Ġcount",
        "ries"
      ],
      [
        "l",
        "es"
      ],
      [
        "qu",
        "e"
      ],
      [
        "op",
        "le"
      ],
      [
        "ad",
        "e"
      ],
      [
        "Ġtum",
        "ors"
      ],
      [
        "l",
        "ic"
      ],
      [
        "re",
        "ct"
      ],
      [
        "Ġes",
        "tim"
      ],
      [
        "Ġb",
        "ody"
      ],
      [
        "Ġp",
        "ub"
      ],
      [
        "Ġro",
        "le"
      ],
      [
        "is",
        "e"
      ],
      [
        "c",
        "es"
      ],
      [
        "Ġin",
        "iti"
      ],
      [
        "Ġmal",
        "ign"
      ],
      [
        "o",
        "ver"
      ],
      [
        "ar",
        "g"
      ],
      [
        "l",
        "as"
      ],
      [
        "Ġcontro",
        "l"
      ],
      [
        "er",
        "ative"
      ],
      [
        "Ġper",
        "s"
      ],
      [
        "Ġproc",
        "ed"
      ],
      [
        "Ġr",
        "ight"
      ],
      [
        "Ġmo",
        "lec"
      ],
      [
        "Ġpe",
        "ople"
      ],
      [
        "ag",
        "ing"
      ],
      [
        "Ġb",
        "re"
      ],
      [
        "Ġre",
        "qui"
      ],
      [
        "Ġad",
        "dition"
      ],
      [
        "d",
        "s"
      ],
      [
        "he",
        "n"
      ],
      [
        "al",
        "u"
      ],
      [
        "al",
        "e"
      ],
      [
        "Ġh",
        "y"
      ],
      [
        "ang",
        "es"
      ],
      [
        "Ġo",
        "x"
      ],
      [
        "op",
        "ath"
      ],
      [
        "Ġdisorder",
        "s"
      ],
      [
        "ren",
        "ce"
      ],
      [
        "Ġp",
        "ul"
      ],
      [
        "Ġeffec",
        "ts"
      ],
      [
        "Ġus",
        "ually"
      ],
      [
        "Ġperi",
        "od"
      ],
      [
        "c",
        "ess"
      ],
      [
        "ro",
        "ph"
      ],
      [
        "Ġwith",
        "in"
      ],
      [
        "Ġinclud",
        "e"
      ],
      [
        "Ġb",
        "rain"
      ],
      [
        "os",
        "cop"
      ],
      [
        "res",
        "sive"
      ],
      [
        "ul",
        "in"
      ],
      [
        "Ġwh",
        "ile"
      ],
      [
        "Ġmet",
        "ab"
      ],
      [
        "Ġf",
        "am"
      ],
      [
        "Ġf",
        "ib"
      ],
      [
        "b",
        "id"
      ],
      [
        "v",
        "ing"
      ],
      [
        "Ġint",
        "ra"
      ],
      [
        "ane",
        "ous"
      ],
      [
        "Ġincre",
        "ase"
      ],
      [
        "Ġres",
        "ults"
      ],
      [
        "Ġrem",
        "ain"
      ],
      [
        "Ġp",
        "a"
      ],
      [
        "Ġl",
        "iver"
      ],
      [
        "Ġd",
        "o"
      ],
      [
        "Ġsm",
        "all"
      ],
      [
        "Ġm",
        "ass"
      ],
      [
        "Ġinflamm",
        "atory"
      ],
      [
        "Ġc",
        "urrent"
      ],
      [
        "Ġrese",
        "arch"
      ],
      [
        "ide",
        "red"
      ],
      [
        "Ġcons",
        "idered"
      ],
      [
        "Ġf",
        "ail"
      ],
      [
        "iz",
        "e"
      ],
      [
        "i",
        "x"
      ],
      [
        "Ġtech",
        "ni"
      ],
      [
        "is",
        "ms"
      ],
      [
        "Ġmulti",
        "ple"
      ],
      [
        "Ġhe",
        "p"
      ],
      [
        "r",
        "act"
      ],
      [
        "Ġ",
        "est"
      ],
      [
        "Ġm",
        "ater"
      ],
      [
        "Ġf",
        "ig"
      ],
      [
        "in",
        "es"
      ],
      [
        "Ġob",
        "es"
      ],
      [
        "Ġ",
        "ur"
      ],
      [
        "Ġacc",
        "or"
      ],
      [
        "Ġc",
        "at"
      ],
      [
        "in",
        "s"
      ],
      [
        "ti",
        "l"
      ],
      [
        "it",
        "al"
      ],
      [
        "Ġappro",
        "xim"
      ],
      [
        "Ġre",
        "v"
      ],
      [
        "Ġpresent",
        "ed"
      ],
      [
        "Ġsu",
        "g"
      ],
      [
        "er",
        "c"
      ],
      [
        "p",
        "s"
      ],
      [
        "Ġin",
        "te"
      ],
      [
        "Ġwhe",
        "re"
      ],
      [
        "in",
        "ding"
      ],
      [
        "pl",
        "ant"
      ],
      [
        "Ġat",
        "t"
      ],
      [
        "se",
        "qu"
      ],
      [
        "a",
        "re"
      ],
      [
        "ag",
        "es"
      ],
      [
        "Ġc",
        "e"
      ],
      [
        "Ġsh",
        "own"
      ],
      [
        "ov",
        "ascular"
      ],
      [
        "Ġme",
        "as"
      ],
      [
        "Ġcar",
        "cin"
      ],
      [
        "Ġne",
        "ed"
      ],
      [
        "Ġn",
        "ormal"
      ],
      [
        "Ġth",
        "ree"
      ],
      [
        "Ġev",
        "alu"
      ],
      [
        "ar",
        "c"
      ],
      [
        "st",
        "e"
      ],
      [
        "vir",
        "on"
      ],
      [
        "Ġre",
        "ac"
      ],
      [
        "anc",
        "y"
      ],
      [
        "Ġs",
        "ol"
      ],
      [
        "ve",
        "ment"
      ],
      [
        "Ġde",
        "l"
      ],
      [
        "Ġt",
        "e"
      ],
      [
        "ter",
        "ior"
      ],
      [
        "Ġapproxim",
        "ately"
      ],
      [
        "Ġinf",
        "orm"
      ],
      [
        "iv",
        "al"
      ],
      [
        "Ġre",
        "st"
      ],
      [
        "w",
        "ide"
      ],
      [
        "Ġm",
        "uc"
      ],
      [
        "us",
        "t"
      ],
      [
        "Ġm",
        "illion"
      ],
      [
        "Ġre",
        "nal"
      ],
      [
        "Ġres",
        "ist"
      ],
      [
        "Ġcomplic",
        "ations"
      ],
      [
        "h",
        "ib"
      ],
      [
        "ti",
        "es"
      ],
      [
        "Ġman",
        "age"
      ],
      [
        "Ġfact",
        "or"
      ],
      [
        "c",
        "ent"
      ],
      [
        "Ġcaus",
        "ed"
      ],
      [
        "Ġdevelop",
        "ed"
      ],
      [
        "Ġgener",
        "al"
      ],
      [
        "Ġvir",
        "us"
      ],
      [
        "Ġ",
        "z"
      ],
      [
        "Ġe",
        "lect"
      ],
      [
        "Ġwith",
        "out"
      ],
      [
        "tion",
        "al"
      ],
      [
        "Ġpartic",
        "ular"
      ],
      [
        "Ġen",
        "viron"
      ],
      [
        "Ġcaus",
        "es"
      ],
      [
        "Ġworld",
        "wide"
      ],
      [
        "Ġlow",
        "er"
      ],
      [
        "Ġh",
        "ig"
      ],
      [
        "om",
        "ic"
      ],
      [
        "Ġan",
        "y"
      ],
      [
        "Ġcomple",
        "x"
      ],
      [
        "o",
        "tic"
      ],
      [
        "Ġl",
        "ab"
      ],
      [
        "Ġlead",
        "ing"
      ],
      [
        "Ġaccor",
        "ding"
      ],
      [
        "Ġan",
        "g"
      ],
      [
        "Ġm",
        "m"
      ],
      [
        "v",
        "es"
      ],
      [
        "sy",
        "ch"
      ],
      [
        "Ġdiagn",
        "osed"
      ],
      [
        "Ġgrow",
        "th"
      ],
      [
        "Ġphys",
        "ical"
      ],
      [
        "st",
        "ruc"
      ],
      [
        "Ġac",
        "id"
      ],
      [
        "duc",
        "tion"
      ],
      [
        "Ġmet",
        "ast"
      ],
      [
        "m",
        "a"
      ],
      [
        "ial",
        "ly"
      ],
      [
        "Ġab",
        "dom"
      ],
      [
        "em",
        "ia"
      ],
      [
        "j",
        "ec"
      ],
      [
        "Ġth",
        "ose"
      ],
      [
        "u",
        "ce"
      ],
      [
        "Ġpath",
        "ogen"
      ],
      [
        "uc",
        "le"
      ],
      [
        "Ġperform",
        "ed"
      ],
      [
        "o",
        "uld"
      ],
      [
        "Ġst",
        "and"
      ],
      [
        "Ġcy",
        "t"
      ],
      [
        "on",
        "t"
      ],
      [
        "Ġdiffe",
        "ren"
      ],
      [
        "Ġob",
        "s"
      ],
      [
        "or",
        "ts"
      ],
      [
        "Ġl",
        "ung"
      ],
      [
        "Ġdef",
        "ined"
      ],
      [
        "Ġsur",
        "v"
      ],
      [
        "Ġs",
        "kin"
      ],
      [
        "Ġch",
        "anges"
      ],
      [
        "Ġdec",
        "re"
      ],
      [
        "Ġmanage",
        "ment"
      ],
      [
        "ti",
        "g"
      ],
      [
        "Ġe",
        "y"
      ],
      [
        "y",
        "ro"
      ],
      [
        "Ġpro",
        "t"
      ],
      [
        "Ġbe",
        "ing"
      ],
      [
        "a",
        "red"
      ],
      [
        "Ġhe",
        "art"
      ],
      [
        "Ġcommon",
        "ly"
      ],
      [
        "a",
        "ir"
      ],
      [
        "Ġthe",
        "rap"
      ],
      [
        "p",
        "or"
      ],
      [
        "ar",
        "m"
      ],
      [
        "Ġgene",
        "tic"
      ],
      [
        "ic",
        "e"
      ],
      [
        "Ġor",
        "al"
      ],
      [
        "Ġfollow",
        "ing"
      ],
      [
        "an",
        "s"
      ],
      [
        "Ġ",
        "if"
      ],
      [
        "he",
        "l"
      ],
      [
        "Ġv",
        "ery"
      ],
      [
        "ater",
        "al"
      ],
      [
        "ten",
        "sion"
      ],
      [
        "Ġfe",
        "w"
      ],
      [
        "Ġactiv",
        "ity"
      ],
      [
        "Ġlevel",
        "s"
      ],
      [
        "m",
        "ed"
      ],
      [
        "Ġre",
        "cept"
      ],
      [
        "Ġshow",
        "ed"
      ],
      [
        "Ġpre",
        "d"
      ],
      [
        "es",
        "is"
      ],
      [
        "Ġrespon",
        "se"
      ],
      [
        "Ġinjur",
        "y"
      ],
      [
        "Ġe",
        "le"
      ],
      [
        "Ġbre",
        "ast"
      ],
      [
        "Ġf",
        "ur"
      ],
      [
        "Ġ",
        "ed"
      ],
      [
        "Ġb",
        "acter"
      ],
      [
        "Ġl",
        "ess"
      ],
      [
        "Ġfl",
        "u"
      ],
      [
        "Ġv",
        "al"
      ],
      [
        "ar",
        "di"
      ],
      [
        "a",
        "f"
      ],
      [
        "Ġm",
        "en"
      ],
      [
        "Ġqu",
        "ality"
      ],
      [
        "Ġpot",
        "ential"
      ],
      [
        "s",
        "ure"
      ],
      [
        "Ġt",
        "re"
      ],
      [
        "Ġan",
        "im"
      ],
      [
        "di",
        "tions"
      ],
      [
        "Ġcent",
        "ral"
      ],
      [
        "lis",
        "hed"
      ],
      [
        "Ġfail",
        "ure"
      ],
      [
        "Ġl",
        "iter"
      ],
      [
        "Ġse",
        "qu"
      ],
      [
        "Ġ",
        "ve"
      ],
      [
        "Ġenviron",
        "ment"
      ],
      [
        "Ġsu",
        "p"
      ],
      [
        "Ġmus",
        "cle"
      ],
      [
        "yro",
        "id"
      ],
      [
        "Ġloc",
        "al"
      ],
      [
        "Ġmor",
        "bid"
      ],
      [
        "Ġpro",
        "st"
      ],
      [
        "Ġs",
        "it"
      ],
      [
        "Ġcon",
        "ditions"
      ],
      [
        "Ġprotein",
        "s"
      ],
      [
        "ut",
        "ed"
      ],
      [
        "Ġmal",
        "e"
      ],
      [
        "othe",
        "rapy"
      ],
      [
        "Ġeffec",
        "tive"
      ],
      [
        "Ġles",
        "ions"
      ],
      [
        "Ġfur",
        "ther"
      ],
      [
        "r",
        "h"
      ],
      [
        "Ġem",
        "erg"
      ],
      [
        "Ġdet",
        "erm"
      ],
      [
        "er",
        "ic"
      ],
      [
        "Ġobs",
        "erv"
      ],
      [
        "Ġpro",
        "vid"
      ],
      [
        "Ġab",
        "s"
      ],
      [
        "Ġcardi",
        "ovascular"
      ],
      [
        "Ġre",
        "ve"
      ],
      [
        "Ġde",
        "mon"
      ],
      [
        "ar",
        "ia"
      ],
      [
        "e",
        "x"
      ],
      [
        "is",
        "sion"
      ],
      [
        "olog",
        "ic"
      ],
      [
        "tain",
        "ed"
      ],
      [
        "Ġl",
        "ip"
      ],
      [
        "Ġreg",
        "ion"
      ],
      [
        "Ġg",
        "reat"
      ],
      [
        "Ġcon",
        "dition"
      ],
      [
        "Ġinfec",
        "tions"
      ],
      [
        "Ġmem",
        "b"
      ],
      [
        "Ġto",
        "tal"
      ],
      [
        "Ġmonth",
        "s"
      ],
      [
        "Ġdemon",
        "str"
      ],
      [
        "Ġthere",
        "fore"
      ],
      [
        "Ġe",
        "ach"
      ],
      [
        "Ġexam",
        "ination"
      ],
      [
        "Ġev",
        "idence"
      ],
      [
        "Ġpro",
        "m"
      ],
      [
        "Ġim",
        "aging"
      ],
      [
        "fic",
        "ation"
      ],
      [
        "Ġobes",
        "ity"
      ],
      [
        "n",
        "ing"
      ],
      [
        "Ġind",
        "ic"
      ],
      [
        "Ġg",
        "u"
      ],
      [
        "Ġins",
        "ulin"
      ],
      [
        "Ġre",
        "f"
      ],
      [
        "Ġes",
        "pec"
      ],
      [
        "y",
        "si"
      ],
      [
        "Ġmater",
        "ial"
      ],
      [
        "Ġrev",
        "iew"
      ],
      [
        "is",
        "ts"
      ],
      [
        "Ġcon",
        "f"
      ],
      [
        "Ġc",
        "al"
      ],
      [
        "ra",
        "m"
      ],
      [
        "Ġinfl",
        "u"
      ],
      [
        "Ġespec",
        "ially"
      ],
      [
        "c",
        "o"
      ],
      [
        "Ġs",
        "he"
      ],
      [
        "et",
        "h"
      ],
      [
        "op",
        "las"
      ],
      [
        "Ġestim",
        "ated"
      ],
      [
        "Ġt",
        "ri"
      ],
      [
        "Ġindividual",
        "s"
      ],
      [
        "Ġhe",
        "ad"
      ],
      [
        "Ġoccur",
        "s"
      ],
      [
        "i",
        "at"
      ],
      [
        "Ġliter",
        "ature"
      ],
      [
        "Ġs",
        "ti"
      ],
      [
        "Ġp",
        "sych"
      ],
      [
        "e",
        "u"
      ],
      [
        "mon",
        "ary"
      ],
      [
        "Ġrec",
        "ently"
      ],
      [
        "Ġcor",
        "on"
      ],
      [
        "Ġreve",
        "al"
      ],
      [
        "Ġsu",
        "pp"
      ],
      [
        "Ġass",
        "ess"
      ],
      [
        "Ġcom",
        "b"
      ],
      [
        "Ġav",
        "ail"
      ],
      [
        "Ġp",
        "rac"
      ],
      [
        "est",
        "inal"
      ],
      [
        "l",
        "er"
      ],
      [
        "Ġh",
        "is"
      ],
      [
        "arg",
        "et"
      ],
      [
        "Ġrep",
        "res"
      ],
      [
        "Ġf",
        "ac"
      ],
      [
        "Ġv",
        "ascular"
      ],
      [
        "Ġs",
        "w"
      ],
      [
        "enc",
        "es"
      ],
      [
        "ocy",
        "t"
      ],
      [
        "as",
        "si"
      ],
      [
        "Ġpro",
        "v"
      ],
      [
        "n",
        "s"
      ],
      [
        "Ġpre",
        "gn"
      ],
      [
        "Ġab",
        "n"
      ],
      [
        "ie",
        "ld"
      ],
      [
        "Ġmethod",
        "s"
      ],
      [
        "Ġt",
        "arget"
      ],
      [
        "Ġad",
        "ults"
      ],
      [
        "Ġmorbid",
        "ity"
      ],
      [
        "Ġdiagn",
        "os"
      ],
      [
        "Ġep",
        "id"
      ],
      [
        "Ġc",
        "le"
      ],
      [
        "Ġre",
        "d"
      ],
      [
        "Ġpro",
        "per"
      ],
      [
        "Ġpres",
        "sure"
      ],
      [
        "Ġev",
        "en"
      ],
      [
        "Ġgl",
        "uc"
      ],
      [
        "os",
        "ph"
      ],
      [
        "Ġsuc",
        "cess"
      ],
      [
        "Ġdif",
        "fic"
      ],
      [
        "Ġco",
        "uld"
      ],
      [
        "Ġin",
        "hib"
      ],
      [
        "ul",
        "es"
      ],
      [
        "Ġanti",
        "b"
      ],
      [
        "Ġfunction",
        "al"
      ],
      [
        "Ġdrug",
        "s"
      ],
      [
        "Ġpro",
        "l"
      ],
      [
        "Ġcont",
        "in"
      ],
      [
        "Ġpl",
        "as"
      ],
      [
        "i",
        "tive"
      ],
      [
        "Ġs",
        "ing"
      ],
      [
        "Ġor",
        "ig"
      ],
      [
        "Ġt",
        "est"
      ],
      [
        "Ġe",
        "c"
      ],
      [
        "Ġw",
        "ill"
      ],
      [
        "Ġpar",
        "t"
      ],
      [
        "r",
        "ate"
      ],
      [
        "Ġd",
        "am"
      ],
      [
        "Ġimmun",
        "e"
      ],
      [
        "er",
        "ation"
      ],
      [
        "Ġbe",
        "h"
      ],
      [
        "Ġde",
        "m"
      ],
      [
        "Ġwe",
        "ight"
      ],
      [
        "anc",
        "es"
      ],
      [
        "Ġfam",
        "ily"
      ],
      [
        "Ġsurv",
        "ival"
      ],
      [
        "m",
        "it"
      ],
      [
        "Ġc",
        "ir"
      ],
      [
        "Ġs",
        "us"
      ],
      [
        "Ġfem",
        "ale"
      ],
      [
        "Ġinform",
        "ation"
      ],
      [
        "Ġabdom",
        "inal"
      ],
      [
        "Ġunder",
        "st"
      ],
      [
        "om",
        "as"
      ],
      [
        "Ġhig",
        "her"
      ],
      [
        "Ġ",
        "er"
      ],
      [
        "Ġst",
        "ress"
      ],
      [
        "iver",
        "s"
      ],
      [
        "Ġtra",
        "um"
      ],
      [
        "Ġarter",
        "y"
      ],
      [
        "ec",
        "ted"
      ],
      [
        "Ġinv",
        "es"
      ],
      [
        "re",
        "b"
      ],
      [
        "Ġspec",
        "ies"
      ],
      [
        "Ġstand",
        "ard"
      ],
      [
        "id",
        "es"
      ],
      [
        "e",
        "f"
      ],
      [
        "p",
        "ar"
      ],
      [
        "Ġt",
        "em"
      ],
      [
        "Ġrec",
        "og"
      ],
      [
        "Ġdep",
        "end"
      ],
      [
        "Ġinves",
        "tig"
      ],
      [
        "Ġf",
        "at"
      ],
      [
        "Ġr",
        "ange"
      ],
      [
        "Ġex",
        "ten"
      ],
      [
        "Ġest",
        "ab"
      ],
      [
        "o",
        "k"
      ],
      [
        "p",
        "id"
      ],
      [
        "Ġmod",
        "el"
      ],
      [
        "Ġhy",
        "d"
      ],
      [
        "Ġdifferen",
        "ti"
      ],
      [
        "Ġsc",
        "i"
      ],
      [
        "Ġreveal",
        "ed"
      ],
      [
        "b",
        "ility"
      ],
      [
        "ic",
        "es"
      ],
      [
        "o",
        "f"
      ],
      [
        "op",
        "erative"
      ],
      [
        "oc",
        "k"
      ],
      [
        "Ġwe",
        "e"
      ],
      [
        "Ġgl",
        "ob"
      ],
      [
        "Ġst",
        "age"
      ],
      [
        "pl",
        "ain"
      ],
      [
        "Ġtyp",
        "es"
      ],
      [
        "en",
        "si"
      ],
      [
        "Ġis",
        "ol"
      ],
      [
        "Ġsur",
        "f"
      ],
      [
        "Ġpo",
        "or"
      ],
      [
        "Ġpo",
        "ly"
      ],
      [
        "iv",
        "ed"
      ],
      [
        "Ġcarcin",
        "oma"
      ],
      [
        "Ġcoron",
        "ary"
      ],
      [
        "Ġdevelop",
        "ing"
      ],
      [
        "Ġwor",
        "k"
      ],
      [
        "Ġhyper",
        "tension"
      ],
      [
        "in",
        "d"
      ],
      [
        "Ġm",
        "ut"
      ],
      [
        "qu",
        "es"
      ],
      [
        "Ġanal",
        "ysis"
      ],
      [
        "ic",
        "s"
      ],
      [
        "tiv",
        "ity"
      ],
      [
        "re",
        "m"
      ],
      [
        "Ġo",
        "per"
      ],
      [
        "is",
        "ed"
      ],
      [
        "om",
        "al"
      ],
      [
        "Ġth",
        "us"
      ],
      [
        "Ġcl",
        "assi"
      ],
      [
        "Ġp",
        "ast"
      ],
      [
        "Ġcardi",
        "ac"
      ],
      [
        "Ġexper",
        "i"
      ],
      [
        "Ġd",
        "om"
      ],
      [
        "Ġm",
        "ac"
      ],
      [
        "l",
        "f"
      ],
      [
        "Ġn",
        "ucle"
      ],
      [
        "Ġst",
        "ates"
      ],
      [
        "Ġsing",
        "le"
      ],
      [
        "Ġrel",
        "ative"
      ],
      [
        "Ġresist",
        "ance"
      ],
      [
        "l",
        "ine"
      ],
      [
        "Ġo",
        "ste"
      ],
      [
        "Ġpres",
        "ence"
      ],
      [
        "l",
        "ed"
      ],
      [
        "Ġr",
        "ates"
      ],
      [
        "Ġtech",
        "n"
      ],
      [
        "Ġpul",
        "monary"
      ],
      [
        "ic",
        "k"
      ],
      [
        "fici",
        "ency"
      ],
      [
        "Ġs",
        "tim"
      ],
      [
        "at",
        "ures"
      ],
      [
        "Ġidenti",
        "fied"
      ],
      [
        "Ġpub",
        "lic"
      ],
      [
        "a",
        "e"
      ],
      [
        "Ġ",
        "x"
      ],
      [
        "Ġst",
        "ro"
      ],
      [
        "en",
        "g"
      ],
      [
        "Ġcont",
        "rib"
      ],
      [
        "pit",
        "e"
      ],
      [
        "Ġc",
        "t"
      ],
      [
        "lec",
        "ted"
      ],
      [
        "z",
        "ym"
      ],
      [
        "Ġc",
        "he"
      ],
      [
        "Ġl",
        "ast"
      ],
      [
        "rom",
        "b"
      ],
      [
        "Ġdes",
        "pite"
      ],
      [
        "Ġd",
        "na"
      ],
      [
        "Ġh",
        "iv"
      ],
      [
        "d",
        "en"
      ],
      [
        "is",
        "h"
      ],
      [
        "ver",
        "se"
      ],
      [
        "ran",
        "e"
      ],
      [
        "Ġsystem",
        "s"
      ],
      [
        "r",
        "ing"
      ],
      [
        "s",
        "et"
      ],
      [
        "Ġt",
        "ub"
      ],
      [
        "Ġm",
        "at"
      ],
      [
        "e",
        "tic"
      ],
      [
        "Ġb",
        "ur"
      ],
      [
        "ati",
        "tis"
      ],
      [
        "Ġproble",
        "m"
      ],
      [
        "on",
        "al"
      ],
      [
        "Ġf",
        "ract"
      ],
      [
        "Ġc",
        "ri"
      ],
      [
        "Ġre",
        "le"
      ],
      [
        "Ġsti",
        "ll"
      ],
      [
        "Ġabn",
        "ormal"
      ],
      [
        "ol",
        "es"
      ],
      [
        "Ġca",
        "p"
      ],
      [
        "Ġmetab",
        "olic"
      ],
      [
        "Ġlab",
        "or"
      ],
      [
        "eu",
        "tic"
      ],
      [
        "o",
        "di"
      ],
      [
        "am",
        "in"
      ],
      [
        "is",
        "ion"
      ],
      [
        "Ġde",
        "v"
      ],
      [
        "Ġinflamm",
        "ation"
      ],
      [
        "Ġtre",
        "ated"
      ],
      [
        "Ġbe",
        "fore"
      ],
      [
        "Ġcont",
        "ain"
      ],
      [
        "Ġresult",
        "ing"
      ],
      [
        "Ġwide",
        "ly"
      ],
      [
        "Ġmeas",
        "ure"
      ],
      [
        "Ġcom",
        "mun"
      ],
      [
        "Ġk",
        "id"
      ],
      [
        "Ġsystem",
        "ic"
      ],
      [
        "Ġfrequ",
        "ently"
      ],
      [
        "Ġavail",
        "able"
      ],
      [
        "om",
        "p"
      ],
      [
        "Ġce",
        "reb"
      ],
      [
        "Ġbeh",
        "av"
      ],
      [
        "Ġd",
        "ental"
      ],
      [
        "Ġf",
        "our"
      ],
      [
        "Ġc",
        "m"
      ],
      [
        "pl",
        "es"
      ],
      [
        "Ġra",
        "pid"
      ],
      [
        "Ġp",
        "at"
      ],
      [
        "Ġj",
        "o"
      ],
      [
        "Ġinvol",
        "ved"
      ],
      [
        "Ġt",
        "es"
      ],
      [
        "Ġgast",
        "ro"
      ],
      [
        "Ġinter",
        "ven"
      ],
      [
        "Ġkid",
        "ne"
      ],
      [
        "Ġn",
        "od"
      ],
      [
        "Ġcomp",
        "ared"
      ],
      [
        "oscop",
        "ic"
      ],
      [
        "t",
        "y"
      ],
      [
        "Ġp",
        "anc"
      ],
      [
        "oc",
        "ial"
      ],
      [
        "Ġne",
        "g"
      ],
      [
        "Ġsug",
        "ges"
      ],
      [
        "a",
        "x"
      ],
      [
        "Ġo",
        "l"
      ],
      [
        "it",
        "her"
      ],
      [
        "Ġpro",
        "f"
      ],
      [
        "in",
        "ary"
      ],
      [
        "Ġ",
        "ill"
      ],
      [
        "Ġm",
        "ot"
      ],
      [
        "Ġmolec",
        "ular"
      ],
      [
        "Ġ",
        "ent"
      ],
      [
        "em",
        "ic"
      ],
      [
        "Ġang",
        "i"
      ],
      [
        "Ġv",
        "it"
      ],
      [
        "Ġch",
        "all"
      ],
      [
        "Ġcons",
        "id"
      ],
      [
        "Ġins",
        "tit"
      ],
      [
        "Ġf",
        "oc"
      ],
      [
        "Ġv",
        "er"
      ],
      [
        "Ġtiss",
        "ues"
      ],
      [
        "anc",
        "ed"
      ],
      [
        "Ġdiffic",
        "ult"
      ],
      [
        "Ġs",
        "et"
      ],
      [
        "Ġm",
        "ark"
      ],
      [
        "it",
        "ation"
      ],
      [
        "ut",
        "aneous"
      ],
      [
        "Ġcomp",
        "on"
      ],
      [
        "and",
        "s"
      ],
      [
        "Ġeffec",
        "t"
      ],
      [
        "re",
        "c"
      ],
      [
        "Ġf",
        "inding"
      ],
      [
        "Ġex",
        "c"
      ],
      [
        "Ġbec",
        "ome"
      ],
      [
        "Ġsecond",
        "ary"
      ],
      [
        "y",
        "n"
      ],
      [
        "re",
        "ad"
      ],
      [
        "id",
        "s"
      ],
      [
        "Ġth",
        "ir"
      ],
      [
        "fer",
        "red"
      ],
      [
        "p",
        "e"
      ],
      [
        "Ġun",
        "ited"
      ],
      [
        "Ġinv",
        "as"
      ],
      [
        "ir",
        "atory"
      ],
      [
        "Ġstro",
        "ke"
      ],
      [
        "ro",
        "und"
      ],
      [
        "res",
        "t"
      ],
      [
        "ad",
        "es"
      ],
      [
        "iv",
        "ing"
      ],
      [
        "Ġassoci",
        "ation"
      ],
      [
        "d",
        "ed"
      ],
      [
        "Ġth",
        "romb"
      ],
      [
        "Ġman",
        "if"
      ],
      [
        "Ġproble",
        "ms"
      ],
      [
        "Ġmalign",
        "ant"
      ],
      [
        "Ġi",
        "i"
      ],
      [
        "r",
        "u"
      ],
      [
        "ed",
        "ing"
      ],
      [
        "Ġm",
        "g"
      ],
      [
        "pp",
        "er"
      ],
      [
        "Ġcomple",
        "te"
      ],
      [
        "Ġvis",
        "ual"
      ],
      [
        "c",
        "ul"
      ],
      [
        "Ġac",
        "h"
      ],
      [
        "Ġey",
        "e"
      ],
      [
        "Ġm",
        "id"
      ],
      [
        "he",
        "tic"
      ],
      [
        ".",
        ","
      ],
      [
        "Ġs",
        "erv"
      ],
      [
        "Ġdi",
        "rect"
      ],
      [
        "Ġpanc",
        "re"
      ],
      [
        "Ġp",
        "ri"
      ],
      [
        "Ġf",
        "ood"
      ],
      [
        "ec",
        "tive"
      ],
      [
        "Ġcl",
        "ass"
      ],
      [
        "ol",
        "ar"
      ],
      [
        "Ġremain",
        "s"
      ],
      [
        "ro",
        "w"
      ],
      [
        "Ġsu",
        "per"
      ],
      [
        "l",
        "s"
      ],
      [
        "Ġpos",
        "itive"
      ],
      [
        "Ġu",
        "pper"
      ],
      [
        "Ġthe",
        "m"
      ],
      [
        "er",
        "ve"
      ],
      [
        "Ġcy",
        "st"
      ],
      [
        "Ġorig",
        "in"
      ],
      [
        "a",
        "ke"
      ],
      [
        "Ġp",
        "hen"
      ],
      [
        "ce",
        "p"
      ],
      [
        "Ġsh",
        "ort"
      ],
      [
        "Ġsh",
        "ould"
      ],
      [
        "Ġdiagnos",
        "tic"
      ],
      [
        "Ġh",
        "or"
      ],
      [
        "Ġtr",
        "act"
      ],
      [
        "iat",
        "ric"
      ],
      [
        "Ġgluc",
        "ose"
      ],
      [
        "Ġpro",
        "p"
      ],
      [
        "Ġse",
        "x"
      ],
      [
        "Ġat",
        "ten"
      ],
      [
        "Ġbi",
        "ological"
      ],
      [
        "Ġdemonstr",
        "ated"
      ],
      [
        "Ġcharacter",
        "is"
      ],
      [
        "Ġform",
        "ation"
      ],
      [
        "Ġe",
        "ither"
      ],
      [
        "Ġen",
        "zym"
      ],
      [
        "Ġfe",
        "atures"
      ],
      [
        "Ġobserv",
        "ed"
      ],
      [
        "Ġd",
        "ay"
      ],
      [
        "Ġap",
        "plic"
      ],
      [
        "Ġb",
        "ack"
      ],
      [
        "Ġf",
        "ield"
      ],
      [
        "Ġsyn",
        "t"
      ],
      [
        "Ġlim",
        "ited"
      ],
      [
        "r",
        "as"
      ],
      [
        "Ġp",
        "c"
      ],
      [
        "Ġreg",
        "ul"
      ],
      [
        "Ġrep",
        "orts"
      ],
      [
        "ul",
        "l"
      ],
      [
        "Ġappro",
        "ach"
      ],
      [
        "in",
        "c"
      ],
      [
        "Ġp",
        "ur"
      ],
      [
        "ent",
        "ric"
      ],
      [
        "Ġrec",
        "om"
      ],
      [
        "Ġmechan",
        "isms"
      ],
      [
        "u",
        "k"
      ],
      [
        "Ġd",
        "ays"
      ],
      [
        "os",
        "ure"
      ],
      [
        "in",
        "ant"
      ],
      [
        "Ġs",
        "ch"
      ],
      [
        "Ġapp",
        "ear"
      ],
      [
        "f",
        "unction"
      ],
      [
        "ro",
        "gen"
      ],
      [
        "Ġag",
        "ents"
      ],
      [
        "Ġprog",
        "ressive"
      ],
      [
        "l",
        "og"
      ],
      [
        "Ġhe",
        "re"
      ],
      [
        "Ġresp",
        "iratory"
      ],
      [
        "Ġpartic",
        "ip"
      ],
      [
        "f",
        "y"
      ],
      [
        "w",
        "ay"
      ],
      [
        "Ġa",
        "ir"
      ],
      [
        "Ġtherap",
        "eutic"
      ],
      [
        "Ġc",
        "d"
      ],
      [
        "Ġb",
        "il"
      ],
      [
        "Ġth",
        "ough"
      ],
      [
        "Ġstruct",
        "ure"
      ],
      [
        "Ġk",
        "e"
      ],
      [
        "o",
        "ve"
      ],
      [
        "Ġs",
        "ite"
      ],
      [
        "an",
        "ti"
      ],
      [
        "Ġprevious",
        "ly"
      ],
      [
        "Ġpred",
        "ic"
      ],
      [
        "m",
        "an"
      ],
      [
        "Ġsim",
        "il"
      ],
      [
        "Ġproced",
        "ure"
      ],
      [
        "Ġparticular",
        "ly"
      ],
      [
        "ivers",
        "ity"
      ],
      [
        "Ġd",
        "a"
      ],
      [
        "Ġn",
        "at"
      ],
      [
        "Ġtechni",
        "ques"
      ],
      [
        "Ġt",
        "om"
      ],
      [
        "ri",
        "al"
      ],
      [
        "Ġam",
        "eric"
      ],
      [
        "at",
        "or"
      ],
      [
        "Ġgen",
        "es"
      ],
      [
        "h",
        "y"
      ],
      [
        "Ġs",
        "ocial"
      ],
      [
        "Ġcon",
        "cer"
      ],
      [
        "u",
        "f"
      ],
      [
        "Ġmed",
        "i"
      ],
      [
        "it",
        "us"
      ],
      [
        "Ġn",
        "ow"
      ],
      [
        "Ġexp",
        "ression"
      ],
      [
        "Ġext",
        "rem"
      ],
      [
        "Ġprac",
        "ti"
      ],
      [
        "at",
        "us"
      ],
      [
        "Ġth",
        "yroid"
      ],
      [
        "Ġv",
        "es"
      ],
      [
        "Ġen",
        "c"
      ],
      [
        "struc",
        "tion"
      ],
      [
        "Ġsup",
        "port"
      ],
      [
        "Ġdam",
        "age"
      ],
      [
        "w",
        "ard"
      ],
      [
        "Ġs",
        "a"
      ],
      [
        "Ġre",
        "ce"
      ],
      [
        "Ġsu",
        "f"
      ],
      [
        "Ġy",
        "oun"
      ],
      [
        "Ġconsid",
        "er"
      ],
      [
        "Ġyoun",
        "g"
      ],
      [
        "in",
        "k"
      ],
      [
        "Ġext",
        "rac"
      ],
      [
        "Ġser",
        "um"
      ],
      [
        "Ġchem",
        "ical"
      ],
      [
        "oc",
        "ardi"
      ],
      [
        "Ġare",
        "a"
      ],
      [
        "Ġsc",
        "re"
      ],
      [
        "Ġhigh",
        "ly"
      ],
      [
        "Ġin",
        "duced"
      ],
      [
        "ros",
        "s"
      ],
      [
        "Ġde",
        "fec"
      ],
      [
        "Ġab",
        "ility"
      ],
      [
        "Ġsub",
        "jec"
      ],
      [
        "hes",
        "is"
      ],
      [
        "Ġproper",
        "ties"
      ],
      [
        "g",
        "o"
      ],
      [
        "Ġw",
        "ater"
      ],
      [
        "l",
        "i"
      ],
      [
        "Ġ",
        "ess"
      ],
      [
        "Ġbe",
        "l"
      ],
      [
        "Ġimpro",
        "ve"
      ],
      [
        "Ġkidne",
        "y"
      ],
      [
        "c",
        "ri"
      ],
      [
        "Ġan",
        "terior"
      ],
      [
        "Ġn",
        "ational"
      ],
      [
        "Ġs",
        "ide"
      ],
      [
        "Ġde",
        "g"
      ],
      [
        "ac",
        "y"
      ],
      [
        "Ġcon",
        "sequ"
      ],
      [
        "Ġare",
        "as"
      ],
      [
        "art",
        "ment"
      ],
      [
        "Ġunderst",
        "and"
      ],
      [
        "g",
        "est"
      ],
      [
        "Ġon",
        "set"
      ],
      [
        "Ġproduc",
        "tion"
      ],
      [
        "Ġinhib",
        "it"
      ],
      [
        "n",
        "er"
      ],
      [
        "Ġph",
        "ysi"
      ],
      [
        "pit",
        "hel"
      ],
      [
        "Ġvari",
        "ety"
      ],
      [
        "Ġprov",
        "ide"
      ],
      [
        "Ġsurf",
        "ace"
      ],
      [
        "s",
        "es"
      ],
      [
        "Ġpro",
        "gn"
      ],
      [
        "Ġper",
        "ip"
      ],
      [
        "ogen",
        "ic"
      ],
      [
        "Ġcon",
        "duc"
      ],
      [
        "te",
        "red"
      ],
      [
        "Ġdec",
        "ades"
      ],
      [
        "Ġgener",
        "ally"
      ],
      [
        "Ġproced",
        "ures"
      ],
      [
        "Ġd",
        "oc"
      ],
      [
        "Ġc",
        "er"
      ],
      [
        "Ġn",
        "erv"
      ],
      [
        "Ġint",
        "ro"
      ],
      [
        "opath",
        "y"
      ],
      [
        "Ġ",
        "ult"
      ],
      [
        "Ġt",
        "er"
      ],
      [
        "ut",
        "ri"
      ],
      [
        "Ġach",
        "ie"
      ],
      [
        "ti",
        "d"
      ],
      [
        "Ġaffec",
        "ted"
      ],
      [
        "Ġrecog",
        "n"
      ],
      [
        "Ġem",
        "b"
      ],
      [
        "ros",
        "is"
      ],
      [
        "c",
        "s"
      ],
      [
        "Ġs",
        "our"
      ],
      [
        "Ġto",
        "x"
      ],
      [
        "ot",
        "yp"
      ],
      [
        "Ġint",
        "rac"
      ],
      [
        "Ġinclud",
        "ed"
      ],
      [
        "Ġprev",
        "ent"
      ],
      [
        "Ġmedic",
        "ine"
      ],
      [
        "Ġo",
        "s"
      ],
      [
        "Ġs",
        "oci"
      ],
      [
        "um",
        "ent"
      ],
      [
        "Ġdeath",
        "s"
      ],
      [
        "Ġcri",
        "tical"
      ],
      [
        "Ġdys",
        "function"
      ],
      [
        "Ġadm",
        "in"
      ],
      [
        "Ġtraum",
        "a"
      ],
      [
        "Ġe",
        "th"
      ],
      [
        "om",
        "et"
      ],
      [
        "unc",
        "tions"
      ],
      [
        "Ġ",
        "ul"
      ],
      [
        "Ġcon",
        "cent"
      ],
      [
        "Ġv",
        "ol"
      ],
      [
        "Ġpl",
        "ay"
      ],
      [
        "Ġtrans",
        "plant"
      ],
      [
        "Ġele",
        "v"
      ],
      [
        "Ġ",
        "il"
      ],
      [
        "Ġob",
        "tained"
      ],
      [
        "Ġexper",
        "im"
      ],
      [
        "in",
        "a"
      ],
      [
        "Ġcurrent",
        "ly"
      ],
      [
        "Ġg",
        "o"
      ],
      [
        "is",
        "ing"
      ],
      [
        "Ġph",
        "osph"
      ],
      [
        "Ġneg",
        "ative"
      ],
      [
        "Ġre",
        "duced"
      ],
      [
        "Ġm",
        "ag"
      ],
      [
        "ar",
        "ing"
      ],
      [
        "Ġne",
        "ur"
      ],
      [
        "Ġcol",
        "on"
      ],
      [
        "Ġkn",
        "ow"
      ],
      [
        "Ġmain",
        "ly"
      ],
      [
        "Ġfig",
        "ure"
      ],
      [
        "Ġtom",
        "ography"
      ],
      [
        "Ġc",
        "ult"
      ],
      [
        "ly",
        "ing"
      ],
      [
        "Ġinter",
        "ac"
      ],
      [
        "Ġmin",
        "im"
      ],
      [
        "Ġthe",
        "n"
      ],
      [
        "ic",
        "ian"
      ],
      [
        "Ġspec",
        "t"
      ],
      [
        "Ġaut",
        "o"
      ],
      [
        "Ġpregn",
        "ancy"
      ],
      [
        "Ġestab",
        "lished"
      ],
      [
        "c",
        "hem"
      ],
      [
        "Ġs",
        "ens"
      ],
      [
        "Ġm",
        "ade"
      ],
      [
        "ll",
        "ed"
      ],
      [
        "erg",
        "y"
      ],
      [
        "c",
        "ome"
      ],
      [
        "Ġf",
        "ree"
      ],
      [
        "Ġall",
        "ow"
      ],
      [
        "Ġl",
        "ack"
      ],
      [
        "Ġle",
        "ast"
      ],
      [
        "int",
        "estinal"
      ],
      [
        "Ġben",
        "ign"
      ],
      [
        "Ġs",
        "le"
      ],
      [
        "Ġacc",
        "oun"
      ],
      [
        "Ġcr",
        "iter"
      ],
      [
        "Ġmanif",
        "est"
      ],
      [
        "Ġs",
        "al"
      ],
      [
        "Ġn",
        "erve"
      ],
      [
        "Ġl",
        "ap"
      ],
      [
        "Ġmo",
        "di"
      ],
      [
        "Ġs",
        "ize"
      ],
      [
        "am",
        "ic"
      ],
      [
        "Ġag",
        "ain"
      ],
      [
        "Ġdi",
        "et"
      ],
      [
        "Ġlabor",
        "atory"
      ],
      [
        "Ġgastro",
        "intestinal"
      ],
      [
        "Ġor",
        "der"
      ],
      [
        "Ġsimil",
        "ar"
      ],
      [
        "Ġtechni",
        "que"
      ],
      [
        "Ġthir",
        "d"
      ],
      [
        "Ġd",
        "er"
      ],
      [
        "Ġst",
        "ate"
      ],
      [
        "Ġrecept",
        "or"
      ],
      [
        "Ġch",
        "o"
      ],
      [
        "Ġne",
        "oplas"
      ],
      [
        "Ġsuccess",
        "ful"
      ],
      [
        "Ġ",
        "ic"
      ],
      [
        "Ġe",
        "ver"
      ],
      [
        "Ġpat",
        "tern"
      ],
      [
        "u",
        "le"
      ],
      [
        "Ġb",
        "ir"
      ],
      [
        "Ġad",
        "ult"
      ],
      [
        "Ġdep",
        "artment"
      ],
      [
        "Ġsm",
        "o"
      ],
      [
        "Ġperip",
        "her"
      ],
      [
        "a",
        "i"
      ],
      [
        "m",
        "end"
      ],
      [
        "ati",
        "s"
      ],
      [
        "pec",
        "tive"
      ],
      [
        "l",
        "ation"
      ],
      [
        "Ġrepres",
        "ent"
      ],
      [
        "Ġc",
        "erv"
      ],
      [
        "Ġe",
        "ti"
      ],
      [
        "Ġad",
        "j"
      ],
      [
        "Ġmemb",
        "rane"
      ],
      [
        "o",
        "y"
      ],
      [
        "oc",
        "h"
      ],
      [
        "Ġpre",
        "c"
      ],
      [
        "z",
        "ed"
      ],
      [
        "Ġs",
        "ensi"
      ],
      [
        "Ġd",
        "m"
      ],
      [
        "em",
        "i"
      ],
      [
        "Ġsp",
        "inal"
      ],
      [
        "Ġ",
        "q"
      ],
      [
        "Ġm",
        "s"
      ],
      [
        "Ġles",
        "ion"
      ],
      [
        "Ġinvas",
        "ive"
      ],
      [
        "Ġcriter",
        "ia"
      ],
      [
        "Ġe",
        "uro"
      ],
      [
        "Ġph",
        "arm"
      ],
      [
        "Ġexp",
        "osure"
      ],
      [
        "Ġgast",
        "ric"
      ],
      [
        "Ġfoc",
        "us"
      ],
      [
        "Ġess",
        "ential"
      ],
      [
        "v",
        "ity"
      ],
      [
        "Ġn",
        "an"
      ],
      [
        "Ġres",
        "id"
      ],
      [
        "Ġsub",
        "sequ"
      ],
      [
        "Ġlap",
        "ar"
      ],
      [
        "y",
        "gen"
      ],
      [
        "on",
        "es"
      ],
      [
        "Ġan",
        "n"
      ],
      [
        "Ġcom",
        "plain"
      ],
      [
        "Ġro",
        "ot"
      ],
      [
        "fici",
        "ent"
      ],
      [
        "o",
        "res"
      ],
      [
        "Ġm",
        "es"
      ],
      [
        "Ġl",
        "ine"
      ],
      [
        "Ġcell",
        "ular"
      ],
      [
        "Ġsam",
        "ples"
      ],
      [
        "Ġstim",
        "ul"
      ],
      [
        "Ġe",
        "pithel"
      ],
      [
        "Ġhyd",
        "ro"
      ],
      [
        "Ġl",
        "o"
      ],
      [
        "Ġag",
        "g"
      ],
      [
        "Ġtra",
        "dition"
      ],
      [
        "com",
        "es"
      ],
      [
        "Ġevalu",
        "ation"
      ],
      [
        "Ġc",
        "op"
      ],
      [
        "Ġc",
        "all"
      ],
      [
        "an",
        "n"
      ],
      [
        "Ġdis",
        "s"
      ],
      [
        "Ġout",
        "comes"
      ],
      [
        "al",
        "y"
      ],
      [
        "Ġm",
        "ell"
      ],
      [
        "Ġse",
        "en"
      ],
      [
        "Ġsub",
        "st"
      ],
      [
        "Ġpos",
        "sible"
      ],
      [
        "Ġchem",
        "otherapy"
      ],
      [
        "Ġfinding",
        "s"
      ],
      [
        "Ġeuro",
        "pe"
      ],
      [
        "Ġm",
        "el"
      ],
      [
        "ol",
        "d"
      ],
      [
        "Ġg",
        "ly"
      ],
      [
        "Ġcancer",
        "s"
      ],
      [
        "ect",
        "omy"
      ],
      [
        "Ġfollow",
        "ed"
      ],
      [
        "Ġsit",
        "es"
      ],
      [
        "Ġun",
        "iversity"
      ],
      [
        "Ġprocess",
        "es"
      ],
      [
        "m",
        "et"
      ],
      [
        "Ġd",
        "im"
      ],
      [
        "Ġis",
        "s"
      ],
      [
        "am",
        "e"
      ],
      [
        "Ġch",
        "rom"
      ],
      [
        "Ġrequi",
        "re"
      ],
      [
        "Ġrelative",
        "ly"
      ],
      [
        "or",
        "rh"
      ],
      [
        "Ġprev",
        "en"
      ],
      [
        "Ġpracti",
        "ce"
      ],
      [
        "Ġagain",
        "st"
      ],
      [
        "er",
        "ous"
      ],
      [
        "Ġsign",
        "al"
      ],
      [
        "Ġw",
        "all"
      ],
      [
        "Ġb",
        "as"
      ],
      [
        "Ġf",
        "ever"
      ],
      [
        "Ġdes",
        "ign"
      ],
      [
        "Ġhuman",
        "s"
      ],
      [
        "Ġexam",
        "ple"
      ],
      [
        "Ġmell",
        "itus"
      ],
      [
        "h",
        "ip"
      ],
      [
        "m",
        "ia"
      ],
      [
        "Ġl",
        "ig"
      ],
      [
        "Ġwom",
        "an"
      ],
      [
        "le",
        "t"
      ],
      [
        "Ġpo",
        "lym"
      ],
      [
        "Ġte",
        "eth"
      ],
      [
        "Ġenvironment",
        "al"
      ],
      [
        "l",
        "ast"
      ],
      [
        "Ġc",
        "og"
      ],
      [
        "Ġb",
        "le"
      ],
      [
        "le",
        "ment"
      ],
      [
        "Ġv",
        "entric"
      ],
      [
        "Ġr",
        "at"
      ],
      [
        "Ġanim",
        "al"
      ],
      [
        "Ġhor",
        "mon"
      ],
      [
        "Ġh",
        "and"
      ],
      [
        "id",
        "ed"
      ],
      [
        "ol",
        "ution"
      ],
      [
        "Ġad",
        "verse"
      ],
      [
        "le",
        "x"
      ],
      [
        "Ġto",
        "oth"
      ],
      [
        "Ġis",
        "chem"
      ],
      [
        "ol",
        "s"
      ],
      [
        "Ġneuro",
        "log"
      ],
      [
        "Ġsam",
        "e"
      ],
      [
        "on",
        "omic"
      ],
      [
        "Ġac",
        "t"
      ],
      [
        "Ġser",
        "ious"
      ],
      [
        "Ġperipher",
        "al"
      ],
      [
        "w",
        "ays"
      ],
      [
        "re",
        "t"
      ],
      [
        "Ġco",
        "ur"
      ],
      [
        "Ġnec",
        "k"
      ],
      [
        "Ġche",
        "st"
      ],
      [
        "Ġnat",
        "ural"
      ],
      [
        "en",
        "sion"
      ],
      [
        "Ġrecom",
        "mend"
      ],
      [
        "ri",
        "tis"
      ],
      [
        "Ġim",
        "plant"
      ],
      [
        "Ġbehav",
        "ior"
      ],
      [
        "Ġpri",
        "or"
      ],
      [
        "p",
        "os"
      ],
      [
        "v",
        "ant"
      ],
      [
        "Ġre",
        "ferred"
      ],
      [
        "Ġmod",
        "er"
      ],
      [
        "Ġgroup",
        "s"
      ],
      [
        "Ġa",
        "round"
      ],
      [
        "Ġe",
        "qu"
      ],
      [
        "ol",
        "ism"
      ],
      [
        "Ġv",
        "ia"
      ],
      [
        "Ġac",
        "tive"
      ],
      [
        "Ġad",
        "en"
      ],
      [
        "Ġincre",
        "ases"
      ],
      [
        "Ġprost",
        "ate"
      ],
      [
        "Ġdep",
        "ression"
      ],
      [
        "Ġrespon",
        "sible"
      ],
      [
        "Ġo",
        "v"
      ],
      [
        "Ġwee",
        "ks"
      ],
      [
        ",",
        ","
      ],
      [
        "ari",
        "ly"
      ],
      [
        "Ġpos",
        "terior"
      ],
      [
        "Ġstruct",
        "ures"
      ],
      [
        "it",
        "ing"
      ],
      [
        "Ġe",
        "ar"
      ],
      [
        "Ġst",
        "atus"
      ],
      [
        "Ġse",
        "lf"
      ],
      [
        "Ġlead",
        "s"
      ],
      [
        "Ġactiv",
        "ities"
      ],
      [
        "led",
        "ge"
      ],
      [
        "Ġsugges",
        "ted"
      ],
      [
        "Ġre",
        "as"
      ],
      [
        "Ġcon",
        "ven"
      ],
      [
        "ill",
        "ary"
      ],
      [
        "Ġimp",
        "act"
      ],
      [
        "Ġout",
        "come"
      ],
      [
        "Ġp",
        "ep"
      ],
      [
        "od",
        "e"
      ],
      [
        "ab",
        "il"
      ],
      [
        "Ġacc",
        "um"
      ],
      [
        "Ġtyp",
        "ically"
      ],
      [
        "ress",
        "ed"
      ],
      [
        "Ġben",
        "ef"
      ],
      [
        "Ġinte",
        "g"
      ],
      [
        "Ġdecre",
        "ased"
      ],
      [
        "ocyt",
        "es"
      ],
      [
        "Ġst",
        "rate"
      ],
      [
        "Ġso",
        "ft"
      ],
      [
        "Ġcog",
        "ni"
      ],
      [
        "Ġstrate",
        "g"
      ],
      [
        "Ġg",
        "iv"
      ],
      [
        "Ġconf",
        "ir"
      ],
      [
        "Ġred",
        "uce"
      ],
      [
        "x",
        "t"
      ],
      [
        "Ġp",
        "ed"
      ],
      [
        "ell",
        "ular"
      ],
      [
        "ens",
        "ity"
      ],
      [
        "ace",
        "ment"
      ],
      [
        "Ġhem",
        "at"
      ],
      [
        "Ġglob",
        "al"
      ],
      [
        "Ġatten",
        "tion"
      ],
      [
        "Ġknow",
        "ledge"
      ],
      [
        "Ġen",
        "ergy"
      ],
      [
        "Ġinvol",
        "vement"
      ],
      [
        "Ġiniti",
        "al"
      ],
      [
        "over",
        "y"
      ],
      [
        "Ġemerg",
        "ency"
      ],
      [
        "Ġconduc",
        "ted"
      ],
      [
        "ti",
        "de"
      ],
      [
        "at",
        "in"
      ],
      [
        "Ġf",
        "unctions"
      ],
      [
        "om",
        "es"
      ],
      [
        "Ġaffec",
        "ts"
      ],
      [
        "Ġcontin",
        "u"
      ],
      [
        "Ġnerv",
        "ous"
      ],
      [
        "Ġhe",
        "l"
      ],
      [
        "Ġal",
        "ong"
      ],
      [
        "Ġprog",
        "ression"
      ],
      [
        "Ġel",
        "der"
      ],
      [
        "Ġv",
        "ac"
      ],
      [
        "Ġhe",
        "ter"
      ],
      [
        "ell",
        "ing"
      ],
      [
        "Ġmajor",
        "ity"
      ],
      [
        "Ġaffec",
        "t"
      ],
      [
        "Ġdel",
        "iver"
      ],
      [
        "Ġcerv",
        "ical"
      ],
      [
        "r",
        "ine"
      ],
      [
        "Ġimp",
        "air"
      ],
      [
        "Ġprogn",
        "osis"
      ],
      [
        "Ġen",
        "h"
      ],
      [
        "Ġadv",
        "anced"
      ],
      [
        "Ġmot",
        "or"
      ],
      [
        "Ġchall",
        "en"
      ],
      [
        "en",
        "sive"
      ],
      [
        "Ġan",
        "at"
      ],
      [
        "ut",
        "es"
      ],
      [
        "Ġev",
        "ents"
      ],
      [
        "m",
        "ic"
      ],
      [
        "r",
        "ast"
      ],
      [
        "Ġcar",
        "b"
      ],
      [
        "ap",
        "an"
      ],
      [
        "Ġind",
        "ia"
      ],
      [
        "Ġcal",
        "c"
      ],
      [
        "r",
        "s"
      ],
      [
        "Ġn",
        "utri"
      ],
      [
        "Ġst",
        "rain"
      ],
      [
        "Ġexten",
        "sive"
      ],
      [
        "Ġult",
        "ras"
      ],
      [
        "ab",
        "ly"
      ],
      [
        "Ġelder",
        "ly"
      ],
      [
        "Ġm",
        "ar"
      ],
      [
        "Ġv",
        "aria"
      ],
      [
        "Ġsur",
        "ve"
      ],
      [
        "Ġtrans",
        "cri"
      ],
      [
        "f",
        "ort"
      ],
      [
        "Ġp",
        "s"
      ],
      [
        "Ġar",
        "th"
      ],
      [
        "Ġox",
        "ygen"
      ],
      [
        "Ġrest",
        "or"
      ],
      [
        "odi",
        "es"
      ],
      [
        "Ġv",
        "en"
      ],
      [
        "Ġcons",
        "um"
      ],
      [
        "Ġhealth",
        "y"
      ],
      [
        "Ġill",
        "ness"
      ],
      [
        "Ġtox",
        "ic"
      ],
      [
        "Ġs",
        "l"
      ],
      [
        "or",
        "d"
      ],
      [
        "Ġcon",
        "gen"
      ],
      [
        "el",
        "v"
      ],
      [
        "Ġfor",
        "ms"
      ],
      [
        "Ġreg",
        "ions"
      ],
      [
        "Ġse",
        "lec"
      ],
      [
        "olog",
        "ies"
      ],
      [
        "ograph",
        "ic"
      ],
      [
        "Ġanim",
        "als"
      ],
      [
        "Ġmaterial",
        "s"
      ],
      [
        "ul",
        "ations"
      ],
      [
        "um",
        "b"
      ],
      [
        "Ġrel",
        "ations"
      ],
      [
        "Ġaut",
        "h"
      ],
      [
        "Ġfrequ",
        "ent"
      ],
      [
        "Ġke",
        "y"
      ],
      [
        "ti",
        "al"
      ],
      [
        "Ġm",
        "ental"
      ],
      [
        "out",
        "h"
      ],
      [
        "Ġt",
        "ak"
      ],
      [
        "Ġph",
        "ase"
      ],
      [
        "Ġorgan",
        "ization"
      ],
      [
        "Ġcomb",
        "ination"
      ],
      [
        "Ġcour",
        "se"
      ],
      [
        "Ġc",
        "ost"
      ],
      [
        "it",
        "ted"
      ],
      [
        "Ġres",
        "ection"
      ],
      [
        "Ġaffec",
        "ting"
      ],
      [
        "Ġur",
        "inary"
      ],
      [
        "Ġprol",
        "if"
      ],
      [
        "Ġbir",
        "th"
      ],
      [
        "re",
        "g"
      ],
      [
        "Ġc",
        "v"
      ],
      [
        "ne",
        "um"
      ],
      [
        "Ġimport",
        "ance"
      ],
      [
        "Ġrecogn",
        "ized"
      ],
      [
        "a",
        "w"
      ],
      [
        "Ġt",
        "b"
      ],
      [
        "Ġex",
        "erc"
      ],
      [
        "Ġph",
        "ot"
      ],
      [
        "Ġgu",
        "ide"
      ],
      [
        "Ġcharacteris",
        "tics"
      ],
      [
        "f",
        "usion"
      ],
      [
        "Ġa",
        "im"
      ],
      [
        "Ġm",
        "ig"
      ],
      [
        "Ġb",
        "inding"
      ],
      [
        "ra",
        "g"
      ],
      [
        "pl",
        "as"
      ],
      [
        "ph",
        "al"
      ],
      [
        "Ġcent",
        "er"
      ],
      [
        "Ġox",
        "id"
      ],
      [
        "Ġbacter",
        "ial"
      ],
      [
        "Ġre",
        "duction"
      ],
      [
        "ly",
        "s"
      ],
      [
        "Ġbi",
        "om"
      ],
      [
        "Ġsle",
        "ep"
      ],
      [
        "Ġpreven",
        "tion"
      ],
      [
        "Ġd",
        "ose"
      ],
      [
        "im",
        "mun"
      ],
      [
        "ot",
        "her"
      ],
      [
        "Ġr",
        "na"
      ],
      [
        "Ġal",
        "tern"
      ],
      [
        "Ġdoc",
        "ument"
      ],
      [
        "Ġcall",
        "ed"
      ],
      [
        "Ġcogni",
        "tive"
      ],
      [
        "i",
        "o"
      ],
      [
        "em",
        "b"
      ],
      [
        "Ġmain",
        "tain"
      ],
      [
        "Ġloc",
        "ated"
      ],
      [
        "Ġnec",
        "ess"
      ],
      [
        "Ġhep",
        "atitis"
      ],
      [
        "Ġisol",
        "ated"
      ],
      [
        "en",
        "se"
      ],
      [
        "Ġactiv",
        "ation"
      ],
      [
        "Ġrequi",
        "red"
      ],
      [
        "Ġcereb",
        "ral"
      ],
      [
        "Ġjo",
        "int"
      ],
      [
        "Ġunderstand",
        "ing"
      ],
      [
        "Ġever",
        "y"
      ],
      [
        "Ġrelations",
        "hip"
      ],
      [
        "it",
        "es"
      ],
      [
        "Ġl",
        "ater"
      ],
      [
        "cl",
        "er"
      ],
      [
        "Ġsignificant",
        "ly"
      ],
      [
        "Ġradi",
        "ation"
      ],
      [
        "Ġhem",
        "orrh"
      ],
      [
        "Ġdepend",
        "ent"
      ],
      [
        "Ġol",
        "der"
      ],
      [
        "Ġn",
        "et"
      ],
      [
        "Ġnum",
        "erous"
      ],
      [
        "med",
        "i"
      ],
      [
        "Ġsubjec",
        "ts"
      ],
      [
        "Ġgiv",
        "en"
      ],
      [
        "Ġcongen",
        "ital"
      ],
      [
        "m",
        "ost"
      ],
      [
        "Ġc",
        "os"
      ],
      [
        "Ġh",
        "c"
      ],
      [
        "Ġh",
        "ost"
      ],
      [
        "od",
        "on"
      ],
      [
        "Ġrec",
        "urrent"
      ],
      [
        "Ġproduc",
        "ts"
      ],
      [
        "Ġcomplic",
        "ation"
      ],
      [
        "Ġcir",
        "c"
      ],
      [
        "Ġt",
        "end"
      ],
      [
        "it",
        "ary"
      ],
      [
        "Ġf",
        "il"
      ],
      [
        "Ġre",
        "duc"
      ],
      [
        "Ġl",
        "ink"
      ],
      [
        "ri",
        "ate"
      ],
      [
        "Ġinfec",
        "ted"
      ],
      [
        "Ġunder",
        "lying"
      ],
      [
        "our",
        "s"
      ],
      [
        "Ġrem",
        "ov"
      ],
      [
        "Ġa",
        "x"
      ],
      [
        "ce",
        "ll"
      ],
      [
        "ter",
        "s"
      ],
      [
        "ad",
        "der"
      ],
      [
        "iz",
        "ing"
      ],
      [
        "ran",
        "ial"
      ],
      [
        "Ġaf",
        "ric"
      ],
      [
        "enc",
        "ed"
      ],
      [
        "cl",
        "es"
      ],
      [
        "Ġadm",
        "itted"
      ],
      [
        "Ġelev",
        "ated"
      ],
      [
        "Ġo",
        "d"
      ],
      [
        "Ġp",
        "neum"
      ],
      [
        "Ġcomp",
        "ound"
      ],
      [
        "ist",
        "ing"
      ],
      [
        "ke",
        "le"
      ],
      [
        "ros",
        "cop"
      ],
      [
        "Ġrecept",
        "ors"
      ],
      [
        "at",
        "al"
      ],
      [
        "Ġh",
        "al"
      ],
      [
        "Ġk",
        "g"
      ],
      [
        "Ġes",
        "oph"
      ],
      [
        "Ġop",
        "en"
      ],
      [
        "Ġgrow",
        "ing"
      ],
      [
        "b",
        "s"
      ],
      [
        "l",
        "ess"
      ],
      [
        "Ġp",
        "d"
      ],
      [
        "Ġe",
        "as"
      ],
      [
        "Ġk",
        "in"
      ],
      [
        "ron",
        "g"
      ],
      [
        "Ġme",
        "an"
      ],
      [
        "othe",
        "l"
      ],
      [
        "Ġda",
        "ily"
      ],
      [
        "kele",
        "tal"
      ],
      [
        "Ġb",
        "ro"
      ],
      [
        "Ġl",
        "iving"
      ],
      [
        "Ġidenti",
        "fy"
      ],
      [
        "Ġabs",
        "ence"
      ],
      [
        "Ġt",
        "ur"
      ],
      [
        "Ġclinical",
        "ly"
      ],
      [
        "Ġves",
        "se"
      ],
      [
        "a",
        "z"
      ],
      [
        "it",
        "or"
      ],
      [
        "ur",
        "ys"
      ],
      [
        "Ġad",
        "he"
      ],
      [
        "Ġj",
        "apan"
      ],
      [
        "ne",
        "tic"
      ],
      [
        "Ġble",
        "eding"
      ],
      [
        "h",
        "ood"
      ],
      [
        "m",
        "ore"
      ],
      [
        "Ġd",
        "iver"
      ],
      [
        "Ġh",
        "ome"
      ],
      [
        "op",
        "ro"
      ],
      [
        "Ġle",
        "uk"
      ],
      [
        "Ġag",
        "ed"
      ],
      [
        "Ġstudi",
        "ed"
      ],
      [
        "Ġpathogen",
        "esis"
      ],
      [
        "Ġadmin",
        "ist"
      ],
      [
        "f",
        "l"
      ],
      [
        "Ġp",
        "al"
      ],
      [
        "Ġb",
        "ar"
      ],
      [
        "Ġgen",
        "ome"
      ],
      [
        "Ġsec",
        "re"
      ],
      [
        "Ġelect",
        "ro"
      ],
      [
        "Ġflu",
        "id"
      ],
      [
        "a",
        "ment"
      ],
      [
        "en",
        "ding"
      ],
      [
        "ro",
        "b"
      ],
      [
        "Ġl",
        "ight"
      ],
      [
        "Ġinte",
        "rest"
      ],
      [
        "co",
        "h"
      ],
      [
        "Ġb",
        "ase"
      ],
      [
        "Ġk",
        "ore"
      ],
      [
        "Ġplas",
        "ma"
      ],
      [
        "Ġexperi",
        "ence"
      ],
      [
        "os",
        "omal"
      ],
      [
        "Ġcomp",
        "uted"
      ],
      [
        "Ġunder",
        "go"
      ],
      [
        "Ġpos",
        "ition"
      ],
      [
        "Ġmy",
        "ocardi"
      ],
      [
        "Ġimpro",
        "ved"
      ],
      [
        "Ġinjur",
        "ies"
      ],
      [
        "Ġmolec",
        "ules"
      ],
      [
        "in",
        "o"
      ],
      [
        "Ġd",
        "iv"
      ],
      [
        "it",
        "one"
      ],
      [
        "Ġb",
        "m"
      ],
      [
        "Ġpro",
        "b"
      ],
      [
        "Ġus",
        "a"
      ],
      [
        "Ġinvol",
        "ving"
      ],
      [
        "Ġabnormal",
        "ities"
      ],
      [
        "Ġauto",
        "immun"
      ],
      [
        "Ġinter",
        "n"
      ],
      [
        "Ġacc",
        "ess"
      ],
      [
        "Ġmore",
        "over"
      ],
      [
        "Ġdist",
        "rib"
      ],
      [
        "Ġmor",
        "ph"
      ],
      [
        "Ġbacter",
        "ia"
      ],
      [
        "w",
        "or"
      ],
      [
        "Ġp",
        "elv"
      ],
      [
        "es",
        "sion"
      ],
      [
        "Ġre",
        "pl"
      ],
      [
        "em",
        "a"
      ],
      [
        "Ġen",
        "g"
      ],
      [
        "Ġpl",
        "ac"
      ],
      [
        "ap",
        "s"
      ],
      [
        "Ġpresent",
        "ation"
      ],
      [
        "ogen",
        "e"
      ],
      [
        "Ġappro",
        "ved"
      ],
      [
        "l",
        "ing"
      ],
      [
        "Ġtem",
        "per"
      ],
      [
        "Ġclassi",
        "fied"
      ],
      [
        "c",
        "i"
      ],
      [
        "i",
        "ble"
      ],
      [
        "re",
        "l"
      ],
      [
        "Ġst",
        "er"
      ],
      [
        "ure",
        "d"
      ],
      [
        "Ġat",
        "he"
      ],
      [
        "Ġcont",
        "rast"
      ],
      [
        "Ġtrans",
        "m"
      ],
      [
        "Ġc",
        "ur"
      ],
      [
        "Ġm",
        "l"
      ],
      [
        "Ġn",
        "as"
      ],
      [
        "Ġv",
        "as"
      ],
      [
        "Ġad",
        "oles"
      ],
      [
        "ist",
        "ent"
      ],
      [
        "Ġanti",
        "gen"
      ],
      [
        "Ġdet",
        "ection"
      ],
      [
        "Ġ",
        "ure"
      ],
      [
        "ra",
        "d"
      ],
      [
        "Ġsub",
        "t"
      ],
      [
        "anc",
        "ies"
      ],
      [
        "Ġprim",
        "arily"
      ],
      [
        "Ġfurther",
        "more"
      ],
      [
        "Ġsci",
        "enti"
      ],
      [
        "Ġmel",
        "an"
      ],
      [
        "or",
        "n"
      ],
      [
        "Ġd",
        "erm"
      ],
      [
        "Ġne",
        "ph"
      ],
      [
        "Ġresp",
        "ective"
      ],
      [
        "Ġcol",
        "l"
      ],
      [
        "Ġpost",
        "operative"
      ],
      [
        "Ġgreat",
        "er"
      ],
      [
        "Ġassess",
        "ment"
      ],
      [
        "Ġepid",
        "emi"
      ],
      [
        "Ġb",
        "est"
      ],
      [
        "om",
        "at"
      ],
      [
        "enti",
        "ally"
      ],
      [
        "Ġappro",
        "p"
      ],
      [
        "Ġdescrib",
        "e"
      ],
      [
        "Ġphysi",
        "ological"
      ],
      [
        "Ġconven",
        "tional"
      ],
      [
        "Ġto",
        "p"
      ],
      [
        "ary",
        "n"
      ],
      [
        "Ġinclud",
        "es"
      ],
      [
        "Ġar",
        "tic"
      ],
      [
        "Ġdiab",
        "etic"
      ],
      [
        "Ġpub",
        "lished"
      ],
      [
        "Ġscre",
        "ening"
      ],
      [
        "ti",
        "ous"
      ],
      [
        "Ġan",
        "est"
      ],
      [
        "at",
        "ors"
      ],
      [
        "Ġst",
        "em"
      ],
      [
        "Ġstruct",
        "ural"
      ],
      [
        "Ġs",
        "k"
      ],
      [
        "Ġor",
        "th"
      ],
      [
        "Ġc",
        "s"
      ],
      [
        "al",
        "es"
      ],
      [
        "Ġra",
        "d"
      ],
      [
        "kin",
        "es"
      ],
      [
        "or",
        "tic"
      ],
      [
        "Ġd",
        "ent"
      ],
      [
        "Ġm",
        "ri"
      ],
      [
        "oc",
        "rine"
      ],
      [
        "Ġcomp",
        "r"
      ],
      [
        "Ġrec",
        "ur"
      ],
      [
        "Ġacc",
        "ur"
      ],
      [
        "Ġbur",
        "den"
      ],
      [
        "ar",
        "ding"
      ],
      [
        "ac",
        "hes"
      ],
      [
        "Ġspec",
        "ial"
      ],
      [
        "Ġend",
        "othel"
      ],
      [
        "Ġdom",
        "ain"
      ],
      [
        "j",
        "ect"
      ],
      [
        "Ġt",
        "rac"
      ],
      [
        "Ġp",
        "en"
      ],
      [
        "Ġw",
        "ould"
      ],
      [
        "Ġf",
        "ive"
      ],
      [
        "ic",
        "ation"
      ],
      [
        "Ġg",
        "ood"
      ],
      [
        "Ġst",
        "rong"
      ],
      [
        "fic",
        "ial"
      ],
      [
        "Ġcor",
        "ne"
      ],
      [
        "Ġrep",
        "e"
      ],
      [
        "Ġsug",
        "gest"
      ],
      [
        "Ġserv",
        "ices"
      ],
      [
        "Ġmag",
        "netic"
      ],
      [
        "il",
        "ic"
      ],
      [
        "Ġal",
        "most"
      ],
      [
        "Ġpar",
        "as"
      ],
      [
        "Ġcol",
        "lected"
      ],
      [
        "oid",
        "s"
      ],
      [
        "Ġdef",
        "in"
      ],
      [
        "Ġperiod",
        "on"
      ],
      [
        "Ġfam",
        "il"
      ],
      [
        "Ġdeliver",
        "y"
      ],
      [
        "en",
        "z"
      ],
      [
        "Ġmuc",
        "os"
      ],
      [
        "Ġpharm",
        "ac"
      ],
      [
        "c",
        "a"
      ],
      [
        "g",
        "et"
      ],
      [
        "or",
        "gan"
      ],
      [
        "Ġcon",
        "n"
      ],
      [
        "Ġr",
        "and"
      ],
      [
        "Ġbet",
        "ter"
      ],
      [
        "Ġcer",
        "tain"
      ],
      [
        "is",
        "es"
      ],
      [
        "Ġan",
        "e"
      ],
      [
        "Ġf",
        "low"
      ],
      [
        "Ġover",
        "all"
      ],
      [
        "Ġrep",
        "air"
      ],
      [
        "Ġmechan",
        "ism"
      ],
      [
        "oscop",
        "y"
      ],
      [
        "Ġlapar",
        "oscopic"
      ],
      [
        "Ġventric",
        "ular"
      ],
      [
        "Ġm",
        "it"
      ],
      [
        "Ġb",
        "o"
      ],
      [
        "Ġf",
        "ar"
      ],
      [
        "Ġth",
        "or"
      ],
      [
        "ur",
        "b"
      ],
      [
        "Ġde",
        "ficiency"
      ],
      [
        "Ġun",
        "com"
      ],
      [
        "Ġtran",
        "si"
      ],
      [
        "Ġmal",
        "aria"
      ],
      [
        "Ġop",
        "tim"
      ],
      [
        "Ġu",
        "til"
      ],
      [
        "Ġset",
        "ting"
      ],
      [
        "d",
        "le"
      ],
      [
        "Ġd",
        "uc"
      ],
      [
        "th",
        "al"
      ],
      [
        "Ġse",
        "g"
      ],
      [
        "k",
        "n"
      ],
      [
        "Ġb",
        "al"
      ],
      [
        "ore",
        "d"
      ],
      [
        "Ġcomp",
        "os"
      ],
      [
        "Ġanal",
        "y"
      ],
      [
        "Ġcle",
        "ar"
      ],
      [
        "ician",
        "s"
      ],
      [
        "Ġst",
        "e"
      ],
      [
        "Ġv",
        "ar"
      ],
      [
        "Ġpancre",
        "atic"
      ],
      [
        "v",
        "al"
      ],
      [
        "on",
        "ia"
      ],
      [
        "Ġs",
        "ix"
      ],
      [
        "Ġp",
        "or"
      ],
      [
        "Ġan",
        "a"
      ],
      [
        "Ġe",
        "g"
      ],
      [
        "Ġwe",
        "ak"
      ],
      [
        "Ġneuro",
        "p"
      ],
      [
        "Ġtranscri",
        "ption"
      ],
      [
        "Ġg",
        "ran"
      ],
      [
        "Ġsp",
        "ont"
      ],
      [
        "Ġorgan",
        "s"
      ],
      [
        "Ġmuc",
        "h"
      ],
      [
        "Ġautoimmun",
        "e"
      ],
      [
        "o",
        "le"
      ],
      [
        "te",
        "b"
      ],
      [
        "Ġmechan",
        "ical"
      ],
      [
        "Ġspont",
        "aneous"
      ],
      [
        "f",
        "s"
      ],
      [
        "i",
        "asis"
      ],
      [
        "s",
        "on"
      ],
      [
        "t",
        "le"
      ],
      [
        "Ġl",
        "ay"
      ],
      [
        "Ġcaus",
        "ing"
      ],
      [
        "Ġcons",
        "tit"
      ],
      [
        "Ġinvol",
        "ves"
      ],
      [
        "Ġmut",
        "ations"
      ],
      [
        "Ġameric",
        "an"
      ],
      [
        "Ġadminist",
        "ration"
      ],
      [
        "Ġrand",
        "om"
      ],
      [
        "Ġane",
        "urys"
      ],
      [
        "ul",
        "a"
      ],
      [
        "ur",
        "g"
      ],
      [
        "Ġal",
        "ter"
      ],
      [
        "Ġun",
        "i"
      ],
      [
        "ath",
        "y"
      ],
      [
        "Ġob",
        "struction"
      ],
      [
        "Ġinfec",
        "tious"
      ],
      [
        "Ġrep",
        "ro"
      ],
      [
        "Ġvir",
        "al"
      ],
      [
        "Ġgra",
        "de"
      ],
      [
        "Ġcompon",
        "ents"
      ],
      [
        "l",
        "ines"
      ],
      [
        "Ġf",
        "und"
      ],
      [
        "Ġac",
        "qui"
      ],
      [
        "Ġtreatment",
        "s"
      ],
      [
        "Ġef",
        "fic"
      ],
      [
        "Ġlymph",
        "oma"
      ],
      [
        "Ġmetast",
        "atic"
      ],
      [
        "Ġfract",
        "ure"
      ],
      [
        "Ġb",
        "r"
      ],
      [
        "op",
        "sy"
      ],
      [
        "Ġca",
        "vity"
      ],
      [
        "Ġcl",
        "ose"
      ],
      [
        "ogen",
        "esis"
      ],
      [
        "hes",
        "ia"
      ],
      [
        "Ġmicro",
        "b"
      ],
      [
        "Ġinterven",
        "tion"
      ],
      [
        "Ġextrem",
        "e"
      ],
      [
        "Ġul",
        "cer"
      ],
      [
        "Ġan",
        "other"
      ],
      [
        "il",
        "t"
      ],
      [
        "Ġir",
        "an"
      ],
      [
        "Ġapprop",
        "riate"
      ],
      [
        "Ġ",
        "ig"
      ],
      [
        "on",
        "ic"
      ],
      [
        "qu",
        "ate"
      ],
      [
        "Ġcan",
        "al"
      ],
      [
        "Ġreg",
        "ard"
      ],
      [
        "Ġdur",
        "ation"
      ],
      [
        "ang",
        "i"
      ],
      [
        "Ġprog",
        "ram"
      ],
      [
        "roph",
        "y"
      ],
      [
        "Ġbil",
        "ateral"
      ],
      [
        "Ġp",
        "t"
      ],
      [
        "Ġp",
        "ap"
      ],
      [
        "Ġas",
        "pec"
      ],
      [
        "ep",
        "end"
      ],
      [
        "Ġreac",
        "tion"
      ],
      [
        "Ġfract",
        "ures"
      ],
      [
        "Ġconcer",
        "n"
      ],
      [
        "o",
        "kines"
      ],
      [
        "Ġ",
        "ery"
      ],
      [
        "Ġf",
        "o"
      ],
      [
        "Ġth",
        "reat"
      ],
      [
        "oc",
        "hem"
      ],
      [
        "ver",
        "age"
      ],
      [
        "Ġtim",
        "es"
      ],
      [
        "Ġsit",
        "u"
      ],
      [
        "or",
        "al"
      ],
      [
        "Ġse",
        "e"
      ],
      [
        "pl",
        "ied"
      ],
      [
        "Ġmedi",
        "ated"
      ],
      [
        "Ġneurolog",
        "ical"
      ],
      [
        "Ġexerc",
        "ise"
      ],
      [
        "Ġuni",
        "que"
      ],
      [
        "p",
        "ut"
      ],
      [
        "in",
        "ts"
      ],
      [
        "en",
        "e"
      ],
      [
        "is",
        "ted"
      ],
      [
        "Ġl",
        "ed"
      ],
      [
        "Ġst",
        "ar"
      ],
      [
        "Ġwh",
        "ite"
      ],
      [
        "Ġres",
        "on"
      ],
      [
        "ys",
        "tic"
      ],
      [
        "Ġreg",
        "arding"
      ],
      [
        "ros",
        "cler"
      ],
      [
        "Ġmetast",
        "asis"
      ],
      [
        "Ġtri",
        "als"
      ],
      [
        "Ġmid",
        "dle"
      ],
      [
        "Ġparticip",
        "ants"
      ],
      [
        "Ġped",
        "iatric"
      ],
      [
        "r",
        "um"
      ],
      [
        "Ġ",
        "iv"
      ],
      [
        "Ġn",
        "or"
      ],
      [
        "Ġl",
        "as"
      ],
      [
        "Ġind",
        "ex"
      ],
      [
        "Ġcontro",
        "lled"
      ],
      [
        "Ġepithel",
        "ial"
      ],
      [
        "Ġhal",
        "f"
      ],
      [
        "Ġt",
        "en"
      ],
      [
        "Ġp",
        "ol"
      ],
      [
        "Ġst",
        "ren"
      ],
      [
        "Ġal",
        "coh"
      ],
      [
        "Ġsc",
        "ler"
      ],
      [
        "Ġpresent",
        "ing"
      ],
      [
        "Ġret",
        "inal"
      ],
      [
        "lis",
        "h"
      ],
      [
        "Ġprovid",
        "ed"
      ],
      [
        "Ġvol",
        "um"
      ],
      [
        "Ġtradition",
        "al"
      ],
      [
        "c",
        "utaneous"
      ],
      [
        "es",
        "tern"
      ],
      [
        "Ġm",
        "r"
      ],
      [
        "Ġpl",
        "a"
      ],
      [
        "Ġinter",
        "nal"
      ],
      [
        "Ġpreval",
        "ent"
      ],
      [
        "Ġmy",
        "el"
      ],
      [
        "Ġdel",
        "ay"
      ],
      [
        "Ġrespective",
        "ly"
      ],
      [
        "Ġuncom",
        "mon"
      ],
      [
        "Ġreson",
        "ance"
      ],
      [
        "Ġm",
        "ix"
      ],
      [
        "ous",
        "e"
      ],
      [
        "Ġad",
        "d"
      ],
      [
        "Ġk",
        "ne"
      ],
      [
        "ag",
        "ed"
      ],
      [
        "Ġoccur",
        "ring"
      ],
      [
        "Ġmic",
        "e"
      ],
      [
        "Ġfrequ",
        "ency"
      ],
      [
        "Ġsupp",
        "lement"
      ],
      [
        "Ġcompon",
        "ent"
      ],
      [
        "Ġder",
        "ived"
      ],
      [
        "Ġt",
        "able"
      ],
      [
        "if",
        "ied"
      ],
      [
        "Ġunder",
        "w"
      ],
      [
        "Ġperform",
        "ance"
      ],
      [
        "Ġsw",
        "elling"
      ],
      [
        "Ġl",
        "ate"
      ],
      [
        "id",
        "ent"
      ],
      [
        "Ġro",
        "ut"
      ],
      [
        "ang",
        "ing"
      ],
      [
        "Ġtr",
        "ig"
      ],
      [
        "Ġrare",
        "ly"
      ],
      [
        "Ġent",
        "er"
      ],
      [
        "Ġathe",
        "roscler"
      ],
      [
        "Ġstren",
        "g"
      ],
      [
        "l",
        "usion"
      ],
      [
        "u",
        "ble"
      ],
      [
        "Ġf",
        "in"
      ],
      [
        "Ġf",
        "ast"
      ],
      [
        "Ġf",
        "ix"
      ],
      [
        "Ġdis",
        "ability"
      ],
      [
        "Ġy",
        "et"
      ],
      [
        "Ġcomp",
        "ar"
      ],
      [
        "Ġag",
        "ing"
      ],
      [
        "Ġext",
        "ra"
      ],
      [
        "Ġhep",
        "at"
      ],
      [
        "Ġcontain",
        "ing"
      ],
      [
        "Ġprop",
        "osed"
      ],
      [
        "Ġsuf",
        "fer"
      ],
      [
        "p",
        "ose"
      ],
      [
        "Ġm",
        "as"
      ],
      [
        "od",
        "es"
      ],
      [
        "Ġch",
        "ange"
      ],
      [
        "enc",
        "ing"
      ],
      [
        "Ġtes",
        "ts"
      ],
      [
        "Ġunderw",
        "ent"
      ],
      [
        "Ġrout",
        "ine"
      ],
      [
        "u",
        "ter"
      ],
      [
        "is",
        "on"
      ],
      [
        "Ġf",
        "et"
      ],
      [
        "Ġto",
        "ward"
      ],
      [
        "Ġex",
        "pl"
      ],
      [
        "Ġpath",
        "ological"
      ],
      [
        "Ġchild",
        "hood"
      ],
      [
        "Ġrespon",
        "ses"
      ],
      [
        "Ġthough",
        "t"
      ],
      [
        "Ġtransplant",
        "ation"
      ],
      [
        "Ġintern",
        "ational"
      ],
      [
        "Ġh",
        "om"
      ],
      [
        "Ġn",
        "ature"
      ],
      [
        "Ġl",
        "ateral"
      ],
      [
        "Ġsign",
        "s"
      ],
      [
        "Ġprog",
        "ress"
      ],
      [
        "Ġprot",
        "oc"
      ],
      [
        "eng",
        "th"
      ],
      [
        "Ġsour",
        "ce"
      ],
      [
        "l",
        "ob"
      ],
      [
        "ul",
        "ated"
      ],
      [
        "Ġind",
        "epend"
      ],
      [
        "ox",
        "ic"
      ],
      [
        "Ġmus",
        "cles"
      ],
      [
        "Ġlike",
        "ly"
      ],
      [
        "f",
        "or"
      ],
      [
        "in",
        "ct"
      ],
      [
        "Ġc",
        "ross"
      ],
      [
        "Ġp",
        "ig"
      ],
      [
        "Ġh",
        "b"
      ],
      [
        "oc",
        "c"
      ],
      [
        "Ġcons",
        "erv"
      ],
      [
        "Ġclin",
        "ic"
      ],
      [
        "Ġbl",
        "adder"
      ],
      [
        "Ġincreasing",
        "ly"
      ],
      [
        "erc",
        "ul"
      ],
      [
        "Ġtechn",
        "ology"
      ],
      [
        "ai",
        "red"
      ],
      [
        "Ġmyocardi",
        "al"
      ],
      [
        "Ġo",
        "w"
      ],
      [
        "Ġd",
        "ri"
      ],
      [
        "Ġde",
        "b"
      ],
      [
        "her",
        "s"
      ],
      [
        "Ġmo",
        "vement"
      ],
      [
        "Ġmalign",
        "ancy"
      ],
      [
        "hy",
        "d"
      ],
      [
        "Ġimpair",
        "ment"
      ],
      [
        "Ġaltern",
        "ative"
      ],
      [
        "kn",
        "own"
      ],
      [
        "Ġeffic",
        "acy"
      ],
      [
        "t",
        "or"
      ],
      [
        "Ġun",
        "known"
      ],
      [
        "Ġev",
        "ent"
      ],
      [
        "Ġcat",
        "he"
      ],
      [
        "Ġinflu",
        "enz"
      ],
      [
        "Ġrepres",
        "ents"
      ],
      [
        "Ġeti",
        "ology"
      ],
      [
        "Ġan",
        "omal"
      ],
      [
        "Ġd",
        "il"
      ],
      [
        "Ġpl",
        "an"
      ],
      [
        "ron",
        "ch"
      ],
      [
        "Ġmon",
        "itor"
      ],
      [
        "Ġep",
        "is"
      ],
      [
        "r",
        "ia"
      ],
      [
        "Ġt",
        "rain"
      ],
      [
        "Ġc",
        "re"
      ],
      [
        "Ġs",
        "af"
      ],
      [
        "Ġg",
        "i"
      ],
      [
        "ter",
        "nal"
      ],
      [
        "age",
        "al"
      ],
      [
        "Ġgl",
        "and"
      ],
      [
        "Ġfac",
        "il"
      ],
      [
        "Ġmodel",
        "s"
      ],
      [
        "Ġsmo",
        "king"
      ],
      [
        "Ġaccum",
        "ulation"
      ],
      [
        "Ġconfir",
        "med"
      ],
      [
        "Ġadoles",
        "c"
      ],
      [
        "g",
        "er"
      ],
      [
        "Ġde",
        "gen"
      ],
      [
        "fe",
        "rence"
      ],
      [
        "ari",
        "an"
      ],
      [
        "Ġoccur",
        "rence"
      ],
      [
        "Ġwhere",
        "as"
      ],
      [
        "Ġbel",
        "ie"
      ],
      [
        "l",
        "and"
      ],
      [
        "os",
        "ter"
      ],
      [
        "ur",
        "ing"
      ],
      [
        "Ġcon",
        "st"
      ],
      [
        "am",
        "p"
      ],
      [
        "Ġper",
        "cent"
      ],
      [
        "ran",
        "s"
      ],
      [
        "Ġint",
        "ensive"
      ],
      [
        "Ġpar",
        "am"
      ],
      [
        "Ġatt",
        "rib"
      ],
      [
        "Ġinstit",
        "ution"
      ],
      [
        "Ġsynt",
        "hesis"
      ],
      [
        "Ġdefec",
        "ts"
      ],
      [
        "Ġinterac",
        "tions"
      ],
      [
        "Ġprolif",
        "eration"
      ],
      [
        "Ġbro",
        "ad"
      ],
      [
        "Ġendothel",
        "ial"
      ],
      [
        "Ġw",
        "estern"
      ],
      [
        "Ġsp",
        "ine"
      ],
      [
        "Ġcy",
        "cl"
      ],
      [
        "Ġiniti",
        "ally"
      ],
      [
        "Ġsequ",
        "ence"
      ],
      [
        "Ġapplic",
        "ations"
      ],
      [
        "Ġacqui",
        "red"
      ],
      [
        "r",
        "in"
      ],
      [
        "y",
        "t"
      ],
      [
        "er",
        "ior"
      ],
      [
        "Ġd",
        "on"
      ],
      [
        "Ġun",
        "til"
      ],
      [
        "Ġpl",
        "ays"
      ],
      [
        "Ġdif",
        "f"
      ],
      [
        "Ġreg",
        "ulation"
      ],
      [
        "Ġser",
        "ies"
      ],
      [
        "Ġdist",
        "inct"
      ],
      [
        "Ġadv",
        "ances"
      ],
      [
        "Ġhep",
        "atic"
      ],
      [
        "Ġresist",
        "ant"
      ],
      [
        "Ġprom",
        "ot"
      ],
      [
        "Ġprol",
        "ong"
      ],
      [
        "Ġmanifest",
        "ations"
      ],
      [
        "Ġcompound",
        "s"
      ],
      [
        "Ġs",
        "low"
      ],
      [
        "Ġin",
        "st"
      ],
      [
        "Ġpro",
        "te"
      ],
      [
        "Ġv",
        "ag"
      ],
      [
        "Ġpop",
        "ulations"
      ],
      [
        "Ġret",
        "ro"
      ],
      [
        "Ġadv",
        "ant"
      ],
      [
        "Ġcommun",
        "ity"
      ],
      [
        "itone",
        "al"
      ],
      [
        "Ġm",
        "ild"
      ],
      [
        "Ġb",
        "ow"
      ],
      [
        "om",
        "en"
      ],
      [
        "ac",
        "ity"
      ],
      [
        "Ġha",
        "ving"
      ],
      [
        "Ġpre",
        "dom"
      ],
      [
        "Ġma",
        "x"
      ],
      [
        "Ġreac",
        "tions"
      ],
      [
        "Ġintro",
        "duced"
      ],
      [
        "r",
        "he"
      ],
      [
        "Ġm",
        "amm"
      ],
      [
        "Ġf",
        "ung"
      ],
      [
        "ur",
        "ia"
      ],
      [
        "Ġsp",
        "e"
      ],
      [
        "Ġqu",
        "es"
      ],
      [
        "Ġsever",
        "ity"
      ],
      [
        "Ġmus",
        "t"
      ],
      [
        "Ġrequi",
        "res"
      ],
      [
        "Ġdifferenti",
        "ation"
      ],
      [
        "Ġsubsequ",
        "ent"
      ],
      [
        "Ġguide",
        "lines"
      ],
      [
        "n",
        "as"
      ],
      [
        "Ġo",
        "cular"
      ],
      [
        "Ġp",
        "le"
      ],
      [
        "Ġst",
        "ep"
      ],
      [
        "Ġne",
        "u"
      ],
      [
        "Ġdec",
        "ade"
      ],
      [
        "Ġappro",
        "aches"
      ],
      [
        "Ġdist",
        "urb"
      ],
      [
        "Ġsim",
        "ple"
      ],
      [
        "Ġdecre",
        "ase"
      ],
      [
        "Ġprovid",
        "es"
      ],
      [
        "Ġter",
        "ms"
      ],
      [
        "Ġhemorrh",
        "age"
      ],
      [
        "Ġtemper",
        "ature"
      ],
      [
        "c",
        "are"
      ],
      [
        "g",
        "or"
      ],
      [
        "Ġg",
        "erm"
      ],
      [
        "Ġad",
        "ren"
      ],
      [
        "Ġint",
        "estinal"
      ],
      [
        "rac",
        "tion"
      ],
      [
        "Ġno",
        "vel"
      ],
      [
        "Ġvis",
        "ion"
      ],
      [
        "Ġsam",
        "ple"
      ],
      [
        "Ġtub",
        "ercul"
      ],
      [
        "Ġrece",
        "ived"
      ],
      [
        "Ġsoci",
        "ety"
      ],
      [
        "b",
        "ular"
      ],
      [
        "Ġmet",
        "al"
      ],
      [
        "Ġma",
        "ke"
      ],
      [
        "Ġimp",
        "aired"
      ],
      [
        "ocy",
        "te"
      ],
      [
        "Ġdem",
        "enti"
      ],
      [
        "Ġenzym",
        "e"
      ],
      [
        "Ġaccoun",
        "ts"
      ],
      [
        "Ġrecur",
        "rence"
      ],
      [
        "Ġinfluenz",
        "a"
      ],
      [
        "Ġsaf",
        "ety"
      ],
      [
        "i",
        "re"
      ],
      [
        "Ġan",
        "tic"
      ],
      [
        "Ġd",
        "yn"
      ],
      [
        "Ġl",
        "at"
      ],
      [
        "ac",
        "he"
      ],
      [
        "Ġg",
        "a"
      ],
      [
        "Ġbe",
        "g"
      ],
      [
        "Ġsp",
        "ace"
      ],
      [
        "Ġsh",
        "ap"
      ],
      [
        "Ġwee",
        "k"
      ],
      [
        "Ġhormon",
        "e"
      ],
      [
        "odon",
        "tic"
      ],
      [
        "os",
        "in"
      ],
      [
        "ce",
        "ption"
      ],
      [
        "Ġag",
        "ent"
      ],
      [
        "Ġthrough",
        "out"
      ],
      [
        "Ġclassi",
        "fication"
      ],
      [
        "Ġrapid",
        "ly"
      ],
      [
        "Ġdocument",
        "ed"
      ],
      [
        "Ġo",
        "ct"
      ],
      [
        "Ġd",
        "id"
      ],
      [
        "Ġf",
        "all"
      ],
      [
        "Ġn",
        "it"
      ],
      [
        "ur",
        "y"
      ],
      [
        "Ġex",
        "ternal"
      ],
      [
        "pl",
        "oy"
      ],
      [
        "Ġidenti",
        "fication"
      ],
      [
        "Ġphen",
        "omen"
      ],
      [
        "Ġdeg",
        "ree"
      ],
      [
        "Ġsignal",
        "ing"
      ],
      [
        "Ġultras",
        "ound"
      ],
      [
        "Ġnecess",
        "ary"
      ],
      [
        "Ġkore",
        "a"
      ],
      [
        "Ġbow",
        "el"
      ],
      [
        "Ġ",
        "ide"
      ],
      [
        "Ġc",
        "oun"
      ],
      [
        "Ġc",
        "utaneous"
      ],
      [
        "Ġpro",
        "s"
      ],
      [
        "Ġse",
        "par"
      ],
      [
        "Ġle",
        "g"
      ],
      [
        "Ġpot",
        "entially"
      ],
      [
        "Ġpsych",
        "ological"
      ],
      [
        "Ġmetast",
        "ases"
      ],
      [
        "Ġenzym",
        "es"
      ],
      [
        "Ġchallen",
        "ge"
      ],
      [
        "Ġauth",
        "ors"
      ],
      [
        "Ġdementi",
        "a"
      ],
      [
        "i",
        "i"
      ],
      [
        "p",
        "ati"
      ],
      [
        "Ġcom",
        "mit"
      ],
      [
        "ist",
        "ry"
      ],
      [
        "Ġrec",
        "or"
      ],
      [
        "Ġcont",
        "act"
      ],
      [
        "Ġsc",
        "ale"
      ],
      [
        "Ġacc",
        "ount"
      ],
      [
        "Ġwhe",
        "ther"
      ],
      [
        "Ġpos",
        "si"
      ],
      [
        "Ġdet",
        "ected"
      ],
      [
        "Ġu",
        "ter"
      ],
      [
        "Ġmetab",
        "olism"
      ],
      [
        "Ġver",
        "teb"
      ],
      [
        "Ġstreng",
        "th"
      ],
      [
        "b",
        "al"
      ],
      [
        "d",
        "uce"
      ],
      [
        "am",
        "ine"
      ],
      [
        "Ġhealth",
        "care"
      ],
      [
        "Ġcol",
        "lec"
      ],
      [
        "Ġap",
        "plied"
      ],
      [
        "Ġarter",
        "ial"
      ],
      [
        "Ġpers",
        "ons"
      ],
      [
        "Ġaddition",
        "al"
      ],
      [
        "Ġdeterm",
        "ine"
      ],
      [
        "Ġec",
        "onomic"
      ],
      [
        "Ġconcent",
        "ration"
      ],
      [
        "Ġagg",
        "ressive"
      ],
      [
        "l",
        "or"
      ],
      [
        "u",
        "pt"
      ],
      [
        "y",
        "mptom"
      ],
      [
        "in",
        "ing"
      ],
      [
        "Ġm",
        "ight"
      ],
      [
        "us",
        "s"
      ],
      [
        "os",
        "ome"
      ],
      [
        "og",
        "lob"
      ],
      [
        "Ġhist",
        "ological"
      ],
      [
        "Ġproduc",
        "ed"
      ],
      [
        "Ġinflu",
        "ence"
      ],
      [
        "Ġdev",
        "ices"
      ],
      [
        "Ġstrateg",
        "ies"
      ],
      [
        "Ġven",
        "ous"
      ],
      [
        "Ġkne",
        "e"
      ],
      [
        "Ġa",
        "ortic"
      ],
      [
        "Ġp",
        "y"
      ],
      [
        "Ġb",
        "asis"
      ],
      [
        "Ġres",
        "our"
      ],
      [
        "Ġpl",
        "ate"
      ],
      [
        "Ġam",
        "ount"
      ],
      [
        "Ġdo",
        "es"
      ],
      [
        "Ġatt",
        "em"
      ],
      [
        "Ġrele",
        "ase"
      ],
      [
        "Ġapplic",
        "ation"
      ],
      [
        "Ġachie",
        "ve"
      ],
      [
        "Ġsensi",
        "tivity"
      ],
      [
        "Ġsubt",
        "yp"
      ],
      [
        "i",
        "ent"
      ],
      [
        "l",
        "oc"
      ],
      [
        "m",
        "e"
      ],
      [
        "o",
        "z"
      ],
      [
        "t",
        "ure"
      ],
      [
        "Ġp",
        "ow"
      ],
      [
        "or",
        "ph"
      ],
      [
        "Ġg",
        "e"
      ],
      [
        "Ġv",
        "iew"
      ],
      [
        "Ġne",
        "arly"
      ],
      [
        "Ġsc",
        "an"
      ],
      [
        "Ġind",
        "ust"
      ],
      [
        "Ġov",
        "arian"
      ],
      [
        "Ġhel",
        "p"
      ],
      [
        "Ġtransm",
        "ission"
      ],
      [
        "Ġscienti",
        "fic"
      ],
      [
        "ymptom",
        "atic"
      ]
    ]
  }
}