{
  "version": "1.0",
  "truncation": null,
  "padding": null,
  "added_tokens": [
    {
      "id": 0,
      "content": "[UNK]",
      "single_word": false,
      "lstrip": false,
      "rstrip": false,
      "normalized": false,
      "special": true
    }
  ],
  "normalizer": null,
  "pre_tokenizer": {
    "type": "Whitespace"
  },
  "post_processor": null,
  "decoder": null,
  "model": {
    "type": "BPE",
    "dropout": null,
    "unk_token": "[UNK]",
    "continuing_subword_prefix": null,
    "end_of_word_suffix": null,
    "fuse_unk": false,
    "byte_fallback": false,
    "ignore_merges": false,
    "vocab": {
      "[UNK]": 0,
      "!": 1,
      "'": 2,
      ",": 3,
      "-": 4,
      ".": 5,
      ":": 6,
      ";": 7,
      "?": 8,
      "A": 9,
      "B": 10,
      "C": 11,
      "D": 12,
      "E": 13,
      "F": 14,
      "G": 15,
      "H": 16,
      "I": 17,
      "K": 18,
      "L": 19,
      "M": 20,
      "N": 21,
      "O": 22,
      "P": 23,
      "R": 24,
      "S": 25,
      "T": 26,
      "U": 27,
      "V": 28,
      "W": 29,
      "[": 30,
      "]": 31,
      "a": 32,
      "b": 33,
      "c": 34,
      "d": 35,
      "e": 36,
      "f": 37,
      "g": 38,
      "h": 39,
      "i": 40,
      "j": 41,
      "k": 42,
      "l": 43,
      "m": 44,
      "n": 45,
      "o": 46,
      "p": 47,
      "q": 48,
      "r": 49,
      "s": 50,
      "t": 51,
      "u": 52,
      "v": 53,
      "w": 54,
      "x": 55,
      "y": 56,
      "z": 57,
      "th": 58,
      "er": 59,
      "ou": 60,
      "nd": 61,
      "in": 62,
      "is": 63,
      "ea": 64,
      "the": 65,
      "or": 66,
      "ha": 67,
      "es": 68,
      "on": 69,
      "me": 70,
      "ll": 71,
      "and": 72,
      "ve": 73,
      "re": 74,
      "st": 75,
      "an": 76,
      "to": 77,
      "le": 78,
      "wi": 79,
      "li": 80,
      "he": 81,
      "at": 82,
      "hi": 83,
      "no": 84,
      "our": 85,
      "his": 86,
      "ther": 87,
      "ee": 88,
      "And": 89,
      "fa": 90,
      "ro": 91,
      "ri": 92,
      "of": 93,
      "ome": 94,
      "ear": 95,
      "be": 96,
      "ar": 97,
      "nt": 98,
      "hat": 99,
      "us": 100,
      "my": 101,
      "it": 102,
      "for": 103,
      "ing": 104,
      "her": 105,
      "se": 106,
      "un": 107,
      "ra": 108,
      "ut": 109,
      "you": 110,
      "thy": 111,
      "him": 112,
      "ow": 113,
      "with": 114,
      "et": 115,
      "oo": 116,
      "ld": 117,
      "mp": 118,
      "ir": 119,
      "father": 120,
      "ce": 121,
      "we": 122,
      "ter": 123,
      "ay": 124,
      "ur": 125,
      "That": 126,
      "ke": 127,
      "as": 128,
      "gh": 129,
      "ous": 130,
      "that": 131,
      "al": 132,
      "mi": 133,
      "Rome": 134,
      "ed": 135,
      "ru": 136,
      "US": 137,
      "ood": 138,
      "ght": 139,
      "ev": 140,
      "thou": 141,
      "this": 142,
      "hall": 143,
      "will": 144,
      "la": 145,
      "fu": 146,
      "ly": 147,
      "are": 148,
      "ble": 149,
      "end": 150,
      "man": 151,
      "not": 152,
      "mb": 153,
      "thee": 154,
      "dea": 155,
      "en": 156,
      "ho": 157,
      "so": 158,
      "ill": 159,
      "Emp": 160,
      "ess": 161,
      "ron": 162,
      "come": 163,
      "here": 164,
      "your": 165,
      "shall": 166,
      "ma": 167,
      "sh": 168,
      "ch": 169,
      "fe": 170,
      "si": 171,
      "My": 172,
      "ive": 173,
      "The": 174,
      "ent": 175,
      "urn": 176,
      "But": 177,
      "fri": 178,
      "wee": 179,
      "ine": 180,
      "their": 181,
      "friend": 182,
      "let": 183,
      "lo": 184,
      "do": 185,
      "go": 186,
      "am": 187,
      "To": 188,
      "ci": 189,
      "gr": 190,
      "sp": 191,
      "by": 192,
      "qu": 193,
      "fi": 194,
      "hea": 195,
      "ful": 196,
      "tru": 197,
      "For": 198,
      "con": 199,
      "ust": 200,
      "ord": 201,
      "dee": 202,
      "ven": 203,
      "rom": 204,
      "row": 205,
      "eror": 206,
      "they": 207,
      "hath": 208,
      "noble": 209,
      "Emperor": 210,
      "friends": 211,
      "pr": 212,
      "est": 213,
      "all": 214,
      "di": 215,
      "Ex": 216,
      "br": 217,
      "AR": 218,
      "La": 219,
      "bro": 220,
      "one": 221,
      "cle": 222,
      "lea": 223,
      "Let": 224,
      "emi": 225,
      "sis": 226,
      "uri": 227,
      "whi": 228,
      "eak": 229,
      "ain": 230,
      "from": 231,
      "than": 232,
      "ould": 233,
      "hand": 234,
      "have": 235,
      "like": 236,
      "life": 237,
      "ears": 238,
      "east": 239,
      "thers": 240,
      "death": 241,
      "sister": 242,
      "oth": 243,
      "Th": 244,
      "co": 245,
      "ti": 246,
      "oud": 247,
      "il": 248,
      "wo": 249,
      "ia": 250,
      "if": 251,
      "ms": 252,
      "up": 253,
      "Lu": 254,
      "ON": 255,
      "unt": 256,
      "gra": 257,
      "how": 258,
      "son": 259,
      "vin": 260,
      "ish": 261,
      "liv": 262,
      "eat": 263,
      "any": 264,
      "sel": 265,
      "but": 266,
      "can": 267,
      "cus": 268,
      "see": 269,
      "way": 270,
      "hed": 271,
      "now": 272,
      "bar": 273,
      "live": 274,
      "This": 275,
      "buri": 276,
      "good": 277,
      "give": 278,
      "lord": 279,
      "well": 280,
      "mind": 281,
      "ever": 282,
      "rong": 283,
      "make": 284,
      "weet": 285,
      "cius": 286,
      "fore": 287,
      "ought": 288,
      "There": 289,
      "tears": 290,
      "uncle": 291,
      "speak": 292,
      "Lavin": 293,
      "Lucius": 294,
      "burial": 295,
      "dev": 296,
      "limb": 297,
      "Lavinia": 298,
      "brothers": 299,
      "Goth": 300,
      "ey": 301,
      "bl": 302,
      "ere": 303,
      "han": 304,
      "ba": 305,
      "ef": 306,
      "bo": 307,
      "pe": 308,
      "sa": 309,
      "No": 310,
      "lt": 311,
      "op": 312,
      "pro": 313,
      "oul": 314,
      "ore": 315,
      "ies": 316,
      "ob": 317,
      "own": 318,
      "Exe": 319,
      "AT": 320,
      "GO": 321,
      "IL": 322,
      "IN": 323,
      "IT": 324,
      "TH": 325,
      "ks": 326,
      "ps": 327,
      "sw": 328,
      "hen": 329,
      "Be": 330,
      "dg": 331,
      "nter": 332,
      "AAR": 333,
      "IUS": 334,
      "Mar": 335,
      "Sat": 336,
      "TIT": 337,
      "Who": 338,
      "chi": 339,
      "nor": 340,
      "sor": 341,
      "sla": 342,
      "turn": 343,
      "was": 344,
      "who": 345,
      "ise": 346,
      "vey": 347,
      "tri": 348,
      "lov": 349,
      "iss": 350,
      "Fare": 351,
      "What": 352,
      "bear": 353,
      "gent": 354,
      "know": 355,
      "more": 356,
      "ness": 357,
      "ring": 358,
      "what": 359,
      "ment": 360,
      "face": 361,
      "true": 362,
      "deed": 363,
      "upon": 364,
      "self": 365,
      "GOTH": 366,
      "them": 367,
      "earth": 368,
      "dges": 369,
      "Enter": 370,
      "wrong": 371,
      "inter": 372,
      "forth": 373,
      "raise": 374,
      "enemi": 375,
      "sight": 376,
      "great": 377,
      "which": 378,
      "devil": 379,
      "blood": 380,
      "AARON": 381,
      "TITUS": 382,
      "child": 383,
      "beast": 384,
      "Exeunt": 385,
      "should": 386,
      "convey": 387,
      "Saturn": 388,
      "gentle": 389,
      "enemies": 390,
      "Farewell": 391,
      "limbs": 392,
      "Saturnine": 393,
      "dead": 394,
      "de": 395,
      "ta": 396,
      "te": 397,
      "Ro": 398,
      "im": 399,
      "wit": 400,
      "ath": 401,
      "take": 402,
      "ad": 403,
      "mo": 404,
      "proud": 405,
      "um": 406,
      "pi": 407,
      "ers": 408,
      "eed": 409,
      "com": 410,
      "bs": 411,
      "ius": 412,
      "ns": 413,
      "ves": 414,
      "ry": 415,
      "ty": 416,
      "lie": 417,
      "ate": 418,
      "wel": 419,
      "He": 420,
      "We": 421,
      "bre": 422,
      "ple": 423,
      "sc": 424,
      "AE": 425,
      "Ah": 426,
      "If": 427,
      "OR": 428,
      "RN": 429,
      "dy": 430,
      "les": 431,
      "pa": 432,
      "per": 433,
      "pre": 434,
      "rel": 435,
      "une": 436,
      "Un": 437,
      "pp": 438,
      "wor": 439,
      "out": 440,
      "irs": 441,
      "Al": 442,
      "Mut": 443,
      "MIL": 444,
      "Our": 445,
      "St": 446,
      "See": 447,
      "Say": 448,
      "SAT": 449,
      "URN": 450,
      "ban": 451,
      "cri": 452,
      "der": 453,
      "des": 454,
      "det": 455,
      "doo": 456,
      "fet": 457,
      "fru": 458,
      "ger": 459,
      "gri": 460,
      "hu": 461,
      "ious": 462,
      "mea": 463,
      "say": 464,
      "tre": 465,
      "ult": 466,
      "war": 467,
      "ory": 468,
      "too": 469,
      "ati": 470,
      "een": 471,
      "sed": 472,
      "unk": 473,
      "raw": 474,
      "ets": 475,
      "lad": 476,
      "god": 477,
      "Thy": 478,
      "eye": 479,
      "tal": 480,
      "arms": 481,
      "sent": 482,
      "woe": 483,
      "Aemi": 484,
      "Away": 485,
      "Many": 486,
      "Some": 487,
      "Sirs": 488,
      "Till": 489,
      "away": 490,
      "bon": 491,
      "done": 492,
      "down": 493,
      "gat": 494,
      "icus": 495,
      "just": 496,
      "lust": 497,
      "mour": 498,
      "near": 499,
      "plea": 500,
      "ress": 501,
      "soul": 502,
      "till": 503,
      "vill": 504,
      "were": 505,
      "when": 506,
      "ound": 507,
      "ince": 508,
      "meed": 509,
      "rece": 510,
      "ance": 511,
      "wipe": 512,
      "lius": 513,
      "unto": 514,
      "last": 515,
      "full": 516,
      "hold": 517,
      "show": 518,
      "sire": 519,
      "Then": 520,
      "quar": 521,
      "fire": 522,
      "deep": 523,
      "rown": 524,
      "pres": 525,
      "Exit": 526,
      "hang": 527,
      "INUS": 528,
      "pile": 529,
      "doom": 530,
      "kiss": 531,
      "liev": 532,
      "hate": 533,
      "mper": 534,
      "base": 535,
      "Sweet": 536,
      "sweet": 537,
      "would": 538,
      "thine": 539,
      "ished": 540,
      "mpets": 541,
      "cious": 542,
      "thank": 543,
      "tiger": 544,
      "grave": 545,
      "lives": 546,
      "sacri": 547,
      "swear": 548,
      "slave": 549,
      "known": 550,
      "Roman": 551,
      "comes": 552,
      "AEMIL": 553,
      "fruit": 554,
      "grief": 555,
      "means": 556,
      "bones": 557,
      "gates": 558,
      "mourn": 559,
      "praise": 560,
      "ourish": 561,
      "Andron": 562,
      "raven": 563,
      "heaven": 564,
      "breast": 565,
      "barous": 566,
      "Marcus": 567,
      "sorrow": 568,
      "loving": 569,
      "wrongs": 570,
      "Mutius": 571,
      "SATURN": 572,
      "detest": 573,
      "ladder": 574,
      "thyself": 575,
      "Empress": 576,
      "brought": 577,
      "witness": 578,
      "pledges": 579,
      "villain": 580,
      "receive": 581,
      "quarrel": 582,
      "sacrifi": 583,
      "trumpets": 584,
      "gracious": 585,
      "beastly": 586,
      "Aemilius": 587,
      "AEMILIUS": 588,
      "ravenous": 589,
      "barbarous": 590,
      "pit": 591,
      "Andronicus": 592,
      "SATURNINUS": 593,
      "id": 594,
      "hew": 595,
      "may": 596,
      "being": 597,
      "ds": 598,
      "Goths": 599,
      "bir": 600,
      "birds": 601,
      "ne": 602,
      "ison": 603,
      "hy": 604,
      "prison": 605,
      "sha": 606,
      "ith": 607,
      "fr": 608,
      "tr": 609,
      "hou": 610,
      "hee": 611,
      "eas": 612,
      "sta": 613,
      "So": 614,
      "ell": 615,
      "ge": 616,
      "ts": 617,
      "ene": 618,
      "cu": 619,
      "ud": 620,
      "ars": 621,
      "rave": 622,
      "ep": 623,
      "ind": 624,
      "na": 625,
      "rt": 626,
      "res": 627,
      "su": 628,
      "ver": 629,
      "xe": 630,
      "int": 631,
      "ead": 632,
      "ong": 633,
      "rai": 634,
      "De": 635,
      "kn": 636,
      "lu": 637,
      "mu": 638,
      "po": 639,
      "peak": 640,
      "rin": 641,
      "va": 642,
      "ws": 643,
      "thin": 644,
      "oun": 645,
      "men": 646,
      "fac": 647,
      "rav": 648,
      "sig": 649,
      "BU": 650,
      "LA": 651,
      "RS": 652,
      "ac": 653,
      "don": 654,
      "ec": 655,
      "ifi": 656,
      "ju": 657,
      "mon": 658,
      "ned": 659,
      "rous": 660,
      "roud": 661,
      "sk": 662,
      "tes": 663,
      "tur": 664,
      "wer": 665,
      "inc": 666,
      "ese": 667,
      "anc": 668,
      "ang": 669,
      "hich": 670,
      "fort": 671,
      "dig": 672,
      "AM": 673,
      "Ad": 674,
      "As": 675,
      "Ay": 676,
      "By": 677,
      "CH": 678,
      "EN": 679,
      "ES": 680,
      "FI": 681,
      "Hi": 682,
      "IA": 683,
      "In": 684,
      "LU": 685,
      "Of": 686,
      "RI": 687,
      "Re": 688,
      "ag": 689,
      "bus": 690,
      "du": 691,
      "dro": 692,
      "dow": 693,
      "ion": 694,
      "lp": 695,
      "lar": 696,
      "mou": 697,
      "nat": 698,
      "others": 699,
      "rms": 700,
      "ser": 701,
      "sat": 702,
      "shed": 703,
      "tis": 704,
      "test": 705,
      "vy": 706,
      "ort": 707,
      "hal": 708,
      "ved": 709,
      "rec": 710,
      "red": 711,
      "ren": 712,
      "ret": 713,
      "stly": 714,
      "rib": 715,
      "ite": 716,
      "die": 717,
      "AL": 718,
      "Ap": 719,
      "Art": 720,
      "BUS": 721,
      "Can": 722,
      "Chi": 723,
      "Cit": 724,
      "CUS": 725,
      "Fl": 726,
      "Get": 727,
      "Give": 728,
      "Her": 729,
      "Mo": 730,
      "May": 731,
      "MAR": 732,
      "Nor": 733,
      "Now": 734,
      "NES": 735,
      "Sun": 736,
      "Set": 737,
      "SON": 738,
      "SEN": 739,
      "Tar": 740,
      "Tit": 741,
      "Too": 742,
      "Tam": 743,
      "TAM": 744,
      "TRI": 745,
      "VIN": 746,
      "Why": 747,
      "amb": 748,
      "aim": 749,
      "axe": 750,
      "bb": 751,
      "boo": 752,
      "bal": 753,
      "bid": 754,
      "cur": 755,
      "clo": 756,
      "cry": 757,
      "dis": 758,
      "dut": 759,
      "dam": 760,
      "emb": 761,
      "fen": 762,
      "hon": 763,
      "hear": 764,
      "imp": 765,
      "ima": 766,
      "jec": 767,
      "lcome": 768,
      "mar": 769,
      "mit": 770,
      "mur": 771,
      "par": 772,
      "put": 773,
      "pow": 774,
      "sof": 775,
      "sun": 776,
      "smo": 777,
      "tro": 778,
      "tit": 779,
      "tter": 780,
      "tas": 781,
      "ted": 782,
      "two": 783,
      "tum": 784,
      "ure": 785,
      "vow": 786,
      "wful": 787,
      "word": 788,
      "yet": 789,
      "zen": 790,
      "ease": 791,
      "ora": 792,
      "orn": 793,
      "ors": 794,
      "vex": 795,
      "rep": 796,
      "led": 797,
      "eel": 798,
      "rite": 799,
      "beg": 800,
      "una": 801,
      "ldi": 802,
      "mpt": 803,
      "rup": 804,
      "som": 805,
      "dog": 806,
      "gran": 807,
      "did": 808,
      "brea": 809,
      "brother": 810,
      "ils": 811,
      "boy": 812,
      "Not": 813,
      "ILD": 814,
      "Beg": 815,
      "tyr": 816,
      "lieve": 817,
      "ORA": 818,
      "ORS": 819,
      "lux": 820,
      "RST": 821,
      "sky": 822,
      "LUC": 823,
      "Come": 824,
      "Call": 825,
      "Dear": 826,
      "Dead": 827,
      "Even": 828,
      "Fir": 829,
      "Good": 830,
      "Hang": 831,
      "Shea": 832,
      "Tend": 833,
      "Than": 834,
      "Tell": 835,
      "Trib": 836,
      "Were": 837,
      "awhi": 838,
      "bst": 839,
      "burn": 840,
      "both": 841,
      "been": 842,
      "cing": 843,
      "clea": 844,
      "ched": 845,
      "chee": 846,
      "ded": 847,
      "draw": 848,
      "danc": 849,
      "fear": 850,
      "fun": 851,
      "food": 852,
      "foul": 853,
      "feed": 854,
      "fles": 855,
      "gone": 856,
      "kill": 857,
      "lear": 858,
      "less": 859,
      "loud": 860,
      "mm": 861,
      "mine": 862,
      "must": 863,
      "nse": 864,
      "nate": 865,
      "nifi": 866,
      "other": 867,
      "oof": 868,
      "oath": 869,
      "pis": 870,
      "phi": 871,
      "pear": 872,
      "pill": 873,
      "pron": 874,
      "sust": 875,
      "sum": 876,
      "ums": 877,
      "vain": 878,
      "wood": 879,
      "wall": 880,
      "wret": 881,
      "throw": 882,
      "erv": 883,
      "eral": 884,
      "ount": 885,
      "ins": 886,
      "into": 887,
      "hast": 888,
      "ony": 889,
      "melt": 890,
      "vent": 891,
      "reli": 892,
      "requ": 893,
      "repa": 894,
      "star": 895,
      "stay": 896,
      "stop": 897,
      "told": 898,
      "tomb": 899,
      "leep": 900,
      "wife": 901,
      "lips": 902,
      "hein": 903,
      "help": 904,
      "atru": 905,
      "atte": 906,
      "ours": 907,
      "fam": 908,
      "fall": 909,
      "fare": 910,
      "fast": 911,
      "robb": 912,
      "bell": 913,
      "ush": 914,
      "form": 915,
      "ings": 916,
      "sequ": 917,
      "unes": 918,
      "race": 919,
      "owed": 920,
      "ldly": 921,
      "fume": 922,
      "many": 923,
      "mbly": 924,
      "deaf": 925,
      "sobs": 926,
      "made": 927,
      "shut": 928,
      "fell": 929,
      "side": 930,
      "weed": 931,
      "weep": 932,
      "love": 933,
      "lopp": 934,
      "doth": 935,
      "dost": 936,
      "quin": 937,
      "heal": 938,
      "cony": 939,
      "ords": 940,
      "veng": 941,
      "dies": 942,
      "Thou": 943,
      "cold": 944,
      "tion": 945,
      "time": 946,
      "body": 947,
      "peop": 948,
      "save": 949,
      "trib": 950,
      "isses": 951,
      "most": 952,
      "breth": 953,
      "pale": 954,
      "pret": 955,
      "prey": 956,
      "Unto": 957,
      "worth": 958,
      "Alar": 959,
      "Alas": 960,
      "Stay": 961,
      "tree": 962,
      "ults": 963,
      "warm": 964,
      "took": 965,
      "rawl": 966,
      "talk": 967,
      "pleas": 968,
      "news": 969,
      "cue": 970,
      "name": 971,
      "vern": 972,
      "Deme": 973,
      "knee": 974,
      "much": 975,
      "rink": 976,
      "ounc": 977,
      "wert": 978,
      "High": 979,
      "Rema": 980,
      "dumb": 981,
      "ALAR": 982,
      "Moor": 983,
      "Sung": 984,
      "SONS": 985,
      "damn": 986,
      "ject": 987,
      "mity": 988,
      "murd": 989,
      "puts": 990,
      "soft": 991,
      "task": 992,
      "Bring": 993,
      "Imper": 994,
      "Proud": 995,
      "Shall": 996,
      "Sound": 997,
      "Speak": 998,
      "Where": 999,
      "Which": 1000,
      "aud": 1001,
      "climb": 1002,
      "ceed": 1003,
      "cease": 1004,
      "dear": 1005,
      "drown": 1006,
      "grow": 1007,
      "hears": 1008,
      "nance": 1009,
      "prom": 1010,
      "since": 1011,
      "tent": 1012,
      "ument": 1013,
      "where": 1014,
      "wound": 1015,
      "inhu": 1016,
      "these": 1017,
      "harms": 1018,
      "redee": 1019,
      "stand": 1020,
      "stone": 1021,
      "stain": 1022,
      "story": 1023,
      "strai": 1024,
      "steel": 1025,
      "hither": 1026,
      "there": 1027,
      "faith": 1028,
      "rites": 1029,
      "riors": 1030,
      "offen": 1031,
      "behea": 1032,
      "itory": 1033,
      "rails": 1034,
      "youth": 1035,
      "irous": 1036,
      "ters": 1037,
      "aloof": 1038,
      "might": 1039,
      "though": 1040,
      "bleed": 1041,
      "manes": 1042,
      "soldi": 1043,
      "weeps": 1044,
      "ineth": 1045,
      "among": 1046,
      "grand": 1047,
      "gress": 1048,
      "spare": 1049,
      "queen": 1050,
      "fiend": 1051,
      "heavy": 1052,
      "truth": 1053,
      "lead": 1054,
      "These": 1055,
      "cozen": 1056,
      "woman": 1057,
      "unter": 1058,
      "canst": 1059,
      "lords": 1060,
      "bosom": 1061,
      "obliv": 1062,
      "ATORS": 1063,
      "hence": 1064,
      "March": 1065,
      "Whose": 1066,
      "sorry": 1067,
      "slain": 1068,
      "deeds": 1069,
      "GOTHS": 1070,
      "adorn": 1071,
      "scath": 1072,
      "scars": 1073,
      "Uncle": 1074,
      "ppeas": 1075,
      "Stand": 1076,
      "banish": 1077,
      "fetch": 1078,
      "tales": 1079,
      "lusty": 1080,
      "lieves": 1081,
      "trunk": 1082,
      "house": 1083,
      "stabs": 1084,
      "enemy": 1085,
      "indly": 1086,
      "point": 1087,
      "BUNES": 1088,
      "LAVIN": 1089,
      "accur": 1090,
      "turb": 1091,
      "incar": 1092,
      "CHILD": 1093,
      "FIRST": 1094,
      "again": 1095,
      "drops": 1096,
      "dows": 1097,
      "mouth": 1098,
      "serve": 1099,
      "satis": 1100,
      "Appro": 1101,
      "Titus": 1102,
      "boots": 1103,
      "image": 1104,
      "smoke": 1105,
      "First": 1106,
      "clean": 1107,
      "flesh": 1108,
      "kills": 1109,
      "learn": 1110,
      "pearl": 1111,
      "atrum": 1112,
      "Kisses": 1113,
      "able": 1114,
      "emper": 1115,
      "fought": 1116,
      "nought": 1117,
      "thing": 1118,
      "thrown": 1119,
      "methin": 1120,
      "reveng": 1121,
      "strong": 1122,
      "tofore": 1123,
      "theren": 1124,
      "faults": 1125,
      "earthy": 1126,
      "behold": 1127,
      "better": 1128,
      "believe": 1129,
      "befall": 1130,
      "myself": 1131,
      "unhall": 1132,
      "unjust": 1133,
      "within": 1134,
      "withal": 1135,
      "asleep": 1136,
      "mildly": 1137,
      "lament": 1138,
      "lawful": 1139,
      "enmity": 1140,
      "shrink": 1141,
      "ently": 1142,
      "govern": 1143,
      "sprawl": 1144,
      "consum": 1145,
      "Lastly": 1146,
      "leaves": 1147,
      "urious": 1148,
      "selves": 1149,
      "minded": 1150,
      "bastar": 1151,
      "prodig": 1152,
      "obsequ": 1153,
      "object": 1154,
      "swords": 1155,
      "Before": 1156,
      "turned": 1157,
      "trius": 1158,
      "trimm": 1159,
      "beasts": 1160,
      "deadly": 1161,
      "imony": 1162,
      "advent": 1163,
      "worthy": 1164,
      "despis": 1165,
      "fetter": 1166,
      "humbly": 1167,
      "treble": 1168,
      "atient": 1169,
      "atiate": 1170,
      "please": 1171,
      "kisses": 1172,
      "basely": 1173,
      "Romans": 1174,
      "griefs": 1175,
      "pities": 1176,
      "rescue": 1177,
      "subst": 1178,
      "judges": 1179,
      "larums": 1180,
      "nature": 1181,
      "halter": 1182,
      "Chiron": 1183,
      "Citing": 1184,
      "MARCUS": 1185,
      "Tamora": 1186,
      "TAMORA": 1187,
      "ambush": 1188,
      "closed": 1189,
      "duties": 1190,
      "honour": 1191,
      "martyr": 1192,
      "pardon": 1193,
      "trophi": 1194,
      "titles": 1195,
      "tumult": 1196,
      "report": 1197,
      "rupter": 1198,
      "LUCIUS": 1199,
      "Thanks": 1200,
      "awhile": 1201,
      "cheeks": 1202,
      "nifies": 1203,
      "pillow": 1204,
      "relief": 1205,
      "repair": 1206,
      "famish": 1207,
      "people": 1208,
      "pretty": 1209,
      "dearer": 1210,
      "promis": 1211,
      "redeem": 1212,
      "nourish": 1213,
      "another": 1214,
      "thereat": 1215,
      "believ": 1216,
      "becomes": 1217,
      "thought": 1218,
      "letters": 1219,
      "content": 1220,
      "digress": 1221,
      "whither": 1222,
      "welcome": 1223,
      "welfare": 1224,
      "Welcome": 1225,
      "perform": 1226,
      "perfume": 1227,
      "woefull": 1228,
      "incense": 1229,
      "lasting": 1230,
      "showers": 1231,
      "preserv": 1232,
      "hanging": 1233,
      "hateful": 1234,
      "wouldst": 1235,
      "sorrows": 1236,
      "shadows": 1237,
      "fratrum": 1238,
      "vaunter": 1239,
      "faction": 1240,
      "fortune": 1241,
      "recount": 1242,
      "Tarquin": 1243,
      "balcony": 1244,
      "disturb": 1245,
      "embrace": 1246,
      "granted": 1247,
      "breathe": 1248,
      "burning": 1249,
      "funeral": 1250,
      "requite": 1251,
      "heinous": 1252,
      "attempt": 1253,
      "weeping": 1254,
      "tribune": 1255,
      "Alarbus": 1256,
      "ALARBUS": 1257,
      "growing": 1258,
      "wherein": 1259,
      "inhuman": 1260,
      "offence": 1261,
      "leading": 1262,
      "LAVINIA": 1263,
      "relieves": 1264,
      "although": 1265,
      "entrails": 1266,
      "proceed": 1267,
      "wrongful": 1268,
      "interest": 1269,
      "banished": 1270,
      "desirous": 1271,
      "warriors": 1272,
      "unkindly": 1273,
      "mourning": 1274,
      "mournful": 1275,
      "detested": 1276,
      "villains": 1277,
      "received": 1278,
      "ravished": 1279,
      "monument": 1280,
      "Flourish": 1281,
      "SENATORS": 1282,
      "TRIBUNES": 1283,
      "unappeas": 1284,
      "Tribunes": 1285,
      "pronounc": 1286,
      "wretched": 1287,
      "brethren": 1288,
      "Highness": 1289,
      "auditory": 1290,
      "straight": 1291,
      "faithful": 1292,
      "beheaded": 1293,
      "soldiers": 1294,
      "oblivion": 1295,
      "accursed": 1296,
      "Approved": 1297,
      "emperess": 1298,
      "methinks": 1299,
      "bastardy": 1300,
      "trimming": 1301,
      "trophies": 1302,
      "Therefore": 1303,
      "forthwith": 1304,
      "bretheren": 1305,
      "presently": 1306,
      "sorrowful": 1307,
      "sacrifice": 1308,
      "signifies": 1309,
      "testimony": 1310,
      "impatient": 1311,
      "luxurious": 1312,
      "Sheathing": 1313,
      "insatiate": 1314,
      "worthless": 1315,
      "Demetrius": 1316,
      "Remaineth": 1317,
      "Imperious": 1318,
      "therefore": 1319,
      "grandsire": 1320,
      "household": 1321,
      "incarnate": 1322,
      "prodigies": 1323,
      "substance": 1324,
      "believest": 1325,
      "themselves": 1326,
      "detestable": 1327,
      "banishment": 1328,
      "unhallowed": 1329,
      "obsequious": 1330,
      "everlasting": 1331,
      "interrupter": 1332,
      "sacrificing": 1333,
      "proceedings": 1334,
      "satisfaction": 1335,
      "devo": 1336,
      "pity": 1337,
      "devoid": 1338,
      "ng": 1339,
      "An": 1340,
      "yo": 1341,
      "prisoner": 1342,
      "fo": 1343,
      "rs": 1344,
      "ends": 1345,
      "tha": 1346,
      "ot": 1347,
      "ather": 1348,
      "fat": 1349,
      "wh": 1350,
      "thi": 1351,
      "fath": 1352,
      "fathe": 1353,
      "Tha": 1354,
      "Rom": 1355,
      "proudest": 1356,
      "od": 1357,
      "om": 1358,
      "Emper": 1359,
      "ave": 1360,
      "rn": 1361,
      "ss": 1362,
      "ul": 1363,
      "bu": 1364,
      "ht": 1365,
      "wa": 1366,
      "tho": 1367,
      "wil": 1368,
      "Wh": 1369,
      "el": 1370,
      "iv": 1371,
      "unc": 1372,
      "Em": 1373,
      "em": 1374,
      "Lav": 1375,
      "Luci": 1376,
      "vinia": 1377,
      "shal": 1378,
      "Bu": 1379,
      "ast": 1380,
      "eir": 1381,
      "ny": 1382,
      "nes": 1383,
      "rth": 1384,
      "wn": 1385,
      "thei": 1386,
      "heir": 1387,
      "frie": 1388,
      "frien": 1389,
      "Ent": 1390,
      "Fo": 1391,
      "Ma": 1392,
      "ake": 1393,
      "bea": 1394,
      "eve": 1395,
      "ight": 1396,
      "ife": 1397,
      "iends": 1398,
      "nce": 1399,
      "oble": 1400,
      "peror": 1401,
      "ror": 1402,
      "nds": 1403,
      "hey": 1404,
      "nob": 1405,
      "nobl": 1406,
      "riends": 1407,
      "mperor": 1408,
      "mbs": 1409,
      "Empe": 1410,
      "ronicus": 1411,
      "urnine": 1412,
      "trump": 1413,
      "brou": 1414,
      "emies": 1415,
      "graci": 1416,
      "URNINUS": 1417,
      "Androni": 1418,
      "Empero": 1419,
      "Le": 1420,
      "Sa": 1421,
      "ak": 1422,
      "aw": 1423,
      "bur": 1424,
      "fro": 1425,
      "ges": 1426,
      "ie": 1427,
      "ike": 1428,
      "min": 1429,
      "nk": 1430,
      "ncle": 1431,
      "rd": 1432,
      "sho": 1433,
      "tu": 1434,
      "ue": 1435,
      "uld": 1436,
      "ught": 1437,
      "vil": 1438,
      "ister": 1439,
      "eath": 1440,
      "hav": 1441,
      "ster": 1442,
      "lif": 1443,
      "lik": 1444,
      "hers": 1445,
      "deat": 1446,
      "brot": 1447,
      "broth": 1448,
      "brothe": 1449,
      "sist": 1450,
      "siste": 1451,
      "Go": 1452,
      "Thi": 1453,
      "Ther": 1454,
      "ai": 1455,
      "ase": 1456,
      "ace": 1457,
      "aven": 1458,
      "avinia": 1459,
      "ca": 1460,
      "cl": 1461,
      "fou": 1462,
      "gi": 1463,
      "goo": 1464,
      "giv": 1465,
      "ire": 1466,
      "ial": 1467,
      "ich": 1468,
      "lor": 1469,
      "nou": 1470,
      "nto": 1471,
      "nour": 1472,
      "nia": 1473,
      "old": 1474,
      "pl": 1475,
      "pra": 1476,
      "reat": 1477,
      "swe": 1478,
      "tea": 1479,
      "tear": 1480,
      "ucius": 1481,
      "ving": 1482,
      "wr": 1483,
      "inia": 1484,
      "orth": 1485,
      "eep": 1486,
      "eet": 1487,
      "rothers": 1488,
      "rial": 1489,
      "eart": 1490,
      "arrel": 1491,
      "ceive": 1492,
      "mak": 1493,
      "spe": 1494,
      "spea": 1495,
      "fice": 1496,
      "ficing": 1497,
      "urial": 1498,
      "Luc": 1499,
      "barbar": 1500,
      "barba": 1501,
      "buria": 1502,
      "Lavini": 1503,
      "sac": 1504,
      "Exeu": 1505,
      "Exeun": 1506,
      "Wel": 1507,
      "pledg": 1508,
      "AEM": 1509,
      "Muti": 1510,
      "MILIUS": 1511,
      "SATU": 1512,
      "Aemili": 1513,
      "AEMILI": 1514,
      "SATURNIN": 1515,
      "enem": 1516,
      "satisfac": 1517,
      "uncl": 1518,
      "Lavi": 1519,
      "Luciu": 1520,
      "AA": 1521,
      "En": 1522,
      "Fa": 1523,
      "Far": 1524,
      "Got": 1525,
      "OTH": 1526,
      "RON": 1527,
      "Se": 1528,
      "TI": 1529,
      "Ti": 1530,
      "TUS": 1531,
      "Wha": 1532,
      "au": 1533,
      "aise": 1534,
      "bi": 1535,
      "bas": 1536,
      "blo": 1537,
      "beas": 1538,
      "dr": 1539,
      "dly": 1540,
      "emp": 1541,
      "eunt": 1542,
      "ewell": 1543,
      "efore": 1544,
      "ehold": 1545,
      "gs": 1546,
      "gre": 1547,
      "gen": 1548,
      "hould": 1549,
      "io": 1550,
      "ile": 1551,
      "ild": 1552,
      "ief": 1553,
      "imbs": 1554,
      "ki": 1555,
      "kis": 1556,
      "kno": 1557,
      "lf": 1558,
      "las": 1559,
      "lood": 1560,
      "mor": 1561,
      "nc": 1562,
      "ning": 1563,
      "nous": 1564,
      "nine": 1565,
      "nvey": 1566,
      "nemies": 1567,
      "oman": 1568,
      "pon": 1569,
      "pil": 1570,
      "rm": 1571,
      "rds": 1572,
      "sl": 1573,
      "tle": 1574,
      "tly": 1575,
      "uth": 1576,
      "wou": 1577,
      "wha": 1578,
      "whe": 1579,
      "wro": 1580,
      "wron": 1581,
      "ye": 1582,
      "yself": 1583,
      "thren": 1584,
      "inte": 1585,
      "onvey": 1586,
      "rewell": 1587,
      "sto": 1588,
      "ans": 1589,
      "lim": 1590,
      "hem": 1591,
      "aturnine": 1592,
      "hild": 1593,
      "bel": 1594,
      "bet": 1595,
      "arm": 1596,
      "arth": 1597,
      "arnate": 1598,
      "ntle": 1599,
      "ows": 1600,
      "mies": 1601,
      "rue": 1602,
      "evil": 1603,
      "law": 1604,
      "arewell": 1605,
      "shou": 1606,
      "shoul": 1607,
      "sigh": 1608,
      "entle": 1609,
      "grea": 1610,
      "heav": 1611,
      "trum": 1612,
      "conv": 1613,
      "conve": 1614,
      "rows": 1615,
      "rowful": 1616,
      "ARON": 1617,
      "whic": 1618,
      "ains": 1619,
      "upo": 1620,
      "ishment": 1621,
      "everlast": 1622,
      "devi": 1623,
      "bloo": 1624,
      "proc": 1625,
      "GOT": 1626,
      "ITUS": 1627,
      "AARO": 1628,
      "Marc": 1629,
      "Satu": 1630,
      "Satur": 1631,
      "TITU": 1632,
      "chil": 1633,
      "sorr": 1634,
      "turnine": 1635,
      "Farew": 1636,
      "Farewe": 1637,
      "Farewel": 1638,
      "gentl": 1639,
      "themsel": 1640,
      "interrup": 1641,
      "enemie": 1642,
      "Saturni": 1643,
      "Saturnin": 1644,
      "tak": 1645,
      "banis": 1646,
      "warri": 1647,
      "detesta": 1648,
      "sacrific": 1649,
      "xeunt": 1650,
      "sign": 1651,
      "monu": 1652,
      "digies": 1653,
      "testim": 1654,
      "Flour": 1655,
      "SENAT": 1656,
      "TRIBU": 1657,
      "impati": 1658,
      "luxuri": 1659,
      "ceedings": 1660,
      "ngs": 1661,
      "rnine": 1662,
      "elf": 1663,
      "Ente": 1664,
      "Ae": 1665,
      "Aw": 1666,
      "Ala": 1667,
      "Awa": 1668,
      "Aem": 1669,
      "Bef": 1670,
      "Ca": 1671,
      "CIUS": 1672,
      "Dea": 1673,
      "EMILIUS": 1674,
      "Imp": 1675,
      "Kis": 1676,
      "LIUS": 1677,
      "Mu": 1678,
      "Man": 1679,
      "NUS": 1680,
      "NINUS": 1681,
      "Ou": 1682,
      "Pr": 1683,
      "SA": 1684,
      "Sh": 1685,
      "Si": 1686,
      "Sp": 1687,
      "Sw": 1688,
      "Sir": 1689,
      "Swe": 1690,
      "Swee": 1691,
      "Sta": 1692,
      "Ta": 1693,
      "Te": 1694,
      "Til": 1695,
      "TURNINUS": 1696,
      "Whi": 1697,
      "acri": 1698,
      "acious": 1699,
      "astly": 1700,
      "awa": 1701,
      "bone": 1702,
      "bune": 1703,
      "bunes": 1704,
      "che": 1705,
      "da": 1706,
      "dder": 1707,
      "dronicus": 1708,
      "eg": 1709,
      "ew": 1710,
      "ein": 1711,
      "eive": 1712,
      "equ": 1713,
      "efull": 1714,
      "elcome": 1715,
      "eceive": 1716,
      "fir": 1717,
      "ga": 1718,
      "gro": 1719,
      "gies": 1720,
      "gate": 1721,
      "gnifies": 1722,
      "hs": 1723,
      "hin": 1724,
      "hine": 1725,
      "hum": 1726,
      "hese": 1727,
      "iou": 1728,
      "ither": 1729,
      "iev": 1730,
      "iend": 1731,
      "ipe": 1732,
      "ives": 1733,
      "iger": 1734,
      "ilius": 1735,
      "jus": 1736,
      "ls": 1737,
      "lus": 1738,
      "mes": 1739,
      "ming": 1740,
      "nea": 1741,
      "nful": 1742,
      "nks": 1743,
      "nicus": 1744,
      "othe": 1745,
      "ost": 1746,
      "oving": 1747,
      "pets": 1748,
      "prai": 1749,
      "rthy": 1750,
      "reast": 1751,
      "rish": 1752,
      "rcus": 1753,
      "rought": 1754,
      "rrel": 1755,
      "rbarous": 1756,
      "rison": 1757,
      "sou": 1758,
      "ses": 1759,
      "sir": 1760,
      "swee": 1761,
      "tand": 1762,
      "ting": 1763,
      "tay": 1764,
      "tness": 1765,
      "tory": 1766,
      "und": 1767,
      "ull": 1768,
      "uit": 1769,
      "umpets": 1770,
      "uarrel": 1771,
      "vi": 1772,
      "vished": 1773,
      "wear": 1774,
      "woul": 1775,
      "xit": 1776,
      "xurious": 1777,
      "thr": 1778,
      "ths": 1779,
      "thro": 1780,
      "outh": 1781,
      "ndronicus": 1782,
      "insat": 1783,
      "isfaction": 1784,
      "eathe": 1785,
      "eaven": 1786,
      "eans": 1787,
      "halt": 1788,
      "ones": 1789,
      "onicus": 1790,
      "mee": 1791,
      "metrius": 1792,
      "andsire": 1793,
      "refore": 1794,
      "relie": 1795,
      "str": 1796,
      "ank": 1797,
      "anted": 1798,
      "ledges": 1799,
      "wip": 1800,
      "lief": 1801,
      "ates": 1802,
      "hies": 1803,
      "theref": 1804,
      "eem": 1805,
      "Andr": 1806,
      "Andro": 1807,
      "rit": 1808,
      "rius": 1809,
      "rious": 1810,
      "rief": 1811,
      "beh": 1812,
      "bei": 1813,
      "bein": 1814,
      "beli": 1815,
      "befa": 1816,
      "beho": 1817,
      "belie": 1818,
      "arous": 1819,
      "arcus": 1820,
      "ardy": 1821,
      "arbarous": 1822,
      "itness": 1823,
      "sen": 1824,
      "sehold": 1825,
      "racious": 1826,
      "utius": 1827,
      "thys": 1828,
      "thyse": 1829,
      "thysel": 1830,
      "etter": 1831,
      "etest": 1832,
      "oom": 1833,
      "mpress": 1834,
      "urb": 1835,
      "urish": 1836,
      "asle": 1837,
      "ghness": 1838,
      "althou": 1839,
      "mild": 1840,
      "milius": 1841,
      "edges": 1842,
      "ruit": 1843,
      "rumpets": 1844,
      "hallowed": 1845,
      "lain": 1846,
      "lave": 1847,
      "ence": 1848,
      "enous": 1849,
      "Empr": 1850,
      "Empre": 1851,
      "Empres": 1852,
      "herefore": 1853,
      "maineth": 1854,
      "entra": 1855,
      "urning": 1856,
      "lovin": 1857,
      "qua": 1858,
      "heave": 1859,
      "headed": 1860,
      "cont": 1861,
      "venous": 1862,
      "prou": 1863,
      "pris": 1864,
      "press": 1865,
      "digr": 1866,
      "Exi": 1867,
      "breas": 1868,
      "ARBUS": 1869,
      "Last": 1870,
      "emilius": 1871,
      "oths": 1872,
      "coz": 1873,
      "tig": 1874,
      "til": 1875,
      "ties": 1876,
      "tius": 1877,
      "tige": 1878,
      "grac": 1879,
      "grav": 1880,
      "livion": 1881,
      "nown": 1882,
      "barb": 1883,
      "rongs": 1884,
      "erefore": 1885,
      "hank": 1886,
      "ople": 1887,
      "proved": 1888,
      "obj": 1889,
      "obs": 1890,
      "obse": 1891,
      "ATURNINUS": 1892,
      "ILIUS": 1893,
      "swea": 1894,
      "Marcu": 1895,
      "sorro": 1896,
      "slav": 1897,
      "trim": 1898,
      "lovi": 1899,
      "beastl": 1900,
      "tempt": 1901,
      "Roma": 1902,
      "witn": 1903,
      "witne": 1904,
      "witnes": 1905,
      "adder": 1906,
      "welfa": 1907,
      "bret": 1908,
      "pled": 1909,
      "sca": 1910,
      "RNINUS": 1911,
      "pair": 1912,
      "perf": 1913,
      "perfu": 1914,
      "wort": 1915,
      "bani": 1916,
      "desi": 1917,
      "desir": 1918,
      "dete": 1919,
      "detes": 1920,
      "frui": 1921,
      "grie": 1922,
      "human": 1923,
      "humb": 1924,
      "mean": 1925,
      "unkind": 1926,
      "ladd": 1927,
      "ladde": 1928,
      "Aemil": 1929,
      "villa": 1930,
      "villai": 1931,
      "recei": 1932,
      "receiv": 1933,
      "quarr": 1934,
      "quarre": 1935,
      "prese": 1936,
      "present": 1937,
      "lievest": 1938,
      "sacrif": 1939,
      "ravenou": 1940,
      "SATURNI": 1941,
      "bird": 1942,
      "hyself": 1943,
      "ithful": 1944,
      "frat": 1945,
      "Som": 1946,
      "raveno": 1947,
      "sub": 1948,
      "ongs": 1949,
      "raight": 1950,
      "vaunt": 1951,
      "thinks": 1952,
      "ravis": 1953,
      "signifi": 1954,
      "LAV": 1955,
      "judg": 1956,
      "mony": 1957,
      "serv": 1958,
      "MARC": 1959,
      "Tarqu": 1960,
      "VINIA": 1961,
      "cursed": 1962,
      "embra": 1963,
      "fence": 1964,
      "trop": 1965,
      "unap": 1966,
      "unapp": 1967,
      "ldiers": 1968,
      "LUCI": 1969,
      "bstance": 1970,
      "funer": 1971,
      "mming": 1972,
      "phies": 1973,
      "insati": 1974,
      "stardy": 1975,
      "sequious": 1976,
      "Demetri": 1977,
      "Remain": 1978,
      "audit": 1979,
      "househo": 1980,
      "unhallow": 1981,
      "omes": 1982,
      "rning": 1983,
      "sses": 1984,
      "trumpe": 1985,
      "trumpet": 1986,
      "broug": 1987,
      "brough": 1988,
      "gracio": 1989,
      "graciou": 1990,
      "Andronic": 1991,
      "Andronicu": 1992,
      "avenous": 1993,
      "prais": 1994,
      "barbarou": 1995,
      "barbaro": 1996,
      "sacr": 1997,
      "pledge": 1998,
      "AEMI": 1999,
      "Mutiu": 2000,
      "SATUR": 2001,
      "Aemiliu": 2002,
      "AEMILIU": 2003,
      "SATURNINU": 2004,
      "satisfacti": 2005,
      "audi": 2006,
      "procee": 2007,
      "TRIBUN": 2008,
      "Ar": 2009,
      "App": 2010,
      "ALA": 2011,
      "AVINIA": 2012,
      "Br": 2013,
      "Bri": 2014,
      "Brin": 2015,
      "Ch": 2016,
      "Ci": 2017,
      "Co": 2018,
      "Cal": 2019,
      "Com": 2020,
      "Ev": 2021,
      "Eve": 2022,
      "Fi": 2023,
      "Flo": 2024,
      "Firs": 2025,
      "Ge": 2026,
      "Gi": 2027,
      "Goo": 2028,
      "Giv": 2029,
      "HS": 2030,
      "Ha": 2031,
      "Han": 2032,
      "HILD": 2033,
      "Im": 2034,
      "IRST": 2035,
      "IBUNES": 2036,
      "Ki": 2037,
      "Kiss": 2038,
      "LD": 2039,
      "Las": 2040,
      "LARBUS": 2041,
      "MA": 2042,
      "Moo": 2043,
      "MORA": 2044,
      "NS": 2045,
      "NIA": 2046,
      "NATORS": 2047,
      "Pro": 2048,
      "RA": 2049,
      "RBUS": 2050,
      "RCUS": 2051,
      "SE": 2052,
      "SO": 2053,
      "ST": 2054,
      "Su": 2055,
      "Sou": 2056,
      "Sha": 2057,
      "She": 2058,
      "Spe": 2059,
      "Soun": 2060,
      "Shal": 2061,
      "TA": 2062,
      "TR": 2063,
      "Tr": 2064,
      "Tri": 2065,
      "Ten": 2066,
      "Tho": 2067,
      "TORS": 2068,
      "Tel": 2069,
      "Unt": 2070,
      "UNES": 2071,
      "UCIUS": 2072,
      "Wer": 2073,
      "Whe": 2074,
      "Wher": 2075,
      "af": 2076,
      "ax": 2077,
      "athe": 2078,
      "ame": 2079,
      "ale": 2080,
      "air": 2081,
      "ado": 2082,
      "ament": 2083,
      "ade": 2084,
      "abs": 2085,
      "aves": 2086,
      "age": 2087,
      "avy": 2088,
      "awful": 2089,
      "ails": 2090,
      "aults": 2091,
      "aineth": 2092,
      "aunter": 2093,
      "appeas": 2094,
      "awh": 2095,
      "aight": 2096,
      "avished": 2097,
      "aithful": 2098,
      "astardy": 2099,
      "bee": 2100,
      "bly": 2101,
      "brace": 2102,
      "bject": 2103,
      "blivion": 2104,
      "bsequious": 2105,
      "cr": 2106,
      "ct": 2107,
      "cea": 2108,
      "cli": 2109,
      "cath": 2110,
      "ceas": 2111,
      "cars": 2112,
      "count": 2113,
      "ction": 2114,
      "clim": 2115,
      "carnate": 2116,
      "ccursed": 2117,
      "dst": 2118,
      "dan": 2119,
      "ding": 2120,
      "dra": 2121,
      "drow": 2122,
      "dest": 2123,
      "dum": 2124,
      "dsire": 2125,
      "dorn": 2126,
      "dvent": 2127,
      "dings": 2128,
      "ditory": 2129,
      "ex": 2130,
      "eth": 2131,
      "emy": 2132,
      "eing": 2133,
      "ely": 2134,
      "eble": 2135,
      "eful": 2136,
      "elt": 2137,
      "eks": 2138,
      "eps": 2139,
      "ecomes": 2140,
      "ews": 2141,
      "elp": 2142,
      "empt": 2143,
      "elieve": 2144,
      "efall": 2145,
      "eveng": 2146,
      "elieves": 2147,
      "etheren": 2148,
      "ethren": 2149,
      "emetrius": 2150,
      "elief": 2151,
      "emaineth": 2152,
      "eheaded": 2153,
      "eople": 2154,
      "epair": 2155,
      "elievest": 2156,
      "ethinks": 2157,
      "fl": 2158,
      "fs": 2159,
      "ft": 2160,
      "fea": 2161,
      "fle": 2162,
      "fee": 2163,
      "fra": 2164,
      "foo": 2165,
      "fune": 2166,
      "ffence": 2167,
      "gon": 2168,
      "ging": 2169,
      "gful": 2170,
      "gain": 2171,
      "hing": 2172,
      "hut": 2173,
      "hwith": 2174,
      "hous": 2175,
      "hful": 2176,
      "hrow": 2177,
      "hought": 2178,
      "hness": 2179,
      "hment": 2180,
      "hrown": 2181,
      "hren": 2182,
      "hless": 2183,
      "hrink": 2184,
      "ime": 2185,
      "ice": 2186,
      "imb": 2187,
      "ient": 2188,
      "ips": 2189,
      "ide": 2190,
      "iers": 2191,
      "iate": 2192,
      "iors": 2193,
      "icing": 2194,
      "ildly": 2195,
      "igress": 2196,
      "ieve": 2197,
      "ibune": 2198,
      "ibunes": 2199,
      "igies": 2200,
      "ignifies": 2201,
      "ighness": 2202,
      "jud": 2203,
      "ky": 2204,
      "kil": 2205,
      "kne": 2206,
      "kindly": 2207,
      "lk": 2208,
      "lou": 2209,
      "low": 2210,
      "lter": 2211,
      "lves": 2212,
      "lourish": 2213,
      "lfare": 2214,
      "lowed": 2215,
      "lcony": 2216,
      "lthough": 2217,
      "mn": 2218,
      "mis": 2219,
      "mus": 2220,
      "mish": 2221,
      "mout": 2222,
      "mult": 2223,
      "mong": 2224,
      "mora": 2225,
      "mselves": 2226,
      "ner": 2227,
      "nst": 2228,
      "nan": 2229,
      "nee": 2230,
      "nam": 2231,
      "njust": 2232,
      "nished": 2233,
      "nanc": 2234,
      "neral": 2235,
      "nounc": 2236,
      "nmity": 2237,
      "nument": 2238,
      "nishment": 2239,
      "nhallowed": 2240,
      "nhuman": 2241,
      "oa": 2242,
      "oe": 2243,
      "og": 2244,
      "ok": 2245,
      "ov": 2246,
      "oy": 2247,
      "oor": 2248,
      "ove": 2249,
      "oat": 2250,
      "ose": 2251,
      "oke": 2252,
      "omb": 2253,
      "obl": 2254,
      "ody": 2255,
      "osed": 2256,
      "ots": 2257,
      "oint": 2258,
      "oved": 2259,
      "ozen": 2260,
      "osom": 2261,
      "overn": 2262,
      "odigies": 2263,
      "oceedings": 2264,
      "oefull": 2265,
      "oldiers": 2266,
      "pt": 2267,
      "pu": 2268,
      "pea": 2269,
      "pri": 2270,
      "ping": 2271,
      "pter": 2272,
      "pal": 2273,
      "pare": 2274,
      "peas": 2275,
      "port": 2276,
      "prawl": 2277,
      "patient": 2278,
      "pproved": 2279,
      "rb": 2280,
      "rl": 2281,
      "rv": 2282,
      "rer": 2283,
      "rou": 2284,
      "rve": 2285,
      "rst": 2286,
      "rch": 2287,
      "rest": 2288,
      "rry": 2289,
      "rdy": 2290,
      "rsed": 2291,
      "runk": 2292,
      "rdon": 2293,
      "rned": 2294,
      "rbus": 2295,
      "rtyr": 2296,
      "rnate": 2297,
      "rform": 2298,
      "rfume": 2299,
      "rquin": 2300,
      "rriors": 2301,
      "ratrum": 2302,
      "rrupter": 2303,
      "rlasting": 2304,
      "rrows": 2305,
      "rrowful": 2306,
      "reathe": 2307,
      "randsire": 2308,
      "ranted": 2309,
      "sm": 2310,
      "sin": 2311,
      "she": 2312,
      "sus": 2313,
      "swo": 2314,
      "sati": 2315,
      "sinc": 2316,
      "sleep": 2317,
      "sirous": 2318,
      "satiate": 2319,
      "sfaction": 2320,
      "tw": 2321,
      "tus": 2322,
      "tch": 2323,
      "tone": 2324,
      "tain": 2325,
      "trong": 2326,
      "tty": 2327,
      "tles": 2328,
      "tune": 2329,
      "tance": 2330,
      "ture": 2331,
      "teel": 2332,
      "tched": 2333,
      "trails": 2334,
      "tardy": 2335,
      "ttempt": 2336,
      "traight": 2337,
      "uin": 2338,
      "ume": 2339,
      "ugh": 2340,
      "uman": 2341,
      "umb": 2342,
      "uch": 2343,
      "udges": 2344,
      "uious": 2345,
      "ueen": 2346,
      "uite": 2347,
      "umbly": 2348,
      "uxurious": 2349,
      "ubstance": 2350,
      "vo": 2351,
      "vest": 2352,
      "vion": 2353,
      "wl": 2354,
      "wre": 2355,
      "wing": 2356,
      "wher": 2357,
      "woo": 2358,
      "wal": 2359,
      "wers": 2360,
      "woun": 2361,
      "yr": 2362,
      "thwith": 2363,
      "thal": 2364,
      "thful": 2365,
      "thless": 2366,
      "ern": 2367,
      "ert": 2368,
      "erve": 2369,
      "eren": 2370,
      "eress": 2371,
      "erest": 2372,
      "ereat": 2373,
      "erious": 2374,
      "erform": 2375,
      "erfume": 2376,
      "errupter": 2377,
      "erlasting": 2378,
      "ough": 2379,
      "ousehold": 2380,
      "nded": 2381,
      "ndly": 2382,
      "ndsire": 2383,
      "inh": 2384,
      "ink": 2385,
      "inous": 2386,
      "insa": 2387,
      "inks": 2388,
      "inhum": 2389,
      "isturb": 2390,
      "eaf": 2391,
      "eal": 2392,
      "ean": 2393,
      "eaves": 2394,
      "eavy": 2395,
      "eathing": 2396,
      "thes": 2397,
      "thems": 2398,
      "orm": 2399,
      "orthy": 2400,
      "orry": 2401,
      "orrows": 2402,
      "orrowful": 2403,
      "har": 2404,
      "has": 2405,
      "hadows": 2406,
      "harm": 2407,
      "esh": 2408,
      "espis": 2409,
      "eserv": 2410,
      "escue": 2411,
      "esirous": 2412,
      "esently": 2413,
      "oner": 2414,
      "onour": 2415,
      "onsum": 2416,
      "onounc": 2417,
      "ontent": 2418,
      "onument": 2419,
      "mel": 2420,
      "met": 2421,
      "meth": 2422,
      "methi": 2423,
      "lls": 2424,
      "llow": 2425,
      "llain": 2426,
      "llowed": 2427,
      "llains": 2428,
      "ree": 2429,
      "req": 2430,
      "rev": 2431,
      "rey": 2432,
      "rein": 2433,
      "reve": 2434,
      "reble": 2435,
      "reven": 2436,
      "reco": 2437,
      "rede": 2438,
      "reliev": 2439,
      "repo": 2440,
      "relieve": 2441,
      "retheren": 2442,
      "rethren": 2443,
      "ste": 2444,
      "sts": 2445,
      "sty": 2446,
      "stor": 2447,
      "ston": 2448,
      "stan": 2449,
      "stee": 2450,
      "stro": 2451,
      "sting": 2452,
      "stra": 2453,
      "sted": 2454,
      "stron": 2455,
      "stance": 2456,
      "stimony": 2457,
      "sturb": 2458,
      "ano": 2459,
      "anes": 2460,
      "anst": 2461,
      "anoth": 2462,
      "anks": 2463,
      "anished": 2464,
      "anot": 2465,
      "anishment": 2466,
      "anothe": 2467,
      "tof": 2468,
      "tol": 2469,
      "tom": 2470,
      "top": 2471,
      "tofor": 2472,
      "tofo": 2473,
      "leed": 2474,
      "wif": 2475,
      "lip": 2476,
      "hei": 2477,
      "hel": 2478,
      "att": 2479,
      "ature": 2480,
      "atisfaction": 2481,
      "hit": 2482,
      "hith": 2483,
      "hithe": 2484,
      "hile": 2485,
      "hiron": 2486,
      "nother": 2487,
      "ourning": 2488,
      "ournful": 2489,
      "therea": 2490,
      "eeks": 2491,
      "eeps": 2492,
      "fai": 2493,
      "fas": 2494,
      "fau": 2495,
      "fait": 2496,
      "fami": 2497,
      "fault": 2498,
      "faul": 2499,
      "rob": 2500,
      "rother": 2501,
      "rops": 2502,
      "roved": 2503,
      "rodigies": 2504,
      "roceedings": 2505,
      "rophies": 2506,
      "riend": 2507,
      "rifice": 2508,
      "rificing": 2509,
      "rimming": 2510,
      "off": 2511,
      "oft": 2512,
      "offe": 2513,
      "ofore": 2514,
      "earl": 2515,
      "earn": 2516,
      "earer": 2517,
      "bec": 2518,
      "bef": 2519,
      "behe": 2520,
      "become": 2521,
      "beco": 2522,
      "becom": 2523,
      "believes": 2524,
      "arl": 2525,
      "arn": 2526,
      "arer": 2527,
      "arthy": 2528,
      "arch": 2529,
      "ardon": 2530,
      "arbus": 2531,
      "artyr": 2532,
      "arums": 2533,
      "arquin": 2534,
      "arriors": 2535,
      "nted": 2536,
      "ntly": 2537,
      "ntent": 2538,
      "ntrails": 2539,
      "hatef": 2540,
      "usehold": 2541,
      "mys": 2542,
      "myse": 2543,
      "mysel": 2544,
      "ity": 2545,
      "ites": 2546,
      "itus": 2547,
      "iting": 2548,
      "ities": 2549,
      "itles": 2550,
      "heren": 2551,
      "hereat": 2552,
      "sely": 2553,
      "ung": 2554,
      "unh": 2555,
      "unj": 2556,
      "unha": 2557,
      "unju": 2558,
      "unhal": 2559,
      "uneral": 2560,
      "unjus": 2561,
      "ral": 2562,
      "rais": 2563,
      "uts": 2564,
      "uties": 2565,
      "yout": 2566,
      "owing": 2567,
      "owful": 2568,
      "owers": 2569,
      "witha": 2570,
      "withi": 2571,
      "etch": 2572,
      "etty": 2573,
      "etched": 2574,
      "etters": 2575,
      "etrius": 2576,
      "ook": 2577,
      "oots": 2578,
      "ldst": 2579,
      "mpatient": 2580,
      "iron": 2581,
      "irst": 2582,
      "irds": 2583,
      "cense": 2584,
      "wed": 2585,
      "terest": 2586,
      "terrupter": 2587,
      "urd": 2588,
      "urs": 2589,
      "ursed": 2590,
      "ask": 2591,
      "asl": 2592,
      "alk": 2593,
      "alo": 2594,
      "alt": 2595,
      "alth": 2596,
      "ales": 2597,
      "aloo": 2598,
      "alter": 2599,
      "alcony": 2600,
      "altho": 2601,
      "mig": 2602,
      "mil": 2603,
      "migh": 2604,
      "eds": 2605,
      "edings": 2606,
      "edeem": 2607,
      "rum": 2608,
      "ruth": 2609,
      "rums": 2610,
      "eves": 2611,
      "evest": 2612,
      "thoug": 2613,
      "lam": 2614,
      "lame": 2615,
      "lamen": 2616,
      "lains": 2617,
      "blee": 2618,
      "mane": 2619,
      "mans": 2620,
      "mbush": 2621,
      "mbrace": 2622,
      "deare": 2623,
      "eng": 2624,
      "enm": 2625,
      "ense": 2626,
      "enmi": 2627,
      "enmit": 2628,
      "hose": 2629,
      "sob": 2630,
      "sol": 2631,
      "sold": 2632,
      "ills": 2633,
      "illow": 2634,
      "illain": 2635,
      "illains": 2636,
      "ronounc": 2637,
      "herein": 2638,
      "mad": 2639,
      "mage": 2640,
      "shr": 2641,
      "shu": 2642,
      "shri": 2643,
      "shment": 2644,
      "shrin": 2645,
      "fel": 2646,
      "sid": 2647,
      "ived": 2648,
      "entr": 2649,
      "entrai": 2650,
      "urned": 2651,
      "urnful": 2652,
      "weepi": 2653,
      "lett": 2654,
      "letter": 2655,
      "lette": 2656,
      "lop": 2657,
      "loof": 2658,
      "losed": 2659,
      "dos": 2660,
      "dot": 2661,
      "gov": 2662,
      "gove": 2663,
      "gover": 2664,
      "amn": 2665,
      "amo": 2666,
      "amon": 2667,
      "amish": 2668,
      "amora": 2669,
      "spa": 2670,
      "spr": 2671,
      "spis": 2672,
      "spar": 2673,
      "spra": 2674,
      "spraw": 2675,
      "que": 2676,
      "quee": 2677,
      "quious": 2678,
      "quite": 2679,
      "fie": 2680,
      "fies": 2681,
      "fien": 2682,
      "heathing": 2683,
      "cons": 2684,
      "conte": 2685,
      "consu": 2686,
      "usty": 2687,
      "deem": 2688,
      "romis": 2689,
      "rowing": 2690,
      "ested": 2691,
      "estable": 2692,
      "estimony": 2693,
      "allowed": 2694,
      "diers": 2695,
      "breat": 2696,
      "ARCUS": 2697,
      "lean": 2698,
      "leas": 2699,
      "leav": 2700,
      "leave": 2701,
      "lease": 2702,
      "leadi": 2703,
      "whit": 2704,
      "whith": 2705,
      "whithe": 2706,
      "while": 2707,
      "ouldst": 2708,
      "easts": 2709,
      "eastly": 2710,
      "Thes": 2711,
      "col": 2712,
      "tim": 2713,
      "tient": 2714,
      "tiate": 2715,
      "timony": 2716,
      "oudest": 2717,
      "wom": 2718,
      "woma": 2719,
      "woef": 2720,
      "upter": 2721,
      "ONS": 2722,
      "howers": 2723,
      "soner": 2724,
      "cans": 2725,
      "minde": 2726,
      "everl": 2727,
      "everla": 2728,
      "everlas": 2729,
      "rongful": 2730,
      "Theref": 2731,
      "Therefor": 2732,
      "Therefo": 2733,
      "erein": 2734,
      "hanks": 2735,
      "bast": 2736,
      "basel": 2737,
      "basta": 2738,
      "efs": 2739,
      "bod": 2740,
      "bos": 2741,
      "bot": 2742,
      "boso": 2743,
      "peo": 2744,
      "sav": 2745,
      "lts": 2746,
      "opp": 2747,
      "ops": 2748,
      "ophies": 2749,
      "prod": 2750,
      "proce": 2751,
      "promi": 2752,
      "prodi": 2753,
      "obb": 2754,
      "obli": 2755,
      "objec": 2756,
      "INIA": 2757,
      "THS": 2758,
      "swor": 2759,
      "sword": 2760,
      "henc": 2761,
      "Befor": 2762,
      "nterest": 2763,
      "nterrupter": 2764,
      "Whos": 2765,
      "slai": 2766,
      "turne": 2767,
      "themse": 2768,
      "wrongf": 2769,
      "wrongfu": 2770,
      "intere": 2771,
      "interr": 2772,
      "interes": 2773,
      "interru": 2774,
      "forthw": 2775,
      "forthwi": 2776,
      "forthwit": 2777,
      "deadl": 2778,
      "tale": 2779,
      "table": 2780,
      "tabs": 2781,
      "teful": 2782,
      "imming": 2783,
      "athing": 2784,
      "adv": 2785,
      "ador": 2786,
      "adve": 2787,
      "ading": 2788,
      "aded": 2789,
      "adly": 2790,
      "adven": 2791,
      "adows": 2792,
      "mos": 2793,
      "moke": 2794,
      "umult": 2795,
      "eeds": 2796,
      "eedings": 2797,
      "nsum": 2798,
      "nsatiate": 2799,
      "ateful": 2800,
      "welc": 2801,
      "welf": 2802,
      "welco": 2803,
      "welcom": 2804,
      "brethe": 2805,
      "brether": 2806,
      "brethere": 2807,
      "scat": 2808,
      "scar": 2809,
      "scue": 2810,
      "lesh": 2811,
      "perfor": 2812,
      "peress": 2813,
      "perious": 2814,
      "perfo": 2815,
      "Unc": 2816,
      "Uncl": 2817,
      "Stan": 2818,
      "crifice": 2819,
      "crificing": 2820,
      "desp": 2821,
      "despi": 2822,
      "fetc": 2823,
      "fett": 2824,
      "fette": 2825,
      "treb": 2826,
      "trebl": 2827,
      "warr": 2828,
      "unki": 2829,
      "unkin": 2830,
      "sently": 2831,
      "woefu": 2832,
      "woeful": 2833,
      "incen": 2834,
      "incens": 2835,
      "showe": 2836,
      "shower": 2837,
      "preser": 2838,
      "presen": 2839,
      "hangi": 2840,
      "hangin": 2841,
      "hatefu": 2842,
      "mperess": 2843,
      "mperious": 2844,
      "woulds": 2845,
      "mournf": 2846,
      "mourni": 2847,
      "mournin": 2848,
      "mournfu": 2849,
      "sorrowf": 2850,
      "sorrowfu": 2851,
      "deteste": 2852,
      "sacrifici": 2853,
      "piti": 2854,
      "pitie": 2855,
      "new": 2856,
      "neth": 2857,
      "nemy": 2858,
      "isoner": 2859,
      "shad": 2860,
      "shado": 2861,
      "shadow": 2862,
      "ithin": 2863,
      "ithal": 2864,
      "fratru": 2865,
      "trun": 2866,
      "trut": 2867,
      "hough": 2868,
      "heeks": 2869,
      "stab": 2870,
      "stai": 2871,
      "stable": 2872,
      "udest": 2873,
      "uditory": 2874,
      "eping": 2875,
      "eport": 2876,
      "inded": 2877,
      "nappeas": 2878,
      "rtune": 2879,
      "resc": 2880,
      "rescu": 2881,
      "reserv": 2882,
      "resently": 2883,
      "subs": 2884,
      "verlasting": 2885,
      "eading": 2886,
      "eaded": 2887,
      "eadly": 2888,
      "ongful": 2889,
      "Dem": 2890,
      "muc": 2891,
      "poi": 2892,
      "poin": 2893,
      "vai": 2894,
      "vau": 2895,
      "vaun": 2896,
      "ravi": 2897,
      "ravish": 2898,
      "acc": 2899,
      "accu": 2900,
      "action": 2901,
      "ect": 2902,
      "ecount": 2903,
      "ifies": 2904,
      "ifice": 2905,
      "ificing": 2906,
      "monum": 2907,
      "roudest": 2908,
      "inca": 2909,
      "anging": 2910,
      "fortu": 2911,
      "fortun": 2912,
      "digre": 2913,
      "AMORA": 2914,
      "CHI": 2915,
      "CHIL": 2916,
      "ENATORS": 2917,
      "FIR": 2918,
      "FIRS": 2919,
      "Hig": 2920,
      "RIBUNES": 2921,
      "Rem": 2922,
      "aga": 2923,
      "agai": 2924,
      "bush": 2925,
      "drop": 2926,
      "laru": 2927,
      "larum": 2928,
      "larbus": 2929,
      "natu": 2930,
      "natur": 2931,
      "tisfaction": 2932,
      "testi": 2933,
      "tested": 2934,
      "testable": 2935,
      "ortune": 2936,
      "recou": 2937,
      "recoun": 2938,
      "retty": 2939,
      "retched": 2940,
      "ribune": 2941,
      "ribunes": 2942,
      "Appr": 2943,
      "Chir": 2944,
      "Chiro": 2945,
      "Citi": 2946,
      "Citin": 2947,
      "Flou": 2948,
      "SENA": 2949,
      "Tarq": 2950,
      "Titu": 2951,
      "Tamo": 2952,
      "Tamor": 2953,
      "TAMO": 2954,
      "TAMOR": 2955,
      "TRIB": 2956,
      "ambu": 2957,
      "ambus": 2958,
      "boot": 2959,
      "balc": 2960,
      "balcon": 2961,
      "balco": 2962,
      "clos": 2963,
      "close": 2964,
      "dist": 2965,
      "distur": 2966,
      "distu": 2967,
      "duti": 2968,
      "dutie": 2969,
      "embr": 2970,
      "hono": 2971,
      "honou": 2972,
      "impa": 2973,
      "impat": 2974,
      "imag": 2975,
      "mart": 2976,
      "marty": 2977,
      "pard": 2978,
      "pardo": 2979,
      "smok": 2980,
      "titl": 2981,
      "title": 2982,
      "tters": 2983,
      "tumu": 2984,
      "tumul": 2985,
      "words": 2986,
      "repor": 2987,
      "grant": 2988,
      "grante": 2989,
      "breath": 2990,
      "luxu": 2991,
      "luxur": 2992,
      "Sheat": 2993,
      "Sheath": 2994,
      "Sheathin": 2995,
      "Sheathi": 2996,
      "Thank": 2997,
      "Tribu": 2998,
      "Tribun": 2999
    },
    "merges": [
      [
        "t",
        "h"
      ],
      [
        "e",
        "r"
      ],
      [
        "o",
        "u"
      ],
      [
        "n",
        "d"
      ],
      [
        "i",
        "n"
      ],
      [
        "i",
        "s"
      ],
      [
        "e",
        "a"
      ],
      [
        "th",
        "e"
      ],
      [
        "o",
        "r"
      ],
      [
        "h",
        "a"
      ],
      [
        "e",
        "s"
      ],
      [
        "o",
        "n"
      ],
      [
        "m",
        "e"
      ],
      [
        "l",
        "l"
      ],
      [
        "a",
        "nd"
      ],
      [
        "v",
        "e"
      ],
      [
        "r",
        "e"
      ],
      [
        "s",
        "t"
      ],
      [
        "a",
        "n"
      ],
      [
        "t",
        "o"
      ],
      [
        "l",
        "e"
      ],
      [
        "w",
        "i"
      ],
      [
        "l",
        "i"
      ],
      [
        "h",
        "e"
      ],
      [
        "a",
        "t"
      ],
      [
        "h",
        "i"
      ],
      [
        "n",
        "o"
      ],
      [
        "ou",
        "r"
      ],
      [
        "h",
        "is"
      ],
      [
        "th",
        "er"
      ],
      [
        "e",
        "e"
      ],
      [
        "A",
        "nd"
      ],
      [
        "f",
        "a"
      ],
      [
        "r",
        "o"
      ],
      [
        "r",
        "i"
      ],
      [
        "o",
        "f"
      ],
      [
        "o",
        "me"
      ],
      [
        "ea",
        "r"
      ],
      [
        "b",
        "e"
      ],
      [
        "a",
        "r"
      ],
      [
        "n",
        "t"
      ],
      [
        "ha",
        "t"
      ],
      [
        "u",
        "s"
      ],
      [
        "m",
        "y"
      ],
      [
        "i",
        "t"
      ],
      [
        "f",
        "or"
      ],
      [
        "in",
        "g"
      ],
      [
        "h",
        "er"
      ],
      [
        "s",
        "e"
      ],
      [
        "u",
        "n"
      ],
      [
        "r",
        "a"
      ],
      [
        "u",
        "t"
      ],
      [
        "y",
        "ou"
      ],
      [
        "th",
        "y"
      ],
      [
        "hi",
        "m"
      ],
      [
        "o",
        "w"
      ],
      [
        "wi",
        "th"
      ],
      [
        "e",
        "t"
      ],
      [
        "o",
        "o"
      ],
      [
        "l",
        "d"
      ],
      [
        "m",
        "p"
      ],
      [
        "i",
        "r"
      ],
      [
        "fa",
        "ther"
      ],
      [
        "c",
        "e"
      ],
      [
        "w",
        "e"
      ],
      [
        "t",
        "er"
      ],
      [
        "a",
        "y"
      ],
      [
        "u",
        "r"
      ],
      [
        "T",
        "hat"
      ],
      [
        "k",
        "e"
      ],
      [
        "a",
        "s"
      ],
      [
        "g",
        "h"
      ],
      [
        "ou",
        "s"
      ],
      [
        "th",
        "at"
      ],
      [
        "a",
        "l"
      ],
      [
        "m",
        "i"
      ],
      [
        "R",
        "ome"
      ],
      [
        "e",
        "d"
      ],
      [
        "r",
        "u"
      ],
      [
        "U",
        "S"
      ],
      [
        "oo",
        "d"
      ],
      [
        "gh",
        "t"
      ],
      [
        "e",
        "v"
      ],
      [
        "th",
        "ou"
      ],
      [
        "th",
        "is"
      ],
      [
        "ha",
        "ll"
      ],
      [
        "wi",
        "ll"
      ],
      [
        "l",
        "a"
      ],
      [
        "f",
        "u"
      ],
      [
        "l",
        "y"
      ],
      [
        "a",
        "re"
      ],
      [
        "b",
        "le"
      ],
      [
        "e",
        "nd"
      ],
      [
        "m",
        "an"
      ],
      [
        "no",
        "t"
      ],
      [
        "m",
        "b"
      ],
      [
        "the",
        "e"
      ],
      [
        "d",
        "ea"
      ],
      [
        "e",
        "n"
      ],
      [
        "h",
        "o"
      ],
      [
        "s",
        "o"
      ],
      [
        "i",
        "ll"
      ],
      [
        "E",
        "mp"
      ],
      [
        "es",
        "s"
      ],
      [
        "r",
        "on"
      ],
      [
        "c",
        "ome"
      ],
      [
        "her",
        "e"
      ],
      [
        "y",
        "our"
      ],
      [
        "s",
        "hall"
      ],
      [
        "m",
        "a"
      ],
      [
        "s",
        "h"
      ],
      [
        "c",
        "h"
      ],
      [
        "f",
        "e"
      ],
      [
        "s",
        "i"
      ],
      [
        "M",
        "y"
      ],
      [
        "i",
        "ve"
      ],
      [
        "T",
        "he"
      ],
      [
        "e",
        "nt"
      ],
      [
        "ur",
        "n"
      ],
      [
        "B",
        "ut"
      ],
      [
        "f",
        "ri"
      ],
      [
        "w",
        "ee"
      ],
      [
        "in",
        "e"
      ],
      [
        "the",
        "ir"
      ],
      [
        "fri",
        "end"
      ],
      [
        "le",
        "t"
      ],
      [
        "l",
        "o"
      ],
      [
        "d",
        "o"
      ],
      [
        "g",
        "o"
      ],
      [
        "a",
        "m"
      ],
      [
        "T",
        "o"
      ],
      [
        "c",
        "i"
      ],
      [
        "g",
        "r"
      ],
      [
        "s",
        "p"
      ],
      [
        "b",
        "y"
      ],
      [
        "q",
        "u"
      ],
      [
        "f",
        "i"
      ],
      [
        "h",
        "ea"
      ],
      [
        "fu",
        "l"
      ],
      [
        "t",
        "ru"
      ],
      [
        "F",
        "or"
      ],
      [
        "c",
        "on"
      ],
      [
        "u",
        "st"
      ],
      [
        "or",
        "d"
      ],
      [
        "d",
        "ee"
      ],
      [
        "ve",
        "n"
      ],
      [
        "ro",
        "m"
      ],
      [
        "ro",
        "w"
      ],
      [
        "er",
        "or"
      ],
      [
        "the",
        "y"
      ],
      [
        "ha",
        "th"
      ],
      [
        "no",
        "ble"
      ],
      [
        "Emp",
        "eror"
      ],
      [
        "friend",
        "s"
      ],
      [
        "p",
        "r"
      ],
      [
        "es",
        "t"
      ],
      [
        "a",
        "ll"
      ],
      [
        "d",
        "i"
      ],
      [
        "E",
        "x"
      ],
      [
        "b",
        "r"
      ],
      [
        "A",
        "R"
      ],
      [
        "L",
        "a"
      ],
      [
        "b",
        "ro"
      ],
      [
        "on",
        "e"
      ],
      [
        "c",
        "le"
      ],
      [
        "l",
        "ea"
      ],
      [
        "L",
        "et"
      ],
      [
        "e",
        "mi"
      ],
      [
        "s",
        "is"
      ],
      [
        "u",
        "ri"
      ],
      [
        "w",
        "hi"
      ],
      [
        "ea",
        "k"
      ],
      [
        "a",
        "in"
      ],
      [
        "f",
        "rom"
      ],
      [
        "th",
        "an"
      ],
      [
        "ou",
        "ld"
      ],
      [
        "ha",
        "nd"
      ],
      [
        "ha",
        "ve"
      ],
      [
        "li",
        "ke"
      ],
      [
        "li",
        "fe"
      ],
      [
        "ear",
        "s"
      ],
      [
        "ea",
        "st"
      ],
      [
        "ther",
        "s"
      ],
      [
        "dea",
        "th"
      ],
      [
        "sis",
        "ter"
      ],
      [
        "o",
        "th"
      ],
      [
        "T",
        "h"
      ],
      [
        "c",
        "o"
      ],
      [
        "t",
        "i"
      ],
      [
        "ou",
        "d"
      ],
      [
        "i",
        "l"
      ],
      [
        "w",
        "o"
      ],
      [
        "i",
        "a"
      ],
      [
        "i",
        "f"
      ],
      [
        "m",
        "s"
      ],
      [
        "u",
        "p"
      ],
      [
        "L",
        "u"
      ],
      [
        "O",
        "N"
      ],
      [
        "u",
        "nt"
      ],
      [
        "g",
        "ra"
      ],
      [
        "h",
        "ow"
      ],
      [
        "s",
        "on"
      ],
      [
        "v",
        "in"
      ],
      [
        "is",
        "h"
      ],
      [
        "li",
        "v"
      ],
      [
        "ea",
        "t"
      ],
      [
        "an",
        "y"
      ],
      [
        "se",
        "l"
      ],
      [
        "b",
        "ut"
      ],
      [
        "c",
        "an"
      ],
      [
        "c",
        "us"
      ],
      [
        "s",
        "ee"
      ],
      [
        "w",
        "ay"
      ],
      [
        "he",
        "d"
      ],
      [
        "no",
        "w"
      ],
      [
        "b",
        "ar"
      ],
      [
        "li",
        "ve"
      ],
      [
        "T",
        "his"
      ],
      [
        "b",
        "uri"
      ],
      [
        "g",
        "ood"
      ],
      [
        "g",
        "ive"
      ],
      [
        "l",
        "ord"
      ],
      [
        "we",
        "ll"
      ],
      [
        "mi",
        "nd"
      ],
      [
        "ev",
        "er"
      ],
      [
        "ron",
        "g"
      ],
      [
        "ma",
        "ke"
      ],
      [
        "wee",
        "t"
      ],
      [
        "ci",
        "us"
      ],
      [
        "for",
        "e"
      ],
      [
        "ou",
        "ght"
      ],
      [
        "T",
        "here"
      ],
      [
        "t",
        "ears"
      ],
      [
        "un",
        "cle"
      ],
      [
        "sp",
        "eak"
      ],
      [
        "La",
        "vin"
      ],
      [
        "Lu",
        "cius"
      ],
      [
        "buri",
        "al"
      ],
      [
        "d",
        "ev"
      ],
      [
        "li",
        "mb"
      ],
      [
        "Lavin",
        "ia"
      ],
      [
        "bro",
        "thers"
      ],
      [
        "G",
        "oth"
      ],
      [
        "e",
        "y"
      ],
      [
        "b",
        "l"
      ],
      [
        "er",
        "e"
      ],
      [
        "ha",
        "n"
      ],
      [
        "b",
        "a"
      ],
      [
        "e",
        "f"
      ],
      [
        "b",
        "o"
      ],
      [
        "p",
        "e"
      ],
      [
        "s",
        "a"
      ],
      [
        "N",
        "o"
      ],
      [
        "l",
        "t"
      ],
      [
        "o",
        "p"
      ],
      [
        "p",
        "ro"
      ],
      [
        "ou",
        "l"
      ],
      [
        "or",
        "e"
      ],
      [
        "i",
        "es"
      ],
      [
        "o",
        "b"
      ],
      [
        "ow",
        "n"
      ],
      [
        "Ex",
        "e"
      ],
      [
        "A",
        "T"
      ],
      [
        "G",
        "O"
      ],
      [
        "I",
        "L"
      ],
      [
        "I",
        "N"
      ],
      [
        "I",
        "T"
      ],
      [
        "T",
        "H"
      ],
      [
        "k",
        "s"
      ],
      [
        "p",
        "s"
      ],
      [
        "s",
        "w"
      ],
      [
        "he",
        "n"
      ],
      [
        "B",
        "e"
      ],
      [
        "d",
        "g"
      ],
      [
        "nt",
        "er"
      ],
      [
        "A",
        "AR"
      ],
      [
        "I",
        "US"
      ],
      [
        "M",
        "ar"
      ],
      [
        "S",
        "at"
      ],
      [
        "T",
        "IT"
      ],
      [
        "W",
        "ho"
      ],
      [
        "c",
        "hi"
      ],
      [
        "n",
        "or"
      ],
      [
        "s",
        "or"
      ],
      [
        "s",
        "la"
      ],
      [
        "t",
        "urn"
      ],
      [
        "w",
        "as"
      ],
      [
        "w",
        "ho"
      ],
      [
        "is",
        "e"
      ],
      [
        "ve",
        "y"
      ],
      [
        "t",
        "ri"
      ],
      [
        "lo",
        "v"
      ],
      [
        "is",
        "s"
      ],
      [
        "F",
        "are"
      ],
      [
        "W",
        "hat"
      ],
      [
        "b",
        "ear"
      ],
      [
        "g",
        "ent"
      ],
      [
        "k",
        "now"
      ],
      [
        "m",
        "ore"
      ],
      [
        "n",
        "ess"
      ],
      [
        "r",
        "ing"
      ],
      [
        "w",
        "hat"
      ],
      [
        "me",
        "nt"
      ],
      [
        "fa",
        "ce"
      ],
      [
        "tru",
        "e"
      ],
      [
        "dee",
        "d"
      ],
      [
        "up",
        "on"
      ],
      [
        "sel",
        "f"
      ],
      [
        "GO",
        "TH"
      ],
      [
        "the",
        "m"
      ],
      [
        "ear",
        "th"
      ],
      [
        "dg",
        "es"
      ],
      [
        "E",
        "nter"
      ],
      [
        "w",
        "rong"
      ],
      [
        "in",
        "ter"
      ],
      [
        "for",
        "th"
      ],
      [
        "ra",
        "ise"
      ],
      [
        "en",
        "emi"
      ],
      [
        "si",
        "ght"
      ],
      [
        "gr",
        "eat"
      ],
      [
        "whi",
        "ch"
      ],
      [
        "dev",
        "il"
      ],
      [
        "bl",
        "ood"
      ],
      [
        "AAR",
        "ON"
      ],
      [
        "TIT",
        "US"
      ],
      [
        "chi",
        "ld"
      ],
      [
        "b",
        "east"
      ],
      [
        "Exe",
        "unt"
      ],
      [
        "sh",
        "ould"
      ],
      [
        "con",
        "vey"
      ],
      [
        "Sat",
        "urn"
      ],
      [
        "gent",
        "le"
      ],
      [
        "enemi",
        "es"
      ],
      [
        "Fare",
        "well"
      ],
      [
        "limb",
        "s"
      ],
      [
        "Saturn",
        "ine"
      ],
      [
        "dea",
        "d"
      ],
      [
        "d",
        "e"
      ],
      [
        "t",
        "a"
      ],
      [
        "t",
        "e"
      ],
      [
        "R",
        "o"
      ],
      [
        "i",
        "m"
      ],
      [
        "wi",
        "t"
      ],
      [
        "a",
        "th"
      ],
      [
        "ta",
        "ke"
      ],
      [
        "a",
        "d"
      ],
      [
        "m",
        "o"
      ],
      [
        "pr",
        "oud"
      ],
      [
        "u",
        "m"
      ],
      [
        "p",
        "i"
      ],
      [
        "er",
        "s"
      ],
      [
        "ee",
        "d"
      ],
      [
        "co",
        "m"
      ],
      [
        "b",
        "s"
      ],
      [
        "i",
        "us"
      ],
      [
        "n",
        "s"
      ],
      [
        "v",
        "es"
      ],
      [
        "r",
        "y"
      ],
      [
        "t",
        "y"
      ],
      [
        "li",
        "e"
      ],
      [
        "at",
        "e"
      ],
      [
        "we",
        "l"
      ],
      [
        "H",
        "e"
      ],
      [
        "W",
        "e"
      ],
      [
        "b",
        "re"
      ],
      [
        "p",
        "le"
      ],
      [
        "s",
        "c"
      ],
      [
        "A",
        "E"
      ],
      [
        "A",
        "h"
      ],
      [
        "I",
        "f"
      ],
      [
        "O",
        "R"
      ],
      [
        "R",
        "N"
      ],
      [
        "d",
        "y"
      ],
      [
        "l",
        "es"
      ],
      [
        "p",
        "a"
      ],
      [
        "p",
        "er"
      ],
      [
        "p",
        "re"
      ],
      [
        "re",
        "l"
      ],
      [
        "un",
        "e"
      ],
      [
        "U",
        "n"
      ],
      [
        "p",
        "p"
      ],
      [
        "w",
        "or"
      ],
      [
        "ou",
        "t"
      ],
      [
        "ir",
        "s"
      ],
      [
        "A",
        "l"
      ],
      [
        "M",
        "ut"
      ],
      [
        "M",
        "IL"
      ],
      [
        "O",
        "ur"
      ],
      [
        "S",
        "t"
      ],
      [
        "S",
        "ee"
      ],
      [
        "S",
        "ay"
      ],
      [
        "S",
        "AT"
      ],
      [
        "U",
        "RN"
      ],
      [
        "b",
        "an"
      ],
      [
        "c",
        "ri"
      ],
      [
        "d",
        "er"
      ],
      [
        "d",
        "es"
      ],
      [
        "d",
        "et"
      ],
      [
        "d",
        "oo"
      ],
      [
        "f",
        "et"
      ],
      [
        "f",
        "ru"
      ],
      [
        "g",
        "er"
      ],
      [
        "g",
        "ri"
      ],
      [
        "h",
        "u"
      ],
      [
        "i",
        "ous"
      ],
      [
        "m",
        "ea"
      ],
      [
        "s",
        "ay"
      ],
      [
        "t",
        "re"
      ],
      [
        "u",
        "lt"
      ],
      [
        "w",
        "ar"
      ],
      [
        "or",
        "y"
      ],
      [
        "to",
        "o"
      ],
      [
        "at",
        "i"
      ],
      [
        "ee",
        "n"
      ],
      [
        "se",
        "d"
      ],
      [
        "un",
        "k"
      ],
      [
        "ra",
        "w"
      ],
      [
        "et",
        "s"
      ],
      [
        "la",
        "d"
      ],
      [
        "go",
        "d"
      ],
      [
        "Th",
        "y"
      ],
      [
        "ey",
        "e"
      ],
      [
        "t",
        "al"
      ],
      [
        "ar",
        "ms"
      ],
      [
        "se",
        "nt"
      ],
      [
        "wo",
        "e"
      ],
      [
        "A",
        "emi"
      ],
      [
        "A",
        "way"
      ],
      [
        "M",
        "any"
      ],
      [
        "S",
        "ome"
      ],
      [
        "S",
        "irs"
      ],
      [
        "T",
        "ill"
      ],
      [
        "a",
        "way"
      ],
      [
        "b",
        "on"
      ],
      [
        "d",
        "one"
      ],
      [
        "d",
        "own"
      ],
      [
        "g",
        "at"
      ],
      [
        "i",
        "cus"
      ],
      [
        "j",
        "ust"
      ],
      [
        "l",
        "ust"
      ],
      [
        "m",
        "our"
      ],
      [
        "n",
        "ear"
      ],
      [
        "p",
        "lea"
      ],
      [
        "r",
        "ess"
      ],
      [
        "s",
        "oul"
      ],
      [
        "t",
        "ill"
      ],
      [
        "v",
        "ill"
      ],
      [
        "w",
        "ere"
      ],
      [
        "w",
        "hen"
      ],
      [
        "ou",
        "nd"
      ],
      [
        "in",
        "ce"
      ],
      [
        "me",
        "ed"
      ],
      [
        "re",
        "ce"
      ],
      [
        "an",
        "ce"
      ],
      [
        "wi",
        "pe"
      ],
      [
        "li",
        "us"
      ],
      [
        "un",
        "to"
      ],
      [
        "la",
        "st"
      ],
      [
        "fu",
        "ll"
      ],
      [
        "ho",
        "ld"
      ],
      [
        "sh",
        "ow"
      ],
      [
        "si",
        "re"
      ],
      [
        "The",
        "n"
      ],
      [
        "qu",
        "ar"
      ],
      [
        "fi",
        "re"
      ],
      [
        "dee",
        "p"
      ],
      [
        "row",
        "n"
      ],
      [
        "pr",
        "es"
      ],
      [
        "Ex",
        "it"
      ],
      [
        "han",
        "g"
      ],
      [
        "IN",
        "US"
      ],
      [
        "pi",
        "le"
      ],
      [
        "doo",
        "m"
      ],
      [
        "k",
        "iss"
      ],
      [
        "li",
        "ev"
      ],
      [
        "hat",
        "e"
      ],
      [
        "mp",
        "er"
      ],
      [
        "ba",
        "se"
      ],
      [
        "S",
        "weet"
      ],
      [
        "s",
        "weet"
      ],
      [
        "w",
        "ould"
      ],
      [
        "th",
        "ine"
      ],
      [
        "is",
        "hed"
      ],
      [
        "mp",
        "ets"
      ],
      [
        "ci",
        "ous"
      ],
      [
        "than",
        "k"
      ],
      [
        "ti",
        "ger"
      ],
      [
        "gra",
        "ve"
      ],
      [
        "liv",
        "es"
      ],
      [
        "sa",
        "cri"
      ],
      [
        "sw",
        "ear"
      ],
      [
        "sla",
        "ve"
      ],
      [
        "know",
        "n"
      ],
      [
        "Ro",
        "man"
      ],
      [
        "com",
        "es"
      ],
      [
        "AE",
        "MIL"
      ],
      [
        "fru",
        "it"
      ],
      [
        "gri",
        "ef"
      ],
      [
        "mea",
        "ns"
      ],
      [
        "bon",
        "es"
      ],
      [
        "gat",
        "es"
      ],
      [
        "mour",
        "n"
      ],
      [
        "p",
        "raise"
      ],
      [
        "our",
        "ish"
      ],
      [
        "And",
        "ron"
      ],
      [
        "ra",
        "ven"
      ],
      [
        "hea",
        "ven"
      ],
      [
        "br",
        "east"
      ],
      [
        "bar",
        "ous"
      ],
      [
        "Mar",
        "cus"
      ],
      [
        "sor",
        "row"
      ],
      [
        "lov",
        "ing"
      ],
      [
        "wrong",
        "s"
      ],
      [
        "Mut",
        "ius"
      ],
      [
        "SAT",
        "URN"
      ],
      [
        "det",
        "est"
      ],
      [
        "lad",
        "der"
      ],
      [
        "thy",
        "self"
      ],
      [
        "Emp",
        "ress"
      ],
      [
        "br",
        "ought"
      ],
      [
        "wit",
        "ness"
      ],
      [
        "ple",
        "dges"
      ],
      [
        "vill",
        "ain"
      ],
      [
        "rece",
        "ive"
      ],
      [
        "quar",
        "rel"
      ],
      [
        "sacri",
        "fi"
      ],
      [
        "tru",
        "mpets"
      ],
      [
        "gra",
        "cious"
      ],
      [
        "beast",
        "ly"
      ],
      [
        "Aemi",
        "lius"
      ],
      [
        "AEMIL",
        "IUS"
      ],
      [
        "raven",
        "ous"
      ],
      [
        "bar",
        "barous"
      ],
      [
        "p",
        "it"
      ],
      [
        "Andron",
        "icus"
      ],
      [
        "SATURN",
        "INUS"
      ],
      [
        "i",
        "d"
      ],
      [
        "he",
        "w"
      ],
      [
        "m",
        "ay"
      ],
      [
        "be",
        "ing"
      ],
      [
        "d",
        "s"
      ],
      [
        "Goth",
        "s"
      ],
      [
        "b",
        "ir"
      ],
      [
        "bir",
        "ds"
      ],
      [
        "n",
        "e"
      ],
      [
        "is",
        "on"
      ],
      [
        "h",
        "y"
      ],
      [
        "pr",
        "ison"
      ],
      [
        "s",
        "ha"
      ],
      [
        "i",
        "th"
      ],
      [
        "f",
        "r"
      ],
      [
        "t",
        "r"
      ],
      [
        "h",
        "ou"
      ],
      [
        "he",
        "e"
      ],
      [
        "ea",
        "s"
      ],
      [
        "st",
        "a"
      ],
      [
        "S",
        "o"
      ],
      [
        "e",
        "ll"
      ],
      [
        "g",
        "e"
      ],
      [
        "t",
        "s"
      ],
      [
        "en",
        "e"
      ],
      [
        "c",
        "u"
      ],
      [
        "u",
        "d"
      ],
      [
        "ar",
        "s"
      ],
      [
        "ra",
        "ve"
      ],
      [
        "e",
        "p"
      ],
      [
        "i",
        "nd"
      ],
      [
        "n",
        "a"
      ],
      [
        "r",
        "t"
      ],
      [
        "r",
        "es"
      ],
      [
        "s",
        "u"
      ],
      [
        "v",
        "er"
      ],
      [
        "x",
        "e"
      ],
      [
        "in",
        "t"
      ],
      [
        "ea",
        "d"
      ],
      [
        "on",
        "g"
      ],
      [
        "ra",
        "i"
      ],
      [
        "D",
        "e"
      ],
      [
        "k",
        "n"
      ],
      [
        "l",
        "u"
      ],
      [
        "m",
        "u"
      ],
      [
        "p",
        "o"
      ],
      [
        "p",
        "eak"
      ],
      [
        "r",
        "in"
      ],
      [
        "v",
        "a"
      ],
      [
        "w",
        "s"
      ],
      [
        "th",
        "in"
      ],
      [
        "ou",
        "n"
      ],
      [
        "me",
        "n"
      ],
      [
        "fa",
        "c"
      ],
      [
        "ra",
        "v"
      ],
      [
        "si",
        "g"
      ],
      [
        "B",
        "U"
      ],
      [
        "L",
        "A"
      ],
      [
        "R",
        "S"
      ],
      [
        "a",
        "c"
      ],
      [
        "d",
        "on"
      ],
      [
        "e",
        "c"
      ],
      [
        "i",
        "fi"
      ],
      [
        "j",
        "u"
      ],
      [
        "m",
        "on"
      ],
      [
        "n",
        "ed"
      ],
      [
        "r",
        "ous"
      ],
      [
        "r",
        "oud"
      ],
      [
        "s",
        "k"
      ],
      [
        "t",
        "es"
      ],
      [
        "t",
        "ur"
      ],
      [
        "w",
        "er"
      ],
      [
        "in",
        "c"
      ],
      [
        "es",
        "e"
      ],
      [
        "an",
        "c"
      ],
      [
        "an",
        "g"
      ],
      [
        "hi",
        "ch"
      ],
      [
        "for",
        "t"
      ],
      [
        "di",
        "g"
      ],
      [
        "A",
        "M"
      ],
      [
        "A",
        "d"
      ],
      [
        "A",
        "s"
      ],
      [
        "A",
        "y"
      ],
      [
        "B",
        "y"
      ],
      [
        "C",
        "H"
      ],
      [
        "E",
        "N"
      ],
      [
        "E",
        "S"
      ],
      [
        "F",
        "I"
      ],
      [
        "H",
        "i"
      ],
      [
        "I",
        "A"
      ],
      [
        "I",
        "n"
      ],
      [
        "L",
        "U"
      ],
      [
        "O",
        "f"
      ],
      [
        "R",
        "I"
      ],
      [
        "R",
        "e"
      ],
      [
        "a",
        "g"
      ],
      [
        "b",
        "us"
      ],
      [
        "d",
        "u"
      ],
      [
        "d",
        "ro"
      ],
      [
        "d",
        "ow"
      ],
      [
        "i",
        "on"
      ],
      [
        "l",
        "p"
      ],
      [
        "l",
        "ar"
      ],
      [
        "m",
        "ou"
      ],
      [
        "n",
        "at"
      ],
      [
        "o",
        "thers"
      ],
      [
        "r",
        "ms"
      ],
      [
        "s",
        "er"
      ],
      [
        "s",
        "at"
      ],
      [
        "s",
        "hed"
      ],
      [
        "t",
        "is"
      ],
      [
        "t",
        "est"
      ],
      [
        "v",
        "y"
      ],
      [
        "or",
        "t"
      ],
      [
        "ha",
        "l"
      ],
      [
        "ve",
        "d"
      ],
      [
        "re",
        "c"
      ],
      [
        "re",
        "d"
      ],
      [
        "re",
        "n"
      ],
      [
        "re",
        "t"
      ],
      [
        "st",
        "ly"
      ],
      [
        "ri",
        "b"
      ],
      [
        "it",
        "e"
      ],
      [
        "di",
        "e"
      ],
      [
        "A",
        "L"
      ],
      [
        "A",
        "p"
      ],
      [
        "A",
        "rt"
      ],
      [
        "B",
        "US"
      ],
      [
        "C",
        "an"
      ],
      [
        "C",
        "hi"
      ],
      [
        "C",
        "it"
      ],
      [
        "C",
        "US"
      ],
      [
        "F",
        "l"
      ],
      [
        "G",
        "et"
      ],
      [
        "G",
        "ive"
      ],
      [
        "H",
        "er"
      ],
      [
        "M",
        "o"
      ],
      [
        "M",
        "ay"
      ],
      [
        "M",
        "AR"
      ],
      [
        "N",
        "or"
      ],
      [
        "N",
        "ow"
      ],
      [
        "N",
        "ES"
      ],
      [
        "S",
        "un"
      ],
      [
        "S",
        "et"
      ],
      [
        "S",
        "ON"
      ],
      [
        "S",
        "EN"
      ],
      [
        "T",
        "ar"
      ],
      [
        "T",
        "it"
      ],
      [
        "T",
        "oo"
      ],
      [
        "T",
        "am"
      ],
      [
        "T",
        "AM"
      ],
      [
        "T",
        "RI"
      ],
      [
        "V",
        "IN"
      ],
      [
        "W",
        "hy"
      ],
      [
        "a",
        "mb"
      ],
      [
        "a",
        "im"
      ],
      [
        "a",
        "xe"
      ],
      [
        "b",
        "b"
      ],
      [
        "b",
        "oo"
      ],
      [
        "b",
        "al"
      ],
      [
        "b",
        "id"
      ],
      [
        "c",
        "ur"
      ],
      [
        "c",
        "lo"
      ],
      [
        "c",
        "ry"
      ],
      [
        "d",
        "is"
      ],
      [
        "d",
        "ut"
      ],
      [
        "d",
        "am"
      ],
      [
        "e",
        "mb"
      ],
      [
        "f",
        "en"
      ],
      [
        "h",
        "on"
      ],
      [
        "h",
        "ear"
      ],
      [
        "i",
        "mp"
      ],
      [
        "i",
        "ma"
      ],
      [
        "j",
        "ec"
      ],
      [
        "l",
        "come"
      ],
      [
        "m",
        "ar"
      ],
      [
        "m",
        "it"
      ],
      [
        "m",
        "ur"
      ],
      [
        "p",
        "ar"
      ],
      [
        "p",
        "ut"
      ],
      [
        "p",
        "ow"
      ],
      [
        "s",
        "of"
      ],
      [
        "s",
        "un"
      ],
      [
        "s",
        "mo"
      ],
      [
        "t",
        "ro"
      ],
      [
        "t",
        "it"
      ],
      [
        "t",
        "ter"
      ],
      [
        "t",
        "as"
      ],
      [
        "t",
        "ed"
      ],
      [
        "t",
        "wo"
      ],
      [
        "t",
        "um"
      ],
      [
        "u",
        "re"
      ],
      [
        "v",
        "ow"
      ],
      [
        "w",
        "ful"
      ],
      [
        "w",
        "ord"
      ],
      [
        "y",
        "et"
      ],
      [
        "z",
        "en"
      ],
      [
        "ea",
        "se"
      ],
      [
        "or",
        "a"
      ],
      [
        "or",
        "n"
      ],
      [
        "or",
        "s"
      ],
      [
        "ve",
        "x"
      ],
      [
        "re",
        "p"
      ],
      [
        "le",
        "d"
      ],
      [
        "ee",
        "l"
      ],
      [
        "ri",
        "te"
      ],
      [
        "be",
        "g"
      ],
      [
        "un",
        "a"
      ],
      [
        "ld",
        "i"
      ],
      [
        "mp",
        "t"
      ],
      [
        "ru",
        "p"
      ],
      [
        "so",
        "m"
      ],
      [
        "do",
        "g"
      ],
      [
        "gr",
        "an"
      ],
      [
        "di",
        "d"
      ],
      [
        "br",
        "ea"
      ],
      [
        "bro",
        "ther"
      ],
      [
        "il",
        "s"
      ],
      [
        "bo",
        "y"
      ],
      [
        "No",
        "t"
      ],
      [
        "IL",
        "D"
      ],
      [
        "Be",
        "g"
      ],
      [
        "ty",
        "r"
      ],
      [
        "lie",
        "ve"
      ],
      [
        "OR",
        "A"
      ],
      [
        "OR",
        "S"
      ],
      [
        "lu",
        "x"
      ],
      [
        "RS",
        "T"
      ],
      [
        "sk",
        "y"
      ],
      [
        "LU",
        "C"
      ],
      [
        "C",
        "ome"
      ],
      [
        "C",
        "all"
      ],
      [
        "D",
        "ear"
      ],
      [
        "D",
        "ead"
      ],
      [
        "E",
        "ven"
      ],
      [
        "F",
        "ir"
      ],
      [
        "G",
        "ood"
      ],
      [
        "H",
        "ang"
      ],
      [
        "S",
        "hea"
      ],
      [
        "T",
        "end"
      ],
      [
        "T",
        "han"
      ],
      [
        "T",
        "ell"
      ],
      [
        "T",
        "rib"
      ],
      [
        "W",
        "ere"
      ],
      [
        "a",
        "whi"
      ],
      [
        "b",
        "st"
      ],
      [
        "b",
        "urn"
      ],
      [
        "b",
        "oth"
      ],
      [
        "b",
        "een"
      ],
      [
        "c",
        "ing"
      ],
      [
        "c",
        "lea"
      ],
      [
        "c",
        "hed"
      ],
      [
        "c",
        "hee"
      ],
      [
        "d",
        "ed"
      ],
      [
        "d",
        "raw"
      ],
      [
        "d",
        "anc"
      ],
      [
        "f",
        "ear"
      ],
      [
        "f",
        "un"
      ],
      [
        "f",
        "ood"
      ],
      [
        "f",
        "oul"
      ],
      [
        "f",
        "eed"
      ],
      [
        "f",
        "les"
      ],
      [
        "g",
        "one"
      ],
      [
        "k",
        "ill"
      ],
      [
        "l",
        "ear"
      ],
      [
        "l",
        "ess"
      ],
      [
        "l",
        "oud"
      ],
      [
        "m",
        "m"
      ],
      [
        "m",
        "ine"
      ],
      [
        "m",
        "ust"
      ],
      [
        "n",
        "se"
      ],
      [
        "n",
        "ate"
      ],
      [
        "n",
        "ifi"
      ],
      [
        "o",
        "ther"
      ],
      [
        "o",
        "of"
      ],
      [
        "o",
        "ath"
      ],
      [
        "p",
        "is"
      ],
      [
        "p",
        "hi"
      ],
      [
        "p",
        "ear"
      ],
      [
        "p",
        "ill"
      ],
      [
        "p",
        "ron"
      ],
      [
        "s",
        "ust"
      ],
      [
        "s",
        "um"
      ],
      [
        "u",
        "ms"
      ],
      [
        "v",
        "ain"
      ],
      [
        "w",
        "ood"
      ],
      [
        "w",
        "all"
      ],
      [
        "w",
        "ret"
      ],
      [
        "th",
        "row"
      ],
      [
        "er",
        "v"
      ],
      [
        "er",
        "al"
      ],
      [
        "ou",
        "nt"
      ],
      [
        "in",
        "s"
      ],
      [
        "in",
        "to"
      ],
      [
        "ha",
        "st"
      ],
      [
        "on",
        "y"
      ],
      [
        "me",
        "lt"
      ],
      [
        "ve",
        "nt"
      ],
      [
        "re",
        "li"
      ],
      [
        "re",
        "qu"
      ],
      [
        "re",
        "pa"
      ],
      [
        "st",
        "ar"
      ],
      [
        "st",
        "ay"
      ],
      [
        "st",
        "op"
      ],
      [
        "to",
        "ld"
      ],
      [
        "to",
        "mb"
      ],
      [
        "le",
        "ep"
      ],
      [
        "wi",
        "fe"
      ],
      [
        "li",
        "ps"
      ],
      [
        "he",
        "in"
      ],
      [
        "he",
        "lp"
      ],
      [
        "at",
        "ru"
      ],
      [
        "at",
        "te"
      ],
      [
        "our",
        "s"
      ],
      [
        "fa",
        "m"
      ],
      [
        "fa",
        "ll"
      ],
      [
        "fa",
        "re"
      ],
      [
        "fa",
        "st"
      ],
      [
        "ro",
        "bb"
      ],
      [
        "be",
        "ll"
      ],
      [
        "us",
        "h"
      ],
      [
        "for",
        "m"
      ],
      [
        "ing",
        "s"
      ],
      [
        "se",
        "qu"
      ],
      [
        "un",
        "es"
      ],
      [
        "ra",
        "ce"
      ],
      [
        "ow",
        "ed"
      ],
      [
        "ld",
        "ly"
      ],
      [
        "fu",
        "me"
      ],
      [
        "man",
        "y"
      ],
      [
        "mb",
        "ly"
      ],
      [
        "dea",
        "f"
      ],
      [
        "so",
        "bs"
      ],
      [
        "ma",
        "de"
      ],
      [
        "sh",
        "ut"
      ],
      [
        "fe",
        "ll"
      ],
      [
        "si",
        "de"
      ],
      [
        "wee",
        "d"
      ],
      [
        "wee",
        "p"
      ],
      [
        "lo",
        "ve"
      ],
      [
        "lo",
        "pp"
      ],
      [
        "do",
        "th"
      ],
      [
        "do",
        "st"
      ],
      [
        "qu",
        "in"
      ],
      [
        "hea",
        "l"
      ],
      [
        "con",
        "y"
      ],
      [
        "ord",
        "s"
      ],
      [
        "ven",
        "g"
      ],
      [
        "di",
        "es"
      ],
      [
        "Th",
        "ou"
      ],
      [
        "co",
        "ld"
      ],
      [
        "ti",
        "on"
      ],
      [
        "ti",
        "me"
      ],
      [
        "bo",
        "dy"
      ],
      [
        "pe",
        "op"
      ],
      [
        "sa",
        "ve"
      ],
      [
        "tri",
        "b"
      ],
      [
        "iss",
        "es"
      ],
      [
        "mo",
        "st"
      ],
      [
        "bre",
        "th"
      ],
      [
        "pa",
        "le"
      ],
      [
        "pre",
        "t"
      ],
      [
        "pre",
        "y"
      ],
      [
        "Un",
        "to"
      ],
      [
        "wor",
        "th"
      ],
      [
        "Al",
        "ar"
      ],
      [
        "Al",
        "as"
      ],
      [
        "St",
        "ay"
      ],
      [
        "tre",
        "e"
      ],
      [
        "ult",
        "s"
      ],
      [
        "war",
        "m"
      ],
      [
        "too",
        "k"
      ],
      [
        "raw",
        "l"
      ],
      [
        "tal",
        "k"
      ],
      [
        "plea",
        "s"
      ],
      [
        "ne",
        "ws"
      ],
      [
        "cu",
        "e"
      ],
      [
        "na",
        "me"
      ],
      [
        "ver",
        "n"
      ],
      [
        "De",
        "me"
      ],
      [
        "kn",
        "ee"
      ],
      [
        "mu",
        "ch"
      ],
      [
        "rin",
        "k"
      ],
      [
        "oun",
        "c"
      ],
      [
        "wer",
        "t"
      ],
      [
        "Hi",
        "gh"
      ],
      [
        "Re",
        "ma"
      ],
      [
        "du",
        "mb"
      ],
      [
        "AL",
        "AR"
      ],
      [
        "Mo",
        "or"
      ],
      [
        "Sun",
        "g"
      ],
      [
        "SON",
        "S"
      ],
      [
        "dam",
        "n"
      ],
      [
        "jec",
        "t"
      ],
      [
        "mit",
        "y"
      ],
      [
        "mur",
        "d"
      ],
      [
        "put",
        "s"
      ],
      [
        "sof",
        "t"
      ],
      [
        "tas",
        "k"
      ],
      [
        "B",
        "ring"
      ],
      [
        "I",
        "mper"
      ],
      [
        "P",
        "roud"
      ],
      [
        "S",
        "hall"
      ],
      [
        "S",
        "ound"
      ],
      [
        "S",
        "peak"
      ],
      [
        "W",
        "here"
      ],
      [
        "W",
        "hich"
      ],
      [
        "a",
        "ud"
      ],
      [
        "c",
        "limb"
      ],
      [
        "c",
        "eed"
      ],
      [
        "c",
        "ease"
      ],
      [
        "d",
        "ear"
      ],
      [
        "d",
        "rown"
      ],
      [
        "g",
        "row"
      ],
      [
        "h",
        "ears"
      ],
      [
        "n",
        "ance"
      ],
      [
        "p",
        "rom"
      ],
      [
        "s",
        "ince"
      ],
      [
        "t",
        "ent"
      ],
      [
        "u",
        "ment"
      ],
      [
        "w",
        "here"
      ],
      [
        "w",
        "ound"
      ],
      [
        "in",
        "hu"
      ],
      [
        "the",
        "se"
      ],
      [
        "ha",
        "rms"
      ],
      [
        "re",
        "dee"
      ],
      [
        "st",
        "and"
      ],
      [
        "st",
        "one"
      ],
      [
        "st",
        "ain"
      ],
      [
        "st",
        "ory"
      ],
      [
        "st",
        "rai"
      ],
      [
        "st",
        "eel"
      ],
      [
        "hi",
        "ther"
      ],
      [
        "ther",
        "e"
      ],
      [
        "fa",
        "ith"
      ],
      [
        "ri",
        "tes"
      ],
      [
        "ri",
        "ors"
      ],
      [
        "of",
        "fen"
      ],
      [
        "be",
        "hea"
      ],
      [
        "it",
        "ory"
      ],
      [
        "ra",
        "ils"
      ],
      [
        "you",
        "th"
      ],
      [
        "ir",
        "ous"
      ],
      [
        "ter",
        "s"
      ],
      [
        "al",
        "oof"
      ],
      [
        "mi",
        "ght"
      ],
      [
        "thou",
        "gh"
      ],
      [
        "ble",
        "ed"
      ],
      [
        "man",
        "es"
      ],
      [
        "so",
        "ldi"
      ],
      [
        "wee",
        "ps"
      ],
      [
        "ine",
        "th"
      ],
      [
        "am",
        "ong"
      ],
      [
        "gr",
        "and"
      ],
      [
        "gr",
        "ess"
      ],
      [
        "sp",
        "are"
      ],
      [
        "qu",
        "een"
      ],
      [
        "fi",
        "end"
      ],
      [
        "hea",
        "vy"
      ],
      [
        "tru",
        "th"
      ],
      [
        "lea",
        "d"
      ],
      [
        "Th",
        "ese"
      ],
      [
        "co",
        "zen"
      ],
      [
        "wo",
        "man"
      ],
      [
        "unt",
        "er"
      ],
      [
        "can",
        "st"
      ],
      [
        "lord",
        "s"
      ],
      [
        "bo",
        "som"
      ],
      [
        "ob",
        "liv"
      ],
      [
        "AT",
        "ORS"
      ],
      [
        "hen",
        "ce"
      ],
      [
        "Mar",
        "ch"
      ],
      [
        "Who",
        "se"
      ],
      [
        "sor",
        "ry"
      ],
      [
        "sla",
        "in"
      ],
      [
        "deed",
        "s"
      ],
      [
        "GOTH",
        "S"
      ],
      [
        "ad",
        "orn"
      ],
      [
        "sc",
        "ath"
      ],
      [
        "sc",
        "ars"
      ],
      [
        "Un",
        "cle"
      ],
      [
        "pp",
        "eas"
      ],
      [
        "St",
        "and"
      ],
      [
        "ban",
        "ish"
      ],
      [
        "fet",
        "ch"
      ],
      [
        "tal",
        "es"
      ],
      [
        "lust",
        "y"
      ],
      [
        "liev",
        "es"
      ],
      [
        "tr",
        "unk"
      ],
      [
        "hou",
        "se"
      ],
      [
        "sta",
        "bs"
      ],
      [
        "ene",
        "my"
      ],
      [
        "ind",
        "ly"
      ],
      [
        "po",
        "int"
      ],
      [
        "BU",
        "NES"
      ],
      [
        "LA",
        "VIN"
      ],
      [
        "ac",
        "cur"
      ],
      [
        "tur",
        "b"
      ],
      [
        "inc",
        "ar"
      ],
      [
        "CH",
        "ILD"
      ],
      [
        "FI",
        "RST"
      ],
      [
        "ag",
        "ain"
      ],
      [
        "dro",
        "ps"
      ],
      [
        "dow",
        "s"
      ],
      [
        "mou",
        "th"
      ],
      [
        "ser",
        "ve"
      ],
      [
        "sat",
        "is"
      ],
      [
        "Ap",
        "pro"
      ],
      [
        "Tit",
        "us"
      ],
      [
        "boo",
        "ts"
      ],
      [
        "ima",
        "ge"
      ],
      [
        "smo",
        "ke"
      ],
      [
        "Fir",
        "st"
      ],
      [
        "clea",
        "n"
      ],
      [
        "fles",
        "h"
      ],
      [
        "kill",
        "s"
      ],
      [
        "lear",
        "n"
      ],
      [
        "pear",
        "l"
      ],
      [
        "atru",
        "m"
      ],
      [
        "K",
        "isses"
      ],
      [
        "a",
        "ble"
      ],
      [
        "e",
        "mper"
      ],
      [
        "f",
        "ought"
      ],
      [
        "n",
        "ought"
      ],
      [
        "th",
        "ing"
      ],
      [
        "th",
        "rown"
      ],
      [
        "me",
        "thin"
      ],
      [
        "re",
        "veng"
      ],
      [
        "st",
        "rong"
      ],
      [
        "to",
        "fore"
      ],
      [
        "ther",
        "en"
      ],
      [
        "fa",
        "ults"
      ],
      [
        "ear",
        "thy"
      ],
      [
        "be",
        "hold"
      ],
      [
        "be",
        "tter"
      ],
      [
        "be",
        "lieve"
      ],
      [
        "be",
        "fall"
      ],
      [
        "my",
        "self"
      ],
      [
        "un",
        "hall"
      ],
      [
        "un",
        "just"
      ],
      [
        "with",
        "in"
      ],
      [
        "with",
        "al"
      ],
      [
        "as",
        "leep"
      ],
      [
        "mi",
        "ldly"
      ],
      [
        "la",
        "ment"
      ],
      [
        "la",
        "wful"
      ],
      [
        "en",
        "mity"
      ],
      [
        "sh",
        "rink"
      ],
      [
        "ent",
        "ly"
      ],
      [
        "go",
        "vern"
      ],
      [
        "sp",
        "rawl"
      ],
      [
        "con",
        "sum"
      ],
      [
        "La",
        "stly"
      ],
      [
        "lea",
        "ves"
      ],
      [
        "uri",
        "ous"
      ],
      [
        "sel",
        "ves"
      ],
      [
        "mind",
        "ed"
      ],
      [
        "ba",
        "star"
      ],
      [
        "pro",
        "dig"
      ],
      [
        "ob",
        "sequ"
      ],
      [
        "ob",
        "ject"
      ],
      [
        "sw",
        "ords"
      ],
      [
        "Be",
        "fore"
      ],
      [
        "turn",
        "ed"
      ],
      [
        "tri",
        "us"
      ],
      [
        "tri",
        "mm"
      ],
      [
        "beast",
        "s"
      ],
      [
        "dead",
        "ly"
      ],
      [
        "im",
        "ony"
      ],
      [
        "ad",
        "vent"
      ],
      [
        "wor",
        "thy"
      ],
      [
        "des",
        "pis"
      ],
      [
        "fet",
        "ter"
      ],
      [
        "hu",
        "mbly"
      ],
      [
        "tre",
        "ble"
      ],
      [
        "ati",
        "ent"
      ],
      [
        "ati",
        "ate"
      ],
      [
        "plea",
        "se"
      ],
      [
        "kiss",
        "es"
      ],
      [
        "base",
        "ly"
      ],
      [
        "Roman",
        "s"
      ],
      [
        "grief",
        "s"
      ],
      [
        "pit",
        "ies"
      ],
      [
        "res",
        "cue"
      ],
      [
        "su",
        "bst"
      ],
      [
        "ju",
        "dges"
      ],
      [
        "lar",
        "ums"
      ],
      [
        "nat",
        "ure"
      ],
      [
        "hal",
        "ter"
      ],
      [
        "Chi",
        "ron"
      ],
      [
        "Cit",
        "ing"
      ],
      [
        "MAR",
        "CUS"
      ],
      [
        "Tam",
        "ora"
      ],
      [
        "TAM",
        "ORA"
      ],
      [
        "amb",
        "ush"
      ],
      [
        "clo",
        "sed"
      ],
      [
        "dut",
        "ies"
      ],
      [
        "hon",
        "our"
      ],
      [
        "mar",
        "tyr"
      ],
      [
        "par",
        "don"
      ],
      [
        "tro",
        "phi"
      ],
      [
        "tit",
        "les"
      ],
      [
        "tum",
        "ult"
      ],
      [
        "rep",
        "ort"
      ],
      [
        "rup",
        "ter"
      ],
      [
        "LUC",
        "IUS"
      ],
      [
        "Than",
        "ks"
      ],
      [
        "awhi",
        "le"
      ],
      [
        "chee",
        "ks"
      ],
      [
        "nifi",
        "es"
      ],
      [
        "pill",
        "ow"
      ],
      [
        "reli",
        "ef"
      ],
      [
        "repa",
        "ir"
      ],
      [
        "fam",
        "ish"
      ],
      [
        "peop",
        "le"
      ],
      [
        "pret",
        "ty"
      ],
      [
        "dear",
        "er"
      ],
      [
        "prom",
        "is"
      ],
      [
        "redee",
        "m"
      ],
      [
        "n",
        "ourish"
      ],
      [
        "an",
        "other"
      ],
      [
        "ther",
        "eat"
      ],
      [
        "be",
        "liev"
      ],
      [
        "be",
        "comes"
      ],
      [
        "thou",
        "ght"
      ],
      [
        "let",
        "ters"
      ],
      [
        "con",
        "tent"
      ],
      [
        "di",
        "gress"
      ],
      [
        "whi",
        "ther"
      ],
      [
        "wel",
        "come"
      ],
      [
        "wel",
        "fare"
      ],
      [
        "We",
        "lcome"
      ],
      [
        "per",
        "form"
      ],
      [
        "per",
        "fume"
      ],
      [
        "woe",
        "full"
      ],
      [
        "ince",
        "nse"
      ],
      [
        "last",
        "ing"
      ],
      [
        "show",
        "ers"
      ],
      [
        "pres",
        "erv"
      ],
      [
        "hang",
        "ing"
      ],
      [
        "hate",
        "ful"
      ],
      [
        "would",
        "st"
      ],
      [
        "sorrow",
        "s"
      ],
      [
        "sha",
        "dows"
      ],
      [
        "fr",
        "atrum"
      ],
      [
        "va",
        "unter"
      ],
      [
        "fac",
        "tion"
      ],
      [
        "fort",
        "une"
      ],
      [
        "rec",
        "ount"
      ],
      [
        "Tar",
        "quin"
      ],
      [
        "bal",
        "cony"
      ],
      [
        "dis",
        "turb"
      ],
      [
        "emb",
        "race"
      ],
      [
        "gran",
        "ted"
      ],
      [
        "brea",
        "the"
      ],
      [
        "burn",
        "ing"
      ],
      [
        "fun",
        "eral"
      ],
      [
        "requ",
        "ite"
      ],
      [
        "hein",
        "ous"
      ],
      [
        "atte",
        "mpt"
      ],
      [
        "weep",
        "ing"
      ],
      [
        "trib",
        "une"
      ],
      [
        "Alar",
        "bus"
      ],
      [
        "ALAR",
        "BUS"
      ],
      [
        "grow",
        "ing"
      ],
      [
        "where",
        "in"
      ],
      [
        "inhu",
        "man"
      ],
      [
        "offen",
        "ce"
      ],
      [
        "lead",
        "ing"
      ],
      [
        "LAVIN",
        "IA"
      ],
      [
        "re",
        "lieves"
      ],
      [
        "al",
        "though"
      ],
      [
        "ent",
        "rails"
      ],
      [
        "pro",
        "ceed"
      ],
      [
        "wrong",
        "ful"
      ],
      [
        "inter",
        "est"
      ],
      [
        "ban",
        "ished"
      ],
      [
        "des",
        "irous"
      ],
      [
        "war",
        "riors"
      ],
      [
        "unk",
        "indly"
      ],
      [
        "mourn",
        "ing"
      ],
      [
        "mourn",
        "ful"
      ],
      [
        "detest",
        "ed"
      ],
      [
        "villain",
        "s"
      ],
      [
        "receive",
        "d"
      ],
      [
        "rav",
        "ished"
      ],
      [
        "mon",
        "ument"
      ],
      [
        "Fl",
        "ourish"
      ],
      [
        "SEN",
        "ATORS"
      ],
      [
        "TRI",
        "BUNES"
      ],
      [
        "una",
        "ppeas"
      ],
      [
        "Trib",
        "unes"
      ],
      [
        "pron",
        "ounc"
      ],
      [
        "wret",
        "ched"
      ],
      [
        "breth",
        "ren"
      ],
      [
        "High",
        "ness"
      ],
      [
        "aud",
        "itory"
      ],
      [
        "strai",
        "ght"
      ],
      [
        "faith",
        "ful"
      ],
      [
        "behea",
        "ded"
      ],
      [
        "soldi",
        "ers"
      ],
      [
        "obliv",
        "ion"
      ],
      [
        "accur",
        "sed"
      ],
      [
        "Appro",
        "ved"
      ],
      [
        "emper",
        "ess"
      ],
      [
        "methin",
        "ks"
      ],
      [
        "bastar",
        "dy"
      ],
      [
        "trimm",
        "ing"
      ],
      [
        "trophi",
        "es"
      ],
      [
        "There",
        "fore"
      ],
      [
        "forth",
        "with"
      ],
      [
        "bre",
        "theren"
      ],
      [
        "pres",
        "ently"
      ],
      [
        "sorrow",
        "ful"
      ],
      [
        "sacrifi",
        "ce"
      ],
      [
        "sig",
        "nifies"
      ],
      [
        "test",
        "imony"
      ],
      [
        "imp",
        "atient"
      ],
      [
        "lux",
        "urious"
      ],
      [
        "Shea",
        "thing"
      ],
      [
        "ins",
        "atiate"
      ],
      [
        "worth",
        "less"
      ],
      [
        "Deme",
        "trius"
      ],
      [
        "Rema",
        "ineth"
      ],
      [
        "Imper",
        "ious"
      ],
      [
        "there",
        "fore"
      ],
      [
        "grand",
        "sire"
      ],
      [
        "house",
        "hold"
      ],
      [
        "incar",
        "nate"
      ],
      [
        "prodig",
        "ies"
      ],
      [
        "subst",
        "ance"
      ],
      [
        "believ",
        "est"
      ],
      [
        "them",
        "selves"
      ],
      [
        "detest",
        "able"
      ],
      [
        "banish",
        "ment"
      ],
      [
        "unhall",
        "owed"
      ],
      [
        "obsequ",
        "ious"
      ],
      [
        "ever",
        "lasting"
      ],
      [
        "inter",
        "rupter"
      ],
      [
        "sacrifi",
        "cing"
      ],
      [
        "proceed",
        "ings"
      ],
      [
        "satis",
        "faction"
      ],
      [
        "dev",
        "o"
      ],
      [
        "pit",
        "y"
      ],
      [
        "devo",
        "id"
      ],
      [
        "n",
        "g"
      ],
      [
        "A",
        "n"
      ],
      [
        "y",
        "o"
      ],
      [
        "prison",
        "er"
      ],
      [
        "f",
        "o"
      ],
      [
        "r",
        "s"
      ],
      [
        "end",
        "s"
      ],
      [
        "th",
        "a"
      ],
      [
        "o",
        "t"
      ],
      [
        "a",
        "ther"
      ],
      [
        "f",
        "at"
      ],
      [
        "w",
        "h"
      ],
      [
        "th",
        "i"
      ],
      [
        "fa",
        "th"
      ],
      [
        "fa",
        "the"
      ],
      [
        "T",
        "ha"
      ],
      [
        "Ro",
        "m"
      ],
      [
        "proud",
        "est"
      ],
      [
        "o",
        "d"
      ],
      [
        "o",
        "m"
      ],
      [
        "Emp",
        "er"
      ],
      [
        "a",
        "ve"
      ],
      [
        "r",
        "n"
      ],
      [
        "s",
        "s"
      ],
      [
        "u",
        "l"
      ],
      [
        "b",
        "u"
      ],
      [
        "h",
        "t"
      ],
      [
        "w",
        "a"
      ],
      [
        "th",
        "o"
      ],
      [
        "wi",
        "l"
      ],
      [
        "W",
        "h"
      ],
      [
        "e",
        "l"
      ],
      [
        "i",
        "v"
      ],
      [
        "un",
        "c"
      ],
      [
        "E",
        "m"
      ],
      [
        "e",
        "m"
      ],
      [
        "La",
        "v"
      ],
      [
        "Lu",
        "ci"
      ],
      [
        "vin",
        "ia"
      ],
      [
        "sha",
        "l"
      ],
      [
        "B",
        "u"
      ],
      [
        "a",
        "st"
      ],
      [
        "e",
        "ir"
      ],
      [
        "n",
        "y"
      ],
      [
        "n",
        "es"
      ],
      [
        "r",
        "th"
      ],
      [
        "w",
        "n"
      ],
      [
        "the",
        "i"
      ],
      [
        "he",
        "ir"
      ],
      [
        "fri",
        "e"
      ],
      [
        "fri",
        "en"
      ],
      [
        "E",
        "nt"
      ],
      [
        "F",
        "o"
      ],
      [
        "M",
        "a"
      ],
      [
        "a",
        "ke"
      ],
      [
        "b",
        "ea"
      ],
      [
        "e",
        "ve"
      ],
      [
        "i",
        "ght"
      ],
      [
        "i",
        "fe"
      ],
      [
        "i",
        "ends"
      ],
      [
        "n",
        "ce"
      ],
      [
        "o",
        "ble"
      ],
      [
        "p",
        "eror"
      ],
      [
        "r",
        "or"
      ],
      [
        "nd",
        "s"
      ],
      [
        "he",
        "y"
      ],
      [
        "no",
        "b"
      ],
      [
        "no",
        "bl"
      ],
      [
        "ri",
        "ends"
      ],
      [
        "mp",
        "eror"
      ],
      [
        "mb",
        "s"
      ],
      [
        "Emp",
        "e"
      ],
      [
        "ron",
        "icus"
      ],
      [
        "urn",
        "ine"
      ],
      [
        "tru",
        "mp"
      ],
      [
        "br",
        "ou"
      ],
      [
        "emi",
        "es"
      ],
      [
        "gra",
        "ci"
      ],
      [
        "URN",
        "INUS"
      ],
      [
        "Andron",
        "i"
      ],
      [
        "Emper",
        "o"
      ],
      [
        "L",
        "e"
      ],
      [
        "S",
        "a"
      ],
      [
        "a",
        "k"
      ],
      [
        "a",
        "w"
      ],
      [
        "b",
        "ur"
      ],
      [
        "f",
        "ro"
      ],
      [
        "g",
        "es"
      ],
      [
        "i",
        "e"
      ],
      [
        "i",
        "ke"
      ],
      [
        "m",
        "in"
      ],
      [
        "n",
        "k"
      ],
      [
        "n",
        "cle"
      ],
      [
        "r",
        "d"
      ],
      [
        "s",
        "ho"
      ],
      [
        "t",
        "u"
      ],
      [
        "u",
        "e"
      ],
      [
        "u",
        "ld"
      ],
      [
        "u",
        "ght"
      ],
      [
        "v",
        "il"
      ],
      [
        "is",
        "ter"
      ],
      [
        "ea",
        "th"
      ],
      [
        "ha",
        "v"
      ],
      [
        "st",
        "er"
      ],
      [
        "li",
        "f"
      ],
      [
        "li",
        "k"
      ],
      [
        "her",
        "s"
      ],
      [
        "dea",
        "t"
      ],
      [
        "bro",
        "t"
      ],
      [
        "bro",
        "th"
      ],
      [
        "bro",
        "the"
      ],
      [
        "sis",
        "t"
      ],
      [
        "sis",
        "te"
      ],
      [
        "G",
        "o"
      ],
      [
        "T",
        "hi"
      ],
      [
        "T",
        "her"
      ],
      [
        "a",
        "i"
      ],
      [
        "a",
        "se"
      ],
      [
        "a",
        "ce"
      ],
      [
        "a",
        "ven"
      ],
      [
        "a",
        "vinia"
      ],
      [
        "c",
        "a"
      ],
      [
        "c",
        "l"
      ],
      [
        "f",
        "ou"
      ],
      [
        "g",
        "i"
      ],
      [
        "g",
        "oo"
      ],
      [
        "g",
        "iv"
      ],
      [
        "i",
        "re"
      ],
      [
        "i",
        "al"
      ],
      [
        "i",
        "ch"
      ],
      [
        "l",
        "or"
      ],
      [
        "n",
        "ou"
      ],
      [
        "n",
        "to"
      ],
      [
        "n",
        "our"
      ],
      [
        "n",
        "ia"
      ],
      [
        "o",
        "ld"
      ],
      [
        "p",
        "l"
      ],
      [
        "p",
        "ra"
      ],
      [
        "r",
        "eat"
      ],
      [
        "s",
        "we"
      ],
      [
        "t",
        "ea"
      ],
      [
        "t",
        "ear"
      ],
      [
        "u",
        "cius"
      ],
      [
        "v",
        "ing"
      ],
      [
        "w",
        "r"
      ],
      [
        "in",
        "ia"
      ],
      [
        "or",
        "th"
      ],
      [
        "ee",
        "p"
      ],
      [
        "ee",
        "t"
      ],
      [
        "ro",
        "thers"
      ],
      [
        "ri",
        "al"
      ],
      [
        "ear",
        "t"
      ],
      [
        "ar",
        "rel"
      ],
      [
        "ce",
        "ive"
      ],
      [
        "ma",
        "k"
      ],
      [
        "sp",
        "e"
      ],
      [
        "sp",
        "ea"
      ],
      [
        "fi",
        "ce"
      ],
      [
        "fi",
        "cing"
      ],
      [
        "uri",
        "al"
      ],
      [
        "Lu",
        "c"
      ],
      [
        "bar",
        "bar"
      ],
      [
        "bar",
        "ba"
      ],
      [
        "buri",
        "a"
      ],
      [
        "Lavin",
        "i"
      ],
      [
        "sa",
        "c"
      ],
      [
        "Exe",
        "u"
      ],
      [
        "Exe",
        "un"
      ],
      [
        "We",
        "l"
      ],
      [
        "ple",
        "dg"
      ],
      [
        "AE",
        "M"
      ],
      [
        "Mut",
        "i"
      ],
      [
        "MIL",
        "IUS"
      ],
      [
        "SAT",
        "U"
      ],
      [
        "Aemi",
        "li"
      ],
      [
        "AEMIL",
        "I"
      ],
      [
        "SATURN",
        "IN"
      ],
      [
        "ene",
        "m"
      ],
      [
        "satis",
        "fac"
      ],
      [
        "unc",
        "l"
      ],
      [
        "Lav",
        "i"
      ],
      [
        "Luci",
        "u"
      ],
      [
        "A",
        "A"
      ],
      [
        "E",
        "n"
      ],
      [
        "F",
        "a"
      ],
      [
        "F",
        "ar"
      ],
      [
        "G",
        "ot"
      ],
      [
        "O",
        "TH"
      ],
      [
        "R",
        "ON"
      ],
      [
        "S",
        "e"
      ],
      [
        "T",
        "I"
      ],
      [
        "T",
        "i"
      ],
      [
        "T",
        "US"
      ],
      [
        "W",
        "ha"
      ],
      [
        "a",
        "u"
      ],
      [
        "a",
        "ise"
      ],
      [
        "b",
        "i"
      ],
      [
        "b",
        "as"
      ],
      [
        "b",
        "lo"
      ],
      [
        "b",
        "eas"
      ],
      [
        "d",
        "r"
      ],
      [
        "d",
        "ly"
      ],
      [
        "e",
        "mp"
      ],
      [
        "e",
        "unt"
      ],
      [
        "e",
        "well"
      ],
      [
        "e",
        "fore"
      ],
      [
        "e",
        "hold"
      ],
      [
        "g",
        "s"
      ],
      [
        "g",
        "re"
      ],
      [
        "g",
        "en"
      ],
      [
        "h",
        "ould"
      ],
      [
        "i",
        "o"
      ],
      [
        "i",
        "le"
      ],
      [
        "i",
        "ld"
      ],
      [
        "i",
        "ef"
      ],
      [
        "i",
        "mbs"
      ],
      [
        "k",
        "i"
      ],
      [
        "k",
        "is"
      ],
      [
        "k",
        "no"
      ],
      [
        "l",
        "f"
      ],
      [
        "l",
        "as"
      ],
      [
        "l",
        "ood"
      ],
      [
        "m",
        "or"
      ],
      [
        "n",
        "c"
      ],
      [
        "n",
        "ing"
      ],
      [
        "n",
        "ous"
      ],
      [
        "n",
        "ine"
      ],
      [
        "n",
        "vey"
      ],
      [
        "n",
        "emies"
      ],
      [
        "o",
        "man"
      ],
      [
        "p",
        "on"
      ],
      [
        "p",
        "il"
      ],
      [
        "r",
        "m"
      ],
      [
        "r",
        "ds"
      ],
      [
        "s",
        "l"
      ],
      [
        "t",
        "le"
      ],
      [
        "t",
        "ly"
      ],
      [
        "u",
        "th"
      ],
      [
        "w",
        "ou"
      ],
      [
        "w",
        "ha"
      ],
      [
        "w",
        "he"
      ],
      [
        "w",
        "ro"
      ],
      [
        "w",
        "ron"
      ],
      [
        "y",
        "e"
      ],
      [
        "y",
        "self"
      ],
      [
        "th",
        "ren"
      ],
      [
        "in",
        "te"
      ],
      [
        "on",
        "vey"
      ],
      [
        "re",
        "well"
      ],
      [
        "st",
        "o"
      ],
      [
        "an",
        "s"
      ],
      [
        "li",
        "m"
      ],
      [
        "he",
        "m"
      ],
      [
        "at",
        "urnine"
      ],
      [
        "hi",
        "ld"
      ],
      [
        "be",
        "l"
      ],
      [
        "be",
        "t"
      ],
      [
        "ar",
        "m"
      ],
      [
        "ar",
        "th"
      ],
      [
        "ar",
        "nate"
      ],
      [
        "nt",
        "le"
      ],
      [
        "ow",
        "s"
      ],
      [
        "mi",
        "es"
      ],
      [
        "ru",
        "e"
      ],
      [
        "ev",
        "il"
      ],
      [
        "la",
        "w"
      ],
      [
        "are",
        "well"
      ],
      [
        "sh",
        "ou"
      ],
      [
        "sh",
        "oul"
      ],
      [
        "si",
        "gh"
      ],
      [
        "ent",
        "le"
      ],
      [
        "gr",
        "ea"
      ],
      [
        "hea",
        "v"
      ],
      [
        "tru",
        "m"
      ],
      [
        "con",
        "v"
      ],
      [
        "con",
        "ve"
      ],
      [
        "row",
        "s"
      ],
      [
        "row",
        "ful"
      ],
      [
        "AR",
        "ON"
      ],
      [
        "whi",
        "c"
      ],
      [
        "ain",
        "s"
      ],
      [
        "up",
        "o"
      ],
      [
        "ish",
        "ment"
      ],
      [
        "ever",
        "last"
      ],
      [
        "dev",
        "i"
      ],
      [
        "bl",
        "oo"
      ],
      [
        "pro",
        "c"
      ],
      [
        "GO",
        "T"
      ],
      [
        "IT",
        "US"
      ],
      [
        "AAR",
        "O"
      ],
      [
        "Mar",
        "c"
      ],
      [
        "Sat",
        "u"
      ],
      [
        "Sat",
        "ur"
      ],
      [
        "TIT",
        "U"
      ],
      [
        "chi",
        "l"
      ],
      [
        "sor",
        "r"
      ],
      [
        "turn",
        "ine"
      ],
      [
        "Fare",
        "w"
      ],
      [
        "Fare",
        "we"
      ],
      [
        "Fare",
        "wel"
      ],
      [
        "gent",
        "l"
      ],
      [
        "them",
        "sel"
      ],
      [
        "inter",
        "rup"
      ],
      [
        "enemi",
        "e"
      ],
      [
        "Saturn",
        "i"
      ],
      [
        "Saturn",
        "in"
      ],
      [
        "ta",
        "k"
      ],
      [
        "ban",
        "is"
      ],
      [
        "war",
        "ri"
      ],
      [
        "detest",
        "a"
      ],
      [
        "sacrifi",
        "c"
      ],
      [
        "xe",
        "unt"
      ],
      [
        "sig",
        "n"
      ],
      [
        "mon",
        "u"
      ],
      [
        "dig",
        "ies"
      ],
      [
        "test",
        "im"
      ],
      [
        "Fl",
        "our"
      ],
      [
        "SEN",
        "AT"
      ],
      [
        "TRI",
        "BU"
      ],
      [
        "imp",
        "ati"
      ],
      [
        "lux",
        "uri"
      ],
      [
        "ceed",
        "ings"
      ],
      [
        "ng",
        "s"
      ],
      [
        "rn",
        "ine"
      ],
      [
        "el",
        "f"
      ],
      [
        "Ent",
        "e"
      ],
      [
        "A",
        "e"
      ],
      [
        "A",
        "w"
      ],
      [
        "A",
        "la"
      ],
      [
        "A",
        "wa"
      ],
      [
        "A",
        "em"
      ],
      [
        "B",
        "ef"
      ],
      [
        "C",
        "a"
      ],
      [
        "C",
        "IUS"
      ],
      [
        "D",
        "ea"
      ],
      [
        "E",
        "MILIUS"
      ],
      [
        "I",
        "mp"
      ],
      [
        "K",
        "is"
      ],
      [
        "L",
        "IUS"
      ],
      [
        "M",
        "u"
      ],
      [
        "M",
        "an"
      ],
      [
        "N",
        "US"
      ],
      [
        "N",
        "INUS"
      ],
      [
        "O",
        "u"
      ],
      [
        "P",
        "r"
      ],
      [
        "S",
        "A"
      ],
      [
        "S",
        "h"
      ],
      [
        "S",
        "i"
      ],
      [
        "S",
        "p"
      ],
      [
        "S",
        "w"
      ],
      [
        "S",
        "ir"
      ],
      [
        "S",
        "we"
      ],
      [
        "S",
        "wee"
      ],
      [
        "S",
        "ta"
      ],
      [
        "T",
        "a"
      ],
      [
        "T",
        "e"
      ],
      [
        "T",
        "il"
      ],
      [
        "T",
        "URNINUS"
      ],
      [
        "W",
        "hi"
      ],
      [
        "a",
        "cri"
      ],
      [
        "a",
        "cious"
      ],
      [
        "a",
        "stly"
      ],
      [
        "a",
        "wa"
      ],
      [
        "b",
        "one"
      ],
      [
        "b",
        "une"
      ],
      [
        "b",
        "unes"
      ],
      [
        "c",
        "he"
      ],
      [
        "d",
        "a"
      ],
      [
        "d",
        "der"
      ],
      [
        "d",
        "ronicus"
      ],
      [
        "e",
        "g"
      ],
      [
        "e",
        "w"
      ],
      [
        "e",
        "in"
      ],
      [
        "e",
        "ive"
      ],
      [
        "e",
        "qu"
      ],
      [
        "e",
        "full"
      ],
      [
        "e",
        "lcome"
      ],
      [
        "e",
        "ceive"
      ],
      [
        "f",
        "ir"
      ],
      [
        "g",
        "a"
      ],
      [
        "g",
        "ro"
      ],
      [
        "g",
        "ies"
      ],
      [
        "g",
        "ate"
      ],
      [
        "g",
        "nifies"
      ],
      [
        "h",
        "s"
      ],
      [
        "h",
        "in"
      ],
      [
        "h",
        "ine"
      ],
      [
        "h",
        "um"
      ],
      [
        "h",
        "ese"
      ],
      [
        "i",
        "ou"
      ],
      [
        "i",
        "ther"
      ],
      [
        "i",
        "ev"
      ],
      [
        "i",
        "end"
      ],
      [
        "i",
        "pe"
      ],
      [
        "i",
        "ves"
      ],
      [
        "i",
        "ger"
      ],
      [
        "i",
        "lius"
      ],
      [
        "j",
        "us"
      ],
      [
        "l",
        "s"
      ],
      [
        "l",
        "us"
      ],
      [
        "m",
        "es"
      ],
      [
        "m",
        "ing"
      ],
      [
        "n",
        "ea"
      ],
      [
        "n",
        "ful"
      ],
      [
        "n",
        "ks"
      ],
      [
        "n",
        "icus"
      ],
      [
        "o",
        "the"
      ],
      [
        "o",
        "st"
      ],
      [
        "o",
        "ving"
      ],
      [
        "p",
        "ets"
      ],
      [
        "p",
        "rai"
      ],
      [
        "r",
        "thy"
      ],
      [
        "r",
        "east"
      ],
      [
        "r",
        "ish"
      ],
      [
        "r",
        "cus"
      ],
      [
        "r",
        "ought"
      ],
      [
        "r",
        "rel"
      ],
      [
        "r",
        "barous"
      ],
      [
        "r",
        "ison"
      ],
      [
        "s",
        "ou"
      ],
      [
        "s",
        "es"
      ],
      [
        "s",
        "ir"
      ],
      [
        "s",
        "wee"
      ],
      [
        "t",
        "and"
      ],
      [
        "t",
        "ing"
      ],
      [
        "t",
        "ay"
      ],
      [
        "t",
        "ness"
      ],
      [
        "t",
        "ory"
      ],
      [
        "u",
        "nd"
      ],
      [
        "u",
        "ll"
      ],
      [
        "u",
        "it"
      ],
      [
        "u",
        "mpets"
      ],
      [
        "u",
        "arrel"
      ],
      [
        "v",
        "i"
      ],
      [
        "v",
        "ished"
      ],
      [
        "w",
        "ear"
      ],
      [
        "w",
        "oul"
      ],
      [
        "x",
        "it"
      ],
      [
        "x",
        "urious"
      ],
      [
        "th",
        "r"
      ],
      [
        "th",
        "s"
      ],
      [
        "th",
        "ro"
      ],
      [
        "ou",
        "th"
      ],
      [
        "nd",
        "ronicus"
      ],
      [
        "in",
        "sat"
      ],
      [
        "is",
        "faction"
      ],
      [
        "ea",
        "the"
      ],
      [
        "ea",
        "ven"
      ],
      [
        "ea",
        "ns"
      ],
      [
        "ha",
        "lt"
      ],
      [
        "on",
        "es"
      ],
      [
        "on",
        "icus"
      ],
      [
        "me",
        "e"
      ],
      [
        "me",
        "trius"
      ],
      [
        "and",
        "sire"
      ],
      [
        "re",
        "fore"
      ],
      [
        "re",
        "lie"
      ],
      [
        "st",
        "r"
      ],
      [
        "an",
        "k"
      ],
      [
        "an",
        "ted"
      ],
      [
        "le",
        "dges"
      ],
      [
        "wi",
        "p"
      ],
      [
        "li",
        "ef"
      ],
      [
        "at",
        "es"
      ],
      [
        "hi",
        "es"
      ],
      [
        "ther",
        "ef"
      ],
      [
        "ee",
        "m"
      ],
      [
        "And",
        "r"
      ],
      [
        "And",
        "ro"
      ],
      [
        "ri",
        "t"
      ],
      [
        "ri",
        "us"
      ],
      [
        "ri",
        "ous"
      ],
      [
        "ri",
        "ef"
      ],
      [
        "be",
        "h"
      ],
      [
        "be",
        "i"
      ],
      [
        "be",
        "in"
      ],
      [
        "be",
        "li"
      ],
      [
        "be",
        "fa"
      ],
      [
        "be",
        "ho"
      ],
      [
        "be",
        "lie"
      ],
      [
        "ar",
        "ous"
      ],
      [
        "ar",
        "cus"
      ],
      [
        "ar",
        "dy"
      ],
      [
        "ar",
        "barous"
      ],
      [
        "it",
        "ness"
      ],
      [
        "se",
        "n"
      ],
      [
        "se",
        "hold"
      ],
      [
        "ra",
        "cious"
      ],
      [
        "ut",
        "ius"
      ],
      [
        "thy",
        "s"
      ],
      [
        "thy",
        "se"
      ],
      [
        "thy",
        "sel"
      ],
      [
        "et",
        "ter"
      ],
      [
        "et",
        "est"
      ],
      [
        "oo",
        "m"
      ],
      [
        "mp",
        "ress"
      ],
      [
        "ur",
        "b"
      ],
      [
        "ur",
        "ish"
      ],
      [
        "as",
        "le"
      ],
      [
        "gh",
        "ness"
      ],
      [
        "al",
        "thou"
      ],
      [
        "mi",
        "ld"
      ],
      [
        "mi",
        "lius"
      ],
      [
        "ed",
        "ges"
      ],
      [
        "ru",
        "it"
      ],
      [
        "ru",
        "mpets"
      ],
      [
        "hall",
        "owed"
      ],
      [
        "la",
        "in"
      ],
      [
        "la",
        "ve"
      ],
      [
        "en",
        "ce"
      ],
      [
        "en",
        "ous"
      ],
      [
        "Emp",
        "r"
      ],
      [
        "Emp",
        "re"
      ],
      [
        "Emp",
        "res"
      ],
      [
        "here",
        "fore"
      ],
      [
        "ma",
        "ineth"
      ],
      [
        "ent",
        "ra"
      ],
      [
        "urn",
        "ing"
      ],
      [
        "lo",
        "vin"
      ],
      [
        "qu",
        "a"
      ],
      [
        "hea",
        "ve"
      ],
      [
        "hea",
        "ded"
      ],
      [
        "con",
        "t"
      ],
      [
        "ven",
        "ous"
      ],
      [
        "pr",
        "ou"
      ],
      [
        "pr",
        "is"
      ],
      [
        "pr",
        "ess"
      ],
      [
        "di",
        "gr"
      ],
      [
        "Ex",
        "i"
      ],
      [
        "br",
        "eas"
      ],
      [
        "AR",
        "BUS"
      ],
      [
        "La",
        "st"
      ],
      [
        "emi",
        "lius"
      ],
      [
        "oth",
        "s"
      ],
      [
        "co",
        "z"
      ],
      [
        "ti",
        "g"
      ],
      [
        "ti",
        "l"
      ],
      [
        "ti",
        "es"
      ],
      [
        "ti",
        "us"
      ],
      [
        "ti",
        "ge"
      ],
      [
        "gra",
        "c"
      ],
      [
        "gra",
        "v"
      ],
      [
        "liv",
        "ion"
      ],
      [
        "now",
        "n"
      ],
      [
        "bar",
        "b"
      ],
      [
        "rong",
        "s"
      ],
      [
        "ere",
        "fore"
      ],
      [
        "han",
        "k"
      ],
      [
        "op",
        "le"
      ],
      [
        "pro",
        "ved"
      ],
      [
        "ob",
        "j"
      ],
      [
        "ob",
        "s"
      ],
      [
        "ob",
        "se"
      ],
      [
        "AT",
        "URNINUS"
      ],
      [
        "IL",
        "IUS"
      ],
      [
        "sw",
        "ea"
      ],
      [
        "Mar",
        "cu"
      ],
      [
        "sor",
        "ro"
      ],
      [
        "sla",
        "v"
      ],
      [
        "tri",
        "m"
      ],
      [
        "lov",
        "i"
      ],
      [
        "beast",
        "l"
      ],
      [
        "te",
        "mpt"
      ],
      [
        "Ro",
        "ma"
      ],
      [
        "wit",
        "n"
      ],
      [
        "wit",
        "ne"
      ],
      [
        "wit",
        "nes"
      ],
      [
        "ad",
        "der"
      ],
      [
        "wel",
        "fa"
      ],
      [
        "bre",
        "t"
      ],
      [
        "ple",
        "d"
      ],
      [
        "sc",
        "a"
      ],
      [
        "RN",
        "INUS"
      ],
      [
        "pa",
        "ir"
      ],
      [
        "per",
        "f"
      ],
      [
        "per",
        "fu"
      ],
      [
        "wor",
        "t"
      ],
      [
        "ban",
        "i"
      ],
      [
        "des",
        "i"
      ],
      [
        "des",
        "ir"
      ],
      [
        "det",
        "e"
      ],
      [
        "det",
        "es"
      ],
      [
        "fru",
        "i"
      ],
      [
        "gri",
        "e"
      ],
      [
        "hu",
        "man"
      ],
      [
        "hu",
        "mb"
      ],
      [
        "mea",
        "n"
      ],
      [
        "unk",
        "ind"
      ],
      [
        "lad",
        "d"
      ],
      [
        "lad",
        "de"
      ],
      [
        "Aemi",
        "l"
      ],
      [
        "vill",
        "a"
      ],
      [
        "vill",
        "ai"
      ],
      [
        "rece",
        "i"
      ],
      [
        "rece",
        "iv"
      ],
      [
        "quar",
        "r"
      ],
      [
        "quar",
        "re"
      ],
      [
        "pres",
        "e"
      ],
      [
        "pres",
        "ent"
      ],
      [
        "liev",
        "est"
      ],
      [
        "sacri",
        "f"
      ],
      [
        "raven",
        "ou"
      ],
      [
        "SATURN",
        "I"
      ],
      [
        "bir",
        "d"
      ],
      [
        "hy",
        "self"
      ],
      [
        "ith",
        "ful"
      ],
      [
        "fr",
        "at"
      ],
      [
        "So",
        "m"
      ],
      [
        "rave",
        "no"
      ],
      [
        "su",
        "b"
      ],
      [
        "ong",
        "s"
      ],
      [
        "rai",
        "ght"
      ],
      [
        "va",
        "unt"
      ],
      [
        "thin",
        "ks"
      ],
      [
        "rav",
        "is"
      ],
      [
        "sig",
        "nifi"
      ],
      [
        "LA",
        "V"
      ],
      [
        "ju",
        "dg"
      ],
      [
        "mon",
        "y"
      ],
      [
        "ser",
        "v"
      ],
      [
        "MAR",
        "C"
      ],
      [
        "Tar",
        "qu"
      ],
      [
        "VIN",
        "IA"
      ],
      [
        "cur",
        "sed"
      ],
      [
        "emb",
        "ra"
      ],
      [
        "fen",
        "ce"
      ],
      [
        "tro",
        "p"
      ],
      [
        "una",
        "p"
      ],
      [
        "una",
        "pp"
      ],
      [
        "ldi",
        "ers"
      ],
      [
        "LUC",
        "I"
      ],
      [
        "bst",
        "ance"
      ],
      [
        "fun",
        "er"
      ],
      [
        "mm",
        "ing"
      ],
      [
        "phi",
        "es"
      ],
      [
        "ins",
        "ati"
      ],
      [
        "star",
        "dy"
      ],
      [
        "sequ",
        "ious"
      ],
      [
        "Deme",
        "tri"
      ],
      [
        "Rema",
        "in"
      ],
      [
        "aud",
        "it"
      ],
      [
        "house",
        "ho"
      ],
      [
        "unhall",
        "ow"
      ],
      [
        "om",
        "es"
      ],
      [
        "rn",
        "ing"
      ],
      [
        "ss",
        "es"
      ],
      [
        "trump",
        "e"
      ],
      [
        "trump",
        "et"
      ],
      [
        "brou",
        "g"
      ],
      [
        "brou",
        "gh"
      ],
      [
        "graci",
        "o"
      ],
      [
        "graci",
        "ou"
      ],
      [
        "Androni",
        "c"
      ],
      [
        "Androni",
        "cu"
      ],
      [
        "aven",
        "ous"
      ],
      [
        "pra",
        "is"
      ],
      [
        "barbar",
        "ou"
      ],
      [
        "barba",
        "ro"
      ],
      [
        "sac",
        "r"
      ],
      [
        "pledg",
        "e"
      ],
      [
        "AEM",
        "I"
      ],
      [
        "Muti",
        "u"
      ],
      [
        "SATU",
        "R"
      ],
      [
        "Aemili",
        "u"
      ],
      [
        "AEMILI",
        "U"
      ],
      [
        "SATURNIN",
        "U"
      ],
      [
        "satisfac",
        "ti"
      ],
      [
        "au",
        "di"
      ],
      [
        "proc",
        "ee"
      ],
      [
        "TRIBU",
        "N"
      ],
      [
        "A",
        "r"
      ],
      [
        "A",
        "pp"
      ],
      [
        "A",
        "LA"
      ],
      [
        "A",
        "VINIA"
      ],
      [
        "B",
        "r"
      ],
      [
        "B",
        "ri"
      ],
      [
        "B",
        "rin"
      ],
      [
        "C",
        "h"
      ],
      [
        "C",
        "i"
      ],
      [
        "C",
        "o"
      ],
      [
        "C",
        "al"
      ],
      [
        "C",
        "om"
      ],
      [
        "E",
        "v"
      ],
      [
        "E",
        "ve"
      ],
      [
        "F",
        "i"
      ],
      [
        "F",
        "lo"
      ],
      [
        "F",
        "irs"
      ],
      [
        "G",
        "e"
      ],
      [
        "G",
        "i"
      ],
      [
        "G",
        "oo"
      ],
      [
        "G",
        "iv"
      ],
      [
        "H",
        "S"
      ],
      [
        "H",
        "a"
      ],
      [
        "H",
        "an"
      ],
      [
        "H",
        "ILD"
      ],
      [
        "I",
        "m"
      ],
      [
        "I",
        "RST"
      ],
      [
        "I",
        "BUNES"
      ],
      [
        "K",
        "i"
      ],
      [
        "K",
        "iss"
      ],
      [
        "L",
        "D"
      ],
      [
        "L",
        "as"
      ],
      [
        "L",
        "ARBUS"
      ],
      [
        "M",
        "A"
      ],
      [
        "M",
        "oo"
      ],
      [
        "M",
        "ORA"
      ],
      [
        "N",
        "S"
      ],
      [
        "N",
        "IA"
      ],
      [
        "N",
        "ATORS"
      ],
      [
        "P",
        "ro"
      ],
      [
        "R",
        "A"
      ],
      [
        "R",
        "BUS"
      ],
      [
        "R",
        "CUS"
      ],
      [
        "S",
        "E"
      ],
      [
        "S",
        "O"
      ],
      [
        "S",
        "T"
      ],
      [
        "S",
        "u"
      ],
      [
        "S",
        "ou"
      ],
      [
        "S",
        "ha"
      ],
      [
        "S",
        "he"
      ],
      [
        "S",
        "pe"
      ],
      [
        "S",
        "oun"
      ],
      [
        "S",
        "hal"
      ],
      [
        "T",
        "A"
      ],
      [
        "T",
        "R"
      ],
      [
        "T",
        "r"
      ],
      [
        "T",
        "ri"
      ],
      [
        "T",
        "en"
      ],
      [
        "T",
        "ho"
      ],
      [
        "T",
        "ORS"
      ],
      [
        "T",
        "el"
      ],
      [
        "U",
        "nt"
      ],
      [
        "U",
        "NES"
      ],
      [
        "U",
        "CIUS"
      ],
      [
        "W",
        "er"
      ],
      [
        "W",
        "he"
      ],
      [
        "W",
        "her"
      ],
      [
        "a",
        "f"
      ],
      [
        "a",
        "x"
      ],
      [
        "a",
        "the"
      ],
      [
        "a",
        "me"
      ],
      [
        "a",
        "le"
      ],
      [
        "a",
        "ir"
      ],
      [
        "a",
        "do"
      ],
      [
        "a",
        "ment"
      ],
      [
        "a",
        "de"
      ],
      [
        "a",
        "bs"
      ],
      [
        "a",
        "ves"
      ],
      [
        "a",
        "ge"
      ],
      [
        "a",
        "vy"
      ],
      [
        "a",
        "wful"
      ],
      [
        "a",
        "ils"
      ],
      [
        "a",
        "ults"
      ],
      [
        "a",
        "ineth"
      ],
      [
        "a",
        "unter"
      ],
      [
        "a",
        "ppeas"
      ],
      [
        "a",
        "wh"
      ],
      [
        "a",
        "ight"
      ],
      [
        "a",
        "vished"
      ],
      [
        "a",
        "ithful"
      ],
      [
        "a",
        "stardy"
      ],
      [
        "b",
        "ee"
      ],
      [
        "b",
        "ly"
      ],
      [
        "b",
        "race"
      ],
      [
        "b",
        "ject"
      ],
      [
        "b",
        "livion"
      ],
      [
        "b",
        "sequious"
      ],
      [
        "c",
        "r"
      ],
      [
        "c",
        "t"
      ],
      [
        "c",
        "ea"
      ],
      [
        "c",
        "li"
      ],
      [
        "c",
        "ath"
      ],
      [
        "c",
        "eas"
      ],
      [
        "c",
        "ars"
      ],
      [
        "c",
        "ount"
      ],
      [
        "c",
        "tion"
      ],
      [
        "c",
        "lim"
      ],
      [
        "c",
        "arnate"
      ],
      [
        "c",
        "cursed"
      ],
      [
        "d",
        "st"
      ],
      [
        "d",
        "an"
      ],
      [
        "d",
        "ing"
      ],
      [
        "d",
        "ra"
      ],
      [
        "d",
        "row"
      ],
      [
        "d",
        "est"
      ],
      [
        "d",
        "um"
      ],
      [
        "d",
        "sire"
      ],
      [
        "d",
        "orn"
      ],
      [
        "d",
        "vent"
      ],
      [
        "d",
        "ings"
      ],
      [
        "d",
        "itory"
      ],
      [
        "e",
        "x"
      ],
      [
        "e",
        "th"
      ],
      [
        "e",
        "my"
      ],
      [
        "e",
        "ing"
      ],
      [
        "e",
        "ly"
      ],
      [
        "e",
        "ble"
      ],
      [
        "e",
        "ful"
      ],
      [
        "e",
        "lt"
      ],
      [
        "e",
        "ks"
      ],
      [
        "e",
        "ps"
      ],
      [
        "e",
        "comes"
      ],
      [
        "e",
        "ws"
      ],
      [
        "e",
        "lp"
      ],
      [
        "e",
        "mpt"
      ],
      [
        "e",
        "lieve"
      ],
      [
        "e",
        "fall"
      ],
      [
        "e",
        "veng"
      ],
      [
        "e",
        "lieves"
      ],
      [
        "e",
        "theren"
      ],
      [
        "e",
        "thren"
      ],
      [
        "e",
        "metrius"
      ],
      [
        "e",
        "lief"
      ],
      [
        "e",
        "maineth"
      ],
      [
        "e",
        "headed"
      ],
      [
        "e",
        "ople"
      ],
      [
        "e",
        "pair"
      ],
      [
        "e",
        "lievest"
      ],
      [
        "e",
        "thinks"
      ],
      [
        "f",
        "l"
      ],
      [
        "f",
        "s"
      ],
      [
        "f",
        "t"
      ],
      [
        "f",
        "ea"
      ],
      [
        "f",
        "le"
      ],
      [
        "f",
        "ee"
      ],
      [
        "f",
        "ra"
      ],
      [
        "f",
        "oo"
      ],
      [
        "f",
        "une"
      ],
      [
        "f",
        "fence"
      ],
      [
        "g",
        "on"
      ],
      [
        "g",
        "ing"
      ],
      [
        "g",
        "ful"
      ],
      [
        "g",
        "ain"
      ],
      [
        "h",
        "ing"
      ],
      [
        "h",
        "ut"
      ],
      [
        "h",
        "with"
      ],
      [
        "h",
        "ous"
      ],
      [
        "h",
        "ful"
      ],
      [
        "h",
        "row"
      ],
      [
        "h",
        "ought"
      ],
      [
        "h",
        "ness"
      ],
      [
        "h",
        "ment"
      ],
      [
        "h",
        "rown"
      ],
      [
        "h",
        "ren"
      ],
      [
        "h",
        "less"
      ],
      [
        "h",
        "rink"
      ],
      [
        "i",
        "me"
      ],
      [
        "i",
        "ce"
      ],
      [
        "i",
        "mb"
      ],
      [
        "i",
        "ent"
      ],
      [
        "i",
        "ps"
      ],
      [
        "i",
        "de"
      ],
      [
        "i",
        "ers"
      ],
      [
        "i",
        "ate"
      ],
      [
        "i",
        "ors"
      ],
      [
        "i",
        "cing"
      ],
      [
        "i",
        "ldly"
      ],
      [
        "i",
        "gress"
      ],
      [
        "i",
        "eve"
      ],
      [
        "i",
        "bune"
      ],
      [
        "i",
        "bunes"
      ],
      [
        "i",
        "gies"
      ],
      [
        "i",
        "gnifies"
      ],
      [
        "i",
        "ghness"
      ],
      [
        "j",
        "ud"
      ],
      [
        "k",
        "y"
      ],
      [
        "k",
        "il"
      ],
      [
        "k",
        "ne"
      ],
      [
        "k",
        "indly"
      ],
      [
        "l",
        "k"
      ],
      [
        "l",
        "ou"
      ],
      [
        "l",
        "ow"
      ],
      [
        "l",
        "ter"
      ],
      [
        "l",
        "ves"
      ],
      [
        "l",
        "ourish"
      ],
      [
        "l",
        "fare"
      ],
      [
        "l",
        "owed"
      ],
      [
        "l",
        "cony"
      ],
      [
        "l",
        "though"
      ],
      [
        "m",
        "n"
      ],
      [
        "m",
        "is"
      ],
      [
        "m",
        "us"
      ],
      [
        "m",
        "ish"
      ],
      [
        "m",
        "out"
      ],
      [
        "m",
        "ult"
      ],
      [
        "m",
        "ong"
      ],
      [
        "m",
        "ora"
      ],
      [
        "m",
        "selves"
      ],
      [
        "n",
        "er"
      ],
      [
        "n",
        "st"
      ],
      [
        "n",
        "an"
      ],
      [
        "n",
        "ee"
      ],
      [
        "n",
        "am"
      ],
      [
        "n",
        "just"
      ],
      [
        "n",
        "ished"
      ],
      [
        "n",
        "anc"
      ],
      [
        "n",
        "eral"
      ],
      [
        "n",
        "ounc"
      ],
      [
        "n",
        "mity"
      ],
      [
        "n",
        "ument"
      ],
      [
        "n",
        "ishment"
      ],
      [
        "n",
        "hallowed"
      ],
      [
        "n",
        "human"
      ],
      [
        "o",
        "a"
      ],
      [
        "o",
        "e"
      ],
      [
        "o",
        "g"
      ],
      [
        "o",
        "k"
      ],
      [
        "o",
        "v"
      ],
      [
        "o",
        "y"
      ],
      [
        "o",
        "or"
      ],
      [
        "o",
        "ve"
      ],
      [
        "o",
        "at"
      ],
      [
        "o",
        "se"
      ],
      [
        "o",
        "ke"
      ],
      [
        "o",
        "mb"
      ],
      [
        "o",
        "bl"
      ],
      [
        "o",
        "dy"
      ],
      [
        "o",
        "sed"
      ],
      [
        "o",
        "ts"
      ],
      [
        "o",
        "int"
      ],
      [
        "o",
        "ved"
      ],
      [
        "o",
        "zen"
      ],
      [
        "o",
        "som"
      ],
      [
        "o",
        "vern"
      ],
      [
        "o",
        "digies"
      ],
      [
        "o",
        "ceedings"
      ],
      [
        "o",
        "efull"
      ],
      [
        "o",
        "ldiers"
      ],
      [
        "p",
        "t"
      ],
      [
        "p",
        "u"
      ],
      [
        "p",
        "ea"
      ],
      [
        "p",
        "ri"
      ],
      [
        "p",
        "ing"
      ],
      [
        "p",
        "ter"
      ],
      [
        "p",
        "al"
      ],
      [
        "p",
        "are"
      ],
      [
        "p",
        "eas"
      ],
      [
        "p",
        "ort"
      ],
      [
        "p",
        "rawl"
      ],
      [
        "p",
        "atient"
      ],
      [
        "p",
        "proved"
      ],
      [
        "r",
        "b"
      ],
      [
        "r",
        "l"
      ],
      [
        "r",
        "v"
      ],
      [
        "r",
        "er"
      ],
      [
        "r",
        "ou"
      ],
      [
        "r",
        "ve"
      ],
      [
        "r",
        "st"
      ],
      [
        "r",
        "ch"
      ],
      [
        "r",
        "est"
      ],
      [
        "r",
        "ry"
      ],
      [
        "r",
        "dy"
      ],
      [
        "r",
        "sed"
      ],
      [
        "r",
        "unk"
      ],
      [
        "r",
        "don"
      ],
      [
        "r",
        "ned"
      ],
      [
        "r",
        "bus"
      ],
      [
        "r",
        "tyr"
      ],
      [
        "r",
        "nate"
      ],
      [
        "r",
        "form"
      ],
      [
        "r",
        "fume"
      ],
      [
        "r",
        "quin"
      ],
      [
        "r",
        "riors"
      ],
      [
        "r",
        "atrum"
      ],
      [
        "r",
        "rupter"
      ],
      [
        "r",
        "lasting"
      ],
      [
        "r",
        "rows"
      ],
      [
        "r",
        "rowful"
      ],
      [
        "r",
        "eathe"
      ],
      [
        "r",
        "andsire"
      ],
      [
        "r",
        "anted"
      ],
      [
        "s",
        "m"
      ],
      [
        "s",
        "in"
      ],
      [
        "s",
        "he"
      ],
      [
        "s",
        "us"
      ],
      [
        "s",
        "wo"
      ],
      [
        "s",
        "ati"
      ],
      [
        "s",
        "inc"
      ],
      [
        "s",
        "leep"
      ],
      [
        "s",
        "irous"
      ],
      [
        "s",
        "atiate"
      ],
      [
        "s",
        "faction"
      ],
      [
        "t",
        "w"
      ],
      [
        "t",
        "us"
      ],
      [
        "t",
        "ch"
      ],
      [
        "t",
        "one"
      ],
      [
        "t",
        "ain"
      ],
      [
        "t",
        "rong"
      ],
      [
        "t",
        "ty"
      ],
      [
        "t",
        "les"
      ],
      [
        "t",
        "une"
      ],
      [
        "t",
        "ance"
      ],
      [
        "t",
        "ure"
      ],
      [
        "t",
        "eel"
      ],
      [
        "t",
        "ched"
      ],
      [
        "t",
        "rails"
      ],
      [
        "t",
        "ardy"
      ],
      [
        "t",
        "tempt"
      ],
      [
        "t",
        "raight"
      ],
      [
        "u",
        "in"
      ],
      [
        "u",
        "me"
      ],
      [
        "u",
        "gh"
      ],
      [
        "u",
        "man"
      ],
      [
        "u",
        "mb"
      ],
      [
        "u",
        "ch"
      ],
      [
        "u",
        "dges"
      ],
      [
        "u",
        "ious"
      ],
      [
        "u",
        "een"
      ],
      [
        "u",
        "ite"
      ],
      [
        "u",
        "mbly"
      ],
      [
        "u",
        "xurious"
      ],
      [
        "u",
        "bstance"
      ],
      [
        "v",
        "o"
      ],
      [
        "v",
        "est"
      ],
      [
        "v",
        "ion"
      ],
      [
        "w",
        "l"
      ],
      [
        "w",
        "re"
      ],
      [
        "w",
        "ing"
      ],
      [
        "w",
        "her"
      ],
      [
        "w",
        "oo"
      ],
      [
        "w",
        "al"
      ],
      [
        "w",
        "ers"
      ],
      [
        "w",
        "oun"
      ],
      [
        "y",
        "r"
      ],
      [
        "th",
        "with"
      ],
      [
        "th",
        "al"
      ],
      [
        "th",
        "ful"
      ],
      [
        "th",
        "less"
      ],
      [
        "er",
        "n"
      ],
      [
        "er",
        "t"
      ],
      [
        "er",
        "ve"
      ],
      [
        "er",
        "en"
      ],
      [
        "er",
        "ess"
      ],
      [
        "er",
        "est"
      ],
      [
        "er",
        "eat"
      ],
      [
        "er",
        "ious"
      ],
      [
        "er",
        "form"
      ],
      [
        "er",
        "fume"
      ],
      [
        "er",
        "rupter"
      ],
      [
        "er",
        "lasting"
      ],
      [
        "ou",
        "gh"
      ],
      [
        "ou",
        "sehold"
      ],
      [
        "nd",
        "ed"
      ],
      [
        "nd",
        "ly"
      ],
      [
        "nd",
        "sire"
      ],
      [
        "in",
        "h"
      ],
      [
        "in",
        "k"
      ],
      [
        "in",
        "ous"
      ],
      [
        "in",
        "sa"
      ],
      [
        "in",
        "ks"
      ],
      [
        "in",
        "hum"
      ],
      [
        "is",
        "turb"
      ],
      [
        "ea",
        "f"
      ],
      [
        "ea",
        "l"
      ],
      [
        "ea",
        "n"
      ],
      [
        "ea",
        "ves"
      ],
      [
        "ea",
        "vy"
      ],
      [
        "ea",
        "thing"
      ],
      [
        "the",
        "s"
      ],
      [
        "the",
        "ms"
      ],
      [
        "or",
        "m"
      ],
      [
        "or",
        "thy"
      ],
      [
        "or",
        "ry"
      ],
      [
        "or",
        "rows"
      ],
      [
        "or",
        "rowful"
      ],
      [
        "ha",
        "r"
      ],
      [
        "ha",
        "s"
      ],
      [
        "ha",
        "dows"
      ],
      [
        "ha",
        "rm"
      ],
      [
        "es",
        "h"
      ],
      [
        "es",
        "pis"
      ],
      [
        "es",
        "erv"
      ],
      [
        "es",
        "cue"
      ],
      [
        "es",
        "irous"
      ],
      [
        "es",
        "ently"
      ],
      [
        "on",
        "er"
      ],
      [
        "on",
        "our"
      ],
      [
        "on",
        "sum"
      ],
      [
        "on",
        "ounc"
      ],
      [
        "on",
        "tent"
      ],
      [
        "on",
        "ument"
      ],
      [
        "me",
        "l"
      ],
      [
        "me",
        "t"
      ],
      [
        "me",
        "th"
      ],
      [
        "me",
        "thi"
      ],
      [
        "ll",
        "s"
      ],
      [
        "ll",
        "ow"
      ],
      [
        "ll",
        "ain"
      ],
      [
        "ll",
        "owed"
      ],
      [
        "ll",
        "ains"
      ],
      [
        "re",
        "e"
      ],
      [
        "re",
        "q"
      ],
      [
        "re",
        "v"
      ],
      [
        "re",
        "y"
      ],
      [
        "re",
        "in"
      ],
      [
        "re",
        "ve"
      ],
      [
        "re",
        "ble"
      ],
      [
        "re",
        "ven"
      ],
      [
        "re",
        "co"
      ],
      [
        "re",
        "de"
      ],
      [
        "re",
        "liev"
      ],
      [
        "re",
        "po"
      ],
      [
        "re",
        "lieve"
      ],
      [
        "re",
        "theren"
      ],
      [
        "re",
        "thren"
      ],
      [
        "st",
        "e"
      ],
      [
        "st",
        "s"
      ],
      [
        "st",
        "y"
      ],
      [
        "st",
        "or"
      ],
      [
        "st",
        "on"
      ],
      [
        "st",
        "an"
      ],
      [
        "st",
        "ee"
      ],
      [
        "st",
        "ro"
      ],
      [
        "st",
        "ing"
      ],
      [
        "st",
        "ra"
      ],
      [
        "st",
        "ed"
      ],
      [
        "st",
        "ron"
      ],
      [
        "st",
        "ance"
      ],
      [
        "st",
        "imony"
      ],
      [
        "st",
        "urb"
      ],
      [
        "an",
        "o"
      ],
      [
        "an",
        "es"
      ],
      [
        "an",
        "st"
      ],
      [
        "an",
        "oth"
      ],
      [
        "an",
        "ks"
      ],
      [
        "an",
        "ished"
      ],
      [
        "an",
        "ot"
      ],
      [
        "an",
        "ishment"
      ],
      [
        "an",
        "othe"
      ],
      [
        "to",
        "f"
      ],
      [
        "to",
        "l"
      ],
      [
        "to",
        "m"
      ],
      [
        "to",
        "p"
      ],
      [
        "to",
        "for"
      ],
      [
        "to",
        "fo"
      ],
      [
        "le",
        "ed"
      ],
      [
        "wi",
        "f"
      ],
      [
        "li",
        "p"
      ],
      [
        "he",
        "i"
      ],
      [
        "he",
        "l"
      ],
      [
        "at",
        "t"
      ],
      [
        "at",
        "ure"
      ],
      [
        "at",
        "isfaction"
      ],
      [
        "hi",
        "t"
      ],
      [
        "hi",
        "th"
      ],
      [
        "hi",
        "the"
      ],
      [
        "hi",
        "le"
      ],
      [
        "hi",
        "ron"
      ],
      [
        "no",
        "ther"
      ],
      [
        "our",
        "ning"
      ],
      [
        "our",
        "nful"
      ],
      [
        "ther",
        "ea"
      ],
      [
        "ee",
        "ks"
      ],
      [
        "ee",
        "ps"
      ],
      [
        "fa",
        "i"
      ],
      [
        "fa",
        "s"
      ],
      [
        "fa",
        "u"
      ],
      [
        "fa",
        "it"
      ],
      [
        "fa",
        "mi"
      ],
      [
        "fa",
        "ult"
      ],
      [
        "fa",
        "ul"
      ],
      [
        "ro",
        "b"
      ],
      [
        "ro",
        "ther"
      ],
      [
        "ro",
        "ps"
      ],
      [
        "ro",
        "ved"
      ],
      [
        "ro",
        "digies"
      ],
      [
        "ro",
        "ceedings"
      ],
      [
        "ro",
        "phies"
      ],
      [
        "ri",
        "end"
      ],
      [
        "ri",
        "fice"
      ],
      [
        "ri",
        "ficing"
      ],
      [
        "ri",
        "mming"
      ],
      [
        "of",
        "f"
      ],
      [
        "of",
        "t"
      ],
      [
        "of",
        "fe"
      ],
      [
        "of",
        "ore"
      ],
      [
        "ear",
        "l"
      ],
      [
        "ear",
        "n"
      ],
      [
        "ear",
        "er"
      ],
      [
        "be",
        "c"
      ],
      [
        "be",
        "f"
      ],
      [
        "be",
        "he"
      ],
      [
        "be",
        "come"
      ],
      [
        "be",
        "co"
      ],
      [
        "be",
        "com"
      ],
      [
        "be",
        "lieves"
      ],
      [
        "ar",
        "l"
      ],
      [
        "ar",
        "n"
      ],
      [
        "ar",
        "er"
      ],
      [
        "ar",
        "thy"
      ],
      [
        "ar",
        "ch"
      ],
      [
        "ar",
        "don"
      ],
      [
        "ar",
        "bus"
      ],
      [
        "ar",
        "tyr"
      ],
      [
        "ar",
        "ums"
      ],
      [
        "ar",
        "quin"
      ],
      [
        "ar",
        "riors"
      ],
      [
        "nt",
        "ed"
      ],
      [
        "nt",
        "ly"
      ],
      [
        "nt",
        "ent"
      ],
      [
        "nt",
        "rails"
      ],
      [
        "hat",
        "ef"
      ],
      [
        "us",
        "ehold"
      ],
      [
        "my",
        "s"
      ],
      [
        "my",
        "se"
      ],
      [
        "my",
        "sel"
      ],
      [
        "it",
        "y"
      ],
      [
        "it",
        "es"
      ],
      [
        "it",
        "us"
      ],
      [
        "it",
        "ing"
      ],
      [
        "it",
        "ies"
      ],
      [
        "it",
        "les"
      ],
      [
        "her",
        "en"
      ],
      [
        "her",
        "eat"
      ],
      [
        "se",
        "ly"
      ],
      [
        "un",
        "g"
      ],
      [
        "un",
        "h"
      ],
      [
        "un",
        "j"
      ],
      [
        "un",
        "ha"
      ],
      [
        "un",
        "ju"
      ],
      [
        "un",
        "hal"
      ],
      [
        "un",
        "eral"
      ],
      [
        "un",
        "jus"
      ],
      [
        "ra",
        "l"
      ],
      [
        "ra",
        "is"
      ],
      [
        "ut",
        "s"
      ],
      [
        "ut",
        "ies"
      ],
      [
        "you",
        "t"
      ],
      [
        "ow",
        "ing"
      ],
      [
        "ow",
        "ful"
      ],
      [
        "ow",
        "ers"
      ],
      [
        "with",
        "a"
      ],
      [
        "with",
        "i"
      ],
      [
        "et",
        "ch"
      ],
      [
        "et",
        "ty"
      ],
      [
        "et",
        "ched"
      ],
      [
        "et",
        "ters"
      ],
      [
        "et",
        "rius"
      ],
      [
        "oo",
        "k"
      ],
      [
        "oo",
        "ts"
      ],
      [
        "ld",
        "st"
      ],
      [
        "mp",
        "atient"
      ],
      [
        "ir",
        "on"
      ],
      [
        "ir",
        "st"
      ],
      [
        "ir",
        "ds"
      ],
      [
        "ce",
        "nse"
      ],
      [
        "we",
        "d"
      ],
      [
        "ter",
        "est"
      ],
      [
        "ter",
        "rupter"
      ],
      [
        "ur",
        "d"
      ],
      [
        "ur",
        "s"
      ],
      [
        "ur",
        "sed"
      ],
      [
        "as",
        "k"
      ],
      [
        "as",
        "l"
      ],
      [
        "al",
        "k"
      ],
      [
        "al",
        "o"
      ],
      [
        "al",
        "t"
      ],
      [
        "al",
        "th"
      ],
      [
        "al",
        "es"
      ],
      [
        "al",
        "oo"
      ],
      [
        "al",
        "ter"
      ],
      [
        "al",
        "cony"
      ],
      [
        "al",
        "tho"
      ],
      [
        "mi",
        "g"
      ],
      [
        "mi",
        "l"
      ],
      [
        "mi",
        "gh"
      ],
      [
        "ed",
        "s"
      ],
      [
        "ed",
        "ings"
      ],
      [
        "ed",
        "eem"
      ],
      [
        "ru",
        "m"
      ],
      [
        "ru",
        "th"
      ],
      [
        "ru",
        "ms"
      ],
      [
        "ev",
        "es"
      ],
      [
        "ev",
        "est"
      ],
      [
        "thou",
        "g"
      ],
      [
        "la",
        "m"
      ],
      [
        "la",
        "me"
      ],
      [
        "la",
        "men"
      ],
      [
        "la",
        "ins"
      ],
      [
        "ble",
        "e"
      ],
      [
        "man",
        "e"
      ],
      [
        "man",
        "s"
      ],
      [
        "mb",
        "ush"
      ],
      [
        "mb",
        "race"
      ],
      [
        "dea",
        "re"
      ],
      [
        "en",
        "g"
      ],
      [
        "en",
        "m"
      ],
      [
        "en",
        "se"
      ],
      [
        "en",
        "mi"
      ],
      [
        "en",
        "mit"
      ],
      [
        "ho",
        "se"
      ],
      [
        "so",
        "b"
      ],
      [
        "so",
        "l"
      ],
      [
        "so",
        "ld"
      ],
      [
        "ill",
        "s"
      ],
      [
        "ill",
        "ow"
      ],
      [
        "ill",
        "ain"
      ],
      [
        "ill",
        "ains"
      ],
      [
        "ron",
        "ounc"
      ],
      [
        "here",
        "in"
      ],
      [
        "ma",
        "d"
      ],
      [
        "ma",
        "ge"
      ],
      [
        "sh",
        "r"
      ],
      [
        "sh",
        "u"
      ],
      [
        "sh",
        "ri"
      ],
      [
        "sh",
        "ment"
      ],
      [
        "sh",
        "rin"
      ],
      [
        "fe",
        "l"
      ],
      [
        "si",
        "d"
      ],
      [
        "ive",
        "d"
      ],
      [
        "ent",
        "r"
      ],
      [
        "ent",
        "rai"
      ],
      [
        "urn",
        "ed"
      ],
      [
        "urn",
        "ful"
      ],
      [
        "wee",
        "pi"
      ],
      [
        "let",
        "t"
      ],
      [
        "let",
        "ter"
      ],
      [
        "let",
        "te"
      ],
      [
        "lo",
        "p"
      ],
      [
        "lo",
        "of"
      ],
      [
        "lo",
        "sed"
      ],
      [
        "do",
        "s"
      ],
      [
        "do",
        "t"
      ],
      [
        "go",
        "v"
      ],
      [
        "go",
        "ve"
      ],
      [
        "go",
        "ver"
      ],
      [
        "am",
        "n"
      ],
      [
        "am",
        "o"
      ],
      [
        "am",
        "on"
      ],
      [
        "am",
        "ish"
      ],
      [
        "am",
        "ora"
      ],
      [
        "sp",
        "a"
      ],
      [
        "sp",
        "r"
      ],
      [
        "sp",
        "is"
      ],
      [
        "sp",
        "ar"
      ],
      [
        "sp",
        "ra"
      ],
      [
        "sp",
        "raw"
      ],
      [
        "qu",
        "e"
      ],
      [
        "qu",
        "ee"
      ],
      [
        "qu",
        "ious"
      ],
      [
        "qu",
        "ite"
      ],
      [
        "fi",
        "e"
      ],
      [
        "fi",
        "es"
      ],
      [
        "fi",
        "en"
      ],
      [
        "hea",
        "thing"
      ],
      [
        "con",
        "s"
      ],
      [
        "con",
        "te"
      ],
      [
        "con",
        "su"
      ],
      [
        "ust",
        "y"
      ],
      [
        "dee",
        "m"
      ],
      [
        "rom",
        "is"
      ],
      [
        "row",
        "ing"
      ],
      [
        "est",
        "ed"
      ],
      [
        "est",
        "able"
      ],
      [
        "est",
        "imony"
      ],
      [
        "all",
        "owed"
      ],
      [
        "di",
        "ers"
      ],
      [
        "br",
        "eat"
      ],
      [
        "AR",
        "CUS"
      ],
      [
        "lea",
        "n"
      ],
      [
        "lea",
        "s"
      ],
      [
        "lea",
        "v"
      ],
      [
        "lea",
        "ve"
      ],
      [
        "lea",
        "se"
      ],
      [
        "lea",
        "di"
      ],
      [
        "whi",
        "t"
      ],
      [
        "whi",
        "th"
      ],
      [
        "whi",
        "the"
      ],
      [
        "whi",
        "le"
      ],
      [
        "ould",
        "st"
      ],
      [
        "east",
        "s"
      ],
      [
        "east",
        "ly"
      ],
      [
        "Th",
        "es"
      ],
      [
        "co",
        "l"
      ],
      [
        "ti",
        "m"
      ],
      [
        "ti",
        "ent"
      ],
      [
        "ti",
        "ate"
      ],
      [
        "ti",
        "mony"
      ],
      [
        "oud",
        "est"
      ],
      [
        "wo",
        "m"
      ],
      [
        "wo",
        "ma"
      ],
      [
        "wo",
        "ef"
      ],
      [
        "up",
        "ter"
      ],
      [
        "ON",
        "S"
      ],
      [
        "how",
        "ers"
      ],
      [
        "son",
        "er"
      ],
      [
        "can",
        "s"
      ],
      [
        "mind",
        "e"
      ],
      [
        "ever",
        "l"
      ],
      [
        "ever",
        "la"
      ],
      [
        "ever",
        "las"
      ],
      [
        "rong",
        "ful"
      ],
      [
        "There",
        "f"
      ],
      [
        "There",
        "for"
      ],
      [
        "There",
        "fo"
      ],
      [
        "ere",
        "in"
      ],
      [
        "han",
        "ks"
      ],
      [
        "ba",
        "st"
      ],
      [
        "ba",
        "sel"
      ],
      [
        "ba",
        "sta"
      ],
      [
        "ef",
        "s"
      ],
      [
        "bo",
        "d"
      ],
      [
        "bo",
        "s"
      ],
      [
        "bo",
        "t"
      ],
      [
        "bo",
        "so"
      ],
      [
        "pe",
        "o"
      ],
      [
        "sa",
        "v"
      ],
      [
        "lt",
        "s"
      ],
      [
        "op",
        "p"
      ],
      [
        "op",
        "s"
      ],
      [
        "op",
        "hies"
      ],
      [
        "pro",
        "d"
      ],
      [
        "pro",
        "ce"
      ],
      [
        "pro",
        "mi"
      ],
      [
        "pro",
        "di"
      ],
      [
        "ob",
        "b"
      ],
      [
        "ob",
        "li"
      ],
      [
        "ob",
        "jec"
      ],
      [
        "IN",
        "IA"
      ],
      [
        "TH",
        "S"
      ],
      [
        "sw",
        "or"
      ],
      [
        "sw",
        "ord"
      ],
      [
        "hen",
        "c"
      ],
      [
        "Be",
        "for"
      ],
      [
        "nter",
        "est"
      ],
      [
        "nter",
        "rupter"
      ],
      [
        "Who",
        "s"
      ],
      [
        "sla",
        "i"
      ],
      [
        "turn",
        "e"
      ],
      [
        "them",
        "se"
      ],
      [
        "wrong",
        "f"
      ],
      [
        "wrong",
        "fu"
      ],
      [
        "inter",
        "e"
      ],
      [
        "inter",
        "r"
      ],
      [
        "inter",
        "es"
      ],
      [
        "inter",
        "ru"
      ],
      [
        "forth",
        "w"
      ],
      [
        "forth",
        "wi"
      ],
      [
        "forth",
        "wit"
      ],
      [
        "dead",
        "l"
      ],
      [
        "ta",
        "le"
      ],
      [
        "ta",
        "ble"
      ],
      [
        "ta",
        "bs"
      ],
      [
        "te",
        "ful"
      ],
      [
        "im",
        "ming"
      ],
      [
        "ath",
        "ing"
      ],
      [
        "ad",
        "v"
      ],
      [
        "ad",
        "or"
      ],
      [
        "ad",
        "ve"
      ],
      [
        "ad",
        "ing"
      ],
      [
        "ad",
        "ed"
      ],
      [
        "ad",
        "ly"
      ],
      [
        "ad",
        "ven"
      ],
      [
        "ad",
        "ows"
      ],
      [
        "mo",
        "s"
      ],
      [
        "mo",
        "ke"
      ],
      [
        "um",
        "ult"
      ],
      [
        "eed",
        "s"
      ],
      [
        "eed",
        "ings"
      ],
      [
        "ns",
        "um"
      ],
      [
        "ns",
        "atiate"
      ],
      [
        "ate",
        "ful"
      ],
      [
        "wel",
        "c"
      ],
      [
        "wel",
        "f"
      ],
      [
        "wel",
        "co"
      ],
      [
        "wel",
        "com"
      ],
      [
        "bre",
        "the"
      ],
      [
        "bre",
        "ther"
      ],
      [
        "bre",
        "there"
      ],
      [
        "sc",
        "at"
      ],
      [
        "sc",
        "ar"
      ],
      [
        "sc",
        "ue"
      ],
      [
        "les",
        "h"
      ],
      [
        "per",
        "for"
      ],
      [
        "per",
        "ess"
      ],
      [
        "per",
        "ious"
      ],
      [
        "per",
        "fo"
      ],
      [
        "Un",
        "c"
      ],
      [
        "Un",
        "cl"
      ],
      [
        "St",
        "an"
      ],
      [
        "cri",
        "fice"
      ],
      [
        "cri",
        "ficing"
      ],
      [
        "des",
        "p"
      ],
      [
        "des",
        "pi"
      ],
      [
        "fet",
        "c"
      ],
      [
        "fet",
        "t"
      ],
      [
        "fet",
        "te"
      ],
      [
        "tre",
        "b"
      ],
      [
        "tre",
        "bl"
      ],
      [
        "war",
        "r"
      ],
      [
        "unk",
        "i"
      ],
      [
        "unk",
        "in"
      ],
      [
        "sent",
        "ly"
      ],
      [
        "woe",
        "fu"
      ],
      [
        "woe",
        "ful"
      ],
      [
        "ince",
        "n"
      ],
      [
        "ince",
        "ns"
      ],
      [
        "show",
        "e"
      ],
      [
        "show",
        "er"
      ],
      [
        "pres",
        "er"
      ],
      [
        "pres",
        "en"
      ],
      [
        "hang",
        "i"
      ],
      [
        "hang",
        "in"
      ],
      [
        "hate",
        "fu"
      ],
      [
        "mper",
        "ess"
      ],
      [
        "mper",
        "ious"
      ],
      [
        "would",
        "s"
      ],
      [
        "mourn",
        "f"
      ],
      [
        "mourn",
        "i"
      ],
      [
        "mourn",
        "in"
      ],
      [
        "mourn",
        "fu"
      ],
      [
        "sorrow",
        "f"
      ],
      [
        "sorrow",
        "fu"
      ],
      [
        "detest",
        "e"
      ],
      [
        "sacrifi",
        "ci"
      ],
      [
        "pit",
        "i"
      ],
      [
        "pit",
        "ie"
      ],
      [
        "ne",
        "w"
      ],
      [
        "ne",
        "th"
      ],
      [
        "ne",
        "my"
      ],
      [
        "ison",
        "er"
      ],
      [
        "sha",
        "d"
      ],
      [
        "sha",
        "do"
      ],
      [
        "sha",
        "dow"
      ],
      [
        "ith",
        "in"
      ],
      [
        "ith",
        "al"
      ],
      [
        "fr",
        "atru"
      ],
      [
        "tr",
        "un"
      ],
      [
        "tr",
        "ut"
      ],
      [
        "hou",
        "gh"
      ],
      [
        "hee",
        "ks"
      ],
      [
        "sta",
        "b"
      ],
      [
        "sta",
        "i"
      ],
      [
        "sta",
        "ble"
      ],
      [
        "ud",
        "est"
      ],
      [
        "ud",
        "itory"
      ],
      [
        "ep",
        "ing"
      ],
      [
        "ep",
        "ort"
      ],
      [
        "ind",
        "ed"
      ],
      [
        "na",
        "ppeas"
      ],
      [
        "rt",
        "une"
      ],
      [
        "res",
        "c"
      ],
      [
        "res",
        "cu"
      ],
      [
        "res",
        "erv"
      ],
      [
        "res",
        "ently"
      ],
      [
        "su",
        "bs"
      ],
      [
        "ver",
        "lasting"
      ],
      [
        "ead",
        "ing"
      ],
      [
        "ead",
        "ed"
      ],
      [
        "ead",
        "ly"
      ],
      [
        "ong",
        "ful"
      ],
      [
        "De",
        "m"
      ],
      [
        "mu",
        "c"
      ],
      [
        "po",
        "i"
      ],
      [
        "po",
        "in"
      ],
      [
        "va",
        "i"
      ],
      [
        "va",
        "u"
      ],
      [
        "va",
        "un"
      ],
      [
        "rav",
        "i"
      ],
      [
        "rav",
        "ish"
      ],
      [
        "ac",
        "c"
      ],
      [
        "ac",
        "cu"
      ],
      [
        "ac",
        "tion"
      ],
      [
        "ec",
        "t"
      ],
      [
        "ec",
        "ount"
      ],
      [
        "ifi",
        "es"
      ],
      [
        "ifi",
        "ce"
      ],
      [
        "ifi",
        "cing"
      ],
      [
        "mon",
        "um"
      ],
      [
        "roud",
        "est"
      ],
      [
        "inc",
        "a"
      ],
      [
        "ang",
        "ing"
      ],
      [
        "fort",
        "u"
      ],
      [
        "fort",
        "un"
      ],
      [
        "dig",
        "re"
      ],
      [
        "AM",
        "ORA"
      ],
      [
        "CH",
        "I"
      ],
      [
        "CH",
        "IL"
      ],
      [
        "EN",
        "ATORS"
      ],
      [
        "FI",
        "R"
      ],
      [
        "FI",
        "RS"
      ],
      [
        "Hi",
        "g"
      ],
      [
        "RI",
        "BUNES"
      ],
      [
        "Re",
        "m"
      ],
      [
        "ag",
        "a"
      ],
      [
        "ag",
        "ai"
      ],
      [
        "bus",
        "h"
      ],
      [
        "dro",
        "p"
      ],
      [
        "lar",
        "u"
      ],
      [
        "lar",
        "um"
      ],
      [
        "lar",
        "bus"
      ],
      [
        "nat",
        "u"
      ],
      [
        "nat",
        "ur"
      ],
      [
        "tis",
        "faction"
      ],
      [
        "test",
        "i"
      ],
      [
        "test",
        "ed"
      ],
      [
        "test",
        "able"
      ],
      [
        "ort",
        "une"
      ],
      [
        "rec",
        "ou"
      ],
      [
        "rec",
        "oun"
      ],
      [
        "ret",
        "ty"
      ],
      [
        "ret",
        "ched"
      ],
      [
        "rib",
        "une"
      ],
      [
        "rib",
        "unes"
      ],
      [
        "Ap",
        "pr"
      ],
      [
        "Chi",
        "r"
      ],
      [
        "Chi",
        "ro"
      ],
      [
        "Cit",
        "i"
      ],
      [
        "Cit",
        "in"
      ],
      [
        "Fl",
        "ou"
      ],
      [
        "SEN",
        "A"
      ],
      [
        "Tar",
        "q"
      ],
      [
        "Tit",
        "u"
      ],
      [
        "Tam",
        "o"
      ],
      [
        "Tam",
        "or"
      ],
      [
        "TAM",
        "O"
      ],
      [
        "TAM",
        "OR"
      ],
      [
        "TRI",
        "B"
      ],
      [
        "amb",
        "u"
      ],
      [
        "amb",
        "us"
      ],
      [
        "boo",
        "t"
      ],
      [
        "bal",
        "c"
      ],
      [
        "bal",
        "con"
      ],
      [
        "bal",
        "co"
      ],
      [
        "clo",
        "s"
      ],
      [
        "clo",
        "se"
      ],
      [
        "dis",
        "t"
      ],
      [
        "dis",
        "tur"
      ],
      [
        "dis",
        "tu"
      ],
      [
        "dut",
        "i"
      ],
      [
        "dut",
        "ie"
      ],
      [
        "emb",
        "r"
      ],
      [
        "hon",
        "o"
      ],
      [
        "hon",
        "ou"
      ],
      [
        "imp",
        "a"
      ],
      [
        "imp",
        "at"
      ],
      [
        "ima",
        "g"
      ],
      [
        "mar",
        "t"
      ],
      [
        "mar",
        "ty"
      ],
      [
        "par",
        "d"
      ],
      [
        "par",
        "do"
      ],
      [
        "smo",
        "k"
      ],
      [
        "tit",
        "l"
      ],
      [
        "tit",
        "le"
      ],
      [
        "tter",
        "s"
      ],
      [
        "tum",
        "u"
      ],
      [
        "tum",
        "ul"
      ],
      [
        "word",
        "s"
      ],
      [
        "rep",
        "or"
      ],
      [
        "gran",
        "t"
      ],
      [
        "gran",
        "te"
      ],
      [
        "brea",
        "th"
      ],
      [
        "lux",
        "u"
      ],
      [
        "lux",
        "ur"
      ],
      [
        "Shea",
        "t"
      ],
      [
        "Shea",
        "th"
      ],
      [
        "Shea",
        "thin"
      ],
      [
        "Shea",
        "thi"
      ],
      [
        "Than",
        "k"
      ],
      [
        "Trib",
        "u"
      ],
      [
        "Trib",
        "un"
      ]
    ]
  }
}