{
  "version": "1.0",
  "truncation": null,
  "padding": null,
  "added_tokens": [
    {
      "id": 0,
      "content": "[UNK]",
      "single_word": false,
      "lstrip": false,
      "rstrip": false,
      "normalized": false,
      "special": true
    },
    {
      "id": 1,
      "content": "[PAD]",
      "single_word": false,
      "lstrip": false,
      "rstrip": false,
      "normalized": false,
      "special": true
    },
    {
      "id": 2,
      "content": "[CLS]",
      "single_word": false,
      "lstrip": false,
      "rstrip": false,
      "normalized": false,
      "special": true
    },
    {
      "id": 3,
      "content": "[SEP]",
      "single_word": false,
      "lstrip": false,
      "rstrip": false,
      "normalized": false,
      "special": true
    }
  ],
  "normalizer": null,
  "pre_tokenizer": {
    "type": "ByteLevel",
    "add_prefix_space": true,
    "trim_offsets": true,
    "use_regex": true
  },
  "post_processor": null,
  "decoder": null,
  "model": {
    "type": "BPE",
    "dropout": null,
    "unk_token": "[UNK]",
    "continuing_subword_prefix": null,
    "end_of_word_suffix": null,
    "fuse_unk": false,
    "byte_fallback": false,
    "ignore_merges": false,
    "vocab": {
      "[UNK]": 0,
      "[PAD]": 1,
      "[CLS]": 2,
      "[SEP]": 3,
      "!": 4,
      "'": 5,
      ",": 6,
      "-": 7,
      ".": 8,
      "0": 9,
      "1": 10,
      "2": 11,
      "3": 12,
      "4": 13,
      "5": 14,
      "6": 15,
      "7": 16,
      "8": 17,
      "9": 18,
      ":": 19,
      ";": 20,
      "?": 21,
      "a": 22,
      "b": 23,
      "c": 24,
      "d": 25,
      "e": 26,
      "f": 27,
      "g": 28,
      "h": 29,
      "i": 30,
      "j": 31,
      "k": 32,
      "l": 33,
      "m": 34,
      "n": 35,
      "o": 36,
      "p": 37,
      "q": 38,
      "r": 39,
      "s": 40,
      "t": 41,
      "u": 42,
      "v": 43,
      "w": 44,
      "x": 45,
      "y": 46,
      "z": 47,
      "Ġ": 48,
      "Ġa": 49,
      "Ġt": 50,
      "in": 51,
      "re": 52,
      "he": 53,
      "on": 54,
      "ti": 55,
      "Ġo": 56,
      "en": 57,
      "Ġc": 58,
      "al": 59,
      "Ġs": 60,
      "Ġthe": 61,
      "Ġ,": 62,
      "er": 63,
      "Ġp": 64,
      "Ġin": 65,
      "is": 66,
      "es": 67,
      "Ġan": 68,
      "ed": 69,
      "Ġof": 70,
      "or": 71,
      "Ġm": 72,
      "Ġd": 73,
      "at": 74,
      "an": 75,
      "it": 76,
      "Ġb": 77,
      "Ġw": 78,
      "Ġf": 79,
      "ic": 80,
      "ar": 81,
      "as": 82,
      "Ġ.": 83,
      "Ġand": 84,
      "ro": 85,
      "tion": 86,
      "ent": 87,
      "ing": 88,
      "Ġre": 89,
      "Ġh": 90,
      "Ġl": 91,
      "Ġe": 92,
      "om": 93,
      "Ġto": 94,
      "us": 95,
      "ve": 96,
      "ec": 97,
      "ly": 98,
      "os": 99,
      "ation": 100,
      "ul": 101,
      "Ġn": 102,
      "Ġis": 103,
      "ac": 104,
      "le": 105,
      "id": 106,
      "Ġth": 107,
      "ur": 108,
      "Ġ-": 109,
      "ol": 110,
      "un": 111,
      "Ġg": 112,
      "im": 113,
      "ith": 114,
      "Ġwith": 115,
      "et": 116,
      "ra": 117,
      "Ġas": 118,
      "ll": 119,
      "ce": 120,
      "ati": 121,
      "Ġpro": 122,
      "Ġst": 123,
      "Ġfor": 124,
      "ig": 125,
      "ter": 126,
      "op": 127,
      "Ġbe": 128,
      "uc": 129,
      "ut": 130,
      "Ġ1": 131,
      "Ġcon": 132,
      "res": 133,
      "Ġv": 134,
      "um": 135,
      "Ġde": 136,
      "ia": 137,
      "ical": 138,
      "st": 139,
      "ot": 140,
      "ment": 141,
      "ow": 142,
      "ir": 143,
      "tic": 144,
      "oc": 145,
      "il": 146,
      "og": 147,
      "Ġor": 148,
      "ver": 149,
      "Ġdis": 150,
      "di": 151,
      "Ġcom": 152,
      "ity": 153,
      "Ġ2": 154,
      "Ġare": 155,
      "Ġon": 156,
      "Ġhe": 157,
      "ated": 158,
      "if": 159,
      "th": 160,
      "od": 161,
      "Ġex": 162,
      "ion": 163,
      "Ġr": 164,
      "am": 165,
      "Ġac": 166,
      "ts": 167,
      "Ġwe": 168,
      "ri": 169,
      "Ġch": 170,
      "rom": 171,
      "ate": 172,
      "em": 173,
      "ge": 174,
      "Ġthat": 175,
      "Ġinc": 176,
      "Ġby": 177,
      "ase": 178,
      "ort": 179,
      "Ġha": 180,
      "qu": 181,
      "se": 182,
      "Ġal": 183,
      "ents": 184,
      "ab": 185,
      "Ġim": 186,
      "ain": 187,
      "Ġpati": 188,
      "Ġwh": 189,
      "ure": 190,
      "ous": 191,
      "ess": 192,
      "Ġres": 193,
      "Ġcan": 194,
      "ant": 195,
      "Ġad": 196,
      "Ġse": 197,
      "ad": 198,
      "Ġit": 199,
      "pl": 200,
      "ph": 201,
      "ud": 202,
      "Ġun": 203,
      "fec": 204,
      "Ġus": 205,
      "ost": 206,
      "iz": 207,
      "ren": 208,
      "Ġca": 209,
      "Ġat": 210,
      "Ġne": 211,
      "Ġwas": 212,
      "mon": 213,
      "ay": 214,
      "Ġsy": 215,
      "ular": 216,
      "Ġhave": 217,
      "Ġsu": 218,
      "Ġpre": 219,
      "Ġen": 220,
      "ary": 221,
      "ell": 222,
      "port": 223,
      "yp": 224,
      "her": 225,
      "Ġfrom": 226,
      "ial": 227,
      "Ġhas": 228,
      "Ġbeen": 229,
      "der": 230,
      "ast": 231,
      "Ġle": 232,
      "Ġper": 233,
      "00": 234,
      "Ġpatients": 235,
      "ye": 236,
      "olog": 237,
      "ore": 238,
      "Ġsp": 239,
      "igh": 240,
      "Ġdise": 241,
      "ine": 242,
      "Ġk": 243,
      "ted": 244,
      "te": 245,
      "ence": 246,
      "ug": 247,
      "Ġcl": 248,
      "tive": 249,
      "ran": 250,
      "act": 251,
      "Ġ3": 252,
      "pp": 253,
      "ide": 254,
      "ich": 255,
      "vel": 256,
      "ys": 257,
      "Ġthis": 258,
      "Ġcomp": 259,
      "reat": 260,
      "ations": 261,
      "est": 262,
      "oun": 263,
      "ist": 264,
      "year": 265,
      "Ġab": 266,
      "ress": 267,
      "ath": 268,
      "ch": 269,
      "Ġint": 270,
      "Ġwhich": 271,
      "Ġrec": 272,
      "Ġdia": 273,
      "red": 274,
      "orm": 275,
      "Ġcell": 276,
      "ors": 277,
      "ally": 278,
      "Ġgen": 279,
      "ens": 280,
      "ory": 281,
      "duc": 282,
      "Ġra": 283,
      "ib": 284,
      "ases": 285,
      "ag": 286,
      "ld": 287,
      "Ġdisease": 288,
      "cer": 289,
      "iv": 290,
      "iti": 291,
      "Ġsur": 292,
      "ue": 293,
      "Ġcont": 294,
      "Ġsh": 295,
      "Ġman": 296,
      "Ġass": 297,
      "ies": 298,
      "Ġaf": 299,
      "ign": 300,
      "pt": 301,
      "Ġsuc": 302,
      "Ġwere": 303,
      "Ġinf": 304,
      "Ġmost": 305,
      "age": 306,
      "Ġpar": 307,
      "osis": 308,
      "ill": 309,
      "Ġpres": 310,
      "Ġmet": 311,
      "per": 312,
      "gn": 313,
      "and": 314,
      "Ġtreat": 315,
      "ip": 316,
      "tions": 317,
      "ive": 318,
      "Ġ5": 319,
      "Ġph": 320,
      "enti": 321,
      "Ġ4": 322,
      "ance": 323,
      "Ġincre": 324,
      "lud": 325,
      "ative": 326,
      "Ġcar": 327,
      "Ġcaus": 328,
      "ugh": 329,
      "ome": 330,
      "oci": 331,
      "ult": 332,
      "Ġmed": 333,
      "Ġsuch": 334,
      "all": 335,
      "Ġinclud": 336,
      "Ġar": 337,
      "Ġreport": 338,
      "velop": 339,
      "Ġheal": 340,
      "Ġtreatment": 341,
      "Ġcons": 342,
      "Ġpl": 343,
      "rans": 344,
      "fic": 345,
      "Ġyear": 346,
      "Ġdevelop": 347,
      "el": 348,
      "ect": 349,
      "ased": 350,
      "Ġapp": 351,
      "ther": 352,
      "Ġnot": 353,
      "Ġcancer": 354,
      "Ġhealth": 355,
      "cc": 356,
      "Ġ;": 357,
      "Ġob": 358,
      "Ġthese": 359,
      "Ġsub": 360,
      "up": 361,
      "Ġprev": 362,
      "Ġev": 363,
      "ized": 364,
      "Ġclin": 365,
      "Ġsc": 366,
      "Ġall": 367,
      "Ġtrans": 368,
      "able": 369,
      "Ġcommon": 370,
      "inal": 371,
      "Ġef": 372,
      "ers": 373,
      "unc": 374,
      "ke": 375,
      "Ġinter": 376,
      "lo": 377,
      "Ġacc": 378,
      "Ġassoci": 379,
      "Ġrel": 380,
      "ific": 381,
      "ron": 382,
      "ap": 383,
      "ari": 384,
      "ric": 385,
      "Ġco": 386,
      "ms": 387,
      "Ġdif": 388,
      "rap": 389,
      "ie": 390,
      "Ġinv": 391,
      "Ġreg": 392,
      "ight": 393,
      "ding": 394,
      "anc": 395,
      "fe": 396,
      "Ġro": 397,
      "acter": 398,
      "Ġthere": 399,
      "enc": 400,
      "Ġdes": 401,
      "ech": 402,
      "Ġone": 403,
      "Ġag": 404,
      "ass": 405,
      "Ġwor": 406,
      "Ġma": 407,
      "ual": 408,
      "Ġpr": 409,
      "rib": 410,
      "one": 411,
      "iss": 412,
      "ever": 413,
      "tiv": 414,
      "Ġhyp": 415,
      "ub": 416,
      "stem": 417,
      "ological": 418,
      "Ġpresent": 419,
      "Ġimp": 420,
      "Ġclinical": 421,
      "Ġmay": 422,
      "erm": 423,
      "Ġdiagn": 424,
      "out": 425,
      "rent": 426,
      "Ġocc": 427,
      "Ġinfec": 428,
      "Ġhigh": 429,
      "Ġmore": 430,
      "Ġhow": 431,
      "own": 432,
      "Ġ6": 433,
      "Ġfact": 434,
      "tim": 435,
      "oll": 436,
      "oma": 437,
      "Ġris": 438,
      "ates": 439,
      "ose": 440,
      "Ġsystem": 441,
      "Ġgro": 442,
      "Ġmal": 443,
      "mun": 444,
      "udi": 445,
      "erv": 446,
      "end": 447,
      "Ġresp": 448,
      "pit": 449,
      "Ġtyp": 450,
      "Ġ200": 451,
      "ulation": 452,
      "ater": 453,
      "so": 454,
      "ruc": 455,
      "Ġstudi": 456,
      "cess": 457,
      "Ġassociated": 458,
      "Ġyears": 459,
      "Ġ20": 460,
      "Ġ19": 461,
      "ures": 462,
      "atic": 463,
      "Ġalso": 464,
      "ne": 465,
      "unction": 466,
      "Ġsyn": 467,
      "Ġhowever": 468,
      "Ġes": 469,
      "Ġtum": 470,
      "plic": 471,
      "Ġother": 472,
      "ality": 473,
      "atory": 474,
      "Ġunder": 475,
      "Ġdec": 476,
      "Ġwhe": 477,
      "ility": 478,
      "Ġtheir": 479,
      "Ġdur": 480,
      "Ġj": 481,
      "ery": 482,
      "Ġbet": 483,
      "Ġover": 484,
      "Ġspec": 485,
      "Ġext": 486,
      "Ġsurg": 487,
      "Ġappro": 488,
      "Ġpatient": 489,
      "Ġbi": 490,
      "ym": 491,
      "we": 492,
      "ach": 493,
      "Ġreported": 494,
      "Ġcells": 495,
      "Ġrisk": 496,
      "Ġeffec": 497,
      "cular": 498,
      "Ġsign": 499,
      "Ġexp": 500,
      "iver": 501,
      "Ġpo": 502,
      "Ġind": 503,
      "Ġend": 504,
      "Ġstudies": 505,
      "ong": 506,
      "hem": 507,
      "ang": 508,
      "Ġbec": 509,
      "Ġstud": 510,
      "Ġbut": 511,
      "Ġcor": 512,
      "Ġinfl": 513,
      "Ġimport": 514,
      "Ġem": 515,
      "ros": 516,
      "Ġused": 517,
      "Ġam": 518,
      "Ġrep": 519,
      "oth": 520,
      "ct": 521,
      "gan": 522,
      "our": 523,
      "Ġvari": 524,
      "ten": 525,
      "Ġins": 526,
      "tein": 527,
      "form": 528,
      "Ġdep": 529,
      "ild": 530,
      "Ġchar": 531,
      "Ġpath": 532,
      "Ġafter": 533,
      "ail": 534,
      "gen": 535,
      "ute": 536,
      "ough": 537,
      "Ġpos": 538,
      "ogen": 539,
      "Ġcases": 540,
      "ard": 541,
      "Ġoccur": 542,
      "Ġanti": 543,
      "Ġnon": 544,
      "ber": 545,
      "Ġits": 546,
      "ology": 547,
      "Ġtherap": 548,
      "ep": 549,
      "rac": 550,
      "ound": 551,
      "Ġdue": 552,
      "Ġthan": 553,
      "uro": 554,
      "Ġdiffe": 555,
      "Ġduring": 556,
      "dition": 557,
      "Ġdet": 558,
      "Ġstudy": 559,
      "ov": 560,
      "ount": 561,
      "idence": 562,
      "amm": 563,
      "Ġlow": 564,
      "Ġfe": 565,
      "Ġcharacter": 566,
      "Ġel": 567,
      "Ġold": 568,
      "ied": 569,
      "ond": 570,
      "Ġincluding": 571,
      "ween": 572,
      "Ġdiab": 573,
      "ating": 574,
      "Ġhum": 575,
      "ble": 576,
      "Ġbetween": 577,
      "ace": 578,
      "hes": 579,
      "yl": 580,
      "Ġi": 581,
      "Ġqu": 582,
      "Ġprotein": 583,
      "use": 584,
      "vid": 585,
      "Ġ7": 586,
      "order": 587,
      "Ġlead": 588,
      "ons": 589,
      "Ġworld": 590,
      "Ġet": 591,
      "ral": 592,
      "Ġactiv": 593,
      "Ġgl": 594,
      "ently": 595,
      "ities": 596,
      "ogra": 597,
      "Ġkn": 598,
      "rain": 599,
      "Ġme": 600,
      "Ġhist": 601,
      "Ġpop": 602,
      "Ġimportant": 603,
      "ple": 604,
      "ascular": 605,
      "Ġno": 606,
      "Ġfunction": 607,
      "Ġwell": 608,
      "Ġgener": 609,
      "ft": 610,
      "ved": 611,
      "Ġtiss": 612,
      "Ġnum": 613,
      "ni": 614,
      "Ġtw": 615,
      "tal": 616,
      "Ġdr": 617,
      "Ġdisorder": 618,
      "Ġcy": 619,
      "Ġout": 620,
      "oid": 621,
      "art": 622,
      "ptom": 623,
      "Ġpain": 624,
      "ions": 625,
      "Ġorgan": 626,
      "ious": 627,
      "Ġhuman": 628,
      "Ġwho": 629,
      "Ġmany": 630,
      "ior": 631,
      "Ġsec": 632,
      "Ġop": 633,
      "Ġfir": 634,
      "Ġuse": 635,
      "Ġform": 636,
      "tain": 637,
      "Ġcause": 638,
      "ile": 639,
      "Ġchild": 640,
      "Ġmaj": 641,
      "ronic": 642,
      "Ġage": 643,
      "Ġsym": 644,
      "Ġsm": 645,
      "Ġmul": 646,
      "Ġcase": 647,
      "Ġmajor": 648,
      "ature": 649,
      "ting": 650,
      "Ġmic": 651,
      "Ġmain": 652,
      "Ġfirst": 653,
      "ization": 654,
      "nal": 655,
      "amin": 656,
      "Ġinvol": 657,
      "Ġrem": 658,
      "Ġlif": 659,
      "Ġfl": 660,
      "Ġhyper": 661,
      "Ġfre": 662,
      "crib": 663,
      "Ġprim": 664,
      "Ġimmun": 665,
      "Ġu": 666,
      "ak": 667,
      "Ġmon": 668,
      "cl": 669,
      "ited": 670,
      "als": 671,
      "av": 672,
      "Ġcare": 673,
      "pec": 674,
      "ults": 675,
      "Ġdi": 676,
      "etes": 677,
      "Ġsever": 678,
      "ograph": 679,
      "Ġcardi": 680,
      "Ġtim": 681,
      "osed": 682,
      "Ġprog": 683,
      "Ġfactors": 684,
      "Ġ8": 685,
      "Ġcent": 686,
      "Ġmo": 687,
      "Ġmod": 688,
      "Ġrare": 689,
      "Ġtwo": 690,
      "ression": 691,
      "Ġphys": 692,
      "Ġdiabetes": 693,
      "Ġsome": 694,
      "na": 695,
      "Ġtech": 696,
      "Ġchronic": 697,
      "Ġfoll": 698,
      "tis": 699,
      "Ġ'": 700,
      "drom": 701,
      "Ġtr": 702,
      "Ġaffec": 703,
      "ural": 704,
      "Ġmus": 705,
      "ause": 706,
      "fer": 707,
      "ency": 708,
      "Ġser": 709,
      "Ġblo": 710,
      "Ġwom": 711,
      "oph": 712,
      "Ġsyndrom": 713,
      "Ġ:": 714,
      "ection": 715,
      "Ġhad": 716,
      "Ġsymptom": 717,
      "ven": 718,
      "Ġap": 719,
      "Ġgene": 720,
      "Ġcomple": 721,
      "Ġblood": 722,
      "Ġloc": 723,
      "Ġdevelopment": 724,
      "ack": 725,
      "Ġid": 726,
      "Ġboth": 727,
      "ually": 728,
      "cin": 729,
      "Ġamon": 730,
      "Ġ10": 731,
      "Ġdrug": 732,
      "Ġamong": 733,
      "Ġinflamm": 734,
      "Ġhem": 735,
      "ry": 736,
      "Ġdescrib": 737,
      "Ġear": 738,
      "Ġpartic": 739,
      "Ġmulti": 740,
      "erg": 741,
      "omy": 742,
      "ite": 743,
      "Ġcontro": 744,
      "ood": 745,
      "Ġdiseases": 746,
      "Ġtype": 747,
      "Ġmeth": 748,
      "Ġonly": 749,
      "though": 750,
      "ox": 751,
      "Ġalthough": 752,
      "kin": 753,
      "Ġincreased": 754,
      "Ġfollow": 755,
      "Ġthey": 756,
      "Ġcol": 757,
      "ormal": 758,
      "Ġsignific": 759,
      "Ġhos": 760,
      "Ġproduc": 761,
      "tit": 762,
      "Ġlar": 763,
      "uld": 764,
      "Ġinto": 765,
      "rough": 766,
      "cop": 767,
      "ays": 768,
      "Ġtra": 769,
      "Ġbecause": 770,
      "ined": 771,
      "Ġresult": 772,
      "Ġlevel": 773,
      "Ġlife": 774,
      "Ġ201": 775,
      "Ġaut": 776,
      "ately": 777,
      "Ġseveral": 778,
      "Ġinj": 779,
      "hed": 780,
      "Ġneuro": 781,
      "Ġsyndrome": 782,
      "Ġcomplic": 783,
      "Ġep": 784,
      "ian": 785,
      "Ġpe": 786,
      "ism": 787,
      "ruct": 788,
      "Ġcount": 789,
      "ational": 790,
      "Ġnew": 791,
      "Ġbased": 792,
      "ments": 793,
      "Ġy": 794,
      "Ġhospit": 795,
      "Ġprocess": 796,
      "Ġmedical": 797,
      "Ġrelated": 798,
      "Ġpreval": 799,
      "ness": 800,
      "Ġpopulation": 801,
      "ody": 802,
      "Ġknown": 803,
      "Ġdef": 804,
      "ected": 805,
      "ants": 806,
      "ible": 807,
      "Ġthrough": 808,
      "Ġdat": 809,
      "Ġret": 810,
      "Ġnumber": 811,
      "ob": 812,
      "Ġsignificant": 813,
      "Ġsin": 814,
      "Ġdist": 815,
      "Ġinfection": 816,
      "Ġtherapy": 817,
      "xim": 818,
      "Ġso": 819,
      "ues": 820,
      "Ġmort": 821,
      "Ġanal": 822,
      "Ġperform": 823,
      "urrent": 824,
      "ential": 825,
      "sy": 826,
      "Ġtissue": 827,
      "iter": 828,
      "Ġgrow": 829,
      "Ġlim": 830,
      "arch": 831,
      "Ġindi": 832,
      "Ġvis": 833,
      "Ġimpro": 834,
      "Ġincidence": 835,
      "de": 836,
      "ental": 837,
      "Ġwhen": 838,
      "cept": 839,
      "qui": 840,
      "Ġdiagnosis": 841,
      "Ġsurgery": 842,
      "Ġmortality": 843,
      "Ġtumor": 844,
      "Ġtime": 845,
      "und": 846,
      "asing": 847,
      "tical": 848,
      "Ġshow": 849,
      "Ġidenti": 850,
      "Ġradi": 851,
      "Ġabout": 852,
      "Ġacute": 853,
      "Ġcharacterized": 854,
      "Ġpot": 855,
      "oss": 856,
      "Ġpost": 857,
      "Ġlong": 858,
      "Ġdeath": 859,
      "Ġhospital": 860,
      "Ġgra": 861,
      "Ġli": 862,
      "Ġfrequ": 863,
      "Ġup": 864,
      "Ġusing": 865,
      "Ġ9": 866,
      "ution": 867,
      "Ġvir": 868,
      "str": 869,
      "Ġchem": 870,
      "eous": 871,
      "Ġsymptoms": 872,
      "fore": 873,
      "Ġrese": 874,
      "ung": 875,
      "Ġdifferent": 876,
      "ically": 877,
      "Ġmor": 878,
      "Ġgroup": 879,
      "dom": 880,
      "Ġstruct": 881,
      "ree": 882,
      "duced": 883,
      "Ġoften": 884,
      "othe": 885,
      "Ġprimary": 886,
      "Ġvarious": 887,
      "ced": 888,
      "olec": 889,
      "Ġadv": 890,
      "Ġles": 891,
      "itis": 892,
      "Ġmin": 893,
      "Ġour": 894,
      "echan": 895,
      "ily": 896,
      "ful": 897,
      "Ġchildren": 898,
      "Ġmethod": 899,
      "king": 900,
      "ries": 901,
      "com": 902,
      "Ġexper": 903,
      "fici": 904,
      "Ġwomen": 905,
      "tern": 906,
      "int": 907,
      "ability": 908,
      "cle": 909,
      "ition": 910,
      "Ġrate": 911,
      "olic": 912,
      "Ġbl": 913,
      "Ġhistory": 914,
      "Ġsam": 915,
      "Ġdys": 916,
      "ocy": 917,
      "ges": 918,
      "Ġmedic": 919,
      "Ġrecent": 920,
      "Ġlarge": 921,
      "Ġearly": 922,
      "Ġsecond": 923,
      "Ġterm": 924,
      "Ġincreasing": 925,
      "vir": 926,
      "Ġproble": 927,
      "ety": 928,
      "Ġmechan": 929,
      "ration": 930,
      "Ġloss": 931,
      "vere": 932,
      "Ġprevalence": 933,
      "Ġclass": 934,
      "Ġindivid": 935,
      "Ġbone": 936,
      "ubl": 937,
      "Ġmicro": 938,
      "ysis": 939,
      "Ġav": 940,
      "ark": 941,
      "Ġdata": 942,
      "ium": 943,
      "Ġlym": 944,
      "Ġarter": 945,
      "Ġfound": 946,
      "Ġsince": 947,
      "Ġinjur": 948,
      "tics": 949,
      "Ġmem": 950,
      "Ġindividual": 951,
      "its": 952,
      "Ġlike": 953,
      "Ġir": 954,
      "ension": 955,
      "illion": 956,
      "ps": 957,
      "ption": 958,
      "Ġsevere": 959,
      "000": 960,
      "Ġspecific": 961,
      "Ġperi": 962,
      "co": 963,
      "asis": 964,
      "ise": 965,
      "Ġ0": 966,
      "Ġcr": 967,
      "Ġprevious": 968,
      "Ġdescribed": 969,
      "Ġwide": 970,
      "les": 971,
      "Ġsurgical": 972,
      "Ġlymph": 973,
      "ange": 974,
      "ople": 975,
      "Ġ199": 976,
      "ening": 977,
      "ade": 978,
      "iew": 979,
      "Ġben": 980,
      "Ġpers": 981,
      "Ġcountries": 982,
      "ography": 983,
      "Ġpoly": 984,
      "Ġmass": 985,
      "Ġsel": 986,
      "ective": 987,
      "Ġfem": 988,
      "Ġpeople": 989,
      "Ġte": 990,
      "Ġgast": 991,
      "Ġestim": 992,
      "Ġiniti": 993,
      "Ġbody": 994,
      "erative": 995,
      "Ġnec": 996,
      "Ġrole": 997,
      "Ġadm": 998,
      "Ġher": 999,
      "Ġtumors": 1000,
      "Ġmy": 1001,
      "Ġcontrol": 1002,
      "Ġsim": 1003,
      "Ġmolec": 1004,
      "arg": 1005,
      "Ġwhile": 1006,
      "Ġmetab": 1007,
      "aging": 1008,
      "las": 1009,
      "opath": 1010,
      "Ġresearch": 1011,
      "rect": 1012,
      "Ġproced": 1013,
      "Ġleft": 1014,
      "usion": 1015,
      "que": 1016,
      "Ġbrain": 1017,
      "roph": 1018,
      "Ġfib": 1019,
      "Ġidentif": 1020,
      "til": 1021,
      "Ġpubl": 1022,
      "Ġaddition": 1023,
      "Ġsmall": 1024,
      "Ġbre": 1025,
      "Ġright": 1026,
      "Ġmalign": 1027,
      "anges": 1028,
      "Ġatt": 1029,
      "Ġusually": 1030,
      "ins": 1031,
      "ize": 1032,
      "ds": 1033,
      "Ġrequi": 1034,
      "bid": 1035,
      "aneous": 1036,
      "hen": 1037,
      "erc": 1038,
      "alu": 1039,
      "Ġincrease": 1040,
      "Ġfail": 1041,
      "oscop": 1042,
      "ressive": 1043,
      "ks": 1044,
      "ulin": 1045,
      "lob": 1046,
      "ving": 1047,
      "Ġpul": 1048,
      "Ġdo": 1049,
      "Ġtechni": 1050,
      "rop": 1051,
      "ract": 1052,
      "Ġexamin": 1053,
      "Ġintra": 1054,
      "Ġeffects": 1055,
      "Ġresults": 1056,
      "idered": 1057,
      "Ġconsidered": 1058,
      "Ġdisorders": 1059,
      "Ġinclude": 1060,
      "Ġpresented": 1061,
      "Ġwithin": 1062,
      "Ġinflammatory": 1063,
      "Ġrev": 1064,
      "rence": 1065,
      "Ġcurrent": 1066,
      "ale": 1067,
      "ital": 1068,
      "Ġfin": 1069,
      "Ġcarcin": 1070,
      "Ġremain": 1071,
      "Ġox": 1072,
      "isms": 1073,
      "ished": 1074,
      "Ġaccor": 1075,
      "Ġapproxim": 1076,
      "Ġobes": 1077,
      "Ġwhere": 1078,
      "Ġfam": 1079,
      "Ġliver": 1080,
      "Ġpa": 1081,
      "terior": 1082,
      "Ġneed": 1083,
      "Ġperiod": 1084,
      "Ġshown": 1085,
      "Ġest": 1086,
      "Ġsug": 1087,
      "Ġmater": 1088,
      "arc": 1089,
      "Ġinform": 1090,
      "Ġmillion": 1091,
      "plant": 1092,
      "Ġrenal": 1093,
      "viron": 1094,
      "yd": 1095,
      "ines": 1096,
      "Ġcoll": 1097,
      "ovascular": 1098,
      "Ġleading": 1099,
      "Ġcat": 1100,
      "ust": 1101,
      "wide": 1102,
      "Ġnormal": 1103,
      "Ġhep": 1104,
      "Ġapproximately": 1105,
      "ages": 1106,
      "are": 1107,
      "sequ": 1108,
      "Ġmultiple": 1109,
      "Ġ15": 1110,
      "hib": 1111,
      "ix": 1112,
      "Ġreac": 1113,
      "vement": 1114,
      "ste": 1115,
      "Ġcaused": 1116,
      "ans": 1117,
      "Ġdeveloped": 1118,
      "Ġmuc": 1119,
      "Ġmanage": 1120,
      "Ġgeneral": 1121,
      "Ġenviron": 1122,
      "Ġlower": 1123,
      "Ġfig": 1124,
      "ties": 1125,
      "Ġdel": 1126,
      "Ġsens": 1127,
      "fl": 1128,
      "Ġmonth": 1129,
      "Ġinte": 1130,
      "Ġresist": 1131,
      "Ġ12": 1132,
      "Ġevalu": 1133,
      "Ġparticular": 1134,
      "Ġ13": 1135,
      "cent": 1136,
      "Ġfactor": 1137,
      "Ġworldwide": 1138,
      "ival": 1139,
      "Ġabdom": 1140,
      "Ġmeas": 1141,
      "Ġce": 1142,
      "Ġlung": 1143,
      "Ġaccording": 1144,
      "ma": 1145,
      "ancy": 1146,
      "Ġcomplications": 1147,
      "Ġsol": 1148,
      "Ġthree": 1149,
      "Ġcomplex": 1150,
      "otic": 1151,
      "duction": 1152,
      "air": 1153,
      "ves": 1154,
      "Ġmetast": 1155,
      "ish": 1156,
      "Ġrest": 1157,
      "struc": 1158,
      "Ġrespon": 1159,
      "Ġdecre": 1160,
      "uce": 1161,
      "ensive": 1162,
      "Ġur": 1163,
      "tional": 1164,
      "Ġphysical": 1165,
      "emia": 1166,
      "Ġang": 1167,
      "Ġprot": 1168,
      "Ġheart": 1169,
      "omic": 1170,
      "Ġhig": 1171,
      "Ġmanagement": 1172,
      "ially": 1173,
      "Ġany": 1174,
      "Ġcauses": 1175,
      "hel": 1176,
      "ice": 1177,
      "Ġperformed": 1178,
      "eth": 1179,
      "Ġacid": 1180,
      "Ġcommonly": 1181,
      "ould": 1182,
      "Ġstand": 1183,
      "ared": 1184,
      "ucle": 1185,
      "Ġchanges": 1186,
      "Ġcyt": 1187,
      "ardi": 1188,
      "Ġdiagnosed": 1189,
      "orts": 1190,
      "Ġelect": 1191,
      "otherap": 1192,
      "Ġdifferen": 1193,
      "Ġvirus": 1194,
      "Ġwithout": 1195,
      "Ġmuscle": 1196,
      "Ġresponse": 1197,
      "Ġactivity": 1198,
      "Ġlab": 1199,
      "Ġhypert": 1200,
      "Ġdefined": 1201,
      "ination": 1202,
      "Ġsurv": 1203,
      "Ġgrowth": 1204,
      "por": 1205,
      "tig": 1206,
      "Ġanim": 1207,
      "Ġthose": 1208,
      "Ġskin": 1209,
      "ites": 1210,
      "Ġless": 1211,
      "itive": 1212,
      "Ġobs": 1213,
      "Ġrecept": 1214,
      "sych": 1215,
      "Ġz": 1216,
      "ont": 1217,
      "Ġbeing": 1218,
      "Ġenvironment": 1219,
      "roid": 1220,
      "Ġquality": 1221,
      "Ġeffective": 1222,
      "Ġmorbid": 1223,
      "arm": 1224,
      "Ġval": 1225,
      "ditions": 1226,
      "Ġpotential": 1227,
      "Ġinjury": 1228,
      "Ġfailure": 1229,
      "ces": 1230,
      "Ġbacter": 1231,
      "Ġsup": 1232,
      "Ġlocal": 1233,
      "ram": 1234,
      "Ġlevels": 1235,
      "over": 1236,
      "Ġconditions": 1237,
      "Ġrespons": 1238,
      "ateral": 1239,
      "rh": 1240,
      "Ġve": 1241,
      "Ġliter": 1242,
      "abl": 1243,
      "Ġbreast": 1244,
      "Ġfew": 1245,
      "Ġfollowing": 1246,
      "rem": 1247,
      "Ġmm": 1248,
      "Ġabs": 1249,
      "Ġlesions": 1250,
      "Ġvery": 1251,
      "Ġprovid": 1252,
      "Ġpred": 1253,
      "Ġoral": 1254,
      "Ġinfections": 1255,
      "esis": 1256,
      "aria": 1257,
      "Ġsa": 1258,
      "Ġ50": 1259,
      "Ġgenetic": 1260,
      "Ġmen": 1261,
      "Ġprom": 1262,
      "Ġimaging": 1263,
      "Ġed": 1264,
      "Ġgreat": 1265,
      "uted": 1266,
      "Ġpress": 1267,
      "Ġcardiovascular": 1268,
      "Ġestimated": 1269,
      "Ġcentral": 1270,
      "Ġif": 1271,
      "Ġele": 1272,
      "Ġ30": 1273,
      "Ġregion": 1274,
      "Ġfur": 1275,
      "Ġreview": 1276,
      "ning": 1277,
      "Ġeach": 1278,
      "Ġdeterm": 1279,
      "Ġdemon": 1280,
      "Ġemerg": 1281,
      "Ġmale": 1282,
      "Ġinsulin": 1283,
      "Ġposs": 1284,
      "Ġshowed": 1285,
      "eric": 1286,
      "ologic": 1287,
      "med": 1288,
      "Ġdemonstr": 1289,
      "Ġproteins": 1290,
      "Ġobesity": 1291,
      "reated": 1292,
      "Ġreve": 1293,
      "Ġadults": 1294,
      "Ġsequ": 1295,
      "Ġflu": 1296,
      "Ġmemb": 1297,
      "omas": 1298,
      "tained": 1299,
      "yroid": 1300,
      "Ġsti": 1301,
      "Ġespec": 1302,
      "Ġlip": 1303,
      "Ġprost": 1304,
      "Ġindic": 1305,
      "Ġrecently": 1306,
      "ission": 1307,
      "Ġespecially": 1308,
      "Ġfac": 1309,
      "Ġexamination": 1310,
      "otherapy": 1311,
      "Ġfurther": 1312,
      "Ġtotal": 1313,
      "ivers": 1314,
      "Ġsuccess": 1315,
      "Ġobserv": 1316,
      "Ġgu": 1317,
      "oplas": 1318,
      "Ġmorbidity": 1319,
      "Ġliterature": 1320,
      "estinal": 1321,
      "ex": 1322,
      "Ġassess": 1323,
      "Ġtherefore": 1324,
      "Ġdiffic": 1325,
      "Ġmaterial": 1326,
      "Ġvascular": 1327,
      "iat": 1328,
      "Ġprov": 1329,
      "Ġevidence": 1330,
      "Ġinformation": 1331,
      "eu": 1332,
      "Ġprac": 1333,
      "arget": 1334,
      "Ġcal": 1335,
      "Ġshe": 1336,
      "monary": 1337,
      "Ġinflu": 1338,
      "Ġcondition": 1339,
      "Ġdisc": 1340,
      "Ġavail": 1341,
      "Ġtarget": 1342,
      "aled": 1343,
      "Ġproper": 1344,
      "Ġweight": 1345,
      "Ġindividuals": 1346,
      "Ġhead": 1347,
      "Ġoccurs": 1348,
      "Ġtri": 1349,
      "Ġmonths": 1350,
      "vity": 1351,
      "Ġprol": 1352,
      "Ġsci": 1353,
      "mit": 1354,
      "ists": 1355,
      "ler": 1356,
      "Ġorig": 1357,
      "Ġsupp": 1358,
      "Ġspecies": 1359,
      "Ġabn": 1360,
      "Ġfunctional": 1361,
      "ocyt": 1362,
      "Ġdiagnos": 1363,
      "Ġpressure": 1364,
      "Ġcomb": 1365,
      "Ġabdominal": 1366,
      "rate": 1367,
      "Ġplas": 1368,
      "Ġpart": 1369,
      "Ġdem": 1370,
      "Ġrepres": 1371,
      "bi": 1372,
      "Ġpsych": 1373,
      "Ġstro": 1374,
      "Ġhis": 1375,
      "Ġimmune": 1376,
      "Ġunderst": 1377,
      "Ġbeh": 1378,
      "Ġinhib": 1379,
      "Ġec": 1380,
      "ences": 1381,
      "Ġtechn": 1382,
      "Ġdam": 1383,
      "Ġglob": 1384,
      "Ġwork": 1385,
      "Ġfat": 1386,
      "Ġepid": 1387,
      "Ġcir": 1388,
      "Ġsw": 1389,
      "eration": 1390,
      "Ġred": 1391,
      "par": 1392,
      "ules": 1393,
      "Ġdepend": 1394,
      "Ġcould": 1395,
      "ae": 1396,
      "Ġ18": 1397,
      "ield": 1398,
      "Ġeven": 1399,
      "ances": 1400,
      "Ġsing": 1401,
      "Ġcoron": 1402,
      "ock": 1403,
      "Ġrecog": 1404,
      "Ġsurvival": 1405,
      "Ġcommun": 1406,
      "Ġinves": 1407,
      "Ġrange": 1408,
      "Ġmethods": 1409,
      "Ġpathogen": 1410,
      "Ġpublic": 1411,
      "Ġinvestig": 1412,
      "ns": 1413,
      "Ġpast": 1414,
      "Ġcarcinoma": 1415,
      "Ġfamily": 1416,
      "Ġhigher": 1417,
      "Ġtest": 1418,
      "Ġcontin": 1419,
      "Ġol": 1420,
      "Ġwill": 1421,
      "Ġdrugs": 1422,
      "Ġdifferenti": 1423,
      "Ġcle": 1424,
      "Ġsus": 1425,
      "ived": 1426,
      "ision": 1427,
      "Ġstress": 1428,
      "Ġgluc": 1429,
      "ok": 1430,
      "Ġtem": 1431,
      "Ġdna": 1432,
      "ides": 1433,
      "Ġexperi": 1434,
      "Ġstill": 1435,
      "10": 1436,
      "pid": 1437,
      "ques": 1438,
      "reb": 1439,
      "Ġconf": 1440,
      "Ġmodel": 1441,
      "Ġfrequently": 1442,
      "ef": 1443,
      "Ġmut": 1444,
      "Ġsubj": 1445,
      "atures": 1446,
      "Ġ25": 1447,
      "Ġtraum": 1448,
      "Ġstates": 1449,
      "Ġrevealed": 1450,
      "ics": 1451,
      "osph": 1452,
      "Ġbel": 1453,
      "Ġsurf": 1454,
      "etic": 1455,
      "Ġmac": 1456,
      "ices": 1457,
      "Ġanalysis": 1458,
      "ear": 1459,
      "pite": 1460,
      "ficiency": 1461,
      "Ġer": 1462,
      "Ġdespite": 1463,
      "Ġartery": 1464,
      "operative": 1465,
      "ified": 1466,
      "Ġpresence": 1467,
      "Ġpregn": 1468,
      "Ġidentified": 1469,
      "set": 1470,
      "Ġstandard": 1471,
      "Ġcharacteris": 1472,
      "Ġmetabolic": 1473,
      "Ġhypertension": 1474,
      "Ġ14": 1475,
      "Ġcardiac": 1476,
      "Ġfemale": 1477,
      "Ġestabl": 1478,
      "Ġnucle": 1479,
      "Ġthus": 1480,
      "old": 1481,
      "Ġstage": 1482,
      "verse": 1483,
      "Ġinterven": 1484,
      "Ġstroke": 1485,
      "omal": 1486,
      "Ġlast": 1487,
      "sel": 1488,
      "Ġjo": 1489,
      "Ġpoor": 1490,
      "oscopic": 1491,
      "Ġcap": 1492,
      "eutic": 1493,
      "Ġoper": 1494,
      "Ġoste": 1495,
      "Ġsingle": 1496,
      "Ġinstit": 1497,
      "Ġresistance": 1498,
      "eng": 1499,
      "Ġcri": 1500,
      "Ġrelative": 1501,
      "Ġmat": 1502,
      "Ġcontrib": 1503,
      "Ġsystemic": 1504,
      "Ġresulting": 1505,
      "cri": 1506,
      "Ġct": 1507,
      "Ġset": 1508,
      "Ġkid": 1509,
      "rane": 1510,
      "ring": 1511,
      "Ġeye": 1512,
      "onal": 1513,
      "Ġvit": 1514,
      "Ġsystems": 1515,
      "Ġinflammation": 1516,
      "Ġvisual": 1517,
      "Ġpulmonary": 1518,
      "Ġabnormal": 1519,
      "iological": 1520,
      "plain": 1521,
      "Ġinvolved": 1522,
      "Ġche": 1523,
      "Ġrele": 1524,
      "odi": 1525,
      "romb": 1526,
      "Ġproblem": 1527,
      "Ġkidne": 1528,
      "line": 1529,
      "Ġtub": 1530,
      "Ġfract": 1531,
      "Ġcoronary": 1532,
      "Ġdeveloping": 1533,
      "Ġstim": 1534,
      "Ġrates": 1535,
      "den": 1536,
      "ades": 1537,
      "Ġ40": 1538,
      "Ġdom": 1539,
      "Ġbur": 1540,
      "Ġunited": 1541,
      "Ġtypes": 1542,
      "Ġmolecular": 1543,
      "ty": 1544,
      "Ġtissues": 1545,
      "Ġbehav": 1546,
      "pe": 1547,
      "Ġx": 1548,
      "Ġisol": 1549,
      "Ġcontain": 1550,
      "Ġlabor": 1551,
      "utaneous": 1552,
      "Ġrapid": 1553,
      "Ġwidely": 1554,
      "Ġgastro": 1555,
      "Ġpat": 1556,
      "ick": 1557,
      "Ġdev": 1558,
      "Ġfour": 1559,
      "Ġhiv": 1560,
      "Ġprof": 1561,
      "Ġfinding": 1562,
      "Ġavailable": 1563,
      "ocial": 1564,
      "Ġsugges": 1565,
      "anced": 1566,
      "Ġfoc": 1567,
      "uk": 1568,
      "Ġchall": 1569,
      "Ġmeasure": 1570,
      "Ġtreated": 1571,
      "oles": 1572,
      "atitis": 1573,
      "Ġ24": 1574,
      "Ġdifficult": 1575,
      "Ġmot": 1576,
      "rest": 1577,
      "ples": 1578,
      "Ġangi": 1579,
      "itation": 1580,
      "Ġcompared": 1581,
      "Ġapplic": 1582,
      "Ġill": 1583,
      "Ġhor": 1584,
      "omp": 1585,
      "emic": 1586,
      "Ġproblems": 1587,
      "Ġent": 1588,
      "Ġsl": 1589,
      "ferred": 1590,
      "ull": 1591,
      "iratory": 1592,
      "Ġsecondary": 1593,
      "Ġorigin": 1594,
      "Ġmanif": 1595,
      "12": 1596,
      "cul": 1597,
      "Ġcd": 1598,
      "ither": 1599,
      "Ġconsid": 1600,
      "Ġcereb": 1601,
      "ax": 1602,
      "Ġmid": 1603,
      "function": 1604,
      "zym": 1605,
      "Ġserv": 1606,
      "Ġbecome": 1607,
      "Ġthem": 1608,
      "Ġcompon": 1609,
      "yn": 1610,
      "Ġfood": 1611,
      "asive": 1612,
      "Ġlimited": 1613,
      "ind": 1614,
      "Ġback": 1615,
      "Ġ100": 1616,
      "pper": 1617,
      "Ġeffect": 1618,
      "iving": 1619,
      "ydro": 1620,
      "Ġfeatures": 1621,
      "Ġthromb": 1622,
      "vers": 1623,
      "Ġsuper": 1624,
      "Ġii": 1625,
      "inary": 1626,
      "Ġnod": 1627,
      "Ġassociation": 1628,
      "Ġapproach": 1629,
      "hetic": 1630,
      "Ġupper": 1631,
      "read": 1632,
      "erve": 1633,
      "ilar": 1634,
      "Ġexc": 1635,
      "Ġregul": 1636,
      "Ġdirect": 1637,
      "Ġprogressive": 1638,
      "row": 1639,
      "entric": 1640,
      "olar": 1641,
      "Ġbefore": 1642,
      "Ġextrem": 1643,
      "Ġdental": 1644,
      "ocardi": 1645,
      "Ġneg": 1646,
      "Ġshort": 1647,
      "ands": 1648,
      "way": 1649,
      "round": 1650,
      "Ġ11": 1651,
      "ised": 1652,
      "cep": 1653,
      "Ġreports": 1654,
      "opathy": 1655,
      "ects": 1656,
      "Ġmechanisms": 1657,
      "Ġmalignant": 1658,
      "iversity": 1659,
      "rec": 1660,
      "Ġphen": 1661,
      "ator": 1662,
      "osure": 1663,
      "Ġnat": 1664,
      "very": 1665,
      "ru": 1666,
      "Ġair": 1667,
      "Ġagents": 1668,
      "Ġsynt": 1669,
      "Ġtherapeutic": 1670,
      "ake": 1671,
      "iatric": 1672,
      "Ġdiagnostic": 1673,
      "Ġtes": 1674,
      "Ġpc": 1675,
      "Ġpur": 1676,
      "Ġmark": 1677,
      "Ġprop": 1678,
      "Ġremains": 1679,
      "Ġshould": 1680,
      "Ġpanc": 1681,
      "Ġrespiratory": 1682,
      "Ġthir": 1683,
      "Ġbiological": 1684,
      "Ġtechniques": 1685,
      "inant": 1686,
      "anti": 1687,
      "Ġdemonstrated": 1688,
      "ina": 1689,
      "Ġanterior": 1690,
      "Ġbil": 1691,
      "Ġnational": 1692,
      "Ġenc": 1693,
      "inc": 1694,
      "pithel": 1695,
      "log": 1696,
      "Ġformation": 1697,
      "Ġeither": 1698,
      "Ġdefec": 1699,
      "Ġtom": 1700,
      "eding": 1701,
      "of": 1702,
      "Ġfield": 1703,
      "Ġhel": 1704,
      "Ġsex": 1705,
      "Ġtract": 1706,
      "struction": 1707,
      "Ġpracti": 1708,
      "Ġkidney": 1709,
      "Ġul": 1710,
      "Ġrece": 1711,
      "Ġstructure": 1712,
      "Ġprocedure": 1713,
      "man": 1714,
      "atus": 1715,
      "Ġnow": 1716,
      "Ġach": 1717,
      "rial": 1718,
      "Ġgenes": 1719,
      "Ġappear": 1720,
      "Ġimprove": 1721,
      "Ġparticularly": 1722,
      "Ġproperties": 1723,
      "Ġsite": 1724,
      "Ġpri": 1725,
      "Ġrecom": 1726,
      "Ġsupport": 1727,
      "Ġunderstand": 1728,
      "Ġess": 1729,
      "Ġcm": 1730,
      "acy": 1731,
      "Ġhere": 1732,
      "Ġcyst": 1733,
      "Ġparticip": 1734,
      "Ġsour": 1735,
      "Ġexam": 1736,
      "Ġwee": 1737,
      "Ġsocial": 1738,
      "ification": 1739,
      "Ġglucose": 1740,
      "Ġarea": 1741,
      "Ġintro": 1742,
      "Ġmedi": 1743,
      "Ġsch": 1744,
      "Ġref": 1745,
      "Ġareas": 1746,
      "Ġpreviously": 1747,
      "ras": 1748,
      "Ġmg": 1749,
      "Ġprogn": 1750,
      "Ġke": 1751,
      "Ġcomplete": 1752,
      "itus": 1753,
      "Ġthough": 1754,
      "Ġonset": 1755,
      "Ġhighly": 1756,
      "Ġobserved": 1757,
      "Ġpancre": 1758,
      "Ġdecades": 1759,
      "Ġexpression": 1760,
      "ink": 1761,
      "Ġda": 1762,
      "Ġconsider": 1763,
      "go": 1764,
      "Ġconcer": 1765,
      "Ġconsequ": 1766,
      "Ġmedicine": 1767,
      "Ġdamage": 1768,
      "Ġter": 1769,
      "Ġconduc": 1770,
      "ross": 1771,
      "Ġameric": 1772,
      "tered": 1773,
      "tention": 1774,
      "Ġtransplant": 1775,
      "Ġchemical": 1776,
      "led": 1777,
      "ner": 1778,
      "Ġability": 1779,
      "Ġprevent": 1780,
      "Ġinhibit": 1781,
      "ids": 1782,
      "Ġdysfunction": 1783,
      "gest": 1784,
      "Ġmade": 1785,
      "Ġnerv": 1786,
      "otyp": 1787,
      "Ġperip": 1788,
      "Ġemb": 1789,
      "Ġyoun": 1790,
      "Ġprocedures": 1791,
      "Ġrecogn": 1792,
      "Ġcog": 1793,
      "Ġvol": 1794,
      "Ġsurface": 1795,
      "ising": 1796,
      "Ġeth": 1797,
      "Ġscre": 1798,
      "Ġreduced": 1799,
      "hesis": 1800,
      "Ġyoung": 1801,
      "Ġwater": 1802,
      "Ġdeg": 1803,
      "Ġpositive": 1804,
      "Ġprovide": 1805,
      "Ġpredic": 1806,
      "li": 1807,
      "Ġdays": 1808,
      "Ġplay": 1809,
      "Ġexperim": 1810,
      "Ġsimilar": 1811,
      "ai": 1812,
      "ward": 1813,
      "ended": 1814,
      "Ġenzym": 1815,
      "ectomy": 1816,
      "ord": 1817,
      "Ġneur": 1818,
      "Ġcellular": 1819,
      "Ġincluded": 1820,
      "Ġdeaths": 1821,
      "Ġsoci": 1822,
      "Ġbir": 1823,
      "aring": 1824,
      "Ġlap": 1825,
      "Ġver": 1826,
      "Ġves": 1827,
      "Ġgenerally": 1828,
      "Ġsuf": 1829,
      "Ġinterac": 1830,
      "Ġ198": 1831,
      "Ġserum": 1832,
      "Ġadmin": 1833,
      "Ġcritical": 1834,
      "Ġcurrently": 1835,
      "Ġtox": 1836,
      "Ġdepart": 1837,
      "Ġknow": 1838,
      "Ġtomography": 1839,
      "Ġobtained": 1840,
      "Ġvariety": 1841,
      "Ġaffected": 1842,
      "Ġproduction": 1843,
      "Ġmanifest": 1844,
      "Ġos": 1845,
      "Ġder": 1846,
      "Ġinduced": 1847,
      "Ġmag": 1848,
      "Ġstate": 1849,
      "utri": 1850,
      "Ġspect": 1851,
      "Ġauto": 1852,
      "Ġil": 1853,
      "Ġgo": 1854,
      "cs": 1855,
      "Ġsize": 1856,
      "Ġann": 1857,
      "Ġintrac": 1858,
      "Ġextrac": 1859,
      "Ġcogni": 1860,
      "chem": 1861,
      "Ġcer": 1862,
      "come": 1863,
      "uf": 1864,
      "Ġult": 1865,
      "lled": 1866,
      "Ġlack": 1867,
      "Ġepithel": 1868,
      "tid": 1869,
      "Ġdoc": 1870,
      "omet": 1871,
      "Ġthyroid": 1872,
      "Ġsuccessful": 1873,
      "ument": 1874,
      "Ġpharm": 1875,
      "unctions": 1876,
      "Ġessential": 1877,
      "Ġdm": 1878,
      "itu": 1879,
      "Ġagain": 1880,
      "Ġthen": 1881,
      "Ġtechnique": 1882,
      "hip": 1883,
      "Ġorder": 1884,
      "Ġfigure": 1885,
      "Ġlapar": 1886,
      "bility": 1887,
      "Ġsle": 1888,
      "Ġeuro": 1889,
      "Ġnerve": 1890,
      "Ġspinal": 1891,
      "Ġclinic": 1892,
      "Ġestablished": 1893,
      "Ġperipher": 1894,
      "Ġov": 1895,
      "Ġcall": 1896,
      "Ġmel": 1897,
      "pective": 1898,
      "Ġachie": 1899,
      "rel": 1900,
      "Ġday": 1901,
      "Ġpattern": 1902,
      "13": 1903,
      "af": 1904,
      "Ġeti": 1905,
      "Ġconcent": 1906,
      "Ġfree": 1907,
      "Ġelev": 1908,
      "Ġside": 1909,
      "fication": 1910,
      "Ġallow": 1911,
      "Ġroot": 1912,
      "Ġ35": 1913,
      "Ġprocesses": 1914,
      "Ġlo": 1915,
      "Ġadult": 1916,
      "Ġcolon": 1917,
      "intestinal": 1918,
      "ygen": 1919,
      "Ġleast": 1920,
      "Ġreceptor": 1921,
      "Ġgastrointestinal": 1922,
      "Ġeurope": 1923,
      "lying": 1924,
      "lex": 1925,
      "Ġinvasive": 1926,
      "Ġtrauma": 1927,
      "Ġsites": 1928,
      "Ġuniversity": 1929,
      "Ġmembrane": 1930,
      "Ġfocus": 1931,
      "Ġsal": 1932,
      "Ġmainly": 1933,
      "Ġanimal": 1934,
      "Ġcerv": 1935,
      "Ġresid": 1936,
      "rosis": 1937,
      "Ġline": 1938,
      "Ġsignal": 1939,
      "Ġoutcom": 1940,
      "Ġtradition": 1941,
      "Ġhormon": 1942,
      "Ġthird": 1943,
      "Ġoutcomes": 1944,
      "ones": 1945,
      "Ġdiss": 1946,
      "Ġsubst": 1947,
      "Ġrelatively": 1948,
      "Ġgly": 1949,
      "Ġneoplas": 1950,
      "Ġcancers": 1951,
      "Ġexposure": 1952,
      "Ġsmo": 1953,
      "ergy": 1954,
      "Ġminim": 1955,
      "Ġpractice": 1956,
      "Ġdepartment": 1957,
      "orrh": 1958,
      "iven": 1959,
      "Ġlesion": 1960,
      "Ġglobal": 1961,
      "Ġlaboratory": 1962,
      "Ġfindings": 1963,
      "Ġnegative": 1964,
      "ogenic": 1965,
      "Ġpolym": 1966,
      "Ġevaluation": 1967,
      "aly": 1968,
      "Ġdesign": 1969,
      "Ġdiet": 1970,
      "Ġmodi": 1971,
      "Ġcriter": 1972,
      "mia": 1973,
      "atis": 1974,
      "Ġbenign": 1975,
      "Ġteeth": 1976,
      "Ġrepresent": 1977,
      "ores": 1978,
      "Ġnan": 1979,
      "cell": 1980,
      "Ġactive": 1981,
      "Ġaccess": 1982,
      "Ġwoman": 1983,
      "och": 1984,
      "ficient": 1985,
      "Ġenvironmental": 1986,
      "Ġresponsible": 1987,
      "Ġnatural": 1988,
      "ying": 1989,
      "olism": 1990,
      "Ġventric": 1991,
      "Ġaden": 1992,
      "Ġneck": 1993,
      "Ġcognitive": 1994,
      "Ġ17": 1995,
      "ode": 1996,
      "Ġpregnancy": 1997,
      "atin": 1998,
      "Ġreferred": 1999,
      "ame": 2000,
      "amic": 2001,
      "Ġact": 2002,
      "Ġchrom": 2003,
      "Ġseen": 2004,
      "ressed": 2005,
      "Ġdecreased": 2006,
      "Ġpossible": 2007,
      "Ġbehavior": 2008,
      "Ġagainst": 2009,
      "Ġmell": 2010,
      "ided": 2011,
      "Ġperipheral": 2012,
      "last": 2013,
      "Ġcop": 2014,
      "Ġcomplain": 2015,
      "Ġadverse": 2016,
      "Ġsubsequ": 2017,
      "Ġpreven": 2018,
      "Ġrecomm": 2019,
      "ways": 2020,
      "onomic": 2021,
      "Ġcult": 2022,
      "Ġbas": 2023,
      "let": 2024,
      "ritis": 2025,
      "Ġhealthy": 2026,
      "Ġhumans": 2027,
      "Ġbr": 2028,
      "Ġhand": 2029,
      "Ġlig": 2030,
      "Ġischem": 2031,
      "Ġstatus": 2032,
      "Ġagg": 2033,
      "Ġsoft": 2034,
      "cription": 2035,
      "Ġbo": 2036,
      "ensity": 2037,
      "Ġaccount": 2038,
      "Ġcour": 2039,
      "Ġ60": 2040,
      "Ġmoder": 2041,
      "Ġmellitus": 2042,
      "Ġadj": 2043,
      "Ġmotor": 2044,
      "Ġcriteria": 2045,
      "Ġic": 2046,
      "Ġms": 2047,
      "ann": 2048,
      "ols": 2049,
      "Ġactivities": 2050,
      "Ġself": 2051,
      "Ġiss": 2052,
      "Ġprostate": 2053,
      "Ġexerc": 2054,
      "abil": 2055,
      "Ġmajority": 2056,
      "Ġneurolog": 2057,
      "Ġstimul": 2058,
      "Ġconducted": 2059,
      "Ġbin": 2060,
      "lement": 2061,
      "olution": 2062,
      "Ġtypically": 2063,
      "ocytes": 2064,
      "ret": 2065,
      "Ġenh": 2066,
      "Ġimpair": 2067,
      "Ġposterior": 2068,
      "Ġble": 2069,
      "Ġhydro": 2070,
      "arily": 2071,
      "Ġdepression": 2072,
      "Ġgroups": 2073,
      "Ġinitial": 2074,
      "15": 2075,
      "Ġdim": 2076,
      "Ġfollowed": 2077,
      "Ġchemotherapy": 2078,
      "Ġsamples": 2079,
      "Ġphosph": 2080,
      "Ġolder": 2081,
      "Ġped": 2082,
      "Ġrelations": 2083,
      "Ġstructures": 2084,
      "Ġsuggested": 2085,
      "ledge": 2086,
      "Ġbirth": 2087,
      "Ġfever": 2088,
      "Ġstrate": 2089,
      "Ġheter": 2090,
      "ellular": 2091,
      "Ġleads": 2092,
      "Ġprior": 2093,
      "Ġstrateg": 2094,
      "reg": 2095,
      "Ġps": 2096,
      "Ġmes": 2097,
      "Ġimplant": 2098,
      "Ġexample": 2099,
      "Ġaround": 2100,
      "Ġwall": 2101,
      "Ġ16": 2102,
      "Ġcongen": 2103,
      "Ġvaria": 2104,
      "Ġaffect": 2105,
      "Ġoxygen": 2106,
      "Ġmaterials": 2107,
      "Ġknowledge": 2108,
      "xt": 2109,
      "Ġdisco": 2110,
      "Ġrat": 2111,
      "Ġincreases": 2112,
      "Ġserious": 2113,
      "Ġnervous": 2114,
      "Ġreas": 2115,
      "Ġequ": 2116,
      "Ġvia": 2117,
      "Ġelder": 2118,
      "ians": 2119,
      "Ġchest": 2120,
      "erous": 2121,
      "Ġtooth": 2122,
      "utes": 2123,
      "Ġrequire": 2124,
      "Ġprolif": 2125,
      "ient": 2126,
      "pos": 2127,
      "Ġfunctions": 2128,
      "ulations": 2129,
      "Ġconven": 2130,
      "aps": 2131,
      "Ġadvanced": 2132,
      "Ġchallen": 2133,
      "mic": 2134,
      "Ġaltern": 2135,
      "Ġantib": 2136,
      "Ġaffecting": 2137,
      "Ġhemat": 2138,
      "Ġinteg": 2139,
      "Ġoutcome": 2140,
      "Ġemergency": 2141,
      "Ġjoint": 2142,
      "Ġanat": 2143,
      "ule": 2144,
      "Ġorganization": 2145,
      "Ġclear": 2146,
      "Ġrelationship": 2147,
      "bs": 2148,
      "ending": 2149,
      "iting": 2150,
      "Ġaffects": 2151,
      "Ġsame": 2152,
      "Ġanimals": 2153,
      "Ġprognosis": 2154,
      "11": 2155,
      "Ġattention": 2156,
      "Ġimpact": 2157,
      "Ġimportance": 2158,
      "Ġ80": 2159,
      "Ġgastric": 2160,
      "Ġunderstanding": 2161,
      "Ġcalled": 2162,
      "Ġelderly": 2163,
      "met": 2164,
      "Ġfrequent": 2165,
      "Ġcv": 2166,
      "Ġcost": 2167,
      "Ġpep": 2168,
      "ably": 2169,
      "Ġsurve": 2170,
      "Ġaccum": 2171,
      "Ġauth": 2172,
      "Ġconfir": 2173,
      "atal": 2174,
      "rogen": 2175,
      "Ġprec": 2176,
      "Ġbiom": 2177,
      "acement": 2178,
      "uss": 2179,
      "riate": 2180,
      "illary": 2181,
      "Ġprogression": 2182,
      "Ġillness": 2183,
      "rast": 2184,
      "Ġalong": 2185,
      "Ġinvolvement": 2186,
      "Ġbenef": 2187,
      "Ġdeliver": 2188,
      "Ġreduce": 2189,
      "Ġaim": 2190,
      "Ġreduction": 2191,
      "plas": 2192,
      "Ġactivation": 2193,
      "Ġcervical": 2194,
      "Ġcos": 2195,
      "Ġextensive": 2196,
      "Ġreceptors": 2197,
      "vant": 2198,
      "Ġq": 2199,
      "Ġstem": 2200,
      "umb": 2201,
      "elling": 2202,
      "Ġphot": 2203,
      "Ġarth": 2204,
      "odies": 2205,
      "rine": 2206,
      "Ġmr": 2207,
      "itary": 2208,
      "Ġnutri": 2209,
      "Ġevents": 2210,
      "Ġindia": 2211,
      "Ġmaintain": 2212,
      "ographic": 2213,
      "Ġcenter": 2214,
      "Ġcalc": 2215,
      "Ġcongenital": 2216,
      "tide": 2217,
      "Ġforms": 2218,
      "emb": 2219,
      "ologies": 2220,
      "cler": 2221,
      "Ġproducts": 2222,
      "Ġcourse": 2223,
      "outh": 2224,
      "Ġcomplication": 2225,
      "othel": 2226,
      "Ġmental": 2227,
      "Ġgiven": 2228,
      "ters": 2229,
      "yel": 2230,
      "Ġcharacteristics": 2231,
      "Ġkey": 2232,
      "Ġprevention": 2233,
      "eur": 2234,
      "Ġtak": 2235,
      "Ġleuk": 2236,
      "ounts": 2237,
      "apan": 2238,
      "Ġ70": 2239,
      "hood": 2240,
      "Ġnet": 2241,
      "Ġresection": 2242,
      "Ġadd": 2243,
      "ounds": 2244,
      "Ġrequired": 2245,
      "Ġbacterial": 2246,
      "Ġcirc": 2247,
      "Ġrecognized": 2248,
      "omes": 2249,
      "neum": 2250,
      "Ġcontinu": 2251,
      "most": 2252,
      "rag": 2253,
      "Ġven": 2254,
      "Ġnear": 2255,
      "Ġcarb": 2256,
      "Ġreduc": 2257,
      "Ġphase": 2258,
      "Ġtransm": 2259,
      "Ġaged": 2260,
      "Ġhemorrh": 2261,
      "Ġmyocardi": 2262,
      "Ġultras": 2263,
      "oly": 2264,
      "Ġmar": 2265,
      "Ġlight": 2266,
      "immun": 2267,
      "Ġdescribe": 2268,
      "Ġguide": 2269,
      "Ġdependent": 2270,
      "Ġtoxic": 2271,
      "Ġstrain": 2272,
      "Ġenergy": 2273,
      "Ġintern": 2274,
      "Ġrestor": 2275,
      "Ġexperience": 2276,
      "Ġweeks": 2277,
      "Ġsleep": 2278,
      "Ġopen": 2279,
      "Ġsignificantly": 2280,
      "lation": 2281,
      "ove": 2282,
      "Ġbro": 2283,
      "Ġhost": 2284,
      "Ġlink": 2285,
      "Ġconsum": 2286,
      "Ġconsist": 2287,
      "Ġpresentation": 2288,
      "Ġmean": 2289,
      "Ġapproved": 2290,
      "Ġdiabetic": 2291,
      "cles": 2292,
      "Ġgrowing": 2293,
      "Ġinterest": 2294,
      "Ġurinary": 2295,
      "Ġbar": 2296,
      "Ġhy": 2297,
      "Ġevery": 2298,
      "odon": 2299,
      "Ġrecurrent": 2300,
      "itivity": 2301,
      "Ġ2009": 2302,
      "netic": 2303,
      "fort": 2304,
      "ense": 2305,
      "Ġathe": 2306,
      "Ġdetection": 2307,
      "Ġasp": 2308,
      "phal": 2309,
      "enced": 2310,
      "Ġimproved": 2311,
      "Ġpd": 2312,
      "rad": 2313,
      "Ġexcess": 2314,
      "Ġafric": 2315,
      "Ġartic": 2316,
      "Ġdistrib": 2317,
      "ectively": 2318,
      "Ġscienti": 2319,
      "Ġadminist": 2320,
      "tle": 2321,
      "tial": 2322,
      "Ġderm": 2323,
      "Ġnas": 2324,
      "letal": 2325,
      "other": 2326,
      "Ġparas": 2327,
      "Ġ2010": 2328,
      "Ġdefin": 2329,
      "Ġepidem": 2330,
      "ament": 2331,
      "Ġdiv": 2332,
      "Ġfil": 2333,
      "izing": 2334,
      "aryn": 2335,
      "keletal": 2336,
      "Ġregions": 2337,
      "Ġapprop": 2338,
      "Ġrepair": 2339,
      "Ġmelan": 2340,
      "Ġpneum": 2341,
      "Ġmri": 2342,
      "Ġusa": 2343,
      "Ġkg": 2344,
      "Ġkin": 2345,
      "Ġcomputed": 2346,
      "Ġremov": 2347,
      "Ġgreater": 2348,
      "Ġcombination": 2349,
      "itor": 2350,
      "itted": 2351,
      "Ġbase": 2352,
      "Ġlater": 2353,
      "Ġpublished": 2354,
      "Ġhepatitis": 2355,
      "Ġcerebral": 2356,
      "Ġdaily": 2357,
      "itone": 2358,
      "Ġhome": 2359,
      "Ġnecess": 2360,
      "adder": 2361,
      "Ġkore": 2362,
      "ranial": 2363,
      "Ġincludes": 2364,
      "Ġclinically": 2365,
      "Ġbacteria": 2366,
      "Ġsubjects": 2367,
      "less": 2368,
      "Ġpel": 2369,
      "Ġmig": 2370,
      "ication": 2371,
      "Ġliving": 2372,
      "Ġeas": 2373,
      "urb": 2374,
      "urs": 2375,
      "Ġneph": 2376,
      "rong": 2377,
      "Ġunderlying": 2378,
      "ours": 2379,
      "Ġradiation": 2380,
      "Ġmorph": 2381,
      "Ġabnormalities": 2382,
      "Ġpharmac": 2383,
      "ales": 2384,
      "Ġhc": 2385,
      "Ġvac": 2386,
      "ema": 2387,
      "Ġeng": 2388,
      "Ġgenome": 2389,
      "roscop": 2390,
      "Ġrepe": 2391,
      "fusion": 2392,
      "Ġax": 2393,
      "Ġtend": 2394,
      "Ġendothel": 2395,
      "Ġoxid": 2396,
      "aw": 2397,
      "Ġbetter": 2398,
      "medi": 2399,
      "Ġbleeding": 2400,
      "Ġure": 2401,
      "Ġbest": 2402,
      "Ġnumerous": 2403,
      "Ġfluid": 2404,
      "Ġbinding": 2405,
      "omat": 2406,
      "Ġrna": 2407,
      "ured": 2408,
      "Ġjapan": 2409,
      "Ġinvolving": 2410,
      "Ġprimarily": 2411,
      "Ġdocument": 2412,
      "Ġig": 2413,
      "ises": 2414,
      "rob": 2415,
      "entially": 2416,
      "Ġinfected": 2417,
      "Ġretinal": 2418,
      "Ġperiodon": 2419,
      "Ġassessment": 2420,
      "Ġisolated": 2421,
      "Ġautoimmun": 2422,
      "more": 2423,
      "onia": 2424,
      "Ġclassified": 2425,
      "Ġmolecules": 2426,
      "Ġtemper": 2427,
      "Ġelevated": 2428,
      "dle": 2429,
      "ortic": 2430,
      "Ġbm": 2431,
      "Ġhal": 2432,
      "Ġundergo": 2433,
      "Ġabsence": 2434,
      "Ġplasma": 2435,
      "Ġlaparoscopic": 2436,
      "yt": 2437,
      "Ġeg": 2438,
      "opro": 2439,
      "Ġstudied": 2440,
      "Ġphysiological": 2441,
      "Ġadmitted": 2442,
      "Ġulcer": 2443,
      "Ġtrac": 2444,
      "Ġanest": 2445,
      "Ġthreat": 2446,
      "Ġasym": 2447,
      "Ġlocated": 2448,
      "Ġ90": 2449,
      "Ġintervention": 2450,
      "Ġmagnetic": 2451,
      "Ġweak": 2452,
      "Ġmoreover": 2453,
      "Ġservices": 2454,
      "nas": 2455,
      "Ġcontrast": 2456,
      "Ġpostoperative": 2457,
      "Ġcollected": 2458,
      "eurys": 2459,
      "wor": 2460,
      "tious": 2461,
      "enz": 2462,
      "Ġpap": 2463,
      "Ġrepl": 2464,
      "osomal": 2465,
      "Ġcho": 2466,
      "Ġutil": 2467,
      "Ġinjuries": 2468,
      "Ġburden": 2469,
      "val": 2470,
      "Ġorth": 2471,
      "ficial": 2472,
      "Ġextreme": 2473,
      "Ġvessel": 2474,
      "Ġcur": 2475,
      "Ġdent": 2476,
      "ators": 2477,
      "Ġseg": 2478,
      "Ġplan": 2479,
      "Ġflow": 2480,
      "az": 2481,
      "Ġml": 2482,
      "Ġfive": 2483,
      "Ġtop": 2484,
      "osa": 2485,
      "Ġgood": 2486,
      "Ġalmost": 2487,
      "Ġfurthermore": 2488,
      "Ġconventional": 2489,
      "aches": 2490,
      "Ġprob": 2491,
      "Ġdeficiency": 2492,
      "Ġcompr": 2493,
      "Ġ2008": 2494,
      "angi": 2495,
      "Ġstructural": 2496,
      "Ġpathogenesis": 2497,
      "Ġepithelial": 2498,
      "organ": 2499,
      "Ġdose": 2500,
      "Ġwould": 2501,
      "Ġthor": 2502,
      "Ġacqui": 2503,
      "ored": 2504,
      "Ġsuggest": 2505,
      "Ġappropriate": 2506,
      "fs": 2507,
      "Ġsk": 2508,
      "roc": 2509,
      "get": 2510,
      "ique": 2511,
      "lines": 2512,
      "plo": 2513,
      "Ġsubt": 2514,
      "Ġpersist": 2515,
      "Ġsetting": 2516,
      "Ġexercise": 2517,
      "Ġod": 2518,
      "Ġana": 2519,
      "arding": 2520,
      "ochem": 2521,
      "Ġexist": 2522,
      "Ġcompos": 2523,
      "Ġtreatments": 2524,
      "Ġaging": 2525,
      "Ġbiop": 2526,
      "Ġposition": 2527,
      "Ġscreening": 2528,
      "br": 2529,
      "bor": 2530,
      "Ġery": 2531,
      "Ġpen": 2532,
      "Ġbal": 2533,
      "Ġstrong": 2534,
      "Ġuncom": 2535,
      "Ġplac": 2536,
      "Ġregard": 2537,
      "Ġcorne": 2538,
      "Ġorgans": 2539,
      "Ġsecre": 2540,
      "Ġcomponents": 2541,
      "ole": 2542,
      "son": 2543,
      "zed": 2544,
      "Ġpal": 2545,
      "Ġdiver": 2546,
      "Ġconn": 2547,
      "Ġvas": 2548,
      "athy": 2549,
      "Ġobstruction": 2550,
      "Ġventricular": 2551,
      "occ": 2552,
      "Ġdisability": 2553,
      "Ġaccur": 2554,
      "ancies": 2555,
      "tivity": 2556,
      "Ġ2007": 2557,
      "ogenesis": 2558,
      "Ġtimes": 2559,
      "Ġmetastatic": 2560,
      "Ġmiddle": 2561,
      "Ġpelv": 2562,
      "ouse": 2563,
      "Ġmalaria": 2564,
      "Ġesoph": 2565,
      "roscler": 2566,
      "Ġoptim": 2567,
      "Ġprogram": 2568,
      "Ġ2011": 2569,
      "Ġfracture": 2570,
      "Ġadministration": 2571,
      "iology": 2572,
      "Ġfund": 2573,
      "Ġrh": 2574,
      "Ġcanal": 2575,
      "Ġunique": 2576,
      "Ġrad": 2577,
      "Ġinvolves": 2578,
      "Ġmutations": 2579,
      "20": 2580,
      "oral": 2581,
      "Ġstren": 2582,
      "ocrine": 2583,
      "verage": 2584,
      "Ġrand": 2585,
      "Ġconstit": 2586,
      "kines": 2587,
      "Ġmechanical": 2588,
      "Ġcertain": 2589,
      "Ġtb": 2590,
      "Ġmit": 2591,
      "aries": 2592,
      "Ġnor": 2593,
      "Ġster": 2594,
      "ibility": 2595,
      "Ġcausing": 2596,
      "arian": 2597,
      "Ġiran": 2598,
      "coh": 2599,
      "Ġtechnology": 2600,
      "Ġderived": 2601,
      "Ġrecur": 2602,
      "Ġspecial": 2603,
      "oids": 2604,
      "ophil": 2605,
      "Ġdifferentiation": 2606,
      "Ġdomain": 2607,
      "Ġvolum": 2608,
      "Ġalternative": 2609,
      "Ġautoimmune": 2610,
      "30": 2611,
      "ca": 2612,
      "kn": 2613,
      "Ġlas": 2614,
      "Ġmice": 2615,
      "Ġconcern": 2616,
      "Ġdelivery": 2617,
      "Ġatheroscler": 2618,
      "Ġstreng": 2619,
      "Ġcs": 2620,
      "Ġgran": 2621,
      "ystic": 2622,
      "Ġinfectious": 2623,
      "Ġoverall": 2624,
      "Ġcontrolled": 2625,
      "50": 2626,
      "Ġsitu": 2627,
      "Ġalter": 2628,
      "Ġeffic": 2629,
      "Ġantibi": 2630,
      "Ġchildhood": 2631,
      "oscopy": 2632,
      "Ġfamil": 2633,
      "Ġreson": 2634,
      "Ġtranscription": 2635,
      "Ġinternal": 2636,
      "epend": 2637,
      "Ġneurop": 2638,
      "Ġbilateral": 2639,
      "Ġled": 2640,
      "ronch": 2641,
      "Ġprevalent": 2642,
      "Ġviral": 2643,
      "Ġwhereas": 2644,
      "Ġreaction": 2645,
      "Ġtransplantation": 2646,
      "aired": 2647,
      "Ġinternational": 2648,
      "Ġpor": 2649,
      "Ġnature": 2650,
      "Ġadoles": 2651,
      "Ġrepro": 2652,
      "Ġgrade": 2653,
      "Ġincreasingly": 2654,
      "Ġlikely": 2655,
      "Ġmuch": 2656,
      "Ġtrials": 2657,
      "Ġetiology": 2658,
      "Ġtraditional": 2659,
      "Ġpediatric": 2660,
      "Ġmyocardial": 2661,
      "ula": 2662,
      "Ġsource": 2663,
      "Ġrandom": 2664,
      "Ġresonance": 2665,
      "rum": 2666,
      "Ġtur": 2667,
      "Ġpig": 2668,
      "ori": 2669,
      "Ġduc": 2670,
      "Ġfar": 2671,
      "Ġhom": 2672,
      "urg": 2673,
      "Ġsee": 2674,
      "Ġspont": 2675,
      "Ġ2005": 2676,
      "Ġrarely": 2677,
      "rophy": 2678,
      "Ġaneurys": 2679,
      "odes": 2680,
      "Ġchange": 2681,
      "Ġintestinal": 2682,
      "anging": 2683,
      "hesia": 2684,
      "Ġspontaneous": 2685,
      "Ġsix": 2686,
      "Ġ21": 2687,
      "plied": 2688,
      "Ġpathological": 2689,
      "Ġpopulations": 2690,
      "Ġcommunity": 2691,
      "Ġbelie": 2692,
      "Ġparticipants": 2693,
      "Ġow": 2694,
      "Ġanother": 2695,
      "Ġdegen": 2696,
      "amp": 2697,
      "Ġpresenting": 2698,
      "Ġindex": 2699,
      "Ġprogress": 2700,
      "Ġmovement": 2701,
      "Ġdelay": 2702,
      "Ġiv": 2703,
      "Ġmamm": 2704,
      "Ġscler": 2705,
      "Ġduration": 2706,
      "ercul": 2707,
      "Ġprovided": 2708,
      "Ġuncommon": 2709,
      "land": 2710,
      "rs": 2711,
      "ints": 2712,
      "Ġregarding": 2713,
      "Ġrout": 2714,
      "Ġsigns": 2715,
      "Ġfractures": 2716,
      "Ġamerican": 2717,
      "Ġacquired": 2718,
      "Ġbow": 2719,
      "Ġkne": 2720,
      "oxic": 2721,
      "Ġ2012": 2722,
      "Ġmechanism": 2723,
      "Ġprotoc": 2724,
      "Ġproposed": 2725,
      "Ġintroduced": 2726,
      "Ġproliferation": 2727,
      "Ġlate": 2728,
      "acity": 2729,
      "Ġcompounds": 2730,
      "Ġconserv": 2731,
      "Ġobj": 2732,
      "Ġ197": 2733,
      "Ġmust": 2734,
      "Ġattrib": 2735,
      "Ġvitamin": 2736,
      "Ġenter": 2737,
      "Ġmediated": 2738,
      "cutaneous": 2739,
      "put": 2740,
      "Ġlay": 2741,
      "uring": 2742,
      "Ġparam": 2743,
      "Ġrespectively": 2744,
      "Ġ2004": 2745,
      "Ġphysic": 2746,
      "Ġresponses": 2747,
      "Ġdefects": 2748,
      "Ġovarian": 2749,
      "Ġneurological": 2750,
      "Ġroutine": 2751,
      "Ġfo": 2752,
      "Ġtoward": 2753,
      "Ġintensive": 2754,
      "uble": 2755,
      "Ġimpaired": 2756,
      "Ġanaly": 2757,
      "Ġimpairment": 2758,
      "Ġbroad": 2759,
      "ger": 2760,
      "lusion": 2761,
      "uter": 2762,
      "Ġcavity": 2763,
      "aged": 2764,
      "Ġoccurring": 2765,
      "Ġperformance": 2766,
      "Ġmodels": 2767,
      "okines": 2768,
      "Ġcutaneous": 2769,
      "ilt": 2770,
      "Ġbladder": 2771,
      "Ġmetastasis": 2772,
      "Ġdecrease": 2773,
      "Ġcontaining": 2774,
      "Ġapplications": 2775,
      "pose": 2776,
      "Ġfix": 2777,
      "Ġste": 2778,
      "Ġcommit": 2779,
      "Ġspace": 2780,
      "Ġpla": 2781,
      "Ġlymphoma": 2782,
      "rin": 2783,
      "Ġpercent": 2784,
      "Ġclose": 2785,
      "Ġevent": 2786,
      "Ġidentification": 2787,
      "Ġhepat": 2788,
      "Ġpromot": 2789,
      "Ġrepresents": 2790,
      "Ġtubercul": 2791,
      "Ġmanifestations": 2792,
      "14": 2793,
      "rhe": 2794,
      "ria": 2795,
      "Ġdon": 2796,
      "ulated": 2797,
      "amine": 2798,
      "Ġhaving": 2799,
      "Ġmalignancy": 2800,
      "Ġcathe": 2801,
      "Ġpancreatic": 2802,
      "Ġhemorrhage": 2803,
      "itoneal": 2804,
      "Ġtrain": 2805,
      "Ġrefl": 2806,
      "quate": 2807,
      "Ġhypot": 2808,
      "Ġindepend": 2809,
      "Ġtrig": 2810,
      "Ġdisturb": 2811,
      "Ġprolong": 2812,
      "Ġthought": 2813,
      "Ġendothelial": 2814,
      "oh": 2815,
      "Ġmix": 2816,
      "Ġpredom": 2817,
      "Ġcompar": 2818,
      "Ġnovel": 2819,
      "Ġrequires": 2820,
      "Ġresistant": 2821,
      "Ġinstitution": 2822,
      "Ġtransmission": 2823,
      "Ġefficacy": 2824,
      "Ġbowel": 2825,
      "Ġinst": 2826,
      "ession": 2827,
      "Ġuntil": 2828,
      "hers": 2829,
      "Ġcomponent": 2830,
      "Ġinteractions": 2831,
      "onic": 2832,
      "ident": 2833,
      "Ġshap": 2834,
      "Ġadvances": 2835,
      "Ġsequence": 2836,
      "Ġinfluenz": 2837,
      "Ġguidelines": 2838,
      "Ġsil": 2839,
      "ison": 2840,
      "isted": 2841,
      "estern": 2842,
      "omen": 2843,
      "loid": 2844,
      "Ġaccounts": 2845,
      "encing": 2846,
      "Ġunderw": 2847,
      "Ġadvant": 2848,
      "Ġprovides": 2849,
      "Ġsupplement": 2850,
      "Ġapplication": 2851,
      "Ġverte": 2852,
      "ino": 2853,
      "ene": 2854,
      "Ġcross": 2855,
      "Ġplays": 2856,
      "Ġmuscles": 2857,
      "Ġyet": 2858,
      "Ġsociety": 2859,
      "Ġsuffer": 2860,
      "duce": 2861,
      "Ġocular": 2862,
      "Ġmild": 2863,
      "Ġbor": 2864,
      "Ġgi": 2865,
      "Ġstep": 2866,
      "Ġalcoh": 2867,
      "Ġunkn": 2868,
      "ference": 2869,
      "Ġextra": 2870,
      "Ġapproaches": 2871,
      "Ġoccurrence": 2872,
      "Ġepis": 2873,
      "Ġthroughout": 2874,
      "Ġdiscuss": 2875,
      "Ġtests": 2876,
      "Ġconfirmed": 2877,
      "Ġunknown": 2878,
      "ave": 2879,
      "Ġfall": 2880,
      "Ġ23": 2881,
      "istry": 2882,
      "Ġdecade": 2883,
      "ocyte": 2884,
      "Ġhormone": 2885,
      "Ġsmoking": 2886,
      "Ġstrength": 2887,
      "care": 2888,
      "Ġfet": 2889,
      "Ġlateral": 2890,
      "Ġmonitor": 2891,
      "Ġpotentially": 2892,
      "Ġmetabolism": 2893,
      "Ġidentify": 2894,
      "Ġtemperature": 2895,
      "Ġunderwent": 2896,
      "Ġpt": 2897,
      "Ġanomal": 2898,
      "osin": 2899,
      "Ġgerm": 2900,
      "Ġfrequency": 2901,
      "Ġhepatic": 2902,
      "Ġstrategies": 2903,
      "Ġchallenge": 2904,
      "Ġscientific": 2905,
      "Ġhalf": 2906,
      "ii": 2907,
      "ls": 2908,
      "Ġten": 2909,
      "Ġinn": 2910,
      "asion": 2911,
      "uria": 2912,
      "ternal": 2913,
      "Ġaction": 2914,
      "Ġdetected": 2915,
      "Ġinitially": 2916,
      "Ġdementi": 2917,
      "Ġswelling": 2918,
      "Ġphenomen": 2919,
      "Ġsignaling": 2920,
      "ception": 2921,
      "ower": 2922,
      "ococc": 2923,
      "Ġseries": 2924,
      "Ġinterventions": 2925,
      "Ġextremely": 2926,
      "bular": 2927,
      "Ġaortic": 2928,
      "Ġfast": 2929,
      "Ġhar": 2930,
      "Ġcomm": 2931,
      "Ġ2006": 2932,
      "Ġgland": 2933,
      "psis": 2934,
      "Ġmetastases": 2935,
      "Ġsaf": 2936,
      "ength": 2937,
      "Ġterms": 2938,
      "oz": 2939,
      "rit": 2940,
      "inct": 2941,
      "Ġbronch": 2942,
      "osome": 2943,
      "oglob": 2944,
      "Ġ36": 2945,
      "Ġhealthcare": 2946,
      "Ġcorrel": 2947,
      "raction": 2948,
      "Ġuter": 2949,
      "Ġperson": 2950,
      "Ġreactions": 2951,
      "Ġvalue": 2952,
      "Ġfacil": 2953,
      "Ġrelease": 2954,
      "Ġsynthesis": 2955,
      "odontic": 2956,
      "Ġkorea": 2957,
      "Ġdocumented": 2958,
      "pati": 2959,
      "yes": 2960,
      "Ġide": 2961,
      "Ġfung": 2962,
      "icular": 2963,
      "Ġvag": 2964,
      "Ġneon": 2965,
      "orect": 2966,
      "Ġdetail": 2967,
      "Ġairway": 2968,
      "Ġsubstanti": 2969,
      "Ġaccumulation": 2970,
      "Ġsubtyp": 2971,
      "Ġvolume": 2972,
      "Ġdementia": 2973,
      "Ġtable": 2974,
      "Ġdri": 2975,
      "omer": 2976,
      "vered": 2977,
      "Ġconst": 2978,
      "Ġsepsis": 2979,
      "Ġmetal": 2980,
      "Ġwhether": 2981,
      "Ġvision": 2982,
      "Ġpersons": 2983,
      "Ġrapidly": 2984,
      "Ġmodif": 2985,
      "Ġauthors": 2986,
      "yle": 2987,
      "erior": 2988,
      "Ġadren": 2989,
      "Ġleg": 2990,
      "Ġspine": 2991,
      "ageal": 2992,
      "Ġmax": 2993,
      "Ġmake": 2994,
      "Ġques": 2995,
      "Ġeduc": 2996,
      "Ġdetermine": 2997,
      "Ġcapacity": 2998,
      "otype": 2999,
      "Ġischemic": 3000,
      "ochemical": 3001,
      "Ġpros": 3002,
      "opt": 3003,
      "ogens": 3004,
      "Ġinfarc": 3005,
      "Ġscale": 3006,
      "Ġfacial": 3007,
      "Ġinstitute": 3008,
      "Ġreceived": 3009,
      "Ġspectrum": 3010,
      "plasia": 3011,
      "Ġknee": 3012,
      "bal": 3013,
      "Ġantic": 3014,
      "Ġhb": 3015,
      "Ġagent": 3016,
      "Ġresearc": 3017,
      "Ġclassification": 3018,
      "Ġdoes": 3019,
      "Ġsubsequent": 3020,
      "Ġsafety": 3021,
      "vascular": 3022,
      "Ġdu": 3023,
      "Ġwestern": 3024,
      "Ġprote": 3025,
      "Ġacross": 3026,
      "Ġwhite": 3027,
      "Ġsepar": 3028,
      "Ġprem": 3029,
      "Ġspe": 3030,
      "Ġregulation": 3031,
      "Ġ65": 3032,
      "Ġapplied": 3033,
      "Ġ2013": 3034,
      "Ġgrad": 3035,
      "Ġeconomic": 3036,
      "Ġhelp": 3037,
      "Ġdegree": 3038,
      "Ġlinked": 3039,
      "Ġhcv": 3040,
      "Ġparamet": 3041,
      "gor": 3042,
      "Ġdyn": 3043,
      "Ġge": 3044,
      "thal": 3045,
      "Ġker": 3046,
      "Ġdiff": 3047,
      "Ġ2000": 3048,
      "Ġ2003": 3049,
      "Ġdistinct": 3050,
      "Ġpsychological": 3051,
      "Ġrecommended": 3052,
      "Ġinfluenza": 3053,
      "for": 3054,
      "Ġdid": 3055,
      "Ġrecon": 3056,
      "Ġhistological": 3057,
      "Ġseverity": 3058,
      "Ġdatab": 3059,
      "Ġlimit": 3060,
      "Ġgraft": 3061,
      "arcoma": 3062,
      "Ġadi": 3063,
      "Ġdate": 3064,
      "Ġlumb": 3065,
      "ury": 3066,
      "Ġexpl": 3067,
      "Ġresour": 3068,
      "Ġindust": 3069,
      "Ġselected": 3070,
      "Ġsolid": 3071,
      "Ġcosts": 3072,
      "Ġbiopsy": 3073,
      "Ġadolesc": 3074,
      "Ġtuberculosis": 3075,
      "auc": 3076,
      "Ġsqu": 3077,
      "Ġlat": 3078,
      "Ġdefic": 3079,
      "Ġadhes": 3080,
      "Ġ46": 3081,
      "Ġcarri": 3082,
      "Ġimprovement": 3083,
      "Ġfemales": 3084,
      "Ġadditional": 3085,
      "fact": 3086,
      "me": 3087,
      "orph": 3088,
      "ars": 3089,
      "Ġ22": 3090,
      "Ġcontact": 3091,
      "Ġaccomp": 3092,
      "ptomatic": 3093,
      "Ġcolle": 3094,
      "Ġretro": 3095,
      "Ġlipid": 3096,
      "Ġaccompan": 3097,
      "upt": 3098,
      "orption": 3099,
      "Ġbasis": 3100,
      "cemia": 3101,
      "Ġstages": 3102,
      "Ġbeg": 3103,
      "Ġneu": 3104,
      "Ġpathology": 3105,
      "Ġproduced": 3106,
      "Ġcontribute": 3107,
      "Ġconsiderable": 3108,
      "Ġpolymer": 3109,
      "Ġaggressive": 3110,
      "Ġultrasound": 3111,
      "Ġnecessary": 3112,
      "by": 3113,
      "gf": 3114,
      "Ġskeletal": 3115,
      "Ġdil": 3116,
      "Ġful": 3117,
      "Ġexternal": 3118,
      "Ġunit": 3119,
      "Ġrecru": 3120,
      "Ġgeneration": 3121,
      "tity": 3122,
      "Ġsample": 3123,
      "Ġcopd": 3124,
      "Ġrecurrence": 3125,
      "rhea": 3126,
      "ling": 3127,
      "yg": 3128,
      "Ġmir": 3129,
      "Ġfore": 3130,
      "Ġview": 3131,
      "Ġhearing": 3132,
      "Ġmandi": 3133,
      "Ġdetect": 3134,
      "Ġsimple": 3135,
      "Ġsources": 3136,
      "Ġheterogen": 3137,
      "Ġasymptomatic": 3138,
      "lor": 3139,
      "Ġhip": 3140,
      "Ġnm": 3141,
      "Ġasth": 3142,
      "Ġvary": 3143,
      "Ġrecover": 3144,
      "Ġcord": 3145,
      "ophys": 3146,
      "ximal": 3147,
      "Ġissue": 3148,
      "Ġvenous": 3149,
      "Ġperiodontal": 3150,
      "Ġpredominant": 3151,
      "loc": 3152,
      "sa": 3153,
      "Ġple": 3154,
      "Ġport": 3155,
      "Ġpse": 3156,
      "Ġdig": 3157,
      "tically": 3158,
      "phyl": 3159,
      "Ġlear": 3160,
      "ives": 3161,
      "Ġprinc": 3162,
      "formation": 3163,
      "Ġpathways": 3164,
      "Ġlimb": 3165,
      "Ġsensitivity": 3166,
      "annel": 3167,
      "Ġcvd": 3168,
      "Ġdistribution": 3169,
      "Ġcommitte": 3170,
      "yth": 3171,
      "here": 3172,
      "Ġoct": 3173,
      "Ġlit": 3174,
      "Ġtoler": 3175,
      "Ġnit": 3176,
      "Ġgain": 3177,
      "Ġsurge": 3178,
      "Ġmeans": 3179,
      "Ġsensory": 3180,
      "Ġinfluence": 3181,
      "Ġtempor": 3182,
      "Ġcatheter": 3183,
      "Ġpseud": 3184,
      "ire": 3185,
      "ture": 3186,
      "Ġmight": 3187,
      "Ġdial": 3188,
      "Ġdensity": 3189,
      "oster": 3190,
      "ache": 3191,
      "Ġthick": 3192,
      "Ġranging": 3193,
      "Ġchannel": 3194,
      "Ġmaking": 3195,
      "ergic": 3196,
      "Ġarterial": 3197,
      "cepted": 3198,
      "Ġenzyme": 3199,
      "Ġachieve": 3200,
      "nia": 3201,
      "utions": 3202,
      "Ġion": 3203,
      "Ġproj": 3204,
      "Ġendoscopic": 3205,
      "Ġpathway": 3206,
      "Ġorganisms": 3207,
      "Ġelectro": 3208,
      "Ġdetermined": 3209,
      "Ġtesting": 3210,
      "Ġdevices": 3211,
      "Ġiii": 3212,
      "Ġvariable": 3213,
      "Ġbenefits": 3214,
      "Ġinfarction": 3215,
      "Ġsud": 3216,
      "Ġdenti": 3217,
      "Ġlength": 3218,
      "Ġgold": 3219,
      "ocar": 3220,
      "Ġaccepted": 3221,
      "ember": 3222,
      "Ġcand": 3223,
      "Ġpresents": 3224,
      "Ġ2002": 3225,
      "Ġpoint": 3226,
      "Ġattem": 3227,
      "Ġsafe": 3228,
      "Ġnuclear": 3229,
      "Ġexcessive": 3230,
      "Ġbalance": 3231,
      "orectal": 3232,
      "19": 3233,
      "pro": 3234,
      "ta": 3235,
      "osal": 3236,
      "cephal": 3237,
      "Ġproduce": 3238,
      "Ġexpected": 3239,
      "Ġsinus": 3240,
      "Ġblock": 3241,
      "Ġcysts": 3242,
      "Ġcandid": 3243,
      "ah": 3244,
      "pass": 3245,
      "alities": 3246,
      "Ġfer": 3247,
      "Ġpropor": 3248,
      "Ġchain": 3249,
      "char": 3250,
      "agen": 3251,
      "Ġtherapies": 3252,
      "Ġupon": 3253,
      "tility": 3254,
      "Ġreactive": 3255,
      "Ġcytokines": 3256,
      "Ġplasm": 3257,
      "cepti": 3258,
      "Ġpredict": 3259,
      "Ġcorneal": 3260,
      "Ġtraining": 3261,
      "adi": 3262,
      "Ġpass": 3263,
      "Ġinstr": 3264,
      "Ġeyes": 3265,
      "acial": 3266,
      "imens": 3267,
      "Ġhen": 3268,
      "Ġscan": 3269,
      "Ġothers": 3270,
      "Ġglauc": 3271,
      "Ġdiar": 3272,
      "Ġvein": 3273,
      "Ġconcentration": 3274,
      "Ġnearly": 3275,
      "Ġchoice": 3276,
      "rim": 3277,
      "inated": 3278,
      "alysis": 3279,
      "Ġfull": 3280,
      "uls": 3281,
      "acic": 3282,
      "Ġ28": 3283,
      "Ġexhib": 3284,
      "Ġbio": 3285,
      "Ġamount": 3286,
      "Ġantigen": 3287,
      "Ġoptions": 3288,
      "Ġmemory": 3289,
      "Ġcontinuous": 3290,
      "Ġpneumonia": 3291,
      "Ġsegment": 3292,
      "Ġradical": 3293,
      "Ġmil": 3294,
      "Ġdest": 3295,
      "ude": 3296,
      "Ġrise": 3297,
      "olester": 3298,
      "Ġslow": 3299,
      "Ġexperimental": 3300,
      "Ġprospective": 3301,
      "ptic": 3302,
      "Ġcate": 3303,
      "unt": 3304,
      "Ġdeb": 3305,
      "Ġdispl": 3306,
      "Ġspread": 3307,
      "Ġsubs": 3308,
      "Ġcombined": 3309,
      "Ġsuscepti": 3310,
      "Ġenzymes": 3311,
      "tides": 3312,
      "Ġconcentr": 3313,
      "Ġeuropean": 3314,
      "Ġvessels": 3315,
      "Ġprolonged": 3316,
      "ool": 3317,
      "Ġcre": 3318,
      "Ġmyel": 3319,
      "Ġden": 3320,
      "Ġstatis": 3321,
      "otomy": 3322,
      "Ġade": 3323,
      "Ġneural": 3324,
      "Ġrati": 3325,
      "Ġinfants": 3326,
      "Ġmostly": 3327,
      "obacter": 3328,
      "Ġmalignancies": 3329,
      "Ġrestric": 3330,
      "Ġoperative": 3331,
      "Ġreplacement": 3332,
      "Ġpelvic": 3333,
      "Ġlumbar": 3334,
      "Ġasthma": 3335,
      "Ġsudden": 3336,
      "16": 3337,
      "Ġib": 3338,
      "ocomp": 3339,
      "Ġacet": 3340,
      "rix": 3341,
      "Ġplate": 3342,
      "Ġobtain": 3343,
      "nea": 3344,
      "ogenous": 3345,
      "Ġuseful": 3346,
      "Ġobese": 3347,
      "Ġprofession": 3348,
      "Ġatherosclerosis": 3349,
      "ci": 3350,
      "pa": 3351,
      "Ġcruc": 3352,
      "Ġla": 3353,
      "oxid": 3354,
      "Ġmedications": 3355,
      "Ġneurons": 3356,
      "Ġpersistent": 3357,
      "Ġlaser": 3358,
      "Ġverteb": 3359,
      "eness": 3360,
      "Ġsn": 3361,
      "Ġstability": 3362,
      "Ġvers": 3363,
      "Ġexpressed": 3364,
      "Ġinhibitors": 3365,
      "day": 3366,
      "pread": 3367,
      "Ġaverage": 3368,
      "Ġcore": 3369,
      "Ġcry": 3370,
      "Ġcystic": 3371,
      "Ġwides": 3372,
      "Ġface": 3373,
      "Ġflex": 3374,
      "astic": 3375,
      "Ġhours": 3376,
      "Ġconcept": 3377,
      "Ġimplic": 3378,
      "pping": 3379,
      "Ġintake": 3380,
      "Ġgenomic": 3381,
      "Ġobstruc": 3382,
      "times": 3383,
      "Ġgoal": 3384,
      "Ġdiverse": 3385,
      "Ġreproduc": 3386,
      "Ġwidespread": 3387,
      "Ġcns": 3388,
      "eral": 3389,
      "Ġdown": 3390,
      "ats": 3391,
      "Ġfrag": 3392,
      "oses": 3393,
      "aces": 3394,
      "Ġstar": 3395,
      "oding": 3396,
      "Ġsept": 3397,
      "Ġnever": 3398,
      "Ġsubstr": 3399,
      "Ġevolution": 3400,
      "Ġstudents": 3401,
      "Ġemplo": 3402,
      "Ġsuperior": 3403,
      "Ġglyc": 3404,
      "ocarcin": 3405,
      "18": 3406,
      "bl": 3407,
      "Ġcp": 3408,
      "Ġanemia": 3409,
      "Ġchina": 3410,
      "Ġinfilt": 3411,
      "Ġplace": 3412,
      "Ġemph": 3413,
      "Ġ75": 3414,
      "pects": 3415,
      "Ġsymptomatic": 3416,
      "Ġindicated": 3417,
      "Ġdirectly": 3418,
      "io": 3419,
      "iary": 3420,
      "yc": 3421,
      "Ġpower": 3422,
      "Ġmening": 3423,
      "Ġrupt": 3424,
      "Ġabove": 3425,
      "Ġtypical": 3426,
      "Ġ2001": 3427,
      "tenance": 3428,
      "Ġmaintenance": 3429,
      "Ġmove": 3430,
      "Ġlocation": 3431,
      "Ġearli": 3432,
      "Ġcommunication": 3433,
      "Ġpatterns": 3434,
      "Ġanatom": 3435,
      "mediate": 3436,
      "Ġthreatening": 3437,
      "Ġweakness": 3438,
      "25": 3439,
      "Ġcoun": 3440,
      "Ġfas": 3441,
      "Ġplants": 3442,
      "Ġcoh": 3443,
      "Ġpathogens": 3444,
      "oidal": 3445,
      "Ġlifest": 3446,
      "Ġsometimes": 3447,
      "Ġinteraction": 3448,
      "Ġnetwor": 3449,
      "Ġnasal": 3450,
      "Ġkinase": 3451,
      "patient": 3452,
      "Ġcommittee": 3453,
      "ux": 3454,
      "istic": 3455,
      "Ġmis": 3456,
      "Ġech": 3457,
      "atives": 3458,
      "Ġ26": 3459,
      "Ġhair": 3460,
      "Ġable": 3461,
      "Ġdepos": 3462,
      "Ġretros": 3463,
      "obic": 3464,
      "Ġheadache": 3465,
      "Ġdefect": 3466,
      "Ġsexual": 3467,
      "Ġbasic": 3468,
      "Ġmoderate": 3469,
      "Ġreason": 3470,
      "Ġreasons": 3471,
      "Ġreducing": 3472,
      "Ġstrains": 3473,
      "Ġdialysis": 3474,
      "ining": 3475,
      "Ġhd": 3476,
      "Ġ37": 3477,
      "Ġarch": 3478,
      "Ġorganic": 3479,
      "Ġchalleng": 3480,
      "Ġgranul": 3481,
      "Ġattributed": 3482,
      "Ġglaucoma": 3483,
      "ss": 3484,
      "ets": 3485,
      "Ġdistal": 3486,
      "Ġonc": 3487,
      "Ġalone": 3488,
      "ills": 3489,
      "Ġoccurred": 3490,
      "Ġnons": 3491,
      "Ġparen": 3492,
      "Ġmaternal": 3493,
      "Ġstimulation": 3494,
      "rected": 3495,
      "Ġintracellular": 3496,
      "Ġextracellular": 3497,
      "Ġafrica": 3498,
      "Ġremoval": 3499,
      "Ġanesthesia": 3500,
      "otics": 3501,
      "hest": 3502,
      "Ġsouth": 3503,
      "ank": 3504,
      "Ġgre": 3505,
      "Ġneut": 3506,
      "Ġentity": 3507,
      "Ġpartial": 3508,
      "Ġcou": 3509,
      "cellular": 3510,
      "Ġculture": 3511,
      "40": 3512,
      "mal": 3513,
      "onding": 3514,
      "Ġreach": 3515,
      "Ġlob": 3516,
      "iable": 3517,
      "Ġseiz": 3518,
      "chym": 3519,
      "Ġ45": 3520,
      "Ġtransport": 3521,
      "Ġactivated": 3522,
      "Ġcycl": 3523,
      "Ġdevelopmental": 3524,
      "Ġcomplicated": 3525,
      "Ġneeded": 3526,
      "Ġevaluated": 3527,
      "Ġacids": 3528,
      "Ġrelevant": 3529,
      "Ġpcr": 3530,
      "Ġmelanoma": 3531,
      "Ġvaccin": 3532,
      "Ġadrenal": 3533,
      "hing": 3534,
      "ze": 3535,
      "Ġtool": 3536,
      "amous": 3537,
      "Ġprepar": 3538,
      "Ġcontamin": 3539,
      "Ġago": 3540,
      "pected": 3541,
      "Ġmatrix": 3542,
      "Ġdiscovery": 3543,
      "Ġcalcium": 3544,
      "Ġbarri": 3545,
      "Ġmonitoring": 3546,
      "Ġlittle": 3547,
      "17": 3548,
      "upp": 3549,
      "enia": 3550,
      "Ġther": 3551,
      "Ġantim": 3552,
      "ane": 3553,
      "raw": 3554,
      "Ġaspects": 3555,
      "Ġstable": 3556,
      "opa": 3557,
      "Ġwhat": 3558,
      "ipid": 3559,
      "Ġthrombosis": 3560,
      "Ġannually": 3561,
      "pv": 3562,
      "sis": 3563,
      "Ġoff": 3564,
      "Ġfist": 3565,
      "usal": 3566,
      "quit": 3567,
      "Ġunus": 3568,
      "Ġmales": 3569,
      "Ġpopular": 3570,
      "Ġiron": 3571,
      "opathic": 3572,
      "Ġviruses": 3573,
      "Ġencoun": 3574,
      "Ġchromosome": 3575,
      "Ġbmi": 3576,
      "Ġinstitutional": 3577,
      "Ġrecovery": 3578,
      "cal": 3579,
      "nic": 3580,
      "rins": 3581,
      "yst": 3582,
      "titis": 3583,
      "Ġpan": 3584,
      "Ġreal": 3585,
      "Ġnurs": 3586,
      "Ġging": 3587,
      "Ġforce": 3588,
      "Ġconsent": 3589,
      "Ġdepending": 3590,
      "Ġpathophys": 3591,
      "Ġcycle": 3592,
      "Ġimmunos": 3593,
      "Ġavoid": 3594,
      "Ġadmission": 3595,
      "Ġpaper": 3596,
      "Ġhighest": 3597,
      "ethyl": 3598,
      "Ġscience": 3599,
      "Ġdietary": 3600,
      "Ġaccounting": 3601,
      "iety": 3602,
      "oul": 3603,
      "rup": 3604,
      "Ġhcc": 3605,
      "imer": 3606,
      "Ġdeep": 3607,
      "ils": 3608,
      "Ġ27": 3609,
      "Ġrot": 3610,
      "Ġoccup": 3611,
      "Ġspecif": 3612,
      "Ġcentury": 3613,
      "Ġmicrob": 3614,
      "Ġdifferences": 3615,
      "Ġtrial": 3616,
      "Ġsuccessfully": 3617,
      "Ġconsumption": 3618,
      "Ġdivided": 3619,
      "iasis": 3620,
      "trans": 3621,
      "Ġsed": 3622,
      "Ġspl": 3623,
      "Ġread": 3624,
      "olved": 3625,
      "iring": 3626,
      "rill": 3627,
      "Ġhaem": 3628,
      "Ġimage": 3629,
      "Ġadap": 3630,
      "Ġatrial": 3631,
      "Ġenti": 3632,
      "Ġcomposed": 3633,
      "feren": 3634,
      "Ġexposed": 3635,
      "Ġamy": 3636,
      "Ġinser": 3637,
      "Ġinsuf": 3638,
      "Ġfluor": 3639,
      "Ġappearance": 3640,
      "Ġembry": 3641,
      "Ġmodern": 3642,
      "Ġrather": 3643,
      "Ġpeptide": 3644,
      "Ġresearchers": 3645,
      "Ġtas": 3646,
      "ened": 3647,
      "Ġmd": 3648,
      "ings": 3649,
      "ulate": 3650,
      "Ġtreating": 3651,
      "Ġ196": 3652,
      "Ġinduce": 3653,
      "Ġneurode": 3654,
      "Ġdouble": 3655,
      "Ġexperiments": 3656,
      "Ġsubsequently": 3657,
      "oprotein": 3658,
      "Ġindependent": 3659,
      "Ġunusual": 3660,
      "Ġaer": 3661,
      "Ġaug": 3662,
      "Ġcas": 3663,
      "Ġsem": 3664,
      "Ġwal": 3665,
      "Ġreplic": 3666,
      "Ġhs": 3667,
      "Ġgir": 3668,
      "opor": 3669,
      "otoxic": 3670,
      "geal": 3671,
      "Ġimm": 3672,
      "Ġ2014": 3673,
      "Ġfibrosis": 3674,
      "Ġbelong": 3675,
      "Ġintracranial": 3676,
      "Ġaccurate": 3677,
      "Ġphenomenon": 3678,
      "Ġparameters": 3679,
      "Ġlifestyle": 3680,
      "kes": 3681,
      "ton": 3682,
      "Ġpi": 3683,
      "Ġtoget": 3684,
      "oden": 3685,
      "Ġchol": 3686,
      "tiveness": 3687,
      "Ġcolorectal": 3688,
      "Ġautosomal": 3689,
      "Ġretin": 3690,
      "Ġradiotherapy": 3691,
      "Ġedema": 3692,
      "Ġtraumatic": 3693,
      "Ġrecommend": 3694,
      "Ġantibodies": 3695,
      "Ġdiffuse": 3696,
      "Ġlearning": 3697,
      "Ġtogether": 3698,
      "eti": 3699,
      "yed": 3700,
      "enosis": 3701,
      "Ġpy": 3702,
      "unding": 3703,
      "Ġconj": 3704,
      "Ġexplain": 3705,
      "Ġparts": 3706,
      "Ġplant": 3707,
      "weight": 3708,
      "Ġnumb": 3709,
      "Ġinvolve": 3710,
      "Ġapopt": 3711,
      "heless": 3712,
      "ontin": 3713,
      "Ġlocalized": 3714,
      "Ġreviewed": 3715,
      "Ġfatty": 3716,
      "Ġannual": 3717,
      "Ġeryt": 3718,
      "Ġlayer": 3719,
      "olesterol": 3720,
      "Ġway": 3721,
      "Ġfav": 3722,
      "Ġfusion": 3723,
      "ections": 3724,
      "Ġname": 3725,
      "oli": 3726,
      "sts": 3727,
      "Ġsearch": 3728,
      "ostasis": 3729,
      "izes": 3730,
      "ologists": 3731,
      "Ġshock": 3732,
      "Ġ57": 3733,
      "Ġbiology": 3734,
      "Ġendocrine": 3735,
      "nition": 3736,
      "Ġshows": 3737,
      "Ġmeasures": 3738,
      "Ġfatal": 3739,
      "Ġexperienced": 3740,
      "Ġischemia": 3741,
      "Ġcarbon": 3742,
      "Ġodont": 3743,
      "Ġpigment": 3744,
      "Ġcrucial": 3745,
      "Ġerythem": 3746,
      "Ġss": 3747,
      "Ġhard": 3748,
      "active": 3749,
      "Ġstent": 3750,
      "resp": 3751,
      "Ġviv": 3752,
      "Ġcholesterol": 3753,
      "Ġmicroscop": 3754,
      "Ġimproving": 3755,
      "Ġmedication": 3756,
      "ensional": 3757,
      "Ġevaluate": 3758,
      "Ġrecognition": 3759,
      "Ġintroduction": 3760,
      "Ġconsequences": 3761,
      "Ġleukemia": 3762,
      "Ġheterogeneous": 3763,
      "Ġratio": 3764,
      "23": 3765,
      "cr": 3766,
      "ias": 3767,
      "Ġinduc": 3768,
      "Ġreh": 3769,
      "Ġect": 3770,
      "Ġeosin": 3771,
      "uration": 3772,
      "encies": 3773,
      "Ġju": 3774,
      "Ġwhole": 3775,
      "Ġoptical": 3776,
      "Ġmethyl": 3777,
      "Ġmutation": 3778,
      "Ġcharacteristic": 3779,
      "Ġarticle": 3780,
      "Ġmigration": 3781,
      "Ġalcohol": 3782,
      "Ġhence": 3783,
      "bit": 3784,
      "gue": 3785,
      "mark": 3786,
      "va": 3787,
      "Ġbond": 3788,
      "Ġfill": 3789,
      "irus": 3790,
      "Ġrich": 3791,
      "Ġens": 3792,
      "Ġscar": 3793,
      "Ġemo": 3794,
      "Ġquan": 3795,
      "rectomy": 3796,
      "Ġsequences": 3797,
      "Ġfocused": 3798,
      "ochond": 3799,
      "Ġarthritis": 3800,
      "aryngeal": 3801,
      "Ġalterations": 3802,
      "Ġrandomized": 3803,
      "Ġdiarrhea": 3804,
      "Ġadequate": 3805,
      "Ġchallenging": 3806,
      "rical": 3807,
      "Ġaw": 3808,
      "enic": 3809,
      "Ġpac": 3810,
      "orbid": 3811,
      "Ġmarg": 3812,
      "itable": 3813,
      "Ġgest": 3814,
      "Ġrhe": 3815,
      "phthal": 3816,
      "athyroid": 3817,
      "Ġroles": 3818,
      "achment": 3819,
      "rophic": 3820,
      "Ġmucosa": 3821,
      "Ġmacroph": 3822,
      "Ġcontains": 3823,
      "Ġadenocarcin": 3824,
      "Ġaspir": 3825,
      "Ġobstructive": 3826,
      "Ġimmunosupp": 3827,
      "gly": 3828,
      "rant": 3829,
      "uity": 3830,
      "ert": 3831,
      "Ġinh": 3832,
      "Ġbreat": 3833,
      "Ġrequ": 3834,
      "ulted": 3835,
      "otrop": 3836,
      "ada": 3837,
      "Ġperitoneal": 3838,
      "Ġ48": 3839,
      "Ġhealing": 3840,
      "Ġextent": 3841,
      "Ġamino": 3842,
      "cribed": 3843,
      "Ġlargely": 3844,
      "Ġdominant": 3845,
      "Ġepidemiological": 3846,
      "Ġprotocol": 3847,
      "Ġcarried": 3848,
      "Ġaccompanied": 3849,
      "Ġconcentrations": 3850,
      "Ġanatomical": 3851,
      "Ġspecifically": 3852,
      "Ġanx": 3853,
      "Ġalb": 3854,
      "time": 3855,
      "Ġjan": 3856,
      "Ġendomet": 3857,
      "Ġhistopath": 3858,
      "Ġcenters": 3859,
      "Ġnecrosis": 3860,
      "Ġneeds": 3861,
      "Ġinteres": 3862,
      "okine": 3863,
      "Ġbehavi": 3864,
      "Ġservice": 3865,
      "Ġturn": 3866,
      "Ġfacilit": 3867,
      "Ġsquamous": 3868,
      "Ġcategor": 3869,
      "Ġretrospective": 3870,
      "bp": 3871,
      "Ġbillion": 3872,
      "Ġfd": 3873,
      "Ġtools": 3874,
      "raz": 3875,
      "uture": 3876,
      "plants": 3877,
      "Ġpreoperative": 3878,
      "Ġarising": 3879,
      "Ġconsists": 3880,
      "Ġinjection": 3881,
      "Ġherni": 3882,
      "Ġinformed": 3883,
      "Ġcataly": 3884,
      "Ġunderstood": 3885,
      "Ġerr": 3886,
      "Ġestablish": 3887,
      "Ġexclud": 3888,
      "Ġantibody": 3889,
      "Ġtaken": 3890,
      "Ġoptimal": 3891,
      "Ġnorth": 3892,
      "Ġduct": 3893,
      "Ġdegeneration": 3894,
      "Ġeducation": 3895,
      "Ġdatabase": 3896,
      "Ġdestruc": 3897,
      "Ġearlier": 3898,
      "ered": 3899,
      "rd": 3900,
      "uary": 3901,
      "Ġuro": 3902,
      "Ġaids": 3903,
      "Ġty": 3904,
      "Ġmouse": 3905,
      "Ġna": 3906,
      "Ġthin": 3907,
      "opic": 3908,
      "Ġvital": 3909,
      "ump": 3910,
      "Ġ29": 3911,
      "Ġonce": 3912,
      "Ġexcl": 3913,
      "Ġcatar": 3914,
      "Ġglobally": 3915,
      "Ġinvestigated": 3916,
      "self": 3917,
      "Ġregulatory": 3918,
      "Ġneoplasms": 3919,
      "Ġbehavioral": 3920,
      "Ġsurvey": 3921,
      "Ġesophageal": 3922,
      "Ġfamilies": 3923,
      "Ġdelayed": 3924,
      "Ġrehabil": 3925,
      "eds": 3926,
      "Ġlive": 3927,
      "Ġvom": 3928,
      "ella": 3929,
      "Ġ34": 3930,
      "Ġ38": 3931,
      "Ġnoted": 3932,
      "Ġregular": 3933,
      "Ġgram": 3934,
      "Ġmicroorgan": 3935,
      "Ġdepends": 3936,
      "Ġweek": 3937,
      "Ġissues": 3938,
      "Ġreconstruction": 3939,
      "Ġlimitations": 3940,
      "bac": 3941,
      "hs": 3942,
      "rated": 3943,
      "Ġbran": 3944,
      "Ġwound": 3945,
      "Ġga": 3946,
      "Ġconte": 3947,
      "Ġranges": 3948,
      "Ġtransmit": 3949,
      "apse": 3950,
      "Ġocclusion": 3951,
      "Ġrisks": 3952,
      "Ġidi": 3953,
      "flu": 3954,
      "Ġvalues": 3955,
      "Ġmeasured": 3956,
      "Ġsaliv": 3957,
      "Ġthoracic": 3958,
      "Ġfundament": 3959,
      "Ġbelieved": 3960,
      "bre": 3961,
      "tor": 3962,
      "zing": 3963,
      "Ġpet": 3964,
      "istered": 3965,
      "Ġfati": 3966,
      "icle": 3967,
      "Ġstenosis": 3968,
      "Ġvul": 3969,
      "umin": 3970,
      "ilateral": 3971,
      "Ġdecline": 3972,
      "Ġoverweight": 3973,
      "venous": 3974,
      "Ġmetabol": 3975,
      "Ġvect": 3976,
      "Ġelements": 3977,
      "Ġmembers": 3978,
      "Ġsubject": 3979,
      "Ġosteopor": 3980,
      "Ġappears": 3981,
      "Ġdermat": 3982,
      "Ġsclerosis": 3983,
      "Ġpredominantly": 3984,
      "Ġjanuary": 3985,
      "Ġophthal": 3986,
      "isions": 3987,
      "Ġbp": 3988,
      "osing": 3989,
      "Ġproximal": 3990,
      "Ġstre": 3991,
      "uting": 3992,
      "Ġprep": 3993,
      "portun": 3994,
      "Ġray": 3995,
      "Ġepile": 3996,
      "Ġ1999": 3997,
      "Ġfibro": 3998,
      "Ġsensitive": 3999,
      "Ġdesigned": 4000,
      "Ġcomplaints": 4001,
      "Ġdiscovered": 4002,
      "omatous": 4003,
      "Ġsecretion": 4004,
      "Ġphysicians": 4005,
      "Ġquestion": 4006,
      "Ġadolescents": 4007,
      "Ġreproductive": 4008,
      "Ġrupture": 4009,
      "Ġip": 4010,
      "Ġtn": 4011,
      "Ġcreat": 4012,
      "Ġsar": 4013,
      "Ġasia": 4014,
      "ocular": 4015,
      "Ġcomorbid": 4016,
      "Ġsurro": 4017,
      "Ġcaries": 4018,
      "Ġrespond": 4019,
      "Ġeffectiveness": 4020,
      "Ġfeature": 4021,
      "Ġopportun": 4022,
      "Ġmodalities": 4023,
      "Ġblind": 4024,
      "Ġabscess": 4025,
      "Ġdemand": 4026,
      "Ġcirrh": 4027,
      "Ġpathogenic": 4028,
      "Ġoxidative": 4029,
      "oglobin": 4030,
      "Ġproportion": 4031,
      "Ġanxiety": 4032,
      "gens": 4033,
      "pr": 4034,
      "Ġpoll": 4035,
      "Ġds": 4036,
      "any": 4037,
      "Ġgover": 4038,
      "pling": 4039,
      "Ġatyp": 4040,
      "Ġarise": 4041,
      "eling": 4042,
      "Ġcountry": 4043,
      "Ġ1990": 4044,
      "Ġtechnologies": 4045,
      "Ġallows": 4046,
      "Ġload": 4047,
      "Ġcircum": 4048,
      "Ġmarrow": 4049,
      "Ġhomeostasis": 4050,
      "Ġprincip": 4051,
      "tum": 4052,
      "Ġub": 4053,
      "Ġdl": 4054,
      "Ġtobac": 4055,
      "osp": 4056,
      "Ġventi": 4057,
      "Ġseem": 4058,
      "phosph": 4059,
      "ching": 4060,
      "Ġexpand": 4061,
      "Ġglomer": 4062,
      "Ġintravenous": 4063,
      "Ġabdomen": 4064,
      "Ġproviding": 4065,
      "Ġmacular": 4066,
      "Ġmarkers": 4067,
      "Ġultim": 4068,
      "Ġundergoing": 4069,
      "Ġantibiotics": 4070,
      "Ġadvantages": 4071,
      "Ġvomiting": 4072,
      "Ġfatigue": 4073,
      "Ġtobacco": 4074,
      "gs": 4075,
      "ha": 4076,
      "Ġtren": 4077,
      "Ġant": 4078,
      "Ġdop": 4079,
      "Ġdrain": 4080,
      "Ġnorm": 4081,
      "Ġdeform": 4082,
      "Ġrib": 4083,
      "izations": 4084,
      "Ġperman": 4085,
      "Ġpersonal": 4086,
      "Ġneuronal": 4087,
      "Ġdonor": 4088,
      "Ġneonatal": 4089,
      "Ġsubstantial": 4090,
      "app": 4091,
      "fac": 4092,
      "gia": 4093,
      "utive": 4094,
      "orb": 4095,
      "rolled": 4096,
      "rams": 4097,
      "Ġstra": 4098,
      "Ġstain": 4099,
      "Ġvaries": 4100,
      "Ġacuity": 4101,
      "illance": 4102,
      "Ġtransfer": 4103,
      "Ġhypoth": 4104,
      "angu": 4105,
      "Ġprocessing": 4106,
      "oblast": 4107,
      "Ġlonger": 4108,
      "Ġmatter": 4109,
      "Ġneoplasm": 4110,
      "Ġcohort": 4111,
      "Ġeosinophil": 4112,
      "Ġidiopathic": 4113,
      "Ġfundamental": 4114,
      "ban": 4115,
      "Ġdone": 4116,
      "icrob": 4117,
      "oplast": 4118,
      "resh": 4119,
      "Ġchor": 4120,
      "Ġresulted": 4121,
      "Ġdiamet": 4122,
      "Ġ55": 4123,
      "Ġeff": 4124,
      "Ġbiochemical": 4125,
      "Ġselective": 4126,
      "Ġinvestigation": 4127,
      "Ġmeasurement": 4128,
      "Ġschiz": 4129,
      "Ġconsequently": 4130,
      "Ġsurveillance": 4131,
      "Ġbenefit": 4132,
      "Ġplaque": 4133,
      "Ġepisodes": 4134,
      "Ġresources": 4135,
      "Ġtolerance": 4136,
      "Ġcontext": 4137,
      "icrobial": 4138,
      "35": 4139,
      "cence": 4140,
      "gl": 4141,
      "ipp": 4142,
      "Ġinher": 4143,
      "Ġmc": 4144,
      "ulf": 4145,
      "Ġalz": 4146,
      "Ġpercutaneous": 4147,
      "Ġelim": 4148,
      "Ġproduct": 4149,
      "Ġpsychiatric": 4150,
      "Ġdevice": 4151,
      "Ġsynthes": 4152,
      "ofacial": 4153,
      "Ġenhance": 4154,
      "Ġenhanced": 4155,
      "Ġdeficits": 4156,
      "Ġnumbers": 4157,
      "Ġcataract": 4158,
      "ik": 4159,
      "to": 4160,
      "heimer": 4161,
      "Ġbac": 4162,
      "Ġhyd": 4163,
      "Ġencephal": 4164,
      "Ġcontent": 4165,
      "Ġmeta": 4166,
      "Ġcorresp": 4167,
      "Ġsyndromes": 4168,
      "Ġhospitals": 4169,
      "Ġarteries": 4170,
      "Ġpredis": 4171,
      "Ġtargets": 4172,
      "Ġoperation": 4173,
      "Ġvitro": 4174,
      "versible": 4175,
      "Ġmediast": 4176,
      "Ġmitochond": 4177,
      "Ġuterine": 4178,
      "Ġmovements": 4179,
      "Ġrequiring": 4180,
      "Ġrehabilitation": 4181,
      "Ġalzheimer": 4182,
      "Ġbu": 4183,
      "Ġbones": 4184,
      "Ġwar": 4185,
      "Ġfron": 4186,
      "Ġlys": 4187,
      "Ġgas": 4188,
      "Ġstabil": 4189,
      "ots": 4190,
      "Ġimages": 4191,
      "Ġwhose": 4192,
      "pled": 4193,
      "Ġros": 4194,
      "ophren": 4195,
      "Ġbene": 4196,
      "Ġattrac": 4197,
      "Ġpulp": 4198,
      "Ġregional": 4199,
      "Ġmembran": 4200,
      "Ġpurpose": 4201,
      "Ġboard": 4202,
      "Ġsubtypes": 4203,
      "Ġduoden": 4204,
      "Ġcryst": 4205,
      "Ġamyloid": 4206,
      "36": 4207,
      "eed": 4208,
      "lipid": 4209,
      "oon": 4210,
      "estic": 4211,
      "Ġfif": 4212,
      "Ġeb": 4213,
      "acer": 4214,
      "ocl": 4215,
      "Ġshif": 4216,
      "Ġcoord": 4217,
      "Ġages": 4218,
      "Ġunderg": 4219,
      "Ġbeta": 4220,
      "Ġampl": 4221,
      "Ġorganism": 4222,
      "Ġoption": 4223,
      "Ġhypergly": 4224,
      "Ġimmunode": 4225,
      "Ġcollagen": 4226,
      "Ġvalid": 4227,
      "Ġexcision": 4228,
      "Ġmarked": 4229,
      "Ġschool": 4230,
      "Ġtraditionally": 4231,
      "olytic": 4232,
      "Ġrepeated": 4233,
      "Ġown": 4234,
      "Ġmixed": 4235,
      "Ġfetal": 4236,
      "Ġpreparation": 4237,
      "Ġrheum": 4238,
      "Ġefforts": 4239,
      "ches": 4240,
      "hydro": 4241,
      "otid": 4242,
      "tt": 4243,
      "ese": 4244,
      "Ġgon": 4245,
      "Ġitself": 4246,
      "Ġenl": 4247,
      "hern": 4248,
      "Ġ32": 4249,
      "Ġintensity": 4250,
      "Ġtransition": 4251,
      "Ġexpect": 4252,
      "Ġlargest": 4253,
      "Ġanalys": 4254,
      "Ġdysp": 4255,
      "Ġangle": 4256,
      "Ġtoxicity": 4257,
      "Ġafrican": 4258,
      "Ġdefinition": 4259,
      "Ġfixation": 4260,
      "Ġbegin": 4261,
      "location": 4262,
      "Ġencountered": 4263,
      "Ġneurodegen": 4264,
      "Ġschizophren": 4265,
      "itions": 4266,
      "kd": 4267,
      "la": 4268,
      "Ġcam": 4269,
      "Ġcort": 4270,
      "alian": 4271,
      "Ġnam": 4272,
      "Ġconc": 4273,
      "Ġcompression": 4274,
      "Ġpreserv": 4275,
      "Ġworking": 4276,
      "Ġvariations": 4277,
      "Ġprograms": 4278,
      "Ġproducing": 4279,
      "Ġanalges": 4280,
      "Ġcontinues": 4281,
      "Ġdegrad": 4282,
      "Ġbasal": 4283,
      "Ġnutrition": 4284,
      "Ġconservative": 4285,
      "Ġfoot": 4286,
      "Ġattemp": 4287,
      "Ġantimicrobial": 4288,
      "Ġvivo": 4289,
      "Ġadenocarcinoma": 4290,
      "Ġmicroorganisms": 4291,
      "break": 4292,
      "oplasty": 4293,
      "70": 4294,
      "fold": 4295,
      "herence": 4296,
      "Ġren": 4297,
      "usive": 4298,
      "unk": 4299,
      "Ġstom": 4300,
      "amics": 4301,
      "Ġuncle": 4302,
      "Ġaff": 4303,
      "Ġcorrect": 4304,
      "Ġoutpatient": 4305,
      "Ġ2015": 4306,
      "odyn": 4307,
      "Ġmicrobi": 4308,
      "Ġfemoral": 4309,
      "Ġurban": 4310,
      "Ġextremities": 4311,
      "Ġcompletely": 4312,
      "like": 4313,
      "Ġresidual": 4314,
      "Ġobjective": 4315,
      "Ġdestruction": 4316,
      "Ġcirrhosis": 4317,
      "Ġatypical": 4318,
      "gu": 4319,
      "ier": 4320,
      "Ġtake": 4321,
      "Ġinduction": 4322,
      "ocal": 4323,
      "Ġoutbreak": 4324,
      "Ġsequencing": 4325,
      "Ġolig": 4326,
      "Ġjoints": 4327,
      "Ġsynthetic": 4328,
      "Ġclinicians": 4329,
      "Ġdissection": 4330,
      "Ġchallenges": 4331,
      "Ġcomposition": 4332,
      "Ġvascul": 4333,
      "Ġcsf": 4334,
      "Ġrecruited": 4335,
      "Ġstarted": 4336,
      "Ġgovern": 4337,
      "Ġunclear": 4338,
      "rehen": 4339,
      "Ġsac": 4340,
      "Ġmiss": 4341,
      "acent": 4342,
      "Ġaccept": 4343,
      "Ġsuic": 4344,
      "Ġrecor": 4345,
      "Ġassum": 4346,
      "Ġart": 4347,
      "Ġefficient": 4348,
      "Ġoccasion": 4349,
      "atically": 4350,
      "Ġspecimens": 4351,
      "anged": 4352,
      "Ġglands": 4353,
      "Ġcomplement": 4354,
      "Ġcollection": 4355,
      "Ġpromising": 4356,
      "Ġfocal": 4357,
      "Ġamerica": 4358,
      "Ġdissem": 4359,
      "Ġdimensional": 4360,
      "Ġplaced": 4361,
      "Ġesophag": 4362,
      "Ġmodified": 4363,
      "Ġfully": 4364,
      "Ġmandibular": 4365,
      "Ġsurgeons": 4366,
      "Ġfistula": 4367,
      "Ġemotional": 4368,
      "Ġsurrounding": 4369,
      "Ġpermanent": 4370,
      "ka": 4371,
      "rig": 4372,
      "Ġsum": 4373,
      "Ġfit": 4374,
      "Ġld": 4375,
      "Ġstrom": 4376,
      "ogly": 4377,
      "rium": 4378,
      "Ġalways": 4379,
      "Ġ31": 4380,
      "Ġabund": 4381,
      "Ġaccid": 4382,
      "Ġregen": 4383,
      "Ġrob": 4384,
      "Ġroom": 4385,
      "Ġimplement": 4386,
      "Ġ68": 4387,
      "Ġbile": 4388,
      "Ġpathologic": 4389,
      "Ġfunctioning": 4390,
      "Ġoptic": 4391,
      "Ġ1995": 4392,
      "Ġurine": 4393,
      "Ġpancreas": 4394,
      "Ġconsequence": 4395,
      "Ġauthor": 4396,
      "Ġantibiotic": 4397,
      "ococcus": 4398,
      "Ġapoptosis": 4399,
      "Ġdiameter": 4400,
      "dia": 4401,
      "fts": 4402,
      "Ġdog": 4403,
      "Ġns": 4404,
      "oderm": 4405,
      "Ġresolution": 4406,
      "Ġscore": 4407,
      "Ġantioxid": 4408,
      "Ġterminal": 4409,
      "Ġexamined": 4410,
      "Ġepidemic": 4411,
      "Ġrefers": 4412,
      "Ġskills": 4413,
      "Ġaneurysms": 4414,
      "Ġmaxill": 4415,
      "iologic": 4416,
      "theless": 4417,
      "Ġau": 4418,
      "Ġaust": 4419,
      "Ġlt": 4420,
      "Ġlup": 4421,
      "Ġnic": 4422,
      "Ġnar": 4423,
      "Ġproven": 4424,
      "Ġvar": 4425,
      "Ġchlor": 4426,
      "Ġperfor": 4427,
      "ecting": 4428,
      "Ġinters": 4429,
      "Ġthereby": 4430,
      "Ġindeed": 4431,
      "Ġradiograph": 4432,
      "Ġmucosal": 4433,
      "Ġbelow": 4434,
      "Ġprofile": 4435,
      "Ġstrategy": 4436,
      "Ġrats": 4437,
      "Ġextensively": 4438,
      "Ġmaintaining": 4439,
      "Ġrestorations": 4440,
      "Ġpapill": 4441,
      "Ġdentin": 4442,
      "Ġaneurysm": 4443,
      "Ġsusceptibility": 4444,
      "Ġnevertheless": 4445,
      "Ġmicrobial": 4446,
      "Ġerythemat": 4447,
      "lipidemia": 4448,
      "Ġschizophrenia": 4449,
      "rehens": 4450,
      "56": 4451,
      "ged": 4452,
      "hep": 4453,
      "Ġsom": 4454,
      "Ġlib": 4455,
      "Ġgall": 4456,
      "amide": 4457,
      "rief": 4458,
      "Ġnext": 4459,
      "ypt": 4460,
      "ensus": 4461,
      "ultaneous": 4462,
      "Ġdeterior": 4463,
      "Ġgenerated": 4464,
      "Ġmotion": 4465,
      "Ġminor": 4466,
      "Ġsimultaneous": 4467,
      "lasts": 4468,
      "Ġangiography": 4469,
      "rection": 4470,
      "Ġherein": 4471,
      "Ġminimally": 4472,
      "Ġnutritional": 4473,
      "Ġneuropathy": 4474,
      "Ġdynamic": 4475,
      "Ġquantit": 4476,
      "Ġosteoporosis": 4477,
      "Ġimmunodeficiency": 4478,
      "Ġcortex": 4479,
      "hd": 4480,
      "itic": 4481,
      "oe": 4482,
      "Ġaqu": 4483,
      "Ġpolic": 4484,
      "Ġdie": 4485,
      "Ġwild": 4486,
      "Ġfram": 4487,
      "Ġhall": 4488,
      "Ġharm": 4489,
      "Ġhpv": 4490,
      "Ġtoday": 4491,
      "ulties": 4492,
      "Ġaltered": 4493,
      "ables": 4494,
      "agues": 4495,
      "Ġ58": 4496,
      "Ġrelie": 4497,
      "Ġglut": 4498,
      "kinson": 4499,
      "Ġgeneralized": 4500,
      "Ġdifficulties": 4501,
      "Ġsuspected": 4502,
      "Ġpregnant": 4503,
      "Ġnode": 4504,
      "Ġbiliary": 4505,
      "Ġachieved": 4506,
      "Ġpharmacological": 4507,
      "Ġureter": 4508,
      "Ġpromote": 4509,
      "Ġdisturbances": 4510,
      "lc": 4511,
      "vent": 4512,
      "wise": 4513,
      "infl": 4514,
      "tile": 4515,
      "Ġpitu": 4516,
      "ister": 4517,
      "arth": 4518,
      "Ġstran": 4519,
      "opia": 4520,
      "Ġvi": 4521,
      "Ġexacer": 4522,
      "Ġcaps": 4523,
      "Ġleak": 4524,
      "Ġcomputer": 4525,
      "Ġrecip": 4526,
      "Ġendemic": 4527,
      "Ġcortical": 4528,
      "Ġetc": 4529,
      "Ġmember": 4530,
      "Ġpolyp": 4531,
      "Ġcarcinomas": 4532,
      "Ġelectron": 4533,
      "Ġavailability": 4534,
      "Ġreceiving": 4535,
      "otypes": 4536,
      "Ġvaginal": 4537,
      "Ġcolleagues": 4538,
      "chymal": 4539,
      "Ġadaptive": 4540,
      "Ġreplication": 4541,
      "Ġinteresting": 4542,
      "Ġpituitary": 4543,
      "Ġexacerb": 4544,
      "24": 4545,
      "cine": 4546,
      "gi": 4547,
      "oemb": 4548,
      "onucle": 4549,
      "Ġcran": 4550,
      "Ġmouth": 4551,
      "Ġdram": 4552,
      "Ġhf": 4553,
      "imen": 4554,
      "iform": 4555,
      "ights": 4556,
      "Ġcontrac": 4557,
      "Ġ47": 4558,
      "Ġdevelops": 4559,
      "Ġinterp": 4560,
      "Ġdecl": 4561,
      "Ġendodontic": 4562,
      "ogram": 4563,
      "Ġ85": 4564,
      "Ġtrunk": 4565,
      "Ġlymphocytes": 4566,
      "Ġelectronic": 4567,
      "rhyth": 4568,
      "Ġpractic": 4569,
      "Ġcalcul": 4570,
      "Ġtargeted": 4571,
      "ocytosis": 4572,
      "Ġdifferentiated": 4573,
      "Ġsocio": 4574,
      "Ġexisting": 4575,
      "Ġadhesion": 4576,
      "Ġtemporal": 4577,
      "Ġbarrier": 4578,
      "Ġentire": 4579,
      "Ġmacrophages": 4580,
      "34": 4581,
      "iness": 4582,
      "ray": 4583,
      "Ġstart": 4584,
      "ticular": 4585,
      "Ġexcell": 4586,
      "Ġras": 4587,
      "Ġparti": 4588,
      "Ġtransl": 4589,
      "Ġmaxim": 4590,
      "Ġmuscul": 4591,
      "Ġcoli": 4592,
      "Ġdistress": 4593,
      "Ġtermed": 4594,
      "Ġsolution": 4595,
      "Ġassessed": 4596,
      "Ġworkers": 4597,
      "Ġsusp": 4598,
      "Ġyounger": 4599,
      "Ġmanifestation": 4600,
      "Ġicu": 4601,
      "Ġcomposite": 4602,
      "Ġsupplementary": 4603,
      "Ġdetailed": 4604,
      "Ġdentist": 4605,
      "rinsic": 4606,
      "Ġubi": 4607,
      "Ġneurodegenerative": 4608,
      "Ġstomach": 4609,
      "apt": 4610,
      "dr": 4611,
      "lif": 4612,
      "side": 4613,
      "Ġtrop": 4614,
      "onin": 4615,
      "Ġsatis": 4616,
      "orial": 4617,
      "Ġmas": 4618,
      "Ġheat": 4619,
      "Ġheight": 4620,
      "Ġ39": 4621,
      "Ġcomprehens": 4622,
      "Ġmedian": 4623,
      "Ġdecision": 4624,
      "Ġemission": 4625,
      "formations": 4626,
      "ammatory": 4627,
      "Ġsignificance": 4628,
      "Ġselection": 4629,
      "Ġmolecule": 4630,
      "Ġinvestigations": 4631,
      "Ġsurfaces": 4632,
      "Ġfourth": 4633,
      "Ġbiomark": 4634,
      "Ġeryth": 4635,
      "Ġpremature": 4636,
      "Ġimplicated": 4637,
      "Ġlupus": 4638,
      "100": 4639,
      "22": 4640,
      "be": 4641,
      "hg": 4642,
      "ony": 4643,
      "Ġtheory": 4644,
      "Ġpub": 4645,
      "Ġlens": 4646,
      "Ġeast": 4647,
      "ostic": 4648,
      "activity": 4649,
      "Ġstay": 4650,
      "Ġconver": 4651,
      "romised": 4652,
      "Ġalk": 4653,
      "Ġalve": 4654,
      "Ġatrophy": 4655,
      "Ġabuse": 4656,
      "Ġshoul": 4657,
      "Ġmedial": 4658,
      "fered": 4659,
      "angl": 4660,
      "Ġemp": 4661,
      "Ġquad": 4662,
      "Ġimmunocomp": 4663,
      "Ġcolor": 4664,
      "Ġnecro": 4665,
      "Ġadditionally": 4666,
      "Ġsah": 4667,
      "Ġpromo": 4668,
      "Ġtechnical": 4669,
      "Ġcircul": 4670,
      "Ġsuggests": 4671,
      "Ġdifficulty": 4672,
      "Ġreceive": 4673,
      "Ġethnic": 4674,
      "Ġhbv": 4675,
      "Ġultimately": 4676,
      "Ġanalyses": 4677,
      "inflammatory": 4678,
      "Ġshoulder": 4679,
      "ck": 4680,
      "ded": 4681,
      "ired": 4682,
      "Ġank": 4683,
      "Ġmill": 4684,
      "ecutive": 4685,
      "Ġnos": 4686,
      "opo": 4687,
      "opar": 4688,
      "irs": 4689,
      "Ġheav": 4690,
      "Ġimplants": 4691,
      "Ġclus": 4692,
      "Ġrectal": 4693,
      "Ġinfant": 4694,
      "Ġcough": 4695,
      "Ġcortic": 4696,
      "Ġvariation": 4697,
      "Ġvariants": 4698,
      "oxide": 4699,
      "Ġshowing": 4700,
      "Ġadvance": 4701,
      "Ġestimates": 4702,
      "Ġsupply": 4703,
      "Ġinhibition": 4704,
      "Ġpoorly": 4705,
      "Ġmeasurements": 4706,
      "Ġnodes": 4707,
      "Ġphenotype": 4708,
      "Ġadministered": 4709,
      "Ġprecurs": 4710,
      "Ġshape": 4711,
      "Ġnetwork": 4712,
      "Ġdegradation": 4713,
      "ocellular": 4714,
      "Ġinges": 4715,
      "ora": 4716,
      "Ġbrief": 4717,
      "Ġgd": 4718,
      "Ġseven": 4719,
      "Ġuns": 4720,
      "Ġintest": 4721,
      "Ġrecord": 4722,
      "agul": 4723,
      "Ġmedia": 4724,
      "Ġmedium": 4725,
      "Ġarm": 4726,
      "Ġextended": 4727,
      "Ġbecame": 4728,
      "Ġmodality": 4729,
      "Ġcontrovers": 4730,
      "ocytic": 4731,
      "Ġoxide": 4732,
      "Ġfluores": 4733,
      "Ġprognostic": 4734,
      "Ġmagn": 4735,
      "Ġsmooth": 4736,
      "Ġimplantation": 4737,
      "Ġconsisting": 4738,
      "Ġowing": 4739,
      "Ġsuffering": 4740,
      "Ġanomalies": 4741,
      "Ġinnate": 4742,
      "Ġkerat": 4743,
      "Ġhyperglycemia": 4744,
      "Ġquantitative": 4745,
      "ek": 4746,
      "iation": 4747,
      "pc": 4748,
      "po": 4749,
      "pan": 4750,
      "uvant": 4751,
      "requ": 4752,
      "Ġom": 4753,
      "edic": 4754,
      "Ġwors": 4755,
      "Ġfran": 4756,
      "Ġfuture": 4757,
      "Ġreference": 4758,
      "usions": 4759,
      "etric": 4760,
      "Ġvs": 4761,
      "uments": 4762,
      "Ġdisting": 4763,
      "Ġonline": 4764,
      "Ġexact": 4765,
      "Ġrt": 4766,
      "Ġrural": 4767,
      "Ġunits": 4768,
      "month": 4769,
      "Ġvariant": 4770,
      "Ġhistor": 4771,
      "Ġpainful": 4772,
      "Ġcardiomy": 4773,
      "Ġ1998": 4774,
      "ropathy": 4775,
      "Ġemerged": 4776,
      "Ġemerging": 4777,
      "Ġnucleo": 4778,
      "Ġconcerns": 4779,
      "Ġinhibitor": 4780,
      "Ġcirculation": 4781,
      "brid": 4782,
      "Ġborn": 4783,
      "Ġforeign": 4784,
      "Ġsalivary": 4785,
      "Ġdistingu": 4786,
      "iac": 4787,
      "psy": 4788,
      "Ġpyl": 4789,
      "Ġpals": 4790,
      "Ġmim": 4791,
      "ata": 4792,
      "ica": 4793,
      "osarcoma": 4794,
      "celer": 4795,
      "Ġstor": 4796,
      "Ġhered": 4797,
      "Ġincid": 4798,
      "Ġunt": 4799,
      "Ġspati": 4800,
      "Ġ33": 4801,
      "Ġplacement": 4802,
      "Ġobst": 4803,
      "Ġtransient": 4804,
      "ubation": 4805,
      "Ġtumour": 4806,
      "Ġamb": 4807,
      "Ġnewbor": 4808,
      "Ġyield": 4809,
      "Ġviscer": 4810,
      "Ġattack": 4811,
      "ishman": 4812,
      "Ġvalve": 4813,
      "Ġindicate": 4814,
      "Ġdifferential": 4815,
      "Ġethics": 4816,
      "Ġadjacent": 4817,
      "Ġrestoration": 4818,
      "Ġnephro": 4819,
      "Ġsubstit": 4820,
      "bo": 4821,
      "rating": 4822,
      "Ġtet": 4823,
      "Ġcad": 4824,
      "Ġcranial": 4825,
      "Ġinade": 4826,
      "Ġeuk": 4827,
      "used": 4828,
      "Ġbypass": 4829,
      "Ġalph": 4830,
      "Ġunlike": 4831,
      "Ġgenital": 4832,
      "agulation": 4833,
      "Ġparkinson": 4834,
      "Ġextension": 4835,
      "Ġexpans": 4836,
      "Ġformed": 4837,
      "Ġimmunity": 4838,
      "Ġpotent": 4839,
      "Ġ95": 4840,
      "Ġmyc": 4841,
      "Ġfibrill": 4842,
      "Ġneedle": 4843,
      "Ġpossibility": 4844,
      "rown": 4845,
      "Ġimprovements": 4846,
      "Ġepithelium": 4847,
      "Ġpsori": 4848,
      "Ġaspect": 4849,
      "Ġneuros": 4850,
      "Ġgreen": 4851,
      "Ġgirl": 4852,
      "Ġfavor": 4853,
      "Ġeukary": 4854,
      "ff": 4855,
      "jection": 4856,
      "pinal": 4857,
      "inate": 4858,
      "onography": 4859,
      "Ġinner": 4860,
      "atoid": 4861,
      "Ġhod": 4862,
      "Ġever": 4863,
      "osomes": 4864,
      "Ġnh": 4865,
      "umab": 4866,
      "Ġacceler": 4867,
      "Ġincident": 4868,
      "Ġusers": 4869,
      "Ġgender": 4870,
      "Ġsubcutaneous": 4871,
      "rict": 4872,
      "Ġimpac": 4873,
      "Ġhighl": 4874,
      "Ġesrd": 4875,
      "Ġnonin": 4876,
      "Ġfeb": 4877,
      "Ġremod": 4878,
      "Ġhemoglobin": 4879,
      "Ġblack": 4880,
      "Ġfibrob": 4881,
      "Ġintraocular": 4882,
      "Ġprotection": 4883,
      "crip": 4884,
      "Ġregulated": 4885,
      "Ġminimal": 4886,
      "Ġboy": 4887,
      "plastic": 4888,
      "Ġstrongly": 4889,
      "Ġgiant": 4890,
      "Ġportal": 4891,
      "Ġbeneficial": 4892,
      "Ġexcellent": 4893,
      "ioid": 4894,
      "tent": 4895,
      "Ġta": 4896,
      "Ġtm": 4897,
      "tif": 4898,
      "Ġbc": 4899,
      "arin": 4900,
      "oskeletal": 4901,
      "urally": 4902,
      "Ġasc": 4903,
      "Ġalle": 4904,
      "Ġgenus": 4905,
      "Ġmediat": 4906,
      "Ġquanti": 4907,
      "Ġdry": 4908,
      "Ġretur": 4909,
      "Ġtube": 4910,
      "Ġprofil": 4911,
      "Ġnodules": 4912,
      "Ġextraction": 4913,
      "Ġprecise": 4914,
      "Ġeasily": 4915,
      "Ġanaest": 4916,
      "Ġregarded": 4917,
      "Ġhepatocellular": 4918,
      "Ġcomparison": 4919,
      "Ġcommerc": 4920,
      "Ġthickness": 4921,
      "Ġseizures": 4922,
      "Ġdrainage": 4923,
      "Ġrecords": 4924,
      "Ġcomprehensive": 4925,
      "80": 4926,
      "Ġpm": 4927,
      "Ġdc": 4928,
      "Ġlangu": 4929,
      "Ġeight": 4930,
      "olds": 4931,
      "term": 4932,
      "dium": 4933,
      "Ġarti": 4934,
      "Ġconsensus": 4935,
      "Ġrising": 4936,
      "aching": 4937,
      "ovirus": 4938,
      "Ġsodium": 4939,
      "arkable": 4940,
      "Ġlungs": 4941,
      "Ġdemonstrate": 4942,
      "Ġmother": 4943,
      "Ġtested": 4944,
      "Ġsupporting": 4945,
      "Ġrefract": 4946,
      "Ġpeptides": 4947,
      "Ġtaking": 4948,
      "Ġmorphology": 4949,
      "Ġconnective": 4950,
      "Ġmammalian": 4951,
      "Ġclosely": 4952,
      "Ġideal": 4953,
      "Ġindustrial": 4954,
      "Ġinstrument": 4955,
      "Ġexhibit": 4956,
      "Ġacetyl": 4957,
      "Ġpathophysiology": 4958,
      "Ġodontogenic": 4959,
      "ki": 4960,
      "ming": 4961,
      "yond": 4962,
      "isp": 4963,
      "Ġbes": 4964,
      "icles": 4965,
      "enter": 4966,
      "Ġhr": 4967,
      "ulmonary": 4968,
      "activ": 4969,
      "unately": 4970,
      "Ġstri": 4971,
      "Ġbeyond": 4972,
      "Ġcham": 4973,
      "Ġraised": 4974,
      "illin": 4975,
      "Ġscal": 4976,
      "Ġtumours": 4977,
      "Ġbecomes": 4978,
      "aceu": 4979,
      "Ġhyperplasia": 4980,
      "Ġhemangi": 4981,
      "Ġlarger": 4982,
      "Ġcapable": 4983,
      "Ġisolates": 4984,
      "Ġmodification": 4985,
      "Ġstimuli": 4986,
      "Ġmorphological": 4987,
      "Ġprobably": 4988,
      "Ġanalyzed": 4989,
      "Ġinstability": 4990,
      "Ġinfiltration": 4991,
      "Ġechocardi": 4992,
      "Ġoccupational": 4993,
      "Ġtask": 4994,
      "Ġpredispos": 4995,
      "Ġdyspnea": 4996,
      "Ġoccasionally": 4997,
      "ril": 4998,
      "sh": 4999
    },
    "merges": [
      [
        "Ġ",
        "a"
      ],
      [
        "Ġ",
        "t"
      ],
      [
        "i",
        "n"
      ],
      [
        "r",
        "e"
      ],
      [
        "h",
        "e"
      ],
      [
        "o",
        "n"
      ],
      [
        "t",
        "i"
      ],
      [
        "Ġ",
        "o"
      ],
      [
        "e",
        "n"
      ],
      [
        "Ġ",
        "c"
      ],
      [
        "a",
        "l"
      ],
      [
        "Ġ",
        "s"
      ],
      [
        "Ġt",
        "he"
      ],
      [
        "Ġ",
        ","
      ],
      [
        "e",
        "r"
      ],
      [
        "Ġ",
        "p"
      ],
      [
        "Ġ",
        "in"
      ],
      [
        "i",
        "s"
      ],
      [
        "e",
        "s"
      ],
      [
        "Ġa",
        "n"
      ],
      [
        "e",
        "d"
      ],
      [
        "Ġo",
        "f"
      ],
      [
        "o",
        "r"
      ],
      [
        "Ġ",
        "m"
      ],
      [
        "Ġ",
        "d"
      ],
      [
        "a",
        "t"
      ],
      [
        "a",
        "n"
      ],
      [
        "i",
        "t"
      ],
      [
        "Ġ",
        "b"
      ],
      [
        "Ġ",
        "w"
      ],
      [
        "Ġ",
        "f"
      ],
      [
        "i",
        "c"
      ],
      [
        "a",
        "r"
      ],
      [
        "a",
        "s"
      ],
      [
        "Ġ",
        "."
      ],
      [
        "Ġan",
        "d"
      ],
      [
        "r",
        "o"
      ],
      [
        "ti",
        "on"
      ],
      [
        "en",
        "t"
      ],
      [
        "in",
        "g"
      ],
      [
        "Ġ",
        "re"
      ],
      [
        "Ġ",
        "h"
      ],
      [
        "Ġ",
        "l"
      ],
      [
        "Ġ",
        "e"
      ],
      [
        "o",
        "m"
      ],
      [
        "Ġt",
        "o"
      ],
      [
        "u",
        "s"
      ],
      [
        "v",
        "e"
      ],
      [
        "e",
        "c"
      ],
      [
        "l",
        "y"
      ],
      [
        "o",
        "s"
      ],
      [
        "a",
        "tion"
      ],
      [
        "u",
        "l"
      ],
      [
        "Ġ",
        "n"
      ],
      [
        "Ġ",
        "is"
      ],
      [
        "a",
        "c"
      ],
      [
        "l",
        "e"
      ],
      [
        "i",
        "d"
      ],
      [
        "Ġt",
        "h"
      ],
      [
        "u",
        "r"
      ],
      [
        "Ġ",
        "-"
      ],
      [
        "o",
        "l"
      ],
      [
        "u",
        "n"
      ],
      [
        "Ġ",
        "g"
      ],
      [
        "i",
        "m"
      ],
      [
        "it",
        "h"
      ],
      [
        "Ġw",
        "ith"
      ],
      [
        "e",
        "t"
      ],
      [
        "r",
        "a"
      ],
      [
        "Ġa",
        "s"
      ],
      [
        "l",
        "l"
      ],
      [
        "c",
        "e"
      ],
      [
        "a",
        "ti"
      ],
      [
        "Ġp",
        "ro"
      ],
      [
        "Ġs",
        "t"
      ],
      [
        "Ġf",
        "or"
      ],
      [
        "i",
        "g"
      ],
      [
        "t",
        "er"
      ],
      [
        "o",
        "p"
      ],
      [
        "Ġb",
        "e"
      ],
      [
        "u",
        "c"
      ],
      [
        "u",
        "t"
      ],
      [
        "Ġ",
        "1"
      ],
      [
        "Ġc",
        "on"
      ],
      [
        "re",
        "s"
      ],
      [
        "Ġ",
        "v"
      ],
      [
        "u",
        "m"
      ],
      [
        "Ġd",
        "e"
      ],
      [
        "i",
        "a"
      ],
      [
        "ic",
        "al"
      ],
      [
        "s",
        "t"
      ],
      [
        "o",
        "t"
      ],
      [
        "m",
        "ent"
      ],
      [
        "o",
        "w"
      ],
      [
        "i",
        "r"
      ],
      [
        "ti",
        "c"
      ],
      [
        "o",
        "c"
      ],
      [
        "i",
        "l"
      ],
      [
        "o",
        "g"
      ],
      [
        "Ġo",
        "r"
      ],
      [
        "v",
        "er"
      ],
      [
        "Ġd",
        "is"
      ],
      [
        "d",
        "i"
      ],
      [
        "Ġc",
        "om"
      ],
      [
        "it",
        "y"
      ],
      [
        "Ġ",
        "2"
      ],
      [
        "Ġa",
        "re"
      ],
      [
        "Ġ",
        "on"
      ],
      [
        "Ġ",
        "he"
      ],
      [
        "at",
        "ed"
      ],
      [
        "i",
        "f"
      ],
      [
        "t",
        "h"
      ],
      [
        "o",
        "d"
      ],
      [
        "Ġe",
        "x"
      ],
      [
        "i",
        "on"
      ],
      [
        "Ġ",
        "r"
      ],
      [
        "a",
        "m"
      ],
      [
        "Ġa",
        "c"
      ],
      [
        "t",
        "s"
      ],
      [
        "Ġw",
        "e"
      ],
      [
        "r",
        "i"
      ],
      [
        "Ġc",
        "h"
      ],
      [
        "ro",
        "m"
      ],
      [
        "at",
        "e"
      ],
      [
        "e",
        "m"
      ],
      [
        "g",
        "e"
      ],
      [
        "Ġth",
        "at"
      ],
      [
        "Ġin",
        "c"
      ],
      [
        "Ġb",
        "y"
      ],
      [
        "as",
        "e"
      ],
      [
        "or",
        "t"
      ],
      [
        "Ġh",
        "a"
      ],
      [
        "q",
        "u"
      ],
      [
        "s",
        "e"
      ],
      [
        "Ġa",
        "l"
      ],
      [
        "ent",
        "s"
      ],
      [
        "a",
        "b"
      ],
      [
        "Ġ",
        "im"
      ],
      [
        "a",
        "in"
      ],
      [
        "Ġp",
        "ati"
      ],
      [
        "Ġw",
        "h"
      ],
      [
        "u",
        "re"
      ],
      [
        "o",
        "us"
      ],
      [
        "es",
        "s"
      ],
      [
        "Ġre",
        "s"
      ],
      [
        "Ġc",
        "an"
      ],
      [
        "an",
        "t"
      ],
      [
        "Ġa",
        "d"
      ],
      [
        "Ġs",
        "e"
      ],
      [
        "a",
        "d"
      ],
      [
        "Ġ",
        "it"
      ],
      [
        "p",
        "l"
      ],
      [
        "p",
        "h"
      ],
      [
        "u",
        "d"
      ],
      [
        "Ġ",
        "un"
      ],
      [
        "f",
        "ec"
      ],
      [
        "Ġ",
        "us"
      ],
      [
        "os",
        "t"
      ],
      [
        "i",
        "z"
      ],
      [
        "re",
        "n"
      ],
      [
        "Ġc",
        "a"
      ],
      [
        "Ġa",
        "t"
      ],
      [
        "Ġn",
        "e"
      ],
      [
        "Ġw",
        "as"
      ],
      [
        "m",
        "on"
      ],
      [
        "a",
        "y"
      ],
      [
        "Ġs",
        "y"
      ],
      [
        "ul",
        "ar"
      ],
      [
        "Ġha",
        "ve"
      ],
      [
        "Ġs",
        "u"
      ],
      [
        "Ġp",
        "re"
      ],
      [
        "Ġ",
        "en"
      ],
      [
        "ar",
        "y"
      ],
      [
        "e",
        "ll"
      ],
      [
        "p",
        "ort"
      ],
      [
        "y",
        "p"
      ],
      [
        "he",
        "r"
      ],
      [
        "Ġf",
        "rom"
      ],
      [
        "i",
        "al"
      ],
      [
        "Ġh",
        "as"
      ],
      [
        "Ġbe",
        "en"
      ],
      [
        "d",
        "er"
      ],
      [
        "as",
        "t"
      ],
      [
        "Ġl",
        "e"
      ],
      [
        "Ġp",
        "er"
      ],
      [
        "0",
        "0"
      ],
      [
        "Ġpati",
        "ents"
      ],
      [
        "y",
        "e"
      ],
      [
        "ol",
        "og"
      ],
      [
        "o",
        "re"
      ],
      [
        "Ġs",
        "p"
      ],
      [
        "ig",
        "h"
      ],
      [
        "Ġdis",
        "e"
      ],
      [
        "in",
        "e"
      ],
      [
        "Ġ",
        "k"
      ],
      [
        "t",
        "ed"
      ],
      [
        "t",
        "e"
      ],
      [
        "en",
        "ce"
      ],
      [
        "u",
        "g"
      ],
      [
        "Ġc",
        "l"
      ],
      [
        "ti",
        "ve"
      ],
      [
        "r",
        "an"
      ],
      [
        "ac",
        "t"
      ],
      [
        "Ġ",
        "3"
      ],
      [
        "p",
        "p"
      ],
      [
        "id",
        "e"
      ],
      [
        "ic",
        "h"
      ],
      [
        "ve",
        "l"
      ],
      [
        "y",
        "s"
      ],
      [
        "Ġth",
        "is"
      ],
      [
        "Ġcom",
        "p"
      ],
      [
        "re",
        "at"
      ],
      [
        "ation",
        "s"
      ],
      [
        "es",
        "t"
      ],
      [
        "o",
        "un"
      ],
      [
        "is",
        "t"
      ],
      [
        "ye",
        "ar"
      ],
      [
        "Ġa",
        "b"
      ],
      [
        "res",
        "s"
      ],
      [
        "at",
        "h"
      ],
      [
        "c",
        "h"
      ],
      [
        "Ġin",
        "t"
      ],
      [
        "Ġwh",
        "ich"
      ],
      [
        "Ġre",
        "c"
      ],
      [
        "Ġd",
        "ia"
      ],
      [
        "re",
        "d"
      ],
      [
        "or",
        "m"
      ],
      [
        "Ġc",
        "ell"
      ],
      [
        "or",
        "s"
      ],
      [
        "al",
        "ly"
      ],
      [
        "Ġg",
        "en"
      ],
      [
        "en",
        "s"
      ],
      [
        "or",
        "y"
      ],
      [
        "d",
        "uc"
      ],
      [
        "Ġ",
        "ra"
      ],
      [
        "i",
        "b"
      ],
      [
        "as",
        "es"
      ],
      [
        "a",
        "g"
      ],
      [
        "l",
        "d"
      ],
      [
        "Ġdise",
        "ase"
      ],
      [
        "c",
        "er"
      ],
      [
        "i",
        "v"
      ],
      [
        "i",
        "ti"
      ],
      [
        "Ġs",
        "ur"
      ],
      [
        "u",
        "e"
      ],
      [
        "Ġcon",
        "t"
      ],
      [
        "Ġs",
        "h"
      ],
      [
        "Ġm",
        "an"
      ],
      [
        "Ġas",
        "s"
      ],
      [
        "i",
        "es"
      ],
      [
        "Ġa",
        "f"
      ],
      [
        "ig",
        "n"
      ],
      [
        "p",
        "t"
      ],
      [
        "Ġs",
        "uc"
      ],
      [
        "Ġwe",
        "re"
      ],
      [
        "Ġin",
        "f"
      ],
      [
        "Ġm",
        "ost"
      ],
      [
        "a",
        "ge"
      ],
      [
        "Ġp",
        "ar"
      ],
      [
        "os",
        "is"
      ],
      [
        "i",
        "ll"
      ],
      [
        "Ġp",
        "res"
      ],
      [
        "Ġm",
        "et"
      ],
      [
        "p",
        "er"
      ],
      [
        "g",
        "n"
      ],
      [
        "an",
        "d"
      ],
      [
        "Ġt",
        "reat"
      ],
      [
        "i",
        "p"
      ],
      [
        "tion",
        "s"
      ],
      [
        "i",
        "ve"
      ],
      [
        "Ġ",
        "5"
      ],
      [
        "Ġp",
        "h"
      ],
      [
        "en",
        "ti"
      ],
      [
        "Ġ",
        "4"
      ],
      [
        "an",
        "ce"
      ],
      [
        "Ġinc",
        "re"
      ],
      [
        "l",
        "ud"
      ],
      [
        "ati",
        "ve"
      ],
      [
        "Ġc",
        "ar"
      ],
      [
        "Ġca",
        "us"
      ],
      [
        "ug",
        "h"
      ],
      [
        "om",
        "e"
      ],
      [
        "oc",
        "i"
      ],
      [
        "ul",
        "t"
      ],
      [
        "Ġm",
        "ed"
      ],
      [
        "Ġsuc",
        "h"
      ],
      [
        "al",
        "l"
      ],
      [
        "Ġinc",
        "lud"
      ],
      [
        "Ġa",
        "r"
      ],
      [
        "Ġre",
        "port"
      ],
      [
        "vel",
        "op"
      ],
      [
        "Ġhe",
        "al"
      ],
      [
        "Ġtreat",
        "ment"
      ],
      [
        "Ġcon",
        "s"
      ],
      [
        "Ġp",
        "l"
      ],
      [
        "ran",
        "s"
      ],
      [
        "f",
        "ic"
      ],
      [
        "Ġ",
        "year"
      ],
      [
        "Ġde",
        "velop"
      ],
      [
        "e",
        "l"
      ],
      [
        "ec",
        "t"
      ],
      [
        "as",
        "ed"
      ],
      [
        "Ġa",
        "pp"
      ],
      [
        "t",
        "her"
      ],
      [
        "Ġn",
        "ot"
      ],
      [
        "Ġcan",
        "cer"
      ],
      [
        "Ġheal",
        "th"
      ],
      [
        "c",
        "c"
      ],
      [
        "Ġ",
        ";"
      ],
      [
        "Ġo",
        "b"
      ],
      [
        "Ġthe",
        "se"
      ],
      [
        "Ġsu",
        "b"
      ],
      [
        "u",
        "p"
      ],
      [
        "Ġpre",
        "v"
      ],
      [
        "Ġe",
        "v"
      ],
      [
        "iz",
        "ed"
      ],
      [
        "Ġcl",
        "in"
      ],
      [
        "Ġs",
        "c"
      ],
      [
        "Ġa",
        "ll"
      ],
      [
        "Ġt",
        "rans"
      ],
      [
        "ab",
        "le"
      ],
      [
        "Ġcom",
        "mon"
      ],
      [
        "in",
        "al"
      ],
      [
        "Ġe",
        "f"
      ],
      [
        "er",
        "s"
      ],
      [
        "un",
        "c"
      ],
      [
        "k",
        "e"
      ],
      [
        "Ġin",
        "ter"
      ],
      [
        "l",
        "o"
      ],
      [
        "Ġac",
        "c"
      ],
      [
        "Ġass",
        "oci"
      ],
      [
        "Ġre",
        "l"
      ],
      [
        "if",
        "ic"
      ],
      [
        "r",
        "on"
      ],
      [
        "a",
        "p"
      ],
      [
        "ar",
        "i"
      ],
      [
        "r",
        "ic"
      ],
      [
        "Ġc",
        "o"
      ],
      [
        "m",
        "s"
      ],
      [
        "Ġd",
        "if"
      ],
      [
        "ra",
        "p"
      ],
      [
        "i",
        "e"
      ],
      [
        "Ġin",
        "v"
      ],
      [
        "Ġre",
        "g"
      ],
      [
        "igh",
        "t"
      ],
      [
        "d",
        "ing"
      ],
      [
        "an",
        "c"
      ],
      [
        "f",
        "e"
      ],
      [
        "Ġ",
        "ro"
      ],
      [
        "ac",
        "ter"
      ],
      [
        "Ġthe",
        "re"
      ],
      [
        "en",
        "c"
      ],
      [
        "Ġd",
        "es"
      ],
      [
        "ec",
        "h"
      ],
      [
        "Ġon",
        "e"
      ],
      [
        "Ġa",
        "g"
      ],
      [
        "as",
        "s"
      ],
      [
        "Ġw",
        "or"
      ],
      [
        "Ġm",
        "a"
      ],
      [
        "u",
        "al"
      ],
      [
        "Ġp",
        "r"
      ],
      [
        "ri",
        "b"
      ],
      [
        "on",
        "e"
      ],
      [
        "is",
        "s"
      ],
      [
        "e",
        "ver"
      ],
      [
        "ti",
        "v"
      ],
      [
        "Ġh",
        "yp"
      ],
      [
        "u",
        "b"
      ],
      [
        "st",
        "em"
      ],
      [
        "olog",
        "ical"
      ],
      [
        "Ġpres",
        "ent"
      ],
      [
        "Ġim",
        "p"
      ],
      [
        "Ġclin",
        "ical"
      ],
      [
        "Ġm",
        "ay"
      ],
      [
        "er",
        "m"
      ],
      [
        "Ġdia",
        "gn"
      ],
      [
        "o",
        "ut"
      ],
      [
        "ren",
        "t"
      ],
      [
        "Ġo",
        "cc"
      ],
      [
        "Ġin",
        "fec"
      ],
      [
        "Ġh",
        "igh"
      ],
      [
        "Ġm",
        "ore"
      ],
      [
        "Ġh",
        "ow"
      ],
      [
        "ow",
        "n"
      ],
      [
        "Ġ",
        "6"
      ],
      [
        "Ġf",
        "act"
      ],
      [
        "ti",
        "m"
      ],
      [
        "ol",
        "l"
      ],
      [
        "om",
        "a"
      ],
      [
        "Ġr",
        "is"
      ],
      [
        "at",
        "es"
      ],
      [
        "os",
        "e"
      ],
      [
        "Ġsy",
        "stem"
      ],
      [
        "Ġg",
        "ro"
      ],
      [
        "Ġm",
        "al"
      ],
      [
        "m",
        "un"
      ],
      [
        "u",
        "di"
      ],
      [
        "er",
        "v"
      ],
      [
        "en",
        "d"
      ],
      [
        "Ġres",
        "p"
      ],
      [
        "p",
        "it"
      ],
      [
        "Ġt",
        "yp"
      ],
      [
        "Ġ2",
        "00"
      ],
      [
        "ul",
        "ation"
      ],
      [
        "at",
        "er"
      ],
      [
        "s",
        "o"
      ],
      [
        "r",
        "uc"
      ],
      [
        "Ġst",
        "udi"
      ],
      [
        "c",
        "ess"
      ],
      [
        "Ġassoci",
        "ated"
      ],
      [
        "Ġyear",
        "s"
      ],
      [
        "Ġ2",
        "0"
      ],
      [
        "Ġ1",
        "9"
      ],
      [
        "u",
        "res"
      ],
      [
        "ati",
        "c"
      ],
      [
        "Ġal",
        "so"
      ],
      [
        "n",
        "e"
      ],
      [
        "unc",
        "tion"
      ],
      [
        "Ġsy",
        "n"
      ],
      [
        "Ġhow",
        "ever"
      ],
      [
        "Ġ",
        "es"
      ],
      [
        "Ġt",
        "um"
      ],
      [
        "pl",
        "ic"
      ],
      [
        "Ġo",
        "ther"
      ],
      [
        "al",
        "ity"
      ],
      [
        "at",
        "ory"
      ],
      [
        "Ġun",
        "der"
      ],
      [
        "Ġd",
        "ec"
      ],
      [
        "Ġw",
        "he"
      ],
      [
        "il",
        "ity"
      ],
      [
        "Ġthe",
        "ir"
      ],
      [
        "Ġd",
        "ur"
      ],
      [
        "Ġ",
        "j"
      ],
      [
        "er",
        "y"
      ],
      [
        "Ġb",
        "et"
      ],
      [
        "Ġo",
        "ver"
      ],
      [
        "Ġsp",
        "ec"
      ],
      [
        "Ġex",
        "t"
      ],
      [
        "Ġsur",
        "g"
      ],
      [
        "Ġapp",
        "ro"
      ],
      [
        "Ġpati",
        "ent"
      ],
      [
        "Ġb",
        "i"
      ],
      [
        "y",
        "m"
      ],
      [
        "w",
        "e"
      ],
      [
        "ac",
        "h"
      ],
      [
        "Ġreport",
        "ed"
      ],
      [
        "Ġcell",
        "s"
      ],
      [
        "Ġris",
        "k"
      ],
      [
        "Ġef",
        "fec"
      ],
      [
        "c",
        "ular"
      ],
      [
        "Ġs",
        "ign"
      ],
      [
        "Ġex",
        "p"
      ],
      [
        "i",
        "ver"
      ],
      [
        "Ġp",
        "o"
      ],
      [
        "Ġin",
        "d"
      ],
      [
        "Ġen",
        "d"
      ],
      [
        "Ġstudi",
        "es"
      ],
      [
        "on",
        "g"
      ],
      [
        "he",
        "m"
      ],
      [
        "an",
        "g"
      ],
      [
        "Ġb",
        "ec"
      ],
      [
        "Ġst",
        "ud"
      ],
      [
        "Ġb",
        "ut"
      ],
      [
        "Ġc",
        "or"
      ],
      [
        "Ġinf",
        "l"
      ],
      [
        "Ġim",
        "port"
      ],
      [
        "Ġe",
        "m"
      ],
      [
        "ro",
        "s"
      ],
      [
        "Ġus",
        "ed"
      ],
      [
        "Ġa",
        "m"
      ],
      [
        "Ġre",
        "p"
      ],
      [
        "ot",
        "h"
      ],
      [
        "c",
        "t"
      ],
      [
        "g",
        "an"
      ],
      [
        "o",
        "ur"
      ],
      [
        "Ġv",
        "ari"
      ],
      [
        "t",
        "en"
      ],
      [
        "Ġin",
        "s"
      ],
      [
        "te",
        "in"
      ],
      [
        "f",
        "orm"
      ],
      [
        "Ġde",
        "p"
      ],
      [
        "il",
        "d"
      ],
      [
        "Ġch",
        "ar"
      ],
      [
        "Ġp",
        "ath"
      ],
      [
        "Ġaf",
        "ter"
      ],
      [
        "a",
        "il"
      ],
      [
        "g",
        "en"
      ],
      [
        "ut",
        "e"
      ],
      [
        "o",
        "ugh"
      ],
      [
        "Ġp",
        "os"
      ],
      [
        "og",
        "en"
      ],
      [
        "Ġc",
        "ases"
      ],
      [
        "ar",
        "d"
      ],
      [
        "Ġocc",
        "ur"
      ],
      [
        "Ġan",
        "ti"
      ],
      [
        "Ġn",
        "on"
      ],
      [
        "b",
        "er"
      ],
      [
        "Ġit",
        "s"
      ],
      [
        "olog",
        "y"
      ],
      [
        "Ġthe",
        "rap"
      ],
      [
        "e",
        "p"
      ],
      [
        "r",
        "ac"
      ],
      [
        "oun",
        "d"
      ],
      [
        "Ġd",
        "ue"
      ],
      [
        "Ġth",
        "an"
      ],
      [
        "u",
        "ro"
      ],
      [
        "Ġdif",
        "fe"
      ],
      [
        "Ġdur",
        "ing"
      ],
      [
        "di",
        "tion"
      ],
      [
        "Ġd",
        "et"
      ],
      [
        "Ġstud",
        "y"
      ],
      [
        "o",
        "v"
      ],
      [
        "oun",
        "t"
      ],
      [
        "id",
        "ence"
      ],
      [
        "am",
        "m"
      ],
      [
        "Ġl",
        "ow"
      ],
      [
        "Ġf",
        "e"
      ],
      [
        "Ġchar",
        "acter"
      ],
      [
        "Ġe",
        "l"
      ],
      [
        "Ġo",
        "ld"
      ],
      [
        "i",
        "ed"
      ],
      [
        "on",
        "d"
      ],
      [
        "Ġinclud",
        "ing"
      ],
      [
        "we",
        "en"
      ],
      [
        "Ġdia",
        "b"
      ],
      [
        "at",
        "ing"
      ],
      [
        "Ġh",
        "um"
      ],
      [
        "b",
        "le"
      ],
      [
        "Ġbet",
        "ween"
      ],
      [
        "ac",
        "e"
      ],
      [
        "he",
        "s"
      ],
      [
        "y",
        "l"
      ],
      [
        "Ġ",
        "i"
      ],
      [
        "Ġ",
        "qu"
      ],
      [
        "Ġpro",
        "tein"
      ],
      [
        "us",
        "e"
      ],
      [
        "v",
        "id"
      ],
      [
        "Ġ",
        "7"
      ],
      [
        "or",
        "der"
      ],
      [
        "Ġle",
        "ad"
      ],
      [
        "on",
        "s"
      ],
      [
        "Ġwor",
        "ld"
      ],
      [
        "Ġe",
        "t"
      ],
      [
        "r",
        "al"
      ],
      [
        "Ġac",
        "tiv"
      ],
      [
        "Ġg",
        "l"
      ],
      [
        "ent",
        "ly"
      ],
      [
        "iti",
        "es"
      ],
      [
        "og",
        "ra"
      ],
      [
        "Ġk",
        "n"
      ],
      [
        "ra",
        "in"
      ],
      [
        "Ġm",
        "e"
      ],
      [
        "Ġh",
        "ist"
      ],
      [
        "Ġp",
        "op"
      ],
      [
        "Ġimport",
        "ant"
      ],
      [
        "p",
        "le"
      ],
      [
        "as",
        "cular"
      ],
      [
        "Ġn",
        "o"
      ],
      [
        "Ġf",
        "unction"
      ],
      [
        "Ġwe",
        "ll"
      ],
      [
        "Ġgen",
        "er"
      ],
      [
        "f",
        "t"
      ],
      [
        "v",
        "ed"
      ],
      [
        "Ġt",
        "iss"
      ],
      [
        "Ġn",
        "um"
      ],
      [
        "n",
        "i"
      ],
      [
        "Ġt",
        "w"
      ],
      [
        "t",
        "al"
      ],
      [
        "Ġd",
        "r"
      ],
      [
        "Ġdis",
        "order"
      ],
      [
        "Ġc",
        "y"
      ],
      [
        "Ġo",
        "ut"
      ],
      [
        "o",
        "id"
      ],
      [
        "ar",
        "t"
      ],
      [
        "pt",
        "om"
      ],
      [
        "Ġp",
        "ain"
      ],
      [
        "ion",
        "s"
      ],
      [
        "Ġor",
        "gan"
      ],
      [
        "i",
        "ous"
      ],
      [
        "Ġhum",
        "an"
      ],
      [
        "Ġwh",
        "o"
      ],
      [
        "Ġman",
        "y"
      ],
      [
        "i",
        "or"
      ],
      [
        "Ġs",
        "ec"
      ],
      [
        "Ġo",
        "p"
      ],
      [
        "Ġf",
        "ir"
      ],
      [
        "Ġus",
        "e"
      ],
      [
        "Ġfor",
        "m"
      ],
      [
        "t",
        "ain"
      ],
      [
        "Ġcaus",
        "e"
      ],
      [
        "i",
        "le"
      ],
      [
        "Ġch",
        "ild"
      ],
      [
        "Ġma",
        "j"
      ],
      [
        "ron",
        "ic"
      ],
      [
        "Ġa",
        "ge"
      ],
      [
        "Ġsy",
        "m"
      ],
      [
        "Ġs",
        "m"
      ],
      [
        "Ġm",
        "ul"
      ],
      [
        "Ġc",
        "ase"
      ],
      [
        "Ġmaj",
        "or"
      ],
      [
        "at",
        "ure"
      ],
      [
        "t",
        "ing"
      ],
      [
        "Ġm",
        "ic"
      ],
      [
        "Ġm",
        "ain"
      ],
      [
        "Ġfir",
        "st"
      ],
      [
        "iz",
        "ation"
      ],
      [
        "n",
        "al"
      ],
      [
        "am",
        "in"
      ],
      [
        "Ġinv",
        "ol"
      ],
      [
        "Ġre",
        "m"
      ],
      [
        "Ġl",
        "if"
      ],
      [
        "Ġf",
        "l"
      ],
      [
        "Ġhyp",
        "er"
      ],
      [
        "Ġf",
        "re"
      ],
      [
        "c",
        "rib"
      ],
      [
        "Ġpr",
        "im"
      ],
      [
        "Ġim",
        "mun"
      ],
      [
        "Ġ",
        "u"
      ],
      [
        "a",
        "k"
      ],
      [
        "Ġm",
        "on"
      ],
      [
        "c",
        "l"
      ],
      [
        "it",
        "ed"
      ],
      [
        "al",
        "s"
      ],
      [
        "a",
        "v"
      ],
      [
        "Ġca",
        "re"
      ],
      [
        "p",
        "ec"
      ],
      [
        "ul",
        "ts"
      ],
      [
        "Ġd",
        "i"
      ],
      [
        "et",
        "es"
      ],
      [
        "Ġse",
        "ver"
      ],
      [
        "ogra",
        "ph"
      ],
      [
        "Ġcar",
        "di"
      ],
      [
        "Ġt",
        "im"
      ],
      [
        "os",
        "ed"
      ],
      [
        "Ġpro",
        "g"
      ],
      [
        "Ġfact",
        "ors"
      ],
      [
        "Ġ",
        "8"
      ],
      [
        "Ġc",
        "ent"
      ],
      [
        "Ġm",
        "o"
      ],
      [
        "Ġm",
        "od"
      ],
      [
        "Ġra",
        "re"
      ],
      [
        "Ġtw",
        "o"
      ],
      [
        "ress",
        "ion"
      ],
      [
        "Ġph",
        "ys"
      ],
      [
        "Ġdiab",
        "etes"
      ],
      [
        "Ġs",
        "ome"
      ],
      [
        "n",
        "a"
      ],
      [
        "Ġt",
        "ech"
      ],
      [
        "Ġch",
        "ronic"
      ],
      [
        "Ġf",
        "oll"
      ],
      [
        "ti",
        "s"
      ],
      [
        "Ġ",
        "'"
      ],
      [
        "d",
        "rom"
      ],
      [
        "Ġt",
        "r"
      ],
      [
        "Ġaf",
        "fec"
      ],
      [
        "ur",
        "al"
      ],
      [
        "Ġm",
        "us"
      ],
      [
        "a",
        "use"
      ],
      [
        "f",
        "er"
      ],
      [
        "enc",
        "y"
      ],
      [
        "Ġs",
        "er"
      ],
      [
        "Ġb",
        "lo"
      ],
      [
        "Ġw",
        "om"
      ],
      [
        "op",
        "h"
      ],
      [
        "Ġsyn",
        "drom"
      ],
      [
        "Ġ",
        ":"
      ],
      [
        "ec",
        "tion"
      ],
      [
        "Ġha",
        "d"
      ],
      [
        "Ġsym",
        "ptom"
      ],
      [
        "v",
        "en"
      ],
      [
        "Ġa",
        "p"
      ],
      [
        "Ġgen",
        "e"
      ],
      [
        "Ġcomp",
        "le"
      ],
      [
        "Ġblo",
        "od"
      ],
      [
        "Ġl",
        "oc"
      ],
      [
        "Ġdevelop",
        "ment"
      ],
      [
        "ac",
        "k"
      ],
      [
        "Ġ",
        "id"
      ],
      [
        "Ġb",
        "oth"
      ],
      [
        "u",
        "ally"
      ],
      [
        "c",
        "in"
      ],
      [
        "Ġa",
        "mon"
      ],
      [
        "Ġ1",
        "0"
      ],
      [
        "Ġdr",
        "ug"
      ],
      [
        "Ġamon",
        "g"
      ],
      [
        "Ġinfl",
        "amm"
      ],
      [
        "Ġhe",
        "m"
      ],
      [
        "r",
        "y"
      ],
      [
        "Ġdes",
        "crib"
      ],
      [
        "Ġe",
        "ar"
      ],
      [
        "Ġpar",
        "tic"
      ],
      [
        "Ġmul",
        "ti"
      ],
      [
        "er",
        "g"
      ],
      [
        "om",
        "y"
      ],
      [
        "it",
        "e"
      ],
      [
        "Ġcont",
        "ro"
      ],
      [
        "o",
        "od"
      ],
      [
        "Ġdise",
        "ases"
      ],
      [
        "Ġtyp",
        "e"
      ],
      [
        "Ġmet",
        "h"
      ],
      [
        "Ġon",
        "ly"
      ],
      [
        "th",
        "ough"
      ],
      [
        "o",
        "x"
      ],
      [
        "Ġal",
        "though"
      ],
      [
        "k",
        "in"
      ],
      [
        "Ġincre",
        "ased"
      ],
      [
        "Ġfoll",
        "ow"
      ],
      [
        "Ġthe",
        "y"
      ],
      [
        "Ġc",
        "ol"
      ],
      [
        "orm",
        "al"
      ],
      [
        "Ġsign",
        "ific"
      ],
      [
        "Ġh",
        "os"
      ],
      [
        "Ġpro",
        "duc"
      ],
      [
        "ti",
        "t"
      ],
      [
        "Ġl",
        "ar"
      ],
      [
        "ul",
        "d"
      ],
      [
        "Ġint",
        "o"
      ],
      [
        "ro",
        "ugh"
      ],
      [
        "c",
        "op"
      ],
      [
        "ay",
        "s"
      ],
      [
        "Ġt",
        "ra"
      ],
      [
        "Ġbec",
        "ause"
      ],
      [
        "in",
        "ed"
      ],
      [
        "Ġres",
        "ult"
      ],
      [
        "Ġle",
        "vel"
      ],
      [
        "Ġlif",
        "e"
      ],
      [
        "Ġ20",
        "1"
      ],
      [
        "Ġa",
        "ut"
      ],
      [
        "ate",
        "ly"
      ],
      [
        "Ġsever",
        "al"
      ],
      [
        "Ġin",
        "j"
      ],
      [
        "he",
        "d"
      ],
      [
        "Ġne",
        "uro"
      ],
      [
        "Ġsyndrom",
        "e"
      ],
      [
        "Ġcom",
        "plic"
      ],
      [
        "Ġe",
        "p"
      ],
      [
        "i",
        "an"
      ],
      [
        "Ġp",
        "e"
      ],
      [
        "is",
        "m"
      ],
      [
        "ruc",
        "t"
      ],
      [
        "Ġc",
        "ount"
      ],
      [
        "ation",
        "al"
      ],
      [
        "Ġne",
        "w"
      ],
      [
        "Ġb",
        "ased"
      ],
      [
        "ment",
        "s"
      ],
      [
        "Ġ",
        "y"
      ],
      [
        "Ġhos",
        "pit"
      ],
      [
        "Ġpro",
        "cess"
      ],
      [
        "Ġmed",
        "ical"
      ],
      [
        "Ġrel",
        "ated"
      ],
      [
        "Ġprev",
        "al"
      ],
      [
        "n",
        "ess"
      ],
      [
        "Ġpop",
        "ulation"
      ],
      [
        "od",
        "y"
      ],
      [
        "Ġkn",
        "own"
      ],
      [
        "Ġde",
        "f"
      ],
      [
        "ec",
        "ted"
      ],
      [
        "an",
        "ts"
      ],
      [
        "ib",
        "le"
      ],
      [
        "Ġth",
        "rough"
      ],
      [
        "Ġd",
        "at"
      ],
      [
        "Ġre",
        "t"
      ],
      [
        "Ġnum",
        "ber"
      ],
      [
        "o",
        "b"
      ],
      [
        "Ġsignific",
        "ant"
      ],
      [
        "Ġs",
        "in"
      ],
      [
        "Ġdis",
        "t"
      ],
      [
        "Ġinfec",
        "tion"
      ],
      [
        "Ġtherap",
        "y"
      ],
      [
        "x",
        "im"
      ],
      [
        "Ġs",
        "o"
      ],
      [
        "u",
        "es"
      ],
      [
        "Ġm",
        "ort"
      ],
      [
        "Ġan",
        "al"
      ],
      [
        "Ġper",
        "form"
      ],
      [
        "ur",
        "rent"
      ],
      [
        "enti",
        "al"
      ],
      [
        "s",
        "y"
      ],
      [
        "Ġtiss",
        "ue"
      ],
      [
        "it",
        "er"
      ],
      [
        "Ġgro",
        "w"
      ],
      [
        "Ġl",
        "im"
      ],
      [
        "ar",
        "ch"
      ],
      [
        "Ġin",
        "di"
      ],
      [
        "Ġv",
        "is"
      ],
      [
        "Ġimp",
        "ro"
      ],
      [
        "Ġinc",
        "idence"
      ],
      [
        "d",
        "e"
      ],
      [
        "ent",
        "al"
      ],
      [
        "Ġwhe",
        "n"
      ],
      [
        "ce",
        "pt"
      ],
      [
        "qu",
        "i"
      ],
      [
        "Ġdiagn",
        "osis"
      ],
      [
        "Ġsurg",
        "ery"
      ],
      [
        "Ġmort",
        "ality"
      ],
      [
        "Ġtum",
        "or"
      ],
      [
        "Ġtim",
        "e"
      ],
      [
        "un",
        "d"
      ],
      [
        "as",
        "ing"
      ],
      [
        "tic",
        "al"
      ],
      [
        "Ġsh",
        "ow"
      ],
      [
        "Ġid",
        "enti"
      ],
      [
        "Ġra",
        "di"
      ],
      [
        "Ġab",
        "out"
      ],
      [
        "Ġac",
        "ute"
      ],
      [
        "Ġcharacter",
        "ized"
      ],
      [
        "Ġp",
        "ot"
      ],
      [
        "os",
        "s"
      ],
      [
        "Ġp",
        "ost"
      ],
      [
        "Ġl",
        "ong"
      ],
      [
        "Ġde",
        "ath"
      ],
      [
        "Ġhospit",
        "al"
      ],
      [
        "Ġg",
        "ra"
      ],
      [
        "Ġl",
        "i"
      ],
      [
        "Ġfre",
        "qu"
      ],
      [
        "Ġ",
        "up"
      ],
      [
        "Ġus",
        "ing"
      ],
      [
        "Ġ",
        "9"
      ],
      [
        "u",
        "tion"
      ],
      [
        "Ġv",
        "ir"
      ],
      [
        "st",
        "r"
      ],
      [
        "Ġc",
        "hem"
      ],
      [
        "e",
        "ous"
      ],
      [
        "Ġsymptom",
        "s"
      ],
      [
        "f",
        "ore"
      ],
      [
        "Ġre",
        "se"
      ],
      [
        "un",
        "g"
      ],
      [
        "Ġdiffe",
        "rent"
      ],
      [
        "ical",
        "ly"
      ],
      [
        "Ġm",
        "or"
      ],
      [
        "Ġgro",
        "up"
      ],
      [
        "d",
        "om"
      ],
      [
        "Ġst",
        "ruct"
      ],
      [
        "re",
        "e"
      ],
      [
        "duc",
        "ed"
      ],
      [
        "Ġof",
        "ten"
      ],
      [
        "ot",
        "he"
      ],
      [
        "Ġprim",
        "ary"
      ],
      [
        "Ġvari",
        "ous"
      ],
      [
        "c",
        "ed"
      ],
      [
        "ol",
        "ec"
      ],
      [
        "Ġad",
        "v"
      ],
      [
        "Ġl",
        "es"
      ],
      [
        "iti",
        "s"
      ],
      [
        "Ġm",
        "in"
      ],
      [
        "Ġo",
        "ur"
      ],
      [
        "ech",
        "an"
      ],
      [
        "i",
        "ly"
      ],
      [
        "f",
        "ul"
      ],
      [
        "Ġchild",
        "ren"
      ],
      [
        "Ġmeth",
        "od"
      ],
      [
        "k",
        "ing"
      ],
      [
        "ri",
        "es"
      ],
      [
        "c",
        "om"
      ],
      [
        "Ġex",
        "per"
      ],
      [
        "fic",
        "i"
      ],
      [
        "Ġwom",
        "en"
      ],
      [
        "ter",
        "n"
      ],
      [
        "in",
        "t"
      ],
      [
        "ab",
        "ility"
      ],
      [
        "c",
        "le"
      ],
      [
        "i",
        "tion"
      ],
      [
        "Ġr",
        "ate"
      ],
      [
        "ol",
        "ic"
      ],
      [
        "Ġb",
        "l"
      ],
      [
        "Ġhist",
        "ory"
      ],
      [
        "Ġs",
        "am"
      ],
      [
        "Ġd",
        "ys"
      ],
      [
        "oc",
        "y"
      ],
      [
        "g",
        "es"
      ],
      [
        "Ġmed",
        "ic"
      ],
      [
        "Ġrec",
        "ent"
      ],
      [
        "Ġlar",
        "ge"
      ],
      [
        "Ġear",
        "ly"
      ],
      [
        "Ġsec",
        "ond"
      ],
      [
        "Ġt",
        "erm"
      ],
      [
        "Ġincre",
        "asing"
      ],
      [
        "v",
        "ir"
      ],
      [
        "Ġpro",
        "ble"
      ],
      [
        "et",
        "y"
      ],
      [
        "Ġm",
        "echan"
      ],
      [
        "r",
        "ation"
      ],
      [
        "Ġl",
        "oss"
      ],
      [
        "ve",
        "re"
      ],
      [
        "Ġpreval",
        "ence"
      ],
      [
        "Ġcl",
        "ass"
      ],
      [
        "Ġindi",
        "vid"
      ],
      [
        "Ġb",
        "one"
      ],
      [
        "ub",
        "l"
      ],
      [
        "Ġmic",
        "ro"
      ],
      [
        "ys",
        "is"
      ],
      [
        "Ġa",
        "v"
      ],
      [
        "ar",
        "k"
      ],
      [
        "Ġdat",
        "a"
      ],
      [
        "i",
        "um"
      ],
      [
        "Ġl",
        "ym"
      ],
      [
        "Ġar",
        "ter"
      ],
      [
        "Ġf",
        "ound"
      ],
      [
        "Ġsin",
        "ce"
      ],
      [
        "Ġinj",
        "ur"
      ],
      [
        "tic",
        "s"
      ],
      [
        "Ġm",
        "em"
      ],
      [
        "Ġindivid",
        "ual"
      ],
      [
        "it",
        "s"
      ],
      [
        "Ġli",
        "ke"
      ],
      [
        "Ġ",
        "ir"
      ],
      [
        "ens",
        "ion"
      ],
      [
        "ill",
        "ion"
      ],
      [
        "p",
        "s"
      ],
      [
        "p",
        "tion"
      ],
      [
        "Ġse",
        "vere"
      ],
      [
        "00",
        "0"
      ],
      [
        "Ġspec",
        "ific"
      ],
      [
        "Ġper",
        "i"
      ],
      [
        "c",
        "o"
      ],
      [
        "as",
        "is"
      ],
      [
        "is",
        "e"
      ],
      [
        "Ġ",
        "0"
      ],
      [
        "Ġc",
        "r"
      ],
      [
        "Ġprev",
        "ious"
      ],
      [
        "Ġdescrib",
        "ed"
      ],
      [
        "Ġw",
        "ide"
      ],
      [
        "l",
        "es"
      ],
      [
        "Ġsurg",
        "ical"
      ],
      [
        "Ġlym",
        "ph"
      ],
      [
        "an",
        "ge"
      ],
      [
        "op",
        "le"
      ],
      [
        "Ġ19",
        "9"
      ],
      [
        "en",
        "ing"
      ],
      [
        "ad",
        "e"
      ],
      [
        "ie",
        "w"
      ],
      [
        "Ġb",
        "en"
      ],
      [
        "Ġper",
        "s"
      ],
      [
        "Ġcount",
        "ries"
      ],
      [
        "ograph",
        "y"
      ],
      [
        "Ġpo",
        "ly"
      ],
      [
        "Ġm",
        "ass"
      ],
      [
        "Ġse",
        "l"
      ],
      [
        "ec",
        "tive"
      ],
      [
        "Ġf",
        "em"
      ],
      [
        "Ġpe",
        "ople"
      ],
      [
        "Ġt",
        "e"
      ],
      [
        "Ġg",
        "ast"
      ],
      [
        "Ġes",
        "tim"
      ],
      [
        "Ġin",
        "iti"
      ],
      [
        "Ġb",
        "ody"
      ],
      [
        "er",
        "ative"
      ],
      [
        "Ġn",
        "ec"
      ],
      [
        "Ġro",
        "le"
      ],
      [
        "Ġad",
        "m"
      ],
      [
        "Ġhe",
        "r"
      ],
      [
        "Ġtum",
        "ors"
      ],
      [
        "Ġm",
        "y"
      ],
      [
        "Ġcontro",
        "l"
      ],
      [
        "Ġs",
        "im"
      ],
      [
        "Ġm",
        "olec"
      ],
      [
        "ar",
        "g"
      ],
      [
        "Ġwh",
        "ile"
      ],
      [
        "Ġmet",
        "ab"
      ],
      [
        "ag",
        "ing"
      ],
      [
        "l",
        "as"
      ],
      [
        "op",
        "ath"
      ],
      [
        "Ġrese",
        "arch"
      ],
      [
        "re",
        "ct"
      ],
      [
        "Ġpro",
        "ced"
      ],
      [
        "Ġle",
        "ft"
      ],
      [
        "us",
        "ion"
      ],
      [
        "qu",
        "e"
      ],
      [
        "Ġb",
        "rain"
      ],
      [
        "ro",
        "ph"
      ],
      [
        "Ġf",
        "ib"
      ],
      [
        "Ġidenti",
        "f"
      ],
      [
        "ti",
        "l"
      ],
      [
        "Ġp",
        "ubl"
      ],
      [
        "Ġad",
        "dition"
      ],
      [
        "Ġsm",
        "all"
      ],
      [
        "Ġb",
        "re"
      ],
      [
        "Ġr",
        "ight"
      ],
      [
        "Ġmal",
        "ign"
      ],
      [
        "ang",
        "es"
      ],
      [
        "Ġat",
        "t"
      ],
      [
        "Ġus",
        "ually"
      ],
      [
        "in",
        "s"
      ],
      [
        "iz",
        "e"
      ],
      [
        "d",
        "s"
      ],
      [
        "Ġre",
        "qui"
      ],
      [
        "b",
        "id"
      ],
      [
        "an",
        "eous"
      ],
      [
        "he",
        "n"
      ],
      [
        "er",
        "c"
      ],
      [
        "al",
        "u"
      ],
      [
        "Ġincre",
        "ase"
      ],
      [
        "Ġf",
        "ail"
      ],
      [
        "os",
        "cop"
      ],
      [
        "ress",
        "ive"
      ],
      [
        "k",
        "s"
      ],
      [
        "ul",
        "in"
      ],
      [
        "lo",
        "b"
      ],
      [
        "v",
        "ing"
      ],
      [
        "Ġp",
        "ul"
      ],
      [
        "Ġd",
        "o"
      ],
      [
        "Ġtech",
        "ni"
      ],
      [
        "ro",
        "p"
      ],
      [
        "r",
        "act"
      ],
      [
        "Ġex",
        "amin"
      ],
      [
        "Ġint",
        "ra"
      ],
      [
        "Ġeffec",
        "ts"
      ],
      [
        "Ġres",
        "ults"
      ],
      [
        "ide",
        "red"
      ],
      [
        "Ġcons",
        "idered"
      ],
      [
        "Ġdisorder",
        "s"
      ],
      [
        "Ġinclud",
        "e"
      ],
      [
        "Ġpresent",
        "ed"
      ],
      [
        "Ġwith",
        "in"
      ],
      [
        "Ġinflamm",
        "atory"
      ],
      [
        "Ġre",
        "v"
      ],
      [
        "ren",
        "ce"
      ],
      [
        "Ġc",
        "urrent"
      ],
      [
        "al",
        "e"
      ],
      [
        "it",
        "al"
      ],
      [
        "Ġf",
        "in"
      ],
      [
        "Ġcar",
        "cin"
      ],
      [
        "Ġrem",
        "ain"
      ],
      [
        "Ġo",
        "x"
      ],
      [
        "is",
        "ms"
      ],
      [
        "is",
        "hed"
      ],
      [
        "Ġacc",
        "or"
      ],
      [
        "Ġappro",
        "xim"
      ],
      [
        "Ġob",
        "es"
      ],
      [
        "Ġwhe",
        "re"
      ],
      [
        "Ġf",
        "am"
      ],
      [
        "Ġl",
        "iver"
      ],
      [
        "Ġp",
        "a"
      ],
      [
        "ter",
        "ior"
      ],
      [
        "Ġne",
        "ed"
      ],
      [
        "Ġperi",
        "od"
      ],
      [
        "Ġsh",
        "own"
      ],
      [
        "Ġ",
        "est"
      ],
      [
        "Ġsu",
        "g"
      ],
      [
        "Ġm",
        "ater"
      ],
      [
        "ar",
        "c"
      ],
      [
        "Ġinf",
        "orm"
      ],
      [
        "Ġm",
        "illion"
      ],
      [
        "pl",
        "ant"
      ],
      [
        "Ġre",
        "nal"
      ],
      [
        "vir",
        "on"
      ],
      [
        "y",
        "d"
      ],
      [
        "in",
        "es"
      ],
      [
        "Ġc",
        "oll"
      ],
      [
        "ov",
        "ascular"
      ],
      [
        "Ġlead",
        "ing"
      ],
      [
        "Ġc",
        "at"
      ],
      [
        "us",
        "t"
      ],
      [
        "w",
        "ide"
      ],
      [
        "Ġn",
        "ormal"
      ],
      [
        "Ġhe",
        "p"
      ],
      [
        "Ġapproxim",
        "ately"
      ],
      [
        "ag",
        "es"
      ],
      [
        "a",
        "re"
      ],
      [
        "se",
        "qu"
      ],
      [
        "Ġmulti",
        "ple"
      ],
      [
        "Ġ1",
        "5"
      ],
      [
        "h",
        "ib"
      ],
      [
        "i",
        "x"
      ],
      [
        "Ġre",
        "ac"
      ],
      [
        "ve",
        "ment"
      ],
      [
        "st",
        "e"
      ],
      [
        "Ġcaus",
        "ed"
      ],
      [
        "an",
        "s"
      ],
      [
        "Ġdevelop",
        "ed"
      ],
      [
        "Ġm",
        "uc"
      ],
      [
        "Ġman",
        "age"
      ],
      [
        "Ġgener",
        "al"
      ],
      [
        "Ġen",
        "viron"
      ],
      [
        "Ġlow",
        "er"
      ],
      [
        "Ġf",
        "ig"
      ],
      [
        "ti",
        "es"
      ],
      [
        "Ġde",
        "l"
      ],
      [
        "Ġs",
        "ens"
      ],
      [
        "f",
        "l"
      ],
      [
        "Ġmon",
        "th"
      ],
      [
        "Ġin",
        "te"
      ],
      [
        "Ġres",
        "ist"
      ],
      [
        "Ġ1",
        "2"
      ],
      [
        "Ġev",
        "alu"
      ],
      [
        "Ġpartic",
        "ular"
      ],
      [
        "Ġ1",
        "3"
      ],
      [
        "c",
        "ent"
      ],
      [
        "Ġfact",
        "or"
      ],
      [
        "Ġworld",
        "wide"
      ],
      [
        "iv",
        "al"
      ],
      [
        "Ġab",
        "dom"
      ],
      [
        "Ġme",
        "as"
      ],
      [
        "Ġc",
        "e"
      ],
      [
        "Ġl",
        "ung"
      ],
      [
        "Ġaccor",
        "ding"
      ],
      [
        "m",
        "a"
      ],
      [
        "anc",
        "y"
      ],
      [
        "Ġcomplic",
        "ations"
      ],
      [
        "Ġs",
        "ol"
      ],
      [
        "Ġth",
        "ree"
      ],
      [
        "Ġcomple",
        "x"
      ],
      [
        "o",
        "tic"
      ],
      [
        "duc",
        "tion"
      ],
      [
        "a",
        "ir"
      ],
      [
        "v",
        "es"
      ],
      [
        "Ġmet",
        "ast"
      ],
      [
        "is",
        "h"
      ],
      [
        "Ġre",
        "st"
      ],
      [
        "st",
        "ruc"
      ],
      [
        "Ġresp",
        "on"
      ],
      [
        "Ġdec",
        "re"
      ],
      [
        "u",
        "ce"
      ],
      [
        "ens",
        "ive"
      ],
      [
        "Ġ",
        "ur"
      ],
      [
        "tion",
        "al"
      ],
      [
        "Ġphys",
        "ical"
      ],
      [
        "em",
        "ia"
      ],
      [
        "Ġan",
        "g"
      ],
      [
        "Ġpro",
        "t"
      ],
      [
        "Ġhe",
        "art"
      ],
      [
        "om",
        "ic"
      ],
      [
        "Ġh",
        "ig"
      ],
      [
        "Ġmanage",
        "ment"
      ],
      [
        "ial",
        "ly"
      ],
      [
        "Ġan",
        "y"
      ],
      [
        "Ġcaus",
        "es"
      ],
      [
        "he",
        "l"
      ],
      [
        "ic",
        "e"
      ],
      [
        "Ġperform",
        "ed"
      ],
      [
        "et",
        "h"
      ],
      [
        "Ġac",
        "id"
      ],
      [
        "Ġcommon",
        "ly"
      ],
      [
        "o",
        "uld"
      ],
      [
        "Ġst",
        "and"
      ],
      [
        "a",
        "red"
      ],
      [
        "uc",
        "le"
      ],
      [
        "Ġch",
        "anges"
      ],
      [
        "Ġcy",
        "t"
      ],
      [
        "ar",
        "di"
      ],
      [
        "Ġdiagn",
        "osed"
      ],
      [
        "or",
        "ts"
      ],
      [
        "Ġel",
        "ect"
      ],
      [
        "othe",
        "rap"
      ],
      [
        "Ġdiffe",
        "ren"
      ],
      [
        "Ġvir",
        "us"
      ],
      [
        "Ġwith",
        "out"
      ],
      [
        "Ġmus",
        "cle"
      ],
      [
        "Ġrespon",
        "se"
      ],
      [
        "Ġactiv",
        "ity"
      ],
      [
        "Ġl",
        "ab"
      ],
      [
        "Ġhyper",
        "t"
      ],
      [
        "Ġdef",
        "ined"
      ],
      [
        "in",
        "ation"
      ],
      [
        "Ġsur",
        "v"
      ],
      [
        "Ġgrow",
        "th"
      ],
      [
        "p",
        "or"
      ],
      [
        "ti",
        "g"
      ],
      [
        "Ġan",
        "im"
      ],
      [
        "Ġth",
        "ose"
      ],
      [
        "Ġs",
        "kin"
      ],
      [
        "it",
        "es"
      ],
      [
        "Ġl",
        "ess"
      ],
      [
        "i",
        "tive"
      ],
      [
        "Ġob",
        "s"
      ],
      [
        "Ġre",
        "cept"
      ],
      [
        "sy",
        "ch"
      ],
      [
        "Ġ",
        "z"
      ],
      [
        "on",
        "t"
      ],
      [
        "Ġbe",
        "ing"
      ],
      [
        "Ġenviron",
        "ment"
      ],
      [
        "ro",
        "id"
      ],
      [
        "Ġqu",
        "ality"
      ],
      [
        "Ġeffec",
        "tive"
      ],
      [
        "Ġmor",
        "bid"
      ],
      [
        "ar",
        "m"
      ],
      [
        "Ġv",
        "al"
      ],
      [
        "di",
        "tions"
      ],
      [
        "Ġpot",
        "ential"
      ],
      [
        "Ġinjur",
        "y"
      ],
      [
        "Ġfail",
        "ure"
      ],
      [
        "c",
        "es"
      ],
      [
        "Ġb",
        "acter"
      ],
      [
        "Ġsu",
        "p"
      ],
      [
        "Ġloc",
        "al"
      ],
      [
        "ra",
        "m"
      ],
      [
        "Ġlevel",
        "s"
      ],
      [
        "o",
        "ver"
      ],
      [
        "Ġcon",
        "ditions"
      ],
      [
        "Ġresp",
        "ons"
      ],
      [
        "ater",
        "al"
      ],
      [
        "r",
        "h"
      ],
      [
        "Ġ",
        "ve"
      ],
      [
        "Ġl",
        "iter"
      ],
      [
        "ab",
        "l"
      ],
      [
        "Ġbre",
        "ast"
      ],
      [
        "Ġfe",
        "w"
      ],
      [
        "Ġfollow",
        "ing"
      ],
      [
        "re",
        "m"
      ],
      [
        "Ġm",
        "m"
      ],
      [
        "Ġab",
        "s"
      ],
      [
        "Ġles",
        "ions"
      ],
      [
        "Ġv",
        "ery"
      ],
      [
        "Ġpro",
        "vid"
      ],
      [
        "Ġpre",
        "d"
      ],
      [
        "Ġor",
        "al"
      ],
      [
        "Ġinfec",
        "tions"
      ],
      [
        "es",
        "is"
      ],
      [
        "ar",
        "ia"
      ],
      [
        "Ġs",
        "a"
      ],
      [
        "Ġ5",
        "0"
      ],
      [
        "Ġgene",
        "tic"
      ],
      [
        "Ġm",
        "en"
      ],
      [
        "Ġpro",
        "m"
      ],
      [
        "Ġim",
        "aging"
      ],
      [
        "Ġ",
        "ed"
      ],
      [
        "Ġg",
        "reat"
      ],
      [
        "ut",
        "ed"
      ],
      [
        "Ġp",
        "ress"
      ],
      [
        "Ġcardi",
        "ovascular"
      ],
      [
        "Ġestim",
        "ated"
      ],
      [
        "Ġcent",
        "ral"
      ],
      [
        "Ġ",
        "if"
      ],
      [
        "Ġe",
        "le"
      ],
      [
        "Ġ3",
        "0"
      ],
      [
        "Ġreg",
        "ion"
      ],
      [
        "Ġf",
        "ur"
      ],
      [
        "Ġrev",
        "iew"
      ],
      [
        "n",
        "ing"
      ],
      [
        "Ġe",
        "ach"
      ],
      [
        "Ġdet",
        "erm"
      ],
      [
        "Ġde",
        "mon"
      ],
      [
        "Ġem",
        "erg"
      ],
      [
        "Ġmal",
        "e"
      ],
      [
        "Ġins",
        "ulin"
      ],
      [
        "Ġpos",
        "s"
      ],
      [
        "Ġshow",
        "ed"
      ],
      [
        "er",
        "ic"
      ],
      [
        "olog",
        "ic"
      ],
      [
        "m",
        "ed"
      ],
      [
        "Ġdemon",
        "str"
      ],
      [
        "Ġprotein",
        "s"
      ],
      [
        "Ġobes",
        "ity"
      ],
      [
        "re",
        "ated"
      ],
      [
        "Ġre",
        "ve"
      ],
      [
        "Ġad",
        "ults"
      ],
      [
        "Ġse",
        "qu"
      ],
      [
        "Ġfl",
        "u"
      ],
      [
        "Ġmem",
        "b"
      ],
      [
        "om",
        "as"
      ],
      [
        "tain",
        "ed"
      ],
      [
        "y",
        "roid"
      ],
      [
        "Ġs",
        "ti"
      ],
      [
        "Ġes",
        "pec"
      ],
      [
        "Ġl",
        "ip"
      ],
      [
        "Ġpro",
        "st"
      ],
      [
        "Ġind",
        "ic"
      ],
      [
        "Ġrec",
        "ently"
      ],
      [
        "iss",
        "ion"
      ],
      [
        "Ġespec",
        "ially"
      ],
      [
        "Ġf",
        "ac"
      ],
      [
        "Ġexamin",
        "ation"
      ],
      [
        "otherap",
        "y"
      ],
      [
        "Ġfur",
        "ther"
      ],
      [
        "Ġto",
        "tal"
      ],
      [
        "iver",
        "s"
      ],
      [
        "Ġsuc",
        "cess"
      ],
      [
        "Ġobs",
        "erv"
      ],
      [
        "Ġg",
        "u"
      ],
      [
        "op",
        "las"
      ],
      [
        "Ġmorbid",
        "ity"
      ],
      [
        "Ġliter",
        "ature"
      ],
      [
        "est",
        "inal"
      ],
      [
        "e",
        "x"
      ],
      [
        "Ġass",
        "ess"
      ],
      [
        "Ġthere",
        "fore"
      ],
      [
        "Ġdif",
        "fic"
      ],
      [
        "Ġmater",
        "ial"
      ],
      [
        "Ġv",
        "ascular"
      ],
      [
        "i",
        "at"
      ],
      [
        "Ġpro",
        "v"
      ],
      [
        "Ġev",
        "idence"
      ],
      [
        "Ġinform",
        "ation"
      ],
      [
        "e",
        "u"
      ],
      [
        "Ġpr",
        "ac"
      ],
      [
        "arg",
        "et"
      ],
      [
        "Ġc",
        "al"
      ],
      [
        "Ġs",
        "he"
      ],
      [
        "mon",
        "ary"
      ],
      [
        "Ġinfl",
        "u"
      ],
      [
        "Ġcon",
        "dition"
      ],
      [
        "Ġdis",
        "c"
      ],
      [
        "Ġav",
        "ail"
      ],
      [
        "Ġt",
        "arget"
      ],
      [
        "al",
        "ed"
      ],
      [
        "Ġpro",
        "per"
      ],
      [
        "Ġwe",
        "ight"
      ],
      [
        "Ġindividual",
        "s"
      ],
      [
        "Ġhe",
        "ad"
      ],
      [
        "Ġoccur",
        "s"
      ],
      [
        "Ġt",
        "ri"
      ],
      [
        "Ġmonth",
        "s"
      ],
      [
        "v",
        "ity"
      ],
      [
        "Ġpro",
        "l"
      ],
      [
        "Ġsc",
        "i"
      ],
      [
        "m",
        "it"
      ],
      [
        "is",
        "ts"
      ],
      [
        "l",
        "er"
      ],
      [
        "Ġor",
        "ig"
      ],
      [
        "Ġsu",
        "pp"
      ],
      [
        "Ġspec",
        "ies"
      ],
      [
        "Ġab",
        "n"
      ],
      [
        "Ġfunction",
        "al"
      ],
      [
        "ocy",
        "t"
      ],
      [
        "Ġdiagn",
        "os"
      ],
      [
        "Ġpress",
        "ure"
      ],
      [
        "Ġcom",
        "b"
      ],
      [
        "Ġabdom",
        "inal"
      ],
      [
        "r",
        "ate"
      ],
      [
        "Ġpl",
        "as"
      ],
      [
        "Ġpar",
        "t"
      ],
      [
        "Ġde",
        "m"
      ],
      [
        "Ġrep",
        "res"
      ],
      [
        "b",
        "i"
      ],
      [
        "Ġp",
        "sych"
      ],
      [
        "Ġst",
        "ro"
      ],
      [
        "Ġh",
        "is"
      ],
      [
        "Ġimmun",
        "e"
      ],
      [
        "Ġunder",
        "st"
      ],
      [
        "Ġbe",
        "h"
      ],
      [
        "Ġin",
        "hib"
      ],
      [
        "Ġe",
        "c"
      ],
      [
        "enc",
        "es"
      ],
      [
        "Ġtech",
        "n"
      ],
      [
        "Ġd",
        "am"
      ],
      [
        "Ġg",
        "lob"
      ],
      [
        "Ġwor",
        "k"
      ],
      [
        "Ġf",
        "at"
      ],
      [
        "Ġep",
        "id"
      ],
      [
        "Ġc",
        "ir"
      ],
      [
        "Ġs",
        "w"
      ],
      [
        "er",
        "ation"
      ],
      [
        "Ġre",
        "d"
      ],
      [
        "p",
        "ar"
      ],
      [
        "ul",
        "es"
      ],
      [
        "Ġdep",
        "end"
      ],
      [
        "Ġco",
        "uld"
      ],
      [
        "a",
        "e"
      ],
      [
        "Ġ1",
        "8"
      ],
      [
        "ie",
        "ld"
      ],
      [
        "Ġev",
        "en"
      ],
      [
        "anc",
        "es"
      ],
      [
        "Ġs",
        "ing"
      ],
      [
        "Ġcor",
        "on"
      ],
      [
        "oc",
        "k"
      ],
      [
        "Ġrec",
        "og"
      ],
      [
        "Ġsurv",
        "ival"
      ],
      [
        "Ġcom",
        "mun"
      ],
      [
        "Ġinv",
        "es"
      ],
      [
        "Ġr",
        "ange"
      ],
      [
        "Ġmethod",
        "s"
      ],
      [
        "Ġpath",
        "ogen"
      ],
      [
        "Ġpubl",
        "ic"
      ],
      [
        "Ġinves",
        "tig"
      ],
      [
        "n",
        "s"
      ],
      [
        "Ġp",
        "ast"
      ],
      [
        "Ġcarcin",
        "oma"
      ],
      [
        "Ġfam",
        "ily"
      ],
      [
        "Ġhig",
        "her"
      ],
      [
        "Ġt",
        "est"
      ],
      [
        "Ġcont",
        "in"
      ],
      [
        "Ġo",
        "l"
      ],
      [
        "Ġw",
        "ill"
      ],
      [
        "Ġdrug",
        "s"
      ],
      [
        "Ġdifferen",
        "ti"
      ],
      [
        "Ġc",
        "le"
      ],
      [
        "Ġs",
        "us"
      ],
      [
        "iv",
        "ed"
      ],
      [
        "is",
        "ion"
      ],
      [
        "Ġst",
        "ress"
      ],
      [
        "Ġgl",
        "uc"
      ],
      [
        "o",
        "k"
      ],
      [
        "Ġt",
        "em"
      ],
      [
        "Ġd",
        "na"
      ],
      [
        "id",
        "es"
      ],
      [
        "Ġexper",
        "i"
      ],
      [
        "Ġsti",
        "ll"
      ],
      [
        "1",
        "0"
      ],
      [
        "p",
        "id"
      ],
      [
        "qu",
        "es"
      ],
      [
        "re",
        "b"
      ],
      [
        "Ġcon",
        "f"
      ],
      [
        "Ġmod",
        "el"
      ],
      [
        "Ġfrequ",
        "ently"
      ],
      [
        "e",
        "f"
      ],
      [
        "Ġm",
        "ut"
      ],
      [
        "Ġsub",
        "j"
      ],
      [
        "at",
        "ures"
      ],
      [
        "Ġ2",
        "5"
      ],
      [
        "Ġtra",
        "um"
      ],
      [
        "Ġst",
        "ates"
      ],
      [
        "Ġreve",
        "aled"
      ],
      [
        "ic",
        "s"
      ],
      [
        "os",
        "ph"
      ],
      [
        "Ġbe",
        "l"
      ],
      [
        "Ġsur",
        "f"
      ],
      [
        "e",
        "tic"
      ],
      [
        "Ġm",
        "ac"
      ],
      [
        "ic",
        "es"
      ],
      [
        "Ġanal",
        "ysis"
      ],
      [
        "e",
        "ar"
      ],
      [
        "pit",
        "e"
      ],
      [
        "fici",
        "ency"
      ],
      [
        "Ġ",
        "er"
      ],
      [
        "Ġdes",
        "pite"
      ],
      [
        "Ġarter",
        "y"
      ],
      [
        "op",
        "erative"
      ],
      [
        "if",
        "ied"
      ],
      [
        "Ġpres",
        "ence"
      ],
      [
        "Ġpre",
        "gn"
      ],
      [
        "Ġidentif",
        "ied"
      ],
      [
        "s",
        "et"
      ],
      [
        "Ġstand",
        "ard"
      ],
      [
        "Ġcharacter",
        "is"
      ],
      [
        "Ġmetab",
        "olic"
      ],
      [
        "Ġhypert",
        "ension"
      ],
      [
        "Ġ1",
        "4"
      ],
      [
        "Ġcardi",
        "ac"
      ],
      [
        "Ġfem",
        "ale"
      ],
      [
        "Ġest",
        "abl"
      ],
      [
        "Ġn",
        "ucle"
      ],
      [
        "Ġth",
        "us"
      ],
      [
        "ol",
        "d"
      ],
      [
        "Ġst",
        "age"
      ],
      [
        "ver",
        "se"
      ],
      [
        "Ġinter",
        "ven"
      ],
      [
        "Ġstro",
        "ke"
      ],
      [
        "om",
        "al"
      ],
      [
        "Ġl",
        "ast"
      ],
      [
        "se",
        "l"
      ],
      [
        "Ġj",
        "o"
      ],
      [
        "Ġpo",
        "or"
      ],
      [
        "oscop",
        "ic"
      ],
      [
        "Ġca",
        "p"
      ],
      [
        "eu",
        "tic"
      ],
      [
        "Ġo",
        "per"
      ],
      [
        "Ġo",
        "ste"
      ],
      [
        "Ġsing",
        "le"
      ],
      [
        "Ġins",
        "tit"
      ],
      [
        "Ġresist",
        "ance"
      ],
      [
        "en",
        "g"
      ],
      [
        "Ġc",
        "ri"
      ],
      [
        "Ġrel",
        "ative"
      ],
      [
        "Ġm",
        "at"
      ],
      [
        "Ġcont",
        "rib"
      ],
      [
        "Ġsystem",
        "ic"
      ],
      [
        "Ġresult",
        "ing"
      ],
      [
        "c",
        "ri"
      ],
      [
        "Ġc",
        "t"
      ],
      [
        "Ġs",
        "et"
      ],
      [
        "Ġk",
        "id"
      ],
      [
        "ran",
        "e"
      ],
      [
        "r",
        "ing"
      ],
      [
        "Ġe",
        "ye"
      ],
      [
        "on",
        "al"
      ],
      [
        "Ġv",
        "it"
      ],
      [
        "Ġsystem",
        "s"
      ],
      [
        "Ġinflamm",
        "ation"
      ],
      [
        "Ġvis",
        "ual"
      ],
      [
        "Ġpul",
        "monary"
      ],
      [
        "Ġabn",
        "ormal"
      ],
      [
        "i",
        "ological"
      ],
      [
        "pl",
        "ain"
      ],
      [
        "Ġinvol",
        "ved"
      ],
      [
        "Ġc",
        "he"
      ],
      [
        "Ġre",
        "le"
      ],
      [
        "o",
        "di"
      ],
      [
        "rom",
        "b"
      ],
      [
        "Ġproble",
        "m"
      ],
      [
        "Ġkid",
        "ne"
      ],
      [
        "l",
        "ine"
      ],
      [
        "Ġt",
        "ub"
      ],
      [
        "Ġf",
        "ract"
      ],
      [
        "Ġcoron",
        "ary"
      ],
      [
        "Ġdevelop",
        "ing"
      ],
      [
        "Ġs",
        "tim"
      ],
      [
        "Ġr",
        "ates"
      ],
      [
        "d",
        "en"
      ],
      [
        "ad",
        "es"
      ],
      [
        "Ġ4",
        "0"
      ],
      [
        "Ġd",
        "om"
      ],
      [
        "Ġb",
        "ur"
      ],
      [
        "Ġun",
        "ited"
      ],
      [
        "Ġtyp",
        "es"
      ],
      [
        "Ġmolec",
        "ular"
      ],
      [
        "t",
        "y"
      ],
      [
        "Ġtiss",
        "ues"
      ],
      [
        "Ġbeh",
        "av"
      ],
      [
        "p",
        "e"
      ],
      [
        "Ġ",
        "x"
      ],
      [
        "Ġis",
        "ol"
      ],
      [
        "Ġcont",
        "ain"
      ],
      [
        "Ġlab",
        "or"
      ],
      [
        "ut",
        "aneous"
      ],
      [
        "Ġra",
        "pid"
      ],
      [
        "Ġwide",
        "ly"
      ],
      [
        "Ġgast",
        "ro"
      ],
      [
        "Ġp",
        "at"
      ],
      [
        "ic",
        "k"
      ],
      [
        "Ġde",
        "v"
      ],
      [
        "Ġf",
        "our"
      ],
      [
        "Ġh",
        "iv"
      ],
      [
        "Ġpro",
        "f"
      ],
      [
        "Ġfin",
        "ding"
      ],
      [
        "Ġavail",
        "able"
      ],
      [
        "oc",
        "ial"
      ],
      [
        "Ġsug",
        "ges"
      ],
      [
        "anc",
        "ed"
      ],
      [
        "Ġf",
        "oc"
      ],
      [
        "u",
        "k"
      ],
      [
        "Ġch",
        "all"
      ],
      [
        "Ġmeas",
        "ure"
      ],
      [
        "Ġt",
        "reated"
      ],
      [
        "ol",
        "es"
      ],
      [
        "ati",
        "tis"
      ],
      [
        "Ġ2",
        "4"
      ],
      [
        "Ġdiffic",
        "ult"
      ],
      [
        "Ġm",
        "ot"
      ],
      [
        "res",
        "t"
      ],
      [
        "pl",
        "es"
      ],
      [
        "Ġang",
        "i"
      ],
      [
        "it",
        "ation"
      ],
      [
        "Ġcomp",
        "ared"
      ],
      [
        "Ġap",
        "plic"
      ],
      [
        "Ġ",
        "ill"
      ],
      [
        "Ġh",
        "or"
      ],
      [
        "om",
        "p"
      ],
      [
        "em",
        "ic"
      ],
      [
        "Ġproble",
        "ms"
      ],
      [
        "Ġ",
        "ent"
      ],
      [
        "Ġs",
        "l"
      ],
      [
        "fer",
        "red"
      ],
      [
        "ul",
        "l"
      ],
      [
        "ir",
        "atory"
      ],
      [
        "Ġsecond",
        "ary"
      ],
      [
        "Ġorig",
        "in"
      ],
      [
        "Ġman",
        "if"
      ],
      [
        "1",
        "2"
      ],
      [
        "c",
        "ul"
      ],
      [
        "Ġc",
        "d"
      ],
      [
        "it",
        "her"
      ],
      [
        "Ġcons",
        "id"
      ],
      [
        "Ġce",
        "reb"
      ],
      [
        "a",
        "x"
      ],
      [
        "Ġm",
        "id"
      ],
      [
        "f",
        "unction"
      ],
      [
        "z",
        "ym"
      ],
      [
        "Ġs",
        "erv"
      ],
      [
        "Ġbec",
        "ome"
      ],
      [
        "Ġthe",
        "m"
      ],
      [
        "Ġcomp",
        "on"
      ],
      [
        "y",
        "n"
      ],
      [
        "Ġf",
        "ood"
      ],
      [
        "as",
        "ive"
      ],
      [
        "Ġlim",
        "ited"
      ],
      [
        "in",
        "d"
      ],
      [
        "Ġb",
        "ack"
      ],
      [
        "Ġ1",
        "00"
      ],
      [
        "pp",
        "er"
      ],
      [
        "Ġeffec",
        "t"
      ],
      [
        "iv",
        "ing"
      ],
      [
        "yd",
        "ro"
      ],
      [
        "Ġfe",
        "atures"
      ],
      [
        "Ġth",
        "romb"
      ],
      [
        "ver",
        "s"
      ],
      [
        "Ġsu",
        "per"
      ],
      [
        "Ġi",
        "i"
      ],
      [
        "in",
        "ary"
      ],
      [
        "Ġn",
        "od"
      ],
      [
        "Ġassoci",
        "ation"
      ],
      [
        "Ġappro",
        "ach"
      ],
      [
        "he",
        "tic"
      ],
      [
        "Ġu",
        "pper"
      ],
      [
        "re",
        "ad"
      ],
      [
        "er",
        "ve"
      ],
      [
        "il",
        "ar"
      ],
      [
        "Ġex",
        "c"
      ],
      [
        "Ġreg",
        "ul"
      ],
      [
        "Ġdi",
        "rect"
      ],
      [
        "Ġprog",
        "ressive"
      ],
      [
        "ro",
        "w"
      ],
      [
        "ent",
        "ric"
      ],
      [
        "ol",
        "ar"
      ],
      [
        "Ġbe",
        "fore"
      ],
      [
        "Ġext",
        "rem"
      ],
      [
        "Ġd",
        "ental"
      ],
      [
        "oc",
        "ardi"
      ],
      [
        "Ġne",
        "g"
      ],
      [
        "Ġsh",
        "ort"
      ],
      [
        "and",
        "s"
      ],
      [
        "w",
        "ay"
      ],
      [
        "ro",
        "und"
      ],
      [
        "Ġ1",
        "1"
      ],
      [
        "is",
        "ed"
      ],
      [
        "ce",
        "p"
      ],
      [
        "Ġrep",
        "orts"
      ],
      [
        "opath",
        "y"
      ],
      [
        "ec",
        "ts"
      ],
      [
        "Ġmechan",
        "isms"
      ],
      [
        "Ġmalign",
        "ant"
      ],
      [
        "ivers",
        "ity"
      ],
      [
        "re",
        "c"
      ],
      [
        "Ġp",
        "hen"
      ],
      [
        "at",
        "or"
      ],
      [
        "os",
        "ure"
      ],
      [
        "Ġn",
        "at"
      ],
      [
        "ver",
        "y"
      ],
      [
        "r",
        "u"
      ],
      [
        "Ġa",
        "ir"
      ],
      [
        "Ġag",
        "ents"
      ],
      [
        "Ġsyn",
        "t"
      ],
      [
        "Ġtherap",
        "eutic"
      ],
      [
        "a",
        "ke"
      ],
      [
        "iat",
        "ric"
      ],
      [
        "Ġdiagnos",
        "tic"
      ],
      [
        "Ġt",
        "es"
      ],
      [
        "Ġp",
        "c"
      ],
      [
        "Ġp",
        "ur"
      ],
      [
        "Ġm",
        "ark"
      ],
      [
        "Ġpro",
        "p"
      ],
      [
        "Ġremain",
        "s"
      ],
      [
        "Ġsh",
        "ould"
      ],
      [
        "Ġp",
        "anc"
      ],
      [
        "Ġresp",
        "iratory"
      ],
      [
        "Ġth",
        "ir"
      ],
      [
        "Ġbi",
        "ological"
      ],
      [
        "Ġtechni",
        "ques"
      ],
      [
        "in",
        "ant"
      ],
      [
        "an",
        "ti"
      ],
      [
        "Ġdemonstr",
        "ated"
      ],
      [
        "in",
        "a"
      ],
      [
        "Ġan",
        "terior"
      ],
      [
        "Ġb",
        "il"
      ],
      [
        "Ġn",
        "ational"
      ],
      [
        "Ġen",
        "c"
      ],
      [
        "in",
        "c"
      ],
      [
        "pit",
        "hel"
      ],
      [
        "l",
        "og"
      ],
      [
        "Ġform",
        "ation"
      ],
      [
        "Ġe",
        "ither"
      ],
      [
        "Ġde",
        "fec"
      ],
      [
        "Ġt",
        "om"
      ],
      [
        "ed",
        "ing"
      ],
      [
        "o",
        "f"
      ],
      [
        "Ġf",
        "ield"
      ],
      [
        "Ġhe",
        "l"
      ],
      [
        "Ġse",
        "x"
      ],
      [
        "Ġtr",
        "act"
      ],
      [
        "struc",
        "tion"
      ],
      [
        "Ġprac",
        "ti"
      ],
      [
        "Ġkidne",
        "y"
      ],
      [
        "Ġ",
        "ul"
      ],
      [
        "Ġre",
        "ce"
      ],
      [
        "Ġstruct",
        "ure"
      ],
      [
        "Ġproced",
        "ure"
      ],
      [
        "m",
        "an"
      ],
      [
        "at",
        "us"
      ],
      [
        "Ġn",
        "ow"
      ],
      [
        "Ġac",
        "h"
      ],
      [
        "ri",
        "al"
      ],
      [
        "Ġgen",
        "es"
      ],
      [
        "Ġapp",
        "ear"
      ],
      [
        "Ġimpro",
        "ve"
      ],
      [
        "Ġparticular",
        "ly"
      ],
      [
        "Ġproper",
        "ties"
      ],
      [
        "Ġs",
        "ite"
      ],
      [
        "Ġp",
        "ri"
      ],
      [
        "Ġrec",
        "om"
      ],
      [
        "Ġsup",
        "port"
      ],
      [
        "Ġunderst",
        "and"
      ],
      [
        "Ġ",
        "ess"
      ],
      [
        "Ġc",
        "m"
      ],
      [
        "ac",
        "y"
      ],
      [
        "Ġhe",
        "re"
      ],
      [
        "Ġcy",
        "st"
      ],
      [
        "Ġpartic",
        "ip"
      ],
      [
        "Ġs",
        "our"
      ],
      [
        "Ġex",
        "am"
      ],
      [
        "Ġwe",
        "e"
      ],
      [
        "Ġs",
        "ocial"
      ],
      [
        "ific",
        "ation"
      ],
      [
        "Ġgluc",
        "ose"
      ],
      [
        "Ġare",
        "a"
      ],
      [
        "Ġint",
        "ro"
      ],
      [
        "Ġmed",
        "i"
      ],
      [
        "Ġs",
        "ch"
      ],
      [
        "Ġre",
        "f"
      ],
      [
        "Ġare",
        "as"
      ],
      [
        "Ġprevious",
        "ly"
      ],
      [
        "r",
        "as"
      ],
      [
        "Ġm",
        "g"
      ],
      [
        "Ġpro",
        "gn"
      ],
      [
        "Ġk",
        "e"
      ],
      [
        "Ġcomple",
        "te"
      ],
      [
        "it",
        "us"
      ],
      [
        "Ġth",
        "ough"
      ],
      [
        "Ġon",
        "set"
      ],
      [
        "Ġhigh",
        "ly"
      ],
      [
        "Ġobserv",
        "ed"
      ],
      [
        "Ġpanc",
        "re"
      ],
      [
        "Ġdec",
        "ades"
      ],
      [
        "Ġexp",
        "ression"
      ],
      [
        "in",
        "k"
      ],
      [
        "Ġd",
        "a"
      ],
      [
        "Ġconsid",
        "er"
      ],
      [
        "g",
        "o"
      ],
      [
        "Ġcon",
        "cer"
      ],
      [
        "Ġcon",
        "sequ"
      ],
      [
        "Ġmedic",
        "ine"
      ],
      [
        "Ġdam",
        "age"
      ],
      [
        "Ġt",
        "er"
      ],
      [
        "Ġcon",
        "duc"
      ],
      [
        "ros",
        "s"
      ],
      [
        "Ġam",
        "eric"
      ],
      [
        "te",
        "red"
      ],
      [
        "ten",
        "tion"
      ],
      [
        "Ġtrans",
        "plant"
      ],
      [
        "Ġchem",
        "ical"
      ],
      [
        "l",
        "ed"
      ],
      [
        "n",
        "er"
      ],
      [
        "Ġab",
        "ility"
      ],
      [
        "Ġprev",
        "ent"
      ],
      [
        "Ġinhib",
        "it"
      ],
      [
        "id",
        "s"
      ],
      [
        "Ġdys",
        "function"
      ],
      [
        "g",
        "est"
      ],
      [
        "Ġm",
        "ade"
      ],
      [
        "Ġn",
        "erv"
      ],
      [
        "ot",
        "yp"
      ],
      [
        "Ġper",
        "ip"
      ],
      [
        "Ġem",
        "b"
      ],
      [
        "Ġy",
        "oun"
      ],
      [
        "Ġproced",
        "ures"
      ],
      [
        "Ġrecog",
        "n"
      ],
      [
        "Ġc",
        "og"
      ],
      [
        "Ġv",
        "ol"
      ],
      [
        "Ġsurf",
        "ace"
      ],
      [
        "is",
        "ing"
      ],
      [
        "Ġe",
        "th"
      ],
      [
        "Ġsc",
        "re"
      ],
      [
        "Ġre",
        "duced"
      ],
      [
        "hes",
        "is"
      ],
      [
        "Ġyoun",
        "g"
      ],
      [
        "Ġw",
        "ater"
      ],
      [
        "Ġde",
        "g"
      ],
      [
        "Ġpos",
        "itive"
      ],
      [
        "Ġprov",
        "ide"
      ],
      [
        "Ġpred",
        "ic"
      ],
      [
        "l",
        "i"
      ],
      [
        "Ġd",
        "ays"
      ],
      [
        "Ġpl",
        "ay"
      ],
      [
        "Ġexper",
        "im"
      ],
      [
        "Ġsim",
        "ilar"
      ],
      [
        "a",
        "i"
      ],
      [
        "w",
        "ard"
      ],
      [
        "end",
        "ed"
      ],
      [
        "Ġen",
        "zym"
      ],
      [
        "ect",
        "omy"
      ],
      [
        "or",
        "d"
      ],
      [
        "Ġne",
        "ur"
      ],
      [
        "Ġcell",
        "ular"
      ],
      [
        "Ġinclud",
        "ed"
      ],
      [
        "Ġdeath",
        "s"
      ],
      [
        "Ġs",
        "oci"
      ],
      [
        "Ġb",
        "ir"
      ],
      [
        "ar",
        "ing"
      ],
      [
        "Ġl",
        "ap"
      ],
      [
        "Ġv",
        "er"
      ],
      [
        "Ġv",
        "es"
      ],
      [
        "Ġgener",
        "ally"
      ],
      [
        "Ġsu",
        "f"
      ],
      [
        "Ġinter",
        "ac"
      ],
      [
        "Ġ19",
        "8"
      ],
      [
        "Ġser",
        "um"
      ],
      [
        "Ġadm",
        "in"
      ],
      [
        "Ġcri",
        "tical"
      ],
      [
        "Ġcurrent",
        "ly"
      ],
      [
        "Ġto",
        "x"
      ],
      [
        "Ġdep",
        "art"
      ],
      [
        "Ġkn",
        "ow"
      ],
      [
        "Ġtom",
        "ography"
      ],
      [
        "Ġob",
        "tained"
      ],
      [
        "Ġvari",
        "ety"
      ],
      [
        "Ġaffec",
        "ted"
      ],
      [
        "Ġproduc",
        "tion"
      ],
      [
        "Ġmanif",
        "est"
      ],
      [
        "Ġo",
        "s"
      ],
      [
        "Ġd",
        "er"
      ],
      [
        "Ġin",
        "duced"
      ],
      [
        "Ġm",
        "ag"
      ],
      [
        "Ġst",
        "ate"
      ],
      [
        "ut",
        "ri"
      ],
      [
        "Ġsp",
        "ect"
      ],
      [
        "Ġaut",
        "o"
      ],
      [
        "Ġ",
        "il"
      ],
      [
        "Ġg",
        "o"
      ],
      [
        "c",
        "s"
      ],
      [
        "Ġs",
        "ize"
      ],
      [
        "Ġan",
        "n"
      ],
      [
        "Ġint",
        "rac"
      ],
      [
        "Ġext",
        "rac"
      ],
      [
        "Ġcog",
        "ni"
      ],
      [
        "c",
        "hem"
      ],
      [
        "Ġc",
        "er"
      ],
      [
        "c",
        "ome"
      ],
      [
        "u",
        "f"
      ],
      [
        "Ġ",
        "ult"
      ],
      [
        "ll",
        "ed"
      ],
      [
        "Ġl",
        "ack"
      ],
      [
        "Ġe",
        "pithel"
      ],
      [
        "ti",
        "d"
      ],
      [
        "Ġd",
        "oc"
      ],
      [
        "om",
        "et"
      ],
      [
        "Ġth",
        "yroid"
      ],
      [
        "Ġsuccess",
        "ful"
      ],
      [
        "um",
        "ent"
      ],
      [
        "Ġph",
        "arm"
      ],
      [
        "unc",
        "tions"
      ],
      [
        "Ġess",
        "ential"
      ],
      [
        "Ġd",
        "m"
      ],
      [
        "it",
        "u"
      ],
      [
        "Ġag",
        "ain"
      ],
      [
        "Ġthe",
        "n"
      ],
      [
        "Ġtechni",
        "que"
      ],
      [
        "h",
        "ip"
      ],
      [
        "Ġor",
        "der"
      ],
      [
        "Ġfig",
        "ure"
      ],
      [
        "Ġlap",
        "ar"
      ],
      [
        "b",
        "ility"
      ],
      [
        "Ġs",
        "le"
      ],
      [
        "Ġe",
        "uro"
      ],
      [
        "Ġn",
        "erve"
      ],
      [
        "Ġsp",
        "inal"
      ],
      [
        "Ġclin",
        "ic"
      ],
      [
        "Ġestabl",
        "ished"
      ],
      [
        "Ġperip",
        "her"
      ],
      [
        "Ġo",
        "v"
      ],
      [
        "Ġc",
        "all"
      ],
      [
        "Ġm",
        "el"
      ],
      [
        "pec",
        "tive"
      ],
      [
        "Ġach",
        "ie"
      ],
      [
        "re",
        "l"
      ],
      [
        "Ġd",
        "ay"
      ],
      [
        "Ġpat",
        "tern"
      ],
      [
        "1",
        "3"
      ],
      [
        "a",
        "f"
      ],
      [
        "Ġe",
        "ti"
      ],
      [
        "Ġcon",
        "cent"
      ],
      [
        "Ġfre",
        "e"
      ],
      [
        "Ġele",
        "v"
      ],
      [
        "Ġs",
        "ide"
      ],
      [
        "fic",
        "ation"
      ],
      [
        "Ġall",
        "ow"
      ],
      [
        "Ġro",
        "ot"
      ],
      [
        "Ġ3",
        "5"
      ],
      [
        "Ġprocess",
        "es"
      ],
      [
        "Ġl",
        "o"
      ],
      [
        "Ġad",
        "ult"
      ],
      [
        "Ġcol",
        "on"
      ],
      [
        "int",
        "estinal"
      ],
      [
        "y",
        "gen"
      ],
      [
        "Ġle",
        "ast"
      ],
      [
        "Ġrecept",
        "or"
      ],
      [
        "Ġgastro",
        "intestinal"
      ],
      [
        "Ġeuro",
        "pe"
      ],
      [
        "ly",
        "ing"
      ],
      [
        "le",
        "x"
      ],
      [
        "Ġinv",
        "asive"
      ],
      [
        "Ġtraum",
        "a"
      ],
      [
        "Ġs",
        "ites"
      ],
      [
        "Ġun",
        "iversity"
      ],
      [
        "Ġmemb",
        "rane"
      ],
      [
        "Ġfoc",
        "us"
      ],
      [
        "Ġs",
        "al"
      ],
      [
        "Ġmain",
        "ly"
      ],
      [
        "Ġanim",
        "al"
      ],
      [
        "Ġc",
        "erv"
      ],
      [
        "Ġres",
        "id"
      ],
      [
        "ros",
        "is"
      ],
      [
        "Ġl",
        "ine"
      ],
      [
        "Ġsign",
        "al"
      ],
      [
        "Ġout",
        "com"
      ],
      [
        "Ġtra",
        "dition"
      ],
      [
        "Ġhor",
        "mon"
      ],
      [
        "Ġthir",
        "d"
      ],
      [
        "Ġoutcom",
        "es"
      ],
      [
        "on",
        "es"
      ],
      [
        "Ġdis",
        "s"
      ],
      [
        "Ġsub",
        "st"
      ],
      [
        "Ġrelative",
        "ly"
      ],
      [
        "Ġg",
        "ly"
      ],
      [
        "Ġne",
        "oplas"
      ],
      [
        "Ġcancer",
        "s"
      ],
      [
        "Ġexp",
        "osure"
      ],
      [
        "Ġsm",
        "o"
      ],
      [
        "erg",
        "y"
      ],
      [
        "Ġmin",
        "im"
      ],
      [
        "Ġpracti",
        "ce"
      ],
      [
        "Ġdepart",
        "ment"
      ],
      [
        "or",
        "rh"
      ],
      [
        "iv",
        "en"
      ],
      [
        "Ġles",
        "ion"
      ],
      [
        "Ġglob",
        "al"
      ],
      [
        "Ġlabor",
        "atory"
      ],
      [
        "Ġfinding",
        "s"
      ],
      [
        "Ġneg",
        "ative"
      ],
      [
        "ogen",
        "ic"
      ],
      [
        "Ġpoly",
        "m"
      ],
      [
        "Ġevalu",
        "ation"
      ],
      [
        "al",
        "y"
      ],
      [
        "Ġdes",
        "ign"
      ],
      [
        "Ġdi",
        "et"
      ],
      [
        "Ġmo",
        "di"
      ],
      [
        "Ġcr",
        "iter"
      ],
      [
        "m",
        "ia"
      ],
      [
        "ati",
        "s"
      ],
      [
        "Ġben",
        "ign"
      ],
      [
        "Ġte",
        "eth"
      ],
      [
        "Ġrepres",
        "ent"
      ],
      [
        "o",
        "res"
      ],
      [
        "Ġn",
        "an"
      ],
      [
        "ce",
        "ll"
      ],
      [
        "Ġac",
        "tive"
      ],
      [
        "Ġacc",
        "ess"
      ],
      [
        "Ġwom",
        "an"
      ],
      [
        "oc",
        "h"
      ],
      [
        "fici",
        "ent"
      ],
      [
        "Ġenvironment",
        "al"
      ],
      [
        "Ġrespons",
        "ible"
      ],
      [
        "Ġnat",
        "ural"
      ],
      [
        "y",
        "ing"
      ],
      [
        "ol",
        "ism"
      ],
      [
        "Ġv",
        "entric"
      ],
      [
        "Ġad",
        "en"
      ],
      [
        "Ġnec",
        "k"
      ],
      [
        "Ġcogni",
        "tive"
      ],
      [
        "Ġ1",
        "7"
      ],
      [
        "od",
        "e"
      ],
      [
        "Ġpregn",
        "ancy"
      ],
      [
        "at",
        "in"
      ],
      [
        "Ġre",
        "ferred"
      ],
      [
        "am",
        "e"
      ],
      [
        "am",
        "ic"
      ],
      [
        "Ġac",
        "t"
      ],
      [
        "Ġch",
        "rom"
      ],
      [
        "Ġse",
        "en"
      ],
      [
        "ress",
        "ed"
      ],
      [
        "Ġdecre",
        "ased"
      ],
      [
        "Ġposs",
        "ible"
      ],
      [
        "Ġbehav",
        "ior"
      ],
      [
        "Ġagain",
        "st"
      ],
      [
        "Ġm",
        "ell"
      ],
      [
        "id",
        "ed"
      ],
      [
        "Ġperipher",
        "al"
      ],
      [
        "l",
        "ast"
      ],
      [
        "Ġc",
        "op"
      ],
      [
        "Ġcom",
        "plain"
      ],
      [
        "Ġad",
        "verse"
      ],
      [
        "Ġsub",
        "sequ"
      ],
      [
        "Ġprev",
        "en"
      ],
      [
        "Ġrecom",
        "m"
      ],
      [
        "w",
        "ays"
      ],
      [
        "on",
        "omic"
      ],
      [
        "Ġc",
        "ult"
      ],
      [
        "Ġb",
        "as"
      ],
      [
        "le",
        "t"
      ],
      [
        "ri",
        "tis"
      ],
      [
        "Ġhealth",
        "y"
      ],
      [
        "Ġhuman",
        "s"
      ],
      [
        "Ġb",
        "r"
      ],
      [
        "Ġh",
        "and"
      ],
      [
        "Ġl",
        "ig"
      ],
      [
        "Ġis",
        "chem"
      ],
      [
        "Ġst",
        "atus"
      ],
      [
        "Ġag",
        "g"
      ],
      [
        "Ġso",
        "ft"
      ],
      [
        "cri",
        "ption"
      ],
      [
        "Ġb",
        "o"
      ],
      [
        "ens",
        "ity"
      ],
      [
        "Ġacc",
        "ount"
      ],
      [
        "Ġco",
        "ur"
      ],
      [
        "Ġ6",
        "0"
      ],
      [
        "Ġmod",
        "er"
      ],
      [
        "Ġmell",
        "itus"
      ],
      [
        "Ġad",
        "j"
      ],
      [
        "Ġmot",
        "or"
      ],
      [
        "Ġcriter",
[...]
