{
  "version": "1.0",
  "truncation": null,
  "padding": null,
  "added_tokens": [
    {
      "id": 0,
      "content": "[UNK]",
      "single_word": false,
      "lstrip": false,
      "rstrip": false,
      "normalized": false,
      "special": true
    }
  ],
  "normalizer": null,
  "pre_tokenizer": {
    "type": "Whitespace"
  },
  "post_processor": null,
  "decoder": null,
  "model": {
    "type": "BPE",
    "dropout": null,
    "unk_token": "[UNK]",
    "continuing_subword_prefix": null,
    "end_of_word_suffix": null,
    "fuse_unk": false,
    "byte_fallback": false,
    "ignore_merges": false,
    "vocab": {
      "[UNK]": 0,
      "!": 1,
      "'": 2,
      ",": 3,
      "-": 4,
      ".": 5,
      ":": 6,
      ";": 7,
      "?": 8,
      "A": 9,
      "B": 10,
      "C": 11,
      "D": 12,
      "E": 13,
      "F": 14,
      "G": 15,
      "H": 16,
      "I": 17,
      "J": 18,
      "K": 19,
      "L": 20,
      "M": 21,
      "N": 22,
      "O": 23,
      "P": 24,
      "Q": 25,
      "R": 26,
      "S": 27,
      "T": 28,
      "U": 29,
      "V": 30,
      "W": 31,
      "Y": 32,
      "[": 33,
      "]": 34,
      "a": 35,
      "b": 36,
      "c": 37,
      "d": 38,
      "e": 39,
      "f": 40,
      "g": 41,
      "h": 42,
      "i": 43,
      "j": 44,
      "k": 45,
      "l": 46,
      "m": 47,
      "n": 48,
      "o": 49,
      "p": 50,
      "q": 51,
      "r": 52,
      "s": 53,
      "t": 54,
      "u": 55,
      "v": 56,
      "w": 57,
      "x": 58,
      "y": 59,
      "z": 60,
      "th": 61,
      "ou": 62,
      "an": 63,
      "the": 64,
      "in": 65,
      "re": 66,
      "ll": 67,
      "st": 68,
      "er": 69,
      "is": 70,
      "ha": 71,
      "or": 72,
      "and": 73,
      "he": 74,
      "ar": 75,
      "on": 76,
      "of": 77,
      "en": 78,
      "ow": 79,
      "to": 80,
      "me": 81,
      "le": 82,
      "at": 83,
      "se": 84,
      "it": 85,
      "thou": 86,
      "wi": 87,
      "ing": 88,
      "ay": 89,
      "as": 90,
      "our": 91,
      "ve": 92,
      "ot": 93,
      "al": 94,
      "be": 95,
      "de": 96,
      "ac": 97,
      "nd": 98,
      "ro": 99,
      "hi": 100,
      "my": 101,
      "ld": 102,
      "ut": 103,
      "for": 104,
      "we": 105,
      "hat": 106,
      "ch": 107,
      "ri": 108,
      "li": 109,
      "ter": 110,
      "so": 111,
      "ce": 112,
      "all": 113,
      "thee": 114,
      "not": 115,
      "with": 116,
      "do": 117,
      "that": 118,
      "ed": 119,
      "et": 120,
      "es": 121,
      "you": 122,
      "thy": 123,
      "gh": 124,
      "this": 125,
      "sha": 126,
      "un": 127,
      "are": 128,
      "The": 129,
      "ad": 130,
      "id": 131,
      "his": 132,
      "od": 133,
      "ak": 134,
      "And": 135,
      "will": 136,
      "ir": 137,
      "What": 138,
      "up": 139,
      "ver": 140,
      "now": 141,
      "co": 142,
      "ack": 143,
      "ly": 144,
      "ho": 145,
      "man": 146,
      "wor": 147,
      "ck": 148,
      "lo": 149,
      "est": 150,
      "but": 151,
      "your": 152,
      "hou": 153,
      "here": 154,
      "ther": 155,
      "ff": 156,
      "shall": 157,
      "go": 158,
      "sp": 159,
      "ent": 160,
      "ran": 161,
      "ain": 162,
      "him": 163,
      "ght": 164,
      "am": 165,
      "have": 166,
      "mo": 167,
      "vi": 168,
      "aw": 169,
      "art": 170,
      "hy": 171,
      "ell": 172,
      "no": 173,
      "fa": 174,
      "ur": 175,
      "ne": 176,
      "ge": 177,
      "ear": 178,
      "lt": 179,
      "end": 180,
      "ble": 181,
      "day": 182,
      "su": 183,
      "ra": 184,
      "ru": 185,
      "by": 186,
      "ast": 187,
      "ous": 188,
      "cis": 189,
      "row": 190,
      "rom": 191,
      "how": 192,
      "ound": 193,
      "Fran": 194,
      "ie": 195,
      "Francis": 196,
      "les": 197,
      "one": 198,
      "see": 199,
      "ould": 200,
      "bo": 201,
      "ti": 202,
      "po": 203,
      "mu": 204,
      "sta": 205,
      "cy": 206,
      "gl": 207,
      "ard": 208,
      "Why": 209,
      "did": 210,
      "Jack": 211,
      "they": 212,
      "ercy": 213,
      "come": 214,
      "good": 215,
      "if": 216,
      "ry": 217,
      "tru": 218,
      "say": 219,
      "red": 220,
      "ong": 221,
      "well": 222,
      "from": 223,
      "ince": 224,
      "word": 225,
      "Percy": 226,
      "wo": 227,
      "ke": 228,
      "hen": 229,
      "mp": 230,
      "ap": 231,
      "ake": 232,
      "ace": 233,
      "Fal": 234,
      "How": 235,
      "ant": 236,
      "ight": 237,
      "Thou": 238,
      "then": 239,
      "staff": 240,
      "ill": 241,
      "ag": 242,
      "Falstaff": 243,
      "Ex": 244,
      "mor": 245,
      "lf": 246,
      "ath": 247,
      "ive": 248,
      "them": 249,
      "hast": 250,
      "more": 251,
      "ink": 252,
      "us": 253,
      "fe": 254,
      "ep": 255,
      "He": 256,
      ".]": 257,
      "Jo": 258,
      "hn": 259,
      "For": 260,
      "But": 261,
      "ers": 262,
      "ever": 263,
      "when": 264,
      "John": 265,
      "fo": 266,
      "nter": 267,
      "ven": 268,
      "gu": 269,
      "pl": 270,
      "gr": 271,
      "ord": 272,
      "If": 273,
      "hu": 274,
      "ess": 275,
      "men": 276,
      "Pr": 277,
      "oin": 278,
      "can": 279,
      "clo": 280,
      "was": 281,
      "har": 282,
      "ase": 283,
      "run": 284,
      "ning": 285,
      "reat": 286,
      "ours": 287,
      "That": 288,
      "know": 289,
      "make": 290,
      "what": 291,
      "were": 292,
      "time": 293,
      "much": 294,
      "where": 295,
      "thing": 296,
      "old": 297,
      "ta": 298,
      "ss": 299,
      "Pe": 300,
      "ct": 301,
      "ame": 302,
      "any": 303,
      "ind": 304,
      "too": 305,
      "let": 306,
      "ves": 307,
      "spe": 308,
      "may": 309,
      "bre": 310,
      "hon": 311,
      "ion": 312,
      "like": 313,
      "Well": 314,
      "call": 315,
      "self": 316,
      "upon": 317,
      "Exit": 318,
      "ious": 319,
      "would": 320,
      "Enter": 321,
      "Prince": 322,
      "bu": 323,
      "ome": 324,
      "sc": 325,
      "lp": 326,
      "vil": 327,
      "By": 328,
      "To": 329,
      "qu": 330,
      "pur": 331,
      "swe": 332,
      "out": 333,
      "ise": 334,
      "Dou": 335,
      "God": 336,
      "Sir": 337,
      "pen": 338,
      "two": 339,
      "val": 340,
      "yet": 341,
      "ady": 342,
      "off": 343,
      "bro": 344,
      "Bar": 345,
      "This": 346,
      "four": 347,
      "jest": 348,
      "long": 349,
      "shou": 350,
      "hich": 351,
      "away": 352,
      "glas": 353,
      "play": 354,
      "sword": 355,
      "think": 356,
      "there": 357,
      "stand": 358,
      "again": 359,
      "rithee": 360,
      "morrow": 361,
      "should": 362,
      "Douglas": 363,
      "sack": 364,
      "deed": 365,
      "la": 366,
      "si": 367,
      "fat": 368,
      "hall": 369,
      "No": 370,
      "ol": 371,
      "Go": 372,
      "Do": 373,
      "Ma": 374,
      "low": 375,
      "As": 376,
      "ms": 377,
      "res": 378,
      "unt": 379,
      "cal": 380,
      "hor": 381,
      "af": 382,
      "pro": 383,
      "tri": 384,
      "ine": 385,
      "Now": 386,
      "con": 387,
      "gut": 388,
      "mat": 389,
      "ner": 390,
      "ras": 391,
      "ark": 392,
      "set": 393,
      "ity": 394,
      "lph": 395,
      "aid": 396,
      "age": 397,
      "ring": 398,
      "Come": 399,
      "Poin": 400,
      "kill": 401,
      "ment": 402,
      "part": 403,
      "show": 404,
      "te": 405,
      "thie": 406,
      "head": 407,
      "life": 408,
      "some": 409,
      "cket": 410,
      "vill": 411,
      "true": 412,
      "guts": 413,
      "able": 414,
      "death": 415,
      "devil": 416,
      "dolph": 417,
      "never": 418,
      "jesty": 419,
      "horse": 420,
      "Poins": 421,
      "after": 422,
      "father": 423,
      "pocket": 424,
      "nt": 425,
      "arewell": 426,
      "wherein": 427,
      "brother": 428,
      "Majesty": 429,
      "her": 430,
      "Bardolph": 431,
      "ea": 432,
      "il": 433,
      "ave": 434,
      "We": 435,
      "ul": 436,
      "wer": 437,
      "own": 438,
      "So": 439,
      "Be": 440,
      "ex": 441,
      "mb": 442,
      "It": 443,
      "lie": 444,
      "mer": 445,
      "per": 446,
      "blo": 447,
      "che": 448,
      "ple": 449,
      "ure": 450,
      "hear": 451,
      "Ned": 452,
      "Wa": 453,
      "dis": 454,
      "ft": 455,
      "ick": 456,
      "sir": 457,
      "gar": 458,
      "tak": 459,
      "even": 460,
      "rest": 461,
      "who": 462,
      "iff": 463,
      "inst": 464,
      "ence": 465,
      "ears": 466,
      "back": 467,
      "char": 468,
      "lord": 469,
      "inct": 470,
      "hath": 471,
      "arry": 472,
      "doth": 473,
      "hold": 474,
      "many": 475,
      "ends": 476,
      "rown": 477,
      "less": 478,
      "oney": 479,
      "glor": 480,
      "vali": 481,
      "Where": 482,
      "could": 483,
      "these": 484,
      "speak": 485,
      "sweet": 486,
      "blood": 487,
      "Wales": 488,
      "break": 489,
      "rascal": 490,
      "prithee": 491,
      "thieves": 492,
      "valiant": 493,
      "instinct": 494,
      "such": 495,
      "wh": 496,
      "om": 497,
      "pr": 498,
      "em": 499,
      "ny": 500,
      "itt": 501,
      "oul": 502,
      "par": 503,
      "ide": 504,
      "cou": 505,
      "tre": 506,
      "way": 507,
      "ok": 508,
      "sm": 509,
      "ses": 510,
      ",'": 511,
      "Of": 512,
      "ars": 513,
      "bt": 514,
      "pra": 515,
      "dou": 516,
      "saw": 517,
      "rob": 518,
      "Hot": 519,
      "Who": 520,
      "Yea": 521,
      "cow": 522,
      "fle": 523,
      "fri": 524,
      "fie": 525,
      "pay": 526,
      "tun": 527,
      "wal": 528,
      "cel": 529,
      "rah": 530,
      "land": 531,
      "ans": 532,
      "rave": 533,
      "Your": 534,
      "cast": 535,
      "fell": 536,
      "hand": 537,
      "name": 538,
      "than": 539,
      "meet": 540,
      "alre": 541,
      "dead": 542,
      "hill": 543,
      "most": 544,
      "fair": 545,
      "must": 546,
      "says": 547,
      "foot": 548,
      "hum": 549,
      "runk": 550,
      "Peto": 551,
      "whit": 552,
      "walk": 553,
      "tell": 554,
      "comp": 555,
      "shame": 556,
      "Harry": 557,
      "Shall": 558,
      "great": 559,
      "night": 560,
      "since": 561,
      "which": 562,
      "their": 563,
      "stess": 564,
      "aside": 565,
      "shalt": 566,
      "There": 567,
      "world": 568,
      "noble": 569,
      "comes": 570,
      "clock": 571,
      "penny": 572,
      "honour": 573,
      "myself": 574,
      "ground": 575,
      "matter": 576,
      "heriff": 577,
      "coward": 578,
      "fellow": 579,
      "friends": 580,
      "already": 581,
      "farewell": 582,
      "oning": 583,
      "high": 584,
      "ith": 585,
      "deeds": 586,
      "ds": 587,
      "br": 588,
      "ey": 589,
      "el": 590,
      "ig": 591,
      "mi": 592,
      "ore": 593,
      "ye": 594,
      "cl": 595,
      "av": 596,
      "han": 597,
      "gre": 598,
      "lu": 599,
      "son": 600,
      "tter": 601,
      "gro": 602,
      "str": 603,
      "bs": 604,
      "ze": 605,
      "ud": 606,
      "In": 607,
      "My": 608,
      "Or": 609,
      "mon": 610,
      "int": 611,
      "car": 612,
      "ilt": 613,
      "mis": 614,
      "other": 615,
      "sto": 616,
      "ate": 617,
      "gue": 618,
      "sle": 619,
      "take": 620,
      "ugh": 621,
      "His": 622,
      "Lan": 623,
      "Nor": 624,
      "Sc": 625,
      "Thy": 626,
      "Yet": 627,
      "dam": 628,
      "sun": 629,
      "sup": 630,
      "ons": 631,
      "its": 632,
      "ded": 633,
      "Exe": 634,
      "cap": 635,
      "min": 636,
      "des": 637,
      "ute": 638,
      "cour": 639,
      "round": 640,
      "had": 641,
      "lest": 642,
      "lies": 643,
      "Give": 644,
      "Lord": 645,
      "base": 646,
      "down": 647,
      "fles": 648,
      "give": 649,
      "join": 650,
      "open": 651,
      "prom": 652,
      "ret": 653,
      "reck": 654,
      "half": 655,
      "arms": 656,
      "lean": 657,
      "atch": 658,
      "itif": 659,
      "bear": 660,
      "been": 661,
      "room": 662,
      "hile": 663,
      "hide": 664,
      "dost": 665,
      "spar": 666,
      "spur": 667,
      "lted": 668,
      "both": 669,
      "keep": 670,
      "hund": 671,
      "tune": 672,
      "eyes": 673,
      "Scot": 674,
      "ance": 675,
      "vern": 676,
      "days": 677,
      "tent": 678,
      "allow": 679,
      "worth": 680,
      "purse": 681,
      "Which": 682,
      "bound": 683,
      "fight": 684,
      "money": 685,
      "thine": 686,
      "heart": 687,
      "thous": 688,
      "alone": 689,
      "alive": 690,
      "besee": 691,
      "rogue": 692,
      "forth": 693,
      "light": 694,
      "youth": 695,
      "arest": 696,
      "thern": 697,
      "spir": 698,
      "faith": 699,
      "earth": 700,
      "didst": 701,
      "every": 702,
      "grace": 703,
      "close": 704,
      "Peace": 705,
      "reson": 706,
      "taken": 707,
      "field": 708,
      "gross": 709,
      "sleep": 710,
      "flesh": 711,
      "lute": 712,
      "proof": 713,
      "charge": 714,
      "praise": 715,
      "indeed": 716,
      "better": 717,
      "butter": 718,
      "awhile": 719,
      "sayest": 720,
      "things": 721,
      "honest": 722,
      "stands": 723,
      "laugh": 724,
      "trifle": 725,
      "please": 726,
      "parcel": 727,
      "caster": 728,
      "Exeunt": 729,
      "itiful": 730,
      "fortune": 731,
      "hostess": 732,
      "morning": 733,
      "running": 734,
      "villain": 735,
      "Hotspur": 736,
      "humours": 737,
      "hundred": 738,
      "beseech": 739,
      "anything": 740,
      "whoreson": 741,
      "glorious": 742,
      "thousand": 743,
      "Lancaster": 744,
      "reckoning": 745,
      "ish": 746,
      "pennyworth": 747,
      "ere": 748,
      "dr": 749,
      "An": 750,
      "rt": 751,
      "som": 752,
      "pe": 753,
      "drink": 754,
      "ty": 755,
      "fr": 756,
      "iv": 757,
      "ead": 758,
      "igh": 759,
      "ng": 760,
      "wel": 761,
      "ue": 762,
      "fou": 763,
      "ted": 764,
      "lea": 765,
      "sel": 766,
      "nob": 767,
      "ies": 768,
      "king": 769,
      "pi": 770,
      "ten": 771,
      "llow": 772,
      "cu": 773,
      "lan": 774,
      "You": 775,
      "bb": 776,
      "den": 777,
      "ets": 778,
      "oor": 779,
      "ull": 780,
      "bel": 781,
      "irs": 782,
      "urn": 783,
      ".'": 784,
      "At": 785,
      "Hen": 786,
      "Pa": 787,
      "Qu": 788,
      "].": 789,
      "bar": 790,
      "din": 791,
      "emp": 792,
      "fal": 793,
      "fac": 794,
      "kin": 795,
      "mas": 796,
      "pre": 797,
      "sou": 798,
      "ult": 799,
      "van": 800,
      "ward": 801,
      "ree": 802,
      "sed": 803,
      "side": 804,
      "ign": 805,
      "Man": 806,
      "Not": 807,
      "St": 808,
      "Up": 809,
      "abo": 810,
      "ic": 811,
      "lad": 812,
      "lain": 813,
      "ness": 814,
      "race": 815,
      "ond": 816,
      "atter": 817,
      "sea": 818,
      "ach": 819,
      "dom": 820,
      "grac": 821,
      "Art": 822,
      "Cli": 823,
      "Did": 824,
      "Let": 825,
      "ago": 826,
      "baw": 827,
      "chi": 828,
      "cup": 829,
      "cra": 830,
      "cry": 831,
      "die": 832,
      "ei": 833,
      "ebb": 834,
      "got": 835,
      "hot": 836,
      "jer": 837,
      "kne": 838,
      "ling": 839,
      "mit": 840,
      "mid": 841,
      "pes": 842,
      "smo": 843,
      "tis": 844,
      "tain": 845,
      "why": 846,
      "year": 847,
      "zen": 848,
      "inj": 849,
      "asy": 850,
      "rop": 851,
      "hip": 852,
      "liv": 853,
      "cep": 854,
      "ama": 855,
      "fav": 856,
      "boy": 857,
      "buy": 858,
      "temp": 859,
      "ding": 860,
      "fid": 861,
      "find": 862,
      "gle": 863,
      "ler": 864,
      "litt": 865,
      "ough": 866,
      "met": 867,
      "beg": 868,
      "dear": 869,
      "lion": 870,
      "adv": 871,
      "love": 872,
      "app": 873,
      "tale": 874,
      "pleas": 875,
      "Away": 876,
      "Call": 877,
      "Hath": 878,
      "Lady": 879,
      "More": 880,
      "Tell": 881,
      "Vint": 882,
      "When": 883,
      "band": 884,
      "bare": 885,
      "fall": 886,
      "fear": 887,
      "face": 888,
      "flow": 889,
      "full": 890,
      "gent": 891,
      "lend": 892,
      "mast": 893,
      "pat": 894,
      "pres": 895,
      "paid": 896,
      "pick": 897,
      "rare": 898,
      "sing": 899,
      "said": 900,
      "soul": 901,
      "tong": 902,
      "twel": 903,
      "ues": 904,
      "want": 905,
      "ouch": 906,
      "ount": 907,
      "reas": 908,
      "lly": 909,
      "hack": 910,
      "argu": 911,
      "once": 912,
      "wilt": 913,
      "wife": 914,
      "dem": 915,
      "deem": 916,
      "nder": 917,
      "roar": 918,
      "rich": 919,
      "ried": 920,
      "ries": 921,
      "rily": 922,
      "ribs": 923,
      "door": 924,
      "Then": 925,
      "They": 926,
      "work": 927,
      "look": 928,
      "house": 929,
      "ffet": 930,
      "moon": 931,
      "vice": 932,
      "noon": 933,
      "need": 934,
      "seem": 935,
      "bold": 936,
      "bomb": 937,
      "ards": 938,
      "mpet": 939,
      "Here": 940,
      "fore": 941,
      "huge": 942,
      "hard": 943,
      "Dost": 944,
      "wert": 945,
      "ches": 946,
      "sirs": 947,
      "charg": 948,
      "pray": 949,
      "count": 950,
      "braw": 951,
      "else": 952,
      "hang": 953,
      "damn": 954,
      "brave": 955,
      "gest": 956,
      "gage": 957,
      "pound": 958,
      "ange": 959,
      "stre": 960,
      "ised": 961,
      "leman": 962,
      "leave": 963,
      "cking": 964,
      "gold": 965,
      "Grace": 966,
      "crest": 967,
      "crown": 968,
      "drunk": 969,
      "eight": 970,
      "grown": 971,
      "maid": 972,
      "years": 973,
      "rebel": 974,
      "stran": 975,
      "stain": 976,
      "still": 977,
      "heard": 978,
      "eness": 979,
      "thout": 980,
      "otter": 981,
      "otion": 982,
      "right": 983,
      "rides": 984,
      "liver": 985,
      "hopes": 986,
      "spent": 987,
      "fault": 988,
      "sugar": 989,
      "ounds": 990,
      "truly": 991,
      "woman": 992,
      "canst": 993,
      "speed": 994,
      "iseth": 995,
      "lower": 996,
      "kills": 997,
      "fton": 998,
      "glory": 999,
      "small": 1000,
      "doubt": 1001,
      "thank": 1002,
      "white": 1003,
      "miss": 1004,
      "hadst": 1005,
      "Henry": 1006,
      "craft": 1007,
      "pated": 1008,
      "aring": 1009,
      "lead": 1010,
      "lting": 1011,
      "villan": 1012,
      "double": 1013,
      "answer": 1014,
      "court": 1015,
      "spirit": 1016,
      "latter": 1017,
      "tallow": 1018,
      "encou": 1019,
      "behalf": 1020,
      "withal": 1021,
      "colted": 1022,
      "manner": 1023,
      "houses": 1024,
      "stairs": 1025,
      "antage": 1026,
      "tavern": 1027,
      "Sirrah": 1028,
      "mation": 1029,
      "deaths": 1030,
      "sirrah": 1031,
      "bloody": 1032,
      "strous": 1033,
      "fought": 1034,
      "selves": 1035,
      "dinner": 1036,
      "vanity": 1037,
      "either": 1038,
      "jerkin": 1039,
      "living": 1040,
      "little": 1041,
      "twelve": 1042,
      "reason": 1043,
      "demand": 1044,
      "maiden": 1045,
      "Prithee": 1046,
      "Sheriff": 1047,
      "pitiful": 1048,
      "sheriff": 1049,
      "thought": 1050,
      "account": 1051,
      "forward": 1052,
      "solute": 1053,
      "himself": 1054,
      "nothing": 1055,
      "trumpet": 1056,
      "offence": 1057,
      "pockets": 1058,
      "merrily": 1059,
      "couldst": 1060,
      "breaker": 1061,
      "carried": 1062,
      "roundly": 1063,
      "retreat": 1064,
      "sparrow": 1065,
      "Clifton": 1066,
      "favours": 1067,
      "Vintner": 1068,
      "masters": 1069,
      "present": 1070,
      "Farewell": 1071,
      "gracious": 1072,
      "argument": 1073,
      "solutely": 1074,
      "monstrous": 1075,
      "advantage": 1076,
      "gentleman": 1077,
      "villanous": 1078,
      "encounter": 1079,
      "Th": 1080,
      "ma": 1081,
      "honourable": 1082,
      "sh": 1083,
      "butt": 1084,
      "sa": 1085,
      "tr": 1086,
      "pa": 1087,
      "di": 1088,
      "bl": 1089,
      "ts": 1090,
      "ci": 1091,
      "bosom": 1092,
      "Ho": 1093,
      "whe": 1094,
      "pri": 1095,
      "En": 1096,
      "ev": 1097,
      "hea": 1098,
      "fi": 1099,
      "fare": 1100,
      "ns": 1101,
      "ni": 1102,
      "dy": 1103,
      "va": 1104,
      "eat": 1105,
      "fl": 1106,
      "oth": 1107,
      "pu": 1108,
      "whi": 1109,
      "kno": 1110,
      "sin": 1111,
      "ab": 1112,
      "ich": 1113,
      "oi": 1114,
      "ost": 1115,
      "hal": 1116,
      "urs": 1117,
      "Co": 1118,
      "lay": 1119,
      "na": 1120,
      "ob": 1121,
      "ose": 1122,
      "swo": 1123,
      "Fare": 1124,
      "bra": 1125,
      "eath": 1126,
      "inde": 1127,
      "lik": 1128,
      "der": 1129,
      "eep": 1130,
      "gain": 1131,
      "swor": 1132,
      "ting": 1133,
      "ug": 1134,
      "woul": 1135,
      "ste": 1136,
      "dev": 1137,
      "ody": 1138,
      "cre": 1139,
      "far": 1140,
      "sac": 1141,
      "tle": 1142,
      "ust": 1143,
      "ite": 1144,
      "bea": 1145,
      "ney": 1146,
      "suc": 1147,
      "yea": 1148,
      "ren": 1149,
      "ory": 1150,
      "ene": 1151,
      "herein": 1152,
      "brea": 1153,
      "els": 1154,
      "peak": 1155,
      "Un": 1156,
      "dri": 1157,
      "ef": 1158,
      "ek": 1159,
      "een": 1160,
      "ease": 1161,
      "gi": 1162,
      "lse": 1163,
      "ned": 1164,
      "ps": 1165,
      "she": 1166,
      "sla": 1167,
      "thr": 1168,
      "als": 1169,
      "beh": 1170,
      "hig": 1171,
      "rid": 1172,
      "une": 1173,
      "lov": 1174,
      "qui": 1175,
      "Mor": 1176,
      "Re": 1177,
      "Sp": 1178,
      "fet": 1179,
      "nat": 1180,
      "nest": 1181,
      "ox": 1182,
      "sen": 1183,
      "uff": 1184,
      "ught": 1185,
      "iss": 1186,
      "hame": 1187,
      "hes": 1188,
      "ont": 1189,
      "owe": 1190,
      "acc": 1191,
      "act": 1192,
      "riff": 1193,
      "very": 1194,
      "col": 1195,
      "lose": 1196,
      "aste": 1197,
      "!'": 1198,
      "';": 1199,
      "?'": 1200,
      "Ay": 1201,
      "Hy": 1202,
      "Is": 1203,
      "Sta": 1204,
      "cer": 1205,
      "du": 1206,
      "dare": 1207,
      "ger": 1208,
      "gall": 1209,
      "lin": 1210,
      "mar": 1211,
      "mad": 1212,
      "over": 1213,
      "pud": 1214,
      "rit": 1215,
      "raw": 1216,
      "ser": 1217,
      "sent": 1218,
      "ssu": 1219,
      "sav": 1220,
      "ship": 1221,
      "wis": 1222,
      "read": 1223,
      "sts": 1224,
      "stra": 1225,
      "hel": 1226,
      "ary": 1227,
      "ench": 1228,
      "lease": 1229,
      "beha": 1230,
      "utter": 1231,
      "ride": 1232,
      "aster": 1233,
      "till": 1234,
      "pos": 1235,
      "harge": 1236,
      "buff": 1237,
      "proc": 1238,
      "teen": 1239,
      "mies": 1240,
      "Are": 1241,
      "All": 1242,
      "Bl": 1243,
      "Che": 1244,
      "Car": 1245,
      "Dit": 1246,
      "Ere": 1247,
      "Ele": 1248,
      "Fie": 1249,
      "Got": 1250,
      "Gad": 1251,
      "Gaw": 1252,
      "Ill": 1253,
      "Lay": 1254,
      "Lend": 1255,
      "Lie": 1256,
      "Mi": 1257,
      "Nay": 1258,
      "Out": 1259,
      "Pro": 1260,
      "Riv": 1261,
      "Sat": 1262,
      "Say": 1263,
      "Shi": 1264,
      "Swe": 1265,
      "Tit": 1266,
      "Try": 1267,
      "Two": 1268,
      "Yes": 1269,
      "bit": 1270,
      "bal": 1271,
      "bid": 1272,
      "bru": 1273,
      "bast": 1274,
      "bag": 1275,
      "bla": 1276,
      "blu": 1277,
      "cle": 1278,
      "cun": 1279,
      "cad": 1280,
      "cious": 1281,
      "dag": 1282,
      "due": 1283,
      "elo": 1284,
      "fly": 1285,
      "flu": 1286,
      "gri": 1287,
      "hour": 1288,
      "hut": 1289,
      "hus": 1290,
      "imp": 1291,
      "jud": 1292,
      "kid": 1293,
      "lar": 1294,
      "mur": 1295,
      "nor": 1296,
      "nar": 1297,
      "pal": 1298,
      "put": 1299,
      "pup": 1300,
      "pap": 1301,
      "pper": 1302,
      "rot": 1303,
      "ram": 1304,
      "rong": 1305,
      "san": 1306,
      "sal": 1307,
      "sco": 1308,
      "tro": 1309,
      "uat": 1310,
      "ump": 1311,
      "vow": 1312,
      "vas": 1313,
      "win": 1314,
      "wind": 1315,
      "yal": 1316,
      "zed": 1317,
      "ini": 1318,
      "reg": 1319,
      "reme": 1320,
      "stol": 1321,
      "ison": 1322,
      "hap": 1323,
      "hare": 1324,
      "ort": 1325,
      "hew": 1326,
      "heav": 1327,
      "ofs": 1328,
      "oft": 1329,
      "top": 1330,
      "mean": 1331,
      "leg": 1332,
      "ley": 1333,
      "atte": 1334,
      "sey": 1335,
      "itu": 1336,
      "wip": 1337,
      "bed": 1338,
      "dex": 1339,
      "uty": 1340,
      "form": 1341,
      "wet": 1342,
      "west": 1343,
      "ceiv": 1344,
      "esy": 1345,
      "uny": 1346,
      "idl": 1347,
      "idle": 1348,
      "hob": 1349,
      "loy": 1350,
      "vile": 1351,
      "ury": 1352,
      "nep": 1353,
      "new": 1354,
      "sub": 1355,
      "sum": 1356,
      "sull": 1357,
      "ieth": 1358,
      "pox": 1359,
      "ify": 1360,
      "aph": 1361,
      "ush": 1362,
      "eps": 1363,
      "wash": 1364,
      "Pew": 1365,
      "bud": 1366,
      "sig": 1367,
      "six": 1368,
      "lown": 1369,
      "Ask": 1370,
      "cont": 1371,
      "tem": 1372,
      "ils": 1373,
      "humour": 1374,
      "lug": 1375,
      "llows": 1376,
      "knee": 1377,
      "Adam": 1378,
      "Adie": 1379,
      "Bre": 1380,
      "Con": 1381,
      "Dame": 1382,
      "East": 1383,
      "Emb": 1384,
      "Each": 1385,
      "Else": 1386,
      "Five": 1387,
      "Fore": 1388,
      "Hall": 1389,
      "Hold": 1390,
      "Hark": 1391,
      "Have": 1392,
      "June": 1393,
      "Kend": 1394,
      "Keep": 1395,
      "Lest": 1396,
      "Lead": 1397,
      "Mon": 1398,
      "Many": 1399,
      "Mark": 1400,
      "Moor": 1401,
      "Nich": 1402,
      "Poor": 1403,
      "Rend": 1404,
      "Read": 1405,
      "Sear": 1406,
      "Send": 1407,
      "Some": 1408,
      "Till": 1409,
      "Than": 1410,
      "Temp": 1411,
      "Tues": 1412,
      "Wi": 1413,
      "West": 1414,
      "Wilt": 1415,
      "ben": 1416,
      "bone": 1417,
      "body": 1418,
      "cand": 1419,
      "care": 1420,
      "cred": 1421,
      "case": 1422,
      "came": 1423,
      "crop": 1424,
      "done": 1425,
      "dark": 1426,
      "drop": 1427,
      "dren": 1428,
      "each": 1429,
      "fing": 1430,
      "fant": 1431,
      "fill": 1432,
      "foul": 1433,
      "furn": 1434,
      "free": 1435,
      "ian": 1436,
      "imit": 1437,
      "knot": 1438,
      "kiss": 1439,
      "lack": 1440,
      "last": 1441,
      "lady": 1442,
      "mind": 1443,
      "mark": 1444,
      "none": 1445,
      "nded": 1446,
      "oly": 1447,
      "pac": 1448,
      "pity": 1449,
      "send": 1450,
      "same": 1451,
      "save": 1452,
      "sway": 1453,
      "scep": 1454,
      "tear": 1455,
      "twas": 1456,
      "turn": 1457,
      "ums": 1458,
      "used": 1459,
      "vap": 1460,
      "wand": 1461,
      "wast": 1462,
      "wers": 1463,
      "wine": 1464,
      "wars": 1465,
      "wish": 1466,
      "wond": 1467,
      "thri": 1468,
      "thir": 1469,
      "ouble": 1470,
      "ouds": 1471,
      "anon": 1472,
      "into": 1473,
      "insu": 1474,
      "reve": 1475,
      "rend": 1476,
      "regu": 1477,
      "stal": 1478,
      "stri": 1479,
      "stru": 1480,
      "step": 1481,
      "erly": 1482,
      "ises": 1483,
      "hab": 1484,
      "hest": 1485,
      "help": 1486,
      "only": 1487,
      "ens": 1488,
      "enem": 1489,
      "leap": 1490,
      "ats": 1491,
      "sear": 1492,
      "seld": 1493,
      "sess": 1494,
      "alth": 1495,
      "beef": 1496,
      "dest": 1497,
      "deer": 1498,
      "deal": 1499,
      "debt": 1500,
      "acti": 1501,
      "acqu": 1502,
      "roan": 1503,
      "robe": 1504,
      "utes": 1505,
      "ford": 1506,
      "wear": 1507,
      "weav": 1508,
      "week": 1509,
      "rier": 1510,
      "list": 1511,
      "lily": 1512,
      "lips": 1513,
      "cess": 1514,
      "unch": 1515,
      "arer": 1516,
      "ident": 1517,
      "odds": 1518,
      "nown": 1519,
      "coin": 1520,
      "cold": 1521,
      "home": 1522,
      "hole": 1523,
      "holi": 1524,
      "esti": 1525,
      "rance": 1526,
      "vide": 1527,
      "fast": 1528,
      "ural": 1529,
      "neat": 1530,
      "ender": 1531,
      "sure": 1532,
      "ruff": 1533,
      "seek": 1534,
      "boss": 1535,
      "pore": 1536,
      "poor": 1537,
      "pose": 1538,
      "mult": 1539,
      "wool": 1540,
      "ape": 1541,
      "appo": 1542,
      "inking": 1543,
      "fect": 1544,
      "epit": 1545,
      "fool": 1546,
      "foil": 1547,
      "plain": 1548,
      "Pray": 1549,
      "hark": 1550,
      "took": 1551,
      "bull": 1552,
      "buck": 1553,
      "sci": 1554,
      "scr": 1555,
      "scar": 1556,
      "Sirs": 1557,
      "lab": 1558,
      "sies": 1559,
      "Good": 1560,
      "Doth": 1561,
      "unts": 1562,
      "calf": 1563,
      "Were": 1564,
      "exam": 1565,
      "mbly": 1566,
      "dish": 1567,
      "tree": 1568,
      "robb": 1569,
      "fled": 1570,
      "cels": 1571,
      "igno": 1572,
      "clay": 1573,
      "grey": 1574,
      "zeal": 1575,
      "ilty": 1576,
      "North": 1577,
      "capon": 1578,
      "Anon": 1579,
      "fray": 1580,
      "cuse": 1581,
      "lane": 1582,
      "deny": 1583,
      "Paul": 1584,
      "Quit": 1585,
      "bary": 1586,
      "fals": 1587,
      "mask": 1588,
      "Upon": 1589,
      "icer": 1590,
      "cups": 1591,
      "inju": 1592,
      "amaze": 1593,
      "fidd": 1594,
      "made": 1595,
      "pair": 1596,
      "Engl": 1597,
      "fire": 1598,
      "puke": 1599,
      "oily": 1600,
      "Colo": 1601,
      "ugly": 1602,
      "gild": 1603,
      "Span": 1604,
      "ssus": 1605,
      "helm": 1606,
      "Rivo": 1607,
      "Shir": 1608,
      "bald": 1609,
      "murd": 1610,
      "trod": 1611,
      "umph": 1612,
      "Bring": 1613,
      "Bears": 1614,
      "Could": 1615,
      "Death": 1616,
      "Draw": 1617,
      "Hence": 1618,
      "Lends": 1619,
      "Lond": 1620,
      "Money": 1621,
      "Never": 1622,
      "Seven": 1623,
      "Speak": 1624,
      "Under": 1625,
      "Would": 1626,
      "bring": 1627,
      "brown": 1628,
      "bount": 1629,
      "blown": 1630,
      "creat": 1631,
      "clean": 1632,
      "catch": 1633,
      "cries": 1634,
      "found": 1635,
      "flie": 1636,
      "finde": 1637,
      "gave": 1638,
      "grave": 1639,
      "hours": 1640,
      "honey": 1641,
      "lards": 1642,
      "mercy": 1643,
      "might": 1644,
      "natch": 1645,
      "obt": 1646,
      "pard": 1647,
      "pouch": 1648,
      "skill": 1649,
      "sitt": 1650,
      "sland": 1651,
      "slain": 1652,
      "tor": 1653,
      "tarry": 1654,
      "trave": 1655,
      "trunk": 1656,
      "touch": 1657,
      "taste": 1658,
      "wench": 1659,
      "wrong": 1660,
      "throw": 1661,
      "three": 1662,
      "oured": 1663,
      "anion": 1664,
      "theft": 1665,
      "rece": 1666,
      "reti": 1667,
      "reven": 1668,
      "respe": 1669,
      "reign": 1670,
      "start": 1671,
      "stout": 1672,
      "stark": 1673,
      "stiff": 1674,
      "stars": 1675,
      "state": 1676,
      "stret": 1677,
      "story": 1678,
      "stuff": 1679,
      "isons": 1680,
      "heark": 1681,
      "heigh": 1682,
      "heels": 1683,
      "arras": 1684,
      "enter": 1685,
      "owest": 1686,
      "owell": 1687,
      "toge": 1688,
      "today": 1689,
      "memor": 1690,
      "means": 1691,
      "melan": 1692,
      "least": 1693,
      "attr": 1694,
      "seven": 1695,
      "iture": 1696,
      "ities": 1697,
      "along": 1698,
      "being": 1699,
      "beast": 1700,
      "bears": 1701,
      "belly": 1702,
      "acher": 1703,
      "accep": 1704,
      "royal": 1705,
      "choly": 1706,
      "liest": 1707,
      "lions": 1708,
      "terms": 1709,
      "doing": 1710,
      "dozen": 1711,
      "eding": 1712,
      "young": 1713,
      "share": 1714,
      "arent": 1715,
      "These": 1716,
      "akbag": 1717,
      "verse": 1718,
      "cozen": 1719,
      "hoofs": 1720,
      "worms": 1721,
      "lover": 1722,
      "loose": 1723,
      "sport": 1724,
      "ently": 1725,
      "aint": 1726,
      "amend": 1727,
      "ambit": 1728,
      "mother": 1729,
      "viour": 1730,
      "viol": 1731,
      "bles": 1732,
      "suers": 1733,
      "suits": 1734,
      "sully": 1735,
      "asted": 1736,
      "tired": 1737,
      "timer": 1738,
      "poses": 1739,
      "glitt": 1740,
      "truth": 1741,
      "trust": 1742,
      "words": 1743,
      "agate": 1744,
      "haste": 1745,
      "fewer": 1746,
      "Heigh": 1747,
      "guine": 1748,
      "place": 1749,
      "order": 1750,
      "known": 1751,
      "tales": 1752,
      "sser": 1753,
      "bread": 1754,
      "breath": 1755,
      "scour": 1756,
      "scene": 1757,
      "scape": 1758,
      "quity": 1759,
      "quick": 1760,
      "quilt": 1761,
      "quite": 1762,
      "purge": 1763,
      "valry": 1764,
      "brook": 1765,
      "plays": 1766,
      "sible": 1767,
      "Noble": 1768,
      "olas": 1769,
      "trial": 1770,
      "trick": 1771,
      "shown": 1772,
      "thief": 1773,
      "heads": 1774,
      "iling": 1775,
      "ility": 1776,
      "ulars": 1777,
      "Being": 1778,
      "exch": 1779,
      "exten": 1780,
      "merry": 1781,
      "cheth": 1782,
      "cheap": 1783,
      "disgu": 1784,
      "ickly": 1785,
      "takes": 1786,
      "whose": 1787,
      "holds": 1788,
      "prise": 1789,
      "tread": 1790,
      "Whose": 1791,
      "hands": 1792,
      "walks": 1793,
      "brain": 1794,
      "miles": 1795,
      "mists": 1796,
      "green": 1797,
      "month": 1798,
      "carve": 1799,
      "stool": 1800,
      "super": 1801,
      "miny": 1802,
      "promise": 1803,
      "Scots": 1804,
      "peace": 1805,
      "front": 1806,
      "nobly": 1807,
      "piest": 1808,
      "cured": 1809,
      "false": 1810,
      "Stand": 1811,
      "Steps": 1812,
      "above": 1813,
      "Didst": 1814,
      "bawds": 1815,
      "bawdy": 1816,
      "child": 1817,
      "knees": 1818,
      "gled": 1819,
      "metal": 1820,
      "bands": 1821,
      "tongue": 1822,
      "ffeta": 1823,
      "needs": 1824,
      "brawn": 1825,
      "angel": 1826,
      "Thurs": 1827,
      "dials": 1828,
      "blush": 1829,
      "civil": 1830,
      "whene": 1831,
      "prize": 1832,
      "fares": 1833,
      "flame": 1834,
      "whist": 1835,
      "about": 1836,
      "nails": 1837,
      "swoll": 1838,
      "sworn": 1839,
      "steal": 1840,
      "devis": 1841,
      "cream": 1842,
      "ustry": 1843,
      "drive": 1844,
      "slave": 1845,
      "ridge": 1846,
      "quiet": 1847,
      "Hybla": 1848,
      "march": 1849,
      "rites": 1850,
      "serve": 1851,
      "Blunt": 1852,
      "Ditch": 1853,
      "Gads": 1854,
      "Satan": 1855,
      "Titan": 1856,
      "bruis": 1857,
      "blust": 1858,
      "clear": 1859,
      "eloqu": 1860,
      "griev": 1861,
      "hutch": 1862,
      "pupil": 1863,
      "salve": 1864,
      "score": 1865,
      "heavy": 1866,
      "unyok": 1867,
      "signs": 1868,
      "Adieu": 1869,
      "candy": 1870,
      "paces": 1871,
      "Charge": 1872,
      "Darest": 1873,
      "Master": 1874,
      "bur": 1875,
      "bright": 1876,
      "darest": 1877,
      "daring": 1878,
      "fford": 1879,
      "gallow": 1880,
      "knight": 1881,
      "motion": 1882,
      "mutter": 1883,
      "pable": 1884,
      "potion": 1885,
      "riseth": 1886,
      "slight": 1887,
      "sounds": 1888,
      "snatch": 1889,
      "tender": 1890,
      "wounds": 1891,
      "threat": 1892,
      "intemp": 1893,
      "refor": 1894,
      "rement": 1895,
      "redeem": 1896,
      "render": 1897,
      "renown": 1898,
      "llers": 1899,
      "haunts": 1900,
      "andums": 1901,
      "armies": 1902,
      "enough": 1903,
      "enrich": 1904,
      "engage": 1905,
      "melted": 1906,
      "ashame": 1907,
      "assure": 1908,
      "become": 1909,
      "betime": 1910,
      "belong": 1911,
      "behold": 1912,
      "before": 1913,
      "device": 1914,
      "deceiv": 1915,
      "dearer": 1916,
      "hither": 1917,
      "forgot": 1918,
      "forbid": 1919,
      "wealth": 1920,
      "chance": 1921,
      "terity": 1922,
      "unless": 1923,
      "irregu": 1924,
      "uphold": 1925,
      "verbs": 1926,
      "copper": 1927,
      "hollow": 1928,
      "worthy": 1929,
      "sphere": 1930,
      "spring": 1931,
      "spieth": 1932,
      "enture": 1933,
      "ransom": 1934,
      "vilest": 1935,
      "necess": 1936,
      "poison": 1937,
      "goodly": 1938,
      "truant": 1939,
      "ongly": 1940,
      "ongers": 1941,
      "Though": 1942,
      "agious": 1943,
      "whence": 1944,
      "guilty": 1945,
      "cannot": 1946,
      "canvas": 1947,
      "washes": 1948,
      "indign": 1949,
      "letter": 1950,
      "buffet": 1951,
      "purses": 1952,
      "sweats": 1953,
      "outfac": 1954,
      "valour": 1955,
      "offend": 1956,
      "longer": 1957,
      "unting": 1958,
      "showed": 1959,
      "horses": 1960,
      "Before": 1961,
      "excuse": 1962,
      "permit": 1963,
      "chewet": 1964,
      "garter": 1965,
      "taking": 1966,
      "prince": 1967,
      "emboss": 1968,
      "parrot": 1969,
      "castle": 1970,
      "tells": 1971,
      "compar": 1972,
      "shames": 1973,
      "clocks": 1974,
      "clouds": 1975,
      "greasy": 1976,
      "udent": 1977,
      "Myself": 1978,
      "supper": 1979,
      "capons": 1980,
      "verned": 1981,
      "lights": 1982,
      "leaves": 1983,
      "pistol": 1984,
      "Paunch": 1985,
      "employ": 1986,
      "factor": 1987,
      "massac": 1988,
      "Manent": 1989,
      "abomin": 1990,
      "ladder": 1991,
      "crying": 1992,
      "smooth": 1993,
      "injury": 1994,
      "amazed": 1995,
      "fident": 1996,
      "mettle": 1997,
      "begets": 1998,
      "dearly": 1999,
      "single": 2000,
      "saidst": 2001,
      "wanted": 2002,
      "stress": 2003,
      "golden": 2004,
      "crests": 2005,
      "rebels": 2006,
      "livers": 2007,
      "faulty": 2008,
      "speedy": 2009,
      "thanks": 2010,
      "crafty": 2011,
      "leaden": 2012,
      "shrunk": 2013,
      "button": 2014,
      "sawest": 2015,
      "heaven": 2016,
      "nimbly": 2017,
      "ostler": 2018,
      "halter": 2019,
      "braver": 2020,
      "beauty": 2021,
      "Unless": 2022,
      "behind": 2023,
      "Redeem": 2024,
      "liness": 2025,
      "madcap": 2026,
      "wisdom": 2027,
      "procure": 2028,
      "Eleven": 2029,
      "Gawsey": 2030,
      "caddis": 2031,
      "dagger": 2032,
      "flying": 2033,
      "fluous": 2034,
      "kidney": 2035,
      "narrow": 2036,
      "papers": 2037,
      "uation": 2038,
      "winded": 2039,
      "rememb": 2040,
      "itudes": 2041,
      "nephew": 2042,
      "newsm": 2043,
      "summer": 2044,
      "sullen": 2045,
      "Pewter": 2046,
      "Breath": 2047,
      "Kendal": 2048,
      "Monday": 2049,
      "Search": 2050,
      "Temple": 2051,
      "credit": 2052,
      "drench": 2053,
      "knotty": 2054,
      "thrice": 2055,
      "thirty": 2056,
      "strict": 2057,
      "struck": 2058,
      "habits": 2059,
      "seldom": 2060,
      "active": 2061,
      "idents": 2062,
      "scarce": 2063,
      "labour": 2064,
      "Drawer": 2065,
      "London": 2066,
      "bounty": 2067,
      "flieth": 2068,
      "gavest": 2069,
      "obtain": 2070,
      "pardon": 2071,
      "reveng": 2072,
      "Pitiful": 2073,
      "mount": 2074,
      "reproof": 2075,
      "erance": 2076,
      "engross": 2077,
      "without": 2078,
      "deliver": 2079,
      "roasted": 2080,
      "forgive": 2081,
      "thyself": 2082,
      "mangled": 2083,
      "worship": 2084,
      "shallow": 2085,
      "entreat": 2086,
      "earnest": 2087,
      "bolting": 2088,
      "goodman": 2089,
      "follows": 2090,
      "cancels": 2091,
      "closing": 2092,
      "knowing": 2093,
      "taught": 2094,
      "taffeta": 2095,
      "honours": 2096,
      "scatte": 2097,
      "officer": 2098,
      "Barbary": 2099,
      "playing": 2100,
      "against": 2101,
      "hallown": 2102,
      "Nothing": 2103,
      "triumph": 2104,
      "content": 2105,
      "contain": 2106,
      "consci": 2107,
      "setting": 2108,
      "villany": 2109,
      "extem": 2110,
      "perform": 2111,
      "perfect": 2112,
      "dispose": 2113,
      "garment": 2114,
      "garland": 2115,
      "Wherein": 2116,
      "rascals": 2117,
      "smiling": 2118,
      "praised": 2119,
      "answers": 2120,
      "greater": 2121,
      "fellows": 2122,
      "stolest": 2123,
      "minutes": 2124,
      "lestick": 2125,
      "bearded": 2126,
      "hearted": 2127,
      "spirits": 2128,
      "grossly": 2129,
      "honesty": 2130,
      "tedious": 2131,
      "kingdom": 2132,
      "Quickly": 2133,
      "bargain": 2134,
      "presser": 2135,
      "sounded": 2136,
      "Manning": 2137,
      "laints": 2138,
      "crystal": 2139,
      "midriff": 2140,
      "smother": 2141,
      "tempest": 2142,
      "appears": 2143,
      "falling": 2144,
      "picking": 2145,
      "tongues": 2146,
      "bombast": 2147,
      "bombard": 2148,
      "charged": 2149,
      "praying": 2150,
      "prayers": 2151,
      "hanging": 2152,
      "hangman": 2153,
      "bravely": 2154,
      "streets": 2155,
      "rightly": 2156,
      "mission": 2157,
      "leader": 2158,
      "doublet": 2159,
      "Hostess": 2160,
      "obscene": 2161,
      "succour": 2162,
      "breathe": 2163,
      "through": 2164,
      "highest": 2165,
      "fetches": 2166,
      "natural": 2167,
      "certain": 2168,
      "durance": 2169,
      "gallant": 2170,
      "pudding": 2171,
      "possess": 2172,
      "Cheerly": 2173,
      "Carrier": 2174,
      "Provide": 2175,
      "bastard": 2176,
      "cunning": 2177,
      "husband": 2178,
      "judgest": 2179,
      "regards": 2180,
      "budding": 2181,
      "luggage": 2182,
      "Content": 2183,
      "Tuesday": 2184,
      "Without": 2185,
      "benches": 2186,
      "fingers": 2187,
      "fantasy": 2188,
      "imitate": 2189,
      "sceptre": 2190,
      "vapours": 2191,
      "oubled": 2192,
      "intoler": 2193,
      "enemies": 2194,
      "leaping": 2195,
      "ruffian": 2196,
      "appoint": 2197,
      "epitaph": 2198,
      "buckram": 2199,
      "scratch": 2200,
      "examine": 2201,
      "falsify": 2202,
      "England": 2203,
      "Spanish": 2204,
      "Shirley": 2205,
      "trodden": 2206,
      "cleanly": 2207,
      "findeth": 2208,
      "sitting": 2209,
      "receive": 2210,
      "respect": 2211,
      "stretch": 2212,
      "attract": 2213,
      "blessed": 2214,
      "burning": 2215,
      "gallows": 2216,
      "potions": 2217,
      "ashamed": 2218,
      "betimes": 2219,
      "tho": 2220,
      "tomorrow": 2221,
      "uncolted": 2222,
      "unreveng": 2223,
      "upstairs": 2224,
      "governed": 2225,
      "bleeding": 2226,
      "moreland": 2227,
      "cloakbag": 2228,
      "industry": 2229,
      "pursuers": 2230,
      "purposes": 2231,
      "swearing": 2232,
      "fourteen": 2233,
      "shouldst": 2234,
      "procured": 2235,
      "proverbs": 2236,
      "converse": 2237,
      "partic": 2238,
      "breaking": 2239,
      "treacher": 2240,
      "compound": 2241,
      "nobleman": 2242,
      "clinking": 2243,
      "strongly": 2244,
      "stocking": 2245,
      "Northern": 2246,
      "promised": 2247,
      "eyesight": 2248,
      "sleeping": 2249,
      "laughing": 2250,
      "laughter": 2251,
      "pleaseth": 2252,
      "hundreds": 2253,
      "leathern": 2254,
      "nobility": 2255,
      "precious": 2256,
      "southern": 2257,
      "chivalry": 2258,
      "midnight": 2259,
      "apparent": 2260,
      "pleasure": 2261,
      "brawling": 2262,
      "drunkard": 2263,
      "eighteen": 2264,
      "strangle": 2265,
      "smallest": 2266,
      "courtesy": 2267,
      "thoughts": 2268,
      "offences": 2269,
      "vaunting": 2270,
      "knocking": 2271,
      "likeness": 2272,
      "wouldest": 2273,
      "Mortimer": 2274,
      "sensible": 2275,
      "coloured": 2276,
      "Stafford": 2277,
      "straight": 2278,
      "Mistress": 2279,
      "Swearest": 2280,
      "impudent": 2281,
      "palpable": 2282,
      "sanguine": 2283,
      "iniquity": 2284,
      "happiest": 2285,
      "idleness": 2286,
      "hobnails": 2287,
      "Embowell": 2288,
      "Nicholas": 2289,
      "dropsies": 2290,
      "reverend": 2291,
      "holidays": 2292,
      "woolsack": 2293,
      "bullcalf": 2294,
      "ignominy": 2295,
      "injuries": 2296,
      "Colossus": 2297,
      "creature": 2298,
      "slanders": 2299,
      "starting": 2300,
      "together": 2301,
      "accepted": 2302,
      "cozening": 2303,
      "aintance": 2304,
      "ambition": 2305,
      "exchange": 2306,
      "Thursday": 2307,
      "Gadshill": 2308,
      "grievous": 2309,
      "mountain": 2310,
      "ourselves": 2311,
      "unthought": 2312,
      "hereafter": 2313,
      "redoubled": 2314,
      "indenture": 2315,
      "confident": 2316,
      "horseback": 2317,
      "afternoon": 2318,
      "breakfast": 2319,
      "companion": 2320,
      "greatness": 2321,
      "misleader": 2322,
      "promiseth": 2323,
      "elsewhere": 2324,
      "strangest": 2325,
      "doubtless": 2326,
      "accidents": 2327,
      "behaviour": 2328,
      "dexterity": 2329,
      "Eastcheap": 2330,
      "Foretells": 2331,
      "furniture": 2332,
      "insulting": 2333,
      "searcheth": 2334,
      "amendment": 2335,
      "violently": 2336,
      "disguises": 2337,
      "whistling": 2338,
      "eloquence": 2339,
      "slightest": 2340,
      "threatens": 2341,
      "forgotten": 2342,
      "irregular": 2343,
      "necessary": 2344,
      "poisonous": 2345,
      "buffeting": 2346,
      "massacres": 2347,
      "Redeeming": 2348,
      "obtaining": 2349,
      "scattered": 2350,
      "extempore": 2351,
      "resolutely": 2352,
      "ungracious": 2353,
      "themselves": 2354,
      "complaints": 2355,
      "friendship": 2356,
      "downstairs": 2357,
      "reckonings": 2358,
      "pickthanks": 2359,
      "eightpenny": 2360,
      "answerable": 2361,
      "submission": 2362,
      "contagious": 2363,
      "estimation": 2364,
      "multitudes": 2365,
      "Henceforth": 2366,
      "travellers": 2367,
      "retirement": 2368,
      "enterprise": 2369,
      "melancholy": 2370,
      "tenderness": 2371,
      "ransomless": 2372,
      "abominable": 2373,
      "Breathless": 2374,
      "conscience": 2375,
      "dissolutely": 2376,
      "maidenheads": 2377,
      "fiddlestick": 2378,
      "memorandums": 2379,
      "beastliness": 2380,
      "extenuation": 2381,
      "superfluous": 2382,
      "reformation": 2383,
      "indignities": 2384,
      "comparisons": 2385,
      "newsmongers": 2386,
      "Manningtree": 2387,
      "intolerable": 2388,
      "appointment": 2389,
      "particulars": 2390,
      "treacherous": 2391,
      "Westmoreland": 2392,
      "acquaintance": 2393,
      "intemperance": 2394,
      "halfpennyworth": 2395,
      "thi": 2396,
      "cher": 2397,
      "yo": 2398,
      "ee": 2399,
      "buttoning": 2400,
      "Wh": 2401,
      "cherish": 2402,
      "unbuttoning": 2403,
      "ca": 2404,
      "tha": 2405,
      "hee": 2406,
      "wit": 2407,
      "rd": 2408,
      "rs": 2409,
      "Even": 2410,
      "wil": 2411,
      "drinking": 2412,
      "Wha": 2413,
      "shal": 2414,
      "Per": 2415,
      "nce": 2416,
      "da": 2417,
      "im": 2418,
      "wa": 2419,
      "Falsta": 2420,
      "uld": 2421,
      "hav": 2422,
      "ba": 2423,
      "und": 2424,
      "thin": 2425,
      "com": 2426,
      "ht": 2427,
      "ood": 2428,
      "oun": 2429,
      "Bardo": 2430,
      "Maj": 2431,
      "itted": 2432,
      "sw": 2433,
      "witted": 2434,
      "Fr": 2435,
      "Fra": 2436,
      "eve": 2437,
      "kn": 2438,
      "ncis": 2439,
      "ancis": 2440,
      "hey": 2441,
      "rancis": 2442,
      "Franc": 2443,
      "Franci": 2444,
      "Prin": 2445,
      "Fa": 2446,
      "nk": 2447,
      "uch": 2448,
      "wn": 2449,
      "aga": 2450,
      "Ja": 2451,
      "Jac": 2452,
      "Pri": 2453,
      "cr": 2454,
      "fro": 2455,
      "io": 2456,
      "rcy": 2457,
      "dea": 2458,
      "goo": 2459,
      "taff": 2460,
      "Dougl": 2461,
      "ga": 2462,
      "sho": 2463,
      "Perc": 2464,
      "Tho": 2465,
      "aff": 2466,
      "ki": 2467,
      "lstaff": 2468,
      "ins": 2469,
      "alstaff": 2470,
      "pock": 2471,
      "Fals": 2472,
      "Falst": 2473,
      "Falstaf": 2474,
      "Fo": 2475,
      "eak": 2476,
      "ls": 2477,
      "has": 2478,
      "hem": 2479,
      "nds": 2480,
      "Bu": 2481,
      "Tha": 2482,
      "dst": 2483,
      "eed": 2484,
      "eves": 2485,
      "hing": 2486,
      "ime": 2487,
      "iant": 2488,
      "las": 2489,
      "ohn": 2490,
      "pon": 2491,
      "rth": 2492,
      "rrow": 2493,
      "tw": 2494,
      "wou": 2495,
      "stinct": 2496,
      "bet": 2497,
      "tim": 2498,
      "Joh": 2499,
      "pla": 2500,
      "instin": 2501,
      "Ha": 2502,
      "Har": 2503,
      "eet": 2504,
      "mak": 2505,
      "oo": 2506,
      "rk": 2507,
      "rse": 2508,
      "rince": 2509,
      "ton": 2510,
      "wha": 2511,
      "wher": 2512,
      "ays": 2513,
      "devi": 2514,
      "fort": 2515,
      "vers": 2516,
      "muc": 2517,
      "villa": 2518,
      "nyworth": 2519,
      "reckon": 2520,
      "Ent": 2521,
      "Ye": 2522,
      "ein": 2523,
      "elf": 2524,
      "ful": 2525,
      "ike": 2526,
      "lor": 2527,
      "nin": 2528,
      "ph": 2529,
      "rn": 2530,
      "tand": 2531,
      "xit": 2532,
      "ys": 2533,
      "rein": 2534,
      "reso": 2535,
      "ready": 2536,
      "upo": 2537,
      "hol": 2538,
      "esty": 2539,
      "spi": 2540,
      "ife": 2541,
      "Exi": 2542,
      "Wel": 2543,
      "erein": 2544,
      "Ente": 2545,
      "Princ": 2546,
      "Ba": 2547,
      "Po": 2548,
      "Sh": 2549,
      "Si": 2550,
      "Thi": 2551,
      "Whe": 2552,
      "cha": 2553,
      "eth": 2554,
      "gra": 2555,
      "hink": 2556,
      "iou": 2557,
      "ithee": 2558,
      "ks": 2559,
      "lon": 2560,
      "sl": 2561,
      "tal": 2562,
      "tch": 2563,
      "um": 2564,
      "uglas": 2565,
      "ouglas": 2566,
      "sty": 2567,
      "stan": 2568,
      "orth": 2569,
      "orrow": 2570,
      "enc": 2571,
      "dee": 2572,
      "hil": 2573,
      "hous": 2574,
      "hould": 2575,
      "awa": 2576,
      "fai": 2577,
      "morr": 2578,
      "morro": 2579,
      "Doug": 2580,
      "shoul": 2581,
      "agai": 2582,
      "Dougla": 2583,
      "Bard": 2584,
      "Com": 2585,
      "La": 2586,
      "Le": 2587,
      "Mo": 2588,
      "Ne": 2589,
      "Poi": 2590,
      "Sher": 2591,
      "Whi": 2592,
      "Yo": 2593,
      "ather": 2594,
      "ales": 2595,
      "ajesty": 2596,
      "dar": 2597,
      "ese": 2598,
      "eart": 2599,
      "ewell": 2600,
      "evil": 2601,
      "eunt": 2602,
      "fter": 2603,
      "kil": 2604,
      "op": 2605,
      "olph": 2606,
      "ocket": 2607,
      "pit": 2608,
      "rry": 2609,
      "rdolph": 2610,
      "sher": 2611,
      "yself": 2612,
      "anous": 2613,
      "rea": 2614,
      "rewell": 2615,
      "halt": 2616,
      "hese": 2617,
      "ardolph": 2618,
      "mes": 2619,
      "ourable": 2620,
      "deat": 2621,
      "rother": 2622,
      "uts": 2623,
      "lif": 2624,
      "advers": 2625,
      "host": 2626,
      "ckoning": 2627,
      "fath": 2628,
      "fathe": 2629,
      "nev": 2630,
      "neve": 2631,
      "rue": 2632,
      "seech": 2633,
      "poc": 2634,
      "oins": 2635,
      "wherei": 2636,
      "broth": 2637,
      "brothe": 2638,
      "Majest": 2639,
      "hors": 2640,
      "aft": 2641,
      "Hotsp": 2642,
      "pennywor": 2643,
      "brot": 2644,
      "Lanc": 2645,
      "Lancast": 2646,
      "advant": 2647,
      "gentle": 2648,
      "Bardol": 2649,
      "Bardolp": 2650,
      "Maje": 2651,
      "Majes": 2652,
      "pocke": 2653,
      "Wal": 2654,
      "Wher": 2655,
      "air": 2656,
      "abl": 2657,
      "bac": 2658,
      "coul": 2659,
      "dot": 2660,
      "eas": 2661,
      "glo": 2662,
      "lut": 2663,
      "nning": 2664,
      "nct": 2665,
      "nstinct": 2666,
      "oble": 2667,
      "rin": 2668,
      "rge": 2669,
      "rms": 2670,
      "tinct": 2671,
      "thes": 2672,
      "reak": 2673,
      "ern": 2674,
      "orse": 2675,
      "ands": 2676,
      "arm": 2677,
      "att": 2678,
      "ascal": 2679,
      "alt": 2680,
      "aliant": 2681,
      "hieves": 2682,
      "weet": 2683,
      "rie": 2684,
      "live": 2685,
      "liant": 2686,
      "eds": 2687,
      "idst": 2688,
      "ieves": 2689,
      "tion": 2690,
      "foo": 2691,
      "spea": 2692,
      "hono": 2693,
      "honou": 2694,
      "purs": 2695,
      "swee": 2696,
      "afte": 2697,
      "rasc": 2698,
      "rasca": 2699,
      "thiev": 2700,
      "thieve": 2701,
      "bloo": 2702,
      "plea": 2703,
      "Wale": 2704,
      "disso": 2705,
      "insti": 2706,
      "valia": 2707,
      "valian": 2708,
      "prit": 2709,
      "grea": 2710,
      "nobl": 2711,
      "prith": 2712,
      "prithe": 2713,
      "instinc": 2714,
      "adversar": 2715,
      "Gr": 2716,
      "Lo": 2717,
      "Pet": 2718,
      "Sha": 2719,
      "Shal": 2720,
      "Ther": 2721,
      "ah": 2722,
      "bou": 2723,
      "bas": 2724,
      "bri": 2725,
      "boun": 2726,
      "eg": 2727,
      "ean": 2728,
      "eto": 2729,
      "eld": 2730,
      "eir": 2731,
      "eace": 2732,
      "eady": 2733,
      "eem": 2734,
      "eigh": 2735,
      "fin": 2736,
      "gs": 2737,
      "ged": 2738,
      "hone": 2739,
      "ile": 2740,
      "ice": 2741,
      "ily": 2742,
      "iends": 2743,
      "ket": 2744,
      "lready": 2745,
      "mot": 2746,
      "nam": 2747,
      "nner": 2748,
      "oon": 2749,
      "ove": 2750,
      "oot": 2751,
      "ock": 2752,
      "omp": 2753,
      "oss": 2754,
      "ook": 2755,
      "ostess": 2756,
      "pou": 2757,
      "pitif": 2758,
      "ray": 2759,
      "rld": 2760,
      "rning": 2761,
      "rrah": 2762,
      "tall": 2763,
      "tess": 2764,
      "uth": 2765,
      "use": 2766,
      "vantage": 2767,
      "ying": 2768,
      "ought": 2769,
      "ang": 2770,
      "thei": 2771,
      "rec": 2772,
      "retre": 2773,
      "sti": 2774,
      "ster": 2775,
      "ery": 2776,
      "eriff": 2777,
      "orld": 2778,
      "heir": 2779,
      "arge": 2780,
      "eng": 2781,
      "ows": 2782,
      "oward": 2783,
      "mee": 2784,
      "led": 2785,
      "leas": 2786,
      "ings": 2787,
      "asi": 2788,
      "asid": 2789,
      "alf": 2790,
      "alo": 2791,
      "alr": 2792,
      "alon": 2793,
      "bee": 2794,
      "acious": 2795,
      "accou": 2796,
      "roa": 2797,
      "roof": 2798,
      "mys": 2799,
      "myse": 2800,
      "mysel": 2801,
      "forw": 2802,
      "riends": 2803,
      "etter": 2804,
      "sham": 2805,
      "unk": 2806,
      "unning": 2807,
      "ungrac": 2808,
      "irit": 2809,
      "irrah": 2810,
      "colt": 2811,
      "worl": 2812,
      "loo": 2813,
      "lock": 2814,
      "mos": 2815,
      "rable": 2816,
      "mus": 2817,
      "stai": 2818,
      "trump": 2819,
      "reds": 2820,
      "fel": 2821,
      "gument": 2822,
      "grou": 2823,
      "groun": 2824,
      "humo": 2825,
      "cloc": 2826,
      "clos": 2827,
      "tai": 2828,
      "tage": 2829,
      "omes": 2830,
      "scal": 2831,
      "penn": 2832,
      "laug": 2833,
      "matt": 2834,
      "matte": 2835,
      "tel": 2836,
      "merri": 2837,
      "counter": 2838,
      "prai": 2839,
      "prais": 2840,
      "doub": 2841,
      "cowa": 2842,
      "cowar": 2843,
      "frie": 2844,
      "frien": 2845,
      "friend": 2846,
      "fello": 2847,
      "alrea": 2848,
      "alread": 2849,
      "humou": 2850,
      "monst": 2851,
      "monstr": 2852,
      "utely": 2853,
      "promis": 2854,
      "ngs": 2855,
      "Clif": 2856,
      "encoun": 2857,
      "farew": 2858,
      "farewe": 2859,
      "farewel": 2860,
      "whic": 2861,
      "sinc": 2862,
      "contag": 2863,
      "Westmore": 2864,
      "intemper": 2865,
      "eeds": 2866,
      "Harr": 2867,
      "Ar": 2868,
      "Ca": 2869,
      "Di": 2870,
      "Far": 2871,
      "Gi": 2872,
      "Giv": 2873,
      "Hi": 2874,
      "Lor": 2875,
      "Se": 2876,
      "Sco": 2877,
      "Te": 2878,
      "aise": 2879,
      "aith": 2880,
      "augh": 2881,
      "bot": 2882,
      "burn": 2883,
      "cot": 2884,
      "cro": 2885,
      "cres": 2886,
      "cure": 2887,
      "culars": 2888,
      "don": 2889,
      "dow": 2890,
      "dly": 2891,
      "dent": 2892,
      "dlestick": 2893,
      "ew": 2894,
      "eal": 2895,
      "ech": 2896,
      "ely": 2897,
      "eman": 2898,
      "eckoning": 2899,
      "eseech": 2900,
      "fu": 2901,
      "fig": 2902,
      "figh": 2903,
      "giv": 2904,
      "hit": 2905,
      "hun": 2906,
      "hine": 2907,
      "ip": 2908,
      "ither": 2909,
      "je": 2910,
      "jo": 2911,
      "ju": 2912,
      "joi": 2913,
      "ken": 2914,
      "koning": 2915,
      "lk": 2916,
      "len": 2917,
      "lve": 2918,
      "lone": 2919,
      "mut": 2920,
      "mone": 2921,
      "mours": 2922,
      "moun": 2923,
      "nst": 2924,
      "non": 2925,
      "nch": 2926,
      "nes": 2927,
      "nous": 2928,
      "ndeed": 2929,
      "nig": 2930,
      "ncaster": 2931,
      "nigh": 2932,
      "nnyworth": 2933,
      "oy": 2934,
      "othe": 2935,
      "oof": 2936,
      "othing": 2937,
      "ool": 2938,
      "oom": 2939,
      "ogue": 2940,
      "oreson": 2941,
      "ope": 2942,
      "pp": 2943,
      "pot": 2944,
      "rou": 2945,
      "rous": 2946,
      "rcel": 2947,
      "rds": 2948,
      "rtune": 2949,
      "roun": 2950,
      "sk": 2951,
      "sy": 2952,
      "sand": 2953,
      "sli": 2954,
      "tu": 2955,
      "tra": 2956,
      "treat": 2957,
      "ture": 2958,
      "toning": 2959,
      "tspur": 2960,
      "ttle": 2961,
      "tesy": 2962,
      "uble": 2963,
      "ws": 2964,
      "wan": 2965,
      "whor": 2966,
      "while": 2967,
      "xeunt": 2968,
      "yes": 2969,
      "yest": 2970,
      "ything": 2971,
      "yworth": 2972,
      "outh": 2973,
      "anc": 2974,
      "answe": 2975,
      "ancaster": 2976,
      "lls": 2977,
      "llain": 2978,
      "star": 2979,
      "stling": 2980,
      "erable": 2981,
      "orning": 2982,
      "orious": 2983,
      "ortune": 2984,
      "arg": 2985,
      "arth": 2986,
      "arrow": 2987,
      "arcel": 2988,
      "arisons": 2989,
      "offe": 2990,
      "enheads": 2991,
      "ennyworth": 2992,
      "leep": 2993,
      "leav": 2994,
      "ation": 2995,
      "seth": 2996,
      "ayest": 2997,
      "oursel": 2998,
      "otspur": 2999
    },
    "merges": [
      [
        "t",
        "h"
      ],
      [
        "o",
        "u"
      ],
      [
        "a",
        "n"
      ],
      [
        "th",
        "e"
      ],
      [
        "i",
        "n"
      ],
      [
        "r",
        "e"
      ],
      [
        "l",
        "l"
      ],
      [
        "s",
        "t"
      ],
      [
        "e",
        "r"
      ],
      [
        "i",
        "s"
      ],
      [
        "h",
        "a"
      ],
      [
        "o",
        "r"
      ],
      [
        "an",
        "d"
      ],
      [
        "h",
        "e"
      ],
      [
        "a",
        "r"
      ],
      [
        "o",
        "n"
      ],
      [
        "o",
        "f"
      ],
      [
        "e",
        "n"
      ],
      [
        "o",
        "w"
      ],
      [
        "t",
        "o"
      ],
      [
        "m",
        "e"
      ],
      [
        "l",
        "e"
      ],
      [
        "a",
        "t"
      ],
      [
        "s",
        "e"
      ],
      [
        "i",
        "t"
      ],
      [
        "th",
        "ou"
      ],
      [
        "w",
        "i"
      ],
      [
        "in",
        "g"
      ],
      [
        "a",
        "y"
      ],
      [
        "a",
        "s"
      ],
      [
        "ou",
        "r"
      ],
      [
        "v",
        "e"
      ],
      [
        "o",
        "t"
      ],
      [
        "a",
        "l"
      ],
      [
        "b",
        "e"
      ],
      [
        "d",
        "e"
      ],
      [
        "a",
        "c"
      ],
      [
        "n",
        "d"
      ],
      [
        "r",
        "o"
      ],
      [
        "h",
        "i"
      ],
      [
        "m",
        "y"
      ],
      [
        "l",
        "d"
      ],
      [
        "u",
        "t"
      ],
      [
        "f",
        "or"
      ],
      [
        "w",
        "e"
      ],
      [
        "ha",
        "t"
      ],
      [
        "c",
        "h"
      ],
      [
        "r",
        "i"
      ],
      [
        "l",
        "i"
      ],
      [
        "t",
        "er"
      ],
      [
        "s",
        "o"
      ],
      [
        "c",
        "e"
      ],
      [
        "a",
        "ll"
      ],
      [
        "the",
        "e"
      ],
      [
        "n",
        "ot"
      ],
      [
        "wi",
        "th"
      ],
      [
        "d",
        "o"
      ],
      [
        "th",
        "at"
      ],
      [
        "e",
        "d"
      ],
      [
        "e",
        "t"
      ],
      [
        "e",
        "s"
      ],
      [
        "y",
        "ou"
      ],
      [
        "th",
        "y"
      ],
      [
        "g",
        "h"
      ],
      [
        "th",
        "is"
      ],
      [
        "s",
        "ha"
      ],
      [
        "u",
        "n"
      ],
      [
        "a",
        "re"
      ],
      [
        "T",
        "he"
      ],
      [
        "a",
        "d"
      ],
      [
        "i",
        "d"
      ],
      [
        "h",
        "is"
      ],
      [
        "o",
        "d"
      ],
      [
        "a",
        "k"
      ],
      [
        "A",
        "nd"
      ],
      [
        "wi",
        "ll"
      ],
      [
        "i",
        "r"
      ],
      [
        "W",
        "hat"
      ],
      [
        "u",
        "p"
      ],
      [
        "v",
        "er"
      ],
      [
        "n",
        "ow"
      ],
      [
        "c",
        "o"
      ],
      [
        "ac",
        "k"
      ],
      [
        "l",
        "y"
      ],
      [
        "h",
        "o"
      ],
      [
        "m",
        "an"
      ],
      [
        "w",
        "or"
      ],
      [
        "c",
        "k"
      ],
      [
        "l",
        "o"
      ],
      [
        "e",
        "st"
      ],
      [
        "b",
        "ut"
      ],
      [
        "y",
        "our"
      ],
      [
        "h",
        "ou"
      ],
      [
        "he",
        "re"
      ],
      [
        "the",
        "r"
      ],
      [
        "f",
        "f"
      ],
      [
        "sha",
        "ll"
      ],
      [
        "g",
        "o"
      ],
      [
        "s",
        "p"
      ],
      [
        "en",
        "t"
      ],
      [
        "r",
        "an"
      ],
      [
        "a",
        "in"
      ],
      [
        "hi",
        "m"
      ],
      [
        "gh",
        "t"
      ],
      [
        "a",
        "m"
      ],
      [
        "ha",
        "ve"
      ],
      [
        "m",
        "o"
      ],
      [
        "v",
        "i"
      ],
      [
        "a",
        "w"
      ],
      [
        "ar",
        "t"
      ],
      [
        "h",
        "y"
      ],
      [
        "e",
        "ll"
      ],
      [
        "n",
        "o"
      ],
      [
        "f",
        "a"
      ],
      [
        "u",
        "r"
      ],
      [
        "n",
        "e"
      ],
      [
        "g",
        "e"
      ],
      [
        "e",
        "ar"
      ],
      [
        "l",
        "t"
      ],
      [
        "en",
        "d"
      ],
      [
        "b",
        "le"
      ],
      [
        "d",
        "ay"
      ],
      [
        "s",
        "u"
      ],
      [
        "r",
        "a"
      ],
      [
        "r",
        "u"
      ],
      [
        "b",
        "y"
      ],
      [
        "a",
        "st"
      ],
      [
        "ou",
        "s"
      ],
      [
        "c",
        "is"
      ],
      [
        "r",
        "ow"
      ],
      [
        "ro",
        "m"
      ],
      [
        "h",
        "ow"
      ],
      [
        "ou",
        "nd"
      ],
      [
        "F",
        "ran"
      ],
      [
        "i",
        "e"
      ],
      [
        "Fran",
        "cis"
      ],
      [
        "le",
        "s"
      ],
      [
        "on",
        "e"
      ],
      [
        "se",
        "e"
      ],
      [
        "ou",
        "ld"
      ],
      [
        "b",
        "o"
      ],
      [
        "t",
        "i"
      ],
      [
        "p",
        "o"
      ],
      [
        "m",
        "u"
      ],
      [
        "st",
        "a"
      ],
      [
        "c",
        "y"
      ],
      [
        "g",
        "l"
      ],
      [
        "ar",
        "d"
      ],
      [
        "W",
        "hy"
      ],
      [
        "d",
        "id"
      ],
      [
        "J",
        "ack"
      ],
      [
        "the",
        "y"
      ],
      [
        "er",
        "cy"
      ],
      [
        "co",
        "me"
      ],
      [
        "go",
        "od"
      ],
      [
        "i",
        "f"
      ],
      [
        "r",
        "y"
      ],
      [
        "t",
        "ru"
      ],
      [
        "s",
        "ay"
      ],
      [
        "re",
        "d"
      ],
      [
        "on",
        "g"
      ],
      [
        "we",
        "ll"
      ],
      [
        "f",
        "rom"
      ],
      [
        "in",
        "ce"
      ],
      [
        "wor",
        "d"
      ],
      [
        "P",
        "ercy"
      ],
      [
        "w",
        "o"
      ],
      [
        "k",
        "e"
      ],
      [
        "he",
        "n"
      ],
      [
        "m",
        "p"
      ],
      [
        "a",
        "p"
      ],
      [
        "ak",
        "e"
      ],
      [
        "ac",
        "e"
      ],
      [
        "F",
        "al"
      ],
      [
        "H",
        "ow"
      ],
      [
        "an",
        "t"
      ],
      [
        "i",
        "ght"
      ],
      [
        "T",
        "hou"
      ],
      [
        "the",
        "n"
      ],
      [
        "sta",
        "ff"
      ],
      [
        "i",
        "ll"
      ],
      [
        "a",
        "g"
      ],
      [
        "Fal",
        "staff"
      ],
      [
        "E",
        "x"
      ],
      [
        "m",
        "or"
      ],
      [
        "l",
        "f"
      ],
      [
        "a",
        "th"
      ],
      [
        "i",
        "ve"
      ],
      [
        "the",
        "m"
      ],
      [
        "ha",
        "st"
      ],
      [
        "mo",
        "re"
      ],
      [
        "in",
        "k"
      ],
      [
        "u",
        "s"
      ],
      [
        "f",
        "e"
      ],
      [
        "e",
        "p"
      ],
      [
        "H",
        "e"
      ],
      [
        ".",
        "]"
      ],
      [
        "J",
        "o"
      ],
      [
        "h",
        "n"
      ],
      [
        "F",
        "or"
      ],
      [
        "B",
        "ut"
      ],
      [
        "er",
        "s"
      ],
      [
        "e",
        "ver"
      ],
      [
        "w",
        "hen"
      ],
      [
        "Jo",
        "hn"
      ],
      [
        "f",
        "o"
      ],
      [
        "n",
        "ter"
      ],
      [
        "v",
        "en"
      ],
      [
        "g",
        "u"
      ],
      [
        "p",
        "l"
      ],
      [
        "g",
        "r"
      ],
      [
        "or",
        "d"
      ],
      [
        "I",
        "f"
      ],
      [
        "h",
        "u"
      ],
      [
        "es",
        "s"
      ],
      [
        "m",
        "en"
      ],
      [
        "P",
        "r"
      ],
      [
        "o",
        "in"
      ],
      [
        "c",
        "an"
      ],
      [
        "c",
        "lo"
      ],
      [
        "w",
        "as"
      ],
      [
        "ha",
        "r"
      ],
      [
        "a",
        "se"
      ],
      [
        "r",
        "un"
      ],
      [
        "n",
        "ing"
      ],
      [
        "re",
        "at"
      ],
      [
        "our",
        "s"
      ],
      [
        "T",
        "hat"
      ],
      [
        "k",
        "now"
      ],
      [
        "m",
        "ake"
      ],
      [
        "w",
        "hat"
      ],
      [
        "we",
        "re"
      ],
      [
        "ti",
        "me"
      ],
      [
        "mu",
        "ch"
      ],
      [
        "w",
        "here"
      ],
      [
        "th",
        "ing"
      ],
      [
        "o",
        "ld"
      ],
      [
        "t",
        "a"
      ],
      [
        "s",
        "s"
      ],
      [
        "P",
        "e"
      ],
      [
        "c",
        "t"
      ],
      [
        "a",
        "me"
      ],
      [
        "an",
        "y"
      ],
      [
        "in",
        "d"
      ],
      [
        "to",
        "o"
      ],
      [
        "le",
        "t"
      ],
      [
        "ve",
        "s"
      ],
      [
        "sp",
        "e"
      ],
      [
        "m",
        "ay"
      ],
      [
        "b",
        "re"
      ],
      [
        "h",
        "on"
      ],
      [
        "i",
        "on"
      ],
      [
        "li",
        "ke"
      ],
      [
        "W",
        "ell"
      ],
      [
        "c",
        "all"
      ],
      [
        "se",
        "lf"
      ],
      [
        "up",
        "on"
      ],
      [
        "Ex",
        "it"
      ],
      [
        "i",
        "ous"
      ],
      [
        "w",
        "ould"
      ],
      [
        "E",
        "nter"
      ],
      [
        "Pr",
        "ince"
      ],
      [
        "b",
        "u"
      ],
      [
        "o",
        "me"
      ],
      [
        "s",
        "c"
      ],
      [
        "l",
        "p"
      ],
      [
        "vi",
        "l"
      ],
      [
        "B",
        "y"
      ],
      [
        "T",
        "o"
      ],
      [
        "q",
        "u"
      ],
      [
        "p",
        "ur"
      ],
      [
        "s",
        "we"
      ],
      [
        "ou",
        "t"
      ],
      [
        "is",
        "e"
      ],
      [
        "D",
        "ou"
      ],
      [
        "G",
        "od"
      ],
      [
        "S",
        "ir"
      ],
      [
        "p",
        "en"
      ],
      [
        "t",
        "wo"
      ],
      [
        "v",
        "al"
      ],
      [
        "y",
        "et"
      ],
      [
        "ad",
        "y"
      ],
      [
        "of",
        "f"
      ],
      [
        "b",
        "ro"
      ],
      [
        "B",
        "ar"
      ],
      [
        "T",
        "his"
      ],
      [
        "f",
        "our"
      ],
      [
        "j",
        "est"
      ],
      [
        "l",
        "ong"
      ],
      [
        "s",
        "hou"
      ],
      [
        "hi",
        "ch"
      ],
      [
        "aw",
        "ay"
      ],
      [
        "gl",
        "as"
      ],
      [
        "pl",
        "ay"
      ],
      [
        "s",
        "word"
      ],
      [
        "th",
        "ink"
      ],
      [
        "the",
        "re"
      ],
      [
        "st",
        "and"
      ],
      [
        "ag",
        "ain"
      ],
      [
        "ri",
        "thee"
      ],
      [
        "mor",
        "row"
      ],
      [
        "shou",
        "ld"
      ],
      [
        "Dou",
        "glas"
      ],
      [
        "s",
        "ack"
      ],
      [
        "de",
        "ed"
      ],
      [
        "l",
        "a"
      ],
      [
        "s",
        "i"
      ],
      [
        "f",
        "at"
      ],
      [
        "ha",
        "ll"
      ],
      [
        "N",
        "o"
      ],
      [
        "o",
        "l"
      ],
      [
        "G",
        "o"
      ],
      [
        "D",
        "o"
      ],
      [
        "M",
        "a"
      ],
      [
        "l",
        "ow"
      ],
      [
        "A",
        "s"
      ],
      [
        "m",
        "s"
      ],
      [
        "re",
        "s"
      ],
      [
        "un",
        "t"
      ],
      [
        "c",
        "al"
      ],
      [
        "h",
        "or"
      ],
      [
        "a",
        "f"
      ],
      [
        "p",
        "ro"
      ],
      [
        "t",
        "ri"
      ],
      [
        "in",
        "e"
      ],
      [
        "N",
        "ow"
      ],
      [
        "c",
        "on"
      ],
      [
        "g",
        "ut"
      ],
      [
        "m",
        "at"
      ],
      [
        "n",
        "er"
      ],
      [
        "r",
        "as"
      ],
      [
        "ar",
        "k"
      ],
      [
        "se",
        "t"
      ],
      [
        "it",
        "y"
      ],
      [
        "lp",
        "h"
      ],
      [
        "a",
        "id"
      ],
      [
        "a",
        "ge"
      ],
      [
        "r",
        "ing"
      ],
      [
        "C",
        "ome"
      ],
      [
        "P",
        "oin"
      ],
      [
        "k",
        "ill"
      ],
      [
        "m",
        "ent"
      ],
      [
        "p",
        "art"
      ],
      [
        "s",
        "how"
      ],
      [
        "t",
        "e"
      ],
      [
        "th",
        "ie"
      ],
      [
        "he",
        "ad"
      ],
      [
        "li",
        "fe"
      ],
      [
        "so",
        "me"
      ],
      [
        "ck",
        "et"
      ],
      [
        "vi",
        "ll"
      ],
      [
        "tru",
        "e"
      ],
      [
        "gut",
        "s"
      ],
      [
        "a",
        "ble"
      ],
      [
        "de",
        "ath"
      ],
      [
        "de",
        "vil"
      ],
      [
        "do",
        "lph"
      ],
      [
        "ne",
        "ver"
      ],
      [
        "jest",
        "y"
      ],
      [
        "hor",
        "se"
      ],
      [
        "Poin",
        "s"
      ],
      [
        "af",
        "ter"
      ],
      [
        "fa",
        "ther"
      ],
      [
        "po",
        "cket"
      ],
      [
        "n",
        "t"
      ],
      [
        "are",
        "well"
      ],
      [
        "where",
        "in"
      ],
      [
        "bro",
        "ther"
      ],
      [
        "Ma",
        "jesty"
      ],
      [
        "h",
        "er"
      ],
      [
        "Bar",
        "dolph"
      ],
      [
        "e",
        "a"
      ],
      [
        "i",
        "l"
      ],
      [
        "a",
        "ve"
      ],
      [
        "W",
        "e"
      ],
      [
        "u",
        "l"
      ],
      [
        "w",
        "er"
      ],
      [
        "ow",
        "n"
      ],
      [
        "S",
        "o"
      ],
      [
        "B",
        "e"
      ],
      [
        "e",
        "x"
      ],
      [
        "m",
        "b"
      ],
      [
        "I",
        "t"
      ],
      [
        "li",
        "e"
      ],
      [
        "m",
        "er"
      ],
      [
        "p",
        "er"
      ],
      [
        "b",
        "lo"
      ],
      [
        "c",
        "he"
      ],
      [
        "p",
        "le"
      ],
      [
        "u",
        "re"
      ],
      [
        "he",
        "ar"
      ],
      [
        "N",
        "ed"
      ],
      [
        "W",
        "a"
      ],
      [
        "d",
        "is"
      ],
      [
        "f",
        "t"
      ],
      [
        "i",
        "ck"
      ],
      [
        "s",
        "ir"
      ],
      [
        "g",
        "ar"
      ],
      [
        "t",
        "ak"
      ],
      [
        "e",
        "ven"
      ],
      [
        "re",
        "st"
      ],
      [
        "w",
        "ho"
      ],
      [
        "i",
        "ff"
      ],
      [
        "in",
        "st"
      ],
      [
        "en",
        "ce"
      ],
      [
        "ear",
        "s"
      ],
      [
        "b",
        "ack"
      ],
      [
        "c",
        "har"
      ],
      [
        "l",
        "ord"
      ],
      [
        "in",
        "ct"
      ],
      [
        "ha",
        "th"
      ],
      [
        "ar",
        "ry"
      ],
      [
        "do",
        "th"
      ],
      [
        "ho",
        "ld"
      ],
      [
        "man",
        "y"
      ],
      [
        "end",
        "s"
      ],
      [
        "row",
        "n"
      ],
      [
        "les",
        "s"
      ],
      [
        "one",
        "y"
      ],
      [
        "gl",
        "or"
      ],
      [
        "val",
        "i"
      ],
      [
        "W",
        "here"
      ],
      [
        "c",
        "ould"
      ],
      [
        "the",
        "se"
      ],
      [
        "spe",
        "ak"
      ],
      [
        "swe",
        "et"
      ],
      [
        "blo",
        "od"
      ],
      [
        "Wa",
        "les"
      ],
      [
        "bre",
        "ak"
      ],
      [
        "ras",
        "cal"
      ],
      [
        "p",
        "rithee"
      ],
      [
        "thie",
        "ves"
      ],
      [
        "vali",
        "ant"
      ],
      [
        "inst",
        "inct"
      ],
      [
        "su",
        "ch"
      ],
      [
        "w",
        "h"
      ],
      [
        "o",
        "m"
      ],
      [
        "p",
        "r"
      ],
      [
        "e",
        "m"
      ],
      [
        "n",
        "y"
      ],
      [
        "it",
        "t"
      ],
      [
        "ou",
        "l"
      ],
      [
        "p",
        "ar"
      ],
      [
        "i",
        "de"
      ],
      [
        "c",
        "ou"
      ],
      [
        "t",
        "re"
      ],
      [
        "w",
        "ay"
      ],
      [
        "o",
        "k"
      ],
      [
        "s",
        "m"
      ],
      [
        "se",
        "s"
      ],
      [
        ",",
        "'"
      ],
      [
        "O",
        "f"
      ],
      [
        "ar",
        "s"
      ],
      [
        "b",
        "t"
      ],
      [
        "p",
        "ra"
      ],
      [
        "d",
        "ou"
      ],
      [
        "s",
        "aw"
      ],
      [
        "ro",
        "b"
      ],
      [
        "H",
        "ot"
      ],
      [
        "W",
        "ho"
      ],
      [
        "Y",
        "ea"
      ],
      [
        "c",
        "ow"
      ],
      [
        "f",
        "le"
      ],
      [
        "f",
        "ri"
      ],
      [
        "f",
        "ie"
      ],
      [
        "p",
        "ay"
      ],
      [
        "t",
        "un"
      ],
      [
        "w",
        "al"
      ],
      [
        "ce",
        "l"
      ],
      [
        "ra",
        "h"
      ],
      [
        "l",
        "and"
      ],
      [
        "an",
        "s"
      ],
      [
        "ra",
        "ve"
      ],
      [
        "Y",
        "our"
      ],
      [
        "c",
        "ast"
      ],
      [
        "f",
        "ell"
      ],
      [
        "h",
        "and"
      ],
      [
        "n",
        "ame"
      ],
      [
        "th",
        "an"
      ],
      [
        "me",
        "et"
      ],
      [
        "al",
        "re"
      ],
      [
        "de",
        "ad"
      ],
      [
        "hi",
        "ll"
      ],
      [
        "mo",
        "st"
      ],
      [
        "fa",
        "ir"
      ],
      [
        "mu",
        "st"
      ],
      [
        "say",
        "s"
      ],
      [
        "fo",
        "ot"
      ],
      [
        "hu",
        "m"
      ],
      [
        "run",
        "k"
      ],
      [
        "Pe",
        "to"
      ],
      [
        "wh",
        "it"
      ],
      [
        "wal",
        "k"
      ],
      [
        "t",
        "ell"
      ],
      [
        "co",
        "mp"
      ],
      [
        "sha",
        "me"
      ],
      [
        "H",
        "arry"
      ],
      [
        "S",
        "hall"
      ],
      [
        "g",
        "reat"
      ],
      [
        "n",
        "ight"
      ],
      [
        "s",
        "ince"
      ],
      [
        "w",
        "hich"
      ],
      [
        "the",
        "ir"
      ],
      [
        "st",
        "ess"
      ],
      [
        "as",
        "ide"
      ],
      [
        "sha",
        "lt"
      ],
      [
        "The",
        "re"
      ],
      [
        "wor",
        "ld"
      ],
      [
        "no",
        "ble"
      ],
      [
        "come",
        "s"
      ],
      [
        "clo",
        "ck"
      ],
      [
        "pen",
        "ny"
      ],
      [
        "hon",
        "our"
      ],
      [
        "my",
        "self"
      ],
      [
        "gr",
        "ound"
      ],
      [
        "mat",
        "ter"
      ],
      [
        "her",
        "iff"
      ],
      [
        "cow",
        "ard"
      ],
      [
        "fell",
        "ow"
      ],
      [
        "fri",
        "ends"
      ],
      [
        "alre",
        "ady"
      ],
      [
        "f",
        "arewell"
      ],
      [
        "on",
        "ing"
      ],
      [
        "hi",
        "gh"
      ],
      [
        "i",
        "th"
      ],
      [
        "deed",
        "s"
      ],
      [
        "d",
        "s"
      ],
      [
        "b",
        "r"
      ],
      [
        "e",
        "y"
      ],
      [
        "e",
        "l"
      ],
      [
        "i",
        "g"
      ],
      [
        "m",
        "i"
      ],
      [
        "o",
        "re"
      ],
      [
        "y",
        "e"
      ],
      [
        "c",
        "l"
      ],
      [
        "a",
        "v"
      ],
      [
        "h",
        "an"
      ],
      [
        "g",
        "re"
      ],
      [
        "l",
        "u"
      ],
      [
        "s",
        "on"
      ],
      [
        "t",
        "ter"
      ],
      [
        "g",
        "ro"
      ],
      [
        "st",
        "r"
      ],
      [
        "b",
        "s"
      ],
      [
        "z",
        "e"
      ],
      [
        "u",
        "d"
      ],
      [
        "I",
        "n"
      ],
      [
        "M",
        "y"
      ],
      [
        "O",
        "r"
      ],
      [
        "m",
        "on"
      ],
      [
        "in",
        "t"
      ],
      [
        "c",
        "ar"
      ],
      [
        "i",
        "lt"
      ],
      [
        "m",
        "is"
      ],
      [
        "o",
        "ther"
      ],
      [
        "st",
        "o"
      ],
      [
        "at",
        "e"
      ],
      [
        "gu",
        "e"
      ],
      [
        "s",
        "le"
      ],
      [
        "t",
        "ake"
      ],
      [
        "u",
        "gh"
      ],
      [
        "H",
        "is"
      ],
      [
        "L",
        "an"
      ],
      [
        "N",
        "or"
      ],
      [
        "S",
        "c"
      ],
      [
        "T",
        "hy"
      ],
      [
        "Y",
        "et"
      ],
      [
        "d",
        "am"
      ],
      [
        "s",
        "un"
      ],
      [
        "s",
        "up"
      ],
      [
        "on",
        "s"
      ],
      [
        "it",
        "s"
      ],
      [
        "de",
        "d"
      ],
      [
        "Ex",
        "e"
      ],
      [
        "c",
        "ap"
      ],
      [
        "m",
        "in"
      ],
      [
        "de",
        "s"
      ],
      [
        "ut",
        "e"
      ],
      [
        "c",
        "our"
      ],
      [
        "r",
        "ound"
      ],
      [
        "ha",
        "d"
      ],
      [
        "le",
        "st"
      ],
      [
        "li",
        "es"
      ],
      [
        "G",
        "ive"
      ],
      [
        "L",
        "ord"
      ],
      [
        "b",
        "ase"
      ],
      [
        "d",
        "own"
      ],
      [
        "f",
        "les"
      ],
      [
        "g",
        "ive"
      ],
      [
        "j",
        "oin"
      ],
      [
        "o",
        "pen"
      ],
      [
        "p",
        "rom"
      ],
      [
        "re",
        "t"
      ],
      [
        "re",
        "ck"
      ],
      [
        "ha",
        "lf"
      ],
      [
        "ar",
        "ms"
      ],
      [
        "le",
        "an"
      ],
      [
        "at",
        "ch"
      ],
      [
        "it",
        "if"
      ],
      [
        "be",
        "ar"
      ],
      [
        "be",
        "en"
      ],
      [
        "ro",
        "om"
      ],
      [
        "hi",
        "le"
      ],
      [
        "hi",
        "de"
      ],
      [
        "do",
        "st"
      ],
      [
        "sp",
        "ar"
      ],
      [
        "sp",
        "ur"
      ],
      [
        "lt",
        "ed"
      ],
      [
        "bo",
        "th"
      ],
      [
        "ke",
        "ep"
      ],
      [
        "hu",
        "nd"
      ],
      [
        "tun",
        "e"
      ],
      [
        "ey",
        "es"
      ],
      [
        "Sc",
        "ot"
      ],
      [
        "an",
        "ce"
      ],
      [
        "ver",
        "n"
      ],
      [
        "day",
        "s"
      ],
      [
        "t",
        "ent"
      ],
      [
        "all",
        "ow"
      ],
      [
        "wor",
        "th"
      ],
      [
        "pur",
        "se"
      ],
      [
        "W",
        "hich"
      ],
      [
        "b",
        "ound"
      ],
      [
        "f",
        "ight"
      ],
      [
        "m",
        "oney"
      ],
      [
        "th",
        "ine"
      ],
      [
        "he",
        "art"
      ],
      [
        "thou",
        "s"
      ],
      [
        "al",
        "one"
      ],
      [
        "al",
        "ive"
      ],
      [
        "be",
        "see"
      ],
      [
        "ro",
        "gue"
      ],
      [
        "for",
        "th"
      ],
      [
        "li",
        "ght"
      ],
      [
        "you",
        "th"
      ],
      [
        "are",
        "st"
      ],
      [
        "ther",
        "n"
      ],
      [
        "sp",
        "ir"
      ],
      [
        "fa",
        "ith"
      ],
      [
        "ear",
        "th"
      ],
      [
        "did",
        "st"
      ],
      [
        "ever",
        "y"
      ],
      [
        "gr",
        "ace"
      ],
      [
        "clo",
        "se"
      ],
      [
        "Pe",
        "ace"
      ],
      [
        "res",
        "on"
      ],
      [
        "tak",
        "en"
      ],
      [
        "fie",
        "ld"
      ],
      [
        "gro",
        "ss"
      ],
      [
        "sle",
        "ep"
      ],
      [
        "fles",
        "h"
      ],
      [
        "l",
        "ute"
      ],
      [
        "pro",
        "of"
      ],
      [
        "char",
        "ge"
      ],
      [
        "pra",
        "ise"
      ],
      [
        "in",
        "deed"
      ],
      [
        "be",
        "tter"
      ],
      [
        "but",
        "ter"
      ],
      [
        "aw",
        "hile"
      ],
      [
        "say",
        "est"
      ],
      [
        "thing",
        "s"
      ],
      [
        "hon",
        "est"
      ],
      [
        "stand",
        "s"
      ],
      [
        "la",
        "ugh"
      ],
      [
        "tri",
        "fle"
      ],
      [
        "ple",
        "ase"
      ],
      [
        "par",
        "cel"
      ],
      [
        "cast",
        "er"
      ],
      [
        "Exe",
        "unt"
      ],
      [
        "itif",
        "ul"
      ],
      [
        "for",
        "tune"
      ],
      [
        "ho",
        "stess"
      ],
      [
        "mor",
        "ning"
      ],
      [
        "run",
        "ning"
      ],
      [
        "vill",
        "ain"
      ],
      [
        "Hot",
        "spur"
      ],
      [
        "hum",
        "ours"
      ],
      [
        "hund",
        "red"
      ],
      [
        "besee",
        "ch"
      ],
      [
        "any",
        "thing"
      ],
      [
        "who",
        "reson"
      ],
      [
        "glor",
        "ious"
      ],
      [
        "thous",
        "and"
      ],
      [
        "Lan",
        "caster"
      ],
      [
        "reck",
        "oning"
      ],
      [
        "is",
        "h"
      ],
      [
        "penny",
        "worth"
      ],
      [
        "e",
        "re"
      ],
      [
        "d",
        "r"
      ],
      [
        "A",
        "n"
      ],
      [
        "r",
        "t"
      ],
      [
        "so",
        "m"
      ],
      [
        "p",
        "e"
      ],
      [
        "dr",
        "ink"
      ],
      [
        "t",
        "y"
      ],
      [
        "f",
        "r"
      ],
      [
        "i",
        "v"
      ],
      [
        "e",
        "ad"
      ],
      [
        "i",
        "gh"
      ],
      [
        "n",
        "g"
      ],
      [
        "we",
        "l"
      ],
      [
        "u",
        "e"
      ],
      [
        "f",
        "ou"
      ],
      [
        "t",
        "ed"
      ],
      [
        "le",
        "a"
      ],
      [
        "se",
        "l"
      ],
      [
        "no",
        "b"
      ],
      [
        "i",
        "es"
      ],
      [
        "k",
        "ing"
      ],
      [
        "p",
        "i"
      ],
      [
        "t",
        "en"
      ],
      [
        "ll",
        "ow"
      ],
      [
        "c",
        "u"
      ],
      [
        "l",
        "an"
      ],
      [
        "Y",
        "ou"
      ],
      [
        "b",
        "b"
      ],
      [
        "d",
        "en"
      ],
      [
        "et",
        "s"
      ],
      [
        "o",
        "or"
      ],
      [
        "u",
        "ll"
      ],
      [
        "be",
        "l"
      ],
      [
        "ir",
        "s"
      ],
      [
        "ur",
        "n"
      ],
      [
        ".",
        "'"
      ],
      [
        "A",
        "t"
      ],
      [
        "H",
        "en"
      ],
      [
        "P",
        "a"
      ],
      [
        "Q",
        "u"
      ],
      [
        "]",
        "."
      ],
      [
        "b",
        "ar"
      ],
      [
        "d",
        "in"
      ],
      [
        "e",
        "mp"
      ],
      [
        "f",
        "al"
      ],
      [
        "f",
        "ac"
      ],
      [
        "k",
        "in"
      ],
      [
        "m",
        "as"
      ],
      [
        "p",
        "re"
      ],
      [
        "s",
        "ou"
      ],
      [
        "u",
        "lt"
      ],
      [
        "v",
        "an"
      ],
      [
        "w",
        "ard"
      ],
      [
        "re",
        "e"
      ],
      [
        "se",
        "d"
      ],
      [
        "si",
        "de"
      ],
      [
        "ig",
        "n"
      ],
      [
        "M",
        "an"
      ],
      [
        "N",
        "ot"
      ],
      [
        "S",
        "t"
      ],
      [
        "U",
        "p"
      ],
      [
        "a",
        "bo"
      ],
      [
        "i",
        "c"
      ],
      [
        "l",
        "ad"
      ],
      [
        "l",
        "ain"
      ],
      [
        "n",
        "ess"
      ],
      [
        "r",
        "ace"
      ],
      [
        "on",
        "d"
      ],
      [
        "at",
        "ter"
      ],
      [
        "se",
        "a"
      ],
      [
        "ac",
        "h"
      ],
      [
        "do",
        "m"
      ],
      [
        "gr",
        "ac"
      ],
      [
        "A",
        "rt"
      ],
      [
        "C",
        "li"
      ],
      [
        "D",
        "id"
      ],
      [
        "L",
        "et"
      ],
      [
        "a",
        "go"
      ],
      [
        "b",
        "aw"
      ],
      [
        "c",
        "hi"
      ],
      [
        "c",
        "up"
      ],
      [
        "c",
        "ra"
      ],
      [
        "c",
        "ry"
      ],
      [
        "d",
        "ie"
      ],
      [
        "e",
        "i"
      ],
      [
        "e",
        "bb"
      ],
      [
        "g",
        "ot"
      ],
      [
        "h",
        "ot"
      ],
      [
        "j",
        "er"
      ],
      [
        "k",
        "ne"
      ],
      [
        "l",
        "ing"
      ],
      [
        "m",
        "it"
      ],
      [
        "m",
        "id"
      ],
      [
        "p",
        "es"
      ],
      [
        "s",
        "mo"
      ],
      [
        "t",
        "is"
      ],
      [
        "t",
        "ain"
      ],
      [
        "w",
        "hy"
      ],
      [
        "y",
        "ear"
      ],
      [
        "z",
        "en"
      ],
      [
        "in",
        "j"
      ],
      [
        "as",
        "y"
      ],
      [
        "ro",
        "p"
      ],
      [
        "hi",
        "p"
      ],
      [
        "li",
        "v"
      ],
      [
        "ce",
        "p"
      ],
      [
        "am",
        "a"
      ],
      [
        "fa",
        "v"
      ],
      [
        "bo",
        "y"
      ],
      [
        "bu",
        "y"
      ],
      [
        "te",
        "mp"
      ],
      [
        "d",
        "ing"
      ],
      [
        "f",
        "id"
      ],
      [
        "f",
        "ind"
      ],
      [
        "g",
        "le"
      ],
      [
        "l",
        "er"
      ],
      [
        "l",
        "itt"
      ],
      [
        "ou",
        "gh"
      ],
      [
        "me",
        "t"
      ],
      [
        "be",
        "g"
      ],
      [
        "de",
        "ar"
      ],
      [
        "li",
        "on"
      ],
      [
        "ad",
        "v"
      ],
      [
        "lo",
        "ve"
      ],
      [
        "ap",
        "p"
      ],
      [
        "ta",
        "le"
      ],
      [
        "ple",
        "as"
      ],
      [
        "A",
        "way"
      ],
      [
        "C",
        "all"
      ],
      [
        "H",
        "ath"
      ],
      [
        "L",
        "ady"
      ],
      [
        "M",
        "ore"
      ],
      [
        "T",
        "ell"
      ],
      [
        "V",
        "int"
      ],
      [
        "W",
        "hen"
      ],
      [
        "b",
        "and"
      ],
      [
        "b",
        "are"
      ],
      [
        "f",
        "all"
      ],
      [
        "f",
        "ear"
      ],
      [
        "f",
        "ace"
      ],
      [
        "f",
        "low"
      ],
      [
        "f",
        "ull"
      ],
      [
        "g",
        "ent"
      ],
      [
        "l",
        "end"
      ],
      [
        "m",
        "ast"
      ],
      [
        "p",
        "at"
      ],
      [
        "p",
        "res"
      ],
      [
        "p",
        "aid"
      ],
      [
        "p",
        "ick"
      ],
      [
        "r",
        "are"
      ],
      [
        "s",
        "ing"
      ],
      [
        "s",
        "aid"
      ],
      [
        "s",
        "oul"
      ],
      [
        "t",
        "ong"
      ],
      [
        "t",
        "wel"
      ],
      [
        "u",
        "es"
      ],
      [
        "w",
        "ant"
      ],
      [
        "ou",
        "ch"
      ],
      [
        "ou",
        "nt"
      ],
      [
        "re",
        "as"
      ],
      [
        "ll",
        "y"
      ],
      [
        "ha",
        "ck"
      ],
      [
        "ar",
        "gu"
      ],
      [
        "on",
        "ce"
      ],
      [
        "wi",
        "lt"
      ],
      [
        "wi",
        "fe"
      ],
      [
        "de",
        "m"
      ],
      [
        "de",
        "em"
      ],
      [
        "nd",
        "er"
      ],
      [
        "ro",
        "ar"
      ],
      [
        "ri",
        "ch"
      ],
      [
        "ri",
        "ed"
      ],
      [
        "ri",
        "es"
      ],
      [
        "ri",
        "ly"
      ],
      [
        "ri",
        "bs"
      ],
      [
        "do",
        "or"
      ],
      [
        "The",
        "n"
      ],
      [
        "The",
        "y"
      ],
      [
        "wor",
        "k"
      ],
      [
        "lo",
        "ok"
      ],
      [
        "hou",
        "se"
      ],
      [
        "ff",
        "et"
      ],
      [
        "mo",
        "on"
      ],
      [
        "vi",
        "ce"
      ],
      [
        "no",
        "on"
      ],
      [
        "ne",
        "ed"
      ],
      [
        "see",
        "m"
      ],
      [
        "bo",
        "ld"
      ],
      [
        "bo",
        "mb"
      ],
      [
        "ard",
        "s"
      ],
      [
        "mp",
        "et"
      ],
      [
        "He",
        "re"
      ],
      [
        "fo",
        "re"
      ],
      [
        "hu",
        "ge"
      ],
      [
        "har",
        "d"
      ],
      [
        "Do",
        "st"
      ],
      [
        "wer",
        "t"
      ],
      [
        "che",
        "s"
      ],
      [
        "sir",
        "s"
      ],
      [
        "char",
        "g"
      ],
      [
        "pr",
        "ay"
      ],
      [
        "cou",
        "nt"
      ],
      [
        "br",
        "aw"
      ],
      [
        "el",
        "se"
      ],
      [
        "han",
        "g"
      ],
      [
        "dam",
        "n"
      ],
      [
        "b",
        "rave"
      ],
      [
        "g",
        "est"
      ],
      [
        "g",
        "age"
      ],
      [
        "p",
        "ound"
      ],
      [
        "an",
        "ge"
      ],
      [
        "st",
        "re"
      ],
      [
        "is",
        "ed"
      ],
      [
        "le",
        "man"
      ],
      [
        "le",
        "ave"
      ],
      [
        "ck",
        "ing"
      ],
      [
        "go",
        "ld"
      ],
      [
        "G",
        "race"
      ],
      [
        "c",
        "rest"
      ],
      [
        "c",
        "rown"
      ],
      [
        "d",
        "runk"
      ],
      [
        "e",
        "ight"
      ],
      [
        "g",
        "rown"
      ],
      [
        "m",
        "aid"
      ],
      [
        "y",
        "ears"
      ],
      [
        "re",
        "bel"
      ],
      [
        "st",
        "ran"
      ],
      [
        "st",
        "ain"
      ],
      [
        "st",
        "ill"
      ],
      [
        "he",
        "ard"
      ],
      [
        "en",
        "ess"
      ],
      [
        "thou",
        "t"
      ],
      [
        "ot",
        "ter"
      ],
      [
        "ot",
        "ion"
      ],
      [
        "ri",
        "ght"
      ],
      [
        "ri",
        "des"
      ],
      [
        "li",
        "ver"
      ],
      [
        "ho",
        "pes"
      ],
      [
        "sp",
        "ent"
      ],
      [
        "fa",
        "ult"
      ],
      [
        "su",
        "gar"
      ],
      [
        "ound",
        "s"
      ],
      [
        "tru",
        "ly"
      ],
      [
        "wo",
        "man"
      ],
      [
        "can",
        "st"
      ],
      [
        "spe",
        "ed"
      ],
      [
        "ise",
        "th"
      ],
      [
        "low",
        "er"
      ],
      [
        "kill",
        "s"
      ],
      [
        "ft",
        "on"
      ],
      [
        "glor",
        "y"
      ],
      [
        "sm",
        "all"
      ],
      [
        "dou",
        "bt"
      ],
      [
        "than",
        "k"
      ],
      [
        "whit",
        "e"
      ],
      [
        "mis",
        "s"
      ],
      [
        "had",
        "st"
      ],
      [
        "Hen",
        "ry"
      ],
      [
        "cra",
        "ft"
      ],
      [
        "pat",
        "ed"
      ],
      [
        "ar",
        "ing"
      ],
      [
        "le",
        "ad"
      ],
      [
        "lt",
        "ing"
      ],
      [
        "vill",
        "an"
      ],
      [
        "dou",
        "ble"
      ],
      [
        "ans",
        "wer"
      ],
      [
        "cour",
        "t"
      ],
      [
        "spir",
        "it"
      ],
      [
        "l",
        "atter"
      ],
      [
        "t",
        "allow"
      ],
      [
        "en",
        "cou"
      ],
      [
        "be",
        "half"
      ],
      [
        "with",
        "al"
      ],
      [
        "co",
        "lted"
      ],
      [
        "man",
        "ner"
      ],
      [
        "hou",
        "ses"
      ],
      [
        "sta",
        "irs"
      ],
      [
        "ant",
        "age"
      ],
      [
        "ta",
        "vern"
      ],
      [
        "Sir",
        "rah"
      ],
      [
        "mat",
        "ion"
      ],
      [
        "death",
        "s"
      ],
      [
        "sir",
        "rah"
      ],
      [
        "blood",
        "y"
      ],
      [
        "str",
        "ous"
      ],
      [
        "fou",
        "ght"
      ],
      [
        "sel",
        "ves"
      ],
      [
        "din",
        "ner"
      ],
      [
        "van",
        "ity"
      ],
      [
        "ei",
        "ther"
      ],
      [
        "jer",
        "kin"
      ],
      [
        "liv",
        "ing"
      ],
      [
        "litt",
        "le"
      ],
      [
        "twel",
        "ve"
      ],
      [
        "reas",
        "on"
      ],
      [
        "dem",
        "and"
      ],
      [
        "maid",
        "en"
      ],
      [
        "P",
        "rithee"
      ],
      [
        "S",
        "heriff"
      ],
      [
        "p",
        "itiful"
      ],
      [
        "s",
        "heriff"
      ],
      [
        "thou",
        "ght"
      ],
      [
        "ac",
        "count"
      ],
      [
        "for",
        "ward"
      ],
      [
        "so",
        "lute"
      ],
      [
        "him",
        "self"
      ],
      [
        "no",
        "thing"
      ],
      [
        "tru",
        "mpet"
      ],
      [
        "off",
        "ence"
      ],
      [
        "pocket",
        "s"
      ],
      [
        "mer",
        "rily"
      ],
      [
        "could",
        "st"
      ],
      [
        "break",
        "er"
      ],
      [
        "car",
        "ried"
      ],
      [
        "round",
        "ly"
      ],
      [
        "ret",
        "reat"
      ],
      [
        "spar",
        "row"
      ],
      [
        "Cli",
        "fton"
      ],
      [
        "fav",
        "ours"
      ],
      [
        "Vint",
        "ner"
      ],
      [
        "mast",
        "ers"
      ],
      [
        "pres",
        "ent"
      ],
      [
        "F",
        "arewell"
      ],
      [
        "grac",
        "ious"
      ],
      [
        "argu",
        "ment"
      ],
      [
        "solute",
        "ly"
      ],
      [
        "mon",
        "strous"
      ],
      [
        "adv",
        "antage"
      ],
      [
        "gent",
        "leman"
      ],
      [
        "villan",
        "ous"
      ],
      [
        "encou",
        "nter"
      ],
      [
        "T",
        "h"
      ],
      [
        "m",
        "a"
      ],
      [
        "honour",
        "able"
      ],
      [
        "s",
        "h"
      ],
      [
        "but",
        "t"
      ],
      [
        "s",
        "a"
      ],
      [
        "t",
        "r"
      ],
      [
        "p",
        "a"
      ],
      [
        "d",
        "i"
      ],
      [
        "b",
        "l"
      ],
      [
        "t",
        "s"
      ],
      [
        "c",
        "i"
      ],
      [
        "bo",
        "som"
      ],
      [
        "H",
        "o"
      ],
      [
        "w",
        "he"
      ],
      [
        "p",
        "ri"
      ],
      [
        "E",
        "n"
      ],
      [
        "e",
        "v"
      ],
      [
        "he",
        "a"
      ],
      [
        "f",
        "i"
      ],
      [
        "f",
        "are"
      ],
      [
        "n",
        "s"
      ],
      [
        "n",
        "i"
      ],
      [
        "d",
        "y"
      ],
      [
        "v",
        "a"
      ],
      [
        "e",
        "at"
      ],
      [
        "f",
        "l"
      ],
      [
        "o",
        "th"
      ],
      [
        "p",
        "u"
      ],
      [
        "w",
        "hi"
      ],
      [
        "k",
        "no"
      ],
      [
        "s",
        "in"
      ],
      [
        "a",
        "b"
      ],
      [
        "i",
        "ch"
      ],
      [
        "o",
        "i"
      ],
      [
        "o",
        "st"
      ],
      [
        "ha",
        "l"
      ],
      [
        "ur",
        "s"
      ],
      [
        "C",
        "o"
      ],
      [
        "l",
        "ay"
      ],
      [
        "n",
        "a"
      ],
      [
        "o",
        "b"
      ],
      [
        "o",
        "se"
      ],
      [
        "s",
        "wo"
      ],
      [
        "F",
        "are"
      ],
      [
        "b",
        "ra"
      ],
      [
        "e",
        "ath"
      ],
      [
        "in",
        "de"
      ],
      [
        "li",
        "k"
      ],
      [
        "d",
        "er"
      ],
      [
        "e",
        "ep"
      ],
      [
        "g",
        "ain"
      ],
      [
        "s",
        "wor"
      ],
      [
        "t",
        "ing"
      ],
      [
        "u",
        "g"
      ],
      [
        "w",
        "oul"
      ],
      [
        "st",
        "e"
      ],
      [
        "de",
        "v"
      ],
      [
        "od",
        "y"
      ],
      [
        "c",
        "re"
      ],
      [
        "f",
        "ar"
      ],
      [
        "s",
        "ac"
      ],
      [
        "t",
        "le"
      ],
      [
        "u",
        "st"
      ],
      [
        "it",
        "e"
      ],
      [
        "be",
        "a"
      ],
      [
        "ne",
        "y"
      ],
      [
        "su",
        "c"
      ],
      [
        "y",
        "ea"
      ],
      [
        "re",
        "n"
      ],
      [
        "or",
        "y"
      ],
      [
        "en",
        "e"
      ],
      [
        "here",
        "in"
      ],
      [
        "bre",
        "a"
      ],
      [
        "el",
        "s"
      ],
      [
        "pe",
        "ak"
      ],
      [
        "U",
        "n"
      ],
      [
        "d",
        "ri"
      ],
      [
        "e",
        "f"
      ],
      [
        "e",
        "k"
      ],
      [
        "e",
        "en"
      ],
      [
        "e",
        "ase"
      ],
      [
        "g",
        "i"
      ],
      [
        "l",
        "se"
      ],
      [
        "n",
        "ed"
      ],
      [
        "p",
        "s"
      ],
      [
        "s",
        "he"
      ],
      [
        "s",
        "la"
      ],
      [
        "th",
        "r"
      ],
      [
        "al",
        "s"
      ],
      [
        "be",
        "h"
      ],
      [
        "hi",
        "g"
      ],
      [
        "ri",
        "d"
      ],
      [
        "un",
        "e"
      ],
      [
        "lo",
        "v"
      ],
      [
        "qu",
        "i"
      ],
      [
        "M",
        "or"
      ],
      [
        "R",
        "e"
      ],
      [
        "S",
        "p"
      ],
      [
        "f",
        "et"
      ],
      [
        "n",
        "at"
      ],
      [
        "n",
        "est"
      ],
      [
        "o",
        "x"
      ],
      [
        "s",
        "en"
      ],
      [
        "u",
        "ff"
      ],
      [
        "u",
        "ght"
      ],
      [
        "is",
        "s"
      ],
      [
        "ha",
        "me"
      ],
      [
        "he",
        "s"
      ],
      [
        "on",
        "t"
      ],
      [
        "ow",
        "e"
      ],
      [
        "ac",
        "c"
      ],
      [
        "ac",
        "t"
      ],
      [
        "ri",
        "ff"
      ],
      [
        "ver",
        "y"
      ],
      [
        "co",
        "l"
      ],
      [
        "lo",
        "se"
      ],
      [
        "ast",
        "e"
      ],
      [
        "!",
        "'"
      ],
      [
        "'",
        ";"
      ],
      [
        "?",
        "'"
      ],
      [
        "A",
        "y"
      ],
      [
        "H",
        "y"
      ],
      [
        "I",
        "s"
      ],
      [
        "S",
        "ta"
      ],
      [
        "c",
        "er"
      ],
      [
        "d",
        "u"
      ],
      [
        "d",
        "are"
      ],
      [
        "g",
        "er"
      ],
      [
        "g",
        "all"
      ],
      [
        "l",
        "in"
      ],
      [
        "m",
        "ar"
      ],
      [
        "m",
        "ad"
      ],
      [
        "o",
        "ver"
      ],
      [
        "p",
        "ud"
      ],
      [
        "r",
        "it"
      ],
      [
        "r",
        "aw"
      ],
      [
        "s",
        "er"
      ],
      [
        "s",
        "ent"
      ],
      [
        "s",
        "su"
      ],
      [
        "s",
        "av"
      ],
      [
        "s",
        "hip"
      ],
      [
        "w",
        "is"
      ],
      [
        "re",
        "ad"
      ],
      [
        "st",
        "s"
      ],
      [
        "st",
        "ra"
      ],
      [
        "he",
        "l"
      ],
      [
        "ar",
        "y"
      ],
      [
        "en",
        "ch"
      ],
      [
        "le",
        "ase"
      ],
      [
        "be",
        "ha"
      ],
      [
        "ut",
        "ter"
      ],
      [
        "ri",
        "de"
      ],
      [
        "ast",
        "er"
      ],
      [
        "ti",
        "ll"
      ],
      [
        "po",
        "s"
      ],
      [
        "har",
        "ge"
      ],
      [
        "bu",
        "ff"
      ],
      [
        "pro",
        "c"
      ],
      [
        "te",
        "en"
      ],
      [
        "mi",
        "es"
      ],
      [
        "A",
        "re"
      ],
      [
        "A",
        "ll"
      ],
      [
        "B",
        "l"
      ],
      [
        "C",
        "he"
      ],
      [
        "C",
        "ar"
      ],
      [
        "D",
        "it"
      ],
      [
        "E",
        "re"
      ],
      [
        "E",
        "le"
      ],
      [
        "F",
        "ie"
      ],
      [
        "G",
        "ot"
      ],
      [
        "G",
        "ad"
      ],
      [
        "G",
        "aw"
      ],
      [
        "I",
        "ll"
      ],
      [
        "L",
        "ay"
      ],
      [
        "L",
        "end"
      ],
      [
        "L",
        "ie"
      ],
      [
        "M",
        "i"
      ],
      [
        "N",
        "ay"
      ],
      [
        "O",
        "ut"
      ],
      [
        "P",
        "ro"
      ],
      [
        "R",
        "iv"
      ],
      [
        "S",
        "at"
      ],
      [
        "S",
        "ay"
      ],
      [
        "S",
        "hi"
      ],
      [
        "S",
        "we"
      ],
      [
        "T",
        "it"
      ],
      [
        "T",
        "ry"
      ],
      [
        "T",
        "wo"
      ],
      [
        "Y",
        "es"
      ],
      [
        "b",
        "it"
      ],
      [
        "b",
        "al"
      ],
      [
        "b",
        "id"
      ],
      [
        "b",
        "ru"
      ],
      [
        "b",
        "ast"
      ],
      [
        "b",
        "ag"
      ],
      [
        "b",
        "la"
      ],
      [
        "b",
        "lu"
      ],
      [
        "c",
        "le"
      ],
      [
        "c",
        "un"
      ],
      [
        "c",
        "ad"
      ],
      [
        "c",
        "ious"
      ],
      [
        "d",
        "ag"
      ],
      [
        "d",
        "ue"
      ],
      [
        "e",
        "lo"
      ],
      [
        "f",
        "ly"
      ],
      [
        "f",
        "lu"
      ],
      [
        "g",
        "ri"
      ],
      [
        "h",
        "our"
      ],
      [
        "h",
        "ut"
      ],
      [
        "h",
        "us"
      ],
      [
        "i",
        "mp"
      ],
      [
        "j",
        "ud"
      ],
      [
        "k",
        "id"
      ],
      [
        "l",
        "ar"
      ],
      [
        "m",
        "ur"
      ],
      [
        "n",
        "or"
      ],
      [
        "n",
        "ar"
      ],
      [
        "p",
        "al"
      ],
      [
        "p",
        "ut"
      ],
      [
        "p",
        "up"
      ],
      [
        "p",
        "ap"
      ],
      [
        "p",
        "per"
      ],
      [
        "r",
        "ot"
      ],
      [
        "r",
        "am"
      ],
      [
        "r",
        "ong"
      ],
      [
        "s",
        "an"
      ],
      [
        "s",
        "al"
      ],
      [
        "s",
        "co"
      ],
      [
        "t",
        "ro"
      ],
      [
        "u",
        "at"
      ],
      [
        "u",
        "mp"
      ],
      [
        "v",
        "ow"
      ],
      [
        "v",
        "as"
      ],
      [
        "w",
        "in"
      ],
      [
        "w",
        "ind"
      ],
      [
        "y",
        "al"
      ],
      [
        "z",
        "ed"
      ],
      [
        "in",
        "i"
      ],
      [
        "re",
        "g"
      ],
      [
        "re",
        "me"
      ],
      [
        "st",
        "ol"
      ],
      [
        "is",
        "on"
      ],
      [
        "ha",
        "p"
      ],
      [
        "ha",
        "re"
      ],
      [
        "or",
        "t"
      ],
      [
        "he",
        "w"
      ],
      [
        "he",
        "av"
      ],
      [
        "of",
        "s"
      ],
      [
        "of",
        "t"
      ],
      [
        "to",
        "p"
      ],
      [
        "me",
        "an"
      ],
      [
        "le",
        "g"
      ],
      [
        "le",
        "y"
      ],
      [
        "at",
        "te"
      ],
      [
        "se",
        "y"
      ],
      [
        "it",
        "u"
      ],
      [
        "wi",
        "p"
      ],
      [
        "be",
        "d"
      ],
      [
        "de",
        "x"
      ],
      [
        "ut",
        "y"
      ],
      [
        "for",
        "m"
      ],
      [
        "we",
        "t"
      ],
      [
        "we",
        "st"
      ],
      [
        "ce",
        "iv"
      ],
      [
        "es",
        "y"
      ],
      [
        "un",
        "y"
      ],
      [
        "id",
        "l"
      ],
      [
        "id",
        "le"
      ],
      [
        "ho",
        "b"
      ],
      [
        "lo",
        "y"
      ],
      [
        "vi",
        "le"
      ],
      [
        "ur",
        "y"
      ],
      [
        "ne",
        "p"
      ],
      [
        "ne",
        "w"
      ],
      [
        "su",
        "b"
      ],
      [
        "su",
        "m"
      ],
      [
        "su",
        "ll"
      ],
      [
        "ie",
        "th"
      ],
      [
        "po",
        "x"
      ],
      [
        "if",
        "y"
      ],
      [
        "ap",
        "h"
      ],
      [
        "us",
        "h"
      ],
      [
        "ep",
        "s"
      ],
      [
        "was",
        "h"
      ],
      [
        "Pe",
        "w"
      ],
      [
        "bu",
        "d"
      ],
      [
        "si",
        "g"
      ],
      [
        "si",
        "x"
      ],
      [
        "low",
        "n"
      ],
      [
        "As",
        "k"
      ],
      [
        "con",
        "t"
      ],
      [
        "te",
        "m"
      ],
      [
        "il",
        "s"
      ],
      [
        "hum",
        "our"
      ],
      [
        "lu",
        "g"
      ],
      [
        "llow",
        "s"
      ],
      [
        "kne",
        "e"
      ],
      [
        "A",
        "dam"
      ],
      [
        "A",
        "die"
      ],
      [
        "B",
        "re"
      ],
      [
        "C",
        "on"
      ],
      [
        "D",
        "ame"
      ],
      [
        "E",
        "ast"
      ],
      [
        "E",
        "mb"
      ],
      [
        "E",
        "ach"
      ],
      [
        "E",
        "lse"
      ],
      [
        "F",
        "ive"
      ],
      [
        "F",
        "ore"
      ],
      [
        "H",
        "all"
      ],
      [
        "H",
        "old"
      ],
      [
        "H",
        "ark"
      ],
      [
        "H",
        "ave"
      ],
      [
        "J",
        "une"
      ],
      [
        "K",
        "end"
      ],
      [
        "K",
        "eep"
      ],
      [
        "L",
        "est"
      ],
      [
        "L",
        "ead"
      ],
      [
        "M",
        "on"
      ],
      [
        "M",
        "any"
      ],
      [
        "M",
        "ark"
      ],
      [
        "M",
        "oor"
      ],
      [
        "N",
        "ich"
      ],
      [
        "P",
        "oor"
      ],
      [
        "R",
        "end"
      ],
      [
        "R",
        "ead"
      ],
      [
        "S",
        "ear"
      ],
      [
        "S",
        "end"
      ],
      [
        "S",
        "ome"
      ],
      [
        "T",
        "ill"
      ],
      [
        "T",
        "han"
      ],
      [
        "T",
        "emp"
      ],
      [
        "T",
        "ues"
      ],
      [
        "W",
        "i"
      ],
      [
        "W",
        "est"
      ],
      [
        "W",
        "ilt"
      ],
      [
        "b",
        "en"
      ],
      [
        "b",
        "one"
      ],
      [
        "b",
        "ody"
      ],
      [
        "c",
        "and"
      ],
      [
        "c",
        "are"
      ],
      [
        "c",
        "red"
      ],
      [
        "c",
        "ase"
      ],
      [
        "c",
        "ame"
      ],
      [
        "c",
        "rop"
      ],
      [
        "d",
        "one"
      ],
      [
        "d",
        "ark"
      ],
      [
        "d",
        "rop"
      ],
      [
        "d",
        "ren"
      ],
      [
        "e",
        "ach"
      ],
      [
        "f",
        "ing"
      ],
      [
        "f",
        "ant"
      ],
      [
        "f",
        "ill"
      ],
      [
        "f",
        "oul"
      ],
      [
        "f",
        "urn"
      ],
      [
        "f",
        "ree"
      ],
      [
        "i",
        "an"
      ],
      [
        "i",
        "mit"
      ],
      [
        "k",
        "not"
      ],
      [
        "k",
        "iss"
      ],
      [
        "l",
        "ack"
      ],
      [
        "l",
        "ast"
      ],
      [
        "l",
        "ady"
      ],
      [
        "m",
        "ind"
      ],
      [
        "m",
        "ark"
      ],
      [
        "n",
        "one"
      ],
      [
        "n",
        "ded"
      ],
      [
        "o",
        "ly"
      ],
      [
        "p",
        "ac"
      ],
      [
        "p",
        "ity"
      ],
      [
        "s",
        "end"
      ],
      [
        "s",
        "ame"
      ],
      [
        "s",
        "ave"
      ],
      [
        "s",
        "way"
      ],
      [
        "s",
        "cep"
      ],
      [
        "t",
        "ear"
      ],
      [
        "t",
        "was"
      ],
      [
        "t",
        "urn"
      ],
      [
        "u",
        "ms"
      ],
      [
        "u",
        "sed"
      ],
      [
        "v",
        "ap"
      ],
      [
        "w",
        "and"
      ],
      [
        "w",
        "ast"
      ],
      [
        "w",
        "ers"
      ],
      [
        "w",
        "ine"
      ],
      [
        "w",
        "ars"
      ],
      [
        "w",
        "ish"
      ],
      [
        "w",
        "ond"
      ],
      [
        "th",
        "ri"
      ],
      [
        "th",
        "ir"
      ],
      [
        "ou",
        "ble"
      ],
      [
        "ou",
        "ds"
      ],
      [
        "an",
        "on"
      ],
      [
        "in",
        "to"
      ],
      [
        "in",
        "su"
      ],
      [
        "re",
        "ve"
      ],
      [
        "re",
        "nd"
      ],
      [
        "re",
        "gu"
      ],
      [
        "st",
        "al"
      ],
      [
        "st",
        "ri"
      ],
      [
        "st",
        "ru"
      ],
      [
        "st",
        "ep"
      ],
      [
        "er",
        "ly"
      ],
      [
        "is",
        "es"
      ],
      [
        "ha",
        "b"
      ],
      [
        "he",
        "st"
      ],
      [
        "he",
        "lp"
      ],
      [
        "on",
        "ly"
      ],
      [
        "en",
        "s"
      ],
      [
        "en",
        "em"
      ],
      [
        "le",
        "ap"
      ],
      [
        "at",
        "s"
      ],
      [
        "se",
        "ar"
      ],
      [
        "se",
        "ld"
      ],
      [
        "se",
        "ss"
      ],
      [
        "al",
        "th"
      ],
      [
        "be",
        "ef"
      ],
      [
        "de",
        "st"
      ],
      [
        "de",
        "er"
      ],
      [
        "de",
        "al"
      ],
      [
        "de",
        "bt"
      ],
      [
        "ac",
        "ti"
      ],
      [
        "ac",
        "qu"
      ],
      [
        "ro",
        "an"
      ],
      [
        "ro",
        "be"
      ],
      [
        "ut",
        "es"
      ],
      [
        "for",
        "d"
      ],
      [
        "we",
        "ar"
      ],
      [
        "we",
        "av"
      ],
      [
        "we",
        "ek"
      ],
      [
        "ri",
        "er"
      ],
      [
        "li",
        "st"
      ],
      [
        "li",
        "ly"
      ],
      [
        "li",
        "ps"
      ],
      [
        "ce",
        "ss"
      ],
      [
        "un",
        "ch"
      ],
      [
        "are",
        "r"
      ],
      [
        "id",
        "ent"
      ],
      [
        "od",
        "ds"
      ],
      [
        "now",
        "n"
      ],
      [
        "co",
        "in"
      ],
      [
        "co",
        "ld"
      ],
      [
        "ho",
        "me"
      ],
      [
        "ho",
        "le"
      ],
      [
        "ho",
        "li"
      ],
      [
        "est",
        "i"
      ],
      [
        "ran",
        "ce"
      ],
      [
        "vi",
        "de"
      ],
      [
        "fa",
        "st"
      ],
      [
        "ur",
        "al"
      ],
      [
        "ne",
        "at"
      ],
      [
        "end",
        "er"
      ],
      [
        "su",
        "re"
      ],
      [
        "ru",
        "ff"
      ],
      [
        "see",
        "k"
      ],
      [
        "bo",
        "ss"
      ],
      [
        "po",
        "re"
      ],
      [
        "po",
        "or"
      ],
      [
        "po",
        "se"
      ],
      [
        "mu",
        "lt"
      ],
      [
        "wo",
        "ol"
      ],
      [
        "ap",
        "e"
      ],
      [
        "ap",
        "po"
      ],
      [
        "ink",
        "ing"
      ],
      [
        "fe",
        "ct"
      ],
      [
        "ep",
        "it"
      ],
      [
        "fo",
        "ol"
      ],
      [
        "fo",
        "il"
      ],
      [
        "pl",
        "ain"
      ],
      [
        "Pr",
        "ay"
      ],
      [
        "har",
        "k"
      ],
      [
        "too",
        "k"
      ],
      [
        "bu",
        "ll"
      ],
      [
        "bu",
        "ck"
      ],
      [
        "sc",
        "i"
      ],
      [
        "sc",
        "r"
      ],
      [
        "sc",
        "ar"
      ],
      [
        "Sir",
        "s"
      ],
      [
        "la",
        "b"
      ],
      [
        "si",
        "es"
      ],
      [
        "Go",
        "od"
      ],
      [
        "Do",
        "th"
      ],
      [
        "unt",
        "s"
      ],
      [
        "cal",
        "f"
      ],
      [
        "We",
        "re"
      ],
      [
        "ex",
        "am"
      ],
      [
        "mb",
        "ly"
      ],
      [
        "dis",
        "h"
      ],
      [
        "tre",
        "e"
      ],
      [
        "rob",
        "b"
      ],
      [
        "fle",
        "d"
      ],
      [
        "cel",
        "s"
      ],
      [
        "ig",
        "no"
      ],
      [
        "cl",
        "ay"
      ],
      [
        "gre",
        "y"
      ],
      [
        "ze",
        "al"
      ],
      [
        "ilt",
        "y"
      ],
      [
        "Nor",
        "th"
      ],
      [
        "cap",
        "on"
      ],
      [
        "An",
        "on"
      ],
      [
        "fr",
        "ay"
      ],
      [
        "cu",
        "se"
      ],
      [
        "lan",
        "e"
      ],
      [
        "den",
        "y"
      ],
      [
        "Pa",
        "ul"
      ],
      [
        "Qu",
        "it"
      ],
      [
        "bar",
        "y"
      ],
      [
        "fal",
        "s"
      ],
      [
        "mas",
        "k"
      ],
      [
        "Up",
        "on"
      ],
      [
        "ic",
        "er"
      ],
      [
        "cup",
        "s"
      ],
      [
        "inj",
        "u"
      ],
      [
        "ama",
        "ze"
      ],
      [
        "fid",
        "d"
      ],
      [
        "ma",
        "de"
      ],
      [
        "pa",
        "ir"
      ],
      [
        "En",
        "gl"
      ],
      [
        "fi",
        "re"
      ],
      [
        "pu",
        "ke"
      ],
      [
        "oi",
        "ly"
      ],
      [
        "Co",
        "lo"
      ],
      [
        "ug",
        "ly"
      ],
      [
        "gi",
        "ld"
      ],
      [
        "Sp",
        "an"
      ],
      [
        "ssu",
        "s"
      ],
      [
        "hel",
        "m"
      ],
      [
        "Riv",
        "o"
      ],
      [
        "Shi",
        "r"
      ],
      [
        "bal",
        "d"
      ],
      [
        "mur",
        "d"
      ],
      [
        "tro",
        "d"
      ],
      [
        "ump",
        "h"
      ],
      [
        "B",
        "ring"
      ],
      [
        "B",
        "ears"
      ],
      [
        "C",
        "ould"
      ],
      [
        "D",
        "eath"
      ],
      [
        "D",
        "raw"
      ],
      [
        "H",
        "ence"
      ],
      [
        "L",
        "ends"
      ],
      [
        "L",
        "ond"
      ],
      [
        "M",
        "oney"
      ],
      [
        "N",
        "ever"
      ],
      [
        "S",
        "even"
      ],
      [
        "S",
        "peak"
      ],
      [
        "U",
        "nder"
      ],
      [
        "W",
        "ould"
      ],
      [
        "b",
        "ring"
      ],
      [
        "b",
        "rown"
      ],
      [
        "b",
        "ount"
      ],
      [
        "b",
        "lown"
      ],
      [
        "c",
        "reat"
      ],
      [
        "c",
        "lean"
      ],
      [
        "c",
        "atch"
      ],
      [
        "c",
        "ries"
      ],
      [
        "f",
        "ound"
      ],
      [
        "f",
        "lie"
      ],
      [
        "f",
        "inde"
      ],
      [
        "g",
        "ave"
      ],
      [
        "g",
        "rave"
      ],
      [
        "h",
        "ours"
      ],
      [
        "h",
        "oney"
      ],
      [
        "l",
        "ards"
      ],
      [
        "m",
        "ercy"
      ],
      [
        "m",
        "ight"
      ],
      [
        "n",
        "atch"
      ],
      [
        "o",
        "bt"
      ],
      [
        "p",
        "ard"
      ],
      [
        "p",
        "ouch"
      ],
      [
        "s",
        "kill"
      ],
      [
        "s",
        "itt"
      ],
      [
        "s",
        "land"
      ],
      [
        "s",
        "lain"
      ],
      [
        "t",
        "or"
      ],
      [
        "t",
        "arry"
      ],
      [
        "t",
        "rave"
      ],
      [
        "t",
        "runk"
      ],
      [
        "t",
        "ouch"
      ],
      [
        "t",
        "aste"
      ],
      [
        "w",
        "ench"
      ],
      [
        "w",
        "rong"
      ],
      [
        "th",
        "row"
      ],
      [
        "th",
        "ree"
      ],
      [
        "ou",
        "red"
      ],
      [
        "an",
        "ion"
      ],
      [
        "the",
        "ft"
      ],
      [
        "re",
        "ce"
      ],
      [
        "re",
        "ti"
      ],
      [
        "re",
        "ven"
      ],
      [
        "re",
        "spe"
      ],
      [
        "re",
        "ign"
      ],
      [
        "st",
        "art"
      ],
      [
        "st",
        "out"
      ],
      [
        "st",
        "ark"
      ],
      [
        "st",
        "iff"
      ],
      [
        "st",
        "ars"
      ],
      [
        "st",
        "ate"
      ],
      [
        "st",
        "ret"
      ],
      [
        "st",
        "ory"
      ],
      [
        "st",
        "uff"
      ],
      [
        "is",
        "ons"
      ],
      [
        "he",
        "ark"
      ],
      [
        "he",
        "igh"
      ],
      [
        "he",
        "els"
      ],
      [
        "ar",
        "ras"
      ],
      [
        "en",
        "ter"
      ],
      [
        "ow",
        "est"
      ],
      [
        "ow",
        "ell"
      ],
      [
        "to",
        "ge"
      ],
      [
        "to",
        "day"
      ],
      [
        "me",
        "mor"
      ],
      [
        "me",
        "ans"
      ],
      [
        "me",
        "lan"
      ],
      [
        "le",
        "ast"
      ],
      [
        "at",
        "tr"
      ],
      [
        "se",
        "ven"
      ],
      [
        "it",
        "ure"
      ],
      [
        "it",
        "ies"
      ],
      [
        "al",
        "ong"
      ],
      [
        "be",
        "ing"
      ],
      [
        "be",
        "ast"
      ],
      [
        "be",
        "ars"
      ],
      [
        "be",
        "lly"
      ],
      [
        "ac",
        "her"
      ],
      [
        "ac",
        "cep"
      ],
      [
        "ro",
        "yal"
      ],
      [
        "ch",
        "oly"
      ],
      [
        "li",
        "est"
      ],
      [
        "li",
        "ons"
      ],
      [
        "ter",
        "ms"
      ],
      [
        "do",
        "ing"
      ],
      [
        "do",
        "zen"
      ],
      [
        "ed",
        "ing"
      ],
      [
        "you",
        "ng"
      ],
      [
        "sha",
        "re"
      ],
      [
        "are",
        "nt"
      ],
      [
        "The",
        "se"
      ],
      [
        "ak",
        "bag"
      ],
      [
        "ver",
        "se"
      ],
      [
        "co",
        "zen"
      ],
      [
        "ho",
        "ofs"
      ],
      [
        "wor",
        "ms"
      ],
      [
        "lo",
        "ver"
      ],
      [
        "lo",
        "ose"
      ],
      [
        "sp",
        "ort"
      ],
      [
        "ent",
        "ly"
      ],
      [
        "ain",
        "t"
      ],
      [
        "am",
        "end"
      ],
      [
        "am",
        "bit"
      ],
      [
        "mo",
        "ther"
      ],
      [
        "vi",
        "our"
      ],
      [
        "vi",
        "ol"
      ],
      [
        "ble",
        "s"
      ],
      [
        "su",
        "ers"
      ],
      [
        "su",
        "its"
      ],
      [
        "su",
        "lly"
      ],
      [
        "ast",
        "ed"
      ],
      [
        "ti",
        "red"
      ],
      [
        "ti",
        "mer"
      ],
      [
        "po",
        "ses"
      ],
      [
        "gl",
        "itt"
      ],
      [
        "tru",
        "th"
      ],
      [
        "tru",
        "st"
      ],
      [
        "word",
        "s"
      ],
      [
        "ag",
        "ate"
      ],
      [
        "hast",
        "e"
      ],
      [
        "fe",
        "wer"
      ],
      [
        "He",
        "igh"
      ],
      [
        "gu",
        "ine"
      ],
      [
        "pl",
        "ace"
      ],
      [
        "ord",
        "er"
      ],
      [
        "know",
        "n"
      ],
      [
        "ta",
        "les"
      ],
      [
        "ss",
        "er"
      ],
      [
        "bre",
        "ad"
      ],
      [
        "bre",
        "ath"
      ],
      [
        "sc",
        "our"
      ],
      [
        "sc",
        "ene"
      ],
      [
        "sc",
        "ape"
      ],
      [
        "qu",
        "ity"
      ],
      [
        "qu",
        "ick"
      ],
      [
        "qu",
        "ilt"
      ],
      [
        "qu",
        "ite"
      ],
      [
        "pur",
        "ge"
      ],
      [
        "val",
        "ry"
      ],
      [
        "bro",
        "ok"
      ],
      [
        "play",
        "s"
      ],
      [
        "si",
        "ble"
      ],
      [
        "No",
        "ble"
      ],
      [
        "ol",
        "as"
      ],
      [
        "tri",
        "al"
      ],
      [
        "tri",
        "ck"
      ],
      [
        "show",
        "n"
      ],
      [
        "thie",
        "f"
      ],
      [
        "head",
        "s"
      ],
      [
        "il",
        "ing"
      ],
      [
        "il",
        "ity"
      ],
      [
        "ul",
        "ars"
      ],
      [
        "Be",
        "ing"
      ],
      [
        "ex",
        "ch"
      ],
      [
        "ex",
        "ten"
      ],
      [
        "mer",
        "ry"
      ],
      [
        "che",
        "th"
      ],
      [
        "che",
        "ap"
      ],
      [
        "dis",
        "gu"
      ],
      [
        "ick",
        "ly"
      ],
      [
        "tak",
        "es"
      ],
      [
        "who",
        "se"
      ],
      [
        "hold",
        "s"
      ],
      [
        "pr",
        "ise"
      ],
      [
        "tre",
        "ad"
      ],
      [
        "Who",
        "se"
      ],
      [
        "hand",
        "s"
      ],
      [
        "walk",
        "s"
      ],
      [
        "br",
        "ain"
      ],
      [
        "mi",
        "les"
      ],
      [
        "mi",
        "sts"
      ],
      [
        "gre",
        "en"
      ],
      [
        "mon",
        "th"
      ],
      [
        "car",
        "ve"
      ],
      [
        "sto",
        "ol"
      ],
      [
        "sup",
        "er"
      ],
      [
        "min",
        "y"
      ],
      [
        "prom",
        "ise"
      ],
      [
        "Scot",
        "s"
      ],
      [
        "pe",
        "ace"
      ],
      [
        "fr",
        "ont"
      ],
      [
        "nob",
        "ly"
      ],
      [
        "pi",
        "est"
      ],
      [
        "cu",
        "red"
      ],
      [
        "fal",
        "se"
      ],
      [
        "St",
        "and"
      ],
      [
        "St",
        "eps"
      ],
      [
        "abo",
        "ve"
      ],
      [
        "Did",
        "st"
      ],
      [
        "baw",
        "ds"
      ],
      [
        "baw",
        "dy"
      ],
      [
        "chi",
        "ld"
      ],
      [
        "kne",
        "es"
      ],
      [
        "gle",
        "d"
      ],
      [
        "met",
        "al"
      ],
      [
        "band",
        "s"
      ],
      [
        "tong",
        "ue"
      ],
      [
        "ffet",
        "a"
      ],
      [
        "need",
        "s"
      ],
      [
        "braw",
        "n"
      ],
      [
        "ange",
        "l"
      ],
      [
        "Th",
        "urs"
      ],
      [
        "di",
        "als"
      ],
      [
        "bl",
        "ush"
      ],
      [
        "ci",
        "vil"
      ],
      [
        "whe",
        "ne"
      ],
      [
        "pri",
        "ze"
      ],
      [
        "fare",
        "s"
      ],
      [
        "fl",
        "ame"
      ],
      [
        "whi",
        "st"
      ],
      [
        "ab",
        "out"
      ],
      [
        "na",
        "ils"
      ],
      [
        "swo",
        "ll"
      ],
      [
        "swor",
        "n"
      ],
      [
        "ste",
        "al"
      ],
      [
        "dev",
        "is"
      ],
      [
        "cre",
        "am"
      ],
      [
        "ust",
        "ry"
      ],
      [
        "dri",
        "ve"
      ],
      [
        "sla",
        "ve"
      ],
      [
        "rid",
        "ge"
      ],
      [
        "qui",
        "et"
      ],
      [
        "Hy",
        "bla"
      ],
      [
        "mar",
        "ch"
      ],
      [
        "rit",
        "es"
      ],
      [
        "ser",
        "ve"
      ],
      [
        "Bl",
        "unt"
      ],
      [
        "Dit",
        "ch"
      ],
      [
        "Gad",
        "s"
      ],
      [
        "Sat",
        "an"
      ],
      [
        "Tit",
        "an"
      ],
      [
        "bru",
        "is"
      ],
      [
        "blu",
        "st"
      ],
      [
        "cle",
        "ar"
      ],
      [
        "elo",
        "qu"
      ],
      [
        "gri",
        "ev"
      ],
      [
        "hut",
        "ch"
      ],
      [
        "pup",
        "il"
      ],
      [
        "sal",
        "ve"
      ],
      [
        "sco",
        "re"
      ],
      [
        "heav",
        "y"
      ],
      [
        "uny",
        "ok"
      ],
      [
        "sig",
        "ns"
      ],
      [
        "Adie",
        "u"
      ],
      [
        "cand",
        "y"
      ],
      [
        "pac",
        "es"
      ],
      [
        "C",
        "harge"
      ],
      [
        "D",
        "arest"
      ],
      [
        "M",
        "aster"
      ],
      [
        "b",
        "ur"
      ],
      [
        "b",
        "right"
      ],
      [
        "d",
        "arest"
      ],
      [
        "d",
        "aring"
      ],
      [
        "f",
        "ford"
      ],
      [
        "g",
        "allow"
      ],
      [
        "k",
        "night"
      ],
      [
        "m",
        "otion"
      ],
      [
        "m",
        "utter"
      ],
      [
        "p",
        "able"
      ],
      [
        "p",
        "otion"
      ],
      [
        "r",
        "iseth"
      ],
      [
        "s",
        "light"
      ],
      [
        "s",
        "ounds"
      ],
      [
        "s",
        "natch"
      ],
      [
        "t",
        "ender"
      ],
      [
        "w",
        "ounds"
      ],
      [
        "th",
        "reat"
      ],
      [
        "in",
        "temp"
      ],
      [
        "re",
        "for"
      ],
      [
        "re",
        "ment"
      ],
      [
        "re",
        "deem"
      ],
      [
        "re",
        "nder"
      ],
      [
        "re",
        "nown"
      ],
      [
        "ll",
        "ers"
      ],
      [
        "ha",
        "unts"
      ],
      [
        "and",
        "ums"
      ],
      [
        "ar",
        "mies"
      ],
      [
        "en",
        "ough"
      ],
      [
        "en",
        "rich"
      ],
      [
        "en",
        "gage"
      ],
      [
        "me",
        "lted"
      ],
      [
        "as",
        "hame"
      ],
      [
        "as",
        "sure"
      ],
      [
        "be",
        "come"
      ],
      [
        "be",
        "time"
      ],
      [
        "be",
        "long"
      ],
      [
        "be",
        "hold"
      ],
      [
        "be",
        "fore"
      ],
      [
        "de",
        "vice"
      ],
      [
        "de",
        "ceiv"
      ],
      [
        "de",
        "arer"
      ],
      [
        "hi",
        "ther"
      ],
      [
        "for",
        "got"
      ],
      [
        "for",
        "bid"
      ],
      [
        "we",
        "alth"
      ],
      [
        "ch",
        "ance"
      ],
      [
        "ter",
        "ity"
      ],
      [
        "un",
        "less"
      ],
      [
        "ir",
        "regu"
      ],
      [
        "up",
        "hold"
      ],
      [
        "ver",
        "bs"
      ],
      [
        "co",
        "pper"
      ],
      [
        "ho",
        "llow"
      ],
      [
        "wor",
        "thy"
      ],
      [
        "sp",
        "here"
      ],
      [
        "sp",
        "ring"
      ],
      [
        "sp",
        "ieth"
      ],
      [
        "ent",
        "ure"
      ],
      [
        "ran",
        "som"
      ],
      [
        "vi",
        "lest"
      ],
      [
        "ne",
        "cess"
      ],
      [
        "po",
        "ison"
      ],
      [
        "good",
        "ly"
      ],
      [
        "tru",
        "ant"
      ],
      [
        "ong",
        "ly"
      ],
      [
        "ong",
        "ers"
      ],
      [
        "Thou",
        "gh"
      ],
      [
        "ag",
        "ious"
      ],
      [
        "when",
        "ce"
      ],
      [
        "gu",
        "ilty"
      ],
      [
        "can",
        "not"
      ],
      [
        "can",
        "vas"
      ],
      [
        "was",
        "hes"
      ],
      [
        "ind",
        "ign"
      ],
      [
        "let",
        "ter"
      ],
      [
        "bu",
        "ffet"
      ],
      [
        "pur",
        "ses"
      ],
      [
        "swe",
        "ats"
      ],
      [
        "out",
        "fac"
      ],
      [
        "val",
        "our"
      ],
      [
        "off",
        "end"
      ],
      [
        "long",
        "er"
      ],
      [
        "unt",
        "ing"
      ],
      [
        "show",
        "ed"
      ],
      [
        "horse",
        "s"
      ],
      [
        "Be",
        "fore"
      ],
      [
        "ex",
        "cuse"
      ],
      [
        "per",
        "mit"
      ],
      [
        "che",
        "wet"
      ],
      [
        "gar",
        "ter"
      ],
      [
        "tak",
        "ing"
      ],
      [
        "pr",
        "ince"
      ],
      [
        "em",
        "boss"
      ],
      [
        "par",
        "rot"
      ],
      [
        "cast",
        "le"
      ],
      [
        "tell",
        "s"
      ],
      [
        "comp",
        "ar"
      ],
      [
        "shame",
        "s"
      ],
      [
        "clock",
        "s"
      ],
      [
        "cl",
        "ouds"
      ],
      [
        "gre",
        "asy"
      ],
      [
        "ud",
        "ent"
      ],
      [
        "My",
        "self"
      ],
      [
        "sup",
        "per"
      ],
      [
        "cap",
        "ons"
      ],
      [
        "vern",
        "ed"
      ],
      [
        "light",
        "s"
      ],
      [
        "lea",
        "ves"
      ],
      [
        "pi",
        "stol"
      ],
      [
        "Pa",
        "unch"
      ],
      [
        "emp",
        "loy"
      ],
      [
        "fac",
        "tor"
      ],
      [
        "mas",
        "sac"
      ],
      [
        "Man",
        "ent"
      ],
      [
        "abo",
        "min"
      ],
      [
        "lad",
        "der"
      ],
      [
        "cry",
        "ing"
      ],
      [
        "smo",
        "oth"
      ],
      [
        "inj",
        "ury"
      ],
      [
        "ama",
        "zed"
      ],
      [
        "fid",
        "ent"
      ],
      [
        "met",
        "tle"
      ],
      [
        "beg",
        "ets"
      ],
      [
        "dear",
        "ly"
      ],
      [
        "sing",
        "le"
      ],
      [
        "said",
        "st"
      ],
      [
        "want",
        "ed"
      ],
      [
        "stre",
        "ss"
      ],
      [
        "gold",
        "en"
      ],
      [
        "crest",
        "s"
      ],
      [
        "rebel",
        "s"
      ],
      [
        "liver",
        "s"
      ],
      [
        "fault",
        "y"
      ],
      [
        "speed",
        "y"
      ],
      [
        "thank",
        "s"
      ],
      [
        "craft",
        "y"
      ],
      [
        "lead",
        "en"
      ],
      [
        "sh",
        "runk"
      ],
      [
        "butt",
        "on"
      ],
      [
        "sa",
        "west"
      ],
      [
        "hea",
        "ven"
      ],
      [
        "ni",
        "mbly"
      ],
      [
        "ost",
        "ler"
      ],
      [
        "hal",
        "ter"
      ],
      [
        "bra",
        "ver"
      ],
      [
        "bea",
        "uty"
      ],
      [
        "Un",
        "less"
      ],
      [
        "beh",
        "ind"
      ],
      [
        "Re",
        "deem"
      ],
      [
        "lin",
        "ess"
      ],
      [
        "mad",
        "cap"
      ],
      [
        "wis",
        "dom"
      ],
      [
        "proc",
        "ure"
      ],
      [
        "Ele",
        "ven"
      ],
      [
        "Gaw",
        "sey"
      ],
      [
        "cad",
        "dis"
      ],
      [
        "dag",
        "ger"
      ],
      [
        "fly",
        "ing"
      ],
      [
        "flu",
        "ous"
      ],
      [
        "kid",
        "ney"
      ],
      [
        "nar",
        "row"
      ],
      [
        "pap",
        "ers"
      ],
      [
        "uat",
        "ion"
      ],
      [
        "win",
        "ded"
      ],
      [
        "reme",
        "mb"
      ],
      [
        "itu",
        "des"
      ],
      [
        "nep",
        "hew"
      ],
      [
        "new",
        "sm"
      ],
      [
        "sum",
        "mer"
      ],
      [
        "sull",
        "en"
      ],
      [
        "Pew",
        "ter"
      ],
      [
        "Bre",
        "ath"
      ],
      [
        "Kend",
        "al"
      ],
      [
        "Mon",
        "day"
      ],
      [
        "Sear",
        "ch"
      ],
      [
        "Temp",
        "le"
      ],
      [
        "cred",
        "it"
      ],
      [
        "dren",
        "ch"
      ],
      [
        "knot",
        "ty"
      ],
      [
        "thri",
        "ce"
      ],
      [
        "thir",
        "ty"
      ],
      [
        "stri",
        "ct"
      ],
      [
        "stru",
        "ck"
      ],
      [
        "hab",
        "its"
      ],
      [
        "seld",
        "om"
      ],
      [
        "acti",
        "ve"
      ],
      [
        "ident",
        "s"
      ],
      [
        "scar",
        "ce"
      ],
      [
        "lab",
        "our"
      ],
      [
        "Draw",
        "er"
      ],
      [
        "Lond",
        "on"
      ],
      [
        "bount",
        "y"
      ],
      [
        "flie",
        "th"
      ],
      [
        "gave",
        "st"
      ],
      [
        "obt",
        "ain"
      ],
      [
        "pard",
        "on"
      ],
      [
        "reven",
        "g"
      ],
      [
        "P",
        "itiful"
      ],
      [
        "m",
        "ount"
      ],
      [
        "re",
        "proof"
      ],
      [
        "er",
        "ance"
      ],
      [
        "en",
        "gross"
      ],
      [
        "wi",
        "thout"
      ],
      [
        "de",
        "liver"
      ],
      [
        "ro",
        "asted"
      ],
      [
        "for",
        "give"
      ],
      [
        "thy",
        "self"
      ],
      [
        "man",
        "gled"
      ],
      [
        "wor",
        "ship"
      ],
      [
        "shall",
        "ow"
      ],
      [
        "ent",
        "reat"
      ],
      [
        "ear",
        "nest"
      ],
      [
        "bo",
        "lting"
      ],
      [
        "good",
        "man"
      ],
      [
        "fo",
        "llows"
      ],
      [
        "can",
        "cels"
      ],
      [
        "clo",
        "sing"
      ],
      [
        "know",
        "ing"
      ],
      [
        "ta",
        "ught"
      ],
      [
        "ta",
        "ffeta"
      ],
      [
        "hon",
        "ours"
      ],
      [
        "sc",
        "atte"
      ],
      [
        "off",
        "icer"
      ],
      [
        "Bar",
        "bary"
      ],
      [
        "play",
        "ing"
      ],
      [
        "again",
        "st"
      ],
      [
        "hall",
        "own"
      ],
      [
        "No",
        "thing"
      ],
      [
        "tri",
        "umph"
      ],
      [
        "con",
        "tent"
      ],
      [
        "con",
        "tain"
      ],
      [
        "con",
        "sci"
      ],
      [
        "set",
        "ting"
      ],
      [
        "vill",
        "any"
      ],
      [
        "ex",
        "tem"
      ],
      [
        "per",
        "form"
      ],
      [
        "per",
        "fect"
      ],
      [
        "dis",
        "pose"
      ],
      [
        "gar",
        "ment"
      ],
      [
        "gar",
        "land"
      ],
      [
        "Where",
        "in"
      ],
      [
        "rascal",
        "s"
      ],
      [
        "sm",
        "iling"
      ],
      [
        "pra",
        "ised"
      ],
      [
        "ans",
        "wers"
      ],
      [
        "great",
        "er"
      ],
      [
        "fellow",
        "s"
      ],
      [
        "sto",
        "lest"
      ],
      [
        "min",
        "utes"
      ],
      [
        "lest",
        "ick"
      ],
      [
        "bear",
        "ded"
      ],
      [
        "heart",
        "ed"
      ],
      [
        "spir",
        "its"
      ],
      [
        "gross",
        "ly"
      ],
      [
        "honest",
        "y"
      ],
      [
        "ted",
        "ious"
      ],
      [
        "king",
        "dom"
      ],
      [
        "Qu",
        "ickly"
      ],
      [
        "bar",
        "gain"
      ],
      [
        "pre",
        "sser"
      ],
      [
        "sou",
        "nded"
      ],
      [
        "Man",
        "ning"
      ],
      [
        "lain",
        "ts"
      ],
      [
        "cry",
        "stal"
      ],
      [
        "mid",
        "riff"
      ],
      [
        "smo",
        "ther"
      ],
      [
        "temp",
        "est"
      ],
      [
        "app",
        "ears"
      ],
      [
        "fall",
        "ing"
      ],
      [
        "pick",
        "ing"
      ],
      [
        "tong",
        "ues"
      ],
      [
        "bomb",
        "ast"
      ],
      [
        "bomb",
        "ard"
      ],
      [
        "charg",
        "ed"
      ],
      [
        "pray",
        "ing"
      ],
      [
        "pray",
        "ers"
      ],
      [
        "hang",
        "ing"
      ],
      [
        "hang",
        "man"
      ],
      [
        "brave",
        "ly"
      ],
      [
        "stre",
        "ets"
      ],
      [
        "right",
        "ly"
      ],
      [
        "miss",
        "ion"
      ],
      [
        "lead",
        "er"
      ],
      [
        "double",
        "t"
      ],
      [
        "Ho",
        "stess"
      ],
      [
        "ob",
        "scene"
      ],
      [
        "suc",
        "cour"
      ],
      [
        "brea",
        "the"
      ],
      [
        "thr",
        "ough"
      ],
      [
        "hig",
        "hest"
      ],
      [
        "fet",
        "ches"
      ],
      [
        "nat",
        "ural"
      ],
      [
        "cer",
        "tain"
      ],
      [
        "du",
        "rance"
      ],
      [
        "gall",
        "ant"
      ],
      [
        "pud",
        "ding"
      ],
      [
        "pos",
        "sess"
      ],
      [
        "Che",
        "erly"
      ],
      [
        "Car",
        "rier"
      ],
      [
        "Pro",
        "vide"
      ],
      [
        "bast",
        "ard"
      ],
      [
        "cun",
        "ning"
      ],
      [
        "hus",
        "band"
      ],
      [
        "jud",
        "gest"
      ],
      [
        "reg",
        "ards"
      ],
      [
        "bud",
        "ding"
      ],
      [
        "lug",
        "gage"
      ],
      [
        "Con",
        "tent"
      ],
      [
        "Tues",
        "day"
      ],
      [
        "Wi",
        "thout"
      ],
      [
        "ben",
        "ches"
      ],
      [
        "fing",
        "ers"
      ],
      [
        "fant",
        "asy"
      ],
      [
        "imit",
        "ate"
      ],
      [
        "scep",
        "tre"
      ],
      [
        "vap",
        "ours"
      ],
      [
        "ouble",
        "d"
      ],
      [
        "into",
        "ler"
      ],
      [
        "enem",
        "ies"
      ],
      [
        "leap",
        "ing"
      ],
      [
        "ruff",
        "ian"
      ],
      [
        "appo",
        "int"
      ],
      [
        "epit",
        "aph"
      ],
      [
        "buck",
        "ram"
      ],
      [
        "scr",
        "atch"
      ],
      [
        "exam",
        "ine"
      ],
      [
        "fals",
        "ify"
      ],
      [
        "Engl",
        "and"
      ],
      [
        "Span",
        "ish"
      ],
      [
        "Shir",
        "ley"
      ],
      [
        "trod",
        "den"
      ],
      [
        "clean",
        "ly"
      ],
      [
        "finde",
        "th"
      ],
      [
        "sitt",
        "ing"
      ],
      [
        "rece",
        "ive"
      ],
      [
        "respe",
        "ct"
      ],
      [
        "stret",
        "ch"
      ],
      [
        "attr",
        "act"
      ],
      [
        "bles",
        "sed"
      ],
      [
        "bur",
        "ning"
      ],
      [
        "gallow",
        "s"
      ],
      [
        "potion",
        "s"
      ],
      [
        "ashame",
        "d"
      ],
      [
        "betime",
        "s"
      ],
      [
        "th",
        "o"
      ],
      [
        "to",
        "morrow"
      ],
      [
        "un",
        "colted"
      ],
      [
        "un",
        "reveng"
      ],
      [
        "up",
        "stairs"
      ],
      [
        "go",
        "verned"
      ],
      [
        "ble",
        "eding"
      ],
      [
        "more",
        "land"
      ],
      [
        "clo",
        "akbag"
      ],
      [
        "ind",
        "ustry"
      ],
      [
        "pur",
        "suers"
      ],
      [
        "pur",
        "poses"
      ],
      [
        "swe",
        "aring"
      ],
      [
        "four",
        "teen"
      ],
      [
        "should",
        "st"
      ],
      [
        "pro",
        "cured"
      ],
      [
        "pro",
        "verbs"
      ],
      [
        "con",
        "verse"
      ],
      [
        "part",
        "ic"
      ],
      [
        "break",
        "ing"
      ],
      [
        "tre",
        "acher"
      ],
      [
        "comp",
        "ound"
      ],
      [
        "noble",
        "man"
      ],
      [
        "cl",
        "inking"
      ],
      [
        "str",
        "ongly"
      ],
      [
        "sto",
        "cking"
      ],
      [
        "Nor",
        "thern"
      ],
      [
        "prom",
        "ised"
      ],
      [
        "eyes",
        "ight"
      ],
      [
        "sleep",
        "ing"
      ],
      [
        "laugh",
        "ing"
      ],
      [
        "laugh",
        "ter"
      ],
      [
        "please",
        "th"
      ],
      [
        "hundred",
        "s"
      ],
      [
        "lea",
        "thern"
      ],
      [
        "nob",
        "ility"
      ],
      [
        "pre",
        "cious"
      ],
      [
        "sou",
        "thern"
      ],
      [
        "chi",
        "valry"
      ],
      [
        "mid",
        "night"
      ],
      [
        "app",
        "arent"
      ],
      [
        "pleas",
        "ure"
      ],
      [
        "braw",
        "ling"
      ],
      [
        "drunk",
        "ard"
      ],
      [
        "eight",
        "een"
      ],
      [
        "stran",
        "gle"
      ],
      [
        "small",
        "est"
      ],
      [
        "court",
        "esy"
      ],
      [
        "thought",
        "s"
      ],
      [
        "offence",
        "s"
      ],
      [
        "va",
        "unting"
      ],
      [
        "kno",
        "cking"
      ],
      [
        "lik",
        "eness"
      ],
      [
        "woul",
        "dest"
      ],
      [
        "Mor",
        "timer"
      ],
      [
        "sen",
        "sible"
      ],
      [
        "col",
        "oured"
      ],
      [
        "Sta",
        "fford"
      ],
      [
        "stra",
        "ight"
      ],
      [
        "Mi",
        "stress"
      ],
      [
        "Swe",
        "arest"
      ],
      [
        "imp",
        "udent"
      ],
      [
        "pal",
        "pable"
      ],
      [
        "san",
        "guine"
      ],
      [
        "ini",
        "quity"
      ],
      [
        "hap",
        "piest"
      ],
      [
        "idl",
        "eness"
      ],
      [
        "hob",
        "nails"
      ],
      [
        "Emb",
        "owell"
      ],
      [
        "Nich",
        "olas"
      ],
      [
        "drop",
        "sies"
      ],
      [
        "reve",
        "rend"
      ],
      [
        "holi",
        "days"
      ],
      [
        "wool",
        "sack"
      ],
      [
        "bull",
        "calf"
      ],
      [
        "igno",
        "miny"
      ],
      [
        "inju",
        "ries"
      ],
      [
        "Colo",
        "ssus"
      ],
      [
        "creat",
        "ure"
      ],
      [
        "sland",
        "ers"
      ],
      [
        "start",
        "ing"
      ],
      [
        "toge",
        "ther"
      ],
      [
        "accep",
        "ted"
      ],
      [
        "cozen",
        "ing"
      ],
      [
        "aint",
        "ance"
      ],
      [
        "ambit",
        "ion"
      ],
      [
        "exch",
        "ange"
      ],
      [
        "Thurs",
        "day"
      ],
      [
        "Gads",
        "hill"
      ],
      [
        "griev",
        "ous"
      ],
      [
        "mount",
        "ain"
      ],
      [
        "our",
        "selves"
      ],
      [
        "un",
        "thought"
      ],
      [
        "here",
        "after"
      ],
      [
        "red",
        "oubled"
      ],
      [
        "ind",
        "enture"
      ],
      [
        "con",
        "fident"
      ],
      [
        "horse",
        "back"
      ],
      [
        "after",
        "noon"
      ],
      [
        "break",
        "fast"
      ],
      [
        "comp",
        "anion"
      ],
      [
        "great",
        "ness"
      ],
      [
        "mis",
        "leader"
      ],
      [
        "prom",
        "iseth"
      ],
      [
        "else",
        "where"
      ],
      [
        "stran",
        "gest"
      ],
      [
        "doubt",
        "less"
      ],
      [
        "acc",
        "idents"
      ],
      [
        "beha",
        "viour"
      ],
      [
        "dex",
        "terity"
      ],
      [
        "East",
        "cheap"
      ],
      [
        "Fore",
        "tells"
      ],
      [
        "furn",
        "iture"
      ],
      [
        "insu",
        "lting"
      ],
      [
        "sear",
        "cheth"
      ],
      [
        "amend",
        "ment"
      ],
      [
        "viol",
        "ently"
      ],
      [
        "disgu",
        "ises"
      ],
      [
        "whist",
        "ling"
      ],
      [
        "eloqu",
        "ence"
      ],
      [
        "slight",
        "est"
      ],
      [
        "threat",
        "ens"
      ],
      [
        "forgot",
        "ten"
      ],
      [
        "irregu",
        "lar"
      ],
      [
        "necess",
        "ary"
      ],
      [
        "poison",
        "ous"
      ],
      [
        "buffet",
        "ing"
      ],
      [
        "massac",
        "res"
      ],
      [
        "Redeem",
        "ing"
      ],
      [
        "obtain",
        "ing"
      ],
      [
        "scatte",
        "red"
      ],
      [
        "extem",
        "pore"
      ],
      [
        "re",
        "solutely"
      ],
      [
        "un",
        "gracious"
      ],
      [
        "them",
        "selves"
      ],
      [
        "comp",
        "laints"
      ],
      [
        "friends",
        "hip"
      ],
      [
        "down",
        "stairs"
      ],
      [
        "reckoning",
        "s"
      ],
      [
        "pick",
        "thanks"
      ],
      [
        "eight",
        "penny"
      ],
      [
        "answer",
        "able"
      ],
      [
        "sub",
        "mission"
      ],
      [
        "cont",
        "agious"
      ],
      [
        "esti",
        "mation"
      ],
      [
        "mult",
        "itudes"
      ],
      [
        "Hence",
        "forth"
      ],
      [
        "trave",
        "llers"
      ],
      [
        "reti",
        "rement"
      ],
      [
        "enter",
        "prise"
      ],
      [
        "melan",
        "choly"
      ],
      [
        "tender",
        "ness"
      ],
      [
        "ransom",
        "less"
      ],
      [
        "abomin",
        "able"
      ],
      [
        "Breath",
        "less"
      ],
      [
        "consci",
        "ence"
      ],
      [
        "dis",
        "solutely"
      ],
      [
        "maiden",
        "heads"
      ],
      [
        "fidd",
        "lestick"
      ],
      [
        "memor",
        "andums"
      ],
      [
        "beast",
        "liness"
      ],
      [
        "exten",
        "uation"
      ],
      [
        "super",
        "fluous"
      ],
      [
        "refor",
        "mation"
      ],
      [
        "indign",
        "ities"
      ],
      [
        "compar",
        "isons"
      ],
      [
        "newsm",
        "ongers"
      ],
      [
        "Manning",
        "tree"
      ],
      [
        "intoler",
        "able"
      ],
      [
        "appoint",
        "ment"
      ],
      [
        "partic",
        "ulars"
      ],
      [
        "treacher",
        "ous"
      ],
      [
        "West",
        "moreland"
      ],
      [
        "acqu",
        "aintance"
      ],
      [
        "intemp",
        "erance"
      ],
      [
        "half",
        "pennyworth"
      ],
      [
        "th",
        "i"
      ],
      [
        "ch",
        "er"
      ],
      [
        "y",
        "o"
      ],
      [
        "e",
        "e"
      ],
      [
        "butt",
        "oning"
      ],
      [
        "W",
        "h"
      ],
      [
        "cher",
        "ish"
      ],
      [
        "un",
        "buttoning"
      ],
      [
        "c",
        "a"
      ],
      [
        "th",
        "a"
      ],
      [
        "he",
        "e"
      ],
      [
        "w",
        "it"
      ],
      [
        "r",
        "d"
      ],
      [
        "r",
        "s"
      ],
      [
        "E",
        "ven"
      ],
      [
        "wi",
        "l"
      ],
      [
        "drink",
        "ing"
      ],
      [
        "W",
        "ha"
      ],
      [
        "sha",
        "l"
      ],
      [
        "P",
        "er"
      ],
      [
        "n",
        "ce"
      ],
      [
        "d",
        "a"
      ],
      [
        "i",
        "m"
      ],
      [
        "w",
        "a"
      ],
      [
        "Fal",
        "sta"
      ],
      [
        "u",
        "ld"
      ],
      [
        "ha",
        "v"
      ],
      [
        "b",
        "a"
      ],
      [
        "u",
        "nd"
      ],
      [
        "th",
        "in"
      ],
      [
        "co",
        "m"
      ],
      [
        "h",
        "t"
      ],
      [
        "o",
        "od"
      ],
      [
        "ou",
        "n"
      ],
      [
        "Bar",
        "do"
      ],
      [
        "Ma",
        "j"
      ],
      [
        "itt",
        "ed"
      ],
      [
        "s",
        "w"
      ],
      [
        "w",
        "itted"
      ],
      [
        "F",
        "r"
      ],
      [
        "F",
        "ra"
      ],
      [
        "e",
        "ve"
      ],
      [
        "k",
        "n"
      ],
      [
        "n",
        "cis"
      ],
      [
        "an",
        "cis"
      ],
      [
        "he",
        "y"
      ],
      [
        "ran",
        "cis"
      ],
      [
        "Fran",
        "c"
      ],
      [
        "Fran",
        "ci"
      ],
      [
        "Pr",
        "in"
      ],
      [
        "F",
        "a"
      ],
      [
        "n",
        "k"
      ],
      [
        "u",
        "ch"
      ],
      [
        "w",
        "n"
      ],
      [
        "ag",
        "a"
      ],
      [
        "J",
        "a"
      ],
      [
        "J",
        "ac"
      ],
      [
        "P",
        "ri"
      ],
      [
        "c",
        "r"
      ],
      [
        "f",
        "ro"
      ],
      [
        "i",
        "o"
      ],
      [
        "r",
        "cy"
      ],
      [
        "de",
        "a"
      ],
      [
        "go",
        "o"
      ],
      [
        "ta",
        "ff"
      ],
      [
        "Dou",
        "gl"
      ],
      [
        "g",
        "a"
      ],
      [
        "s",
        "ho"
      ],
      [
        "Per",
        "c"
      ],
      [
        "T",
        "ho"
      ],
      [
        "a",
        "ff"
      ],
      [
        "k",
        "i"
      ],
      [
        "l",
        "staff"
      ],
      [
        "in",
        "s"
      ],
      [
        "al",
        "staff"
      ],
      [
        "po",
        "ck"
      ],
      [
        "Fal",
        "s"
      ],
      [
        "Fal",
        "st"
      ],
      [
        "Falsta",
        "f"
      ],
      [
        "F",
        "o"
      ],
      [
        "e",
        "ak"
      ],
      [
        "l",
        "s"
      ],
      [
        "ha",
        "s"
      ],
      [
        "he",
        "m"
      ],
      [
        "nd",
        "s"
      ],
      [
        "B",
        "u"
      ],
      [
        "T",
        "ha"
      ],
      [
        "d",
        "st"
      ],
      [
        "e",
        "ed"
      ],
      [
        "e",
        "ves"
      ],
      [
        "h",
        "ing"
      ],
      [
        "i",
        "me"
      ],
      [
        "i",
        "ant"
      ],
      [
        "l",
        "as"
      ],
      [
        "o",
        "hn"
      ],
      [
        "p",
        "on"
      ],
      [
        "r",
        "th"
      ],
      [
        "r",
        "row"
      ],
      [
        "t",
        "w"
      ],
      [
        "w",
        "ou"
      ],
      [
        "st",
        "inct"
      ],
      [
        "be",
        "t"
      ],
      [
        "ti",
        "m"
      ],
      [
        "Jo",
        "h"
      ],
      [
        "pl",
        "a"
      ],
      [
        "inst",
        "in"
      ],
      [
        "H",
        "a"
      ],
      [
        "H",
        "ar"
      ],
      [
        "e",
        "et"
      ],
      [
        "m",
        "ak"
      ],
      [
        "o",
        "o"
      ],
      [
        "r",
        "k"
      ],
      [
        "r",
        "se"
      ],
      [
        "r",
        "ince"
      ],
      [
        "t",
        "on"
      ],
      [
        "w",
        "ha"
      ],
      [
        "w",
        "her"
      ],
      [
        "ay",
        "s"
      ],
      [
        "de",
        "vi"
      ],
      [
        "for",
        "t"
      ],
      [
        "ver",
        "s"
      ],
      [
        "mu",
        "c"
      ],
      [
        "vill",
        "a"
      ],
      [
        "ny",
        "worth"
      ],
      [
        "reck",
        "on"
      ],
      [
        "E",
        "nt"
      ],
      [
        "Y",
        "e"
      ],
      [
        "e",
        "in"
      ],
      [
        "e",
        "lf"
      ],
      [
        "f",
        "ul"
      ],
      [
        "i",
        "ke"
      ],
      [
        "l",
        "or"
      ],
      [
        "n",
        "in"
      ],
      [
        "p",
        "h"
      ],
      [
        "r",
        "n"
      ],
      [
        "t",
        "and"
      ],
      [
        "x",
        "it"
      ],
      [
        "y",
        "s"
      ],
      [
        "re",
        "in"
      ],
      [
        "re",
        "so"
      ],
      [
        "re",
        "ady"
      ],
      [
        "up",
        "o"
      ],
      [
        "ho",
        "l"
      ],
      [
        "est",
        "y"
      ],
      [
        "sp",
        "i"
      ],
      [
        "if",
        "e"
      ],
      [
        "Ex",
        "i"
      ],
      [
        "We",
        "l"
      ],
      [
        "ere",
        "in"
      ],
      [
        "En",
        "te"
      ],
      [
        "Prin",
        "c"
      ],
      [
        "B",
        "a"
      ],
      [
        "P",
        "o"
      ],
      [
        "S",
        "h"
      ],
      [
        "S",
        "i"
      ],
      [
        "T",
        "hi"
      ],
      [
        "W",
        "he"
      ],
      [
        "c",
        "ha"
      ],
      [
        "e",
        "th"
      ],
      [
        "g",
        "ra"
      ],
      [
        "h",
        "ink"
      ],
      [
        "i",
        "ou"
      ],
      [
        "i",
        "thee"
      ],
      [
        "k",
        "s"
      ],
      [
        "l",
        "on"
      ],
      [
        "s",
        "l"
      ],
      [
        "t",
        "al"
      ],
      [
        "t",
        "ch"
      ],
      [
        "u",
        "m"
      ],
      [
        "u",
        "glas"
      ],
      [
        "ou",
        "glas"
      ],
      [
        "st",
        "y"
      ],
      [
        "st",
        "an"
      ],
      [
        "or",
        "th"
      ],
      [
        "or",
        "row"
      ],
      [
        "en",
        "c"
      ],
      [
        "de",
        "e"
      ],
      [
        "hi",
        "l"
      ],
      [
        "hou",
        "s"
      ],
      [
        "hou",
        "ld"
      ],
      [
        "aw",
        "a"
      ],
      [
        "fa",
        "i"
      ],
      [
        "mor",
        "r"
      ],
      [
        "mor",
        "ro"
      ],
      [
        "Dou",
        "g"
      ],
      [
        "shou",
        "l"
      ],
      [
        "aga",
        "i"
      ],
      [
        "Dougl",
        "a"
      ],
      [
        "B",
        "ard"
      ],
      [
        "C",
        "om"
      ],
      [
        "L",
        "a"
      ],
      [
        "L",
        "e"
      ],
      [
        "M",
        "o"
      ],
      [
        "N",
        "e"
      ],
      [
        "P",
        "oi"
      ],
      [
        "S",
        "her"
      ],
      [
        "W",
        "hi"
      ],
      [
        "Y",
        "o"
      ],
      [
        "a",
        "ther"
      ],
      [
        "a",
        "les"
      ],
      [
        "a",
        "jesty"
      ],
      [
        "d",
        "ar"
      ],
      [
        "e",
        "se"
      ],
      [
        "e",
        "art"
      ],
      [
        "e",
        "well"
      ],
      [
        "e",
        "vil"
      ],
      [
        "e",
        "unt"
      ],
      [
        "f",
        "ter"
      ],
      [
        "k",
        "il"
      ],
      [
        "o",
        "p"
      ],
      [
        "o",
        "lph"
      ],
      [
        "o",
        "cket"
      ],
      [
        "p",
        "it"
      ],
      [
        "r",
        "ry"
      ],
      [
        "r",
        "dolph"
      ],
      [
        "s",
        "her"
      ],
      [
        "y",
        "self"
      ],
      [
        "an",
        "ous"
      ],
      [
        "re",
        "a"
      ],
      [
        "re",
        "well"
      ],
      [
        "ha",
        "lt"
      ],
      [
        "he",
        "se"
      ],
      [
        "ar",
        "dolph"
      ],
      [
        "me",
        "s"
      ],
      [
        "our",
        "able"
      ],
      [
        "de",
        "at"
      ],
      [
        "ro",
        "ther"
      ],
      [
        "ut",
        "s"
      ],
      [
        "li",
        "f"
      ],
      [
        "ad",
        "vers"
      ],
      [
        "ho",
        "st"
      ],
      [
        "ck",
        "oning"
      ],
      [
        "fa",
        "th"
      ],
      [
        "fa",
        "the"
      ],
      [
        "ne",
        "v"
      ],
      [
        "ne",
        "ve"
      ],
      [
        "ru",
        "e"
      ],
      [
        "see",
        "ch"
      ],
      [
        "po",
        "c"
      ],
      [
        "oin",
        "s"
      ],
      [
        "where",
        "i"
      ],
      [
        "bro",
        "th"
      ],
      [
        "bro",
        "the"
      ],
      [
        "Ma",
        "jest"
      ],
      [
        "hor",
        "s"
      ],
      [
        "af",
        "t"
      ],
      [
        "Hot",
        "sp"
      ],
      [
        "penny",
        "wor"
      ],
      [
        "br",
        "ot"
      ],
      [
        "Lan",
        "c"
      ],
      [
        "Lan",
        "cast"
      ],
      [
        "adv",
        "ant"
      ],
      [
        "gent",
        "le"
      ],
      [
        "Bardo",
        "l"
      ],
      [
        "Bardo",
        "lp"
      ],
      [
        "Maj",
        "e"
      ],
      [
        "Maj",
        "es"
      ],
      [
        "pock",
        "e"
      ],
      [
        "W",
        "al"
      ],
      [
        "W",
        "her"
      ],
      [
        "a",
        "ir"
      ],
      [
        "a",
        "bl"
      ],
      [
        "b",
        "ac"
      ],
      [
        "c",
        "oul"
      ],
      [
        "d",
        "ot"
      ],
      [
        "e",
        "as"
      ],
      [
        "g",
        "lo"
      ],
      [
        "l",
        "ut"
      ],
      [
        "n",
        "ning"
      ],
      [
        "n",
        "ct"
      ],
      [
        "n",
        "stinct"
      ],
      [
        "o",
        "ble"
      ],
      [
        "r",
        "in"
      ],
      [
        "r",
        "ge"
      ],
      [
        "r",
        "ms"
      ],
      [
        "t",
        "inct"
      ],
      [
        "the",
        "s"
      ],
      [
        "re",
        "ak"
      ],
      [
        "er",
        "n"
      ],
      [
        "or",
        "se"
      ],
      [
        "and",
        "s"
      ],
      [
        "ar",
        "m"
      ],
      [
        "at",
        "t"
      ],
      [
        "as",
        "cal"
      ],
      [
        "al",
        "t"
      ],
      [
        "al",
        "iant"
      ],
      [
        "hi",
        "eves"
      ],
      [
        "we",
        "et"
      ],
      [
        "ri",
        "e"
      ],
      [
        "li",
        "ve"
      ],
      [
        "li",
        "ant"
      ],
      [
        "ed",
        "s"
      ],
      [
        "id",
        "st"
      ],
      [
        "ie",
        "ves"
      ],
      [
        "ti",
        "on"
      ],
      [
        "fo",
        "o"
      ],
      [
        "spe",
        "a"
      ],
      [
        "hon",
        "o"
      ],
      [
        "hon",
        "ou"
      ],
      [
        "pur",
        "s"
      ],
      [
        "swe",
        "e"
      ],
      [
        "af",
        "te"
      ],
      [
        "ras",
        "c"
      ],
      [
        "ras",
        "ca"
      ],
      [
        "thie",
        "v"
      ],
      [
        "thie",
        "ve"
      ],
      [
        "blo",
        "o"
      ],
      [
        "ple",
        "a"
      ],
      [
        "Wa",
        "le"
      ],
      [
        "dis",
        "so"
      ],
      [
        "inst",
        "i"
      ],
      [
        "vali",
        "a"
      ],
      [
        "vali",
        "an"
      ],
      [
        "pr",
        "it"
      ],
      [
        "gre",
        "a"
      ],
      [
        "nob",
        "l"
      ],
      [
        "pri",
        "th"
      ],
      [
        "pri",
        "the"
      ],
      [
        "instin",
        "c"
      ],
      [
        "advers",
        "ar"
      ],
      [
        "G",
        "r"
      ],
      [
        "L",
        "o"
      ],
      [
        "P",
        "et"
      ],
      [
        "S",
        "ha"
      ],
      [
        "S",
        "hal"
      ],
      [
        "T",
        "her"
      ],
      [
        "a",
        "h"
      ],
      [
        "b",
        "ou"
      ],
      [
        "b",
        "as"
      ],
      [
        "b",
        "ri"
      ],
      [
        "b",
        "oun"
      ],
      [
        "e",
        "g"
      ],
      [
        "e",
        "an"
      ],
      [
        "e",
        "to"
      ],
      [
        "e",
        "ld"
      ],
      [
        "e",
        "ir"
      ],
      [
        "e",
        "ace"
      ],
      [
        "e",
        "ady"
      ],
      [
        "e",
        "em"
      ],
      [
        "e",
        "igh"
      ],
      [
        "f",
        "in"
      ],
      [
        "g",
        "s"
      ],
      [
        "g",
        "ed"
      ],
      [
        "h",
        "one"
      ],
      [
        "i",
        "le"
      ],
      [
        "i",
        "ce"
      ],
      [
        "i",
        "ly"
      ],
      [
        "i",
        "ends"
      ],
      [
        "k",
        "et"
      ],
      [
        "l",
        "ready"
      ],
      [
        "m",
        "ot"
      ],
      [
        "n",
        "am"
      ],
      [
        "n",
        "ner"
      ],
      [
        "o",
        "on"
      ],
      [
        "o",
        "ve"
      ],
      [
        "o",
        "ot"
      ],
      [
        "o",
        "ck"
      ],
      [
        "o",
        "mp"
      ],
      [
        "o",
        "ss"
      ],
      [
        "o",
        "ok"
      ],
      [
        "o",
        "stess"
      ],
      [
        "p",
        "ou"
      ],
      [
        "p",
        "itif"
      ],
      [
        "r",
        "ay"
      ],
      [
        "r",
        "ld"
      ],
      [
        "r",
        "ning"
      ],
      [
        "r",
        "rah"
      ],
      [
        "t",
        "all"
      ],
      [
        "t",
        "ess"
      ],
      [
        "u",
        "th"
      ],
      [
        "u",
        "se"
      ],
      [
        "v",
        "antage"
      ],
      [
        "y",
        "ing"
      ],
      [
        "ou",
        "ght"
      ],
      [
        "an",
        "g"
      ],
      [
        "the",
        "i"
      ],
      [
        "re",
        "c"
      ],
      [
        "re",
        "tre"
      ],
      [
        "st",
        "i"
      ],
      [
        "st",
        "er"
      ],
      [
        "er",
        "y"
      ],
      [
        "er",
        "iff"
      ],
      [
        "or",
        "ld"
      ],
      [
        "he",
        "ir"
      ],
      [
        "ar",
        "ge"
      ],
      [
        "en",
        "g"
      ],
      [
        "ow",
        "s"
      ],
      [
        "ow",
        "ard"
      ],
      [
        "me",
        "e"
      ],
      [
        "le",
        "d"
      ],
      [
        "le",
        "as"
      ],
      [
        "ing",
        "s"
      ],
      [
        "as",
        "i"
      ],
      [
        "as",
        "id"
      ],
      [
        "al",
        "f"
      ],
      [
        "al",
        "o"
      ],
      [
        "al",
        "r"
      ],
      [
        "al",
        "on"
      ],
      [
        "be",
        "e"
      ],
      [
        "ac",
        "ious"
      ],
      [
        "ac",
        "cou"
      ],
      [
        "ro",
        "a"
      ],
      [
        "ro",
        "of"
      ],
      [
        "my",
        "s"
      ],
      [
        "my",
        "se"
      ],
      [
        "my",
        "sel"
      ],
      [
        "for",
        "w"
      ],
      [
        "ri",
        "ends"
      ],
      [
        "et",
        "ter"
      ],
      [
        "sha",
        "m"
      ],
      [
        "un",
        "k"
      ],
      [
        "un",
        "ning"
      ],
      [
        "un",
        "grac"
      ],
      [
        "ir",
        "it"
      ],
      [
        "ir",
        "rah"
      ],
      [
        "co",
        "lt"
      ],
      [
        "wor",
        "l"
      ],
      [
        "lo",
        "o"
      ],
      [
        "lo",
        "ck"
      ],
      [
        "mo",
        "s"
      ],
      [
        "ra",
        "ble"
      ],
      [
        "mu",
        "s"
      ],
      [
        "sta",
        "i"
      ],
      [
        "tru",
        "mp"
      ],
      [
        "red",
        "s"
      ],
      [
        "fe",
        "l"
      ],
      [
        "gu",
        "ment"
      ],
      [
        "gr",
        "ou"
      ],
      [
        "gr",
        "oun"
      ],
      [
        "hu",
        "mo"
      ],
      [
        "clo",
        "c"
      ],
      [
        "clo",
        "s"
      ],
      [
        "ta",
        "i"
      ],
      [
        "ta",
        "ge"
      ],
      [
        "ome",
        "s"
      ],
      [
        "sc",
        "al"
      ],
      [
        "pen",
        "n"
      ],
      [
        "la",
        "ug"
      ],
      [
        "mat",
        "t"
      ],
      [
        "mat",
        "te"
      ],
      [
        "te",
        "l"
      ],
      [
        "mer",
        "ri"
      ],
      [
        "cou",
        "nter"
      ],
      [
        "pra",
        "i"
      ],
      [
        "pra",
        "is"
      ],
      [
        "dou",
        "b"
      ],
      [
        "cow",
        "a"
      ],
      [
        "cow",
        "ar"
      ],
      [
        "fri",
        "e"
      ],
      [
        "fri",
        "en"
      ],
      [
        "fri",
        "end"
      ],
      [
        "fell",
        "o"
      ],
      [
        "alre",
        "a"
      ],
      [
        "alre",
        "ad"
      ],
      [
        "hum",
        "ou"
      ],
      [
        "mon",
        "st"
      ],
      [
        "mon",
        "str"
      ],
      [
        "ute",
        "ly"
      ],
      [
        "prom",
        "is"
      ],
      [
        "ng",
        "s"
      ],
      [
        "Cli",
        "f"
      ],
      [
        "encou",
        "n"
      ],
      [
        "fare",
        "w"
      ],
      [
        "fare",
        "we"
      ],
      [
        "fare",
        "wel"
      ],
      [
        "whi",
        "c"
      ],
      [
        "sin",
        "c"
      ],
      [
        "cont",
        "ag"
      ],
      [
        "West",
        "more"
      ],
      [
        "intemp",
        "er"
      ],
      [
        "eed",
        "s"
      ],
      [
        "Har",
        "r"
      ],
      [
        "A",
        "r"
      ],
      [
        "C",
        "a"
      ],
      [
        "D",
        "i"
      ],
      [
        "F",
        "ar"
      ],
      [
        "G",
        "i"
      ],
      [
        "G",
        "iv"
      ],
      [
        "H",
        "i"
      ],
      [
        "L",
        "or"
      ],
      [
        "S",
        "e"
      ],
      [
        "S",
        "co"
      ],
      [
        "T",
        "e"
      ],
      [
        "a",
        "ise"
      ],
      [
        "a",
        "ith"
      ],
      [
        "a",
        "ugh"
      ],
      [
        "b",
        "ot"
      ],
      [
        "b",
        "urn"
      ],
      [
        "c",
        "ot"
      ],
      [
        "c",
        "ro"
      ],
      [
        "c",
        "res"
      ],
      [
        "c",
        "ure"
      ],
      [
        "c",
        "ulars"
      ],
      [
        "d",
        "on"
      ],
      [
        "d",
        "ow"
      ],
      [
        "d",
        "ly"
      ],
      [
        "d",
        "ent"
      ],
      [
        "d",
        "lestick"
      ],
      [
        "e",
        "w"
      ],
      [
        "e",
        "al"
      ],
      [
        "e",
        "ch"
      ],
      [
        "e",
        "ly"
      ],
      [
        "e",
        "man"
      ],
      [
        "e",
        "ckoning"
      ],
      [
        "e",
        "seech"
      ],
      [
        "f",
        "u"
      ],
      [
        "f",
        "ig"
      ],
      [
        "f",
        "igh"
      ],
      [
        "g",
        "iv"
      ],
      [
        "h",
        "it"
      ],
      [
        "h",
        "un"
      ],
      [
        "h",
        "ine"
      ],
      [
        "i",
        "p"
      ],
      [
        "i",
        "ther"
      ],
      [
        "j",
        "e"
      ],
      [
        "j",
        "o"
      ],
      [
        "j",
        "u"
      ],
      [
        "j",
        "oi"
      ],
      [
        "k",
        "en"
      ],
      [
        "k",
        "oning"
      ],
      [
        "l",
        "k"
      ],
      [
        "l",
        "en"
      ],
      [
        "l",
        "ve"
      ],
      [
        "l",
        "one"
      ],
      [
        "m",
        "ut"
      ],
      [
        "m",
        "one"
      ],
      [
        "m",
        "ours"
      ],
      [
        "m",
        "oun"
      ],
      [
        "n",
        "st"
      ],
      [
        "n",
        "on"
      ],
      [
        "n",
        "ch"
      ],
      [
        "n",
        "es"
      ],
      [
        "n",
        "ous"
      ],
      [
        "n",
        "deed"
      ],
      [
        "n",
        "ig"
      ],
      [
        "n",
        "caster"
      ],
      [
        "n",
        "igh"
      ],
      [
        "n",
        "nyworth"
      ],
      [
        "o",
        "y"
      ],
      [
        "o",
        "the"
      ],
      [
        "o",
        "of"
      ],
      [
        "o",
        "thing"
      ],
      [
        "o",
        "ol"
      ],
      [
        "o",
        "om"
      ],
      [
        "o",
        "gue"
      ],
      [
        "o",
        "reson"
      ],
      [
        "o",
        "pe"
      ],
      [
        "p",
        "p"
      ],
      [
        "p",
        "ot"
      ],
      [
        "r",
        "ou"
      ],
      [
        "r",
        "ous"
      ],
      [
        "r",
        "cel"
      ],
      [
        "r",
        "ds"
      ],
      [
        "r",
        "tune"
      ],
      [
        "r",
        "oun"
      ],
      [
        "s",
        "k"
      ],
      [
        "s",
        "y"
      ],
      [
        "s",
        "and"
      ],
      [
        "s",
        "li"
      ],
      [
        "t",
        "u"
      ],
      [
        "t",
        "ra"
      ],
      [
        "t",
        "reat"
      ],
      [
        "t",
        "ure"
      ],
      [
        "t",
        "oning"
      ],
      [
        "t",
        "spur"
      ],
      [
        "t",
        "tle"
      ],
      [
        "t",
        "esy"
      ],
      [
        "u",
        "ble"
      ],
      [
        "w",
        "s"
      ],
      [
        "w",
        "an"
      ],
      [
        "w",
        "hor"
      ],
      [
        "w",
        "hile"
      ],
      [
        "x",
        "eunt"
      ],
      [
        "y",
        "es"
      ],
      [
        "y",
        "est"
      ],
      [
        "y",
        "thing"
      ],
      [
        "y",
        "worth"
      ],
      [
        "ou",
        "th"
      ],
      [
        "an",
        "c"
      ],
      [
        "an",
        "swe"
      ],
      [
        "an",
        "caster"
      ],
      [
        "ll",
        "s"
      ],
      [
        "ll",
        "ain"
      ],
      [
        "st",
        "ar"
      ],
      [
        "st",
        "ling"
      ],
      [
        "er",
        "able"
      ],
      [
        "or",
        "ning"
      ],
      [
        "or",
        "ious"
      ],
      [
        "or",
        "tune"
      ],
      [
        "ar",
        "g"
      ],
      [
        "ar",
        "th"
      ],
      [
        "ar",
        "row"
      ],
      [
        "ar",
        "cel"
      ],
      [
        "ar",
        "isons"
      ],
      [
        "of",
        "fe"
      ],
      [
        "en",
        "heads"
      ],
      [
        "en",
        "nyworth"
      ],
      [
        "le",
        "ep"
      ],
      [
        "le",
        "av"
      ],
      [
        "at",
        "ion"
      ],
      [
        "se",
        "th"
      ],
      [
        "ay",
        "est"
      ],
      [
        "our",
        "sel"
      ],
      [
        "ot",
        "spur"
      ]
    ]
  }
}