{
  "version": "1.0",
  "truncation": null,
  "padding": null,
  "added_tokens": [
    {
      "id": 0,
      "content": "[UNK]",
      "single_word": false,
      "lstrip": false,
      "rstrip": false,
      "normalized": false,
      "special": true
    }
  ],
  "normalizer": null,
  "pre_tokenizer": {
    "type": "Whitespace"
  },
  "post_processor": null,
  "decoder": null,
  "model": {
    "type": "BPE",
    "dropout": null,
    "unk_token": "[UNK]",
    "continuing_subword_prefix": null,
    "end_of_word_suffix": null,
    "fuse_unk": false,
    "byte_fallback": false,
    "ignore_merges": false,
    "vocab": {
      "[UNK]": 0,
      "!": 1,
      "'": 2,
      ",": 3,
      "-": 4,
      ".": 5,
      ":": 6,
      ";": 7,
      "?": 8,
      "A": 9,
      "B": 10,
      "C": 11,
      "D": 12,
      "E": 13,
      "F": 14,
      "G": 15,
      "H": 16,
      "I": 17,
      "J": 18,
      "L": 19,
      "M": 20,
      "N": 21,
      "O": 22,
      "P": 23,
      "R": 24,
      "S": 25,
      "T": 26,
      "U": 27,
      "W": 28,
      "Y": 29,
      "[": 30,
      "]": 31,
      "a": 32,
      "b": 33,
      "c": 34,
      "d": 35,
      "e": 36,
      "f": 37,
      "g": 38,
      "h": 39,
      "i": 40,
      "j": 41,
      "k": 42,
      "l": 43,
      "m": 44,
      "n": 45,
      "o": 46,
      "p": 47,
      "q": 48,
      "r": 49,
      "s": 50,
      "t": 51,
      "u": 52,
      "v": 53,
      "w": 54,
      "x": 55,
      "y": 56,
      "z": 57,
      "th": 58,
      "er": 59,
      "an": 60,
      "in": 61,
      "ou": 62,
      "at": 63,
      "the": 64,
      "he": 65,
      "me": 66,
      "or": 67,
      "st": 68,
      "and": 69,
      "ar": 70,
      "on": 71,
      "ir": 72,
      "ll": 73,
      "is": 74,
      "you": 75,
      "ha": 76,
      "se": 77,
      "to": 78,
      "it": 79,
      "that": 80,
      "her": 81,
      "re": 82,
      "no": 83,
      "for": 84,
      "ay": 85,
      "be": 86,
      "ld": 87,
      "ve": 88,
      "sir": 89,
      "of": 90,
      "es": 91,
      "en": 92,
      "as": 93,
      "ith": 94,
      "ut": 95,
      "ro": 96,
      "ast": 97,
      "my": 98,
      "ing": 99,
      "ch": 100,
      "ke": 101,
      "am": 102,
      "not": 103,
      "li": 104,
      "ur": 105,
      "ver": 106,
      "ould": 107,
      "hi": 108,
      "ri": 109,
      "gh": 110,
      "but": 111,
      "rom": 112,
      "ow": 113,
      "ill": 114,
      "ge": 115,
      "she": 116,
      "de": 117,
      "have": 118,
      "co": 119,
      "wh": 120,
      "man": 121,
      "one": 122,
      "ght": 123,
      "aster": 124,
      "le": 125,
      "al": 126,
      "la": 127,
      "nt": 128,
      "ry": 129,
      "ce": 130,
      "sp": 131,
      "here": 132,
      "go": 133,
      "ell": 134,
      "from": 135,
      "lo": 136,
      "No": 137,
      "ru": 138,
      "od": 139,
      "nd": 140,
      "il": 141,
      "sa": 142,
      "fe": 143,
      "do": 144,
      "su": 145,
      "ca": 146,
      "ck": 147,
      "id": 148,
      "hen": 149,
      "now": 150,
      "ther": 151,
      "With": 152,
      "with": 153,
      "ed": 154,
      "ma": 155,
      "Within": 156,
      "ne": 157,
      "your": 158,
      "ind": 159,
      "so": 160,
      "will": 161,
      "wor": 162,
      "ak": 163,
      "by": 164,
      "his": 165,
      "ime": 166,
      "ant": 167,
      "him": 168,
      "this": 169,
      "arry": 170,
      "hat": 171,
      "sh": 172,
      "us": 173,
      "ba": 174,
      "ter": 175,
      "pe": 176,
      "bo": 177,
      "lf": 178,
      "ain": 179,
      "The": 180,
      "bre": 181,
      "urn": 182,
      "would": 183,
      "fore": 184,
      "Marry": 185,
      "master": 186,
      "we": 187,
      "et": 188,
      "gi": 189,
      "mu": 190,
      "cla": 191,
      "say": 192,
      "ure": 193,
      "wen": 194,
      "hip": 195,
      "ong": 196,
      "know": 197,
      "them": 198,
      "they": 199,
      "sent": 200,
      "give": 201,
      "Master": 202,
      "im": 203,
      "ad": 204,
      "el": 205,
      "ere": 206,
      "io": 207,
      "fa": 208,
      "na": 209,
      "If": 210,
      "hou": 211,
      "ly": 212,
      "art": 213,
      "ran": 214,
      "end": 215,
      "con": 216,
      "cha": 217,
      "sha": 218,
      "vil": 219,
      "ard": 220,
      "ass": 221,
      "who": 222,
      "out": 223,
      "than": 224,
      "hath": 225,
      "hair": 226,
      "self": 227,
      "rest": 228,
      "like": 229,
      "must": 230,
      "long": 231,
      "light": 232,
      "claim": 233,
      "ta": 234,
      "wo": 235,
      "wit": 236,
      "ls": 237,
      "ner": 238,
      "thou": 239,
      "men": 240,
      "ess": 241,
      "dam": 242,
      "But": 243,
      "God": 244,
      "bar": 245,
      "day": 246,
      "ser": 247,
      "too": 248,
      "run": 249,
      "time": 250,
      "when": 251,
      "very": 252,
      "come": 253,
      "such": 254,
      "are": 255,
      "could": 256,
      "ra": 257,
      "where": 258,
      "thing": 259,
      "devil": 260,
      "should": 261,
      "wi": 262,
      "ot": 263,
      "then": 264,
      "ss": 265,
      "thin": 266,
      "all": 267,
      "ath": 268,
      "ore": 269,
      "ks": 270,
      "ome": 271,
      "ff": 272,
      "up": 273,
      "bl": 274,
      "ct": 275,
      "pr": 276,
      "ight": 277,
      "pt": 278,
      "any": 279,
      "ans": 280,
      "She": 281,
      "did": 282,
      "ist": 283,
      "mar": 284,
      "pla": 285,
      "rou": 286,
      "way": 287,
      "had": 288,
      "see": 289,
      "why": 290,
      "spo": 291,
      "ste": 292,
      "ound": 293,
      "Drom": 294,
      "Time": 295,
      "That": 296,
      "band": 297,
      "burn": 298,
      "gain": 299,
      "land": 300,
      "tell": 301,
      "turn": 302,
      "well": 303,
      "ount": 304,
      "head": 305,
      "stay": 306,
      "ason": 307,
      "what": 308,
      "call": 309,
      "make": 310,
      "bald": 311,
      "fair": 312,
      "name": 313,
      "beast": 314,
      "geant": 315,
      "there": 316,
      "break": 317,
      "chain": 318,
      "shall": 319,
      "comes": 320,
      "plain": 321,
      "Dromio": 322,
      "sergeant": 323,
      "wherefore": 324,
      "fo": 325,
      "And": 326,
      "bu": 327,
      "till": 328,
      "ave": 329,
      "ent": 330,
      "cl": 331,
      "est": 332,
      "hy": 333,
      "old": 334,
      "com": 335,
      "Do": 336,
      "ft": 337,
      "wer": 338,
      "!'": 339,
      "Am": 340,
      "Ay": 341,
      "By": 342,
      "It": 343,
      "che": 344,
      "if": 345,
      "pp": 346,
      "qu": 347,
      "ate": 348,
      "um": 349,
      "use": 350,
      "arm": 351,
      "ire": 352,
      "ows": 353,
      "Fa": 354,
      "des": 355,
      "eak": 356,
      "lay": 357,
      "pri": 358,
      "eri": 359,
      "Not": 360,
      "Nay": 361,
      "Sir": 362,
      "car": 363,
      "din": 364,
      "fri": 365,
      "ion": 366,
      "may": 367,
      "nat": 368,
      "por": 369,
      "pur": 370,
      "sin": 371,
      "tis": 372,
      "was": 373,
      "yet": 374,
      "ree": 375,
      "get": 376,
      "saw": 377,
      "age": 378,
      "atch": 379,
      "Adam": 380,
      "When": 381,
      "What": 382,
      "find": 383,
      "hind": 384,
      "more": 385,
      "ship": 386,
      "were": 387,
      "ange": 388,
      "aten": 389,
      "thee": 390,
      "ones": 391,
      "reco": 392,
      "ress": 393,
      "gold": 394,
      "lost": 395,
      "sake": 396,
      "suit": 397,
      "case": 398,
      "back": 399,
      "wench": 400,
      "hour": 401,
      "bark": 402,
      "wife": 403,
      "pray": 404,
      "ches": 405,
      "again": 406,
      "count": 407,
      "night": 408,
      "their": 409,
      "heart": 410,
      "rever": 411,
      "ither": 412,
      "never": 413,
      "worse": 414,
      "board": 415,
      "conce": 416,
      "spoon": 417,
      "speak": 418,
      "other": 419,
      "beaten": 420,
      "asting": 421,
      "myself": 422,
      "breath": 423,
      "rested": 424,
      "answer": 425,
      "wenches": 426,
      "istress": 427,
      "recover": 428,
      "good": 429,
      "shoulder": 430,
      "word": 431,
      "ho": 432,
      "Th": 433,
      "our": 434,
      "ake": 435,
      "un": 436,
      "di": 437,
      "pi": 438,
      "ys": 439,
      "gs": 440,
      "ol": 441,
      "ws": 442,
      "eat": 443,
      "ever": 444,
      "ue": 445,
      "sho": 446,
      "So": 447,
      "bi": 448,
      "cal": 449,
      "ms": 450,
      "fin": 451,
      "gr": 452,
      "own": 453,
      "In": 454,
      "Lu": 455,
      "To": 456,
      "ex": 457,
      "ok": 458,
      "pon": 459,
      "pit": 460,
      "war": 461,
      "bes": 462,
      "dro": 463,
      "ef": 464,
      "ring": 465,
      "tal": 466,
      "orse": 467,
      "alt": 468,
      "For": 469,
      "One": 470,
      "Tis": 471,
      "Why": 472,
      "dur": 473,
      "dry": 474,
      "fat": 475,
      "gre": 476,
      "hot": 477,
      "kit": 478,
      "mer": 479,
      "pin": 480,
      "put": 481,
      "two": 482,
      "ins": 483,
      "ise": 484,
      "cks": 485,
      "dge": 486,
      "rit": 487,
      "tir": 488,
      "ert": 489,
      "ides": 490,
      "ters": 491,
      "Cen": 492,
      "Here": 493,
      "This": 494,
      "ather": 495,
      "away": 496,
      "chen": 497,
      "fire": 498,
      "gave": 499,
      "gent": 500,
      "hard": 501,
      "jest": 502,
      "mand": 503,
      "mone": 504,
      "mind": 505,
      "pate": 506,
      "tran": 507,
      "want": 508,
      "wart": 509,
      "hell": 510,
      "meat": 511,
      "ment": 512,
      "llow": 513,
      "nose": 514,
      "bear": 515,
      "bell": 516,
      "kept": 517,
      "life": 518,
      "ries": 519,
      "owls": 520,
      "lean": 521,
      "left": 522,
      "spit": 523,
      "lose": 524,
      "lood": 525,
      "look": 526,
      "door": 527,
      "came": 528,
      "made": 529,
      "some": 530,
      "says": 531,
      "else": 532,
      "think": 533,
      "upon": 534,
      "foot": 535,
      "buff": 536,
      "desk": 537,
      "eric": 538,
      "Luce": 539,
      "drop": 540,
      "ought": 541,
      "soon": 542,
      "pect": 543,
      "There": 544,
      "found": 545,
      "horse": 546,
      "sfor": 547,
      "three": 548,
      "atter": 549,
      "being": 550,
      "chol": 551,
      "riage": 552,
      "owner": 553,
      "spake": 554,
      "world": 555,
      "house": 556,
      "whose": 557,
      "whole": 558,
      "taur": 559,
      "woman": 560,
      "witch": 561,
      "steel": 562,
      "fairy": 563,
      "Faith": 564,
      "purse": 565,
      "since": 566,
      "merry": 567,
      "money": 568,
      "aboard": 569,
      "arters": 570,
      "season": 571,
      "reason": 572,
      "before": 573,
      "longer": 574,
      "claims": 575,
      "thinks": 576,
      "dinner": 577,
      "friend": 578,
      "nature": 579,
      "porter": 580,
      "angels": 581,
      "gentle": 582,
      "another": 583,
      "nothing": 584,
      "himself": 585,
      "against": 586,
      "counter": 587,
      "besides": 588,
      "kitchen": 589,
      "Centaur": 590,
      "Mistress": 591,
      "marriage": 592,
      "breaking": 593,
      "quarters": 594,
      "transfor": 595,
      "choleric": 596,
      "We": 597,
      "dra": 598,
      "thi": 599,
      "take": 600,
      "wa": 601,
      "fi": 602,
      "po": 603,
      "whe": 604,
      "ers": 605,
      "em": 606,
      "Ad": 607,
      "mo": 608,
      "ts": 609,
      "Go": 610,
      "ear": 611,
      "tho": 612,
      "bal": 613,
      "tch": 614,
      "An": 615,
      "ase": 616,
      "ban": 617,
      "evil": 618,
      "low": 619,
      "ood": 620,
      "sk": 621,
      "ten": 622,
      "unt": 623,
      "mak": 624,
      "ab": 625,
      "app": 626,
      "dg": 627,
      "ek": 628,
      "mor": 629,
      "ted": 630,
      "hear": 631,
      "reak": 632,
      "mad": 633,
      "ap": 634,
      "fl": 635,
      "hus": 636,
      "lk": 637,
      "lt": 638,
      "lu": 639,
      "over": 640,
      "sou": 641,
      "ught": 642,
      "uff": 643,
      "wn": 644,
      "heir": 645,
      "its": 646,
      "red": 647,
      "bel": 648,
      "ves": 649,
      "alk": 650,
      "doo": 651,
      "qua": 652,
      ".'": 653,
      "AN": 654,
      "As": 655,
      "Be": 656,
      "CI": 657,
      "Ex": 658,
      "Ju": 659,
      "LU": 660,
      "OU": 661,
      "Re": 662,
      "Sp": 663,
      "You": 664,
      "ah": 665,
      "ape": 666,
      "bt": 667,
      "ble": 668,
      "can": 669,
      "cre": 670,
      "cli": 671,
      "ep": 672,
      "fu": 673,
      "kes": 674,
      "obe": 675,
      "oil": 676,
      "par": 677,
      "ris": 678,
      "tro": 679,
      "tri": 680,
      "vy": 681,
      "win": 682,
      "whi": 683,
      "iner": 684,
      "ous": 685,
      "ish": 686,
      "ity": 687,
      "ren": 688,
      "row": 689,
      "pea": 690,
      "boy": 691,
      "tage": 692,
      "exp": 693,
      "Ep": 694,
      "Fly": 695,
      "Let": 696,
      "Nor": 697,
      "Now": 698,
      "Our": 699,
      "Par": 700,
      "Pro": 701,
      "Run": 702,
      "Sat": 703,
      "Swe": 704,
      "Was": 705,
      "Yes": 706,
      "YOU": 707,
      "az": 708,
      "bay": 709,
      "bla": 710,
      "bod": 711,
      "bid": 712,
      "cay": 713,
      "cro": 714,
      "cur": 715,
      "clo": 716,
      "den": 717,
      "dru": 718,
      "due": 719,
      "fly": 720,
      "fra": 721,
      "gu": 722,
      "ges": 723,
      "gri": 724,
      "gal": 725,
      "gla": 726,
      "glo": 727,
      "hir": 728,
      "hire": 729,
      "ied": 730,
      "jo": 731,
      "kru": 732,
      "kna": 733,
      "lam": 734,
      "lows": 735,
      "nor": 736,
      "nar": 737,
      "nay": 738,
      "nut": 739,
      "ning": 740,
      "ness": 741,
      "num": 742,
      "pay": 743,
      "pas": 744,
      "pal": 745,
      "ped": 746,
      "pass": 747,
      "rhe": 748,
      "rhy": 749,
      "sc": 750,
      "sit": 751,
      "swe": 752,
      "ton": 753,
      "tru": 754,
      "tak": 755,
      "vit": 756,
      "vio": 757,
      "won": 758,
      "yes": 759,
      "thy": 760,
      "ana": 761,
      "med": 762,
      "ory": 763,
      "str": 764,
      "hast": 765,
      "bed": 766,
      "bet": 767,
      "vey": 768,
      "esh": 769,
      "ence": 770,
      "ask": 771,
      "lim": 772,
      "dem": 773,
      "cox": 774,
      "got": 775,
      "dog": 776,
      "sue": 777,
      "sure": 778,
      "new": 779,
      "sob": 780,
      "ants": 781,
      "onger": 782,
      "ads": 783,
      "iot": 784,
      "wig": 785,
      "ffs": 786,
      "mark": 787,
      "bun": 788,
      "clu": 789,
      "angel": 790,
      "div": 791,
      "shoe": 792,
      "big": 793,
      "ANA": 794,
      "eps": 795,
      "Come": 796,
      "Dow": 797,
      "Del": 798,
      "Fran": 799,
      "Hath": 800,
      "Home": 801,
      "Hold": 802,
      "Lest": 803,
      "Mome": 804,
      "Nell": 805,
      "Po": 806,
      "Sure": 807,
      "Some": 808,
      "Tart": 809,
      "Upon": 810,
      "Will": 811,
      "Well": 812,
      "Your": 813,
      "aqua": 814,
      "bit": 815,
      "bass": 816,
      "brou": 817,
      "bert": 818,
      "cher": 819,
      "cree": 820,
      "down": 821,
      "eys": 822,
      "fast": 823,
      "fell": 824,
      "fish": 825,
      "gar": 826,
      "gro": 827,
      "gone": 828,
      "gate": 829,
      "hand": 830,
      "harm": 831,
      "jure": 832,
      "kill": 833,
      "kind": 834,
      "malt": 835,
      "none": 836,
      "peri": 837,
      "rant": 838,
      "sam": 839,
      "swor": 840,
      "sist": 841,
      "sconce": 842,
      "salt": 843,
      "trou": 844,
      "wind": 845,
      "wise": 846,
      "writ": 847,
      "walk": 848,
      "thus": 849,
      "ergo": 850,
      "ance": 851,
      "ats": 852,
      "ature": 853,
      "hed": 854,
      "meas": 855,
      "mend": 856,
      "meet": 857,
      "stri": 858,
      "send": 859,
      "sets": 860,
      "told": 861,
      "town": 862,
      "iten": 863,
      "heri": 864,
      "best": 865,
      "been": 866,
      "vet": 867,
      "vein": 868,
      "rope": 869,
      "ings": 870,
      "chin": 871,
      "amaz": 872,
      "rich": 873,
      "butto": 874,
      "owes": 875,
      "deli": 876,
      "debt": 877,
      "cold": 878,
      "cock": 879,
      "many": 880,
      "lest": 881,
      "aler": 882,
      "laid": 883,
      "goes": 884,
      "Noah": 885,
      "rule": 886,
      "rush": 887,
      "ruly": 888,
      "rubi": 889,
      "save": 890,
      "said": 891,
      "sapp": 892,
      "fear": 893,
      "feet": 894,
      "fect": 895,
      "felt": 896,
      "does": 897,
      "suck": 898,
      "idam": 899,
      "hence": 900,
      "mace": 901,
      "nest": 902,
      "near": 903,
      "neck": 904,
      "ball": 905,
      "pear": 906,
      "both": 907,
      "boys": 908,
      "bogs": 909,
      "lfil": 910,
      "They": 911,
      "ween": 912,
      "week": 913,
      "much": 914,
      "went": 915,
      "face": 916,
      "nail": 917,
      "ends": 918,
      "wolf": 919,
      "damn": 920,
      "serv": 921,
      "runs": 922,
      "rags": 923,
      "blue": 924,
      "pris": 925,
      "rous": 926,
      "ways": 927,
      "seek": 928,
      "clin": 929,
      "cles": 930,
      "comb": 931,
      "Dost": 932,
      "lays": 933,
      "cara": 934,
      "host": 935,
      "hope": 936,
      "Thus": 937,
      "pike": 938,
      "pict": 939,
      "calf": 940,
      "fine": 941,
      "pity": 942,
      "rings": 943,
      "talk": 944,
      "spite": 945,
      "waf": 946,
      "poor": 947,
      "Adri": 948,
      "mole": 949,
      "skin": 950,
      "unts": 951,
      "lky": 952,
      "luck": 953,
      "Beca": 954,
      "Judg": 955,
      "LUCI": 956,
      "bled": 957,
      "obey": 958,
      "trim": 959,
      "body": 960,
      "glad": 961,
      "joll": 962,
      "lamp": 963,
      "palm": 964,
      "true": 965,
      "vitx": 966,
      "viol": 967,
      "Break": 968,
      "Blows": 969,
      "Right": 970,
      "Swart": 971,
      "Where": 972,
      "bound": 973,
      "blood": 974,
      "catch": 975,
      "clean": 976,
      "every": 977,
      "fowls": 978,
      "flood": 979,
      "mount": 980,
      "match": 981,
      "patch": 982,
      "sound": 983,
      "tarry": 984,
      "these": 985,
      "theft": 986,
      "heard": 987,
      "means": 988,
      "still": 989,
      "stone": 990,
      "store": 991,
      "stood": 992,
      "stuff": 993,
      "arma": 994,
      "ished": 995,
      "haste": 996,
      "habit": 997,
      "ition": 998,
      "redem": 999,
      "forth": 1000,
      "beads": 1001,
      "enter": 1002,
      "ensue": 1003,
      "keeps": 1004,
      "lives": 1005,
      "rides": 1006,
      "ridge": 1007,
      "decay": 1008,
      "leave": 1009,
      "aling": 1010,
      "sprit": 1011,
      "going": 1012,
      "gobl": 1013,
      "loits": 1014,
      "iless": 1015,
      "sabel": 1016,
      "sages": 1017,
      "fetch": 1018,
      "capon": 1019,
      "idiot": 1020,
      "worth": 1021,
      "anted": 1022,
      "hatch": 1023,
      "knows": 1024,
      "given": 1025,
      "gives": 1026,
      "adise": 1027,
      "faith": 1028,
      "hound": 1029,
      "chase": 1030,
      "shake": 1031,
      "shape": 1032,
      "assur": 1033,
      "thank": 1034,
      "bless": 1035,
      "blows": 1036,
      "ption": 1037,
      "marks": 1038,
      "rough": 1039,
      "seems": 1040,
      "spoil": 1041,
      "lands": 1042,
      "turns": 1043,
      "stays": 1044,
      "pper": 1045,
      "pride": 1046,
      "privy": 1047,
      "suits": 1048,
      "goods": 1049,
      "shoes": 1050,
      "msday": 1051,
      "grain": 1052,
      "grass": 1053,
      "durst": 1054,
      "great": 1055,
      "pinch": 1056,
      "tired": 1057,
      "mands": 1058,
      "minds": 1059,
      "wants": 1060,
      "bears": 1061,
      "draws": 1062,
      "thief": 1063,
      "fiend": 1064,
      "wheel": 1065,
      "those": 1066,
      "about": 1067,
      "flesh": 1068,
      "souls": 1069,
      "Exped": 1070,
      "Spain": 1071,
      "troth": 1072,
      "which": 1073,
      "Prodi": 1074,
      "Satan": 1075,
      "Sweet": 1076,
      "black": 1077,
      "cross": 1078,
      "clock": 1079,
      "guess": 1080,
      "grime": 1081,
      "globe": 1082,
      "hires": 1083,
      "krupt": 1084,
      "knave": 1085,
      "rheum": 1086,
      "rhyme": 1087,
      "takes": 1088,
      "wond": 1089,
      "limbo": 1090,
      "clude": 1091,
      "Delay": 1092,
      "berty": 1093,
      "grows": 1094,
      "swore": 1095,
      "Cert": 1096,
      "Either": 1097,
      "Sconce": 1098,
      "bought": 1099,
      "batter": 1100,
      "brings": 1101,
      "matter": 1102,
      "nought": 1103,
      "arell": 1104,
      "haunts": 1105,
      "behind": 1106,
      "aspect": 1107,
      "button": 1108,
      "dealer": 1109,
      "declin": 1110,
      "covet": 1111,
      "whiten": 1112,
      "althou": 1113,
      "always": 1114,
      "spheri": 1115,
      "spends": 1116,
      "breast": 1117,
      "convey": 1118,
      "chalky": 1119,
      "tallow": 1120,
      "barren": 1121,
      "whence": 1122,
      "rather": 1123,
      "devils": 1124,
      "alleys": 1125,
      "called": 1126,
      "namely": 1127,
      "beasts": 1128,
      "breaks": 1129,
      "follow": 1130,
      "Father": 1131,
      "priory": 1132,
      "carbun": 1133,
      "fright": 1134,
      "nation": 1135,
      "sinner": 1136,
      "unruly": 1137,
      "everl": 1138,
      "expect": 1139,
      "effect": 1140,
      "grease": 1141,
      "tiring": 1142,
      "athers": 1143,
      "spites": 1144,
      "loseth": 1145,
      "sooner": 1146,
      "embell": 1147,
      "balsam": 1148,
      "making": 1149,
      "morris": 1150,
      "appear": 1151,
      "cliffs": 1152,
      "fulfil": 1153,
      "winter": 1154,
      "Epidam": 1155,
      "curtal": 1156,
      "denied": 1157,
      "drudge": 1158,
      "narrow": 1159,
      "sweats": 1160,
      "surely": 1161,
      "France": 1162,
      "Poland": 1163,
      "Tartar": 1164,
      "cherry": 1165,
      "creeks": 1166,
      "fellow": 1167,
      "sister": 1168,
      "rubies": 1169,
      "prison": 1170,
      "Basting": 1171,
      "basting": 1172,
      "mean": 1173,
      "forsake": 1174,
      "bespeak": 1175,
      "liberty": 1176,
      "leather": 1177,
      "Nothing": 1178,
      "without": 1179,
      "neither": 1180,
      "masters": 1181,
      "clapper": 1182,
      "conjure": 1183,
      "bargain": 1184,
      "running": 1185,
      "beastly": 1186,
      "thereof": 1187,
      "plainer": 1188,
      "command": 1189,
      "compass": 1190,
      "carries": 1191,
      "Thither": 1192,
      "warrant": 1193,
      "durance": 1194,
      "earnest": 1195,
      "husband": 1196,
      "ughtage": 1197,
      "parings": 1198,
      "peacock": 1199,
      "scanted": 1200,
      "between": 1201,
      "coxcomb": 1202,
      "diviner": 1203,
      "brought": 1204,
      "garment": 1205,
      "periwig": 1206,
      "written": 1207,
      "measure": 1208,
      "strikes": 1209,
      "bestows": 1210,
      "deliver": 1211,
      "ballast": 1212,
      "caracks": 1213,
      "picture": 1214,
      "waftage": 1215,
      "Adriana": 1216,
      "Because": 1217,
      "LUCIANA": 1218,
      "jollity": 1219,
      "decayed": 1220,
      "sprites": 1221,
      "goblins": 1222,
      "Certain": 1223,
      "mistress": 1224,
      "methinks": 1225,
      "arrested": 1226,
      "feathers": 1227,
      "yourself": 1228,
      "forehead": 1229,
      "conclude": 1230,
      "stealing": 1231,
      "porridge": 1232,
      "purchase": 1233,
      "reverent": 1234,
      "reverted": 1235,
      "pitiless": 1236,
      "insconce": 1237,
      "transform": 1238,
      "bankrupt": 1239,
      "apparell": 1240,
      "doomsday": 1241,
      "creature": 1242,
      "exploits": 1243,
      "Paradise": 1244,
      "passages": 1245,
      "stronger": 1246,
      "Dowsabel": 1247,
      "troubled": 1248,
      "buttocks": 1249,
      "servants": 1250,
      "Judgment": 1251,
      "mountain": 1252,
      "armadoes": 1253,
      "blessing": 1254,
      "Prodigal": 1255,
      "wondrous": 1256,
      "covetous": 1257,
      "although": 1258,
      "balsamum": 1259,
      "hav": 1260,
      "therefore": 1261,
      "shipboard": 1262,
      "countries": 1263,
      "reverence": 1264,
      "shoulders": 1265,
      "something": 1266,
      "gentlemen": 1267,
      "sapphires": 1268,
      "battering": 1269,
      "declining": 1270,
      "whiteness": 1271,
      "spherical": 1272,
      "followers": 1273,
      "Epidamnum": 1274,
      "fraughtage": 1275,
      "redemption": 1276,
      "Expedition": 1277,
      "barrenness": 1278,
      "carbuncles": 1279,
      "transformed": 1280,
      "everlasting": 1281,
      "embellished": 1282,
      "countermands": 1283,
      "lder": 1284,
      "elder": 1285,
      "having": 1286,
      "tha": 1287,
      "yo": 1288,
      "draw": 1289,
      "deed": 1290,
      "indeed": 1291,
      "cut": 1292,
      "cuts": 1293,
      "ni": 1294,
      "si": 1295,
      "seni": 1296,
      "senior": 1297,
      "ng": 1298,
      "om": 1299,
      "hin": 1300,
      "te": 1301,
      "oul": 1302,
      "fr": 1303,
      "uld": 1304,
      "Mar": 1305,
      "mast": 1306,
      "Ma": 1307,
      "ga": 1308,
      "ster": 1309,
      "Mast": 1310,
      "ht": 1311,
      "ti": 1312,
      "ey": 1313,
      "fro": 1314,
      "lead": 1315,
      "Wi": 1316,
      "rry": 1317,
      "serge": 1318,
      "Wit": 1319,
      "br": 1320,
      "cou": 1321,
      "ithin": 1322,
      "Withi": 1323,
      "air": 1324,
      "nce": 1325,
      "wil": 1326,
      "sen": 1327,
      "res": 1328,
      "bea": 1329,
      "dev": 1330,
      "Wh": 1331,
      "ee": 1332,
      "rd": 1333,
      "hea": 1334,
      "Mist": 1335,
      "kn": 1336,
      "lon": 1337,
      "mas": 1338,
      "ns": 1339,
      "pa": 1340,
      "rt": 1341,
      "wou": 1342,
      "woul": 1343,
      "hey": 1344,
      "spe": 1345,
      "brea": 1346,
      "Marr": 1347,
      "maste": 1348,
      "Mas": 1349,
      "abo": 1350,
      "da": 1351,
      "dr": 1352,
      "efore": 1353,
      "han": 1354,
      "ip": 1355,
      "ike": 1356,
      "kno": 1357,
      "oo": 1358,
      "ose": 1359,
      "rn": 1360,
      "rs": 1361,
      "rse": 1362,
      "tr": 1363,
      "hem": 1364,
      "lea": 1365,
      "giv": 1366,
      "Maste": 1367,
      "Ti": 1368,
      "ag": 1369,
      "ame": 1370,
      "aim": 1371,
      "aga": 1372,
      "ds": 1373,
      "elf": 1374,
      "fir": 1375,
      "ive": 1376,
      "mus": 1377,
      "ny": 1378,
      "ust": 1379,
      "uch": 1380,
      "ano": 1381,
      "hai": 1382,
      "sel": 1383,
      "ays": 1384,
      "lig": 1385,
      "lik": 1386,
      "ligh": 1387,
      "cover": 1388,
      "laim": 1389,
      "suc": 1390,
      "clai": 1391,
      "wenc": 1392,
      "marri": 1393,
      "trans": 1394,
      "Bu": 1395,
      "aw": 1396,
      "bou": 1397,
      "coul": 1398,
      "ev": 1399,
      "east": 1400,
      "hing": 1401,
      "hould": 1402,
      "ife": 1403,
      "mat": 1404,
      "nes": 1405,
      "ost": 1406,
      "oon": 1407,
      "ole": 1408,
      "pu": 1409,
      "son": 1410,
      "tim": 1411,
      "und": 1412,
      "wher": 1413,
      "ery": 1414,
      "refore": 1415,
      "herefore": 1416,
      "los": 1417,
      "shou": 1418,
      "shoul": 1419,
      "erefore": 1420,
      "fai": 1421,
      "devi": 1422,
      "Dr": 1423,
      "Dro": 1424,
      "Sh": 1425,
      "Tha": 1426,
      "Thi": 1427,
      "Tim": 1428,
      "Whe": 1429,
      "ald": 1430,
      "aur": 1431,
      "ack": 1432,
      "bur": 1433,
      "ea": 1434,
      "eir": 1435,
      "eant": 1436,
      "ead": 1437,
      "eason": 1438,
      "fou": 1439,
      "hor": 1440,
      "ki": 1441,
      "lasting": 1442,
      "leric": 1443,
      "mio": 1444,
      "mist": 1445,
      "nch": 1446,
      "nam": 1447,
      "pl": 1448,
      "pat": 1449,
      "rk": 1450,
      "rm": 1451,
      "rgeant": 1452,
      "tu": 1453,
      "tur": 1454,
      "til": 1455,
      "ture": 1456,
      "tel": 1457,
      "wha": 1458,
      "ye": 1459,
      "ergeant": 1460,
      "ermands": 1461,
      "mea": 1462,
      "mes": 1463,
      "sta": 1464,
      "ark": 1465,
      "hain": 1466,
      "hall": 1467,
      "seas": 1468,
      "reas": 1469,
      "beas": 1470,
      "romio": 1471,
      "gels": 1472,
      "lemen": 1473,
      "loo": 1474,
      "nds": 1475,
      "peak": 1476,
      "wel": 1477,
      "els": 1478,
      "conc": 1479,
      "chai": 1480,
      "shal": 1481,
      "serg": 1482,
      "wheref": 1483,
      "wherefor": 1484,
      "wherefo": 1485,
      "omes": 1486,
      "plai": 1487,
      "Dromi": 1488,
      "quar": 1489,
      "quart": 1490,
      "besi": 1491,
      "Centa": 1492,
      "omio": 1493,
      "sergea": 1494,
      "sergean": 1495,
      "Bast": 1496,
      "Ce": 1497,
      "Cer": 1498,
      "Na": 1499,
      "Ri": 1500,
      "Si": 1501,
      "Wha": 1502,
      "aith": 1503,
      "bat": 1504,
      "bast": 1505,
      "cr": 1506,
      "cas": 1507,
      "du": 1508,
      "ean": 1509,
      "eve": 1510,
      "eet": 1511,
      "eel": 1512,
      "eart": 1513,
      "eath": 1514,
      "ect": 1515,
      "eft": 1516,
      "eaten": 1517,
      "ecover": 1518,
      "ger": 1519,
      "gra": 1520,
      "har": 1521,
      "ies": 1522,
      "iend": 1523,
      "king": 1524,
      "lan": 1525,
      "mi": 1526,
      "nk": 1527,
      "nou": 1528,
      "nner": 1529,
      "nches": 1530,
      "oth": 1531,
      "oor": 1532,
      "oes": 1533,
      "oard": 1534,
      "othing": 1535,
      "pra": 1536,
      "ray": 1537,
      "shi": 1538,
      "swer": 1539,
      "ty": 1540,
      "tar": 1541,
      "tay": 1542,
      "ting": 1543,
      "tion": 1544,
      "tress": 1545,
      "ugh": 1546,
      "vants": 1547,
      "yself": 1548,
      "erry": 1549,
      "ang": 1550,
      "inner": 1551,
      "thei": 1552,
      "hee": 1553,
      "hes": 1554,
      "ord": 1555,
      "sto": 1556,
      "sting": 1557,
      "sted": 1558,
      "stress": 1559,
      "once": 1560,
      "tocks": 1561,
      "ites": 1562,
      "rea": 1563,
      "rec": 1564,
      "rev": 1565,
      "reve": 1566,
      "reath": 1567,
      "beat": 1568,
      "beate": 1569,
      "ench": 1570,
      "enches": 1571,
      "rop": 1572,
      "mys": 1573,
      "myse": 1574,
      "mysel": 1575,
      "ric": 1576,
      "lain": 1577,
      "nts": 1578,
      "nter": 1579,
      "gol": 1580,
      "sak": 1581,
      "fea": 1582,
      "sui": 1583,
      "nev": 1584,
      "neve": 1585,
      "wors": 1586,
      "aking": 1587,
      "bac": 1588,
      "breat": 1589,
      "wenche": 1590,
      "conj": 1591,
      "reste": 1592,
      "shoulde": 1593,
      "wif": 1594,
      "answ": 1595,
      "answe": 1596,
      "spoo": 1597,
      "ested": 1598,
      "porri": 1599,
      "shipbo": 1600,
      "recov": 1601,
      "recove": 1602,
      "reveren": 1603,
      "hose": 1604,
      "sform": 1605,
      "sformed": 1606,
      "poon": 1607,
      "Ada": 1608,
      "dooms": 1609,
      "creat": 1610,
      "renness": 1611,
      "explo": 1612,
      "Parad": 1613,
      "fraught": 1614,
      "passa": 1615,
      "buncles": 1616,
      "Dowsa": 1617,
      "redempt": 1618,
      "Expedit": 1619,
      "everlast": 1620,
      "nig": 1621,
      "nigh": 1622,
      "nger": 1623,
      "coun": 1624,
      "nswer": 1625,
      "spea": 1626,
      "agai": 1627,
      "Cent": 1628,
      "De": 1629,
      "Ei": 1630,
      "Fo": 1631,
      "He": 1632,
      "Ho": 1633,
      "Her": 1634,
      "Le": 1635,
      "Mi": 1636,
      "Mis": 1637,
      "On": 1638,
      "Pol": 1639,
      "Sw": 1640,
      "Ther": 1641,
      "Yo": 1642,
      "ai": 1643,
      "ade": 1644,
      "ace": 1645,
      "aid": 1646,
      "acks": 1647,
      "awa": 1648,
      "bas": 1649,
      "blo": 1650,
      "cu": 1651,
      "cat": 1652,
      "cam": 1653,
      "cle": 1654,
      "der": 1655,
      "drous": 1656,
      "eld": 1657,
      "een": 1658,
      "eing": 1659,
      "ept": 1660,
      "eek": 1661,
      "fow": 1662,
      "ftage": 1663,
      "gl": 1664,
      "gen": 1665,
      "hree": 1666,
      "ic": 1667,
      "ig": 1668,
      "ich": 1669,
      "iage": 1670,
      "ives": 1671,
      "igal": 1672,
      "je": 1673,
      "jes": 1674,
      "kin": 1675,
      "lse": 1676,
      "les": 1677,
      "less": 1678,
      "min": 1679,
      "mou": 1680,
      "mon": 1681,
      "mself": 1682,
      "nu": 1683,
      "nst": 1684,
      "nks": 1685,
      "ngs": 1686,
      "ngels": 1687,
      "ob": 1688,
      "op": 1689,
      "oman": 1690,
      "ock": 1691,
      "ope": 1692,
      "oot": 1693,
      "ook": 1694,
      "per": 1695,
      "pake": 1696,
      "ploits": 1697,
      "rh": 1698,
      "rth": 1699,
      "rld": 1700,
      "rter": 1701,
      "rters": 1702,
      "rriage": 1703,
      "sw": 1704,
      "sur": 1705,
      "sides": 1706,
      "tw": 1707,
      "tes": 1708,
      "tter": 1709,
      "tain": 1710,
      "tra": 1711,
      "tchen": 1712,
      "uit": 1713,
      "uce": 1714,
      "uck": 1715,
      "uarters": 1716,
      "ulder": 1717,
      "vi": 1718,
      "ving": 1719,
      "viner": 1720,
      "wan": 1721,
      "wls": 1722,
      "wner": 1723,
      "xcomb": 1724,
      "thr": 1725,
      "thre": 1726,
      "anot": 1727,
      "ine": 1728,
      "ink": 1729,
      "inst": 1730,
      "ining": 1731,
      "ince": 1732,
      "inks": 1733,
      "ouse": 1734,
      "ough": 1735,
      "hel": 1736,
      "orth": 1737,
      "orld": 1738,
      "orter": 1739,
      "stu": 1740,
      "ands": 1741,
      "arriage": 1742,
      "iry": 1743,
      "llo": 1744,
      "llity": 1745,
      "has": 1746,
      "sea": 1747,
      "ite": 1748,
      "itch": 1749,
      "itchen": 1750,
      "nos": 1751,
      "noth": 1752,
      "nother": 1753,
      "nothin": 1754,
      "nothi": 1755,
      "form": 1756,
      "formed": 1757,
      "bef": 1758,
      "bei": 1759,
      "bein": 1760,
      "befor": 1761,
      "befo": 1762,
      "esk": 1763,
      "esides": 1764,
      "entaur": 1765,
      "aspe": 1766,
      "asure": 1767,
      "cho": 1768,
      "chole": 1769,
      "kep": 1770,
      "amum": 1771,
      "lib": 1772,
      "lif": 1773,
      "liver": 1774,
      "urse": 1775,
      "oulder": 1776,
      "rie": 1777,
      "ride": 1778,
      "riend": 1779,
      "riana": 1780,
      "butt": 1781,
      "owne": 1782,
      "gel": 1783,
      "dea": 1784,
      "dec": 1785,
      "cove": 1786,
      "oney": 1787,
      "led": 1788,
      "lef": 1789,
      "ntaur": 1790,
      "spa": 1791,
      "spi": 1792,
      "spak": 1793,
      "gob": 1794,
      "goo": 1795,
      "rul": 1796,
      "fel": 1797,
      "fet": 1798,
      "cause": 1799,
      "madoes": 1800,
      "nei": 1801,
      "ney": 1802,
      "som": 1803,
      "soo": 1804,
      "worl": 1805,
      "hims": 1806,
      "himse": 1807,
      "himsel": 1808,
      "ainst": 1809,
      "wee": 1810,
      "clap": 1811,
      "ims": 1812,
      "imself": 1813,
      "ely": 1814,
      "hous": 1815,
      "rance": 1816,
      "conclu": 1817,
      "whol": 1818,
      "whos": 1819,
      "wom": 1820,
      "woma": 1821,
      "witc": 1822,
      "though": 1823,
      "barga": 1824,
      "runn": 1825,
      "upo": 1826,
      "blins": 1827,
      "cture": 1828,
      "marr": 1829,
      "stea": 1830,
      "stee": 1831,
      "steal": 1832,
      "gainst": 1833,
      "breaki": 1834,
      "breakin": 1835,
      "foo": 1836,
      "buf": 1837,
      "Fai": 1838,
      "Fait": 1839,
      "eaking": 1840,
      "dinn": 1841,
      "dinne": 1842,
      "frie": 1843,
      "frien": 1844,
      "natu": 1845,
      "natur": 1846,
      "port": 1847,
      "porte": 1848,
      "purs": 1849,
      "purcha": 1850,
      "sinc": 1851,
      "agains": 1852,
      "counte": 1853,
      "revere": 1854,
      "hole": 1855,
      "holeric": 1856,
      "digal": 1857,
      "oleric": 1858,
      "bies": 1859,
      "Luc": 1860,
      "expe": 1861,
      "piti": 1862,
      "pitil": 1863,
      "besid": 1864,
      "effe": 1865,
      "duran": 1866,
      "grea": 1867,
      "kitc": 1868,
      "kitch": 1869,
      "kitche": 1870,
      "merr": 1871,
      "gentl": 1872,
      "llowers": 1873,
      "bellished": 1874,
      "choler": 1875,
      "choleri": 1876,
      "bank": 1877,
      "bankru": 1878,
      "appar": 1879,
      "dgment": 1880,
      "reaking": 1881,
      "CIANA": 1882,
      "fulf": 1883,
      "peaco": 1884,
      "Epid": 1885,
      "cayed": 1886,
      "deni": 1887,
      "frau": 1888,
      "pedition": 1889,
      "scant": 1890,
      "stron": 1891,
      "demption": 1892,
      "samum": 1893,
      "iteness": 1894,
      "herical": 1895,
      "vetous": 1896,
      "idamnum": 1897,
      "clining": 1898,
      "wafta": 1899,
      "armado": 1900,
      "embellis": 1901,
      "hink": 1902,
      "hinks": 1903,
      "teel": 1904,
      "gav": 1905,
      "airy": 1906,
      "Mistr": 1907,
      "Mistre": 1908,
      "Mistres": 1909,
      "longe": 1910,
      "aboa": 1911,
      "aboar": 1912,
      "aims": 1913,
      "first": 1914,
      "anoth": 1915,
      "anothe": 1916,
      "laims": 1917,
      "marria": 1918,
      "marriag": 1919,
      "transf": 1920,
      "transfo": 1921,
      "houlder": 1922,
      "foun": 1923,
      "hors": 1924,
      "seaso": 1925,
      "reaso": 1926,
      "quarter": 1927,
      "quarte": 1928,
      "beside": 1929,
      "Centau": 1930,
      "Certa": 1931,
      "Ba": 1932,
      "Bl": 1933,
      "Br": 1934,
      "Bre": 1935,
      "Bas": 1936,
      "Blo": 1937,
      "Blow": 1938,
      "Brea": 1939,
      "Co": 1940,
      "Com": 1941,
      "Dows": 1942,
      "Eit": 1943,
      "Eith": 1944,
      "Epi": 1945,
      "Fl": 1946,
      "Fr": 1947,
      "Fat": 1948,
      "Fra": 1949,
      "Fath": 1950,
      "Ha": 1951,
      "Hat": 1952,
      "Hol": 1953,
      "Hom": 1954,
      "IANA": 1955,
      "Les": 1956,
      "Mo": 1957,
      "Many": 1958,
      "Mom": 1959,
      "NA": 1960,
      "Ne": 1961,
      "Nel": 1962,
      "Ou": 1963,
      "Pa": 1964,
      "Pr": 1965,
      "Ru": 1966,
      "Sa": 1967,
      "Sc": 1968,
      "Su": 1969,
      "Sur": 1970,
      "Sco": 1971,
      "Scon": 1972,
      "Swar": 1973,
      "Swa": 1974,
      "Sconc": 1975,
      "Ta": 1976,
      "Tar": 1977,
      "Up": 1978,
      "Upo": 1979,
      "UCIANA": 1980,
      "Wa": 1981,
      "Wher": 1982,
      "Wil": 1983,
      "Wel": 1984,
      "YO": 1985,
      "Ye": 1986,
      "aq": 1987,
      "ail": 1988,
      "aqu": 1989,
      "ause": 1990,
      "ags": 1991,
      "aws": 1992,
      "apon": 1993,
      "abel": 1994,
      "ages": 1995,
      "acock": 1996,
      "adoes": 1997,
      "aunts": 1998,
      "aughtage": 1999,
      "aftage": 2000,
      "aving": 2001,
      "bro": 2002,
      "bri": 2003,
      "bout": 2004,
      "bring": 2005,
      "bloo": 2006,
      "canted": 2007,
      "clea": 2008,
      "dy": 2009,
      "dow": 2010,
      "dise": 2011,
      "ders": 2012,
      "diot": 2013,
      "dition": 2014,
      "driana": 2015,
      "ew": 2016,
      "eth": 2017,
      "ein": 2018,
      "ese": 2019,
      "eof": 2020,
      "eck": 2021,
      "eed": 2022,
      "eard": 2023,
      "emen": 2024,
      "ething": 2025,
      "eks": 2026,
      "eff": 2027,
      "eans": 2028,
      "ehead": 2029,
      "eave": 2030,
      "eum": 2031,
      "ehind": 2032,
      "either": 2033,
      "ems": 2034,
      "eather": 2035,
      "ethinks": 2036,
      "ease": 2037,
      "ebt": 2038,
      "eads": 2039,
      "eeps": 2040,
      "ealer": 2041,
      "ealing": 2042,
      "eathers": 2043,
      "easure": 2044,
      "eliver": 2045,
      "ecause": 2046,
      "ecayed": 2047,
      "edemption": 2048,
      "eclining": 2049,
      "fs": 2050,
      "fis": 2051,
      "fas": 2052,
      "fle": 2053,
      "flo": 2054,
      "fil": 2055,
      "ffect": 2056,
      "floo": 2057,
      "gat": 2058,
      "gon": 2059,
      "garm": 2060,
      "gue": 2061,
      "gment": 2062,
      "grow": 2063,
      "hu": 2064,
      "hither": 2065,
      "htage": 2066,
      "hiteness": 2067,
      "iver": 2068,
      "ide": 2069,
      "ical": 2070,
      "ief": 2071,
      "ikes": 2072,
      "ivy": 2073,
      "iana": 2074,
      "iory": 2075,
      "iwig": 2076,
      "iffs": 2077,
      "iberty": 2078,
      "iviner": 2079,
      "icture": 2080,
      "jol": 2081,
      "ky": 2082,
      "kil": 2083,
      "lm": 2084,
      "ler": 2085,
      "last": 2086,
      "ling": 2087,
      "lue": 2088,
      "lins": 2089,
      "lity": 2090,
      "lesh": 2091,
      "lways": 2092,
      "lished": 2093,
      "lining": 2094,
      "lthough": 2095,
      "mb": 2096,
      "mn": 2097,
      "mp": 2098,
      "mis": 2099,
      "mal": 2100,
      "mbo": 2101,
      "mol": 2102,
      "mmand": 2103,
      "mnum": 2104,
      "mpass": 2105,
      "mption": 2106,
      "mbellished": 2107,
      "non": 2108,
      "nied": 2109,
      "nning": 2110,
      "nness": 2111,
      "nvey": 2112,
      "nsue": 2113,
      "njure": 2114,
      "nsconce": 2115,
      "nruly": 2116,
      "ncles": 2117,
      "nkrupt": 2118,
      "nclude": 2119,
      "ndeed": 2120,
      "nsform": 2121,
      "nsformed": 2122,
      "ngel": 2123,
      "oe": 2124,
      "og": 2125,
      "oi": 2126,
      "ov": 2127,
      "oy": 2128,
      "othe": 2129,
      "ove": 2130,
      "oing": 2131,
      "olf": 2132,
      "oss": 2133,
      "oland": 2134,
      "oys": 2135,
      "ogs": 2136,
      "ocks": 2137,
      "oits": 2138,
      "oah": 2139,
      "omsday": 2140,
      "oxcomb": 2141,
      "ollity": 2142,
      "oblins": 2143,
      "ollowers": 2144,
      "ovetous": 2145,
      "ps": 2146,
      "pain": 2147,
      "pboard": 2148,
      "ppear": 2149,
      "pends": 2150,
      "phires": 2151,
      "pherical": 2152,
      "pidamnum": 2153,
      "rin": 2154,
      "rat": 2155,
      "rst": 2156,
      "rgo": 2157,
      "rain": 2158,
      "rass": 2159,
      "rself": 2160,
      "rks": 2161,
      "rgain": 2162,
      "rsake": 2163,
      "rrested": 2164,
      "rtal": 2165,
      "rment": 2166,
      "rries": 2167,
      "rted": 2168,
      "rris": 2169,
      "rrow": 2170,
      "rmed": 2171,
      "ronger": 2172,
      "rrant": 2173,
      "rnest": 2174,
      "rridge": 2175,
      "radise": 2176,
      "rchase": 2177,
      "rmands": 2178,
      "rns": 2179,
      "rlasting": 2180,
      "rvants": 2181,
      "rrenness": 2182,
      "rbuncles": 2183,
      "rmadoes": 2184,
      "sis": 2185,
      "sing": 2186,
      "sco": 2187,
      "sal": 2188,
      "sca": 2189,
      "scon": 2190,
      "swo": 2191,
      "sday": 2192,
      "sband": 2193,
      "scan": 2194,
      "ssages": 2195,
      "sconc": 2196,
      "tx": 2197,
      "tan": 2198,
      "tone": 2199,
      "tle": 2200,
      "tly": 2201,
      "tore": 2202,
      "tire": 2203,
      "tries": 2204,
      "tten": 2205,
      "tuff": 2206,
      "tous": 2207,
      "tton": 2208,
      "tween": 2209,
      "tiless": 2210,
      "tays": 2211,
      "tlemen": 2212,
      "ttocks": 2213,
      "ua": 2214,
      "ude": 2215,
      "ule": 2216,
      "ush": 2217,
      "uly": 2218,
      "uls": 2219,
      "uess": 2220,
      "udge": 2221,
      "uits": 2222,
      "ulfil": 2223,
      "ubled": 2224,
      "ubies": 2225,
      "udgment": 2226,
      "wr": 2227,
      "wis": 2228,
      "wes": 2229,
      "wri": 2230,
      "wal": 2231,
      "wsabel": 2232,
      "xpect": 2233,
      "xploits": 2234,
      "xpedition": 2235,
      "yme": 2236,
      "yed": 2237,
      "thu": 2238,
      "thout": 2239,
      "erg": 2240,
      "ering": 2241,
      "erent": 2242,
      "erence": 2243,
      "erlasting": 2244,
      "ervants": 2245,
      "ank": 2246,
      "ankrupt": 2247,
      "inch": 2248,
      "inter": 2249,
      "ouls": 2250,
      "oubled": 2251,
      "atan": 2252,
      "ation": 2253,
      "thef": 2254,
      "thes": 2255,
      "hei": 2256,
      "hese": 2257,
      "heel": 2258,
      "heft": 2259,
      "heum": 2260,
      "mee": 2261,
      "met": 2262,
      "meth": 2263,
      "mely": 2264,
      "mething": 2265,
      "methin": 2266,
      "methink": 2267,
      "methi": 2268,
      "orm": 2269,
      "orsake": 2270,
      "orris": 2271,
      "ormed": 2272,
      "orridge": 2273,
      "sti": 2274,
      "sts": 2275,
      "stor": 2276,
      "ston": 2277,
      "stro": 2278,
      "stil": 2279,
      "stly": 2280,
      "stows": 2281,
      "sters": 2282,
      "stoo": 2283,
      "arr": 2284,
      "ars": 2285,
      "arre": 2286,
      "arrest": 2287,
      "arks": 2288,
      "argain": 2289,
      "arment": 2290,
      "arries": 2291,
      "armad": 2292,
      "arrow": 2293,
      "arrant": 2294,
      "arings": 2295,
      "arnest": 2296,
      "aradise": 2297,
      "arres": 2298,
      "arreste": 2299,
      "arrenness": 2300,
      "arbuncles": 2301,
      "aracks": 2302,
      "oner": 2303,
      "onvey": 2304,
      "onjure": 2305,
      "onclude": 2306,
      "ondrous": 2307,
      "ires": 2308,
      "iring": 2309,
      "ired": 2310,
      "llast": 2311,
      "lled": 2312,
      "lleys": 2313,
      "llished": 2314,
      "ison": 2315,
      "hab": 2316,
      "hau": 2317,
      "hase": 2318,
      "hake": 2319,
      "hape": 2320,
      "haun": 2321,
      "habi": 2322,
      "haunt": 2323,
      "halky": 2324,
      "set": 2325,
      "seth": 2326,
      "tol": 2327,
      "tow": 2328,
      "tood": 2329,
      "tows": 2330,
      "itx": 2331,
      "itten": 2332,
      "itiless": 2333,
      "hers": 2334,
      "herry": 2335,
      "reat": 2336,
      "rell": 2337,
      "reof": 2338,
      "reast": 2339,
      "rede": 2340,
      "rent": 2341,
      "rely": 2342,
      "rehead": 2343,
      "rease": 2344,
      "reature": 2345,
      "fors": 2346,
      "fort": 2347,
      "forsa": 2348,
      "forsak": 2349,
      "ayed": 2350,
      "bee": 2351,
      "beh": 2352,
      "bey": 2353,
      "behi": 2354,
      "besp": 2355,
      "bead": 2356,
      "behin": 2357,
      "bespe": 2358,
      "bespea": 2359,
      "lders": 2360,
      "vei": 2361,
      "ven": 2362,
      "espeak": 2363,
      "ens": 2364,
      "ensu": 2365,
      "eness": 2366,
      "enied": 2367,
      "enness": 2368,
      "asp": 2369,
      "assu": 2370,
      "assages": 2371,
      "ithout": 2372,
      "utton": 2373,
      "uttocks": 2374,
      "roth": 2375,
      "ross": 2376,
      "rows": 2377,
      "rodigal": 2378,
      "aste": 2379,
      "asts": 2380,
      "astly": 2381,
      "chi": 2382,
      "kee": 2383,
      "keep": 2384,
      "ama": 2385,
      "amn": 2386,
      "amp": 2387,
      "amnum": 2388,
      "liv": 2389,
      "libe": 2390,
      "live": 2391,
      "liffs": 2392,
      "libert": 2393,
      "urst": 2394,
      "urself": 2395,
      "urtal": 2396,
      "urance": 2397,
      "urchase": 2398,
      "verent": 2399,
      "verted": 2400,
      "verence": 2401,
      "verlasting": 2402,
      "oulders": 2403,
      "hich": 2404,
      "hief": 2405,
      "rid": 2406,
      "rim": 2407,
      "rime": 2408,
      "right": 2409,
      "rical": 2410,
      "rikes": 2411,
      "rivy": 2412,
      "riory": 2413,
      "riwig": 2414,
      "owe": 2415,
      "owl": 2416,
      "owers": 2417,
      "owsabel": 2418,
      "shed": 2419,
      "deb": 2420,
      "del": 2421,
      "deal": 2422,
      "deca": 2423,
      "decl": 2424,
      "decli": 2425,
      "col": 2426,
      "cov": 2427,
      "whit": 2428,
      "white": 2429,
      "ghtage": 2430,
      "asters": 2431,
      "leat": 2432,
      "leath": 2433,
      "leys": 2434,
      "alf": 2435,
      "alm": 2436,
      "alw": 2437,
      "alth": 2438,
      "alway": 2439,
      "alwa": 2440,
      "altho": 2441,
      "alsamum": 2442,
      "lad": 2443,
      "lai": 2444,
      "lack": 2445,
      "lainer": 2446,
      "lapper": 2447,
      "ntle": 2448,
      "nted": 2449,
      "ntain": 2450,
      "ntries": 2451,
      "ntermands": 2452,
      "ntlemen": 2453,
      "sph": 2454,
      "spr": 2455,
      "sphe": 2456,
      "spher": 2457,
      "spen": 2458,
      "spri": 2459,
      "spend": 2460,
      "hereof": 2461,
      "goe": 2462,
      "goi": 2463,
      "goin": 2464,
      "ellow": 2465,
      "ellished": 2466,
      "lobe": 2467,
      "lock": 2468,
      "Noa": 2469,
      "Noth": 2470,
      "Nothin": 2471,
      "Nothi": 2472,
      "rub": 2473,
      "rue": 2474,
      "rus": 2475,
      "rupt": 2476,
      "rudge": 2477,
      "ods": 2478,
      "ody": 2479,
      "odigal": 2480,
      "ndrous": 2481,
      "ils": 2482,
      "sai": 2483,
      "sap": 2484,
      "sav": 2485,
      "fee": 2486,
      "feat": 2487,
      "feath": 2488,
      "feather": 2489,
      "cap": 2490,
      "capo": 2491,
      "idi": 2492,
      "idge": 2493,
      "idio": 2494,
      "henc": 2495,
      "nows": 2496,
      "thers": 2497,
      "witho": 2498,
      "withou": 2499,
      "edition": 2500,
      "mac": 2501,
      "maz": 2502,
      "nea": 2503,
      "nec": 2504,
      "neit": 2505,
      "neith": 2506,
      "yours": 2507,
      "yourse": 2508,
      "yoursel": 2509,
      "inds": 2510,
      "soone": 2511,
      "wore": 2512,
      "wort": 2513,
      "aks": 2514,
      "akes": 2515,
      "hatc": 2516,
      "usband": 2517,
      "tering": 2518,
      "termands": 2519,
      "bog": 2520,
      "bot": 2521,
      "ainer": 2522,
      "breas": 2523,
      "urns": 2524,
      "foreh": 2525,
      "forehe": 2526,
      "forehea": 2527,
      "weet": 2528,
      "weats": 2529,
      "ets": 2530,
      "etch": 2531,
      "etous": 2532,
      "etween": 2533,
      "muc": 2534,
      "mum": 2535,
      "clapp": 2536,
      "urely": 2537,
      "hipboard": 2538,
      "imbo": 2539,
      "elt": 2540,
      "elay": 2541,
      "ereof": 2542,
      "iol": 2543,
      "fac": 2544,
      "fait": 2545,
      "nai": 2546,
      "nave": 2547,
      "houn": 2548,
      "hout": 2549,
      "hough": 2550,
      "artar": 2551,
      "ransform": 2552,
      "ransformed": 2553,
      "conv": 2554,
      "conve": 2555,
      "concl": 2556,
      "chal": 2557,
      "chalk": 2558,
      "shak": 2559,
      "shap": 2560,
      "vils": 2561,
      "tall": 2562,
      "tallo": 2563,
      "wol": 2564,
      "lsamum": 2565,
      "essing": 2566,
      "damnum": 2567,
      "barg": 2568,
      "barr": 2569,
      "barre": 2570,
      "runni": 2571,
      "whenc": 2572,
      "rag": 2573,
      "rath": 2574,
      "rathe": 2575,
      "raws": 2576,
      "racks": 2577,
      "raughtage": 2578,
      "ssing": 2579,
      "ssur": 2580,
      "alle": 2581,
      "allast": 2582,
      "allow": 2583,
      "alled": 2584,
      "alley": 2585,
      "orehead": 2586,
      "omething": 2587,
      "upt": 2588,
      "blu": 2589,
      "bles": 2590,
      "blow": 2591,
      "prites": 2592,
      "ansform": 2593,
      "ansformed": 2594,
      "ister": 2595,
      "roug": 2596,
      "rought": 2597,
      "roubled": 2598,
      "seem": 2599,
      "spoi": 2600,
      "ounter": 2601,
      "ountain": 2602,
      "ountries": 2603,
      "ountermands": 2604,
      "calle": 2605,
      "namel": 2606,
      "beastl": 2607,
      "theref": 2608,
      "thereo": 2609,
      "therefor": 2610,
      "therefo": 2611,
      "plaine": 2612,
      "fol": 2613,
      "foll": 2614,
      "follo": 2615,
      "ente": 2616,
      "entle": 2617,
      "entlemen": 2618,
      "estows": 2619,
      "hyme": 2620,
      "comm": 2621,
      "comp": 2622,
      "comman": 2623,
      "comma": 2624,
      "compas": 2625,
      "compa": 2626,
      "Dos": 2627,
      "wers": 2628,
      "pphires": 2629,
      "pparell": 2630,
      "Fathe": 2631,
      "eaks": 2632,
      "prid": 2633,
      "prio": 2634,
      "priv": 2635,
      "prior": 2636,
      "erical": 2637,
      "eriwig": 2638,
      "carb": 2639,
      "carr": 2640,
      "carri": 2641,
      "carbu": 2642,
      "carrie": 2643,
      "frig": 2644,
      "frigh": 2645,
      "nati": 2646,
      "natio": 2647,
      "porr": 2648,
      "purc": 2649,
      "purch": 2650,
      "sinn": 2651,
      "sinne": 2652,
      "reeks": 2653,
      "shipb": 2654,
      "countr": 2655,
      "countri": 2656,
      "countrie": 2657,
      "revert": 2658,
      "reverte": 2659,
      "hoe": 2660,
      "hop": 2661,
      "hos": 2662,
      "hoes": 2663,
      "Thu": 2664,
      "Thit": 2665,
      "Thith": 2666,
      "ourself": 2667,
      "unr": 2668,
      "uns": 2669,
      "unru": 2670,
      "unning": 2671,
      "uncles": 2672,
      "unrul": 2673,
      "pic": 2674,
      "pik": 2675,
      "eats": 2676,
      "eature": 2677,
      "everla": 2678,
      "everent": 2679,
      "everted": 2680,
      "everence": 2681,
      "Som": 2682,
      "gras": 2683,
      "pite": 2684,
      "pites": 2685,
      "warr": 2686,
      "warran": 2687,
      "warra": 2688,
      "dura": 2689,
      "durs": 2690,
      "greas": 2691,
      "pinc": 2692,
      "insc": 2693,
      "insco": 2694,
      "inscon": 2695,
      "insconc": 2696,
      "rites": 2697,
      "ritten": 2698,
      "tiri": 2699,
      "tirin": 2700,
      "erty": 2701,
      "erted": 2702,
      "ertain": 2703,
      "loset": 2704,
      "somet": 2705,
      "someth": 2706,
      "somethin": 2707,
      "somethi": 2708,
      "attering": 2709,
      "gentlem": 2710,
      "gentleme": 2711,
      "counterm": 2712,
      "counterman": 2713,
      "counterma": 2714,
      "countermand": 2715,
      "transforme": 2716,
      "thie": 2717,
      "waft": 2718,
      "fie": 2719,
      "fien": 2720,
      "poo": 2721,
      "poil": 2722,
      "whee": 2723,
      "emb": 2724,
      "embe": 2725,
      "embel": 2726,
      "emption": 2727,
      "Adr": 2728,
      "earn": 2729,
      "ears": 2730,
      "earne": 2731,
      "earnes": 2732,
      "thos": 2733,
      "bals": 2734,
      "balsa": 2735,
      "evils": 2736,
      "lowers": 2737,
      "oods": 2738,
      "ski": 2739,
      "teness": 2740,
      "unter": 2741,
      "untain": 2742,
      "untries": 2743,
      "untermands": 2744,
      "maki": 2745,
      "makin": 2746,
      "abou": 2747,
      "abit": 2748,
      "appa": 2749,
      "apper": 2750,
      "appare": 2751,
      "apphires": 2752,
      "morr": 2753,
      "morri": 2754,
      "reaks": 2755,
      "appe": 2756,
      "appea": 2757,
      "fles": 2758,
      "husb": 2759,
      "husba": 2760,
      "husban": 2761,
      "luc": 2762,
      "lude": 2763,
      "soul": 2764,
      "soun": 2765,
      "alky": 2766,
      "doom": 2767,
      "Bec": 2768,
      "Exp": 2769,
      "Expe": 2770,
      "Jud": 2771,
      "LUC": 2772,
      "Spa": 2773,
      "Spai": 2774,
      "crea": 2775,
      "clif": 2776,
      "cliff": 2777,
      "ful": 2778,
      "pari": 2779,
      "parin": 2780,
      "paring": 2781,
      "parell": 2782,
      "rison": 2783,
      "trot": 2784,
      "trikes": 2785,
      "wint": 2786,
      "winte": 2787,
      "whic": 2788,
      "rence": 2789,
      "peac": 2790,
      "expl": 2791,
      "Para": 2792,
      "Prod": 2793,
      "Sata": 2794,
      "Swee": 2795,
      "blac": 2796,
      "cros": 2797,
      "curt": 2798,
      "curta": 2799,
      "cloc": 2800,
      "drud": 2801,
      "drudg": 2802,
      "fraugh": 2803,
      "gues": 2804,
      "grim": 2805,
      "glob": 2806,
      "knav": 2807,
      "narr": 2808,
      "narro": 2809,
      "rheu": 2810,
      "rhym": 2811,
      "swea": 2812,
      "sweat": 2813,
      "wondro": 2814,
      "strong": 2815,
      "betw": 2816,
      "betwe": 2817,
      "betwee": 2818,
      "limb": 2819,
      "coxc": 2820,
      "coxco": 2821,
      "coxcom": 2822,
      "surel": 2823,
      "divi": 2824,
      "divin": 2825,
      "divine": 2826,
      "Franc": 2827,
      "Pola": 2828,
      "Tarta": 2829,
      "broug": 2830,
      "brough": 2831,
      "cherr": 2832,
      "creek": 2833,
      "fello": 2834,
      "garme": 2835,
      "garmen": 2836,
      "periw": 2837,
      "periwi": 2838,
      "siste": 2839,
      "troub": 2840,
      "troubl": 2841,
      "trouble": 2842,
      "writt": 2843,
      "writte": 2844,
      "measu": 2845,
      "measur": 2846,
      "strik": 2847,
      "strike": 2848,
      "besto": 2849,
      "bestow": 2850,
      "buttoc": 2851,
      "buttock": 2852,
      "deliv": 2853,
      "delive": 2854,
      "rubie": 2855,
      "sapph": 2856,
      "sapphi": 2857,
      "sapphir": 2858,
      "sapphire": 2859,
      "balla": 2860,
      "ballas": 2861,
      "serva": 2862,
      "servan": 2863,
      "servant": 2864,
      "priso": 2865,
      "carac": 2866,
      "carack": 2867,
      "pictu": 2868,
      "pictur": 2869,
      "Adria": 2870,
      "Adrian": 2871,
      "Becau": 2872,
      "Becaus": 2873,
      "Judgm": 2874,
      "Judgme": 2875,
      "Judgmen": 2876,
      "LUCIA": 2877,
      "LUCIAN": 2878,
      "jolli": 2879,
      "jollit": 2880,
      "mounta": 2881,
      "mountai": 2882,
      "redemp": 2883,
      "decaye": 2884,
      "sprite": 2885,
      "goblin": 2886,
      "blessi": 2887,
      "blessin": 2888,
      "Expedi": 2889,
      "Prodig": 2890,
      "Prodiga": 2891,
      "wondr": 2892,
      "wondrou": 2893,
      "batteri": 2894,
      "batterin": 2895,
      "declini": 2896,
      "declinin": 2897,
      "covetou": 2898,
      "whitene": 2899,
      "whitenes": 2900,
      "althoug": 2901,
      "spheric": 2902,
      "spherica": 2903,
      "barrenn": 2904,
      "barrenne": 2905,
      "barrennes": 2906,
      "followe": 2907,
      "follower": 2908,
      "carbunc": 2909,
      "carbuncl": 2910,
      "carbuncle": 2911,
      "everlas": 2912,
      "embelli": 2913,
      "embellish": 2914,
      "balsamu": 2915,
      "Epidamn": 2916,
      "Epidamnu": 2917,
      "omb": 2918,
      "ommand": 2919,
      "ompass": 2920,
      "tealing": 2921,
      "ulders": 2922,
      "brin": 2923,
      "senio": 2924,
      "eeks": 2925,
      "eems": 2926,
      "rty": 2927,
      "rtar": 2928,
      "rtain": 2929,
      "spect": 2930,
      "hank": 2931,
      "ipboard": 2932,
      "oomsday": 2933,
      "oseth": 2934,
      "tronger": 2935,
      "leav": 2936,
      "leathe": 2937,
      "amely": 2938,
      "firs": 2939,
      "iven": 2940,
      "boug": 2941,
      "boun": 2942,
      "bough": 2943,
      "evi": 2944,
      "easts": 2945,
      "eastly": 2946,
      "houlders": 2947,
      "matc": 2948,
      "matt": 2949,
      "matte": 2950,
      "ooner": 2951,
      "Thithe": 2952,
      "eacock": 2953,
      "mistr": 2954,
      "mistre": 2955,
      "mistres": 2956,
      "patc": 2957,
      "Basti": 2958,
      "Bastin": 2959,
      "Rig": 2960,
      "Righ": 2961,
      "batt": 2962,
      "batte": 2963,
      "basti": 2964,
      "bastin": 2965,
      "grai": 2966,
      "noug": 2967,
      "nough": 2968,
      "tarr": 2969,
      "feathe": 2970,
      "conju": 2971,
      "conjur": 2972,
      "porrid": 2973,
      "porridg": 2974,
      "shipboa": 2975,
      "shipboar": 2976,
      "reverenc": 2977,
      "doomsd": 2978,
      "doomsda": 2979,
      "creatu": 2980,
      "creatur": 2981,
      "exploi": 2982,
      "exploit": 2983,
      "Paradi": 2984,
      "Paradis": 2985,
      "fraughta": 2986,
      "fraughtag": 2987,
      "passag": 2988,
      "passage": 2989,
      "Dowsab": 2990,
      "Dowsabe": 2991,
      "redempti": 2992,
      "redemptio": 2993,
      "Expediti": 2994,
      "Expeditio": 2995,
      "everlasti": 2996,
      "everlastin": 2997,
      "Dela": 2998,
      "Eithe": 2999
    },
    "merges": [
      [
        "t",
        "h"
      ],
      [
        "e",
        "r"
      ],
      [
        "a",
        "n"
      ],
      [
        "i",
        "n"
      ],
      [
        "o",
        "u"
      ],
      [
        "a",
        "t"
      ],
      [
        "th",
        "e"
      ],
      [
        "h",
        "e"
      ],
      [
        "m",
        "e"
      ],
      [
        "o",
        "r"
      ],
      [
        "s",
        "t"
      ],
      [
        "an",
        "d"
      ],
      [
        "a",
        "r"
      ],
      [
        "o",
        "n"
      ],
      [
        "i",
        "r"
      ],
      [
        "l",
        "l"
      ],
      [
        "i",
        "s"
      ],
      [
        "y",
        "ou"
      ],
      [
        "h",
        "a"
      ],
      [
        "s",
        "e"
      ],
      [
        "t",
        "o"
      ],
      [
        "i",
        "t"
      ],
      [
        "th",
        "at"
      ],
      [
        "h",
        "er"
      ],
      [
        "r",
        "e"
      ],
      [
        "n",
        "o"
      ],
      [
        "f",
        "or"
      ],
      [
        "a",
        "y"
      ],
      [
        "b",
        "e"
      ],
      [
        "l",
        "d"
      ],
      [
        "v",
        "e"
      ],
      [
        "s",
        "ir"
      ],
      [
        "o",
        "f"
      ],
      [
        "e",
        "s"
      ],
      [
        "e",
        "n"
      ],
      [
        "a",
        "s"
      ],
      [
        "i",
        "th"
      ],
      [
        "u",
        "t"
      ],
      [
        "r",
        "o"
      ],
      [
        "a",
        "st"
      ],
      [
        "m",
        "y"
      ],
      [
        "in",
        "g"
      ],
      [
        "c",
        "h"
      ],
      [
        "k",
        "e"
      ],
      [
        "a",
        "m"
      ],
      [
        "no",
        "t"
      ],
      [
        "l",
        "i"
      ],
      [
        "u",
        "r"
      ],
      [
        "v",
        "er"
      ],
      [
        "ou",
        "ld"
      ],
      [
        "h",
        "i"
      ],
      [
        "r",
        "i"
      ],
      [
        "g",
        "h"
      ],
      [
        "b",
        "ut"
      ],
      [
        "ro",
        "m"
      ],
      [
        "o",
        "w"
      ],
      [
        "i",
        "ll"
      ],
      [
        "g",
        "e"
      ],
      [
        "s",
        "he"
      ],
      [
        "d",
        "e"
      ],
      [
        "ha",
        "ve"
      ],
      [
        "c",
        "o"
      ],
      [
        "w",
        "h"
      ],
      [
        "m",
        "an"
      ],
      [
        "on",
        "e"
      ],
      [
        "gh",
        "t"
      ],
      [
        "ast",
        "er"
      ],
      [
        "l",
        "e"
      ],
      [
        "a",
        "l"
      ],
      [
        "l",
        "a"
      ],
      [
        "n",
        "t"
      ],
      [
        "r",
        "y"
      ],
      [
        "c",
        "e"
      ],
      [
        "s",
        "p"
      ],
      [
        "her",
        "e"
      ],
      [
        "g",
        "o"
      ],
      [
        "e",
        "ll"
      ],
      [
        "f",
        "rom"
      ],
      [
        "l",
        "o"
      ],
      [
        "N",
        "o"
      ],
      [
        "r",
        "u"
      ],
      [
        "o",
        "d"
      ],
      [
        "n",
        "d"
      ],
      [
        "i",
        "l"
      ],
      [
        "s",
        "a"
      ],
      [
        "f",
        "e"
      ],
      [
        "d",
        "o"
      ],
      [
        "s",
        "u"
      ],
      [
        "c",
        "a"
      ],
      [
        "c",
        "k"
      ],
      [
        "i",
        "d"
      ],
      [
        "he",
        "n"
      ],
      [
        "no",
        "w"
      ],
      [
        "th",
        "er"
      ],
      [
        "W",
        "ith"
      ],
      [
        "w",
        "ith"
      ],
      [
        "e",
        "d"
      ],
      [
        "m",
        "a"
      ],
      [
        "With",
        "in"
      ],
      [
        "n",
        "e"
      ],
      [
        "you",
        "r"
      ],
      [
        "in",
        "d"
      ],
      [
        "s",
        "o"
      ],
      [
        "w",
        "ill"
      ],
      [
        "w",
        "or"
      ],
      [
        "a",
        "k"
      ],
      [
        "b",
        "y"
      ],
      [
        "h",
        "is"
      ],
      [
        "i",
        "me"
      ],
      [
        "an",
        "t"
      ],
      [
        "hi",
        "m"
      ],
      [
        "th",
        "is"
      ],
      [
        "ar",
        "ry"
      ],
      [
        "h",
        "at"
      ],
      [
        "s",
        "h"
      ],
      [
        "u",
        "s"
      ],
      [
        "b",
        "a"
      ],
      [
        "t",
        "er"
      ],
      [
        "p",
        "e"
      ],
      [
        "b",
        "o"
      ],
      [
        "l",
        "f"
      ],
      [
        "a",
        "in"
      ],
      [
        "T",
        "he"
      ],
      [
        "b",
        "re"
      ],
      [
        "ur",
        "n"
      ],
      [
        "w",
        "ould"
      ],
      [
        "for",
        "e"
      ],
      [
        "M",
        "arry"
      ],
      [
        "m",
        "aster"
      ],
      [
        "w",
        "e"
      ],
      [
        "e",
        "t"
      ],
      [
        "g",
        "i"
      ],
      [
        "m",
        "u"
      ],
      [
        "c",
        "la"
      ],
      [
        "s",
        "ay"
      ],
      [
        "u",
        "re"
      ],
      [
        "w",
        "en"
      ],
      [
        "hi",
        "p"
      ],
      [
        "on",
        "g"
      ],
      [
        "k",
        "now"
      ],
      [
        "the",
        "m"
      ],
      [
        "the",
        "y"
      ],
      [
        "se",
        "nt"
      ],
      [
        "gi",
        "ve"
      ],
      [
        "M",
        "aster"
      ],
      [
        "i",
        "m"
      ],
      [
        "a",
        "d"
      ],
      [
        "e",
        "l"
      ],
      [
        "er",
        "e"
      ],
      [
        "i",
        "o"
      ],
      [
        "f",
        "a"
      ],
      [
        "n",
        "a"
      ],
      [
        "I",
        "f"
      ],
      [
        "h",
        "ou"
      ],
      [
        "l",
        "y"
      ],
      [
        "ar",
        "t"
      ],
      [
        "r",
        "an"
      ],
      [
        "en",
        "d"
      ],
      [
        "c",
        "on"
      ],
      [
        "c",
        "ha"
      ],
      [
        "s",
        "ha"
      ],
      [
        "v",
        "il"
      ],
      [
        "ar",
        "d"
      ],
      [
        "as",
        "s"
      ],
      [
        "wh",
        "o"
      ],
      [
        "ou",
        "t"
      ],
      [
        "th",
        "an"
      ],
      [
        "ha",
        "th"
      ],
      [
        "ha",
        "ir"
      ],
      [
        "se",
        "lf"
      ],
      [
        "re",
        "st"
      ],
      [
        "li",
        "ke"
      ],
      [
        "mu",
        "st"
      ],
      [
        "l",
        "ong"
      ],
      [
        "li",
        "ght"
      ],
      [
        "cla",
        "im"
      ],
      [
        "t",
        "a"
      ],
      [
        "w",
        "o"
      ],
      [
        "w",
        "it"
      ],
      [
        "l",
        "s"
      ],
      [
        "n",
        "er"
      ],
      [
        "th",
        "ou"
      ],
      [
        "me",
        "n"
      ],
      [
        "es",
        "s"
      ],
      [
        "d",
        "am"
      ],
      [
        "B",
        "ut"
      ],
      [
        "G",
        "od"
      ],
      [
        "b",
        "ar"
      ],
      [
        "d",
        "ay"
      ],
      [
        "s",
        "er"
      ],
      [
        "to",
        "o"
      ],
      [
        "ru",
        "n"
      ],
      [
        "t",
        "ime"
      ],
      [
        "w",
        "hen"
      ],
      [
        "ver",
        "y"
      ],
      [
        "co",
        "me"
      ],
      [
        "su",
        "ch"
      ],
      [
        "ar",
        "e"
      ],
      [
        "c",
        "ould"
      ],
      [
        "r",
        "a"
      ],
      [
        "w",
        "here"
      ],
      [
        "th",
        "ing"
      ],
      [
        "de",
        "vil"
      ],
      [
        "sh",
        "ould"
      ],
      [
        "w",
        "i"
      ],
      [
        "o",
        "t"
      ],
      [
        "the",
        "n"
      ],
      [
        "s",
        "s"
      ],
      [
        "th",
        "in"
      ],
      [
        "a",
        "ll"
      ],
      [
        "a",
        "th"
      ],
      [
        "or",
        "e"
      ],
      [
        "k",
        "s"
      ],
      [
        "o",
        "me"
      ],
      [
        "f",
        "f"
      ],
      [
        "u",
        "p"
      ],
      [
        "b",
        "l"
      ],
      [
        "c",
        "t"
      ],
      [
        "p",
        "r"
      ],
      [
        "i",
        "ght"
      ],
      [
        "p",
        "t"
      ],
      [
        "an",
        "y"
      ],
      [
        "an",
        "s"
      ],
      [
        "S",
        "he"
      ],
      [
        "d",
        "id"
      ],
      [
        "i",
        "st"
      ],
      [
        "m",
        "ar"
      ],
      [
        "p",
        "la"
      ],
      [
        "r",
        "ou"
      ],
      [
        "w",
        "ay"
      ],
      [
        "ha",
        "d"
      ],
      [
        "se",
        "e"
      ],
      [
        "wh",
        "y"
      ],
      [
        "sp",
        "o"
      ],
      [
        "st",
        "e"
      ],
      [
        "ou",
        "nd"
      ],
      [
        "D",
        "rom"
      ],
      [
        "T",
        "ime"
      ],
      [
        "T",
        "hat"
      ],
      [
        "b",
        "and"
      ],
      [
        "b",
        "urn"
      ],
      [
        "g",
        "ain"
      ],
      [
        "l",
        "and"
      ],
      [
        "t",
        "ell"
      ],
      [
        "t",
        "urn"
      ],
      [
        "w",
        "ell"
      ],
      [
        "ou",
        "nt"
      ],
      [
        "he",
        "ad"
      ],
      [
        "st",
        "ay"
      ],
      [
        "as",
        "on"
      ],
      [
        "wh",
        "at"
      ],
      [
        "ca",
        "ll"
      ],
      [
        "ma",
        "ke"
      ],
      [
        "ba",
        "ld"
      ],
      [
        "fa",
        "ir"
      ],
      [
        "na",
        "me"
      ],
      [
        "be",
        "ast"
      ],
      [
        "ge",
        "ant"
      ],
      [
        "ther",
        "e"
      ],
      [
        "bre",
        "ak"
      ],
      [
        "cha",
        "in"
      ],
      [
        "sha",
        "ll"
      ],
      [
        "come",
        "s"
      ],
      [
        "pla",
        "in"
      ],
      [
        "Drom",
        "io"
      ],
      [
        "ser",
        "geant"
      ],
      [
        "where",
        "fore"
      ],
      [
        "f",
        "o"
      ],
      [
        "A",
        "nd"
      ],
      [
        "b",
        "u"
      ],
      [
        "t",
        "ill"
      ],
      [
        "a",
        "ve"
      ],
      [
        "en",
        "t"
      ],
      [
        "c",
        "l"
      ],
      [
        "e",
        "st"
      ],
      [
        "h",
        "y"
      ],
      [
        "o",
        "ld"
      ],
      [
        "co",
        "m"
      ],
      [
        "D",
        "o"
      ],
      [
        "f",
        "t"
      ],
      [
        "w",
        "er"
      ],
      [
        "!",
        "'"
      ],
      [
        "A",
        "m"
      ],
      [
        "A",
        "y"
      ],
      [
        "B",
        "y"
      ],
      [
        "I",
        "t"
      ],
      [
        "c",
        "he"
      ],
      [
        "i",
        "f"
      ],
      [
        "p",
        "p"
      ],
      [
        "q",
        "u"
      ],
      [
        "at",
        "e"
      ],
      [
        "u",
        "m"
      ],
      [
        "u",
        "se"
      ],
      [
        "ar",
        "m"
      ],
      [
        "ir",
        "e"
      ],
      [
        "ow",
        "s"
      ],
      [
        "F",
        "a"
      ],
      [
        "d",
        "es"
      ],
      [
        "e",
        "ak"
      ],
      [
        "l",
        "ay"
      ],
      [
        "p",
        "ri"
      ],
      [
        "er",
        "i"
      ],
      [
        "No",
        "t"
      ],
      [
        "N",
        "ay"
      ],
      [
        "S",
        "ir"
      ],
      [
        "c",
        "ar"
      ],
      [
        "d",
        "in"
      ],
      [
        "f",
        "ri"
      ],
      [
        "i",
        "on"
      ],
      [
        "m",
        "ay"
      ],
      [
        "n",
        "at"
      ],
      [
        "p",
        "or"
      ],
      [
        "p",
        "ur"
      ],
      [
        "s",
        "in"
      ],
      [
        "t",
        "is"
      ],
      [
        "w",
        "as"
      ],
      [
        "y",
        "et"
      ],
      [
        "re",
        "e"
      ],
      [
        "ge",
        "t"
      ],
      [
        "sa",
        "w"
      ],
      [
        "a",
        "ge"
      ],
      [
        "at",
        "ch"
      ],
      [
        "A",
        "dam"
      ],
      [
        "W",
        "hen"
      ],
      [
        "W",
        "hat"
      ],
      [
        "f",
        "ind"
      ],
      [
        "h",
        "ind"
      ],
      [
        "m",
        "ore"
      ],
      [
        "s",
        "hip"
      ],
      [
        "w",
        "ere"
      ],
      [
        "an",
        "ge"
      ],
      [
        "at",
        "en"
      ],
      [
        "the",
        "e"
      ],
      [
        "on",
        "es"
      ],
      [
        "re",
        "co"
      ],
      [
        "re",
        "ss"
      ],
      [
        "go",
        "ld"
      ],
      [
        "lo",
        "st"
      ],
      [
        "sa",
        "ke"
      ],
      [
        "su",
        "it"
      ],
      [
        "ca",
        "se"
      ],
      [
        "ba",
        "ck"
      ],
      [
        "wen",
        "ch"
      ],
      [
        "hou",
        "r"
      ],
      [
        "bar",
        "k"
      ],
      [
        "wi",
        "fe"
      ],
      [
        "pr",
        "ay"
      ],
      [
        "che",
        "s"
      ],
      [
        "a",
        "gain"
      ],
      [
        "c",
        "ount"
      ],
      [
        "n",
        "ight"
      ],
      [
        "the",
        "ir"
      ],
      [
        "he",
        "art"
      ],
      [
        "re",
        "ver"
      ],
      [
        "ith",
        "er"
      ],
      [
        "ne",
        "ver"
      ],
      [
        "wor",
        "se"
      ],
      [
        "bo",
        "ard"
      ],
      [
        "con",
        "ce"
      ],
      [
        "spo",
        "on"
      ],
      [
        "sp",
        "eak"
      ],
      [
        "o",
        "ther"
      ],
      [
        "be",
        "aten"
      ],
      [
        "ast",
        "ing"
      ],
      [
        "my",
        "self"
      ],
      [
        "bre",
        "ath"
      ],
      [
        "rest",
        "ed"
      ],
      [
        "ans",
        "wer"
      ],
      [
        "wen",
        "ches"
      ],
      [
        "ist",
        "ress"
      ],
      [
        "reco",
        "ver"
      ],
      [
        "go",
        "od"
      ],
      [
        "should",
        "er"
      ],
      [
        "wor",
        "d"
      ],
      [
        "h",
        "o"
      ],
      [
        "T",
        "h"
      ],
      [
        "ou",
        "r"
      ],
      [
        "a",
        "ke"
      ],
      [
        "u",
        "n"
      ],
      [
        "d",
        "i"
      ],
      [
        "p",
        "i"
      ],
      [
        "y",
        "s"
      ],
      [
        "g",
        "s"
      ],
      [
        "o",
        "l"
      ],
      [
        "w",
        "s"
      ],
      [
        "e",
        "at"
      ],
      [
        "e",
        "ver"
      ],
      [
        "u",
        "e"
      ],
      [
        "sh",
        "o"
      ],
      [
        "S",
        "o"
      ],
      [
        "b",
        "i"
      ],
      [
        "c",
        "al"
      ],
      [
        "m",
        "s"
      ],
      [
        "f",
        "in"
      ],
      [
        "g",
        "r"
      ],
      [
        "ow",
        "n"
      ],
      [
        "I",
        "n"
      ],
      [
        "L",
        "u"
      ],
      [
        "T",
        "o"
      ],
      [
        "e",
        "x"
      ],
      [
        "o",
        "k"
      ],
      [
        "p",
        "on"
      ],
      [
        "p",
        "it"
      ],
      [
        "w",
        "ar"
      ],
      [
        "be",
        "s"
      ],
      [
        "d",
        "ro"
      ],
      [
        "e",
        "f"
      ],
      [
        "r",
        "ing"
      ],
      [
        "t",
        "al"
      ],
      [
        "or",
        "se"
      ],
      [
        "al",
        "t"
      ],
      [
        "F",
        "or"
      ],
      [
        "O",
        "ne"
      ],
      [
        "T",
        "is"
      ],
      [
        "W",
        "hy"
      ],
      [
        "d",
        "ur"
      ],
      [
        "d",
        "ry"
      ],
      [
        "f",
        "at"
      ],
      [
        "g",
        "re"
      ],
      [
        "h",
        "ot"
      ],
      [
        "k",
        "it"
      ],
      [
        "m",
        "er"
      ],
      [
        "p",
        "in"
      ],
      [
        "p",
        "ut"
      ],
      [
        "t",
        "wo"
      ],
      [
        "in",
        "s"
      ],
      [
        "is",
        "e"
      ],
      [
        "ck",
        "s"
      ],
      [
        "d",
        "ge"
      ],
      [
        "r",
        "it"
      ],
      [
        "t",
        "ir"
      ],
      [
        "er",
        "t"
      ],
      [
        "id",
        "es"
      ],
      [
        "ter",
        "s"
      ],
      [
        "C",
        "en"
      ],
      [
        "H",
        "ere"
      ],
      [
        "T",
        "his"
      ],
      [
        "a",
        "ther"
      ],
      [
        "a",
        "way"
      ],
      [
        "c",
        "hen"
      ],
      [
        "f",
        "ire"
      ],
      [
        "g",
        "ave"
      ],
      [
        "g",
        "ent"
      ],
      [
        "h",
        "ard"
      ],
      [
        "j",
        "est"
      ],
      [
        "m",
        "and"
      ],
      [
        "m",
        "one"
      ],
      [
        "m",
        "ind"
      ],
      [
        "p",
        "ate"
      ],
      [
        "t",
        "ran"
      ],
      [
        "w",
        "ant"
      ],
      [
        "w",
        "art"
      ],
      [
        "he",
        "ll"
      ],
      [
        "me",
        "at"
      ],
      [
        "me",
        "nt"
      ],
      [
        "ll",
        "ow"
      ],
      [
        "no",
        "se"
      ],
      [
        "be",
        "ar"
      ],
      [
        "be",
        "ll"
      ],
      [
        "ke",
        "pt"
      ],
      [
        "li",
        "fe"
      ],
      [
        "ri",
        "es"
      ],
      [
        "ow",
        "ls"
      ],
      [
        "le",
        "an"
      ],
      [
        "le",
        "ft"
      ],
      [
        "sp",
        "it"
      ],
      [
        "lo",
        "se"
      ],
      [
        "lo",
        "od"
      ],
      [
        "lo",
        "ok"
      ],
      [
        "do",
        "or"
      ],
      [
        "ca",
        "me"
      ],
      [
        "ma",
        "de"
      ],
      [
        "so",
        "me"
      ],
      [
        "say",
        "s"
      ],
      [
        "el",
        "se"
      ],
      [
        "thin",
        "k"
      ],
      [
        "up",
        "on"
      ],
      [
        "fo",
        "ot"
      ],
      [
        "bu",
        "ff"
      ],
      [
        "des",
        "k"
      ],
      [
        "eri",
        "c"
      ],
      [
        "Lu",
        "ce"
      ],
      [
        "dro",
        "p"
      ],
      [
        "ou",
        "ght"
      ],
      [
        "so",
        "on"
      ],
      [
        "pe",
        "ct"
      ],
      [
        "T",
        "here"
      ],
      [
        "f",
        "ound"
      ],
      [
        "h",
        "orse"
      ],
      [
        "s",
        "for"
      ],
      [
        "th",
        "ree"
      ],
      [
        "at",
        "ter"
      ],
      [
        "be",
        "ing"
      ],
      [
        "ch",
        "ol"
      ],
      [
        "ri",
        "age"
      ],
      [
        "ow",
        "ner"
      ],
      [
        "sp",
        "ake"
      ],
      [
        "wor",
        "ld"
      ],
      [
        "hou",
        "se"
      ],
      [
        "who",
        "se"
      ],
      [
        "who",
        "le"
      ],
      [
        "ta",
        "ur"
      ],
      [
        "wo",
        "man"
      ],
      [
        "wit",
        "ch"
      ],
      [
        "ste",
        "el"
      ],
      [
        "fair",
        "y"
      ],
      [
        "Fa",
        "ith"
      ],
      [
        "pur",
        "se"
      ],
      [
        "sin",
        "ce"
      ],
      [
        "mer",
        "ry"
      ],
      [
        "mone",
        "y"
      ],
      [
        "a",
        "board"
      ],
      [
        "ar",
        "ters"
      ],
      [
        "se",
        "ason"
      ],
      [
        "re",
        "ason"
      ],
      [
        "be",
        "fore"
      ],
      [
        "long",
        "er"
      ],
      [
        "claim",
        "s"
      ],
      [
        "thin",
        "ks"
      ],
      [
        "din",
        "ner"
      ],
      [
        "fri",
        "end"
      ],
      [
        "nat",
        "ure"
      ],
      [
        "por",
        "ter"
      ],
      [
        "ange",
        "ls"
      ],
      [
        "gent",
        "le"
      ],
      [
        "an",
        "other"
      ],
      [
        "no",
        "thing"
      ],
      [
        "him",
        "self"
      ],
      [
        "again",
        "st"
      ],
      [
        "count",
        "er"
      ],
      [
        "bes",
        "ides"
      ],
      [
        "kit",
        "chen"
      ],
      [
        "Cen",
        "taur"
      ],
      [
        "M",
        "istress"
      ],
      [
        "mar",
        "riage"
      ],
      [
        "break",
        "ing"
      ],
      [
        "qu",
        "arters"
      ],
      [
        "tran",
        "sfor"
      ],
      [
        "chol",
        "eric"
      ],
      [
        "W",
        "e"
      ],
      [
        "d",
        "ra"
      ],
      [
        "th",
        "i"
      ],
      [
        "ta",
        "ke"
      ],
      [
        "w",
        "a"
      ],
      [
        "f",
        "i"
      ],
      [
        "p",
        "o"
      ],
      [
        "w",
        "he"
      ],
      [
        "er",
        "s"
      ],
      [
        "e",
        "m"
      ],
      [
        "A",
        "d"
      ],
      [
        "m",
        "o"
      ],
      [
        "t",
        "s"
      ],
      [
        "G",
        "o"
      ],
      [
        "e",
        "ar"
      ],
      [
        "th",
        "o"
      ],
      [
        "b",
        "al"
      ],
      [
        "t",
        "ch"
      ],
      [
        "A",
        "n"
      ],
      [
        "a",
        "se"
      ],
      [
        "b",
        "an"
      ],
      [
        "e",
        "vil"
      ],
      [
        "l",
        "ow"
      ],
      [
        "o",
        "od"
      ],
      [
        "s",
        "k"
      ],
      [
        "t",
        "en"
      ],
      [
        "u",
        "nt"
      ],
      [
        "ma",
        "k"
      ],
      [
        "a",
        "b"
      ],
      [
        "a",
        "pp"
      ],
      [
        "d",
        "g"
      ],
      [
        "e",
        "k"
      ],
      [
        "m",
        "or"
      ],
      [
        "t",
        "ed"
      ],
      [
        "he",
        "ar"
      ],
      [
        "re",
        "ak"
      ],
      [
        "ma",
        "d"
      ],
      [
        "a",
        "p"
      ],
      [
        "f",
        "l"
      ],
      [
        "h",
        "us"
      ],
      [
        "l",
        "k"
      ],
      [
        "l",
        "t"
      ],
      [
        "l",
        "u"
      ],
      [
        "o",
        "ver"
      ],
      [
        "s",
        "ou"
      ],
      [
        "u",
        "ght"
      ],
      [
        "u",
        "ff"
      ],
      [
        "w",
        "n"
      ],
      [
        "he",
        "ir"
      ],
      [
        "it",
        "s"
      ],
      [
        "re",
        "d"
      ],
      [
        "be",
        "l"
      ],
      [
        "ve",
        "s"
      ],
      [
        "al",
        "k"
      ],
      [
        "do",
        "o"
      ],
      [
        "qu",
        "a"
      ],
      [
        ".",
        "'"
      ],
      [
        "A",
        "N"
      ],
      [
        "A",
        "s"
      ],
      [
        "B",
        "e"
      ],
      [
        "C",
        "I"
      ],
      [
        "E",
        "x"
      ],
      [
        "J",
        "u"
      ],
      [
        "L",
        "U"
      ],
      [
        "O",
        "U"
      ],
      [
        "R",
        "e"
      ],
      [
        "S",
        "p"
      ],
      [
        "Y",
        "ou"
      ],
      [
        "a",
        "h"
      ],
      [
        "a",
        "pe"
      ],
      [
        "b",
        "t"
      ],
      [
        "b",
        "le"
      ],
      [
        "c",
        "an"
      ],
      [
        "c",
        "re"
      ],
      [
        "c",
        "li"
      ],
      [
        "e",
        "p"
      ],
      [
        "f",
        "u"
      ],
      [
        "k",
        "es"
      ],
      [
        "o",
        "be"
      ],
      [
        "o",
        "il"
      ],
      [
        "p",
        "ar"
      ],
      [
        "r",
        "is"
      ],
      [
        "t",
        "ro"
      ],
      [
        "t",
        "ri"
      ],
      [
        "v",
        "y"
      ],
      [
        "w",
        "in"
      ],
      [
        "w",
        "hi"
      ],
      [
        "in",
        "er"
      ],
      [
        "ou",
        "s"
      ],
      [
        "is",
        "h"
      ],
      [
        "it",
        "y"
      ],
      [
        "re",
        "n"
      ],
      [
        "ro",
        "w"
      ],
      [
        "pe",
        "a"
      ],
      [
        "bo",
        "y"
      ],
      [
        "ta",
        "ge"
      ],
      [
        "ex",
        "p"
      ],
      [
        "E",
        "p"
      ],
      [
        "F",
        "ly"
      ],
      [
        "L",
        "et"
      ],
      [
        "N",
        "or"
      ],
      [
        "N",
        "ow"
      ],
      [
        "O",
        "ur"
      ],
      [
        "P",
        "ar"
      ],
      [
        "P",
        "ro"
      ],
      [
        "R",
        "un"
      ],
      [
        "S",
        "at"
      ],
      [
        "S",
        "we"
      ],
      [
        "W",
        "as"
      ],
      [
        "Y",
        "es"
      ],
      [
        "Y",
        "OU"
      ],
      [
        "a",
        "z"
      ],
      [
        "b",
        "ay"
      ],
      [
        "b",
        "la"
      ],
      [
        "b",
        "od"
      ],
      [
        "b",
        "id"
      ],
      [
        "c",
        "ay"
      ],
      [
        "c",
        "ro"
      ],
      [
        "c",
        "ur"
      ],
      [
        "c",
        "lo"
      ],
      [
        "d",
        "en"
      ],
      [
        "d",
        "ru"
      ],
      [
        "d",
        "ue"
      ],
      [
        "f",
        "ly"
      ],
      [
        "f",
        "ra"
      ],
      [
        "g",
        "u"
      ],
      [
        "g",
        "es"
      ],
      [
        "g",
        "ri"
      ],
      [
        "g",
        "al"
      ],
      [
        "g",
        "la"
      ],
      [
        "g",
        "lo"
      ],
      [
        "h",
        "ir"
      ],
      [
        "h",
        "ire"
      ],
      [
        "i",
        "ed"
      ],
      [
        "j",
        "o"
      ],
      [
        "k",
        "ru"
      ],
      [
        "k",
        "na"
      ],
      [
        "l",
        "am"
      ],
      [
        "l",
        "ows"
      ],
      [
        "n",
        "or"
      ],
      [
        "n",
        "ar"
      ],
      [
        "n",
        "ay"
      ],
      [
        "n",
        "ut"
      ],
      [
        "n",
        "ing"
      ],
      [
        "n",
        "ess"
      ],
      [
        "n",
        "um"
      ],
      [
        "p",
        "ay"
      ],
      [
        "p",
        "as"
      ],
      [
        "p",
        "al"
      ],
      [
        "p",
        "ed"
      ],
      [
        "p",
        "ass"
      ],
      [
        "r",
        "he"
      ],
      [
        "r",
        "hy"
      ],
      [
        "s",
        "c"
      ],
      [
        "s",
        "it"
      ],
      [
        "s",
        "we"
      ],
      [
        "t",
        "on"
      ],
      [
        "t",
        "ru"
      ],
      [
        "t",
        "ak"
      ],
      [
        "v",
        "it"
      ],
      [
        "v",
        "io"
      ],
      [
        "w",
        "on"
      ],
      [
        "y",
        "es"
      ],
      [
        "th",
        "y"
      ],
      [
        "an",
        "a"
      ],
      [
        "me",
        "d"
      ],
      [
        "or",
        "y"
      ],
      [
        "st",
        "r"
      ],
      [
        "ha",
        "st"
      ],
      [
        "be",
        "d"
      ],
      [
        "be",
        "t"
      ],
      [
        "ve",
        "y"
      ],
      [
        "es",
        "h"
      ],
      [
        "en",
        "ce"
      ],
      [
        "as",
        "k"
      ],
      [
        "li",
        "m"
      ],
      [
        "de",
        "m"
      ],
      [
        "co",
        "x"
      ],
      [
        "go",
        "t"
      ],
      [
        "do",
        "g"
      ],
      [
        "su",
        "e"
      ],
      [
        "su",
        "re"
      ],
      [
        "ne",
        "w"
      ],
      [
        "so",
        "b"
      ],
      [
        "ant",
        "s"
      ],
      [
        "ong",
        "er"
      ],
      [
        "ad",
        "s"
      ],
      [
        "io",
        "t"
      ],
      [
        "wi",
        "g"
      ],
      [
        "ff",
        "s"
      ],
      [
        "mar",
        "k"
      ],
      [
        "bu",
        "n"
      ],
      [
        "cl",
        "u"
      ],
      [
        "ange",
        "l"
      ],
      [
        "di",
        "v"
      ],
      [
        "sho",
        "e"
      ],
      [
        "bi",
        "g"
      ],
      [
        "AN",
        "A"
      ],
      [
        "ep",
        "s"
      ],
      [
        "C",
        "ome"
      ],
      [
        "D",
        "ow"
      ],
      [
        "D",
        "el"
      ],
      [
        "F",
        "ran"
      ],
      [
        "H",
        "ath"
      ],
      [
        "H",
        "ome"
      ],
      [
        "H",
        "old"
      ],
      [
        "L",
        "est"
      ],
      [
        "M",
        "ome"
      ],
      [
        "N",
        "ell"
      ],
      [
        "P",
        "o"
      ],
      [
        "S",
        "ure"
      ],
      [
        "S",
        "ome"
      ],
      [
        "T",
        "art"
      ],
      [
        "U",
        "pon"
      ],
      [
        "W",
        "ill"
      ],
      [
        "W",
        "ell"
      ],
      [
        "Y",
        "our"
      ],
      [
        "a",
        "qua"
      ],
      [
        "b",
        "it"
      ],
      [
        "b",
        "ass"
      ],
      [
        "b",
        "rou"
      ],
      [
        "b",
        "ert"
      ],
      [
        "c",
        "her"
      ],
      [
        "c",
        "ree"
      ],
      [
        "d",
        "own"
      ],
      [
        "e",
        "ys"
      ],
      [
        "f",
        "ast"
      ],
      [
        "f",
        "ell"
      ],
      [
        "f",
        "ish"
      ],
      [
        "g",
        "ar"
      ],
      [
        "g",
        "ro"
      ],
      [
        "g",
        "one"
      ],
      [
        "g",
        "ate"
      ],
      [
        "h",
        "and"
      ],
      [
        "h",
        "arm"
      ],
      [
        "j",
        "ure"
      ],
      [
        "k",
        "ill"
      ],
      [
        "k",
        "ind"
      ],
      [
        "m",
        "alt"
      ],
      [
        "n",
        "one"
      ],
      [
        "p",
        "eri"
      ],
      [
        "r",
        "ant"
      ],
      [
        "s",
        "am"
      ],
      [
        "s",
        "wor"
      ],
      [
        "s",
        "ist"
      ],
      [
        "s",
        "conce"
      ],
      [
        "s",
        "alt"
      ],
      [
        "t",
        "rou"
      ],
      [
        "w",
        "ind"
      ],
      [
        "w",
        "ise"
      ],
      [
        "w",
        "rit"
      ],
      [
        "w",
        "alk"
      ],
      [
        "th",
        "us"
      ],
      [
        "er",
        "go"
      ],
      [
        "an",
        "ce"
      ],
      [
        "at",
        "s"
      ],
      [
        "at",
        "ure"
      ],
      [
        "he",
        "d"
      ],
      [
        "me",
        "as"
      ],
      [
        "me",
        "nd"
      ],
      [
        "me",
        "et"
      ],
      [
        "st",
        "ri"
      ],
      [
        "se",
        "nd"
      ],
      [
        "se",
        "ts"
      ],
      [
        "to",
        "ld"
      ],
      [
        "to",
        "wn"
      ],
      [
        "it",
        "en"
      ],
      [
        "her",
        "i"
      ],
      [
        "be",
        "st"
      ],
      [
        "be",
        "en"
      ],
      [
        "ve",
        "t"
      ],
      [
        "ve",
        "in"
      ],
      [
        "ro",
        "pe"
      ],
      [
        "ing",
        "s"
      ],
      [
        "ch",
        "in"
      ],
      [
        "am",
        "az"
      ],
      [
        "ri",
        "ch"
      ],
      [
        "but",
        "to"
      ],
      [
        "ow",
        "es"
      ],
      [
        "de",
        "li"
      ],
      [
        "de",
        "bt"
      ],
      [
        "co",
        "ld"
      ],
      [
        "co",
        "ck"
      ],
      [
        "man",
        "y"
      ],
      [
        "le",
        "st"
      ],
      [
        "al",
        "er"
      ],
      [
        "la",
        "id"
      ],
      [
        "go",
        "es"
      ],
      [
        "No",
        "ah"
      ],
      [
        "ru",
        "le"
      ],
      [
        "ru",
        "sh"
      ],
      [
        "ru",
        "ly"
      ],
      [
        "ru",
        "bi"
      ],
      [
        "sa",
        "ve"
      ],
      [
        "sa",
        "id"
      ],
      [
        "sa",
        "pp"
      ],
      [
        "fe",
        "ar"
      ],
      [
        "fe",
        "et"
      ],
      [
        "fe",
        "ct"
      ],
      [
        "fe",
        "lt"
      ],
      [
        "do",
        "es"
      ],
      [
        "su",
        "ck"
      ],
      [
        "id",
        "am"
      ],
      [
        "hen",
        "ce"
      ],
      [
        "ma",
        "ce"
      ],
      [
        "ne",
        "st"
      ],
      [
        "ne",
        "ar"
      ],
      [
        "ne",
        "ck"
      ],
      [
        "ba",
        "ll"
      ],
      [
        "pe",
        "ar"
      ],
      [
        "bo",
        "th"
      ],
      [
        "bo",
        "ys"
      ],
      [
        "bo",
        "gs"
      ],
      [
        "lf",
        "il"
      ],
      [
        "The",
        "y"
      ],
      [
        "we",
        "en"
      ],
      [
        "we",
        "ek"
      ],
      [
        "mu",
        "ch"
      ],
      [
        "wen",
        "t"
      ],
      [
        "fa",
        "ce"
      ],
      [
        "na",
        "il"
      ],
      [
        "end",
        "s"
      ],
      [
        "wo",
        "lf"
      ],
      [
        "dam",
        "n"
      ],
      [
        "ser",
        "v"
      ],
      [
        "run",
        "s"
      ],
      [
        "ra",
        "gs"
      ],
      [
        "bl",
        "ue"
      ],
      [
        "pr",
        "is"
      ],
      [
        "rou",
        "s"
      ],
      [
        "way",
        "s"
      ],
      [
        "see",
        "k"
      ],
      [
        "cl",
        "in"
      ],
      [
        "cl",
        "es"
      ],
      [
        "com",
        "b"
      ],
      [
        "Do",
        "st"
      ],
      [
        "lay",
        "s"
      ],
      [
        "car",
        "a"
      ],
      [
        "ho",
        "st"
      ],
      [
        "ho",
        "pe"
      ],
      [
        "Th",
        "us"
      ],
      [
        "pi",
        "ke"
      ],
      [
        "pi",
        "ct"
      ],
      [
        "cal",
        "f"
      ],
      [
        "fin",
        "e"
      ],
      [
        "pit",
        "y"
      ],
      [
        "ring",
        "s"
      ],
      [
        "tal",
        "k"
      ],
      [
        "spit",
        "e"
      ],
      [
        "wa",
        "f"
      ],
      [
        "po",
        "or"
      ],
      [
        "Ad",
        "ri"
      ],
      [
        "mo",
        "le"
      ],
      [
        "sk",
        "in"
      ],
      [
        "unt",
        "s"
      ],
      [
        "lk",
        "y"
      ],
      [
        "lu",
        "ck"
      ],
      [
        "Be",
        "ca"
      ],
      [
        "Ju",
        "dg"
      ],
      [
        "LU",
        "CI"
      ],
      [
        "ble",
        "d"
      ],
      [
        "obe",
        "y"
      ],
      [
        "tri",
        "m"
      ],
      [
        "bod",
        "y"
      ],
      [
        "gla",
        "d"
      ],
      [
        "jo",
        "ll"
      ],
      [
        "lam",
        "p"
      ],
      [
        "pal",
        "m"
      ],
      [
        "tru",
        "e"
      ],
      [
        "vit",
        "x"
      ],
      [
        "vio",
        "l"
      ],
      [
        "B",
        "reak"
      ],
      [
        "B",
        "lows"
      ],
      [
        "R",
        "ight"
      ],
      [
        "S",
        "wart"
      ],
      [
        "W",
        "here"
      ],
      [
        "b",
        "ound"
      ],
      [
        "b",
        "lood"
      ],
      [
        "c",
        "atch"
      ],
      [
        "c",
        "lean"
      ],
      [
        "e",
        "very"
      ],
      [
        "f",
        "owls"
      ],
      [
        "f",
        "lood"
      ],
      [
        "m",
        "ount"
      ],
      [
        "m",
        "atch"
      ],
      [
        "p",
        "atch"
      ],
      [
        "s",
        "ound"
      ],
      [
        "t",
        "arry"
      ],
      [
        "the",
        "se"
      ],
      [
        "the",
        "ft"
      ],
      [
        "he",
        "ard"
      ],
      [
        "me",
        "ans"
      ],
      [
        "st",
        "ill"
      ],
      [
        "st",
        "one"
      ],
      [
        "st",
        "ore"
      ],
      [
        "st",
        "ood"
      ],
      [
        "st",
        "uff"
      ],
      [
        "ar",
        "ma"
      ],
      [
        "is",
        "hed"
      ],
      [
        "ha",
        "ste"
      ],
      [
        "ha",
        "bit"
      ],
      [
        "it",
        "ion"
      ],
      [
        "re",
        "dem"
      ],
      [
        "for",
        "th"
      ],
      [
        "be",
        "ads"
      ],
      [
        "en",
        "ter"
      ],
      [
        "en",
        "sue"
      ],
      [
        "ke",
        "eps"
      ],
      [
        "li",
        "ves"
      ],
      [
        "ri",
        "des"
      ],
      [
        "ri",
        "dge"
      ],
      [
        "de",
        "cay"
      ],
      [
        "le",
        "ave"
      ],
      [
        "al",
        "ing"
      ],
      [
        "sp",
        "rit"
      ],
      [
        "go",
        "ing"
      ],
      [
        "go",
        "bl"
      ],
      [
        "lo",
        "its"
      ],
      [
        "il",
        "ess"
      ],
      [
        "sa",
        "bel"
      ],
      [
        "sa",
        "ges"
      ],
      [
        "fe",
        "tch"
      ],
      [
        "ca",
        "pon"
      ],
      [
        "id",
        "iot"
      ],
      [
        "wor",
        "th"
      ],
      [
        "ant",
        "ed"
      ],
      [
        "hat",
        "ch"
      ],
      [
        "know",
        "s"
      ],
      [
        "give",
        "n"
      ],
      [
        "give",
        "s"
      ],
      [
        "ad",
        "ise"
      ],
      [
        "fa",
        "ith"
      ],
      [
        "hou",
        "nd"
      ],
      [
        "cha",
        "se"
      ],
      [
        "sha",
        "ke"
      ],
      [
        "sha",
        "pe"
      ],
      [
        "ass",
        "ur"
      ],
      [
        "than",
        "k"
      ],
      [
        "bl",
        "ess"
      ],
      [
        "bl",
        "ows"
      ],
      [
        "pt",
        "ion"
      ],
      [
        "mar",
        "ks"
      ],
      [
        "rou",
        "gh"
      ],
      [
        "see",
        "ms"
      ],
      [
        "spo",
        "il"
      ],
      [
        "land",
        "s"
      ],
      [
        "turn",
        "s"
      ],
      [
        "stay",
        "s"
      ],
      [
        "pp",
        "er"
      ],
      [
        "pri",
        "de"
      ],
      [
        "pri",
        "vy"
      ],
      [
        "suit",
        "s"
      ],
      [
        "good",
        "s"
      ],
      [
        "sho",
        "es"
      ],
      [
        "ms",
        "day"
      ],
      [
        "gr",
        "ain"
      ],
      [
        "gr",
        "ass"
      ],
      [
        "dur",
        "st"
      ],
      [
        "gre",
        "at"
      ],
      [
        "pin",
        "ch"
      ],
      [
        "tir",
        "ed"
      ],
      [
        "mand",
        "s"
      ],
      [
        "mind",
        "s"
      ],
      [
        "want",
        "s"
      ],
      [
        "bear",
        "s"
      ],
      [
        "dra",
        "ws"
      ],
      [
        "thi",
        "ef"
      ],
      [
        "fi",
        "end"
      ],
      [
        "whe",
        "el"
      ],
      [
        "tho",
        "se"
      ],
      [
        "ab",
        "out"
      ],
      [
        "fl",
        "esh"
      ],
      [
        "sou",
        "ls"
      ],
      [
        "Ex",
        "ped"
      ],
      [
        "Sp",
        "ain"
      ],
      [
        "tro",
        "th"
      ],
      [
        "whi",
        "ch"
      ],
      [
        "Pro",
        "di"
      ],
      [
        "Sat",
        "an"
      ],
      [
        "Swe",
        "et"
      ],
      [
        "bla",
        "ck"
      ],
      [
        "cro",
        "ss"
      ],
      [
        "clo",
        "ck"
      ],
      [
        "gu",
        "ess"
      ],
      [
        "gri",
        "me"
      ],
      [
        "glo",
        "be"
      ],
      [
        "hir",
        "es"
      ],
      [
        "kru",
        "pt"
      ],
      [
        "kna",
        "ve"
      ],
      [
        "rhe",
        "um"
      ],
      [
        "rhy",
        "me"
      ],
      [
        "tak",
        "es"
      ],
      [
        "won",
        "d"
      ],
      [
        "lim",
        "bo"
      ],
      [
        "clu",
        "de"
      ],
      [
        "Del",
        "ay"
      ],
      [
        "bert",
        "y"
      ],
      [
        "gro",
        "ws"
      ],
      [
        "swor",
        "e"
      ],
      [
        "C",
        "ert"
      ],
      [
        "E",
        "ither"
      ],
      [
        "S",
        "conce"
      ],
      [
        "b",
        "ought"
      ],
      [
        "b",
        "atter"
      ],
      [
        "b",
        "rings"
      ],
      [
        "m",
        "atter"
      ],
      [
        "n",
        "ought"
      ],
      [
        "ar",
        "ell"
      ],
      [
        "ha",
        "unts"
      ],
      [
        "be",
        "hind"
      ],
      [
        "as",
        "pect"
      ],
      [
        "but",
        "ton"
      ],
      [
        "de",
        "aler"
      ],
      [
        "de",
        "clin"
      ],
      [
        "co",
        "vet"
      ],
      [
        "wh",
        "iten"
      ],
      [
        "al",
        "thou"
      ],
      [
        "al",
        "ways"
      ],
      [
        "sp",
        "heri"
      ],
      [
        "sp",
        "ends"
      ],
      [
        "bre",
        "ast"
      ],
      [
        "con",
        "vey"
      ],
      [
        "cha",
        "lky"
      ],
      [
        "ta",
        "llow"
      ],
      [
        "bar",
        "ren"
      ],
      [
        "when",
        "ce"
      ],
      [
        "ra",
        "ther"
      ],
      [
        "devil",
        "s"
      ],
      [
        "all",
        "eys"
      ],
      [
        "call",
        "ed"
      ],
      [
        "name",
        "ly"
      ],
      [
        "beast",
        "s"
      ],
      [
        "break",
        "s"
      ],
      [
        "fo",
        "llow"
      ],
      [
        "Fa",
        "ther"
      ],
      [
        "pri",
        "ory"
      ],
      [
        "car",
        "bun"
      ],
      [
        "fri",
        "ght"
      ],
      [
        "nat",
        "ion"
      ],
      [
        "sin",
        "ner"
      ],
      [
        "un",
        "ruly"
      ],
      [
        "ever",
        "l"
      ],
      [
        "ex",
        "pect"
      ],
      [
        "ef",
        "fect"
      ],
      [
        "gre",
        "ase"
      ],
      [
        "tir",
        "ing"
      ],
      [
        "ather",
        "s"
      ],
      [
        "spit",
        "es"
      ],
      [
        "lose",
        "th"
      ],
      [
        "soon",
        "er"
      ],
      [
        "em",
        "bell"
      ],
      [
        "bal",
        "sam"
      ],
      [
        "mak",
        "ing"
      ],
      [
        "mor",
        "ris"
      ],
      [
        "ap",
        "pear"
      ],
      [
        "cli",
        "ffs"
      ],
      [
        "fu",
        "lfil"
      ],
      [
        "win",
        "ter"
      ],
      [
        "Ep",
        "idam"
      ],
      [
        "cur",
        "tal"
      ],
      [
        "den",
        "ied"
      ],
      [
        "dru",
        "dge"
      ],
      [
        "nar",
        "row"
      ],
      [
        "swe",
        "ats"
      ],
      [
        "sure",
        "ly"
      ],
      [
        "Fran",
        "ce"
      ],
      [
        "Po",
        "land"
      ],
      [
        "Tart",
        "ar"
      ],
      [
        "cher",
        "ry"
      ],
      [
        "cree",
        "ks"
      ],
      [
        "fell",
        "ow"
      ],
      [
        "sist",
        "er"
      ],
      [
        "rubi",
        "es"
      ],
      [
        "pris",
        "on"
      ],
      [
        "B",
        "asting"
      ],
      [
        "b",
        "asting"
      ],
      [
        "me",
        "an"
      ],
      [
        "for",
        "sake"
      ],
      [
        "be",
        "speak"
      ],
      [
        "li",
        "berty"
      ],
      [
        "le",
        "ather"
      ],
      [
        "No",
        "thing"
      ],
      [
        "with",
        "out"
      ],
      [
        "ne",
        "ither"
      ],
      [
        "master",
        "s"
      ],
      [
        "cla",
        "pper"
      ],
      [
        "con",
        "jure"
      ],
      [
        "bar",
        "gain"
      ],
      [
        "run",
        "ning"
      ],
      [
        "beast",
        "ly"
      ],
      [
        "there",
        "of"
      ],
      [
        "plain",
        "er"
      ],
      [
        "com",
        "mand"
      ],
      [
        "com",
        "pass"
      ],
      [
        "car",
        "ries"
      ],
      [
        "Th",
        "ither"
      ],
      [
        "war",
        "rant"
      ],
      [
        "dur",
        "ance"
      ],
      [
        "ear",
        "nest"
      ],
      [
        "hus",
        "band"
      ],
      [
        "ught",
        "age"
      ],
      [
        "par",
        "ings"
      ],
      [
        "pea",
        "cock"
      ],
      [
        "sc",
        "anted"
      ],
      [
        "bet",
        "ween"
      ],
      [
        "cox",
        "comb"
      ],
      [
        "div",
        "iner"
      ],
      [
        "brou",
        "ght"
      ],
      [
        "gar",
        "ment"
      ],
      [
        "peri",
        "wig"
      ],
      [
        "writ",
        "ten"
      ],
      [
        "meas",
        "ure"
      ],
      [
        "stri",
        "kes"
      ],
      [
        "best",
        "ows"
      ],
      [
        "deli",
        "ver"
      ],
      [
        "ball",
        "ast"
      ],
      [
        "cara",
        "cks"
      ],
      [
        "pict",
        "ure"
      ],
      [
        "waf",
        "tage"
      ],
      [
        "Adri",
        "ana"
      ],
      [
        "Beca",
        "use"
      ],
      [
        "LUCI",
        "ANA"
      ],
      [
        "joll",
        "ity"
      ],
      [
        "decay",
        "ed"
      ],
      [
        "sprit",
        "es"
      ],
      [
        "gobl",
        "ins"
      ],
      [
        "Cert",
        "ain"
      ],
      [
        "m",
        "istress"
      ],
      [
        "me",
        "thinks"
      ],
      [
        "ar",
        "rested"
      ],
      [
        "fe",
        "athers"
      ],
      [
        "your",
        "self"
      ],
      [
        "fore",
        "head"
      ],
      [
        "con",
        "clude"
      ],
      [
        "ste",
        "aling"
      ],
      [
        "por",
        "ridge"
      ],
      [
        "pur",
        "chase"
      ],
      [
        "rever",
        "ent"
      ],
      [
        "rever",
        "ted"
      ],
      [
        "pit",
        "iless"
      ],
      [
        "ins",
        "conce"
      ],
      [
        "transfor",
        "m"
      ],
      [
        "ban",
        "krupt"
      ],
      [
        "app",
        "arell"
      ],
      [
        "doo",
        "msday"
      ],
      [
        "cre",
        "ature"
      ],
      [
        "exp",
        "loits"
      ],
      [
        "Par",
        "adise"
      ],
      [
        "pas",
        "sages"
      ],
      [
        "str",
        "onger"
      ],
      [
        "Dow",
        "sabel"
      ],
      [
        "trou",
        "bled"
      ],
      [
        "butto",
        "cks"
      ],
      [
        "serv",
        "ants"
      ],
      [
        "Judg",
        "ment"
      ],
      [
        "mount",
        "ain"
      ],
      [
        "arma",
        "does"
      ],
      [
        "bless",
        "ing"
      ],
      [
        "Prodi",
        "gal"
      ],
      [
        "wond",
        "rous"
      ],
      [
        "covet",
        "ous"
      ],
      [
        "althou",
        "gh"
      ],
      [
        "balsam",
        "um"
      ],
      [
        "ha",
        "v"
      ],
      [
        "there",
        "fore"
      ],
      [
        "ship",
        "board"
      ],
      [
        "count",
        "ries"
      ],
      [
        "rever",
        "ence"
      ],
      [
        "shoulder",
        "s"
      ],
      [
        "some",
        "thing"
      ],
      [
        "gentle",
        "men"
      ],
      [
        "sapp",
        "hires"
      ],
      [
        "batter",
        "ing"
      ],
      [
        "declin",
        "ing"
      ],
      [
        "whiten",
        "ess"
      ],
      [
        "spheri",
        "cal"
      ],
      [
        "follow",
        "ers"
      ],
      [
        "Epidam",
        "num"
      ],
      [
        "fra",
        "ughtage"
      ],
      [
        "redem",
        "ption"
      ],
      [
        "Exped",
        "ition"
      ],
      [
        "barren",
        "ness"
      ],
      [
        "carbun",
        "cles"
      ],
      [
        "transfor",
        "med"
      ],
      [
        "everl",
        "asting"
      ],
      [
        "embell",
        "ished"
      ],
      [
        "counter",
        "mands"
      ],
      [
        "ld",
        "er"
      ],
      [
        "e",
        "lder"
      ],
      [
        "hav",
        "ing"
      ],
      [
        "th",
        "a"
      ],
      [
        "y",
        "o"
      ],
      [
        "dra",
        "w"
      ],
      [
        "de",
        "ed"
      ],
      [
        "in",
        "deed"
      ],
      [
        "c",
        "ut"
      ],
      [
        "cut",
        "s"
      ],
      [
        "n",
        "i"
      ],
      [
        "s",
        "i"
      ],
      [
        "se",
        "ni"
      ],
      [
        "seni",
        "or"
      ],
      [
        "n",
        "g"
      ],
      [
        "o",
        "m"
      ],
      [
        "h",
        "in"
      ],
      [
        "t",
        "e"
      ],
      [
        "ou",
        "l"
      ],
      [
        "f",
        "r"
      ],
      [
        "u",
        "ld"
      ],
      [
        "M",
        "ar"
      ],
      [
        "m",
        "ast"
      ],
      [
        "M",
        "a"
      ],
      [
        "g",
        "a"
      ],
      [
        "st",
        "er"
      ],
      [
        "M",
        "ast"
      ],
      [
        "h",
        "t"
      ],
      [
        "t",
        "i"
      ],
      [
        "e",
        "y"
      ],
      [
        "f",
        "ro"
      ],
      [
        "le",
        "ad"
      ],
      [
        "W",
        "i"
      ],
      [
        "r",
        "ry"
      ],
      [
        "ser",
        "ge"
      ],
      [
        "W",
        "it"
      ],
      [
        "b",
        "r"
      ],
      [
        "c",
        "ou"
      ],
      [
        "ith",
        "in"
      ],
      [
        "With",
        "i"
      ],
      [
        "a",
        "ir"
      ],
      [
        "n",
        "ce"
      ],
      [
        "w",
        "il"
      ],
      [
        "se",
        "n"
      ],
      [
        "re",
        "s"
      ],
      [
        "be",
        "a"
      ],
      [
        "de",
        "v"
      ],
      [
        "W",
        "h"
      ],
      [
        "e",
        "e"
      ],
      [
        "r",
        "d"
      ],
      [
        "he",
        "a"
      ],
      [
        "M",
        "ist"
      ],
      [
        "k",
        "n"
      ],
      [
        "l",
        "on"
      ],
      [
        "m",
        "as"
      ],
      [
        "n",
        "s"
      ],
      [
        "p",
        "a"
      ],
      [
        "r",
        "t"
      ],
      [
        "w",
        "ou"
      ],
      [
        "w",
        "oul"
      ],
      [
        "he",
        "y"
      ],
      [
        "sp",
        "e"
      ],
      [
        "bre",
        "a"
      ],
      [
        "Mar",
        "r"
      ],
      [
        "mast",
        "e"
      ],
      [
        "M",
        "as"
      ],
      [
        "a",
        "bo"
      ],
      [
        "d",
        "a"
      ],
      [
        "d",
        "r"
      ],
      [
        "e",
        "fore"
      ],
      [
        "h",
        "an"
      ],
      [
        "i",
        "p"
      ],
      [
        "i",
        "ke"
      ],
      [
        "k",
        "no"
      ],
      [
        "o",
        "o"
      ],
      [
        "o",
        "se"
      ],
      [
        "r",
        "n"
      ],
      [
        "r",
        "s"
      ],
      [
        "r",
        "se"
      ],
      [
        "t",
        "r"
      ],
      [
        "he",
        "m"
      ],
      [
        "le",
        "a"
      ],
      [
        "gi",
        "v"
      ],
      [
        "Mast",
        "e"
      ],
      [
        "T",
        "i"
      ],
      [
        "a",
        "g"
      ],
      [
        "a",
        "me"
      ],
      [
        "a",
        "im"
      ],
      [
        "a",
        "ga"
      ],
      [
        "d",
        "s"
      ],
      [
        "e",
        "lf"
      ],
      [
        "f",
        "ir"
      ],
      [
        "i",
        "ve"
      ],
      [
        "m",
        "us"
      ],
      [
        "n",
        "y"
      ],
      [
        "u",
        "st"
      ],
      [
        "u",
        "ch"
      ],
      [
        "an",
        "o"
      ],
      [
        "ha",
        "i"
      ],
      [
        "se",
        "l"
      ],
      [
        "ay",
        "s"
      ],
      [
        "li",
        "g"
      ],
      [
        "li",
        "k"
      ],
      [
        "li",
        "gh"
      ],
      [
        "co",
        "ver"
      ],
      [
        "la",
        "im"
      ],
      [
        "su",
        "c"
      ],
      [
        "cla",
        "i"
      ],
      [
        "wen",
        "c"
      ],
      [
        "mar",
        "ri"
      ],
      [
        "tran",
        "s"
      ],
      [
        "B",
        "u"
      ],
      [
        "a",
        "w"
      ],
      [
        "b",
        "ou"
      ],
      [
        "c",
        "oul"
      ],
      [
        "e",
        "v"
      ],
      [
        "e",
        "ast"
      ],
      [
        "h",
        "ing"
      ],
      [
        "h",
        "ould"
      ],
      [
        "i",
        "fe"
      ],
      [
        "m",
        "at"
      ],
      [
        "n",
        "es"
      ],
      [
        "o",
        "st"
      ],
      [
        "o",
        "on"
      ],
      [
        "o",
        "le"
      ],
      [
        "p",
        "u"
      ],
      [
        "s",
        "on"
      ],
      [
        "t",
        "im"
      ],
      [
        "u",
        "nd"
      ],
      [
        "w",
        "her"
      ],
      [
        "er",
        "y"
      ],
      [
        "re",
        "fore"
      ],
      [
        "here",
        "fore"
      ],
      [
        "lo",
        "s"
      ],
      [
        "sh",
        "ou"
      ],
      [
        "sh",
        "oul"
      ],
      [
        "ere",
        "fore"
      ],
      [
        "fa",
        "i"
      ],
      [
        "dev",
        "i"
      ],
      [
        "D",
        "r"
      ],
      [
        "D",
        "ro"
      ],
      [
        "S",
        "h"
      ],
      [
        "T",
        "ha"
      ],
      [
        "T",
        "hi"
      ],
      [
        "T",
        "im"
      ],
      [
        "W",
        "he"
      ],
      [
        "a",
        "ld"
      ],
      [
        "a",
        "ur"
      ],
      [
        "a",
        "ck"
      ],
      [
        "b",
        "ur"
      ],
      [
        "e",
        "a"
      ],
      [
        "e",
        "ir"
      ],
      [
        "e",
        "ant"
      ],
      [
        "e",
        "ad"
      ],
      [
        "e",
        "ason"
      ],
      [
        "f",
        "ou"
      ],
      [
        "h",
        "or"
      ],
      [
        "k",
        "i"
      ],
      [
        "l",
        "asting"
      ],
      [
        "l",
        "eric"
      ],
      [
        "m",
        "io"
      ],
      [
        "m",
        "ist"
      ],
      [
        "n",
        "ch"
      ],
      [
        "n",
        "am"
      ],
      [
        "p",
        "l"
      ],
      [
        "p",
        "at"
      ],
      [
        "r",
        "k"
      ],
      [
        "r",
        "m"
      ],
      [
        "r",
        "geant"
      ],
      [
        "t",
        "u"
      ],
      [
        "t",
        "ur"
      ],
      [
        "t",
        "il"
      ],
      [
        "t",
        "ure"
      ],
      [
        "t",
        "el"
      ],
      [
        "w",
        "ha"
      ],
      [
        "y",
        "e"
      ],
      [
        "er",
        "geant"
      ],
      [
        "er",
        "mands"
      ],
      [
        "me",
        "a"
      ],
      [
        "me",
        "s"
      ],
      [
        "st",
        "a"
      ],
      [
        "ar",
        "k"
      ],
      [
        "ha",
        "in"
      ],
      [
        "ha",
        "ll"
      ],
      [
        "se",
        "as"
      ],
      [
        "re",
        "as"
      ],
      [
        "be",
        "as"
      ],
      [
        "rom",
        "io"
      ],
      [
        "ge",
        "ls"
      ],
      [
        "le",
        "men"
      ],
      [
        "lo",
        "o"
      ],
      [
        "nd",
        "s"
      ],
      [
        "pe",
        "ak"
      ],
      [
        "we",
        "l"
      ],
      [
        "el",
        "s"
      ],
      [
        "con",
        "c"
      ],
      [
        "cha",
        "i"
      ],
      [
        "sha",
        "l"
      ],
      [
        "ser",
        "g"
      ],
      [
        "where",
        "f"
      ],
      [
        "where",
        "for"
      ],
      [
        "where",
        "fo"
      ],
      [
        "ome",
        "s"
      ],
      [
        "pla",
        "i"
      ],
      [
        "Drom",
        "i"
      ],
      [
        "qu",
        "ar"
      ],
      [
        "qu",
        "art"
      ],
      [
        "bes",
        "i"
      ],
      [
        "Cen",
        "ta"
      ],
      [
        "om",
        "io"
      ],
      [
        "serge",
        "a"
      ],
      [
        "serge",
        "an"
      ],
      [
        "B",
        "ast"
      ],
      [
        "C",
        "e"
      ],
      [
        "C",
        "er"
      ],
      [
        "N",
        "a"
      ],
      [
        "R",
        "i"
      ],
      [
        "S",
        "i"
      ],
      [
        "W",
        "ha"
      ],
      [
        "a",
        "ith"
      ],
      [
        "b",
        "at"
      ],
      [
        "b",
        "ast"
      ],
      [
        "c",
        "r"
      ],
      [
        "c",
        "as"
      ],
      [
        "d",
        "u"
      ],
      [
        "e",
        "an"
      ],
      [
        "e",
        "ve"
      ],
      [
        "e",
        "et"
      ],
      [
        "e",
        "el"
      ],
      [
        "e",
        "art"
      ],
      [
        "e",
        "ath"
      ],
      [
        "e",
        "ct"
      ],
      [
        "e",
        "ft"
      ],
      [
        "e",
        "aten"
      ],
      [
        "e",
        "cover"
      ],
      [
        "g",
        "er"
      ],
      [
        "g",
        "ra"
      ],
      [
        "h",
        "ar"
      ],
      [
        "i",
        "es"
      ],
      [
        "i",
        "end"
      ],
      [
        "k",
        "ing"
      ],
      [
        "l",
        "an"
      ],
      [
        "m",
        "i"
      ],
      [
        "n",
        "k"
      ],
      [
        "n",
        "ou"
      ],
      [
        "n",
        "ner"
      ],
      [
        "n",
        "ches"
      ],
      [
        "o",
        "th"
      ],
      [
        "o",
        "or"
      ],
      [
        "o",
        "es"
      ],
      [
        "o",
        "ard"
      ],
      [
        "o",
        "thing"
      ],
      [
        "p",
        "ra"
      ],
      [
        "r",
        "ay"
      ],
      [
        "s",
        "hi"
      ],
      [
        "s",
        "wer"
      ],
      [
        "t",
        "y"
      ],
      [
        "t",
        "ar"
      ],
      [
        "t",
        "ay"
      ],
      [
        "t",
        "ing"
      ],
      [
        "t",
        "ion"
      ],
      [
        "t",
        "ress"
      ],
      [
        "u",
        "gh"
      ],
      [
        "v",
        "ants"
      ],
      [
        "y",
        "self"
      ],
      [
        "er",
        "ry"
      ],
      [
        "an",
        "g"
      ],
      [
        "in",
        "ner"
      ],
      [
        "the",
        "i"
      ],
      [
        "he",
        "e"
      ],
      [
        "he",
        "s"
      ],
      [
        "or",
        "d"
      ],
      [
        "st",
        "o"
      ],
      [
        "st",
        "ing"
      ],
      [
        "st",
        "ed"
      ],
      [
        "st",
        "ress"
      ],
      [
        "on",
        "ce"
      ],
      [
        "to",
        "cks"
      ],
      [
        "it",
        "es"
      ],
      [
        "re",
        "a"
      ],
      [
        "re",
        "c"
      ],
      [
        "re",
        "v"
      ],
      [
        "re",
        "ve"
      ],
      [
        "re",
        "ath"
      ],
      [
        "be",
        "at"
      ],
      [
        "be",
        "ate"
      ],
      [
        "en",
        "ch"
      ],
      [
        "en",
        "ches"
      ],
      [
        "ro",
        "p"
      ],
      [
        "my",
        "s"
      ],
      [
        "my",
        "se"
      ],
      [
        "my",
        "sel"
      ],
      [
        "ri",
        "c"
      ],
      [
        "la",
        "in"
      ],
      [
        "nt",
        "s"
      ],
      [
        "nt",
        "er"
      ],
      [
        "go",
        "l"
      ],
      [
        "sa",
        "k"
      ],
      [
        "fe",
        "a"
      ],
      [
        "su",
        "i"
      ],
      [
        "ne",
        "v"
      ],
      [
        "ne",
        "ve"
      ],
      [
        "wor",
        "s"
      ],
      [
        "ak",
        "ing"
      ],
      [
        "ba",
        "c"
      ],
      [
        "bre",
        "at"
      ],
      [
        "wen",
        "che"
      ],
      [
        "con",
        "j"
      ],
      [
        "rest",
        "e"
      ],
      [
        "should",
        "e"
      ],
      [
        "wi",
        "f"
      ],
      [
        "ans",
        "w"
      ],
      [
        "ans",
        "we"
      ],
      [
        "spo",
        "o"
      ],
      [
        "est",
        "ed"
      ],
      [
        "por",
        "ri"
      ],
      [
        "ship",
        "bo"
      ],
      [
        "reco",
        "v"
      ],
      [
        "reco",
        "ve"
      ],
      [
        "rever",
        "en"
      ],
      [
        "ho",
        "se"
      ],
      [
        "sfor",
        "m"
      ],
      [
        "sfor",
        "med"
      ],
      [
        "po",
        "on"
      ],
      [
        "Ad",
        "a"
      ],
      [
        "doo",
        "ms"
      ],
      [
        "cre",
        "at"
      ],
      [
        "ren",
        "ness"
      ],
      [
        "exp",
        "lo"
      ],
      [
        "Par",
        "ad"
      ],
      [
        "fra",
        "ught"
      ],
      [
        "pas",
        "sa"
      ],
      [
        "bun",
        "cles"
      ],
      [
        "Dow",
        "sa"
      ],
      [
        "redem",
        "pt"
      ],
      [
        "Exped",
        "it"
      ],
      [
        "everl",
        "ast"
      ],
      [
        "ni",
        "g"
      ],
      [
        "ni",
        "gh"
      ],
      [
        "ng",
        "er"
      ],
      [
        "cou",
        "n"
      ],
      [
        "ns",
        "wer"
      ],
      [
        "spe",
        "a"
      ],
      [
        "aga",
        "i"
      ],
      [
        "C",
        "ent"
      ],
      [
        "D",
        "e"
      ],
      [
        "E",
        "i"
      ],
      [
        "F",
        "o"
      ],
      [
        "H",
        "e"
      ],
      [
        "H",
        "o"
      ],
      [
        "H",
        "er"
      ],
      [
        "L",
        "e"
      ],
      [
        "M",
        "i"
      ],
      [
        "M",
        "is"
      ],
      [
        "O",
        "n"
      ],
      [
        "P",
        "ol"
      ],
      [
        "S",
        "w"
      ],
      [
        "T",
        "her"
      ],
      [
        "Y",
        "o"
      ],
      [
        "a",
        "i"
      ],
      [
        "a",
        "de"
      ],
      [
        "a",
        "ce"
      ],
      [
        "a",
        "id"
      ],
      [
        "a",
        "cks"
      ],
      [
        "a",
        "wa"
      ],
      [
        "b",
        "as"
      ],
      [
        "b",
        "lo"
      ],
      [
        "c",
        "u"
      ],
      [
        "c",
        "at"
      ],
      [
        "c",
        "am"
      ],
      [
        "c",
        "le"
      ],
      [
        "d",
        "er"
      ],
      [
        "d",
        "rous"
      ],
      [
        "e",
        "ld"
      ],
      [
        "e",
        "en"
      ],
      [
        "e",
        "ing"
      ],
      [
        "e",
        "pt"
      ],
      [
        "e",
        "ek"
      ],
      [
        "f",
        "ow"
      ],
      [
        "f",
        "tage"
      ],
      [
        "g",
        "l"
      ],
      [
        "g",
        "en"
      ],
      [
        "h",
        "ree"
      ],
      [
        "i",
        "c"
      ],
      [
        "i",
        "g"
      ],
      [
        "i",
        "ch"
      ],
      [
        "i",
        "age"
      ],
      [
        "i",
        "ves"
      ],
      [
        "i",
        "gal"
      ],
      [
        "j",
        "e"
      ],
      [
        "j",
        "es"
      ],
      [
        "k",
        "in"
      ],
      [
        "l",
        "se"
      ],
      [
        "l",
        "es"
      ],
      [
        "l",
        "ess"
      ],
      [
        "m",
        "in"
      ],
      [
        "m",
        "ou"
      ],
      [
        "m",
        "on"
      ],
      [
        "m",
        "self"
      ],
      [
        "n",
        "u"
      ],
      [
        "n",
        "st"
      ],
      [
        "n",
        "ks"
      ],
      [
        "n",
        "gs"
      ],
      [
        "n",
        "gels"
      ],
      [
        "o",
        "b"
      ],
      [
        "o",
        "p"
      ],
      [
        "o",
        "man"
      ],
      [
        "o",
        "ck"
      ],
      [
        "o",
        "pe"
      ],
      [
        "o",
        "ot"
      ],
      [
        "o",
        "ok"
      ],
      [
        "p",
        "er"
      ],
      [
        "p",
        "ake"
      ],
      [
        "p",
        "loits"
      ],
      [
        "r",
        "h"
      ],
      [
        "r",
        "th"
      ],
      [
        "r",
        "ld"
      ],
      [
        "r",
        "ter"
      ],
      [
        "r",
        "ters"
      ],
      [
        "r",
        "riage"
      ],
      [
        "s",
        "w"
      ],
      [
        "s",
        "ur"
      ],
      [
        "s",
        "ides"
      ],
      [
        "t",
        "w"
      ],
      [
        "t",
        "es"
      ],
      [
        "t",
        "ter"
      ],
      [
        "t",
        "ain"
      ],
      [
        "t",
        "ra"
      ],
      [
        "t",
        "chen"
      ],
      [
        "u",
        "it"
      ],
      [
        "u",
        "ce"
      ],
      [
        "u",
        "ck"
      ],
      [
        "u",
        "arters"
      ],
      [
        "u",
        "lder"
      ],
      [
        "v",
        "i"
      ],
      [
        "v",
        "ing"
      ],
      [
        "v",
        "iner"
      ],
      [
        "w",
        "an"
      ],
      [
        "w",
        "ls"
      ],
      [
        "w",
        "ner"
      ],
      [
        "x",
        "comb"
      ],
      [
        "th",
        "r"
      ],
      [
        "th",
        "re"
      ],
      [
        "an",
        "ot"
      ],
      [
        "in",
        "e"
      ],
      [
        "in",
        "k"
      ],
      [
        "in",
        "st"
      ],
      [
        "in",
        "ing"
      ],
      [
        "in",
        "ce"
      ],
      [
        "in",
        "ks"
      ],
      [
        "ou",
        "se"
      ],
      [
        "ou",
        "gh"
      ],
      [
        "he",
        "l"
      ],
      [
        "or",
        "th"
      ],
      [
        "or",
        "ld"
      ],
      [
        "or",
        "ter"
      ],
      [
        "st",
        "u"
      ],
      [
        "and",
        "s"
      ],
      [
        "ar",
        "riage"
      ],
      [
        "ir",
        "y"
      ],
      [
        "ll",
        "o"
      ],
      [
        "ll",
        "ity"
      ],
      [
        "ha",
        "s"
      ],
      [
        "se",
        "a"
      ],
      [
        "it",
        "e"
      ],
      [
        "it",
        "ch"
      ],
      [
        "it",
        "chen"
      ],
      [
        "no",
        "s"
      ],
      [
        "no",
        "th"
      ],
      [
        "no",
        "ther"
      ],
      [
        "no",
        "thin"
      ],
      [
        "no",
        "thi"
      ],
      [
        "for",
        "m"
      ],
      [
        "for",
        "med"
      ],
      [
        "be",
        "f"
      ],
      [
        "be",
        "i"
      ],
      [
        "be",
        "in"
      ],
      [
        "be",
        "for"
      ],
      [
        "be",
        "fo"
      ],
      [
        "es",
        "k"
      ],
      [
        "es",
        "ides"
      ],
      [
        "en",
        "taur"
      ],
      [
        "as",
        "pe"
      ],
      [
        "as",
        "ure"
      ],
      [
        "ch",
        "o"
      ],
      [
        "ch",
        "ole"
      ],
      [
        "ke",
        "p"
      ],
      [
        "am",
        "um"
      ],
      [
        "li",
        "b"
      ],
      [
        "li",
        "f"
      ],
      [
        "li",
        "ver"
      ],
      [
        "ur",
        "se"
      ],
      [
        "ould",
        "er"
      ],
      [
        "ri",
        "e"
      ],
      [
        "ri",
        "de"
      ],
      [
        "ri",
        "end"
      ],
      [
        "ri",
        "ana"
      ],
      [
        "but",
        "t"
      ],
      [
        "ow",
        "ne"
      ],
      [
        "ge",
        "l"
      ],
      [
        "de",
        "a"
      ],
      [
        "de",
        "c"
      ],
      [
        "co",
        "ve"
      ],
      [
        "one",
        "y"
      ],
      [
        "le",
        "d"
      ],
      [
        "le",
        "f"
      ],
      [
        "nt",
        "aur"
      ],
      [
        "sp",
        "a"
      ],
      [
        "sp",
        "i"
      ],
      [
        "sp",
        "ak"
      ],
      [
        "go",
        "b"
      ],
      [
        "go",
        "o"
      ],
      [
        "ru",
        "l"
      ],
      [
        "fe",
        "l"
      ],
      [
        "fe",
        "t"
      ],
      [
        "ca",
        "use"
      ],
      [
        "ma",
        "does"
      ],
      [
        "ne",
        "i"
      ],
      [
        "ne",
        "y"
      ],
      [
        "so",
        "m"
      ],
      [
        "so",
        "o"
      ],
      [
        "wor",
        "l"
      ],
      [
        "him",
        "s"
      ],
      [
        "him",
        "se"
      ],
      [
        "him",
        "sel"
      ],
      [
        "ain",
        "st"
      ],
      [
        "we",
        "e"
      ],
      [
        "cla",
        "p"
      ],
      [
        "im",
        "s"
      ],
      [
        "im",
        "self"
      ],
      [
        "el",
        "y"
      ],
      [
        "hou",
        "s"
      ],
      [
        "ran",
        "ce"
      ],
      [
        "con",
        "clu"
      ],
      [
        "who",
        "l"
      ],
      [
        "who",
        "s"
      ],
      [
        "wo",
        "m"
      ],
      [
        "wo",
        "ma"
      ],
      [
        "wit",
        "c"
      ],
      [
        "thou",
        "gh"
      ],
      [
        "bar",
        "ga"
      ],
      [
        "run",
        "n"
      ],
      [
        "up",
        "o"
      ],
      [
        "bl",
        "ins"
      ],
      [
        "ct",
        "ure"
      ],
      [
        "mar",
        "r"
      ],
      [
        "ste",
        "a"
      ],
      [
        "ste",
        "e"
      ],
      [
        "ste",
        "al"
      ],
      [
        "gain",
        "st"
      ],
      [
        "break",
        "i"
      ],
      [
        "break",
        "in"
      ],
      [
        "fo",
        "o"
      ],
      [
        "bu",
        "f"
      ],
      [
        "Fa",
        "i"
      ],
      [
        "Fa",
        "it"
      ],
      [
        "eak",
        "ing"
      ],
      [
        "din",
        "n"
      ],
      [
        "din",
        "ne"
      ],
      [
        "fri",
        "e"
      ],
      [
        "fri",
        "en"
      ],
      [
        "nat",
        "u"
      ],
      [
        "nat",
        "ur"
      ],
      [
        "por",
        "t"
      ],
      [
        "por",
        "te"
      ],
      [
        "pur",
        "s"
      ],
      [
        "pur",
        "cha"
      ],
      [
        "sin",
        "c"
      ],
      [
        "again",
        "s"
      ],
      [
        "count",
        "e"
      ],
      [
        "rever",
        "e"
      ],
      [
        "ho",
        "le"
      ],
      [
        "ho",
        "leric"
      ],
      [
        "di",
        "gal"
      ],
      [
        "ol",
        "eric"
      ],
      [
        "bi",
        "es"
      ],
      [
        "Lu",
        "c"
      ],
      [
        "ex",
        "pe"
      ],
      [
        "pit",
        "i"
      ],
      [
        "pit",
        "il"
      ],
      [
        "bes",
        "id"
      ],
      [
        "ef",
        "fe"
      ],
      [
        "dur",
        "an"
      ],
      [
        "gre",
        "a"
      ],
      [
        "kit",
        "c"
      ],
      [
        "kit",
        "ch"
      ],
      [
        "kit",
        "che"
      ],
      [
        "mer",
        "r"
      ],
      [
        "gent",
        "l"
      ],
      [
        "llow",
        "ers"
      ],
      [
        "bell",
        "ished"
      ],
      [
        "chol",
        "er"
      ],
      [
        "chol",
        "eri"
      ],
      [
        "ban",
        "k"
      ],
      [
        "ban",
        "kru"
      ],
      [
        "app",
        "ar"
      ],
      [
        "dg",
        "ment"
      ],
      [
        "reak",
        "ing"
      ],
      [
        "CI",
        "ANA"
      ],
      [
        "fu",
        "lf"
      ],
      [
        "pea",
        "co"
      ],
      [
        "Ep",
        "id"
      ],
      [
        "cay",
        "ed"
      ],
      [
        "den",
        "i"
      ],
      [
        "fra",
        "u"
      ],
      [
        "ped",
        "ition"
      ],
      [
        "sc",
        "ant"
      ],
      [
        "str",
        "on"
      ],
      [
        "dem",
        "ption"
      ],
      [
        "sam",
        "um"
      ],
      [
        "iten",
        "ess"
      ],
      [
        "heri",
        "cal"
      ],
      [
        "vet",
        "ous"
      ],
      [
        "idam",
        "num"
      ],
      [
        "clin",
        "ing"
      ],
      [
        "waf",
        "ta"
      ],
      [
        "arma",
        "do"
      ],
      [
        "embell",
        "is"
      ],
      [
        "hin",
        "k"
      ],
      [
        "hin",
        "ks"
      ],
      [
        "te",
        "el"
      ],
      [
        "ga",
        "v"
      ],
      [
        "air",
        "y"
      ],
      [
        "Mist",
        "r"
      ],
      [
        "Mist",
        "re"
      ],
      [
        "Mist",
        "res"
      ],
      [
        "lon",
        "ge"
      ],
      [
        "abo",
        "a"
      ],
      [
        "abo",
        "ar"
      ],
      [
        "aim",
        "s"
      ],
      [
        "fir",
        "st"
      ],
      [
        "ano",
        "th"
      ],
      [
        "ano",
        "the"
      ],
      [
        "laim",
        "s"
      ],
      [
        "marri",
        "a"
      ],
      [
        "marri",
        "ag"
      ],
      [
        "trans",
        "f"
      ],
      [
        "trans",
        "fo"
      ],
      [
        "hould",
        "er"
      ],
      [
        "fou",
        "n"
      ],
      [
        "hor",
        "s"
      ],
      [
        "seas",
        "o"
      ],
      [
        "reas",
        "o"
      ],
      [
        "quar",
        "ter"
      ],
      [
        "quart",
        "e"
      ],
      [
        "besi",
        "de"
      ],
      [
        "Centa",
        "u"
      ],
      [
        "Cer",
        "ta"
      ],
      [
        "B",
        "a"
      ],
      [
        "B",
        "l"
      ],
      [
        "B",
        "r"
      ],
      [
        "B",
        "re"
      ],
      [
        "B",
        "as"
      ],
      [
        "B",
        "lo"
      ],
      [
        "B",
        "low"
      ],
      [
        "B",
        "rea"
      ],
      [
        "C",
        "o"
      ],
      [
        "C",
        "om"
      ],
      [
        "D",
        "ows"
      ],
      [
        "E",
        "it"
      ],
      [
        "E",
        "ith"
      ],
      [
        "E",
        "pi"
      ],
      [
        "F",
        "l"
      ],
      [
        "F",
        "r"
      ],
      [
        "F",
        "at"
      ],
      [
        "F",
        "ra"
      ],
      [
        "F",
        "ath"
      ],
      [
        "H",
        "a"
      ],
      [
        "H",
        "at"
      ],
      [
        "H",
        "ol"
      ],
      [
        "H",
        "om"
      ],
      [
        "I",
        "ANA"
      ],
      [
        "L",
        "es"
      ],
      [
        "M",
        "o"
      ],
      [
        "M",
        "any"
      ],
      [
        "M",
        "om"
      ],
      [
        "N",
        "A"
      ],
      [
        "N",
        "e"
      ],
      [
        "N",
        "el"
      ],
      [
        "O",
        "u"
      ],
      [
        "P",
        "a"
      ],
      [
        "P",
        "r"
      ],
      [
        "R",
        "u"
      ],
      [
        "S",
        "a"
      ],
      [
        "S",
        "c"
      ],
      [
        "S",
        "u"
      ],
      [
        "S",
        "ur"
      ],
      [
        "S",
        "co"
      ],
      [
        "S",
        "con"
      ],
      [
        "S",
        "war"
      ],
      [
        "S",
        "wa"
      ],
      [
        "S",
        "conc"
      ],
      [
        "T",
        "a"
      ],
      [
        "T",
        "ar"
      ],
      [
        "U",
        "p"
      ],
      [
        "U",
        "po"
      ],
      [
        "U",
        "CIANA"
      ],
      [
        "W",
        "a"
      ],
      [
        "W",
        "her"
      ],
      [
        "W",
        "il"
      ],
      [
        "W",
        "el"
      ],
      [
        "Y",
        "O"
      ],
      [
        "Y",
        "e"
      ],
      [
        "a",
        "q"
      ],
      [
        "a",
        "il"
      ],
      [
        "a",
        "qu"
      ],
      [
        "a",
        "use"
      ],
      [
        "a",
        "gs"
      ],
      [
        "a",
        "ws"
      ],
      [
        "a",
        "pon"
      ],
      [
        "a",
        "bel"
      ],
      [
        "a",
        "ges"
      ],
      [
        "a",
        "cock"
      ],
      [
        "a",
        "does"
      ],
      [
        "a",
        "unts"
      ],
      [
        "a",
        "ughtage"
      ],
      [
        "a",
        "ftage"
      ],
      [
        "a",
        "ving"
      ],
      [
        "b",
        "ro"
      ],
      [
        "b",
        "ri"
      ],
      [
        "b",
        "out"
      ],
      [
        "b",
        "ring"
      ],
      [
        "b",
        "loo"
      ],
      [
        "c",
        "anted"
      ],
      [
        "c",
        "lea"
      ],
      [
        "d",
        "y"
      ],
      [
        "d",
        "ow"
      ],
      [
        "d",
        "ise"
      ],
      [
        "d",
        "ers"
      ],
      [
        "d",
        "iot"
      ],
      [
        "d",
        "ition"
      ],
      [
        "d",
        "riana"
      ],
      [
        "e",
        "w"
      ],
      [
        "e",
        "th"
      ],
      [
        "e",
        "in"
      ],
      [
        "e",
        "se"
      ],
      [
        "e",
        "of"
      ],
      [
        "e",
        "ck"
      ],
      [
        "e",
        "ed"
      ],
      [
        "e",
        "ard"
      ],
      [
        "e",
        "men"
      ],
      [
        "e",
        "thing"
      ],
      [
        "e",
        "ks"
      ],
      [
        "e",
        "ff"
      ],
      [
        "e",
        "ans"
      ],
      [
        "e",
        "head"
      ],
      [
        "e",
        "ave"
      ],
      [
        "e",
        "um"
      ],
      [
        "e",
        "hind"
      ],
      [
        "e",
        "ither"
      ],
      [
        "e",
        "ms"
      ],
      [
        "e",
        "ather"
      ],
      [
        "e",
        "thinks"
      ],
      [
        "e",
        "ase"
      ],
      [
        "e",
        "bt"
      ],
      [
        "e",
        "ads"
      ],
      [
        "e",
        "eps"
      ],
      [
        "e",
        "aler"
      ],
      [
        "e",
        "aling"
      ],
      [
        "e",
        "athers"
      ],
      [
        "e",
        "asure"
      ],
      [
        "e",
        "liver"
      ],
      [
        "e",
        "cause"
      ],
      [
        "e",
        "cayed"
      ],
      [
        "e",
        "demption"
      ],
      [
        "e",
        "clining"
      ],
      [
        "f",
        "s"
      ],
      [
        "f",
        "is"
      ],
      [
        "f",
        "as"
      ],
      [
        "f",
        "le"
      ],
      [
        "f",
        "lo"
      ],
      [
        "f",
        "il"
      ],
      [
        "f",
        "fect"
      ],
      [
        "f",
        "loo"
      ],
      [
        "g",
        "at"
      ],
      [
        "g",
        "on"
      ],
      [
        "g",
        "arm"
      ],
      [
        "g",
        "ue"
      ],
      [
        "g",
        "ment"
      ],
      [
        "g",
        "row"
      ],
      [
        "h",
        "u"
      ],
      [
        "h",
        "ither"
      ],
      [
        "h",
        "tage"
      ],
      [
        "h",
        "iteness"
      ],
      [
        "i",
        "ver"
      ],
      [
        "i",
        "de"
      ],
      [
        "i",
        "cal"
      ],
      [
        "i",
        "ef"
      ],
      [
        "i",
        "kes"
      ],
      [
        "i",
        "vy"
      ],
      [
        "i",
        "ana"
      ],
      [
        "i",
        "ory"
      ],
      [
        "i",
        "wig"
      ],
      [
        "i",
        "ffs"
      ],
      [
        "i",
        "berty"
      ],
      [
        "i",
        "viner"
      ],
      [
        "i",
        "cture"
      ],
      [
        "j",
        "ol"
      ],
      [
        "k",
        "y"
      ],
      [
        "k",
        "il"
      ],
      [
        "l",
        "m"
      ],
      [
        "l",
        "er"
      ],
      [
        "l",
        "ast"
      ],
      [
        "l",
        "ing"
      ],
      [
        "l",
        "ue"
      ],
      [
        "l",
        "ins"
      ],
      [
        "l",
        "ity"
      ],
      [
        "l",
        "esh"
      ],
      [
        "l",
        "ways"
      ],
      [
        "l",
        "ished"
      ],
      [
        "l",
        "ining"
      ],
      [
        "l",
        "though"
      ],
      [
        "m",
        "b"
      ],
      [
        "m",
        "n"
      ],
      [
        "m",
        "p"
      ],
      [
        "m",
        "is"
      ],
      [
        "m",
        "al"
      ],
      [
        "m",
        "bo"
      ],
      [
        "m",
        "ol"
      ],
      [
        "m",
        "mand"
      ],
      [
        "m",
        "num"
      ],
      [
        "m",
        "pass"
      ],
      [
        "m",
        "ption"
      ],
      [
        "m",
        "bellished"
      ],
      [
        "n",
        "on"
      ],
      [
        "n",
        "ied"
      ],
      [
        "n",
        "ning"
      ],
      [
        "n",
        "ness"
      ],
      [
        "n",
        "vey"
      ],
      [
        "n",
        "sue"
      ],
      [
        "n",
        "jure"
      ],
      [
        "n",
        "sconce"
      ],
      [
        "n",
        "ruly"
      ],
      [
        "n",
        "cles"
      ],
      [
        "n",
        "krupt"
      ],
      [
        "n",
        "clude"
      ],
      [
        "n",
        "deed"
      ],
      [
        "n",
        "sform"
      ],
      [
        "n",
        "sformed"
      ],
      [
        "n",
        "gel"
      ],
      [
        "o",
        "e"
      ],
      [
        "o",
        "g"
      ],
      [
        "o",
        "i"
      ],
      [
        "o",
        "v"
      ],
      [
        "o",
        "y"
      ],
      [
        "o",
        "the"
      ],
      [
        "o",
        "ve"
      ],
      [
        "o",
        "ing"
      ],
      [
        "o",
        "lf"
      ],
      [
        "o",
        "ss"
      ],
      [
        "o",
        "land"
      ],
      [
        "o",
        "ys"
      ],
      [
        "o",
        "gs"
      ],
      [
        "o",
        "cks"
      ],
      [
        "o",
        "its"
      ],
      [
        "o",
        "ah"
      ],
      [
        "o",
        "msday"
      ],
      [
        "o",
        "xcomb"
      ],
      [
        "o",
        "llity"
      ],
      [
        "o",
        "blins"
      ],
      [
        "o",
        "llowers"
      ],
      [
        "o",
        "vetous"
      ],
      [
        "p",
        "s"
      ],
      [
        "p",
        "ain"
      ],
      [
        "p",
        "board"
      ],
      [
        "p",
        "pear"
      ],
      [
        "p",
        "ends"
      ],
      [
        "p",
        "hires"
      ],
      [
        "p",
        "herical"
      ],
      [
        "p",
        "idamnum"
      ],
      [
        "r",
        "in"
      ],
      [
        "r",
        "at"
      ],
      [
        "r",
        "st"
      ],
      [
        "r",
        "go"
      ],
      [
        "r",
        "ain"
      ],
      [
        "r",
        "ass"
      ],
      [
        "r",
        "self"
      ],
      [
        "r",
        "ks"
      ],
      [
        "r",
        "gain"
      ],
      [
        "r",
        "sake"
      ],
      [
        "r",
        "rested"
      ],
      [
        "r",
        "tal"
      ],
      [
        "r",
        "ment"
      ],
      [
        "r",
        "ries"
      ],
      [
        "r",
        "ted"
      ],
      [
        "r",
        "ris"
      ],
      [
        "r",
        "row"
      ],
      [
        "r",
        "med"
      ],
      [
        "r",
        "onger"
      ],
      [
        "r",
        "rant"
      ],
      [
        "r",
        "nest"
      ],
      [
        "r",
        "ridge"
      ],
      [
        "r",
        "adise"
      ],
      [
        "r",
        "chase"
      ],
      [
        "r",
        "mands"
      ],
      [
        "r",
        "ns"
      ],
      [
        "r",
        "lasting"
      ],
      [
        "r",
        "vants"
      ],
      [
        "r",
        "renness"
      ],
      [
        "r",
        "buncles"
      ],
      [
        "r",
        "madoes"
      ],
      [
        "s",
        "is"
      ],
      [
        "s",
        "ing"
      ],
      [
        "s",
        "co"
      ],
      [
        "s",
        "al"
      ],
      [
        "s",
        "ca"
      ],
      [
        "s",
        "con"
      ],
      [
        "s",
        "wo"
      ],
      [
        "s",
        "day"
      ],
      [
        "s",
        "band"
      ],
      [
        "s",
        "can"
      ],
      [
        "s",
        "sages"
      ],
      [
        "s",
        "conc"
      ],
      [
        "t",
        "x"
      ],
      [
        "t",
        "an"
      ],
      [
        "t",
        "one"
      ],
      [
        "t",
        "le"
      ],
      [
        "t",
        "ly"
      ],
      [
        "t",
        "ore"
      ],
      [
        "t",
        "ire"
      ],
      [
        "t",
        "ries"
      ],
      [
        "t",
        "ten"
      ],
      [
        "t",
        "uff"
      ],
      [
        "t",
        "ous"
      ],
      [
        "t",
        "ton"
      ],
      [
        "t",
        "ween"
      ],
      [
        "t",
        "iless"
      ],
      [
        "t",
        "ays"
      ],
      [
        "t",
        "lemen"
      ],
      [
        "t",
        "tocks"
      ],
      [
        "u",
        "a"
      ],
      [
        "u",
        "de"
      ],
      [
        "u",
        "le"
      ],
      [
        "u",
        "sh"
      ],
      [
        "u",
        "ly"
      ],
      [
        "u",
        "ls"
      ],
      [
        "u",
        "ess"
      ],
      [
        "u",
        "dge"
      ],
      [
        "u",
        "its"
      ],
      [
        "u",
        "lfil"
      ],
      [
        "u",
        "bled"
      ],
      [
        "u",
        "bies"
      ],
      [
        "u",
        "dgment"
      ],
      [
        "w",
        "r"
      ],
      [
        "w",
        "is"
      ],
      [
        "w",
        "es"
      ],
      [
        "w",
        "ri"
      ],
      [
        "w",
        "al"
      ],
      [
        "w",
        "sabel"
      ],
      [
        "x",
        "pect"
      ],
      [
        "x",
        "ploits"
      ],
      [
        "x",
        "pedition"
      ],
      [
        "y",
        "me"
      ],
      [
        "y",
        "ed"
      ],
      [
        "th",
        "u"
      ],
      [
        "th",
        "out"
      ],
      [
        "er",
        "g"
      ],
      [
        "er",
        "ing"
      ],
      [
        "er",
        "ent"
      ],
      [
        "er",
        "ence"
      ],
      [
        "er",
        "lasting"
      ],
      [
        "er",
        "vants"
      ],
      [
        "an",
        "k"
      ],
      [
        "an",
        "krupt"
      ],
      [
        "in",
        "ch"
      ],
      [
        "in",
        "ter"
      ],
      [
        "ou",
        "ls"
      ],
      [
        "ou",
        "bled"
      ],
      [
        "at",
        "an"
      ],
      [
        "at",
        "ion"
      ],
      [
        "the",
        "f"
      ],
      [
        "the",
        "s"
      ],
      [
        "he",
        "i"
      ],
      [
        "he",
        "se"
      ],
      [
        "he",
        "el"
      ],
      [
        "he",
        "ft"
      ],
      [
        "he",
        "um"
      ],
      [
        "me",
        "e"
      ],
      [
        "me",
        "t"
      ],
      [
        "me",
        "th"
      ],
      [
        "me",
        "ly"
      ],
      [
        "me",
        "thing"
      ],
      [
        "me",
        "thin"
      ],
      [
        "me",
        "think"
      ],
      [
        "me",
        "thi"
      ],
      [
        "or",
        "m"
      ],
      [
        "or",
        "sake"
      ],
      [
        "or",
        "ris"
      ],
      [
        "or",
        "med"
      ],
      [
        "or",
        "ridge"
      ],
      [
        "st",
        "i"
      ],
      [
        "st",
        "s"
      ],
      [
        "st",
        "or"
      ],
      [
        "st",
        "on"
      ],
      [
        "st",
        "ro"
      ],
      [
        "st",
        "il"
      ],
      [
        "st",
        "ly"
      ],
      [
        "st",
        "ows"
      ],
      [
        "st",
        "ers"
      ],
      [
        "st",
        "oo"
      ],
      [
        "ar",
        "r"
      ],
      [
        "ar",
        "s"
      ],
      [
        "ar",
        "re"
      ],
      [
        "ar",
        "rest"
      ],
      [
        "ar",
        "ks"
      ],
      [
        "ar",
        "gain"
      ],
      [
        "ar",
        "ment"
      ],
      [
        "ar",
        "ries"
      ],
      [
        "ar",
        "mad"
      ],
      [
        "ar",
        "row"
      ],
      [
        "ar",
        "rant"
      ],
      [
        "ar",
        "ings"
      ],
      [
        "ar",
        "nest"
      ],
      [
        "ar",
        "adise"
      ],
      [
        "ar",
        "res"
      ],
      [
        "ar",
        "reste"
      ],
      [
        "ar",
        "renness"
      ],
      [
        "ar",
        "buncles"
      ],
      [
        "ar",
        "acks"
      ],
      [
        "on",
        "er"
      ],
      [
        "on",
        "vey"
      ],
      [
        "on",
        "jure"
      ],
      [
        "on",
        "clude"
      ],
      [
        "on",
        "drous"
      ],
      [
        "ir",
        "es"
      ],
      [
        "ir",
        "ing"
      ],
      [
        "ir",
        "ed"
      ],
      [
        "ll",
        "ast"
      ],
      [
        "ll",
        "ed"
      ],
      [
        "ll",
        "eys"
      ],
      [
        "ll",
        "ished"
      ],
      [
        "is",
        "on"
      ],
      [
        "ha",
        "b"
      ],
      [
        "ha",
        "u"
      ],
      [
        "ha",
        "se"
      ],
      [
        "ha",
        "ke"
      ],
      [
        "ha",
        "pe"
      ],
      [
        "ha",
        "un"
      ],
      [
        "ha",
        "bi"
      ],
      [
        "ha",
        "unt"
      ],
      [
        "ha",
        "lky"
      ],
      [
        "se",
        "t"
      ],
      [
        "se",
        "th"
      ],
      [
        "to",
        "l"
      ],
      [
        "to",
        "w"
      ],
      [
        "to",
        "od"
      ],
      [
        "to",
        "ws"
      ],
      [
        "it",
        "x"
      ],
      [
        "it",
        "ten"
      ],
      [
        "it",
        "iless"
      ],
      [
        "her",
        "s"
      ],
      [
        "her",
        "ry"
      ],
      [
        "re",
        "at"
      ],
      [
        "re",
        "ll"
      ],
      [
        "re",
        "of"
      ],
      [
        "re",
        "ast"
      ],
      [
        "re",
        "de"
      ],
      [
        "re",
        "nt"
      ],
      [
        "re",
        "ly"
      ],
      [
        "re",
        "head"
      ],
      [
        "re",
        "ase"
      ],
      [
        "re",
        "ature"
      ],
      [
        "for",
        "s"
      ],
      [
        "for",
        "t"
      ],
      [
        "for",
        "sa"
      ],
      [
        "for",
        "sak"
      ],
      [
        "ay",
        "ed"
      ],
      [
        "be",
        "e"
      ],
      [
        "be",
        "h"
      ],
      [
        "be",
        "y"
      ],
      [
        "be",
        "hi"
      ],
      [
        "be",
        "sp"
      ],
      [
        "be",
        "ad"
      ],
      [
        "be",
        "hin"
      ],
      [
        "be",
        "spe"
      ],
      [
        "be",
        "spea"
      ],
      [
        "ld",
        "ers"
      ],
      [
        "ve",
        "i"
      ],
      [
        "ve",
        "n"
      ],
      [
        "es",
        "peak"
      ],
      [
        "en",
        "s"
      ],
      [
        "en",
        "su"
      ],
      [
        "en",
        "ess"
      ],
      [
        "en",
        "ied"
      ],
      [
        "en",
        "ness"
      ],
      [
        "as",
        "p"
      ],
      [
        "as",
        "su"
      ],
      [
        "as",
        "sages"
      ],
      [
        "ith",
        "out"
      ],
      [
        "ut",
        "ton"
      ],
      [
        "ut",
        "tocks"
      ],
      [
        "ro",
        "th"
      ],
      [
        "ro",
        "ss"
      ],
      [
        "ro",
        "ws"
      ],
      [
        "ro",
        "digal"
      ],
      [
        "ast",
        "e"
      ],
      [
        "ast",
        "s"
      ],
      [
        "ast",
        "ly"
      ],
      [
        "ch",
        "i"
      ],
      [
        "ke",
        "e"
      ],
      [
        "ke",
        "ep"
      ],
      [
        "am",
        "a"
      ],
      [
        "am",
        "n"
      ],
      [
        "am",
        "p"
      ],
      [
        "am",
        "num"
      ],
      [
        "li",
        "v"
      ],
      [
        "li",
        "be"
      ],
      [
        "li",
        "ve"
      ],
      [
        "li",
        "ffs"
      ],
      [
        "li",
        "bert"
      ],
      [
        "ur",
        "st"
      ],
      [
        "ur",
        "self"
      ],
      [
        "ur",
        "tal"
      ],
      [
        "ur",
        "ance"
      ],
      [
        "ur",
        "chase"
      ],
      [
        "ver",
        "ent"
      ],
      [
        "ver",
        "ted"
      ],
      [
        "ver",
        "ence"
      ],
      [
        "ver",
        "lasting"
      ],
      [
        "ould",
        "ers"
      ],
      [
        "hi",
        "ch"
      ],
      [
        "hi",
        "ef"
      ],
      [
        "ri",
        "d"
      ],
      [
        "ri",
        "m"
      ],
      [
        "ri",
        "me"
      ],
      [
        "ri",
        "ght"
      ],
      [
        "ri",
        "cal"
      ],
      [
        "ri",
        "kes"
      ],
      [
        "ri",
        "vy"
      ],
      [
        "ri",
        "ory"
      ],
      [
        "ri",
        "wig"
      ],
      [
        "ow",
        "e"
      ],
      [
        "ow",
        "l"
      ],
      [
        "ow",
        "ers"
      ],
      [
        "ow",
        "sabel"
      ],
      [
        "she",
        "d"
      ],
      [
        "de",
        "b"
      ],
      [
        "de",
        "l"
      ],
      [
        "de",
        "al"
      ],
      [
        "de",
        "ca"
      ],
      [
        "de",
        "cl"
      ],
      [
        "de",
        "cli"
      ],
      [
        "co",
        "l"
      ],
      [
        "co",
        "v"
      ],
      [
        "wh",
        "it"
      ],
      [
        "wh",
        "ite"
      ],
      [
        "ght",
        "age"
      ],
      [
        "aster",
        "s"
      ],
      [
        "le",
        "at"
      ],
      [
        "le",
        "ath"
      ],
      [
        "le",
        "ys"
      ],
      [
        "al",
        "f"
      ],
      [
        "al",
        "m"
      ],
      [
        "al",
        "w"
      ],
      [
        "al",
        "th"
      ],
      [
        "al",
        "way"
      ],
      [
        "al",
        "wa"
      ],
      [
        "al",
        "tho"
      ],
      [
        "al",
        "samum"
      ],
      [
        "la",
        "d"
      ],
      [
        "la",
        "i"
      ],
      [
        "la",
        "ck"
      ],
      [
        "la",
        "iner"
      ],
      [
        "la",
        "pper"
      ],
      [
        "nt",
        "le"
      ],
      [
        "nt",
        "ed"
      ],
      [
        "nt",
        "ain"
      ],
      [
        "nt",
        "ries"
      ],
      [
        "nt",
        "ermands"
      ],
      [
        "nt",
        "lemen"
      ],
      [
        "sp",
        "h"
      ],
      [
        "sp",
        "r"
      ],
      [
        "sp",
        "he"
      ],
      [
        "sp",
        "her"
      ],
      [
        "sp",
        "en"
      ],
      [
        "sp",
        "ri"
      ],
      [
        "sp",
        "end"
      ],
      [
        "here",
        "of"
      ],
      [
        "go",
        "e"
      ],
      [
        "go",
        "i"
      ],
      [
        "go",
        "in"
      ],
      [
        "ell",
        "ow"
      ],
      [
        "ell",
        "ished"
      ],
      [
        "lo",
        "be"
      ],
      [
        "lo",
        "ck"
      ],
      [
        "No",
        "a"
      ],
      [
        "No",
        "th"
      ],
      [
        "No",
        "thin"
      ],
      [
        "No",
        "thi"
      ],
      [
        "ru",
        "b"
      ],
      [
        "ru",
        "e"
      ],
      [
        "ru",
        "s"
      ],
      [
        "ru",
        "pt"
      ],
      [
        "ru",
        "dge"
      ],
      [
        "od",
        "s"
      ],
      [
        "od",
        "y"
      ],
      [
        "od",
        "igal"
      ],
      [
        "nd",
        "rous"
      ],
      [
        "il",
        "s"
      ],
      [
        "sa",
        "i"
      ],
      [
        "sa",
        "p"
      ],
      [
        "sa",
        "v"
      ],
      [
        "fe",
        "e"
      ],
      [
        "fe",
        "at"
      ],
      [
        "fe",
        "ath"
      ],
      [
        "fe",
        "ather"
      ],
      [
        "ca",
        "p"
      ],
      [
        "ca",
        "po"
      ],
      [
        "id",
        "i"
      ],
      [
        "id",
        "ge"
      ],
      [
        "id",
        "io"
      ],
      [
        "hen",
        "c"
      ],
      [
        "now",
        "s"
      ],
      [
        "ther",
        "s"
      ],
      [
        "with",
        "o"
      ],
      [
        "with",
        "ou"
      ],
      [
        "ed",
        "ition"
      ],
      [
        "ma",
        "c"
      ],
      [
        "ma",
        "z"
      ],
      [
        "ne",
        "a"
      ],
      [
        "ne",
        "c"
      ],
      [
        "ne",
        "it"
      ],
      [
        "ne",
        "ith"
      ],
      [
        "your",
        "s"
      ],
      [
        "your",
        "se"
      ],
      [
        "your",
        "sel"
      ],
      [
        "ind",
        "s"
      ],
      [
        "so",
        "one"
      ],
      [
        "wor",
        "e"
      ],
      [
        "wor",
        "t"
      ],
      [
        "ak",
        "s"
      ],
      [
        "ak",
        "es"
      ],
      [
        "hat",
        "c"
      ],
      [
        "us",
        "band"
      ],
      [
        "ter",
        "ing"
      ],
      [
        "ter",
        "mands"
      ],
      [
        "bo",
        "g"
      ],
      [
        "bo",
        "t"
      ],
      [
        "ain",
        "er"
      ],
      [
        "bre",
        "as"
      ],
      [
        "urn",
        "s"
      ],
      [
        "fore",
        "h"
      ],
      [
        "fore",
        "he"
      ],
      [
        "fore",
        "hea"
      ],
      [
        "we",
        "et"
      ],
      [
        "we",
        "ats"
      ],
      [
        "et",
        "s"
      ],
      [
        "et",
        "ch"
      ],
      [
        "et",
        "ous"
      ],
      [
        "et",
        "ween"
      ],
      [
        "mu",
        "c"
      ],
      [
        "mu",
        "m"
      ],
      [
        "cla",
        "pp"
      ],
      [
        "ure",
        "ly"
      ],
      [
        "hip",
        "board"
      ],
      [
        "im",
        "bo"
      ],
      [
        "el",
        "t"
      ],
      [
        "el",
        "ay"
      ],
      [
        "ere",
        "of"
      ],
      [
        "io",
        "l"
      ],
      [
        "fa",
        "c"
      ],
      [
        "fa",
        "it"
      ],
      [
        "na",
        "i"
      ],
      [
        "na",
        "ve"
      ],
      [
        "hou",
        "n"
      ],
      [
        "hou",
        "t"
      ],
      [
        "hou",
        "gh"
      ],
      [
        "art",
        "ar"
      ],
      [
        "ran",
        "sform"
      ],
      [
        "ran",
        "sformed"
      ],
      [
        "con",
        "v"
      ],
      [
        "con",
        "ve"
      ],
      [
        "con",
        "cl"
      ],
      [
        "cha",
        "l"
      ],
      [
        "cha",
        "lk"
      ],
      [
        "sha",
        "k"
      ],
      [
        "sha",
        "p"
      ],
      [
        "vil",
        "s"
      ],
      [
        "ta",
        "ll"
      ],
      [
        "ta",
        "llo"
      ],
      [
        "wo",
        "l"
      ],
      [
        "ls",
        "amum"
      ],
      [
        "ess",
        "ing"
      ],
      [
        "dam",
        "num"
      ],
      [
        "bar",
        "g"
      ],
      [
        "bar",
        "r"
      ],
      [
        "bar",
        "re"
      ],
      [
        "run",
        "ni"
      ],
      [
        "when",
        "c"
      ],
      [
        "ra",
        "g"
      ],
      [
        "ra",
        "th"
      ],
      [
        "ra",
        "the"
      ],
      [
        "ra",
        "ws"
      ],
      [
        "ra",
        "cks"
      ],
      [
        "ra",
        "ughtage"
      ],
      [
        "ss",
        "ing"
      ],
      [
        "ss",
        "ur"
      ],
      [
        "all",
        "e"
      ],
      [
        "all",
        "ast"
      ],
      [
        "all",
        "ow"
      ],
      [
        "all",
        "ed"
      ],
      [
        "all",
        "ey"
      ],
      [
        "ore",
        "head"
      ],
      [
        "ome",
        "thing"
      ],
      [
        "up",
        "t"
      ],
      [
        "bl",
        "u"
      ],
      [
        "bl",
        "es"
      ],
      [
        "bl",
        "ow"
      ],
      [
        "pr",
        "ites"
      ],
      [
        "ans",
        "form"
      ],
      [
        "ans",
        "formed"
      ],
      [
        "ist",
        "er"
      ],
      [
        "rou",
        "g"
      ],
      [
        "rou",
        "ght"
      ],
      [
        "rou",
        "bled"
      ],
      [
        "see",
        "m"
      ],
      [
        "spo",
        "i"
      ],
      [
        "ount",
        "er"
      ],
      [
        "ount",
        "ain"
      ],
      [
        "ount",
        "ries"
      ],
      [
        "ount",
        "ermands"
      ],
      [
        "call",
        "e"
      ],
      [
        "name",
        "l"
      ],
      [
        "beast",
        "l"
      ],
      [
        "there",
        "f"
      ],
      [
        "there",
        "o"
      ],
      [
        "there",
        "for"
      ],
      [
        "there",
        "fo"
      ],
      [
        "plain",
        "e"
      ],
      [
        "fo",
        "l"
      ],
      [
        "fo",
        "ll"
      ],
      [
        "fo",
        "llo"
      ],
      [
        "ent",
        "e"
      ],
      [
        "ent",
        "le"
      ],
      [
        "ent",
        "lemen"
      ],
      [
        "est",
        "ows"
      ],
      [
        "hy",
        "me"
      ],
      [
        "com",
        "m"
      ],
      [
        "com",
        "p"
      ],
      [
        "com",
        "man"
      ],
      [
        "com",
        "ma"
      ],
      [
        "com",
        "pas"
      ],
      [
        "com",
        "pa"
      ],
      [
        "Do",
        "s"
      ],
      [
        "wer",
        "s"
      ],
      [
        "pp",
        "hires"
      ],
      [
        "pp",
        "arell"
      ],
      [
        "Fa",
        "the"
      ],
      [
        "eak",
        "s"
      ],
      [
        "pri",
        "d"
      ],
      [
        "pri",
        "o"
      ],
      [
        "pri",
        "v"
      ],
      [
        "pri",
        "or"
      ],
      [
        "eri",
        "cal"
      ],
      [
        "eri",
        "wig"
      ],
      [
        "car",
        "b"
      ],
      [
        "car",
        "r"
      ],
      [
        "car",
        "ri"
      ],
      [
        "car",
        "bu"
      ],
      [
        "car",
        "rie"
      ],
      [
        "fri",
        "g"
      ],
      [
        "fri",
        "gh"
      ],
      [
        "nat",
        "i"
      ],
      [
        "nat",
        "io"
      ],
      [
        "por",
        "r"
      ],
      [
        "pur",
        "c"
      ],
      [
        "pur",
        "ch"
      ],
      [
        "sin",
        "n"
      ],
      [
        "sin",
        "ne"
      ],
      [
        "ree",
        "ks"
      ],
      [
        "ship",
        "b"
      ],
      [
        "count",
        "r"
      ],
      [
        "count",
        "ri"
      ],
      [
        "count",
        "rie"
      ],
      [
        "rever",
        "t"
      ],
      [
        "rever",
        "te"
      ],
      [
        "ho",
        "e"
      ],
      [
        "ho",
        "p"
      ],
      [
        "ho",
        "s"
      ],
      [
        "ho",
        "es"
      ],
      [
        "Th",
        "u"
      ],
      [
        "Th",
        "it"
      ],
      [
        "Th",
        "ith"
      ],
      [
        "our",
        "self"
      ],
      [
        "un",
        "r"
      ],
      [
        "un",
        "s"
      ],
      [
        "un",
        "ru"
      ],
      [
        "un",
        "ning"
      ],
      [
        "un",
        "cles"
      ],
      [
        "un",
        "rul"
      ],
      [
        "pi",
        "c"
      ],
      [
        "pi",
        "k"
      ],
      [
        "eat",
        "s"
      ],
      [
        "eat",
        "ure"
      ],
      [
        "ever",
        "la"
      ],
      [
        "ever",
        "ent"
      ],
      [
        "ever",
        "ted"
      ],
      [
        "ever",
        "ence"
      ],
      [
        "So",
        "m"
      ],
      [
        "gr",
        "as"
      ],
      [
        "pit",
        "e"
      ],
      [
        "pit",
        "es"
      ],
      [
        "war",
        "r"
      ],
      [
        "war",
        "ran"
      ],
      [
        "war",
        "ra"
      ],
      [
        "dur",
        "a"
      ],
      [
        "dur",
        "s"
      ],
      [
        "gre",
        "as"
      ],
      [
        "pin",
        "c"
      ],
      [
        "ins",
        "c"
      ],
      [
        "ins",
        "co"
      ],
      [
        "ins",
        "con"
      ],
      [
        "ins",
        "conc"
      ],
      [
        "rit",
        "es"
      ],
      [
        "rit",
        "ten"
      ],
      [
        "tir",
        "i"
      ],
      [
        "tir",
        "in"
      ],
      [
        "ert",
        "y"
      ],
      [
        "ert",
        "ed"
      ],
      [
        "ert",
        "ain"
      ],
      [
        "lose",
        "t"
      ],
      [
        "some",
        "t"
      ],
      [
        "some",
        "th"
      ],
      [
        "some",
        "thin"
      ],
      [
        "some",
        "thi"
      ],
      [
        "atter",
        "ing"
      ],
      [
        "gentle",
        "m"
      ],
      [
        "gentle",
        "me"
      ],
      [
        "counter",
        "m"
      ],
      [
        "counter",
        "man"
      ],
      [
        "counter",
        "ma"
      ],
      [
        "counter",
        "mand"
      ],
      [
        "transfor",
        "me"
      ],
      [
        "thi",
        "e"
      ],
      [
        "wa",
        "ft"
      ],
      [
        "fi",
        "e"
      ],
      [
        "fi",
        "en"
      ],
      [
        "po",
        "o"
      ],
      [
        "po",
        "il"
      ],
      [
        "whe",
        "e"
      ],
      [
        "em",
        "b"
      ],
      [
        "em",
        "be"
      ],
      [
        "em",
        "bel"
      ],
      [
        "em",
        "ption"
      ],
      [
        "Ad",
        "r"
      ],
      [
        "ear",
        "n"
      ],
      [
        "ear",
        "s"
      ],
      [
        "ear",
        "ne"
      ],
      [
        "ear",
        "nes"
      ],
      [
        "tho",
        "s"
      ],
      [
        "bal",
        "s"
      ],
      [
        "bal",
        "sa"
      ],
      [
        "evil",
        "s"
      ],
      [
        "low",
        "ers"
      ],
      [
        "ood",
        "s"
      ],
      [
        "sk",
        "i"
      ],
      [
        "ten",
        "ess"
      ],
      [
        "unt",
        "er"
      ],
      [
        "unt",
        "ain"
      ],
      [
        "unt",
        "ries"
      ],
      [
        "unt",
        "ermands"
      ],
      [
        "mak",
        "i"
      ],
      [
        "mak",
        "in"
      ],
      [
        "ab",
        "ou"
      ],
      [
        "ab",
        "it"
      ],
      [
        "app",
        "a"
      ],
      [
        "app",
        "er"
      ],
      [
        "app",
        "are"
      ],
      [
        "app",
        "hires"
      ],
      [
        "mor",
        "r"
      ],
      [
        "mor",
        "ri"
      ],
      [
        "reak",
        "s"
      ],
      [
        "ap",
        "pe"
      ],
      [
        "ap",
        "pea"
      ],
      [
        "fl",
        "es"
      ],
      [
        "hus",
        "b"
      ],
      [
        "hus",
        "ba"
      ],
      [
        "hus",
        "ban"
      ],
      [
        "lu",
        "c"
      ],
      [
        "lu",
        "de"
      ],
      [
        "sou",
        "l"
      ],
      [
        "sou",
        "n"
      ],
      [
        "alk",
        "y"
      ],
      [
        "doo",
        "m"
      ],
      [
        "Be",
        "c"
      ],
      [
        "Ex",
        "p"
      ],
      [
        "Ex",
        "pe"
      ],
      [
        "Ju",
        "d"
      ],
      [
        "LU",
        "C"
      ],
      [
        "Sp",
        "a"
      ],
      [
        "Sp",
        "ai"
      ],
      [
        "cre",
        "a"
      ],
      [
        "cli",
        "f"
      ],
      [
        "cli",
        "ff"
      ],
      [
        "fu",
        "l"
      ],
      [
        "par",
        "i"
      ],
      [
        "par",
        "in"
      ],
      [
        "par",
        "ing"
      ],
      [
        "par",
        "ell"
      ],
      [
        "ris",
        "on"
      ],
      [
        "tro",
        "t"
      ],
      [
        "tri",
        "kes"
      ],
      [
        "win",
        "t"
      ],
      [
        "win",
        "te"
      ],
      [
        "whi",
        "c"
      ],
      [
        "ren",
        "ce"
      ],
      [
        "pea",
        "c"
      ],
      [
        "exp",
        "l"
      ],
      [
        "Par",
        "a"
      ],
      [
        "Pro",
        "d"
      ],
      [
        "Sat",
        "a"
      ],
      [
        "Swe",
        "e"
      ],
      [
        "bla",
        "c"
      ],
      [
        "cro",
        "s"
      ],
      [
        "cur",
        "t"
      ],
      [
        "cur",
        "ta"
      ],
      [
        "clo",
        "c"
      ],
      [
        "dru",
        "d"
      ],
      [
        "dru",
        "dg"
      ],
      [
        "fra",
        "ugh"
      ],
      [
        "gu",
        "es"
      ],
      [
        "gri",
        "m"
      ],
      [
        "glo",
        "b"
      ],
      [
        "kna",
        "v"
      ],
      [
        "nar",
        "r"
      ],
      [
        "nar",
        "ro"
      ],
      [
        "rhe",
        "u"
      ],
      [
        "rhy",
        "m"
      ],
      [
        "swe",
        "a"
      ],
      [
        "swe",
        "at"
      ],
      [
        "won",
        "dro"
      ],
      [
        "str",
        "ong"
      ],
      [
        "bet",
        "w"
      ],
      [
        "bet",
        "we"
      ],
      [
        "bet",
        "wee"
      ],
      [
        "lim",
        "b"
      ],
      [
        "cox",
        "c"
      ],
      [
        "cox",
        "co"
      ],
      [
        "cox",
        "com"
      ],
      [
        "sure",
        "l"
      ],
      [
        "div",
        "i"
      ],
      [
        "div",
        "in"
      ],
      [
        "div",
        "ine"
      ],
      [
        "Fran",
        "c"
      ],
      [
        "Po",
        "la"
      ],
      [
        "Tart",
        "a"
      ],
      [
        "brou",
        "g"
      ],
      [
        "brou",
        "gh"
      ],
      [
        "cher",
        "r"
      ],
      [
        "cree",
        "k"
      ],
      [
        "fell",
        "o"
      ],
      [
        "gar",
        "me"
      ],
      [
        "gar",
        "men"
      ],
      [
        "peri",
        "w"
      ],
      [
        "peri",
        "wi"
      ],
      [
        "sist",
        "e"
      ],
      [
        "trou",
        "b"
      ],
      [
        "trou",
        "bl"
      ],
      [
        "trou",
        "ble"
      ],
      [
        "writ",
        "t"
      ],
      [
        "writ",
        "te"
      ],
      [
        "meas",
        "u"
      ],
      [
        "meas",
        "ur"
      ],
      [
        "stri",
        "k"
      ],
      [
        "stri",
        "ke"
      ],
      [
        "best",
        "o"
      ],
      [
        "best",
        "ow"
      ],
      [
        "butto",
        "c"
      ],
      [
        "butto",
        "ck"
      ],
      [
        "deli",
        "v"
      ],
      [
        "deli",
        "ve"
      ],
      [
        "rubi",
        "e"
      ],
      [
        "sapp",
        "h"
      ],
      [
        "sapp",
        "hi"
      ],
      [
        "sapp",
        "hir"
      ],
      [
        "sapp",
        "hire"
      ],
      [
        "ball",
        "a"
      ],
      [
        "ball",
        "as"
      ],
      [
        "serv",
        "a"
      ],
      [
        "serv",
        "an"
      ],
      [
        "serv",
        "ant"
      ],
      [
        "pris",
        "o"
      ],
      [
        "cara",
        "c"
      ],
      [
        "cara",
        "ck"
      ],
      [
        "pict",
        "u"
      ],
      [
        "pict",
        "ur"
      ],
      [
        "Adri",
        "a"
      ],
      [
        "Adri",
        "an"
      ],
      [
        "Beca",
        "u"
      ],
      [
        "Beca",
        "us"
      ],
      [
        "Judg",
        "m"
      ],
      [
        "Judg",
        "me"
      ],
      [
        "Judg",
        "men"
      ],
      [
        "LUCI",
        "A"
      ],
      [
        "LUCI",
        "AN"
      ],
      [
        "joll",
        "i"
      ],
      [
        "joll",
        "it"
      ],
      [
        "mount",
        "a"
      ],
      [
        "mount",
        "ai"
      ],
      [
        "redem",
        "p"
      ],
      [
        "decay",
        "e"
      ],
      [
        "sprit",
        "e"
      ],
      [
        "gobl",
        "in"
      ],
      [
        "bless",
        "i"
      ],
      [
        "bless",
        "in"
      ],
      [
        "Exped",
        "i"
      ],
      [
        "Prodi",
        "g"
      ],
      [
        "Prodi",
        "ga"
      ],
      [
        "wond",
        "r"
      ],
      [
        "wond",
        "rou"
      ],
      [
        "batter",
        "i"
      ],
      [
        "batter",
        "in"
      ],
      [
        "declin",
        "i"
      ],
      [
        "declin",
        "in"
      ],
      [
        "covet",
        "ou"
      ],
      [
        "whiten",
        "e"
      ],
      [
        "whiten",
        "es"
      ],
      [
        "althou",
        "g"
      ],
      [
        "spheri",
        "c"
      ],
      [
        "spheri",
        "ca"
      ],
      [
        "barren",
        "n"
      ],
      [
        "barren",
        "ne"
      ],
      [
        "barren",
        "nes"
      ],
      [
        "follow",
        "e"
      ],
      [
        "follow",
        "er"
      ],
      [
        "carbun",
        "c"
      ],
      [
        "carbun",
        "cl"
      ],
      [
        "carbun",
        "cle"
      ],
      [
        "everl",
        "as"
      ],
      [
        "embell",
        "i"
      ],
      [
        "embell",
        "ish"
      ],
      [
        "balsam",
        "u"
      ],
      [
        "Epidam",
        "n"
      ],
      [
        "Epidam",
        "nu"
      ],
      [
        "om",
        "b"
      ],
      [
        "om",
        "mand"
      ],
      [
        "om",
        "pass"
      ],
      [
        "te",
        "aling"
      ],
      [
        "uld",
        "ers"
      ],
      [
        "br",
        "in"
      ],
      [
        "sen",
        "io"
      ],
      [
        "ee",
        "ks"
      ],
      [
        "ee",
        "ms"
      ],
      [
        "rt",
        "y"
      ],
      [
        "rt",
        "ar"
      ],
      [
        "rt",
        "ain"
      ],
      [
        "spe",
        "ct"
      ],
      [
        "han",
        "k"
      ],
      [
        "ip",
        "board"
      ],
      [
        "oo",
        "msday"
      ],
      [
        "ose",
        "th"
      ],
      [
        "tr",
        "onger"
      ],
      [
        "lea",
        "v"
      ],
      [
        "lea",
        "the"
      ],
      [
        "ame",
        "ly"
      ],
      [
        "fir",
        "s"
      ],
      [
        "ive",
        "n"
      ],
      [
        "bou",
        "g"
      ],
      [
        "bou",
        "n"
      ],
      [
        "bou",
        "gh"
      ],
      [
        "ev",
        "i"
      ],
      [
        "east",
        "s"
      ],
      [
        "east",
        "ly"
      ],
      [
        "hould",
        "ers"
      ],
      [
        "mat",
        "c"
      ],
      [
        "mat",
        "t"
      ],
      [
        "mat",
        "te"
      ],
      [
        "oon",
        "er"
      ],
      [
        "Thi",
        "the"
      ],
      [
        "ea",
        "cock"
      ],
      [
        "mist",
        "r"
      ],
      [
        "mist",
        "re"
      ],
      [
        "mist",
        "res"
      ],
      [
        "pat",
        "c"
      ],
      [
        "Bast",
        "i"
      ],
      [
        "Bast",
        "in"
      ],
      [
        "Ri",
        "g"
      ],
      [
        "Ri",
        "gh"
      ],
      [
        "bat",
        "t"
      ],
      [
        "bat",
        "te"
      ],
      [
        "bast",
        "i"
      ],
      [
        "bast",
        "in"
      ],
      [
        "gra",
        "i"
      ],
      [
        "nou",
        "g"
      ],
      [
        "nou",
        "gh"
      ],
      [
        "tar",
        "r"
      ],
      [
        "fea",
        "the"
      ],
      [
        "conj",
        "u"
      ],
      [
        "conj",
        "ur"
      ],
      [
        "porri",
        "d"
      ],
      [
        "porri",
        "dg"
      ],
      [
        "shipbo",
        "a"
      ],
      [
        "shipbo",
        "ar"
      ],
      [
        "reveren",
        "c"
      ],
      [
        "dooms",
        "d"
      ],
      [
        "dooms",
        "da"
      ],
      [
        "creat",
        "u"
      ],
      [
        "creat",
        "ur"
      ],
      [
        "explo",
        "i"
      ],
      [
        "explo",
        "it"
      ],
      [
        "Parad",
        "i"
      ],
      [
        "Parad",
        "is"
      ],
      [
        "fraught",
        "a"
      ],
      [
        "fraught",
        "ag"
      ],
      [
        "passa",
        "g"
      ],
      [
        "passa",
        "ge"
      ],
      [
        "Dowsa",
        "b"
      ],
      [
        "Dowsa",
        "be"
      ],
      [
        "redempt",
        "i"
      ],
      [
        "redempt",
        "io"
      ],
      [
        "Expedit",
        "i"
      ],
      [
        "Expedit",
        "io"
      ],
      [
        "everlast",
        "i"
      ],
      [
        "everlast",
        "in"
      ],
      [
        "De",
        "la"
      ],
      [
        "Ei",
        "the"
      ]
    ]
  }
}