{
  "version": "1.0",
  "truncation": null,
  "padding": null,
  "added_tokens": [
    {
      "id": 0,
      "content": "[UNK]",
      "single_word": false,
      "lstrip": false,
      "rstrip": false,
      "normalized": false,
      "special": true
    }
  ],
  "normalizer": null,
  "pre_tokenizer": {
    "type": "Whitespace"
  },
  "post_processor": null,
  "decoder": null,
  "model": {
    "type": "BPE",
    "dropout": null,
    "unk_token": "[UNK]",
    "continuing_subword_prefix": null,
    "end_of_word_suffix": null,
    "fuse_unk": false,
    "byte_fallback": false,
    "ignore_merges": false,
    "vocab": {
      "[UNK]": 0,
      "!": 1,
      "'": 2,
      ",": 3,
      ".": 4,
      ":": 5,
      ";": 6,
      "?": 7,
      "_": 8,
      "a": 9,
      "b": 10,
      "c": 11,
      "d": 12,
      "e": 13,
      "f": 14,
      "g": 15,
      "h": 16,
      "i": 17,
      "j": 18,
      "k": 19,
      "l": 20,
      "m": 21,
      "n": 22,
      "o": 23,
      "p": 24,
      "q": 25,
      "r": 26,
      "s": 27,
      "t": 28,
      "u": 29,
      "v": 30,
      "w": 31,
      "x": 32,
      "y": 33,
      "z": 34,
      "in": 35,
      "th": 36,
      "er": 37,
      "an": 38,
      "on": 39,
      "re": 40,
      "the": 41,
      "st": 42,
      "or": 43,
      "at": 44,
      "ed": 45,
      "al": 46,
      "en": 47,
      "ar": 48,
      "es": 49,
      "ing": 50,
      "it": 51,
      "to": 52,
      "of": 53,
      "ic": 54,
      "as": 55,
      "ou": 56,
      "is": 57,
      "le": 58,
      "ay": 59,
      "ro": 60,
      "and": 61,
      "il": 62,
      "ion": 63,
      "ch": 64,
      "ter": 65,
      "se": 66,
      "ol": 67,
      "om": 68,
      "id": 69,
      "ac": 70,
      "ad": 71,
      "am": 72,
      "el": 73,
      "for": 74,
      "ent": 75,
      "ir": 76,
      "ne": 77,
      "ig": 78,
      "ur": 79,
      "day": 80,
      "us": 81,
      "un": 82,
      "ap": 83,
      "ve": 84,
      "ver": 85,
      "be": 86,
      "de": 87,
      "ot": 88,
      "ag": 89,
      "ow": 90,
      "im": 91,
      "con": 92,
      "sh": 93,
      "ill": 94,
      "com": 95,
      "et": 96,
      "op": 97,
      "all": 98,
      "ers": 99,
      "af": 100,
      "pl": 101,
      "ut": 102,
      "wi": 103,
      "qu": 104,
      "ation": 105,
      "est": 106,
      "ce": 107,
      "ct": 108,
      "igh": 109,
      "res": 110,
      "ul": 111,
      "mo": 112,
      "tr": 113,
      "with": 114,
      "pr": 115,
      "pro": 116,
      "up": 117,
      "wh": 118,
      "ters": 119,
      "pe": 120,
      "ist": 121,
      "that": 122,
      "ab": 123,
      "new": 124,
      "ak": 125,
      "oun": 126,
      "are": 127,
      "its": 128,
      "lo": 129,
      "..": 130,
      "ast": 131,
      "ain": 132,
      "ex": 133,
      "over": 134,
      "ts": 135,
      "by": 136,
      "ear": 137,
      "ks": 138,
      "ly": 139,
      "sa": 140,
      "te": 141,
      "tw": 142,
      "uters": 143,
      "ment": 144,
      "au": 145,
      "reuters": 146,
      "su": 147,
      "ian": 148,
      "he": 149,
      "mp": 150,
      "str": 151,
      "our": 152,
      "out": 153,
      "ld": 154,
      "po": 155,
      "ia": 156,
      "ate": 157,
      "por": 158,
      "said": 159,
      "cl": 160,
      "off": 161,
      "rom": 162,
      "we": 163,
      "ies": 164,
      "comp": 165,
      "was": 166,
      "old": 167,
      "ight": 168,
      "has": 169,
      "end": 170,
      "man": 171,
      "ack": 172,
      "from": 173,
      "ial": 174,
      "ess": 175,
      "mon": 176,
      "co": 177,
      "wor": 178,
      "mar": 179,
      "cr": 180,
      "if": 181,
      "oc": 182,
      "ine": 183,
      "ind": 184,
      "ity": 185,
      "ha": 186,
      "ip": 187,
      "br": 188,
      "oo": 189,
      "his": 190,
      "sp": 191,
      "oly": 192,
      "cor": 193,
      "iv": 194,
      "bl": 195,
      "ns": 196,
      "gr": 197,
      "one": 198,
      "fr": 199,
      "ge": 200,
      "after": 201,
      "ree": 202,
      "em": 203,
      "ther": 204,
      "ke": 205,
      "will": 206,
      "olymp": 207,
      "ard": 208,
      "esday": 209,
      "ive": 210,
      "olympic": 211,
      "art": 212,
      "fir": 213,
      "ice": 214,
      "med": 215,
      "ore": 216,
      "ant": 217,
      "ie": 218,
      "gh": 219,
      "port": 220,
      "...": 221,
      "per": 222,
      "year": 223,
      "quot": 224,
      "but": 225,
      "red": 226,
      "ound": 227,
      "ace": 228,
      "ust": 229,
      "ser": 230,
      "inter": 231,
      "ell": 232,
      "aw": 233,
      "lt": 234,
      "bo": 235,
      "pres": 236,
      "have": 237,
      "ould": 238,
      "aq": 239,
      "av": 240,
      "inc": 241,
      "ong": 242,
      "um": 243,
      "fin": 244,
      "ans": 245,
      "act": 246,
      "ish": 247,
      "air": 248,
      "ere": 249,
      "ph": 250,
      "ning": 251,
      "gt": 252,
      "fl": 253,
      "athe": 254,
      "iraq": 255,
      "athens": 256,
      "two": 257,
      "tu": 258,
      "arg": 259,
      "age": 260,
      "sof": 261,
      "more": 262,
      "wee": 263,
      "oil": 264,
      "ban": 265,
      "compan": 266,
      "att": 267,
      "ices": 268,
      "ile": 269,
      "der": 270,
      "nation": 271,
      "ays": 272,
      "gold": 273,
      "tim": 274,
      "ud": 275,
      "ail": 276,
      "their": 277,
      "cent": 278,
      "min": 279,
      "ork": 280,
      "own": 281,
      "dis": 282,
      "ite": 283,
      "ome": 284,
      "first": 285,
      "eric": 286,
      "illion": 287,
      "mic": 288,
      "not": 289,
      "ass": 290,
      "win": 291,
      "sec": 292,
      "amp": 293,
      "jo": 294,
      "ket": 295,
      "mer": 296,
      "ide": 297,
      "dr": 298,
      "du": 299,
      "gam": 300,
      "sc": 301,
      "me": 302,
      "fe": 303,
      "li": 304,
      "ber": 305,
      "row": 306,
      "fi": 307,
      "stoc": 308,
      "ors": 309,
      "can": 310,
      "lead": 311,
      "ton": 312,
      "bus": 313,
      "world": 314,
      "int": 315,
      "ach": 316,
      "this": 317,
      "ase": 318,
      "ven": 319,
      "high": 320,
      "ates": 321,
      "no": 322,
      "als": 323,
      "ction": 324,
      "urs": 325,
      "mis": 326,
      "aj": 327,
      "ough": 328,
      "set": 329,
      "ition": 330,
      "mak": 331,
      "ign": 332,
      "than": 333,
      "ident": 334,
      "monday": 335,
      "cord": 336,
      "bu": 337,
      "ret": 338,
      "iday": 339,
      "coun": 340,
      "company": 341,
      "rel": 342,
      "ous": 343,
      "thurs": 344,
      "thursday": 345,
      "do": 346,
      "tuesday": 347,
      "iz": 348,
      "ra": 349,
      "week": 350,
      "ann": 351,
      "ss": 352,
      "pol": 353,
      "ited": 354,
      "ib": 355,
      "wed": 356,
      "goo": 357,
      "sl": 358,
      "ang": 359,
      "again": 360,
      "ich": 361,
      "part": 362,
      "ester": 363,
      "mil": 364,
      "friday": 365,
      "war": 366,
      "york": 367,
      "ence": 368,
      "go": 369,
      "lin": 370,
      "back": 371,
      "arch": 372,
      "sun": 373,
      "cond": 374,
      "ck": 375,
      "fore": 376,
      "ath": 377,
      "into": 378,
      "ade": 379,
      "ash": 380,
      "who": 381,
      "sion": 382,
      "hel": 383,
      "ick": 384,
      "cont": 385,
      "ated": 386,
      "ary": 387,
      "pect": 388,
      "prices": 389,
      "ue": 390,
      "americ": 391,
      "last": 392,
      "sy": 393,
      "nesday": 394,
      "ally": 395,
      "wednesday": 396,
      "net": 397,
      "ory": 398,
      "gy": 399,
      "about": 400,
      "prof": 401,
      "ina": 402,
      "anc": 403,
      "ting": 404,
      "report": 405,
      "oup": 406,
      "they": 407,
      "team": 408,
      "tak": 409,
      "overn": 410,
      "national": 411,
      "sur": 412,
      "pu": 413,
      "second": 414,
      "offic": 415,
      "search": 416,
      "aug": 417,
      "ry": 418,
      "ital": 419,
      "micro": 420,
      "bel": 421,
      "time": 422,
      "line": 423,
      "ok": 424,
      "ations": 425,
      "soft": 426,
      "ict": 427,
      "sal": 428,
      "ren": 429,
      "gl": 430,
      "president": 431,
      "three": 432,
      "serv": 433,
      "down": 434,
      "medal": 435,
      "govern": 436,
      "sat": 437,
      "so": 438,
      "ows": 439,
      "ance": 440,
      "million": 441,
      "plan": 442,
      "milit": 443,
      "were": 444,
      "uss": 445,
      "minist": 446,
      "leg": 447,
      "kill": 448,
      "ger": 449,
      "arter": 450,
      "ful": 451,
      "publ": 452,
      "cap": 453,
      "sup": 454,
      "ball": 455,
      "nor": 456,
      "vest": 457,
      "play": 458,
      "against": 459,
      "stocks": 460,
      "urn": 461,
      "invest": 462,
      "cut": 463,
      "other": 464,
      "united": 465,
      "sunday": 466,
      "official": 467,
      "market": 468,
      "yester": 469,
      "yesterday": 470,
      "reg": 471,
      "des": 472,
      "government": 473,
      "app": 474,
      "four": 475,
      "secur": 476,
      "been": 477,
      "gu": 478,
      "ds": 479,
      "peop": 480,
      "had": 481,
      "microsoft": 482,
      "bank": 483,
      "cour": 484,
      "par": 485,
      "tal": 486,
      "bas": 487,
      "ep": 488,
      "able": 489,
      "men": 490,
      "try": 491,
      "ug": 492,
      "oll": 493,
      "call": 494,
      "when": 495,
      "gree": 496,
      "ower": 497,
      "goog": 498,
      "ele": 499,
      "ating": 500,
      "group": 501,
      "ical": 502,
      "ms": 503,
      "az": 504,
      "run": 505,
      "sou": 506,
      "says": 507,
      "top": 508,
      "head": 509,
      "could": 510,
      "way": 511,
      "open": 512,
      "afp": 513,
      "record": 514,
      "get": 515,
      "may": 516,
      "ty": 517,
      "test": 518,
      "ced": 519,
      "hing": 520,
      "ref": 521,
      "pos": 522,
      "some": 523,
      "people": 524,
      "bs": 525,
      "pre": 526,
      "austr": 527,
      "corp": 528,
      "ric": 529,
      "russ": 530,
      "prov": 531,
      "ris": 532,
      "which": 533,
      "tech": 534,
      "dev": 535,
      "google": 536,
      "quarter": 537,
      "public": 538,
      "ists": 539,
      "vi": 540,
      "ll": 541,
      "atch": 542,
      "sing": 543,
      "olympics": 544,
      "games": 545,
      "just": 546,
      "eral": 547,
      "naj": 548,
      "car": 549,
      "fo": 550,
      "najaf": 551,
      "austral": 552,
      "night": 553,
      "gen": 554,
      "would": 555,
      "cy": 556,
      "big": 557,
      "percent": 558,
      "aim": 559,
      "cer": 560,
      "os": 561,
      "vent": 562,
      "ens": 563,
      "clo": 564,
      "wom": 565,
      "reat": 566,
      "col": 567,
      "china": 568,
      "work": 569,
      "wind": 570,
      "iness": 571,
      "stem": 572,
      "won": 573,
      "ports": 574,
      "ure": 575,
      "security": 576,
      "ied": 577,
      "produ": 578,
      "del": 579,
      "brit": 580,
      "cess": 581,
      "ef": 582,
      "cal": 583,
      "ame": 584,
      "internet": 585,
      "month": 586,
      "most": 587,
      "ho": 588,
      "land": 589,
      "business": 590,
      "today": 591,
      "mus": 592,
      "ted": 593,
      "final": 594,
      "iver": 595,
      "ics": 596,
      "years": 597,
      "her": 598,
      "ins": 599,
      "conom": 600,
      "econom": 601,
      "ix": 602,
      "urday": 603,
      "washing": 604,
      "saturday": 605,
      "gian": 606,
      "rest": 607,
      "fed": 608,
      "court": 609,
      "ta": 610,
      "research": 611,
      "washington": 612,
      "ird": 613,
      "tware": 614,
      "software": 615,
      "cle": 616,
      "led": 617,
      "nex": 618,
      "eu": 619,
      "ship": 620,
      "minister": 621,
      "ions": 622,
      "netw": 623,
      "ire": 624,
      "announ": 625,
      "state": 626,
      "rele": 627,
      "near": 628,
      "american": 629,
      "offer": 630,
      "la": 631,
      "put": 632,
      "home": 633,
      "grow": 634,
      "je": 635,
      "sch": 636,
      "ave": 637,
      "ham": 638,
      "ces": 639,
      "help": 640,
      "used": 641,
      "comm": 642,
      "hold": 643,
      "oper": 644,
      "post": 645,
      "under": 646,
      "news": 647,
      "long": 648,
      "states": 649,
      "bro": 650,
      "vis": 651,
      "ities": 652,
      "system": 653,
      "sales": 654,
      "vict": 655,
      "ror": 656,
      "enter": 657,
      "deal": 658,
      "ble": 659,
      "les": 660,
      "ely": 661,
      "apan": 662,
      "boo": 663,
      "olo": 664,
      "japan": 665,
      "ange": 666,
      "ings": 667,
      "def": 668,
      "ago": 669,
      "ason": 670,
      "tle": 671,
      "city": 672,
      "hu": 673,
      "istan": 674,
      "champ": 675,
      "expect": 676,
      "next": 677,
      "women": 678,
      "ley": 679,
      "spe": 680,
      "ner": 681,
      "bre": 682,
      "don": 683,
      "profit": 684,
      "euro": 685,
      "ient": 686,
      "officials": 687,
      "pa": 688,
      "techn": 689,
      "game": 690,
      "ier": 691,
      "arm": 692,
      "south": 693,
      "ese": 694,
      "und": 695,
      "thr": 696,
      "cost": 697,
      "blo": 698,
      "say": 699,
      "buy": 700,
      "bar": 701,
      "ju": 702,
      "ime": 703,
      "hit": 704,
      "unch": 705,
      "bush": 706,
      "service": 707,
      "dan": 708,
      "now": 709,
      "ater": 710,
      "ult": 711,
      "od": 712,
      "terror": 713,
      "billion": 714,
      "windows": 715,
      "let": 716,
      "upd": 717,
      "before": 718,
      "targ": 719,
      "you": 720,
      "appe": 721,
      "country": 722,
      "target": 723,
      "ever": 724,
      "joh": 725,
      "mand": 726,
      "ual": 727,
      "ments": 728,
      "ares": 729,
      "ants": 730,
      "che": 731,
      "canad": 732,
      "eng": 733,
      "claim": 734,
      "greece": 735,
      "law": 736,
      "main": 737,
      "acks": 738,
      "sus": 739,
      "talks": 740,
      "ker": 741,
      "san": 742,
      "ked": 743,
      "lon": 744,
      "ild": 745,
      "uring": 746,
      "quote": 747,
      "star": 748,
      "isra": 749,
      "israel": 750,
      "dro": 751,
      "sw": 752,
      "start": 753,
      "dec": 754,
      "found": 755,
      "hal": 756,
      "power": 757,
      "bom": 758,
      "ste": 759,
      "ives": 760,
      "ief": 761,
      "form": 762,
      "fer": 763,
      "hur": 764,
      "pal": 765,
      "victory": 766,
      "ah": 767,
      "mor": 768,
      "pris": 769,
      "shar": 770,
      "plans": 771,
      "ft": 772,
      "show": 773,
      "iraqi": 774,
      "take": 775,
      "devel": 776,
      "king": 777,
      "son": 778,
      "what": 779,
      "stock": 780,
      "rebel": 781,
      "through": 782,
      "fall": 783,
      "lif": 784,
      "pt": 785,
      "international": 786,
      "gest": 787,
      "beat": 788,
      "cast": 789,
      "maj": 790,
      "killed": 791,
      "full": 792,
      "shares": 793,
      "read": 794,
      "cover": 795,
      "uk": 796,
      "ased": 797,
      "round": 798,
      "tain": 799,
      "press": 800,
      "see": 801,
      "expl": 802,
      "compu": 803,
      "io": 804,
      "vie": 805,
      "ending": 806,
      "cau": 807,
      "charg": 808,
      "mu": 809,
      "web": 810,
      "technolo": 811,
      "fre": 812,
      "pay": 813,
      "uel": 814,
      "music": 815,
      "sm": 816,
      "come": 817,
      "spr": 818,
      "tro": 819,
      "stre": 820,
      "adr": 821,
      "look": 822,
      "fur": 823,
      "hom": 824,
      "how": 825,
      "announced": 826,
      "reported": 827,
      "australia": 828,
      "major": 829,
      "him": 830,
      "ped": 831,
      "vol": 832,
      "russian": 833,
      "update": 834,
      "ten": 835,
      "third": 836,
      "beg": 837,
      "ipo": 838,
      "ned": 839,
      "while": 840,
      "ey": 841,
      "ike": 842,
      "acc": 843,
      "many": 844,
      "ward": 845,
      "real": 846,
      "stud": 847,
      "attack": 848,
      "rul": 849,
      "ustr": 850,
      "police": 851,
      "north": 852,
      "champion": 853,
      "vir": 854,
      "accord": 855,
      "ged": 856,
      "ky": 857,
      "larg": 858,
      "wr": 859,
      "season": 860,
      "mission": 861,
      "ious": 862,
      "computer": 863,
      "ps": 864,
      "ince": 865,
      "them": 866,
      "wal": 867,
      "ron": 868,
      "launch": 869,
      "dat": 870,
      "ny": 871,
      "ones": 872,
      "still": 873,
      "cru": 874,
      "develop": 875,
      ".,": 876,
      "federal": 877,
      "bal": 878,
      "chip": 879,
      "prime": 880,
      "least": 881,
      "fiel": 882,
      "incl": 883,
      "hand": 884,
      "sen": 885,
      "compet": 886,
      "ject": 887,
      "ood": 888,
      "according": 889,
      "stand": 890,
      "drug": 891,
      "growth": 892,
      "former": 893,
      "price": 894,
      "strong": 895,
      "trad": 896,
      "fight": 897,
      "char": 898,
      "she": 899,
      "quick": 900,
      "contin": 901,
      "bomb": 902,
      "face": 903,
      "rad": 904,
      "online": 905,
      "consu": 906,
      "phone": 907,
      "british": 908,
      "made": 909,
      "another": 910,
      "alth": 911,
      "ams": 912,
      "higher": 913,
      "europe": 914,
      "cause": 915,
      "twe": 916,
      "industr": 917,
      "hop": 918,
      "ze": 919,
      "key": 920,
      "rican": 921,
      "leader": 922,
      "product": 923,
      "camp": 924,
      "five": 925,
      "ons": 926,
      "dar": 927,
      "mot": 928,
      "peace": 929,
      "make": 930,
      "demand": 931,
      "nings": 932,
      "election": 933,
      "fact": 934,
      "sign": 935,
      "mob": 936,
      "maker": 937,
      "expected": 938,
      "riv": 939,
      "sil": 940,
      "acqu": 941,
      "contro": 942,
      "august": 943,
      "jud": 944,
      "use": 945,
      "shi": 946,
      "position": 947,
      "west": 948,
      "sell": 949,
      "tele": 950,
      "firm": 951,
      "wins": 952,
      "john": 953,
      "technology": 954,
      "hol": 955,
      "ures": 956,
      "pak": 957,
      "elect": 958,
      "sudan": 959,
      "fect": 960,
      "fac": 961,
      "kore": 962,
      "lat": 963,
      "ross": 964,
      "ents": 965,
      "view": 966,
      "oy": 967,
      "six": 968,
      "share": 969,
      "ended": 970,
      "retail": 971,
      "includ": 972,
      "cu": 973,
      "tor": 974,
      "based": 975,
      "drop": 976,
      "largest": 977,
      "ought": 978,
      "bur": 979,
      "even": 980,
      "met": 981,
      "ster": 982,
      "ator": 983,
      "cleric": 984,
      "betwe": 985,
      "between": 986,
      "ves": 987,
      "only": 988,
      "contr": 989,
      "there": 990,
      "network": 991,
      "mid": 992,
      "isco": 993,
      "add": 994,
      "move": 995,
      "data": 996,
      "dou": 997,
      "pc": 998,
      "pakistan": 999,
      "fil": 1000,
      "leag": 1001,
      "adv": 1002,
      "nas": 1003,
      "sadr": 1004,
      "sel": 1005,
      "companies": 1006,
      "cup": 1007,
      "shr": 1008,
      "space": 1009,
      "info": 1010,
      "quest": 1011,
      "incre": 1012,
      "mobile": 1013,
      "loss": 1014,
      "bid": 1015,
      "ling": 1016,
      "giant": 1017,
      "batt": 1018,
      "init": 1019,
      "being": 1020,
      "gre": 1021,
      "sour": 1022,
      "sold": 1023,
      "clear": 1024,
      "biggest": 1025,
      "ivers": 1026,
      "ik": 1027,
      "vot": 1028,
      "dead": 1029,
      "pass": 1030,
      "since": 1031,
      "agre": 1032,
      "thern": 1033,
      "meet": 1034,
      "military": 1035,
      "ca": 1036,
      "hear": 1037,
      "any": 1038,
      "reach": 1039,
      "ollar": 1040,
      "field": 1041,
      "ared": 1042,
      "investors": 1043,
      "less": 1044,
      "dom": 1045,
      "pack": 1046,
      "miss": 1047,
      "viol": 1048,
      "har": 1049,
      "href": 1050,
      "change": 1051,
      "cust": 1052,
      "tit": 1053,
      "dollar": 1054,
      "pat": 1055,
      "ise": 1056,
      "left": 1057,
      "russia": 1058,
      "break": 1059,
      "cre": 1060,
      "ri": 1061,
      "ots": 1062,
      "exe": 1063,
      "thor": 1064,
      "ators": 1065,
      "ility": 1066,
      "capital": 1067,
      "right": 1068,
      "ort": 1069,
      "around": 1070,
      "ops": 1071,
      "ights": 1072,
      "ont": 1073,
      "mart": 1074,
      "financ": 1075,
      "polit": 1076,
      "regul": 1077,
      "host": 1078,
      "industry": 1079,
      "ez": 1080,
      "ium": 1081,
      "ney": 1082,
      "apple": 1083,
      "nam": 1084,
      "ications": 1085,
      "because": 1086,
      "ians": 1087,
      "basket": 1088,
      "offering": 1089,
      "paul": 1090,
      "chic": 1091,
      "here": 1092,
      "ades": 1093,
      "economy": 1094,
      "hou": 1095,
      "sol": 1096,
      "arrest": 1097,
      "afgh": 1098,
      "ress": 1099,
      "keep": 1100,
      "london": 1101,
      "league": 1102,
      "case": 1103,
      "ev": 1104,
      "event": 1105,
      "xp": 1106,
      "place": 1107,
      "india": 1108,
      "commun": 1109,
      "basketball": 1110,
      "ba": 1111,
      "during": 1112,
      "equ": 1113,
      "days": 1114,
      "fire": 1115,
      "half": 1116,
      "darfur": 1117,
      "latest": 1118,
      "chicago": 1119,
      "card": 1120,
      "wall": 1121,
      "fell": 1122,
      "jul": 1123,
      "mem": 1124,
      "owing": 1125,
      "party": 1126,
      "foll": 1127,
      "pop": 1128,
      "vers": 1129,
      "economic": 1130,
      "ahead": 1131,
      "atic": 1132,
      "ake": 1133,
      "scient": 1134,
      "ston": 1135,
      "early": 1136,
      "aud": 1137,
      "like": 1138,
      "investig": 1139,
      "region": 1140,
      "canadian": 1141,
      "including": 1142,
      "mn": 1143,
      "protest": 1144,
      "iving": 1145,
      "attacks": 1146,
      "dist": 1147,
      "find": 1148,
      "pen": 1149,
      "rup": 1150,
      "ize": 1151,
      "lines": 1152,
      "spec": 1153,
      "street": 1154,
      "ma": 1155,
      "itch": 1156,
      "health": 1157,
      "fail": 1158,
      "ved": 1159,
      "atter": 1160,
      "issu": 1161,
      "ament": 1162,
      "ury": 1163,
      "release": 1164,
      "fullquote": 1165,
      "quickinfo": 1166,
      "custom": 1167,
      "race": 1168,
      "seven": 1169,
      "els": 1170,
      "need": 1171,
      "where": 1172,
      "rebels": 1173,
      "consumer": 1174,
      "afghan": 1175,
      "free": 1176,
      "hist": 1177,
      "ping": 1178,
      "org": 1179,
      "ished": 1180,
      "ko": 1181,
      "threat": 1182,
      "ush": 1183,
      "ply": 1184,
      "los": 1185,
      "networ": 1186,
      "agreed": 1187,
      "hp": 1188,
      "ision": 1189,
      "using": 1190,
      "ution": 1191,
      "stru": 1192,
      "held": 1193,
      "nearly": 1194,
      "execut": 1195,
      "july": 1196,
      "dav": 1197,
      "mal": 1198,
      "ool": 1199,
      "past": 1200,
      "ways": 1201,
      "lik": 1202,
      "intel": 1203,
      "rose": 1204,
      "agen": 1205,
      "concer": 1206,
      "earnings": 1207,
      "manag": 1208,
      "return": 1209,
      "networks": 1210,
      "gain": 1211,
      "lit": 1212,
      "vo": 1213,
      "ys": 1214,
      "mark": 1215,
      "hamm": 1216,
      "gas": 1217,
      "nal": 1218,
      "turn": 1219,
      "ative": 1220,
      "ism": 1221,
      "ext": 1222,
      "strike": 1223,
      "boost": 1224,
      "got": 1225,
      "reports": 1226,
      "iting": 1227,
      "chief": 1228,
      "micha": 1229,
      "ible": 1230,
      "broad": 1231,
      "crude": 1232,
      "fut": 1233,
      "hd": 1234,
      "num": 1235,
      "pite": 1236,
      "aster": 1237,
      "draw": 1238,
      "michael": 1239,
      "bill": 1240,
      "low": 1241,
      "lab": 1242,
      "elps": 1243,
      "phelps": 1244,
      "shrine": 1245,
      "bag": 1246,
      "ines": 1247,
      "republic": 1248,
      "step": 1249,
      "order": 1250,
      "should": 1251,
      "trial": 1252,
      "temp": 1253,
      "point": 1254,
      "ends": 1255,
      "gymn": 1256,
      "close": 1257,
      "released": 1258,
      "gymnast": 1259,
      "coach": 1260,
      "rench": 1261,
      "fun": 1262,
      "suc": 1263,
      "sum": 1264,
      "despite": 1265,
      "hun": 1266,
      "soc": 1267,
      "alleg": 1268,
      "acy": 1269,
      "appl": 1270,
      "bet": 1271,
      "support": 1272,
      "ready": 1273,
      "fam": 1274,
      "ob": 1275,
      "sim": 1276,
      "well": 1277,
      "engl": 1278,
      "shot": 1279,
      "reless": 1280,
      "forecast": 1281,
      "months": 1282,
      "dig": 1283,
      "glo": 1284,
      "val": 1285,
      "ands": 1286,
      "users": 1287,
      "services": 1288,
      "general": 1289,
      "kerry": 1290,
      "dre": 1291,
      "ux": 1292,
      "recent": 1293,
      "wireless": 1294,
      "dy": 1295,
      "hour": 1296,
      "lower": 1297,
      "your": 1298,
      "thing": 1299,
      "ider": 1300,
      "called": 1301,
      "much": 1302,
      "cur": 1303,
      "ily": 1304,
      "trans": 1305,
      "anti": 1306,
      "ibm": 1307,
      "rise": 1308,
      "suspect": 1309,
      "care": 1310,
      "kn": 1311,
      "yan": 1312,
      "imin": 1313,
      "cons": 1314,
      "came": 1315,
      "french": 1316,
      "great": 1317,
      "pul": 1318,
      "ites": 1319,
      "took": 1320,
      "progr": 1321,
      "legal": 1322,
      "ploy": 1323,
      "crash": 1324,
      "leading": 1325,
      "australian": 1326,
      "competition": 1327,
      "fighting": 1328,
      "sports": 1329,
      "korea": 1330,
      "contract": 1331,
      "light": 1332,
      "pers": 1333,
      "coming": 1334,
      "poss": 1335,
      "franc": 1336,
      "greek": 1337,
      "title": 1338,
      "eight": 1339,
      "idence": 1340,
      "union": 1341,
      "commission": 1342,
      "sure": 1343,
      "centr": 1344,
      "charges": 1345,
      "campa": 1346,
      "financial": 1347,
      "rupt": 1348,
      ";...": 1349,
      "jour": 1350,
      "lim": 1351,
      "sem": 1352,
      "version": 1353,
      "agree": 1354,
      "feat": 1355,
      "school": 1356,
      "lam": 1357,
      "opposition": 1358,
      "ctor": 1359,
      "exp": 1360,
      "den": 1361,
      "ran": 1362,
      "watch": 1363,
      "demo": 1364,
      "weeks": 1365,
      "settle": 1366,
      "britain": 1367,
      "ben": 1368,
      "comple": 1369,
      "away": 1370,
      "ized": 1371,
      "militants": 1372,
      "fourth": 1373,
      "palest": 1374,
      "troops": 1375,
      "cop": 1376,
      "vide": 1377,
      "cher": 1378,
      "ages": 1379,
      "ults": 1380,
      "ific": 1381,
      "pho": 1382,
      "americans": 1383,
      "systems": 1384,
      "initial": 1385,
      "mc": 1386,
      "ink": 1387,
      "eles": 1388,
      "track": 1389,
      "little": 1390,
      "squ": 1391,
      "ular": 1392,
      "palestin": 1393,
      "give": 1394,
      "late": 1395,
      "pot": 1396,
      "sco": 1397,
      "water": 1398,
      "without": 1399,
      "tax": 1400,
      "israeli": 1401,
      "democr": 1402,
      "base": 1403,
      "my": 1404,
      "ving": 1405,
      "sever": 1406,
      "force": 1407,
      "depart": 1408,
      "trade": 1409,
      "effor": 1410,
      "ada": 1411,
      "bron": 1412,
      "costs": 1413,
      "kyo": 1414,
      "band": 1415,
      "suit": 1416,
      "block": 1417,
      "success": 1418,
      "journal": 1419,
      "hot": 1420,
      "remain": 1421,
      "aff": 1422,
      "good": 1423,
      "engine": 1424,
      "cing": 1425,
      "did": 1426,
      "anal": 1427,
      "blast": 1428,
      "foot": 1429,
      "small": 1430,
      "political": 1431,
      "likely": 1432,
      "cell": 1433,
      "ga": 1434,
      "ration": 1435,
      "tow": 1436,
      "tokyo": 1437,
      "aren": 1438,
      "exper": 1439,
      "venez": 1440,
      "campaign": 1441,
      "venezuel": 1442,
      "ming": 1443,
      "decl": 1444,
      "life": 1445,
      "continu": 1446,
      "control": 1447,
      "scientists": 1448,
      "ior": 1449,
      "range": 1450,
      "stor": 1451,
      "phil": 1452,
      "build": 1453,
      "european": 1454,
      "hdad": 1455,
      "baghdad": 1456,
      "global": 1457,
      "nu": 1458,
      "pon": 1459,
      "author": 1460,
      "box": 1461,
      "meter": 1462,
      "rais": 1463,
      "hurrican": 1464,
      "francisco": 1465,
      "bed": 1466,
      "bit": 1467,
      "bers": 1468,
      "rally": 1469,
      "tur": 1470,
      "ford": 1471,
      "forces": 1472,
      "death": 1473,
      "manage": 1474,
      "board": 1475,
      "profile": 1476,
      "hard": 1477,
      "kid": 1478,
      "pan": 1479,
      "ense": 1480,
      "roy": 1481,
      "across": 1482,
      "unt": 1483,
      "jump": 1484,
      "study": 1485,
      "ru": 1486,
      "ered": 1487,
      "shiite": 1488,
      "england": 1489,
      "video": 1490,
      "ij": 1491,
      "green": 1492,
      "center": 1493,
      "eas": 1494,
      "fa": 1495,
      "ness": 1496,
      "wit": 1497,
      "ided": 1498,
      "conne": 1499,
      "awa": 1500,
      "winning": 1501,
      "self": 1502,
      "department": 1503,
      "inning": 1504,
      "making": 1505,
      "foreign": 1506,
      "claims": 1507,
      "islam": 1508,
      "process": 1509,
      "earli": 1510,
      "flu": 1511,
      "gets": 1512,
      "inst": 1513,
      "marath": 1514,
      "grand": 1515,
      "ctions": 1516,
      "central": 1517,
      "marathon": 1518,
      "far": 1519,
      "fle": 1520,
      "tv": 1521,
      "amid": 1522,
      "iran": 1523,
      "results": 1524,
      "whe": 1525,
      "stra": 1526,
      "cris": 1527,
      "takes": 1528,
      "sox": 1529,
      "canada": 1530,
      "violence": 1531,
      "house": 1532,
      "ges": 1533,
      "match": 1534,
      "tic": 1535,
      "wide": 1536,
      "ener": 1537,
      "ida": 1538,
      "bled": 1539,
      "blue": 1540,
      "vention": 1541,
      "fear": 1542,
      "ifor": 1543,
      "nia": 1544,
      "pil": 1545,
      "thous": 1546,
      "chang": 1547,
      "digital": 1548,
      "bronze": 1549,
      "ple": 1550,
      "tru": 1551,
      "money": 1552,
      "linux": 1553,
      "athlet": 1554,
      "dire": 1555,
      "ging": 1556,
      "span": 1557,
      "reds": 1558,
      "killing": 1559,
      "southern": 1560,
      "hurricane": 1561,
      "iers": 1562,
      "ord": 1563,
      "deb": 1564,
      "ards": 1565,
      "airways": 1566,
      "also": 1567,
      "fresh": 1568,
      "bi": 1569,
      "short": 1570,
      "corpor": 1571,
      "taking": 1572,
      "super": 1573,
      "commit": 1574,
      "earlier": 1575,
      "bird": 1576,
      "crow": 1577,
      "tada": 1578,
      "orn": 1579,
      "accoun": 1580,
      "afric": 1581,
      "proble": 1582,
      "lost": 1583,
      "tai": 1584,
      "researchers": 1585,
      "visit": 1586,
      "human": 1587,
      "silver": 1588,
      "judge": 1589,
      "source": 1590,
      "vote": 1591,
      "sent": 1592,
      "wester": 1593,
      "onto": 1594,
      "such": 1595,
      "going": 1596,
      "prison": 1597,
      "trading": 1598,
      "nasa": 1599,
      "yanke": 1600,
      "management": 1601,
      "energy": 1602,
      "western": 1603,
      "rece": 1604,
      "prove": 1605,
      "califor": 1606,
      "following": 1607,
      "organ": 1608,
      "rain": 1609,
      "sub": 1610,
      "heav": 1611,
      "class": 1612,
      "action": 1613,
      "chech": 1614,
      "several": 1615,
      "crisis": 1616,
      "fund": 1617,
      "iam": 1618,
      "ired": 1619,
      "mail": 1620,
      "pic": 1621,
      "push": 1622,
      "spo": 1623,
      "crit": 1624,
      "oci": 1625,
      "firms": 1626,
      "associ": 1627,
      "japanese": 1628,
      "rival": 1629,
      "customers": 1630,
      "summer": 1631,
      "thousands": 1632,
      "gress": 1633,
      "oid": 1634,
      "vel": 1635,
      "ars": 1636,
      "tom": 1637,
      "acle": 1638,
      "univers": 1639,
      "become": 1640,
      "white": 1641,
      "player": 1642,
      "number": 1643,
      "labor": 1644,
      "gymnastics": 1645,
      "africa": 1646,
      "wan": 1647,
      "yst": 1648,
      "uses": 1649,
      "owed": 1650,
      "convention": 1651,
      "aft": 1652,
      "exchange": 1653,
      "nations": 1654,
      "players": 1655,
      "operating": 1656,
      "battle": 1657,
      "agency": 1658,
      "alleged": 1659,
      "california": 1660,
      "same": 1661,
      "tre": 1662,
      "wound": 1663,
      "too": 1664,
      "approv": 1665,
      "qual": 1666,
      "bangl": 1667,
      "america": 1668,
      "cuts": 1669,
      "every": 1670,
      "decision": 1671,
      "arrested": 1672,
      "program": 1673,
      "bc": 1674,
      "fast": 1675,
      "fuel": 1676,
      "gun": 1677,
      "might": 1678,
      "ores": 1679,
      "pur": 1680,
      "pitch": 1681,
      "wa": 1682,
      "ino": 1683,
      "tri": 1684,
      "minut": 1685,
      "secut": 1686,
      "design": 1687,
      "calls": 1688,
      "adesh": 1689,
      "jones": 1690,
      "mass": 1691,
      "mber": 1692,
      "ties": 1693,
      "tou": 1694,
      "comes": 1695,
      "media": 1696,
      "airlines": 1697,
      "german": 1698,
      "yankees": 1699,
      "cred": 1700,
      "rich": 1701,
      "outs": 1702,
      "chall": 1703,
      "sets": 1704,
      "veil": 1705,
      "series": 1706,
      "both": 1707,
      "activ": 1708,
      "army": 1709,
      "holy": 1710,
      "swee": 1711,
      "roll": 1712,
      "unveil": 1713,
      "ify": 1714,
      "discover": 1715,
      "double": 1716,
      "domin": 1717,
      "straight": 1718,
      "bon": 1719,
      "dam": 1720,
      "iel": 1721,
      "want": 1722,
      "inch": 1723,
      "aper": 1724,
      "best": 1725,
      "debut": 1726,
      "clu": 1727,
      "aves": 1728,
      "accused": 1729,
      "retailer": 1730,
      "future": 1731,
      "hours": 1732,
      "bangladesh": 1733,
      "hits": 1734,
      "almost": 1735,
      "lect": 1736,
      "prote": 1737,
      "ified": 1738,
      "employ": 1739,
      "medals": 1740,
      "championship": 1741,
      "ose": 1742,
      "ump": 1743,
      "ides": 1744,
      "vert": 1745,
      "reser": 1746,
      "interest": 1747,
      "due": 1748,
      "poll": 1749,
      "better": 1750,
      "hund": 1751,
      "attemp": 1752,
      "server": 1753,
      "boy": 1754,
      "boston": 1755,
      "few": 1756,
      "angeles": 1757,
      "running": 1758,
      "posed": 1759,
      "barrel": 1760,
      "dle": 1761,
      "insur": 1762,
      "then": 1763,
      "atl": 1764,
      "leave": 1765,
      "rob": 1766,
      "finish": 1767,
      "showed": 1768,
      "sprint": 1769,
      "history": 1770,
      "bay": 1771,
      "fis": 1772,
      "hind": 1773,
      "qtada": 1774,
      "tourn": 1775,
      "seen": 1776,
      "access": 1777,
      "forman": 1778,
      "opt": 1779,
      "appeal": 1780,
      "toronto": 1781,
      "nuclear": 1782,
      "ience": 1783,
      "mac": 1784,
      "youn": 1785,
      "inform": 1786,
      "store": 1787,
      "tool": 1788,
      "load": 1789,
      "iff": 1790,
      "leaders": 1791,
      "homes": 1792,
      "charley": 1793,
      "products": 1794,
      "town": 1795,
      "han": 1796,
      "ened": 1797,
      "meters": 1798,
      "workers": 1799,
      "effect": 1800,
      "book": 1801,
      "executive": 1802,
      "whether": 1803,
      "taiwan": 1804,
      "bab": 1805,
      "list": 1806,
      "ali": 1807,
      "plot": 1808,
      "france": 1809,
      "times": 1810,
      "jobs": 1811,
      "explo": 1812,
      "rules": 1813,
      "possible": 1814,
      "food": 1815,
      "iet": 1816,
      "sn": 1817,
      "wood": 1818,
      "yle": 1819,
      "african": 1820,
      "weight": 1821,
      "ived": 1822,
      "planet": 1823,
      "aza": 1824,
      "typho": 1825,
      "quarterly": 1826,
      "vision": 1827,
      "electron": 1828,
      "soccer": 1829,
      "iams": 1830,
      "stop": 1831,
      "administ": 1832,
      "project": 1833,
      "strug": 1834,
      "williams": 1835,
      "militia": 1836,
      "delay": 1837,
      "charged": 1838,
      "tenn": 1839,
      "hopes": 1840,
      "university": 1841,
      "tournament": 1842,
      "jer": 1843,
      "mers": 1844,
      "site": 1845,
      "inj": 1846,
      "stores": 1847,
      "toward": 1848,
      "ott": 1849,
      "black": 1850,
      "typhoon": 1851,
      "ai": 1852,
      "fly": 1853,
      "mur": 1854,
      "ases": 1855,
      "nepal": 1856,
      "ability": 1857,
      "germany": 1858,
      "giants": 1859,
      "communications": 1860,
      "person": 1861,
      "heavy": 1862,
      "lar": 1863,
      "rou": 1864,
      "saf": 1865,
      "size": 1866,
      "era": 1867,
      "reject": 1868,
      "trou": 1869,
      "secret": 1870,
      "join": 1871,
      "saying": 1872,
      ".'": 1873,
      "ler": 1874,
      "oracle": 1875,
      "child": 1876,
      "chips": 1877,
      "advanc": 1878,
      "fig": 1879,
      "fish": 1880,
      "file": 1881,
      "jet": 1882,
      "mess": 1883,
      "inde": 1884,
      "inju": 1885,
      "chair": 1886,
      "chave": 1887,
      "term": 1888,
      "aging": 1889,
      "mosc": 1890,
      "promis": 1891,
      "earth": 1892,
      "iven": 1893,
      "airline": 1894,
      "motor": 1895,
      "evidence": 1896,
      "information": 1897,
      "chavez": 1898,
      "moscow": 1899,
      "cks": 1900,
      "font": 1901,
      "ka": 1902,
      "kes": 1903,
      "nat": 1904,
      "va": 1905,
      "ander": 1906,
      "igns": 1907,
      "oping": 1908,
      "cele": 1909,
      "train": 1910,
      "withdraw": 1911,
      "ession": 1912,
      "indian": 1913,
      "flor": 1914,
      "job": 1915,
      "merc": 1916,
      "does": 1917,
      "trying": 1918,
      "agreement": 1919,
      "analyst": 1920,
      "cash": 1921,
      "tex": 1922,
      "eration": 1923,
      "recover": 1924,
      "ale": 1925,
      "island": 1926,
      "advert": 1927,
      "tee": 1928,
      "office": 1929,
      "craft": 1930,
      "bring": 1931,
      "ground": 1932,
      "performan": 1933,
      "ously": 1934,
      "warned": 1935,
      "increase": 1936,
      "republican": 1937,
      "palestinian": 1938,
      "philip": 1939,
      "brow": 1940,
      "qa": 1941,
      "sport": 1942,
      "unit": 1943,
      "behind": 1944,
      "cept": 1945,
      "trav": 1946,
      "ipped": 1947,
      "swim": 1948,
      "morning": 1949,
      "continue": 1950,
      "gains": 1951,
      "atlant": 1952,
      ";.": 1953,
      "imp": 1954,
      "pool": 1955,
      "worth": 1956,
      "scre": 1957,
      "italian": 1958,
      "securities": 1959,
      "posted": 1960,
      "terrorism": 1961,
      "florida": 1962,
      "bul": 1963,
      "batter": 1964,
      "coup": 1965,
      "fav": 1966,
      "gaza": 1967,
      "inals": 1968,
      "rock": 1969,
      "chin": 1970,
      "ential": 1971,
      "iger": 1972,
      "vey": 1973,
      "aged": 1974,
      "tra": 1975,
      "teen": 1976,
      "clim": 1977,
      "sett": 1978,
      "makes": 1979,
      "refer": 1980,
      "prise": 1981,
      "ipod": 1982,
      "broadband": 1983,
      "venezuela": 1984,
      "authorities": 1985,
      "credit": 1986,
      "tel": 1987,
      "aced": 1988,
      "beij": 1989,
      "confl": 1990,
      "fraud": 1991,
      "weekend": 1992,
      "football": 1993,
      "struggl": 1994,
      "beijing": 1995,
      "foc": 1996,
      "hy": 1997,
      "ners": 1998,
      "reven": 1999,
      "ately": 2000,
      "dest": 2001,
      "plann": 2002,
      "estim": 2003,
      "ltd": 2004,
      "body": 2005,
      "ashes": 2006,
      "apped": 2007,
      "color": 2008,
      "hosp": 2009,
      "defense": 2010,
      "speed": 2011,
      "ruling": 2012,
      "factor": 2013,
      "heart": 2014,
      "manager": 2015,
      "chairman": 2016,
      "ech": 2017,
      "pir": 2018,
      "inv": 2019,
      "reme": 2020,
      "ats": 2021,
      "asing": 2022,
      "separ": 2023,
      "conf": 2024,
      "priv": 2025,
      "akes": 2026,
      "spending": 2027,
      "presidential": 2028,
      "desk": 2029,
      "clos": 2030,
      "deliver": 2031,
      "mort": 2032,
      "soldiers": 2033,
      "concerns": 2034,
      "dream": 2035,
      "injured": 2036,
      "cir": 2037,
      "die": 2038,
      "hall": 2039,
      "ith": 2040,
      "ring": 2041,
      "side": 2042,
      "once": 2043,
      "stad": 2044,
      "aces": 2045,
      "que": 2046,
      "mars": 2047,
      "march": 2048,
      "fri": 2049,
      "scand": 2050,
      "intell": 2051,
      "sharon": 2052,
      "drugs": 2053,
      "bir": 2054,
      "bell": 2055,
      "spot": 2056,
      "geor": 2057,
      "profits": 2058,
      "markets": 2059,
      "bankrupt": 2060,
      "hundreds": 2061,
      "young": 2062,
      "celebr": 2063,
      "planned": 2064,
      "dow": 2065,
      "yet": 2066,
      "asked": 2067,
      "redu": 2068,
      "plane": 2069,
      "begin": 2070,
      "afghanistan": 2071,
      "career": 2072,
      "baseball": 2073,
      "kidn": 2074,
      "committee": 2075,
      "spokes": 2076,
      "employe": 2077,
      "performance": 2078,
      "mit": 2079,
      "mag": 2080,
      "yah": 2081,
      "invol": 2082,
      "thers": 2083,
      "recall": 2084,
      "already": 2085,
      "utch": 2086,
      "spam": 2087,
      "doz": 2088,
      "slow": 2089,
      "faces": 2090,
      "benef": 2091,
      "organiz": 2092,
      "intellig": 2093,
      "ci": 2094,
      "gol": 2095,
      "ken": 2096,
      "ints": 2097,
      "assa": 2098,
      "sea": 2099,
      "probe": 2100,
      "abu": 2101,
      "emer": 2102,
      "finals": 2103,
      "ture": 2104,
      "leads": 2105,
      "northern": 2106,
      "ensive": 2107,
      "looking": 2108,
      "curren": 2109,
      "consider": 2110,
      "tennis": 2111,
      "flo": 2112,
      "gave": 2113,
      "ana": 2114,
      "road": 2115,
      "ape": 2116,
      "apore": 2117,
      "uts": 2118,
      "pract": 2119,
      "spir": 2120,
      "front": 2121,
      "berg": 2122,
      "singapore": 2123,
      "hung": 2124,
      "administration": 2125,
      "ax": 2126,
      "cisco": 2127,
      "kar": 2128,
      "rate": 2129,
      "those": 2130,
      "staff": 2131,
      "ening": 2132,
      "icon": 2133,
      "ama": 2134,
      "bry": 2135,
      "ashed": 2136,
      "content": 2137,
      "belie": 2138,
      "ference": 2139,
      "investigation": 2140,
      "known": 2141,
      "copy": 2142,
      "philipp": 2143,
      "intelligence": 2144,
      "bol": 2145,
      "cam": 2146,
      "di": 2147,
      "doping": 2148,
      "ease": 2149,
      "pick": 2150,
      "uge": 2151,
      "these": 2152,
      "ural": 2153,
      "comb": 2154,
      "ips": 2155,
      "braz": 2156,
      "pressure": 2157,
      "relay": 2158,
      "ryder": 2159,
      "launched": 2160,
      "television": 2161,
      "missed": 2162,
      "failed": 2163,
      "pull": 2164,
      "until": 2165,
      "sweep": 2166,
      "fif": 2167,
      "mom": 2168,
      "infl": 2169,
      "told": 2170,
      "among": 2171,
      "mont": 2172,
      "finally": 2173,
      "phones": 2174,
      "italy": 2175,
      "terrorist": 2176,
      "sharing": 2177,
      "radical": 2178,
      "semif": 2179,
      "fears": 2180,
      "texas": 2181,
      "stadium": 2182,
      "went": 2183,
      "review": 2184,
      "station": 2185,
      "upgr": 2186,
      "abo": 2187,
      "porters": 2188,
      "spain": 2189,
      "supply": 2190,
      "groups": 2191,
      "runs": 2192,
      "getting": 2193,
      "began": 2194,
      "club": 2195,
      "bor": 2196,
      "pm": 2197,
      "sk": 2198,
      "spect": 2199,
      "ulation": 2200,
      "oods": 2201,
      "avoid": 2202,
      "survey": 2203,
      "refuge": 2204,
      "provide": 2205,
      "funds": 2206,
      "travel": 2207,
      "hospital": 2208,
      "brazil": 2209,
      "pair": 2210,
      "ries": 2211,
      "scr": 2212,
      "vic": 2213,
      "aring": 2214,
      "isition": 2215,
      "never": 2216,
      "guard": 2217,
      "woman": 2218,
      "stead": 2219,
      "acquisition": 2220,
      "pilots": 2221,
      "murder": 2222,
      "chinese": 2223,
      "desktop": 2224,
      "div": 2225,
      "gate": 2226,
      "oks": 2227,
      "pow": 2228,
      "yuk": 2229,
      "shop": 2230,
      "proper": 2231,
      "manu": 2232,
      "aving": 2233,
      "sions": 2234,
      "download": 2235,
      "senior": 2236,
      "question": 2237,
      "regulators": 2238,
      "david": 2239,
      "turned": 2240,
      "applications": 2241,
      "minutes": 2242,
      "aver": 2243,
      "ded": 2244,
      "happ": 2245,
      "moun": 2246,
      "pet": 2247,
      "tell": 2248,
      "stake": 2249,
      "itor": 2250,
      "improve": 2251,
      "offers": 2252,
      "avail": 2253,
      "development": 2254,
      "hope": 2255,
      "members": 2256,
      "yahoo": 2257,
      "yukos": 2258,
      "bound": 2259,
      "eing": 2260,
      "jav": 2261,
      "wants": 2262,
      "envir": 2263,
      "asia": 2264,
      "appoint": 2265,
      "coast": 2266,
      "crack": 2267,
      "flat": 2268,
      "park": 2269,
      "charge": 2270,
      "cubs": 2271,
      "filed": 2272,
      "nasd": 2273,
      "sources": 2274,
      "meeting": 2275,
      "efforts": 2276,
      "environ": 2277,
      "bad": 2278,
      "east": 2279,
      "ram": 2280,
      "rights": 2281,
      "edge": 2282,
      "chance": 2283,
      "negot": 2284,
      "bey": 2285,
      "within": 2286,
      "ained": 2287,
      "subs": 2288,
      "outlook": 2289,
      "firmed": 2290,
      "intro": 2291,
      "previ": 2292,
      "viet": 2293,
      "colum": 2294,
      "june": 2295,
      "middle": 2296,
      "suspected": 2297,
      "fifth": 2298,
      "manufact": 2299,
      "negoti": 2300,
      "bn": 2301,
      "citing": 2302,
      "gin": 2303,
      "must": 2304,
      "orney": 2305,
      "itive": 2306,
      "ised": 2307,
      "medi": 2308,
      "attorney": 2309,
      "fired": 2310,
      "annual": 2311,
      "syd": 2312,
      "prem": 2313,
      "helped": 2314,
      "bloom": 2315,
      "democratic": 2316,
      "effort": 2317,
      "reserve": 2318,
      "vill": 2319,
      "ondu": 2320,
      "enough": 2321,
      "chain": 2322,
      "sex": 2323,
      "seem": 2324,
      "semic": 2325,
      "aps": 2326,
      "sho": 2327,
      "ational": 2328,
      "banks": 2329,
      "production": 2330,
      "corporate": 2331,
      "problems": 2332,
      "conflict": 2333,
      "nasdaq": 2334,
      "introdu": 2335,
      "sydney": 2336,
      "semicondu": 2337,
      "gro": 2338,
      "lay": 2339,
      "later": 2340,
      "mut": 2341,
      "patch": 2342,
      "wel": 2343,
      "itz": 2344,
      "icip": 2345,
      "ili": 2346,
      "shut": 2347,
      "oney": 2348,
      "buil": 2349,
      "sale": 2350,
      "satell": 2351,
      "rises": 2352,
      "working": 2353,
      "delays": 2354,
      "equip": 2355,
      "truck": 2356,
      "orders": 2357,
      "accounting": 2358,
      "analysts": 2359,
      "scandal": 2360,
      "bankruptcy": 2361,
      "jan": 2362,
      "mw": 2363,
      "rates": 2364,
      "andre": 2365,
      "ola": 2366,
      "appro": 2367,
      "ager": 2368,
      "weap": 2369,
      "weak": 2370,
      "grap": 2371,
      "investment": 2372,
      "growing": 2373,
      "starting": 2374,
      "acquire": 2375,
      "reached": 2376,
      "rule": 2377,
      "witness": 2378,
      "children": 2379,
      "bow": 2380,
      "bud": 2381,
      "cit": 2382,
      "gers": 2383,
      "kong": 2384,
      "mat": 2385,
      "mult": 2386,
      "niger": 2387,
      "py": 2388,
      "van": 2389,
      "inte": 2390,
      "arian": 2391,
      "tour": 2392,
      "oft": 2393,
      "ising": 2394,
      "iding": 2395,
      "deleg": 2396,
      "clif": 2397,
      "brief": 2398,
      "makers": 2399,
      "nortel": 2400,
      "opening": 2401,
      "johns": 2402,
      "lawsuit": 2403,
      "students": 2404,
      "popular": 2405,
      "special": 2406,
      "journalist": 2407,
      "awaited": 2408,
      "friend": 2409,
      "spokesman": 2410,
      "integr": 2411,
      "coll": 2412,
      "each": 2413,
      "ff": 2414,
      "giving": 2415,
      "hong": 2416,
      "na": 2417,
      "name": 2418,
      "sites": 2419,
      "inters": 2420,
      "reve": 2421,
      "enge": 2422,
      "ask": 2423,
      "role": 2424,
      "conference": 2425,
      "thatcher": 2426,
      "points": 2427,
      "bles": 2428,
      "flaw": 2429,
      "polic": 2430,
      "ibility": 2431,
      "goes": 2432,
      "cape": 2433,
      "justice": 2434,
      "muslim": 2435,
      "announce": 2436,
      "holdings": 2437,
      "signed": 2438,
      "secretary": 2439,
      "advanced": 2440,
      "atlanta": 2441,
      ";,": 2442,
      "civ": 2443,
      "died": 2444,
      "dutch": 2445,
      "fans": 2446,
      "lan": 2447,
      "wild": 2448,
      "ined": 2449,
      "iss": 2450,
      "consecut": 2451,
      "auction": 2452,
      "disput": 2453,
      "izon": 2454,
      "anger": 2455,
      "soon": 2456,
      "kills": 2457,
      "guine": 2458,
      "paris": 2459,
      "devices": 2460,
      "holding": 2461,
      "virus": 2462,
      "radclif": 2463,
      "selling": 2464,
      "advance": 2465,
      "suspects": 2466,
      "connect": 2467,
      "islamic": 2468,
      "semiconductor": 2469,
      "equipment": 2470,
      "johnson": 2471,
      "consecutive": 2472,
      "radcliffe": 2473,
      "cp": 2474,
      "nine": 2475,
      "others": 2476,
      "ini": 2477,
      "stay": 2478,
      "edu": 2479,
      "area": 2480,
      "endum": 2481,
      "crimin": 2482,
      "science": 2483,
      "missing": 2484,
      "appear": 2485,
      "claimed": 2486,
      "susp": 2487,
      "decided": 2488,
      "realnetworks": 2489,
      "nya": 2490,
      "radio": 2491,
      "rivals": 2492,
      "chechnya": 2493,
      "critic": 2494,
      "referendum": 2495,
      "bryant": 2496,
      "available": 2497,
      "da": 2498,
      "hi": 2499,
      "ii": 2500,
      "ially": 2501,
      "signs": 2502,
      "vs": 2503,
      "rem": 2504,
      "eda": 2505,
      "compl": 2506,
      "estyle": 2507,
      "overtime": 2508,
      "ghorn": 2509,
      "disc": 2510,
      "rising": 2511,
      "operation": 2512,
      "brew": 2513,
      "longhorn": 2514,
      "named": 2515,
      "family": 2516,
      "continued": 2517,
      "athletes": 2518,
      "environment": 2519,
      "bloomberg": 2520,
      "guinea": 2521,
      "ding": 2522,
      "gives": 2523,
      "hack": 2524,
      "kab": 2525,
      "pent": 2526,
      "pred": 2527,
      "sant": 2528,
      "rev": 2529,
      "rebound": 2530,
      "aled": 2531,
      "uries": 2532,
      "computers": 2533,
      "ivid": 2534,
      "joy": 2535,
      "warning": 2536,
      "goal": 2537,
      "taken": 2538,
      "hugo": 2539,
      "blood": 2540,
      "wrong": 2541,
      "korean": 2542,
      "steps": 2543,
      "complete": 2544,
      "arent": 2545,
      "changes": 2546,
      "wounded": 2547,
      "tough": 2548,
      "civil": 2549,
      "figh": 2550,
      "hill": 2551,
      "mits": 2552,
      "ured": 2553,
      "atory": 2554,
      "irl": 2555,
      "shows": 2556,
      "abil": 2557,
      "lose": 2558,
      "exports": 2559,
      "individ": 2560,
      "ume": 2561,
      "flag": 2562,
      "flight": 2563,
      "fix": 2564,
      "planes": 2565,
      "mandu": 2566,
      "powerful": 2567,
      "explos": 2568,
      "histor": 2569,
      "struct": 2570,
      "building": 2571,
      "protect": 2572,
      "personal": 2573,
      "closed": 2574,
      "copyright": 2575,
      "weapons": 2576,
      "rang": 2577,
      "rier": 2578,
      "thought": 2579,
      "request": 2580,
      "roc": 2581,
      "room": 2582,
      "rooney": 2583,
      "seed": 2584,
      "confirmed": 2585,
      "shif": 2586,
      "tries": 2587,
      "local": 2588,
      "auto": 2589,
      "heat": 2590,
      "poor": 2591,
      "coal": 2592,
      "cool": 2593,
      "kept": 2594,
      "bob": 2595,
      "generation": 2596,
      "calif": 2597,
      "lawy": 2598,
      "muqtada": 2599,
      "freestyle": 2600,
      "consumers": 2601,
      "issues": 2602,
      "concern": 2603,
      "experts": 2604,
      "attempt": 2605,
      "large": 2606,
      "employees": 2607,
      "cross": 2608,
      "hic": 2609,
      "kath": 2610,
      "pip": 2611,
      "pie": 2612,
      "pound": 2613,
      "prel": 2614,
      "swe": 2615,
      "send": 2616,
      "tion": 2617,
      "treat": 2618,
      "stro": 2619,
      "stun": 2620,
      "oul": 2621,
      "ads": 2622,
      "very": 2623,
      "became": 2624,
      "moved": 2625,
      "fran": 2626,
      "boeing": 2627,
      "disappoint": 2628,
      "counter": 2629,
      "condition": 2630,
      "published": 2631,
      "suppl": 2632,
      "cycl": 2633,
      "colle": 2634,
      "sharply": 2635,
      "sudanese": 2636,
      "pension": 2637,
      "storm": 2638,
      "outside": 2639,
      "challenge": 2640,
      "qaeda": 2641,
      "revenue": 2642,
      "semifinals": 2643,
      "java": 2644,
      "vietnam": 2645,
      "catch": 2646,
      "kia": 2647,
      "mig": 2648,
      "mix": 2649,
      "si": 2650,
      "tan": 2651,
      "ues": 2652,
      "thin": 2653,
      "level": 2654,
      "oles": 2655,
      "ention": 2656,
      "log": 2657,
      "brought": 2658,
      "finance": 2659,
      "warner": 2660,
      "aze": 2661,
      "businesses": 2662,
      "hurt": 2663,
      "prising": 2664,
      "falls": 2665,
      "sprinters": 2666,
      "sharehold": 2667,
      "atorial": 2668,
      "issue": 2669,
      "focus": 2670,
      "bass": 2671,
      "fill": 2672,
      "fair": 2673,
      "jail": 2674,
      "lu": 2675,
      "lou": 2676,
      "mist": 2677,
      "sab": 2678,
      "tail": 2679,
      "wis": 2680,
      "ato": 2681,
      "ication": 2682,
      "termin": 2683,
      "sug": 2684,
      "serious": 2685,
      "present": 2686,
      "attle": 2687,
      "retur": 2688,
      "fully": 2689,
      "closing": 2690,
      "posts": 2691,
      "equatorial": 2692,
      "potential": 2693,
      "witt": 2694,
      "discovered": 2695,
      "delayed": 2696,
      "piracy": 2697,
      "private": 2698,
      "above": 2699,
      "kabul": 2700,
      "carter": 2701,
      "mex": 2702,
      "nin": 2703,
      "rout": 2704,
      "along": 2705,
      "usa": 2706,
      "import": 2707,
      "losing": 2708,
      "extra": 2709,
      "blow": 2710,
      "flights": 2711,
      "broke": 2712,
      "champions": 2713,
      "everton": 2714,
      "further": 2715,
      "standards": 2716,
      "hostage": 2717,
      "member": 2718,
      "futures": 2719,
      "blockade": 2720,
      "treas": 2721,
      "unveiled": 2722,
      "upgrade": 2723,
      "satellite": 2724,
      "cat": 2725,
      "cies": 2726,
      "hen": 2727,
      "know": 2728,
      "mach": 2729,
      "oh": 2730,
      "sky": 2731,
      "ually": 2732,
      "xin": 2733,
      "stren": 2734,
      "sept": 2735,
      "ope": 2736,
      "hewitt": 2737,
      "clashes": 2738,
      "medical": 2739,
      "servers": 2740,
      "argent": 2741,
      "duct": 2742,
      "highs": 2743,
      "warns": 2744,
      "surv": 2745,
      "lett": 2746,
      "homer": 2747,
      "holiday": 2748,
      "dropped": 2749,
      "deadly": 2750,
      "finds": 2751,
      "didn": 2752,
      "panel": 2753,
      "athletics": 2754,
      "received": 2755,
      "wait": 2756,
      "mortg": 2757,
      "average": 2758,
      "dispute": 2759,
      "individual": 2760,
      "historic": 2761,
      "kathmandu": 2762,
      "streng": 2763,
      "gren": 2764,
      "ki": 2765,
      "lad": 2766,
      "lot": 2767,
      "pain": 2768,
      "wre": 2769,
      "ware": 2770,
      "rever": 2771,
      "lear": 2772,
      "cho": 2773,
      "neigh": 2774,
      "detro": 2775,
      "promp": 2776,
      "looks": 2777,
      "having": 2778,
      "ancient": 2779,
      "statement": 2780,
      "stars": 2781,
      "starts": 2782,
      "begins": 2783,
      "elections": 2784,
      "mao": 2785,
      "sque": 2786,
      "prelimin": 2787,
      "girl": 2788,
      "nik": 2789,
      "though": 2790,
      "ane": 2791,
      "enger": 2792,
      "rod": 2793,
      "sep": 2794,
      "resol": 2795,
      "resident": 2796,
      "abbey": 2797,
      "hew": 2798,
      "strate": 2799,
      "brand": 2800,
      "finished": 2801,
      "count": 2802,
      "dog": 2803,
      "miles": 2804,
      "ministry": 2805,
      "aimed": 2806,
      "operator": 2807,
      "olog": 2808,
      "paid": 2809,
      "seeking": 2810,
      "spring": 2811,
      "wrap": 2812,
      "losses": 2813,
      "spanish": 2814,
      "debt": 2815,
      "association": 2816,
      "impact": 2817,
      "dozens": 2818,
      "approach": 2819,
      "ninth": 2820,
      "xinhu": 2821,
      "detroit": 2822,
      "bes": 2823,
      "dies": 2824,
      "dles": 2825,
      "mater": 2826,
      "pons": 2827,
      "seattle": 2828,
      "adel": 2829,
      "ames": 2830,
      "urged": 2831,
      "beach": 2832,
      "shell": 2833,
      "plant": 2834,
      "placed": 2835,
      "respons": 2836,
      "crib": 2837,
      "aircraft": 2838,
      "planning": 2839,
      "cyber": 2840,
      "enterprise": 2841,
      "wards": 2842,
      "virtu": 2843,
      "audit": 2844,
      "crashed": 2845,
      "palestinians": 2846,
      "raised": 2847,
      "qualify": 2848,
      "fischer": 2849,
      "assault": 2850,
      "premier": 2851,
      "policy": 2852,
      "cand": 2853,
      "cbs": 2854,
      "ku": 2855,
      "sit": 2856,
      "via": 2857,
      "throw": 2858,
      "ony": 2859,
      "alem": 2860,
      "arab": 2861,
      "armed": 2862,
      "asian": 2863,
      "accept": 2864,
      "advis": 2865,
      "ota": 2866,
      "plat": 2867,
      "plus": 2868,
      "respon": 2869,
      "progress": 2870,
      "tember": 2871,
      "worries": 2872,
      "crip": 2873,
      "acher": 2874,
      "dod": 2875,
      "slam": 2876,
      "linked": 2877,
      "below": 2878,
      "risk": 2879,
      "single": 2880,
      "bombs": 2881,
      "volley": 2882,
      "bombing": 2883,
      "silicon": 2884,
      "packard": 2885,
      "seventh": 2886,
      "struction": 2887,
      "blasts": 2888,
      "boxing": 2889,
      "approved": 2890,
      "batteries": 2891,
      "estimates": 2892,
      "organization": 2893,
      "current": 2894,
      "inflation": 2895,
      "mutual": 2896,
      "pipel": 2897,
      "september": 2898,
      "hewlett": 2899,
      "cink": 2900,
      "dv": 2901,
      "fel": 2902,
      "gat": 2903,
      "given": 2904,
      "hous": 2905,
      "mad": 2906,
      "rare": 2907,
      "rust": 2908,
      "vend": 2909,
      "ald": 2910,
      "ico": 2911,
      "iders": 2912,
      "veter": 2913,
      "ctors": 2914,
      "why": 2915,
      "abad": 2916,
      "astron": 2917,
      "saw": 2918,
      "spar": 2919,
      "airport": 2920,
      "liament": 2921,
      "angels": 2922,
      "millions": 2923,
      "guil": 2924,
      "parliament": 2925,
      "carry": 2926,
      "appeals": 2927,
      "appeared": 2928,
      "seek": 2929,
      "facing": 2930,
      "missile": 2931,
      "breaking": 2932,
      "ribut": 2933,
      "issued": 2934,
      "davis": 2935,
      "returned": 2936,
      "continues": 2937,
      "royal": 2938,
      "islamabad": 2939,
      "ticket": 2940,
      "problem": 2941,
      "classic": 2942,
      "electronics": 2943,
      "advertising": 2944,
      "rocket": 2945,
      "suggest": 2946,
      "volleyball": 2947,
      "cable": 2948,
      "gies": 2949,
      "mun": 2950,
      "pend": 2951,
      "scor": 2952,
      "tun": 2953,
      "voy": 2954,
      "wart": 2955,
      "renew": 2956,
      "reason": 2957,
      "alex": 2958,
      "illegal": 2959,
      "ety": 2960,
      "pled": 2961,
      "proposed": 2962,
      "terson": 2963,
      "ock": 2964,
      "haul": 2965,
      "anticip": 2966,
      "nov": 2967,
      "links": 2968,
      "guer": 2969,
      "proved": 2970,
      "closer": 2971,
      "entertain": 2972,
      "oded": 2973,
      "sony": 2974,
      "ruled": 2975,
      "burund": 2976,
      "increased": 2977,
      "initi": 2978,
      "ikes": 2979,
      "caused": 2980,
      "houston": 2981,
      "malays": 2982,
      "voip": 2983,
      "astern": 2984,
      "crowd": 2985,
      "electronic": 2986,
      "brown": 2987,
      "birth": 2988,
      "golf": 2989,
      "victim": 2990,
      "mountain": 2991,
      "material": 2992,
      "candid": 2993,
      "aid": 2994,
      "ather": 2995,
      "nd": 2996,
      "nan": 2997,
      "sar": 2998,
      "song": 2999
    },
    "merges": [
      [
        "i",
        "n"
      ],
      [
        "t",
        "h"
      ],
      [
        "e",
        "r"
      ],
      [
        "a",
        "n"
      ],
      [
        "o",
        "n"
      ],
      [
        "r",
        "e"
      ],
      [
        "th",
        "e"
      ],
      [
        "s",
        "t"
      ],
      [
        "o",
        "r"
      ],
      [
        "a",
        "t"
      ],
      [
        "e",
        "d"
      ],
      [
        "a",
        "l"
      ],
      [
        "e",
        "n"
      ],
      [
        "a",
        "r"
      ],
      [
        "e",
        "s"
      ],
      [
        "in",
        "g"
      ],
      [
        "i",
        "t"
      ],
      [
        "t",
        "o"
      ],
      [
        "o",
        "f"
      ],
      [
        "i",
        "c"
      ],
      [
        "a",
        "s"
      ],
      [
        "o",
        "u"
      ],
      [
        "i",
        "s"
      ],
      [
        "l",
        "e"
      ],
      [
        "a",
        "y"
      ],
      [
        "r",
        "o"
      ],
      [
        "an",
        "d"
      ],
      [
        "i",
        "l"
      ],
      [
        "i",
        "on"
      ],
      [
        "c",
        "h"
      ],
      [
        "t",
        "er"
      ],
      [
        "s",
        "e"
      ],
      [
        "o",
        "l"
      ],
      [
        "o",
        "m"
      ],
      [
        "i",
        "d"
      ],
      [
        "a",
        "c"
      ],
      [
        "a",
        "d"
      ],
      [
        "a",
        "m"
      ],
      [
        "e",
        "l"
      ],
      [
        "f",
        "or"
      ],
      [
        "en",
        "t"
      ],
      [
        "i",
        "r"
      ],
      [
        "n",
        "e"
      ],
      [
        "i",
        "g"
      ],
      [
        "u",
        "r"
      ],
      [
        "d",
        "ay"
      ],
      [
        "u",
        "s"
      ],
      [
        "u",
        "n"
      ],
      [
        "a",
        "p"
      ],
      [
        "v",
        "e"
      ],
      [
        "v",
        "er"
      ],
      [
        "b",
        "e"
      ],
      [
        "d",
        "e"
      ],
      [
        "o",
        "t"
      ],
      [
        "a",
        "g"
      ],
      [
        "o",
        "w"
      ],
      [
        "i",
        "m"
      ],
      [
        "c",
        "on"
      ],
      [
        "s",
        "h"
      ],
      [
        "il",
        "l"
      ],
      [
        "c",
        "om"
      ],
      [
        "e",
        "t"
      ],
      [
        "o",
        "p"
      ],
      [
        "al",
        "l"
      ],
      [
        "er",
        "s"
      ],
      [
        "a",
        "f"
      ],
      [
        "p",
        "l"
      ],
      [
        "u",
        "t"
      ],
      [
        "w",
        "i"
      ],
      [
        "q",
        "u"
      ],
      [
        "at",
        "ion"
      ],
      [
        "e",
        "st"
      ],
      [
        "c",
        "e"
      ],
      [
        "c",
        "t"
      ],
      [
        "ig",
        "h"
      ],
      [
        "re",
        "s"
      ],
      [
        "u",
        "l"
      ],
      [
        "m",
        "o"
      ],
      [
        "t",
        "r"
      ],
      [
        "wi",
        "th"
      ],
      [
        "p",
        "r"
      ],
      [
        "p",
        "ro"
      ],
      [
        "u",
        "p"
      ],
      [
        "w",
        "h"
      ],
      [
        "ter",
        "s"
      ],
      [
        "p",
        "e"
      ],
      [
        "i",
        "st"
      ],
      [
        "th",
        "at"
      ],
      [
        "a",
        "b"
      ],
      [
        "ne",
        "w"
      ],
      [
        "a",
        "k"
      ],
      [
        "ou",
        "n"
      ],
      [
        "a",
        "re"
      ],
      [
        "it",
        "s"
      ],
      [
        "l",
        "o"
      ],
      [
        ".",
        "."
      ],
      [
        "a",
        "st"
      ],
      [
        "a",
        "in"
      ],
      [
        "e",
        "x"
      ],
      [
        "o",
        "ver"
      ],
      [
        "t",
        "s"
      ],
      [
        "b",
        "y"
      ],
      [
        "e",
        "ar"
      ],
      [
        "k",
        "s"
      ],
      [
        "l",
        "y"
      ],
      [
        "s",
        "a"
      ],
      [
        "t",
        "e"
      ],
      [
        "t",
        "w"
      ],
      [
        "u",
        "ters"
      ],
      [
        "m",
        "ent"
      ],
      [
        "a",
        "u"
      ],
      [
        "re",
        "uters"
      ],
      [
        "s",
        "u"
      ],
      [
        "i",
        "an"
      ],
      [
        "h",
        "e"
      ],
      [
        "m",
        "p"
      ],
      [
        "st",
        "r"
      ],
      [
        "ou",
        "r"
      ],
      [
        "ou",
        "t"
      ],
      [
        "l",
        "d"
      ],
      [
        "p",
        "o"
      ],
      [
        "i",
        "a"
      ],
      [
        "at",
        "e"
      ],
      [
        "p",
        "or"
      ],
      [
        "sa",
        "id"
      ],
      [
        "c",
        "l"
      ],
      [
        "of",
        "f"
      ],
      [
        "ro",
        "m"
      ],
      [
        "w",
        "e"
      ],
      [
        "i",
        "es"
      ],
      [
        "com",
        "p"
      ],
      [
        "w",
        "as"
      ],
      [
        "ol",
        "d"
      ],
      [
        "igh",
        "t"
      ],
      [
        "h",
        "as"
      ],
      [
        "en",
        "d"
      ],
      [
        "m",
        "an"
      ],
      [
        "ac",
        "k"
      ],
      [
        "f",
        "rom"
      ],
      [
        "i",
        "al"
      ],
      [
        "es",
        "s"
      ],
      [
        "m",
        "on"
      ],
      [
        "c",
        "o"
      ],
      [
        "w",
        "or"
      ],
      [
        "m",
        "ar"
      ],
      [
        "c",
        "r"
      ],
      [
        "i",
        "f"
      ],
      [
        "o",
        "c"
      ],
      [
        "in",
        "e"
      ],
      [
        "in",
        "d"
      ],
      [
        "it",
        "y"
      ],
      [
        "h",
        "a"
      ],
      [
        "i",
        "p"
      ],
      [
        "b",
        "r"
      ],
      [
        "o",
        "o"
      ],
      [
        "h",
        "is"
      ],
      [
        "s",
        "p"
      ],
      [
        "ol",
        "y"
      ],
      [
        "c",
        "or"
      ],
      [
        "i",
        "v"
      ],
      [
        "b",
        "l"
      ],
      [
        "n",
        "s"
      ],
      [
        "g",
        "r"
      ],
      [
        "on",
        "e"
      ],
      [
        "f",
        "r"
      ],
      [
        "g",
        "e"
      ],
      [
        "af",
        "ter"
      ],
      [
        "re",
        "e"
      ],
      [
        "e",
        "m"
      ],
      [
        "th",
        "er"
      ],
      [
        "k",
        "e"
      ],
      [
        "w",
        "ill"
      ],
      [
        "oly",
        "mp"
      ],
      [
        "ar",
        "d"
      ],
      [
        "es",
        "day"
      ],
      [
        "i",
        "ve"
      ],
      [
        "olymp",
        "ic"
      ],
      [
        "ar",
        "t"
      ],
      [
        "f",
        "ir"
      ],
      [
        "ic",
        "e"
      ],
      [
        "m",
        "ed"
      ],
      [
        "o",
        "re"
      ],
      [
        "an",
        "t"
      ],
      [
        "i",
        "e"
      ],
      [
        "g",
        "h"
      ],
      [
        "por",
        "t"
      ],
      [
        "..",
        "."
      ],
      [
        "p",
        "er"
      ],
      [
        "y",
        "ear"
      ],
      [
        "qu",
        "ot"
      ],
      [
        "b",
        "ut"
      ],
      [
        "re",
        "d"
      ],
      [
        "oun",
        "d"
      ],
      [
        "ac",
        "e"
      ],
      [
        "u",
        "st"
      ],
      [
        "s",
        "er"
      ],
      [
        "in",
        "ter"
      ],
      [
        "el",
        "l"
      ],
      [
        "a",
        "w"
      ],
      [
        "l",
        "t"
      ],
      [
        "b",
        "o"
      ],
      [
        "p",
        "res"
      ],
      [
        "ha",
        "ve"
      ],
      [
        "ou",
        "ld"
      ],
      [
        "a",
        "q"
      ],
      [
        "a",
        "v"
      ],
      [
        "in",
        "c"
      ],
      [
        "on",
        "g"
      ],
      [
        "u",
        "m"
      ],
      [
        "f",
        "in"
      ],
      [
        "an",
        "s"
      ],
      [
        "ac",
        "t"
      ],
      [
        "is",
        "h"
      ],
      [
        "a",
        "ir"
      ],
      [
        "er",
        "e"
      ],
      [
        "p",
        "h"
      ],
      [
        "n",
        "ing"
      ],
      [
        "g",
        "t"
      ],
      [
        "f",
        "l"
      ],
      [
        "a",
        "the"
      ],
      [
        "ir",
        "aq"
      ],
      [
        "athe",
        "ns"
      ],
      [
        "tw",
        "o"
      ],
      [
        "t",
        "u"
      ],
      [
        "ar",
        "g"
      ],
      [
        "ag",
        "e"
      ],
      [
        "s",
        "of"
      ],
      [
        "mo",
        "re"
      ],
      [
        "we",
        "e"
      ],
      [
        "o",
        "il"
      ],
      [
        "b",
        "an"
      ],
      [
        "comp",
        "an"
      ],
      [
        "at",
        "t"
      ],
      [
        "ic",
        "es"
      ],
      [
        "i",
        "le"
      ],
      [
        "d",
        "er"
      ],
      [
        "n",
        "ation"
      ],
      [
        "ay",
        "s"
      ],
      [
        "g",
        "old"
      ],
      [
        "t",
        "im"
      ],
      [
        "u",
        "d"
      ],
      [
        "a",
        "il"
      ],
      [
        "the",
        "ir"
      ],
      [
        "c",
        "ent"
      ],
      [
        "m",
        "in"
      ],
      [
        "or",
        "k"
      ],
      [
        "ow",
        "n"
      ],
      [
        "d",
        "is"
      ],
      [
        "it",
        "e"
      ],
      [
        "om",
        "e"
      ],
      [
        "fir",
        "st"
      ],
      [
        "er",
        "ic"
      ],
      [
        "ill",
        "ion"
      ],
      [
        "m",
        "ic"
      ],
      [
        "n",
        "ot"
      ],
      [
        "as",
        "s"
      ],
      [
        "w",
        "in"
      ],
      [
        "se",
        "c"
      ],
      [
        "am",
        "p"
      ],
      [
        "j",
        "o"
      ],
      [
        "k",
        "et"
      ],
      [
        "m",
        "er"
      ],
      [
        "id",
        "e"
      ],
      [
        "d",
        "r"
      ],
      [
        "d",
        "u"
      ],
      [
        "g",
        "am"
      ],
      [
        "s",
        "c"
      ],
      [
        "m",
        "e"
      ],
      [
        "f",
        "e"
      ],
      [
        "l",
        "i"
      ],
      [
        "b",
        "er"
      ],
      [
        "ro",
        "w"
      ],
      [
        "f",
        "i"
      ],
      [
        "st",
        "oc"
      ],
      [
        "or",
        "s"
      ],
      [
        "c",
        "an"
      ],
      [
        "le",
        "ad"
      ],
      [
        "t",
        "on"
      ],
      [
        "b",
        "us"
      ],
      [
        "wor",
        "ld"
      ],
      [
        "in",
        "t"
      ],
      [
        "a",
        "ch"
      ],
      [
        "th",
        "is"
      ],
      [
        "as",
        "e"
      ],
      [
        "v",
        "en"
      ],
      [
        "h",
        "igh"
      ],
      [
        "at",
        "es"
      ],
      [
        "n",
        "o"
      ],
      [
        "al",
        "s"
      ],
      [
        "ct",
        "ion"
      ],
      [
        "ur",
        "s"
      ],
      [
        "m",
        "is"
      ],
      [
        "a",
        "j"
      ],
      [
        "ou",
        "gh"
      ],
      [
        "se",
        "t"
      ],
      [
        "it",
        "ion"
      ],
      [
        "m",
        "ak"
      ],
      [
        "ig",
        "n"
      ],
      [
        "th",
        "an"
      ],
      [
        "id",
        "ent"
      ],
      [
        "mon",
        "day"
      ],
      [
        "cor",
        "d"
      ],
      [
        "b",
        "u"
      ],
      [
        "re",
        "t"
      ],
      [
        "id",
        "ay"
      ],
      [
        "c",
        "oun"
      ],
      [
        "compan",
        "y"
      ],
      [
        "re",
        "l"
      ],
      [
        "ou",
        "s"
      ],
      [
        "th",
        "urs"
      ],
      [
        "thurs",
        "day"
      ],
      [
        "d",
        "o"
      ],
      [
        "tu",
        "esday"
      ],
      [
        "i",
        "z"
      ],
      [
        "r",
        "a"
      ],
      [
        "wee",
        "k"
      ],
      [
        "an",
        "n"
      ],
      [
        "s",
        "s"
      ],
      [
        "p",
        "ol"
      ],
      [
        "it",
        "ed"
      ],
      [
        "i",
        "b"
      ],
      [
        "w",
        "ed"
      ],
      [
        "g",
        "oo"
      ],
      [
        "s",
        "l"
      ],
      [
        "an",
        "g"
      ],
      [
        "ag",
        "ain"
      ],
      [
        "ic",
        "h"
      ],
      [
        "p",
        "art"
      ],
      [
        "est",
        "er"
      ],
      [
        "m",
        "il"
      ],
      [
        "fr",
        "iday"
      ],
      [
        "w",
        "ar"
      ],
      [
        "y",
        "ork"
      ],
      [
        "en",
        "ce"
      ],
      [
        "g",
        "o"
      ],
      [
        "l",
        "in"
      ],
      [
        "b",
        "ack"
      ],
      [
        "ar",
        "ch"
      ],
      [
        "s",
        "un"
      ],
      [
        "con",
        "d"
      ],
      [
        "c",
        "k"
      ],
      [
        "f",
        "ore"
      ],
      [
        "a",
        "th"
      ],
      [
        "in",
        "to"
      ],
      [
        "ad",
        "e"
      ],
      [
        "as",
        "h"
      ],
      [
        "wh",
        "o"
      ],
      [
        "s",
        "ion"
      ],
      [
        "h",
        "el"
      ],
      [
        "ic",
        "k"
      ],
      [
        "con",
        "t"
      ],
      [
        "at",
        "ed"
      ],
      [
        "ar",
        "y"
      ],
      [
        "pe",
        "ct"
      ],
      [
        "pr",
        "ices"
      ],
      [
        "u",
        "e"
      ],
      [
        "am",
        "eric"
      ],
      [
        "l",
        "ast"
      ],
      [
        "s",
        "y"
      ],
      [
        "n",
        "esday"
      ],
      [
        "all",
        "y"
      ],
      [
        "wed",
        "nesday"
      ],
      [
        "ne",
        "t"
      ],
      [
        "or",
        "y"
      ],
      [
        "g",
        "y"
      ],
      [
        "ab",
        "out"
      ],
      [
        "pr",
        "of"
      ],
      [
        "in",
        "a"
      ],
      [
        "an",
        "c"
      ],
      [
        "t",
        "ing"
      ],
      [
        "re",
        "port"
      ],
      [
        "ou",
        "p"
      ],
      [
        "the",
        "y"
      ],
      [
        "te",
        "am"
      ],
      [
        "t",
        "ak"
      ],
      [
        "over",
        "n"
      ],
      [
        "nation",
        "al"
      ],
      [
        "s",
        "ur"
      ],
      [
        "p",
        "u"
      ],
      [
        "se",
        "cond"
      ],
      [
        "off",
        "ic"
      ],
      [
        "se",
        "arch"
      ],
      [
        "au",
        "g"
      ],
      [
        "r",
        "y"
      ],
      [
        "it",
        "al"
      ],
      [
        "mic",
        "ro"
      ],
      [
        "b",
        "el"
      ],
      [
        "tim",
        "e"
      ],
      [
        "l",
        "ine"
      ],
      [
        "o",
        "k"
      ],
      [
        "ation",
        "s"
      ],
      [
        "sof",
        "t"
      ],
      [
        "ic",
        "t"
      ],
      [
        "s",
        "al"
      ],
      [
        "re",
        "n"
      ],
      [
        "g",
        "l"
      ],
      [
        "pres",
        "ident"
      ],
      [
        "th",
        "ree"
      ],
      [
        "ser",
        "v"
      ],
      [
        "d",
        "own"
      ],
      [
        "med",
        "al"
      ],
      [
        "g",
        "overn"
      ],
      [
        "s",
        "at"
      ],
      [
        "s",
        "o"
      ],
      [
        "ow",
        "s"
      ],
      [
        "an",
        "ce"
      ],
      [
        "m",
        "illion"
      ],
      [
        "pl",
        "an"
      ],
      [
        "mil",
        "it"
      ],
      [
        "w",
        "ere"
      ],
      [
        "us",
        "s"
      ],
      [
        "min",
        "ist"
      ],
      [
        "le",
        "g"
      ],
      [
        "k",
        "ill"
      ],
      [
        "g",
        "er"
      ],
      [
        "ar",
        "ter"
      ],
      [
        "f",
        "ul"
      ],
      [
        "pu",
        "bl"
      ],
      [
        "c",
        "ap"
      ],
      [
        "s",
        "up"
      ],
      [
        "b",
        "all"
      ],
      [
        "n",
        "or"
      ],
      [
        "ve",
        "st"
      ],
      [
        "pl",
        "ay"
      ],
      [
        "again",
        "st"
      ],
      [
        "stoc",
        "ks"
      ],
      [
        "ur",
        "n"
      ],
      [
        "in",
        "vest"
      ],
      [
        "c",
        "ut"
      ],
      [
        "o",
        "ther"
      ],
      [
        "un",
        "ited"
      ],
      [
        "sun",
        "day"
      ],
      [
        "offic",
        "ial"
      ],
      [
        "mar",
        "ket"
      ],
      [
        "y",
        "ester"
      ],
      [
        "yester",
        "day"
      ],
      [
        "re",
        "g"
      ],
      [
        "d",
        "es"
      ],
      [
        "govern",
        "ment"
      ],
      [
        "ap",
        "p"
      ],
      [
        "f",
        "our"
      ],
      [
        "sec",
        "ur"
      ],
      [
        "be",
        "en"
      ],
      [
        "g",
        "u"
      ],
      [
        "d",
        "s"
      ],
      [
        "pe",
        "op"
      ],
      [
        "h",
        "ad"
      ],
      [
        "micro",
        "soft"
      ],
      [
        "ban",
        "k"
      ],
      [
        "c",
        "our"
      ],
      [
        "p",
        "ar"
      ],
      [
        "t",
        "al"
      ],
      [
        "b",
        "as"
      ],
      [
        "e",
        "p"
      ],
      [
        "ab",
        "le"
      ],
      [
        "m",
        "en"
      ],
      [
        "tr",
        "y"
      ],
      [
        "u",
        "g"
      ],
      [
        "ol",
        "l"
      ],
      [
        "c",
        "all"
      ],
      [
        "wh",
        "en"
      ],
      [
        "g",
        "ree"
      ],
      [
        "ow",
        "er"
      ],
      [
        "goo",
        "g"
      ],
      [
        "e",
        "le"
      ],
      [
        "at",
        "ing"
      ],
      [
        "gr",
        "oup"
      ],
      [
        "ic",
        "al"
      ],
      [
        "m",
        "s"
      ],
      [
        "a",
        "z"
      ],
      [
        "r",
        "un"
      ],
      [
        "s",
        "ou"
      ],
      [
        "s",
        "ays"
      ],
      [
        "to",
        "p"
      ],
      [
        "he",
        "ad"
      ],
      [
        "c",
        "ould"
      ],
      [
        "w",
        "ay"
      ],
      [
        "op",
        "en"
      ],
      [
        "af",
        "p"
      ],
      [
        "re",
        "cord"
      ],
      [
        "g",
        "et"
      ],
      [
        "m",
        "ay"
      ],
      [
        "t",
        "y"
      ],
      [
        "t",
        "est"
      ],
      [
        "c",
        "ed"
      ],
      [
        "h",
        "ing"
      ],
      [
        "re",
        "f"
      ],
      [
        "po",
        "s"
      ],
      [
        "s",
        "ome"
      ],
      [
        "peop",
        "le"
      ],
      [
        "b",
        "s"
      ],
      [
        "p",
        "re"
      ],
      [
        "au",
        "str"
      ],
      [
        "cor",
        "p"
      ],
      [
        "r",
        "ic"
      ],
      [
        "r",
        "uss"
      ],
      [
        "pro",
        "v"
      ],
      [
        "r",
        "is"
      ],
      [
        "wh",
        "ich"
      ],
      [
        "te",
        "ch"
      ],
      [
        "de",
        "v"
      ],
      [
        "goog",
        "le"
      ],
      [
        "qu",
        "arter"
      ],
      [
        "publ",
        "ic"
      ],
      [
        "ist",
        "s"
      ],
      [
        "v",
        "i"
      ],
      [
        "l",
        "l"
      ],
      [
        "at",
        "ch"
      ],
      [
        "s",
        "ing"
      ],
      [
        "olympic",
        "s"
      ],
      [
        "gam",
        "es"
      ],
      [
        "j",
        "ust"
      ],
      [
        "er",
        "al"
      ],
      [
        "n",
        "aj"
      ],
      [
        "c",
        "ar"
      ],
      [
        "f",
        "o"
      ],
      [
        "naj",
        "af"
      ],
      [
        "austr",
        "al"
      ],
      [
        "n",
        "ight"
      ],
      [
        "g",
        "en"
      ],
      [
        "w",
        "ould"
      ],
      [
        "c",
        "y"
      ],
      [
        "b",
        "ig"
      ],
      [
        "per",
        "cent"
      ],
      [
        "a",
        "im"
      ],
      [
        "c",
        "er"
      ],
      [
        "o",
        "s"
      ],
      [
        "v",
        "ent"
      ],
      [
        "en",
        "s"
      ],
      [
        "c",
        "lo"
      ],
      [
        "w",
        "om"
      ],
      [
        "re",
        "at"
      ],
      [
        "c",
        "ol"
      ],
      [
        "ch",
        "ina"
      ],
      [
        "wor",
        "k"
      ],
      [
        "w",
        "ind"
      ],
      [
        "in",
        "ess"
      ],
      [
        "st",
        "em"
      ],
      [
        "w",
        "on"
      ],
      [
        "por",
        "ts"
      ],
      [
        "u",
        "re"
      ],
      [
        "secur",
        "ity"
      ],
      [
        "i",
        "ed"
      ],
      [
        "pro",
        "du"
      ],
      [
        "d",
        "el"
      ],
      [
        "br",
        "it"
      ],
      [
        "c",
        "ess"
      ],
      [
        "e",
        "f"
      ],
      [
        "c",
        "al"
      ],
      [
        "am",
        "e"
      ],
      [
        "inter",
        "net"
      ],
      [
        "mon",
        "th"
      ],
      [
        "mo",
        "st"
      ],
      [
        "h",
        "o"
      ],
      [
        "l",
        "and"
      ],
      [
        "bus",
        "iness"
      ],
      [
        "to",
        "day"
      ],
      [
        "m",
        "us"
      ],
      [
        "t",
        "ed"
      ],
      [
        "fin",
        "al"
      ],
      [
        "i",
        "ver"
      ],
      [
        "ic",
        "s"
      ],
      [
        "year",
        "s"
      ],
      [
        "h",
        "er"
      ],
      [
        "in",
        "s"
      ],
      [
        "con",
        "om"
      ],
      [
        "e",
        "conom"
      ],
      [
        "i",
        "x"
      ],
      [
        "ur",
        "day"
      ],
      [
        "was",
        "hing"
      ],
      [
        "sat",
        "urday"
      ],
      [
        "g",
        "ian"
      ],
      [
        "re",
        "st"
      ],
      [
        "f",
        "ed"
      ],
      [
        "cour",
        "t"
      ],
      [
        "t",
        "a"
      ],
      [
        "re",
        "search"
      ],
      [
        "washing",
        "ton"
      ],
      [
        "ir",
        "d"
      ],
      [
        "tw",
        "are"
      ],
      [
        "sof",
        "tware"
      ],
      [
        "c",
        "le"
      ],
      [
        "l",
        "ed"
      ],
      [
        "ne",
        "x"
      ],
      [
        "e",
        "u"
      ],
      [
        "sh",
        "ip"
      ],
      [
        "minist",
        "er"
      ],
      [
        "ion",
        "s"
      ],
      [
        "ne",
        "tw"
      ],
      [
        "i",
        "re"
      ],
      [
        "ann",
        "oun"
      ],
      [
        "st",
        "ate"
      ],
      [
        "re",
        "le"
      ],
      [
        "ne",
        "ar"
      ],
      [
        "americ",
        "an"
      ],
      [
        "off",
        "er"
      ],
      [
        "l",
        "a"
      ],
      [
        "p",
        "ut"
      ],
      [
        "h",
        "ome"
      ],
      [
        "g",
        "row"
      ],
      [
        "j",
        "e"
      ],
      [
        "s",
        "ch"
      ],
      [
        "a",
        "ve"
      ],
      [
        "h",
        "am"
      ],
      [
        "c",
        "es"
      ],
      [
        "hel",
        "p"
      ],
      [
        "us",
        "ed"
      ],
      [
        "com",
        "m"
      ],
      [
        "h",
        "old"
      ],
      [
        "op",
        "er"
      ],
      [
        "po",
        "st"
      ],
      [
        "un",
        "der"
      ],
      [
        "new",
        "s"
      ],
      [
        "l",
        "ong"
      ],
      [
        "st",
        "ates"
      ],
      [
        "b",
        "ro"
      ],
      [
        "v",
        "is"
      ],
      [
        "it",
        "ies"
      ],
      [
        "sy",
        "stem"
      ],
      [
        "sal",
        "es"
      ],
      [
        "v",
        "ict"
      ],
      [
        "r",
        "or"
      ],
      [
        "en",
        "ter"
      ],
      [
        "de",
        "al"
      ],
      [
        "b",
        "le"
      ],
      [
        "l",
        "es"
      ],
      [
        "el",
        "y"
      ],
      [
        "ap",
        "an"
      ],
      [
        "b",
        "oo"
      ],
      [
        "ol",
        "o"
      ],
      [
        "j",
        "apan"
      ],
      [
        "an",
        "ge"
      ],
      [
        "ing",
        "s"
      ],
      [
        "de",
        "f"
      ],
      [
        "ag",
        "o"
      ],
      [
        "as",
        "on"
      ],
      [
        "t",
        "le"
      ],
      [
        "c",
        "ity"
      ],
      [
        "h",
        "u"
      ],
      [
        "ist",
        "an"
      ],
      [
        "ch",
        "amp"
      ],
      [
        "ex",
        "pect"
      ],
      [
        "nex",
        "t"
      ],
      [
        "wom",
        "en"
      ],
      [
        "le",
        "y"
      ],
      [
        "s",
        "pe"
      ],
      [
        "n",
        "er"
      ],
      [
        "b",
        "re"
      ],
      [
        "d",
        "on"
      ],
      [
        "prof",
        "it"
      ],
      [
        "eu",
        "ro"
      ],
      [
        "i",
        "ent"
      ],
      [
        "official",
        "s"
      ],
      [
        "p",
        "a"
      ],
      [
        "tech",
        "n"
      ],
      [
        "gam",
        "e"
      ],
      [
        "i",
        "er"
      ],
      [
        "ar",
        "m"
      ],
      [
        "sou",
        "th"
      ],
      [
        "es",
        "e"
      ],
      [
        "un",
        "d"
      ],
      [
        "th",
        "r"
      ],
      [
        "co",
        "st"
      ],
      [
        "b",
        "lo"
      ],
      [
        "s",
        "ay"
      ],
      [
        "bu",
        "y"
      ],
      [
        "b",
        "ar"
      ],
      [
        "j",
        "u"
      ],
      [
        "im",
        "e"
      ],
      [
        "h",
        "it"
      ],
      [
        "un",
        "ch"
      ],
      [
        "bus",
        "h"
      ],
      [
        "serv",
        "ice"
      ],
      [
        "d",
        "an"
      ],
      [
        "n",
        "ow"
      ],
      [
        "at",
        "er"
      ],
      [
        "ul",
        "t"
      ],
      [
        "o",
        "d"
      ],
      [
        "ter",
        "ror"
      ],
      [
        "b",
        "illion"
      ],
      [
        "wind",
        "ows"
      ],
      [
        "le",
        "t"
      ],
      [
        "up",
        "d"
      ],
      [
        "be",
        "fore"
      ],
      [
        "t",
        "arg"
      ],
      [
        "y",
        "ou"
      ],
      [
        "ap",
        "pe"
      ],
      [
        "coun",
        "try"
      ],
      [
        "targ",
        "et"
      ],
      [
        "e",
        "ver"
      ],
      [
        "jo",
        "h"
      ],
      [
        "m",
        "and"
      ],
      [
        "u",
        "al"
      ],
      [
        "ment",
        "s"
      ],
      [
        "a",
        "res"
      ],
      [
        "an",
        "ts"
      ],
      [
        "ch",
        "e"
      ],
      [
        "can",
        "ad"
      ],
      [
        "en",
        "g"
      ],
      [
        "cl",
        "aim"
      ],
      [
        "gree",
        "ce"
      ],
      [
        "l",
        "aw"
      ],
      [
        "m",
        "ain"
      ],
      [
        "ac",
        "ks"
      ],
      [
        "s",
        "us"
      ],
      [
        "tal",
        "ks"
      ],
      [
        "k",
        "er"
      ],
      [
        "s",
        "an"
      ],
      [
        "k",
        "ed"
      ],
      [
        "l",
        "on"
      ],
      [
        "il",
        "d"
      ],
      [
        "ur",
        "ing"
      ],
      [
        "quot",
        "e"
      ],
      [
        "st",
        "ar"
      ],
      [
        "is",
        "ra"
      ],
      [
        "isra",
        "el"
      ],
      [
        "d",
        "ro"
      ],
      [
        "s",
        "w"
      ],
      [
        "st",
        "art"
      ],
      [
        "de",
        "c"
      ],
      [
        "f",
        "ound"
      ],
      [
        "h",
        "al"
      ],
      [
        "p",
        "ower"
      ],
      [
        "b",
        "om"
      ],
      [
        "st",
        "e"
      ],
      [
        "iv",
        "es"
      ],
      [
        "ie",
        "f"
      ],
      [
        "for",
        "m"
      ],
      [
        "f",
        "er"
      ],
      [
        "h",
        "ur"
      ],
      [
        "p",
        "al"
      ],
      [
        "vict",
        "ory"
      ],
      [
        "a",
        "h"
      ],
      [
        "m",
        "or"
      ],
      [
        "pr",
        "is"
      ],
      [
        "sh",
        "ar"
      ],
      [
        "pl",
        "ans"
      ],
      [
        "f",
        "t"
      ],
      [
        "sh",
        "ow"
      ],
      [
        "iraq",
        "i"
      ],
      [
        "tak",
        "e"
      ],
      [
        "dev",
        "el"
      ],
      [
        "k",
        "ing"
      ],
      [
        "s",
        "on"
      ],
      [
        "wh",
        "at"
      ],
      [
        "stoc",
        "k"
      ],
      [
        "re",
        "bel"
      ],
      [
        "thr",
        "ough"
      ],
      [
        "f",
        "all"
      ],
      [
        "l",
        "if"
      ],
      [
        "p",
        "t"
      ],
      [
        "inter",
        "national"
      ],
      [
        "g",
        "est"
      ],
      [
        "be",
        "at"
      ],
      [
        "c",
        "ast"
      ],
      [
        "m",
        "aj"
      ],
      [
        "kill",
        "ed"
      ],
      [
        "ful",
        "l"
      ],
      [
        "sh",
        "ares"
      ],
      [
        "re",
        "ad"
      ],
      [
        "c",
        "over"
      ],
      [
        "u",
        "k"
      ],
      [
        "as",
        "ed"
      ],
      [
        "r",
        "ound"
      ],
      [
        "t",
        "ain"
      ],
      [
        "pres",
        "s"
      ],
      [
        "se",
        "e"
      ],
      [
        "ex",
        "pl"
      ],
      [
        "comp",
        "u"
      ],
      [
        "i",
        "o"
      ],
      [
        "v",
        "ie"
      ],
      [
        "end",
        "ing"
      ],
      [
        "c",
        "au"
      ],
      [
        "ch",
        "arg"
      ],
      [
        "m",
        "u"
      ],
      [
        "we",
        "b"
      ],
      [
        "techn",
        "olo"
      ],
      [
        "f",
        "re"
      ],
      [
        "p",
        "ay"
      ],
      [
        "u",
        "el"
      ],
      [
        "mus",
        "ic"
      ],
      [
        "s",
        "m"
      ],
      [
        "com",
        "e"
      ],
      [
        "s",
        "pr"
      ],
      [
        "t",
        "ro"
      ],
      [
        "st",
        "re"
      ],
      [
        "ad",
        "r"
      ],
      [
        "lo",
        "ok"
      ],
      [
        "f",
        "ur"
      ],
      [
        "h",
        "om"
      ],
      [
        "h",
        "ow"
      ],
      [
        "announ",
        "ced"
      ],
      [
        "report",
        "ed"
      ],
      [
        "austral",
        "ia"
      ],
      [
        "maj",
        "or"
      ],
      [
        "h",
        "im"
      ],
      [
        "p",
        "ed"
      ],
      [
        "v",
        "ol"
      ],
      [
        "russ",
        "ian"
      ],
      [
        "upd",
        "ate"
      ],
      [
        "t",
        "en"
      ],
      [
        "th",
        "ird"
      ],
      [
        "be",
        "g"
      ],
      [
        "i",
        "po"
      ],
      [
        "n",
        "ed"
      ],
      [
        "wh",
        "ile"
      ],
      [
        "e",
        "y"
      ],
      [
        "i",
        "ke"
      ],
      [
        "ac",
        "c"
      ],
      [
        "man",
        "y"
      ],
      [
        "w",
        "ard"
      ],
      [
        "re",
        "al"
      ],
      [
        "st",
        "ud"
      ],
      [
        "att",
        "ack"
      ],
      [
        "r",
        "ul"
      ],
      [
        "u",
        "str"
      ],
      [
        "pol",
        "ice"
      ],
      [
        "nor",
        "th"
      ],
      [
        "champ",
        "ion"
      ],
      [
        "v",
        "ir"
      ],
      [
        "ac",
        "cord"
      ],
      [
        "g",
        "ed"
      ],
      [
        "k",
        "y"
      ],
      [
        "l",
        "arg"
      ],
      [
        "w",
        "r"
      ],
      [
        "se",
        "ason"
      ],
      [
        "mis",
        "sion"
      ],
      [
        "i",
        "ous"
      ],
      [
        "compu",
        "ter"
      ],
      [
        "p",
        "s"
      ],
      [
        "in",
        "ce"
      ],
      [
        "the",
        "m"
      ],
      [
        "w",
        "al"
      ],
      [
        "r",
        "on"
      ],
      [
        "la",
        "unch"
      ],
      [
        "d",
        "at"
      ],
      [
        "n",
        "y"
      ],
      [
        "on",
        "es"
      ],
      [
        "st",
        "ill"
      ],
      [
        "cr",
        "u"
      ],
      [
        "devel",
        "op"
      ],
      [
        ".",
        ","
      ],
      [
        "fed",
        "eral"
      ],
      [
        "b",
        "al"
      ],
      [
        "ch",
        "ip"
      ],
      [
        "pr",
        "ime"
      ],
      [
        "le",
        "ast"
      ],
      [
        "fi",
        "el"
      ],
      [
        "in",
        "cl"
      ],
      [
        "h",
        "and"
      ],
      [
        "s",
        "en"
      ],
      [
        "comp",
        "et"
      ],
      [
        "je",
        "ct"
      ],
      [
        "oo",
        "d"
      ],
      [
        "accord",
        "ing"
      ],
      [
        "st",
        "and"
      ],
      [
        "dr",
        "ug"
      ],
      [
        "grow",
        "th"
      ],
      [
        "for",
        "mer"
      ],
      [
        "pr",
        "ice"
      ],
      [
        "str",
        "ong"
      ],
      [
        "tr",
        "ad"
      ],
      [
        "f",
        "ight"
      ],
      [
        "ch",
        "ar"
      ],
      [
        "sh",
        "e"
      ],
      [
        "qu",
        "ick"
      ],
      [
        "cont",
        "in"
      ],
      [
        "bom",
        "b"
      ],
      [
        "f",
        "ace"
      ],
      [
        "r",
        "ad"
      ],
      [
        "on",
        "line"
      ],
      [
        "con",
        "su"
      ],
      [
        "ph",
        "one"
      ],
      [
        "brit",
        "ish"
      ],
      [
        "m",
        "ade"
      ],
      [
        "an",
        "other"
      ],
      [
        "al",
        "th"
      ],
      [
        "am",
        "s"
      ],
      [
        "high",
        "er"
      ],
      [
        "euro",
        "pe"
      ],
      [
        "cau",
        "se"
      ],
      [
        "tw",
        "e"
      ],
      [
        "ind",
        "ustr"
      ],
      [
        "h",
        "op"
      ],
      [
        "z",
        "e"
      ],
      [
        "ke",
        "y"
      ],
      [
        "ric",
        "an"
      ],
      [
        "lead",
        "er"
      ],
      [
        "produ",
        "ct"
      ],
      [
        "c",
        "amp"
      ],
      [
        "f",
        "ive"
      ],
      [
        "on",
        "s"
      ],
      [
        "d",
        "ar"
      ],
      [
        "m",
        "ot"
      ],
      [
        "pe",
        "ace"
      ],
      [
        "mak",
        "e"
      ],
      [
        "de",
        "mand"
      ],
      [
        "ning",
        "s"
      ],
      [
        "ele",
        "ction"
      ],
      [
        "f",
        "act"
      ],
      [
        "s",
        "ign"
      ],
      [
        "mo",
        "b"
      ],
      [
        "mak",
        "er"
      ],
      [
        "expect",
        "ed"
      ],
      [
        "r",
        "iv"
      ],
      [
        "s",
        "il"
      ],
      [
        "ac",
        "qu"
      ],
      [
        "cont",
        "ro"
      ],
      [
        "aug",
        "ust"
      ],
      [
        "j",
        "ud"
      ],
      [
        "u",
        "se"
      ],
      [
        "sh",
        "i"
      ],
      [
        "pos",
        "ition"
      ],
      [
        "w",
        "est"
      ],
      [
        "se",
        "ll"
      ],
      [
        "te",
        "le"
      ],
      [
        "fir",
        "m"
      ],
      [
        "win",
        "s"
      ],
      [
        "joh",
        "n"
      ],
      [
        "technolo",
        "gy"
      ],
      [
        "h",
        "ol"
      ],
      [
        "u",
        "res"
      ],
      [
        "p",
        "ak"
      ],
      [
        "ele",
        "ct"
      ],
      [
        "su",
        "dan"
      ],
      [
        "fe",
        "ct"
      ],
      [
        "f",
        "ac"
      ],
      [
        "k",
        "ore"
      ],
      [
        "l",
        "at"
      ],
      [
        "ro",
        "ss"
      ],
      [
        "ent",
        "s"
      ],
      [
        "vie",
        "w"
      ],
      [
        "o",
        "y"
      ],
      [
        "s",
        "ix"
      ],
      [
        "sh",
        "are"
      ],
      [
        "end",
        "ed"
      ],
      [
        "ret",
        "ail"
      ],
      [
        "incl",
        "ud"
      ],
      [
        "c",
        "u"
      ],
      [
        "t",
        "or"
      ],
      [
        "bas",
        "ed"
      ],
      [
        "dro",
        "p"
      ],
      [
        "larg",
        "est"
      ],
      [
        "ough",
        "t"
      ],
      [
        "b",
        "ur"
      ],
      [
        "e",
        "ven"
      ],
      [
        "m",
        "et"
      ],
      [
        "st",
        "er"
      ],
      [
        "at",
        "or"
      ],
      [
        "cl",
        "eric"
      ],
      [
        "be",
        "twe"
      ],
      [
        "betwe",
        "en"
      ],
      [
        "v",
        "es"
      ],
      [
        "on",
        "ly"
      ],
      [
        "con",
        "tr"
      ],
      [
        "ther",
        "e"
      ],
      [
        "netw",
        "ork"
      ],
      [
        "m",
        "id"
      ],
      [
        "is",
        "co"
      ],
      [
        "ad",
        "d"
      ],
      [
        "mo",
        "ve"
      ],
      [
        "dat",
        "a"
      ],
      [
        "d",
        "ou"
      ],
      [
        "p",
        "c"
      ],
      [
        "pak",
        "istan"
      ],
      [
        "f",
        "il"
      ],
      [
        "le",
        "ag"
      ],
      [
        "ad",
        "v"
      ],
      [
        "n",
        "as"
      ],
      [
        "s",
        "adr"
      ],
      [
        "se",
        "l"
      ],
      [
        "compan",
        "ies"
      ],
      [
        "c",
        "up"
      ],
      [
        "sh",
        "r"
      ],
      [
        "sp",
        "ace"
      ],
      [
        "in",
        "fo"
      ],
      [
        "qu",
        "est"
      ],
      [
        "inc",
        "re"
      ],
      [
        "mob",
        "ile"
      ],
      [
        "lo",
        "ss"
      ],
      [
        "b",
        "id"
      ],
      [
        "l",
        "ing"
      ],
      [
        "gian",
        "t"
      ],
      [
        "b",
        "att"
      ],
      [
        "in",
        "it"
      ],
      [
        "be",
        "ing"
      ],
      [
        "g",
        "re"
      ],
      [
        "s",
        "our"
      ],
      [
        "s",
        "old"
      ],
      [
        "cle",
        "ar"
      ],
      [
        "big",
        "gest"
      ],
      [
        "iver",
        "s"
      ],
      [
        "i",
        "k"
      ],
      [
        "v",
        "ot"
      ],
      [
        "de",
        "ad"
      ],
      [
        "p",
        "ass"
      ],
      [
        "s",
        "ince"
      ],
      [
        "ag",
        "re"
      ],
      [
        "ther",
        "n"
      ],
      [
        "me",
        "et"
      ],
      [
        "milit",
        "ary"
      ],
      [
        "c",
        "a"
      ],
      [
        "h",
        "ear"
      ],
      [
        "an",
        "y"
      ],
      [
        "re",
        "ach"
      ],
      [
        "oll",
        "ar"
      ],
      [
        "fiel",
        "d"
      ],
      [
        "are",
        "d"
      ],
      [
        "invest",
        "ors"
      ],
      [
        "l",
        "ess"
      ],
      [
        "d",
        "om"
      ],
      [
        "p",
        "ack"
      ],
      [
        "mis",
        "s"
      ],
      [
        "vi",
        "ol"
      ],
      [
        "h",
        "ar"
      ],
      [
        "h",
        "ref"
      ],
      [
        "ch",
        "ange"
      ],
      [
        "c",
        "ust"
      ],
      [
        "t",
        "it"
      ],
      [
        "d",
        "ollar"
      ],
      [
        "p",
        "at"
      ],
      [
        "is",
        "e"
      ],
      [
        "le",
        "ft"
      ],
      [
        "russ",
        "ia"
      ],
      [
        "bre",
        "ak"
      ],
      [
        "c",
        "re"
      ],
      [
        "r",
        "i"
      ],
      [
        "ot",
        "s"
      ],
      [
        "ex",
        "e"
      ],
      [
        "th",
        "or"
      ],
      [
        "at",
        "ors"
      ],
      [
        "il",
        "ity"
      ],
      [
        "cap",
        "ital"
      ],
      [
        "r",
        "ight"
      ],
      [
        "or",
        "t"
      ],
      [
        "ar",
        "ound"
      ],
      [
        "op",
        "s"
      ],
      [
        "igh",
        "ts"
      ],
      [
        "on",
        "t"
      ],
      [
        "mar",
        "t"
      ],
      [
        "fin",
        "anc"
      ],
      [
        "pol",
        "it"
      ],
      [
        "reg",
        "ul"
      ],
      [
        "ho",
        "st"
      ],
      [
        "industr",
        "y"
      ],
      [
        "e",
        "z"
      ],
      [
        "i",
        "um"
      ],
      [
        "ne",
        "y"
      ],
      [
        "app",
        "le"
      ],
      [
        "n",
        "am"
      ],
      [
        "ic",
        "ations"
      ],
      [
        "be",
        "cause"
      ],
      [
        "ian",
        "s"
      ],
      [
        "bas",
        "ket"
      ],
      [
        "offer",
        "ing"
      ],
      [
        "pa",
        "ul"
      ],
      [
        "ch",
        "ic"
      ],
      [
        "h",
        "ere"
      ],
      [
        "ad",
        "es"
      ],
      [
        "econom",
        "y"
      ],
      [
        "h",
        "ou"
      ],
      [
        "s",
        "ol"
      ],
      [
        "ar",
        "rest"
      ],
      [
        "af",
        "gh"
      ],
      [
        "res",
        "s"
      ],
      [
        "ke",
        "ep"
      ],
      [
        "lon",
        "don"
      ],
      [
        "leag",
        "ue"
      ],
      [
        "c",
        "ase"
      ],
      [
        "e",
        "v"
      ],
      [
        "e",
        "vent"
      ],
      [
        "x",
        "p"
      ],
      [
        "pl",
        "ace"
      ],
      [
        "ind",
        "ia"
      ],
      [
        "comm",
        "un"
      ],
      [
        "basket",
        "ball"
      ],
      [
        "b",
        "a"
      ],
      [
        "d",
        "uring"
      ],
      [
        "e",
        "qu"
      ],
      [
        "day",
        "s"
      ],
      [
        "fi",
        "re"
      ],
      [
        "hal",
        "f"
      ],
      [
        "dar",
        "fur"
      ],
      [
        "lat",
        "est"
      ],
      [
        "chic",
        "ago"
      ],
      [
        "c",
        "ard"
      ],
      [
        "w",
        "all"
      ],
      [
        "f",
        "ell"
      ],
      [
        "j",
        "ul"
      ],
      [
        "m",
        "em"
      ],
      [
        "ow",
        "ing"
      ],
      [
        "part",
        "y"
      ],
      [
        "f",
        "oll"
      ],
      [
        "p",
        "op"
      ],
      [
        "ver",
        "s"
      ],
      [
        "econom",
        "ic"
      ],
      [
        "a",
        "head"
      ],
      [
        "at",
        "ic"
      ],
      [
        "ak",
        "e"
      ],
      [
        "sc",
        "ient"
      ],
      [
        "st",
        "on"
      ],
      [
        "ear",
        "ly"
      ],
      [
        "au",
        "d"
      ],
      [
        "li",
        "ke"
      ],
      [
        "invest",
        "ig"
      ],
      [
        "reg",
        "ion"
      ],
      [
        "canad",
        "ian"
      ],
      [
        "includ",
        "ing"
      ],
      [
        "m",
        "n"
      ],
      [
        "pro",
        "test"
      ],
      [
        "iv",
        "ing"
      ],
      [
        "att",
        "acks"
      ],
      [
        "d",
        "ist"
      ],
      [
        "f",
        "ind"
      ],
      [
        "p",
        "en"
      ],
      [
        "r",
        "up"
      ],
      [
        "iz",
        "e"
      ],
      [
        "lin",
        "es"
      ],
      [
        "spe",
        "c"
      ],
      [
        "stre",
        "et"
      ],
      [
        "m",
        "a"
      ],
      [
        "it",
        "ch"
      ],
      [
        "he",
        "alth"
      ],
      [
        "f",
        "ail"
      ],
      [
        "v",
        "ed"
      ],
      [
        "at",
        "ter"
      ],
      [
        "is",
        "su"
      ],
      [
        "am",
        "ent"
      ],
      [
        "ur",
        "y"
      ],
      [
        "rele",
        "ase"
      ],
      [
        "full",
        "quote"
      ],
      [
        "quick",
        "info"
      ],
      [
        "cust",
        "om"
      ],
      [
        "r",
        "ace"
      ],
      [
        "se",
        "ven"
      ],
      [
        "el",
        "s"
      ],
      [
        "ne",
        "ed"
      ],
      [
        "wh",
        "ere"
      ],
      [
        "rebel",
        "s"
      ],
      [
        "consu",
        "mer"
      ],
      [
        "afgh",
        "an"
      ],
      [
        "f",
        "ree"
      ],
      [
        "h",
        "ist"
      ],
      [
        "p",
        "ing"
      ],
      [
        "or",
        "g"
      ],
      [
        "ish",
        "ed"
      ],
      [
        "k",
        "o"
      ],
      [
        "th",
        "reat"
      ],
      [
        "us",
        "h"
      ],
      [
        "pl",
        "y"
      ],
      [
        "lo",
        "s"
      ],
      [
        "netw",
        "or"
      ],
      [
        "agre",
        "ed"
      ],
      [
        "h",
        "p"
      ],
      [
        "is",
        "ion"
      ],
      [
        "us",
        "ing"
      ],
      [
        "ut",
        "ion"
      ],
      [
        "str",
        "u"
      ],
      [
        "hel",
        "d"
      ],
      [
        "near",
        "ly"
      ],
      [
        "exe",
        "cut"
      ],
      [
        "jul",
        "y"
      ],
      [
        "d",
        "av"
      ],
      [
        "m",
        "al"
      ],
      [
        "o",
        "ol"
      ],
      [
        "p",
        "ast"
      ],
      [
        "w",
        "ays"
      ],
      [
        "li",
        "k"
      ],
      [
        "int",
        "el"
      ],
      [
        "ro",
        "se"
      ],
      [
        "ag",
        "en"
      ],
      [
        "con",
        "cer"
      ],
      [
        "ear",
        "nings"
      ],
      [
        "man",
        "ag"
      ],
      [
        "ret",
        "urn"
      ],
      [
        "networ",
        "ks"
      ],
      [
        "g",
        "ain"
      ],
      [
        "l",
        "it"
      ],
      [
        "v",
        "o"
      ],
      [
        "y",
        "s"
      ],
      [
        "mar",
        "k"
      ],
      [
        "ham",
        "m"
      ],
      [
        "g",
        "as"
      ],
      [
        "n",
        "al"
      ],
      [
        "t",
        "urn"
      ],
      [
        "at",
        "ive"
      ],
      [
        "is",
        "m"
      ],
      [
        "ex",
        "t"
      ],
      [
        "str",
        "ike"
      ],
      [
        "boo",
        "st"
      ],
      [
        "g",
        "ot"
      ],
      [
        "re",
        "ports"
      ],
      [
        "it",
        "ing"
      ],
      [
        "ch",
        "ief"
      ],
      [
        "mic",
        "ha"
      ],
      [
        "ib",
        "le"
      ],
      [
        "bro",
        "ad"
      ],
      [
        "cru",
        "de"
      ],
      [
        "f",
        "ut"
      ],
      [
        "h",
        "d"
      ],
      [
        "n",
        "um"
      ],
      [
        "p",
        "ite"
      ],
      [
        "ast",
        "er"
      ],
      [
        "dr",
        "aw"
      ],
      [
        "micha",
        "el"
      ],
      [
        "b",
        "ill"
      ],
      [
        "l",
        "ow"
      ],
      [
        "l",
        "ab"
      ],
      [
        "el",
        "ps"
      ],
      [
        "ph",
        "elps"
      ],
      [
        "shr",
        "ine"
      ],
      [
        "b",
        "ag"
      ],
      [
        "in",
        "es"
      ],
      [
        "re",
        "public"
      ],
      [
        "st",
        "ep"
      ],
      [
        "or",
        "der"
      ],
      [
        "sh",
        "ould"
      ],
      [
        "tr",
        "ial"
      ],
      [
        "te",
        "mp"
      ],
      [
        "po",
        "int"
      ],
      [
        "end",
        "s"
      ],
      [
        "gy",
        "mn"
      ],
      [
        "clo",
        "se"
      ],
      [
        "rele",
        "ased"
      ],
      [
        "gymn",
        "ast"
      ],
      [
        "co",
        "ach"
      ],
      [
        "ren",
        "ch"
      ],
      [
        "f",
        "un"
      ],
      [
        "su",
        "c"
      ],
      [
        "su",
        "m"
      ],
      [
        "des",
        "pite"
      ],
      [
        "h",
        "un"
      ],
      [
        "s",
        "oc"
      ],
      [
        "al",
        "leg"
      ],
      [
        "ac",
        "y"
      ],
      [
        "ap",
        "pl"
      ],
      [
        "be",
        "t"
      ],
      [
        "sup",
        "port"
      ],
      [
        "read",
        "y"
      ],
      [
        "f",
        "am"
      ],
      [
        "o",
        "b"
      ],
      [
        "s",
        "im"
      ],
      [
        "w",
        "ell"
      ],
      [
        "en",
        "gl"
      ],
      [
        "sh",
        "ot"
      ],
      [
        "rel",
        "ess"
      ],
      [
        "fore",
        "cast"
      ],
      [
        "month",
        "s"
      ],
      [
        "d",
        "ig"
      ],
      [
        "g",
        "lo"
      ],
      [
        "v",
        "al"
      ],
      [
        "and",
        "s"
      ],
      [
        "us",
        "ers"
      ],
      [
        "serv",
        "ices"
      ],
      [
        "gen",
        "eral"
      ],
      [
        "ker",
        "ry"
      ],
      [
        "d",
        "re"
      ],
      [
        "u",
        "x"
      ],
      [
        "re",
        "cent"
      ],
      [
        "wi",
        "reless"
      ],
      [
        "d",
        "y"
      ],
      [
        "h",
        "our"
      ],
      [
        "l",
        "ower"
      ],
      [
        "y",
        "our"
      ],
      [
        "th",
        "ing"
      ],
      [
        "id",
        "er"
      ],
      [
        "call",
        "ed"
      ],
      [
        "mu",
        "ch"
      ],
      [
        "c",
        "ur"
      ],
      [
        "il",
        "y"
      ],
      [
        "tr",
        "ans"
      ],
      [
        "ant",
        "i"
      ],
      [
        "ib",
        "m"
      ],
      [
        "ris",
        "e"
      ],
      [
        "sus",
        "pect"
      ],
      [
        "c",
        "are"
      ],
      [
        "k",
        "n"
      ],
      [
        "y",
        "an"
      ],
      [
        "im",
        "in"
      ],
      [
        "con",
        "s"
      ],
      [
        "c",
        "ame"
      ],
      [
        "f",
        "rench"
      ],
      [
        "g",
        "reat"
      ],
      [
        "p",
        "ul"
      ],
      [
        "it",
        "es"
      ],
      [
        "to",
        "ok"
      ],
      [
        "pro",
        "gr"
      ],
      [
        "leg",
        "al"
      ],
      [
        "pl",
        "oy"
      ],
      [
        "cr",
        "ash"
      ],
      [
        "lead",
        "ing"
      ],
      [
        "austral",
        "ian"
      ],
      [
        "compet",
        "ition"
      ],
      [
        "fight",
        "ing"
      ],
      [
        "s",
        "ports"
      ],
      [
        "kore",
        "a"
      ],
      [
        "contr",
        "act"
      ],
      [
        "l",
        "ight"
      ],
      [
        "p",
        "ers"
      ],
      [
        "com",
        "ing"
      ],
      [
        "po",
        "ss"
      ],
      [
        "fr",
        "anc"
      ],
      [
        "gree",
        "k"
      ],
      [
        "tit",
        "le"
      ],
      [
        "e",
        "ight"
      ],
      [
        "id",
        "ence"
      ],
      [
        "un",
        "ion"
      ],
      [
        "com",
        "mission"
      ],
      [
        "su",
        "re"
      ],
      [
        "cent",
        "r"
      ],
      [
        "charg",
        "es"
      ],
      [
        "camp",
        "a"
      ],
      [
        "financ",
        "ial"
      ],
      [
        "rup",
        "t"
      ],
      [
        ";",
        "..."
      ],
      [
        "j",
        "our"
      ],
      [
        "l",
        "im"
      ],
      [
        "se",
        "m"
      ],
      [
        "ver",
        "sion"
      ],
      [
        "ag",
        "ree"
      ],
      [
        "fe",
        "at"
      ],
      [
        "sch",
        "ool"
      ],
      [
        "l",
        "am"
      ],
      [
        "op",
        "position"
      ],
      [
        "ct",
        "or"
      ],
      [
        "ex",
        "p"
      ],
      [
        "d",
        "en"
      ],
      [
        "r",
        "an"
      ],
      [
        "w",
        "atch"
      ],
      [
        "de",
        "mo"
      ],
      [
        "wee",
        "ks"
      ],
      [
        "set",
        "tle"
      ],
      [
        "brit",
        "ain"
      ],
      [
        "b",
        "en"
      ],
      [
        "comp",
        "le"
      ],
      [
        "aw",
        "ay"
      ],
      [
        "iz",
        "ed"
      ],
      [
        "milit",
        "ants"
      ],
      [
        "four",
        "th"
      ],
      [
        "pal",
        "est"
      ],
      [
        "tro",
        "ops"
      ],
      [
        "c",
        "op"
      ],
      [
        "v",
        "ide"
      ],
      [
        "ch",
        "er"
      ],
      [
        "ag",
        "es"
      ],
      [
        "ul",
        "ts"
      ],
      [
        "if",
        "ic"
      ],
      [
        "ph",
        "o"
      ],
      [
        "americ",
        "ans"
      ],
      [
        "system",
        "s"
      ],
      [
        "init",
        "ial"
      ],
      [
        "m",
        "c"
      ],
      [
        "in",
        "k"
      ],
      [
        "el",
        "es"
      ],
      [
        "tr",
        "ack"
      ],
      [
        "lit",
        "tle"
      ],
      [
        "s",
        "qu"
      ],
      [
        "ul",
        "ar"
      ],
      [
        "palest",
        "in"
      ],
      [
        "g",
        "ive"
      ],
      [
        "l",
        "ate"
      ],
      [
        "p",
        "ot"
      ],
      [
        "s",
        "co"
      ],
      [
        "w",
        "ater"
      ],
      [
        "with",
        "out"
      ],
      [
        "ta",
        "x"
      ],
      [
        "israel",
        "i"
      ],
      [
        "demo",
        "cr"
      ],
      [
        "b",
        "ase"
      ],
      [
        "m",
        "y"
      ],
      [
        "v",
        "ing"
      ],
      [
        "se",
        "ver"
      ],
      [
        "for",
        "ce"
      ],
      [
        "de",
        "part"
      ],
      [
        "tr",
        "ade"
      ],
      [
        "ef",
        "for"
      ],
      [
        "ad",
        "a"
      ],
      [
        "br",
        "on"
      ],
      [
        "cost",
        "s"
      ],
      [
        "ky",
        "o"
      ],
      [
        "b",
        "and"
      ],
      [
        "su",
        "it"
      ],
      [
        "blo",
        "ck"
      ],
      [
        "suc",
        "cess"
      ],
      [
        "jour",
        "nal"
      ],
      [
        "h",
        "ot"
      ],
      [
        "re",
        "main"
      ],
      [
        "af",
        "f"
      ],
      [
        "goo",
        "d"
      ],
      [
        "eng",
        "ine"
      ],
      [
        "c",
        "ing"
      ],
      [
        "d",
        "id"
      ],
      [
        "an",
        "al"
      ],
      [
        "bl",
        "ast"
      ],
      [
        "fo",
        "ot"
      ],
      [
        "sm",
        "all"
      ],
      [
        "polit",
        "ical"
      ],
      [
        "lik",
        "ely"
      ],
      [
        "c",
        "ell"
      ],
      [
        "g",
        "a"
      ],
      [
        "r",
        "ation"
      ],
      [
        "to",
        "w"
      ],
      [
        "to",
        "kyo"
      ],
      [
        "are",
        "n"
      ],
      [
        "ex",
        "per"
      ],
      [
        "ven",
        "ez"
      ],
      [
        "campa",
        "ign"
      ],
      [
        "venez",
        "uel"
      ],
      [
        "m",
        "ing"
      ],
      [
        "de",
        "cl"
      ],
      [
        "lif",
        "e"
      ],
      [
        "contin",
        "u"
      ],
      [
        "contro",
        "l"
      ],
      [
        "scient",
        "ists"
      ],
      [
        "i",
        "or"
      ],
      [
        "r",
        "ange"
      ],
      [
        "st",
        "or"
      ],
      [
        "ph",
        "il"
      ],
      [
        "bu",
        "ild"
      ],
      [
        "europe",
        "an"
      ],
      [
        "hd",
        "ad"
      ],
      [
        "bag",
        "hdad"
      ],
      [
        "glo",
        "bal"
      ],
      [
        "n",
        "u"
      ],
      [
        "p",
        "on"
      ],
      [
        "au",
        "thor"
      ],
      [
        "bo",
        "x"
      ],
      [
        "me",
        "ter"
      ],
      [
        "ra",
        "is"
      ],
      [
        "hur",
        "rican"
      ],
      [
        "franc",
        "isco"
      ],
      [
        "b",
        "ed"
      ],
      [
        "b",
        "it"
      ],
      [
        "b",
        "ers"
      ],
      [
        "r",
        "ally"
      ],
      [
        "t",
        "ur"
      ],
      [
        "for",
        "d"
      ],
      [
        "for",
        "ces"
      ],
      [
        "de",
        "ath"
      ],
      [
        "man",
        "age"
      ],
      [
        "bo",
        "ard"
      ],
      [
        "prof",
        "ile"
      ],
      [
        "h",
        "ard"
      ],
      [
        "k",
        "id"
      ],
      [
        "p",
        "an"
      ],
      [
        "en",
        "se"
      ],
      [
        "ro",
        "y"
      ],
      [
        "ac",
        "ross"
      ],
      [
        "un",
        "t"
      ],
      [
        "ju",
        "mp"
      ],
      [
        "stud",
        "y"
      ],
      [
        "r",
        "u"
      ],
      [
        "er",
        "ed"
      ],
      [
        "shi",
        "ite"
      ],
      [
        "engl",
        "and"
      ],
      [
        "vide",
        "o"
      ],
      [
        "i",
        "j"
      ],
      [
        "gre",
        "en"
      ],
      [
        "c",
        "enter"
      ],
      [
        "e",
        "as"
      ],
      [
        "f",
        "a"
      ],
      [
        "n",
        "ess"
      ],
      [
        "w",
        "it"
      ],
      [
        "id",
        "ed"
      ],
      [
        "con",
        "ne"
      ],
      [
        "aw",
        "a"
      ],
      [
        "win",
        "ning"
      ],
      [
        "sel",
        "f"
      ],
      [
        "depart",
        "ment"
      ],
      [
        "in",
        "ning"
      ],
      [
        "mak",
        "ing"
      ],
      [
        "fore",
        "ign"
      ],
      [
        "claim",
        "s"
      ],
      [
        "is",
        "lam"
      ],
      [
        "pro",
        "cess"
      ],
      [
        "ear",
        "li"
      ],
      [
        "fl",
        "u"
      ],
      [
        "get",
        "s"
      ],
      [
        "in",
        "st"
      ],
      [
        "mar",
        "ath"
      ],
      [
        "gr",
        "and"
      ],
      [
        "ction",
        "s"
      ],
      [
        "centr",
        "al"
      ],
      [
        "marath",
        "on"
      ],
      [
        "f",
        "ar"
      ],
      [
        "f",
        "le"
      ],
      [
        "t",
        "v"
      ],
      [
        "am",
        "id"
      ],
      [
        "ir",
        "an"
      ],
      [
        "res",
        "ults"
      ],
      [
        "wh",
        "e"
      ],
      [
        "str",
        "a"
      ],
      [
        "cr",
        "is"
      ],
      [
        "tak",
        "es"
      ],
      [
        "so",
        "x"
      ],
      [
        "canad",
        "a"
      ],
      [
        "viol",
        "ence"
      ],
      [
        "hou",
        "se"
      ],
      [
        "g",
        "es"
      ],
      [
        "m",
        "atch"
      ],
      [
        "t",
        "ic"
      ],
      [
        "w",
        "ide"
      ],
      [
        "en",
        "er"
      ],
      [
        "id",
        "a"
      ],
      [
        "bl",
        "ed"
      ],
      [
        "bl",
        "ue"
      ],
      [
        "vent",
        "ion"
      ],
      [
        "f",
        "ear"
      ],
      [
        "i",
        "for"
      ],
      [
        "n",
        "ia"
      ],
      [
        "p",
        "il"
      ],
      [
        "th",
        "ous"
      ],
      [
        "ch",
        "ang"
      ],
      [
        "dig",
        "ital"
      ],
      [
        "bron",
        "ze"
      ],
      [
        "p",
        "le"
      ],
      [
        "tr",
        "u"
      ],
      [
        "mon",
        "ey"
      ],
      [
        "lin",
        "ux"
      ],
      [
        "ath",
        "let"
      ],
      [
        "d",
        "ire"
      ],
      [
        "g",
        "ing"
      ],
      [
        "sp",
        "an"
      ],
      [
        "red",
        "s"
      ],
      [
        "kill",
        "ing"
      ],
      [
        "sou",
        "thern"
      ],
      [
        "hurrican",
        "e"
      ],
      [
        "i",
        "ers"
      ],
      [
        "or",
        "d"
      ],
      [
        "de",
        "b"
      ],
      [
        "ard",
        "s"
      ],
      [
        "air",
        "ways"
      ],
      [
        "als",
        "o"
      ],
      [
        "fre",
        "sh"
      ],
      [
        "b",
        "i"
      ],
      [
        "sh",
        "ort"
      ],
      [
        "cor",
        "por"
      ],
      [
        "tak",
        "ing"
      ],
      [
        "sup",
        "er"
      ],
      [
        "comm",
        "it"
      ],
      [
        "earli",
        "er"
      ],
      [
        "b",
        "ird"
      ],
      [
        "c",
        "row"
      ],
      [
        "t",
        "ada"
      ],
      [
        "or",
        "n"
      ],
      [
        "ac",
        "coun"
      ],
      [
        "af",
        "ric"
      ],
      [
        "pro",
        "ble"
      ],
      [
        "lo",
        "st"
      ],
      [
        "ta",
        "i"
      ],
      [
        "research",
        "ers"
      ],
      [
        "vis",
        "it"
      ],
      [
        "hu",
        "man"
      ],
      [
        "sil",
        "ver"
      ],
      [
        "jud",
        "ge"
      ],
      [
        "sour",
        "ce"
      ],
      [
        "vot",
        "e"
      ],
      [
        "s",
        "ent"
      ],
      [
        "w",
        "ester"
      ],
      [
        "on",
        "to"
      ],
      [
        "su",
        "ch"
      ],
      [
        "go",
        "ing"
      ],
      [
        "pris",
        "on"
      ],
      [
        "trad",
        "ing"
      ],
      [
        "nas",
        "a"
      ],
      [
        "yan",
        "ke"
      ],
      [
        "manage",
        "ment"
      ],
      [
        "ener",
        "gy"
      ],
      [
        "wester",
        "n"
      ],
      [
        "re",
        "ce"
      ],
      [
        "pro",
        "ve"
      ],
      [
        "cal",
        "ifor"
      ],
      [
        "foll",
        "owing"
      ],
      [
        "org",
        "an"
      ],
      [
        "r",
        "ain"
      ],
      [
        "su",
        "b"
      ],
      [
        "he",
        "av"
      ],
      [
        "cl",
        "ass"
      ],
      [
        "act",
        "ion"
      ],
      [
        "che",
        "ch"
      ],
      [
        "sever",
        "al"
      ],
      [
        "cris",
        "is"
      ],
      [
        "f",
        "und"
      ],
      [
        "i",
        "am"
      ],
      [
        "i",
        "red"
      ],
      [
        "m",
        "ail"
      ],
      [
        "p",
        "ic"
      ],
      [
        "p",
        "ush"
      ],
      [
        "s",
        "po"
      ],
      [
        "cr",
        "it"
      ],
      [
        "oc",
        "i"
      ],
      [
        "fir",
        "ms"
      ],
      [
        "ass",
        "oci"
      ],
      [
        "japan",
        "ese"
      ],
      [
        "riv",
        "al"
      ],
      [
        "custom",
        "ers"
      ],
      [
        "sum",
        "mer"
      ],
      [
        "thous",
        "ands"
      ],
      [
        "g",
        "ress"
      ],
      [
        "o",
        "id"
      ],
      [
        "v",
        "el"
      ],
      [
        "ar",
        "s"
      ],
      [
        "to",
        "m"
      ],
      [
        "ac",
        "le"
      ],
      [
        "un",
        "ivers"
      ],
      [
        "be",
        "come"
      ],
      [
        "wh",
        "ite"
      ],
      [
        "play",
        "er"
      ],
      [
        "num",
        "ber"
      ],
      [
        "lab",
        "or"
      ],
      [
        "gymnast",
        "ics"
      ],
      [
        "afric",
        "a"
      ],
      [
        "w",
        "an"
      ],
      [
        "y",
        "st"
      ],
      [
        "us",
        "es"
      ],
      [
        "ow",
        "ed"
      ],
      [
        "con",
        "vention"
      ],
      [
        "af",
        "t"
      ],
      [
        "ex",
        "change"
      ],
      [
        "nation",
        "s"
      ],
      [
        "play",
        "ers"
      ],
      [
        "oper",
        "ating"
      ],
      [
        "batt",
        "le"
      ],
      [
        "agen",
        "cy"
      ],
      [
        "alleg",
        "ed"
      ],
      [
        "califor",
        "nia"
      ],
      [
        "s",
        "ame"
      ],
      [
        "t",
        "re"
      ],
      [
        "w",
        "ound"
      ],
      [
        "to",
        "o"
      ],
      [
        "ap",
        "prov"
      ],
      [
        "qu",
        "al"
      ],
      [
        "ban",
        "gl"
      ],
      [
        "americ",
        "a"
      ],
      [
        "cut",
        "s"
      ],
      [
        "ever",
        "y"
      ],
      [
        "dec",
        "ision"
      ],
      [
        "arrest",
        "ed"
      ],
      [
        "progr",
        "am"
      ],
      [
        "b",
        "c"
      ],
      [
        "f",
        "ast"
      ],
      [
        "f",
        "uel"
      ],
      [
        "g",
        "un"
      ],
      [
        "m",
        "ight"
      ],
      [
        "o",
        "res"
      ],
      [
        "p",
        "ur"
      ],
      [
        "p",
        "itch"
      ],
      [
        "w",
        "a"
      ],
      [
        "in",
        "o"
      ],
      [
        "tr",
        "i"
      ],
      [
        "min",
        "ut"
      ],
      [
        "sec",
        "ut"
      ],
      [
        "des",
        "ign"
      ],
      [
        "call",
        "s"
      ],
      [
        "ades",
        "h"
      ],
      [
        "j",
        "ones"
      ],
      [
        "m",
        "ass"
      ],
      [
        "m",
        "ber"
      ],
      [
        "t",
        "ies"
      ],
      [
        "to",
        "u"
      ],
      [
        "com",
        "es"
      ],
      [
        "med",
        "ia"
      ],
      [
        "air",
        "lines"
      ],
      [
        "ger",
        "man"
      ],
      [
        "yanke",
        "es"
      ],
      [
        "c",
        "red"
      ],
      [
        "r",
        "ich"
      ],
      [
        "ou",
        "ts"
      ],
      [
        "ch",
        "all"
      ],
      [
        "se",
        "ts"
      ],
      [
        "ve",
        "il"
      ],
      [
        "ser",
        "ies"
      ],
      [
        "bo",
        "th"
      ],
      [
        "act",
        "iv"
      ],
      [
        "arm",
        "y"
      ],
      [
        "h",
        "oly"
      ],
      [
        "s",
        "wee"
      ],
      [
        "ro",
        "ll"
      ],
      [
        "un",
        "veil"
      ],
      [
        "if",
        "y"
      ],
      [
        "dis",
        "cover"
      ],
      [
        "dou",
        "ble"
      ],
      [
        "dom",
        "in"
      ],
      [
        "stra",
        "ight"
      ],
      [
        "b",
        "on"
      ],
      [
        "d",
        "am"
      ],
      [
        "i",
        "el"
      ],
      [
        "w",
        "ant"
      ],
      [
        "in",
        "ch"
      ],
      [
        "ap",
        "er"
      ],
      [
        "be",
        "st"
      ],
      [
        "de",
        "but"
      ],
      [
        "cl",
        "u"
      ],
      [
        "av",
        "es"
      ],
      [
        "acc",
        "used"
      ],
      [
        "retail",
        "er"
      ],
      [
        "fut",
        "ure"
      ],
      [
        "hour",
        "s"
      ],
      [
        "bangl",
        "adesh"
      ],
      [
        "h",
        "its"
      ],
      [
        "al",
        "most"
      ],
      [
        "le",
        "ct"
      ],
      [
        "pro",
        "te"
      ],
      [
        "if",
        "ied"
      ],
      [
        "em",
        "ploy"
      ],
      [
        "med",
        "als"
      ],
      [
        "champion",
        "ship"
      ],
      [
        "o",
        "se"
      ],
      [
        "u",
        "mp"
      ],
      [
        "id",
        "es"
      ],
      [
        "ver",
        "t"
      ],
      [
        "res",
        "er"
      ],
      [
        "inter",
        "est"
      ],
      [
        "du",
        "e"
      ],
      [
        "pol",
        "l"
      ],
      [
        "bet",
        "ter"
      ],
      [
        "h",
        "und"
      ],
      [
        "at",
        "temp"
      ],
      [
        "ser",
        "ver"
      ],
      [
        "bo",
        "y"
      ],
      [
        "bo",
        "ston"
      ],
      [
        "fe",
        "w"
      ],
      [
        "ang",
        "eles"
      ],
      [
        "run",
        "ning"
      ],
      [
        "pos",
        "ed"
      ],
      [
        "bar",
        "rel"
      ],
      [
        "d",
        "le"
      ],
      [
        "in",
        "sur"
      ],
      [
        "the",
        "n"
      ],
      [
        "at",
        "l"
      ],
      [
        "le",
        "ave"
      ],
      [
        "ro",
        "b"
      ],
      [
        "fin",
        "ish"
      ],
      [
        "show",
        "ed"
      ],
      [
        "spr",
        "int"
      ],
      [
        "hist",
        "ory"
      ],
      [
        "b",
        "ay"
      ],
      [
        "f",
        "is"
      ],
      [
        "h",
        "ind"
      ],
      [
        "q",
        "tada"
      ],
      [
        "to",
        "urn"
      ],
      [
        "se",
        "en"
      ],
      [
        "ac",
        "cess"
      ],
      [
        "for",
        "man"
      ],
      [
        "op",
        "t"
      ],
      [
        "appe",
        "al"
      ],
      [
        "tor",
        "onto"
      ],
      [
        "nu",
        "clear"
      ],
      [
        "i",
        "ence"
      ],
      [
        "m",
        "ac"
      ],
      [
        "y",
        "oun"
      ],
      [
        "in",
        "form"
      ],
      [
        "st",
        "ore"
      ],
      [
        "to",
        "ol"
      ],
      [
        "lo",
        "ad"
      ],
      [
        "if",
        "f"
      ],
      [
        "lead",
        "ers"
      ],
      [
        "hom",
        "es"
      ],
      [
        "char",
        "ley"
      ],
      [
        "product",
        "s"
      ],
      [
        "tow",
        "n"
      ],
      [
        "h",
        "an"
      ],
      [
        "en",
        "ed"
      ],
      [
        "me",
        "ters"
      ],
      [
        "work",
        "ers"
      ],
      [
        "ef",
        "fect"
      ],
      [
        "boo",
        "k"
      ],
      [
        "execut",
        "ive"
      ],
      [
        "whe",
        "ther"
      ],
      [
        "tai",
        "wan"
      ],
      [
        "b",
        "ab"
      ],
      [
        "l",
        "ist"
      ],
      [
        "al",
        "i"
      ],
      [
        "pl",
        "ot"
      ],
      [
        "fr",
        "ance"
      ],
      [
        "tim",
        "es"
      ],
      [
        "jo",
        "bs"
      ],
      [
        "expl",
        "o"
      ],
      [
        "rul",
        "es"
      ],
      [
        "poss",
        "ible"
      ],
      [
        "f",
        "ood"
      ],
      [
        "i",
        "et"
      ],
      [
        "s",
        "n"
      ],
      [
        "w",
        "ood"
      ],
      [
        "y",
        "le"
      ],
      [
        "af",
        "rican"
      ],
      [
        "we",
        "ight"
      ],
      [
        "iv",
        "ed"
      ],
      [
        "plan",
        "et"
      ],
      [
        "az",
        "a"
      ],
      [
        "ty",
        "pho"
      ],
      [
        "quarter",
        "ly"
      ],
      [
        "vis",
        "ion"
      ],
      [
        "elect",
        "ron"
      ],
      [
        "soc",
        "cer"
      ],
      [
        "i",
        "ams"
      ],
      [
        "st",
        "op"
      ],
      [
        "ad",
        "minist"
      ],
      [
        "pro",
        "ject"
      ],
      [
        "str",
        "ug"
      ],
      [
        "will",
        "iams"
      ],
      [
        "milit",
        "ia"
      ],
      [
        "del",
        "ay"
      ],
      [
        "charg",
        "ed"
      ],
      [
        "ten",
        "n"
      ],
      [
        "hop",
        "es"
      ],
      [
        "univers",
        "ity"
      ],
      [
        "tourn",
        "ament"
      ],
      [
        "j",
        "er"
      ],
      [
        "m",
        "ers"
      ],
      [
        "s",
        "ite"
      ],
      [
        "in",
        "j"
      ],
      [
        "st",
        "ores"
      ],
      [
        "to",
        "ward"
      ],
      [
        "ot",
        "t"
      ],
      [
        "bl",
        "ack"
      ],
      [
        "typho",
        "on"
      ],
      [
        "a",
        "i"
      ],
      [
        "f",
        "ly"
      ],
      [
        "m",
        "ur"
      ],
      [
        "as",
        "es"
      ],
      [
        "ne",
        "pal"
      ],
      [
        "ab",
        "ility"
      ],
      [
        "ger",
        "many"
      ],
      [
        "gian",
        "ts"
      ],
      [
        "commun",
        "ications"
      ],
      [
        "pers",
        "on"
      ],
      [
        "heav",
        "y"
      ],
      [
        "l",
        "ar"
      ],
      [
        "r",
        "ou"
      ],
      [
        "s",
        "af"
      ],
      [
        "s",
        "ize"
      ],
      [
        "er",
        "a"
      ],
      [
        "re",
        "ject"
      ],
      [
        "tr",
        "ou"
      ],
      [
        "sec",
        "ret"
      ],
      [
        "jo",
        "in"
      ],
      [
        "say",
        "ing"
      ],
      [
        ".",
        "'"
      ],
      [
        "l",
        "er"
      ],
      [
        "or",
        "acle"
      ],
      [
        "ch",
        "ild"
      ],
      [
        "chip",
        "s"
      ],
      [
        "adv",
        "anc"
      ],
      [
        "f",
        "ig"
      ],
      [
        "f",
        "ish"
      ],
      [
        "f",
        "ile"
      ],
      [
        "j",
        "et"
      ],
      [
        "m",
        "ess"
      ],
      [
        "in",
        "de"
      ],
      [
        "in",
        "ju"
      ],
      [
        "ch",
        "air"
      ],
      [
        "ch",
        "ave"
      ],
      [
        "ter",
        "m"
      ],
      [
        "ag",
        "ing"
      ],
      [
        "mo",
        "sc"
      ],
      [
        "pro",
        "mis"
      ],
      [
        "ear",
        "th"
      ],
      [
        "iv",
        "en"
      ],
      [
        "air",
        "line"
      ],
      [
        "mot",
        "or"
      ],
      [
        "ev",
        "idence"
      ],
      [
        "inform",
        "ation"
      ],
      [
        "chave",
        "z"
      ],
      [
        "mosc",
        "ow"
      ],
      [
        "c",
        "ks"
      ],
      [
        "f",
        "ont"
      ],
      [
        "k",
        "a"
      ],
      [
        "k",
        "es"
      ],
      [
        "n",
        "at"
      ],
      [
        "v",
        "a"
      ],
      [
        "and",
        "er"
      ],
      [
        "ig",
        "ns"
      ],
      [
        "op",
        "ing"
      ],
      [
        "ce",
        "le"
      ],
      [
        "tr",
        "ain"
      ],
      [
        "with",
        "draw"
      ],
      [
        "ess",
        "ion"
      ],
      [
        "ind",
        "ian"
      ],
      [
        "fl",
        "or"
      ],
      [
        "jo",
        "b"
      ],
      [
        "mer",
        "c"
      ],
      [
        "do",
        "es"
      ],
      [
        "try",
        "ing"
      ],
      [
        "agree",
        "ment"
      ],
      [
        "anal",
        "yst"
      ],
      [
        "c",
        "ash"
      ],
      [
        "t",
        "ex"
      ],
      [
        "er",
        "ation"
      ],
      [
        "re",
        "cover"
      ],
      [
        "al",
        "e"
      ],
      [
        "is",
        "land"
      ],
      [
        "ad",
        "vert"
      ],
      [
        "te",
        "e"
      ],
      [
        "off",
        "ice"
      ],
      [
        "cr",
        "aft"
      ],
      [
        "br",
        "ing"
      ],
      [
        "gr",
        "ound"
      ],
      [
        "per",
        "forman"
      ],
      [
        "ous",
        "ly"
      ],
      [
        "war",
        "ned"
      ],
      [
        "incre",
        "ase"
      ],
      [
        "republic",
        "an"
      ],
      [
        "palestin",
        "ian"
      ],
      [
        "phil",
        "ip"
      ],
      [
        "b",
        "row"
      ],
      [
        "q",
        "a"
      ],
      [
        "s",
        "port"
      ],
      [
        "un",
        "it"
      ],
      [
        "be",
        "hind"
      ],
      [
        "ce",
        "pt"
      ],
      [
        "tr",
        "av"
      ],
      [
        "ip",
        "ped"
      ],
      [
        "sw",
        "im"
      ],
      [
        "mor",
        "ning"
      ],
      [
        "contin",
        "ue"
      ],
      [
        "gain",
        "s"
      ],
      [
        "atl",
        "ant"
      ],
      [
        ";",
        "."
      ],
      [
        "im",
        "p"
      ],
      [
        "po",
        "ol"
      ],
      [
        "wor",
        "th"
      ],
      [
        "sc",
        "re"
      ],
      [
        "ital",
        "ian"
      ],
      [
        "secur",
        "ities"
      ],
      [
        "post",
        "ed"
      ],
      [
        "terror",
        "ism"
      ],
      [
        "flor",
        "ida"
      ],
      [
        "b",
        "ul"
      ],
      [
        "b",
        "atter"
      ],
      [
        "c",
        "oup"
      ],
      [
        "f",
        "av"
      ],
      [
        "g",
        "aza"
      ],
      [
        "in",
        "als"
      ],
      [
        "ro",
        "ck"
      ],
      [
        "ch",
        "in"
      ],
      [
        "ent",
        "ial"
      ],
      [
        "ig",
        "er"
      ],
      [
        "ve",
        "y"
      ],
      [
        "ag",
        "ed"
      ],
      [
        "tr",
        "a"
      ],
      [
        "te",
        "en"
      ],
      [
        "cl",
        "im"
      ],
      [
        "set",
        "t"
      ],
      [
        "mak",
        "es"
      ],
      [
        "ref",
        "er"
      ],
      [
        "pris",
        "e"
      ],
      [
        "ipo",
        "d"
      ],
      [
        "broad",
        "band"
      ],
      [
        "venezuel",
        "a"
      ],
      [
        "author",
        "ities"
      ],
      [
        "cred",
        "it"
      ],
      [
        "t",
        "el"
      ],
      [
        "ac",
        "ed"
      ],
      [
        "be",
        "ij"
      ],
      [
        "con",
        "fl"
      ],
      [
        "fr",
        "aud"
      ],
      [
        "week",
        "end"
      ],
      [
        "foot",
        "ball"
      ],
      [
        "strug",
        "gl"
      ],
      [
        "beij",
        "ing"
      ],
      [
        "f",
        "oc"
      ],
      [
        "h",
        "y"
      ],
      [
        "n",
        "ers"
      ],
      [
        "re",
        "ven"
      ],
      [
        "at",
        "ely"
      ],
      [
        "de",
        "st"
      ],
      [
        "pl",
        "ann"
      ],
      [
        "est",
        "im"
      ],
      [
        "lt",
        "d"
      ],
      [
        "bo",
        "dy"
      ],
      [
        "ash",
        "es"
      ],
      [
        "app",
        "ed"
      ],
      [
        "col",
        "or"
      ],
      [
        "ho",
        "sp"
      ],
      [
        "def",
        "ense"
      ],
      [
        "spe",
        "ed"
      ],
      [
        "rul",
        "ing"
      ],
      [
        "fact",
        "or"
      ],
      [
        "hear",
        "t"
      ],
      [
        "manag",
        "er"
      ],
      [
        "chair",
        "man"
      ],
      [
        "e",
        "ch"
      ],
      [
        "p",
        "ir"
      ],
      [
        "in",
        "v"
      ],
      [
        "re",
        "me"
      ],
      [
        "at",
        "s"
      ],
      [
        "as",
        "ing"
      ],
      [
        "se",
        "par"
      ],
      [
        "con",
        "f"
      ],
      [
        "pr",
        "iv"
      ],
      [
        "ak",
        "es"
      ],
      [
        "sp",
        "ending"
      ],
      [
        "president",
        "ial"
      ],
      [
        "des",
        "k"
      ],
      [
        "clo",
        "s"
      ],
      [
        "del",
        "iver"
      ],
      [
        "mor",
        "t"
      ],
      [
        "sold",
        "iers"
      ],
      [
        "concer",
        "ns"
      ],
      [
        "dre",
        "am"
      ],
      [
        "inju",
        "red"
      ],
      [
        "c",
        "ir"
      ],
      [
        "d",
        "ie"
      ],
      [
        "h",
        "all"
      ],
      [
        "i",
        "th"
      ],
      [
        "r",
        "ing"
      ],
      [
        "s",
        "ide"
      ],
      [
        "on",
        "ce"
      ],
      [
        "st",
        "ad"
      ],
      [
        "ac",
        "es"
      ],
      [
        "qu",
        "e"
      ],
      [
        "mar",
        "s"
      ],
      [
        "mar",
        "ch"
      ],
      [
        "fr",
        "i"
      ],
      [
        "sc",
        "and"
      ],
      [
        "int",
        "ell"
      ],
      [
        "shar",
        "on"
      ],
      [
        "drug",
        "s"
      ],
      [
        "b",
        "ir"
      ],
      [
        "b",
        "ell"
      ],
      [
        "sp",
        "ot"
      ],
      [
        "ge",
        "or"
      ],
      [
        "prof",
        "its"
      ],
      [
        "market",
        "s"
      ],
      [
        "bank",
        "rupt"
      ],
      [
        "hund",
        "reds"
      ],
      [
        "youn",
        "g"
      ],
      [
        "cele",
        "br"
      ],
      [
        "plann",
        "ed"
      ],
      [
        "d",
        "ow"
      ],
      [
        "y",
        "et"
      ],
      [
        "as",
        "ked"
      ],
      [
        "red",
        "u"
      ],
      [
        "plan",
        "e"
      ],
      [
        "beg",
        "in"
      ],
      [
        "afghan",
        "istan"
      ],
      [
        "care",
        "er"
      ],
      [
        "base",
        "ball"
      ],
      [
        "kid",
        "n"
      ],
      [
        "commit",
        "tee"
      ],
      [
        "spo",
        "kes"
      ],
      [
        "employ",
        "e"
      ],
      [
        "performan",
        "ce"
      ],
      [
        "m",
        "it"
      ],
      [
        "m",
        "ag"
      ],
      [
        "y",
        "ah"
      ],
      [
        "in",
        "vol"
      ],
      [
        "th",
        "ers"
      ],
      [
        "re",
        "call"
      ],
      [
        "al",
        "ready"
      ],
      [
        "ut",
        "ch"
      ],
      [
        "sp",
        "am"
      ],
      [
        "do",
        "z"
      ],
      [
        "sl",
        "ow"
      ],
      [
        "fac",
        "es"
      ],
      [
        "ben",
        "ef"
      ],
      [
        "organ",
        "iz"
      ],
      [
        "intell",
        "ig"
      ],
      [
        "c",
        "i"
      ],
      [
        "g",
        "ol"
      ],
      [
        "k",
        "en"
      ],
      [
        "in",
        "ts"
      ],
      [
        "as",
        "sa"
      ],
      [
        "se",
        "a"
      ],
      [
        "pro",
        "be"
      ],
      [
        "ab",
        "u"
      ],
      [
        "em",
        "er"
      ],
      [
        "fin",
        "als"
      ],
      [
        "tu",
        "re"
      ],
      [
        "lead",
        "s"
      ],
      [
        "nor",
        "thern"
      ],
      [
        "ens",
        "ive"
      ],
      [
        "look",
        "ing"
      ],
      [
        "cur",
        "ren"
      ],
      [
        "cons",
        "ider"
      ],
      [
        "tenn",
        "is"
      ],
      [
        "f",
        "lo"
      ],
      [
        "g",
        "ave"
      ],
      [
        "an",
        "a"
      ],
      [
        "ro",
        "ad"
      ],
      [
        "ap",
        "e"
      ],
      [
        "ap",
        "ore"
      ],
      [
        "ut",
        "s"
      ],
      [
        "pr",
        "act"
      ],
      [
        "sp",
        "ir"
      ],
      [
        "fr",
        "ont"
      ],
      [
        "ber",
        "g"
      ],
      [
        "sing",
        "apore"
      ],
      [
        "hun",
        "g"
      ],
      [
        "administ",
        "ration"
      ],
      [
        "a",
        "x"
      ],
      [
        "c",
        "isco"
      ],
      [
        "k",
        "ar"
      ],
      [
        "r",
        "ate"
      ],
      [
        "th",
        "ose"
      ],
      [
        "st",
        "aff"
      ],
      [
        "en",
        "ing"
      ],
      [
        "ic",
        "on"
      ],
      [
        "am",
        "a"
      ],
      [
        "br",
        "y"
      ],
      [
        "ash",
        "ed"
      ],
      [
        "cont",
        "ent"
      ],
      [
        "bel",
        "ie"
      ],
      [
        "fer",
        "ence"
      ],
      [
        "investig",
        "ation"
      ],
      [
        "kn",
        "own"
      ],
      [
        "cop",
        "y"
      ],
      [
        "philip",
        "p"
      ],
      [
        "intellig",
        "ence"
      ],
      [
        "b",
        "ol"
      ],
      [
        "c",
        "am"
      ],
      [
        "d",
        "i"
      ],
      [
        "d",
        "oping"
      ],
      [
        "e",
        "ase"
      ],
      [
        "p",
        "ick"
      ],
      [
        "u",
        "ge"
      ],
      [
        "the",
        "se"
      ],
      [
        "ur",
        "al"
      ],
      [
        "com",
        "b"
      ],
      [
        "ip",
        "s"
      ],
      [
        "br",
        "az"
      ],
      [
        "pres",
        "sure"
      ],
      [
        "rel",
        "ay"
      ],
      [
        "ry",
        "der"
      ],
      [
        "launch",
        "ed"
      ],
      [
        "tele",
        "vision"
      ],
      [
        "miss",
        "ed"
      ],
      [
        "fail",
        "ed"
      ],
      [
        "pul",
        "l"
      ],
      [
        "unt",
        "il"
      ],
      [
        "swee",
        "p"
      ],
      [
        "f",
        "if"
      ],
      [
        "m",
        "om"
      ],
      [
        "in",
        "fl"
      ],
      [
        "to",
        "ld"
      ],
      [
        "am",
        "ong"
      ],
      [
        "mon",
        "t"
      ],
      [
        "fin",
        "ally"
      ],
      [
        "ph",
        "ones"
      ],
      [
        "ital",
        "y"
      ],
      [
        "terror",
        "ist"
      ],
      [
        "shar",
        "ing"
      ],
      [
        "rad",
        "ical"
      ],
      [
        "sem",
        "if"
      ],
      [
        "fear",
        "s"
      ],
      [
        "tex",
        "as"
      ],
      [
        "stad",
        "ium"
      ],
      [
        "w",
        "ent"
      ],
      [
        "re",
        "view"
      ],
      [
        "st",
        "ation"
      ],
      [
        "up",
        "gr"
      ],
      [
        "ab",
        "o"
      ],
      [
        "por",
        "ters"
      ],
      [
        "sp",
        "ain"
      ],
      [
        "sup",
        "ply"
      ],
      [
        "group",
        "s"
      ],
      [
        "run",
        "s"
      ],
      [
        "get",
        "ting"
      ],
      [
        "beg",
        "an"
      ],
      [
        "clu",
        "b"
      ],
      [
        "b",
        "or"
      ],
      [
        "p",
        "m"
      ],
      [
        "s",
        "k"
      ],
      [
        "s",
        "pect"
      ],
      [
        "ul",
        "ation"
      ],
      [
        "oo",
        "ds"
      ],
      [
        "av",
        "oid"
      ],
      [
        "sur",
        "vey"
      ],
      [
        "ref",
        "uge"
      ],
      [
        "prov",
        "ide"
      ],
      [
        "fun",
        "ds"
      ],
      [
        "trav",
        "el"
      ],
      [
        "hosp",
        "ital"
      ],
      [
        "braz",
        "il"
      ],
      [
        "p",
        "air"
      ],
      [
        "r",
        "ies"
      ],
      [
        "s",
        "cr"
      ],
      [
        "v",
        "ic"
      ],
      [
        "ar",
        "ing"
      ],
      [
        "is",
        "ition"
      ],
      [
        "ne",
        "ver"
      ],
      [
        "gu",
        "ard"
      ],
      [
        "wom",
        "an"
      ],
      [
        "ste",
        "ad"
      ],
      [
        "acqu",
        "isition"
      ],
      [
        "pil",
        "ots"
      ],
      [
        "mur",
        "der"
      ],
      [
        "chin",
        "ese"
      ],
      [
        "desk",
        "top"
      ],
      [
        "d",
        "iv"
      ],
      [
        "g",
        "ate"
      ],
      [
        "o",
        "ks"
      ],
      [
        "p",
        "ow"
      ],
      [
        "y",
        "uk"
      ],
      [
        "sh",
        "op"
      ],
      [
        "pro",
        "per"
      ],
      [
        "man",
        "u"
      ],
      [
        "av",
        "ing"
      ],
      [
        "sion",
        "s"
      ],
      [
        "down",
        "load"
      ],
      [
        "sen",
        "ior"
      ],
      [
        "quest",
        "ion"
      ],
      [
        "regul",
        "ators"
      ],
      [
        "dav",
        "id"
      ],
      [
        "turn",
        "ed"
      ],
      [
        "appl",
        "ications"
      ],
      [
        "minut",
        "es"
      ],
      [
        "a",
        "ver"
      ],
      [
        "d",
        "ed"
      ],
      [
        "h",
        "app"
      ],
      [
        "m",
        "oun"
      ],
      [
        "p",
        "et"
      ],
      [
        "t",
        "ell"
      ],
      [
        "st",
        "ake"
      ],
      [
        "it",
        "or"
      ],
      [
        "im",
        "prove"
      ],
      [
        "off",
        "ers"
      ],
      [
        "av",
        "ail"
      ],
      [
        "develop",
        "ment"
      ],
      [
        "hop",
        "e"
      ],
      [
        "mem",
        "bers"
      ],
      [
        "yah",
        "oo"
      ],
      [
        "yuk",
        "os"
      ],
      [
        "b",
        "ound"
      ],
      [
        "e",
        "ing"
      ],
      [
        "j",
        "av"
      ],
      [
        "w",
        "ants"
      ],
      [
        "en",
        "vir"
      ],
      [
        "as",
        "ia"
      ],
      [
        "ap",
        "point"
      ],
      [
        "co",
        "ast"
      ],
      [
        "cr",
        "ack"
      ],
      [
        "fl",
        "at"
      ],
      [
        "par",
        "k"
      ],
      [
        "char",
        "ge"
      ],
      [
        "cu",
        "bs"
      ],
      [
        "fil",
        "ed"
      ],
      [
        "nas",
        "d"
      ],
      [
        "sour",
        "ces"
      ],
      [
        "meet",
        "ing"
      ],
      [
        "effor",
        "ts"
      ],
      [
        "envir",
        "on"
      ],
      [
        "b",
        "ad"
      ],
      [
        "e",
        "ast"
      ],
      [
        "r",
        "am"
      ],
      [
        "r",
        "ights"
      ],
      [
        "ed",
        "ge"
      ],
      [
        "ch",
        "ance"
      ],
      [
        "ne",
        "got"
      ],
      [
        "be",
        "y"
      ],
      [
        "with",
        "in"
      ],
      [
        "ain",
        "ed"
      ],
      [
        "su",
        "bs"
      ],
      [
        "out",
        "look"
      ],
      [
        "fir",
        "med"
      ],
      [
        "int",
        "ro"
      ],
      [
        "pre",
        "vi"
      ],
      [
        "vi",
        "et"
      ],
      [
        "col",
        "um"
      ],
      [
        "ju",
        "ne"
      ],
      [
        "mid",
        "dle"
      ],
      [
        "suspect",
        "ed"
      ],
      [
        "fif",
        "th"
      ],
      [
        "manu",
        "fact"
      ],
      [
        "negot",
        "i"
      ],
      [
        "b",
        "n"
      ],
      [
        "c",
        "iting"
      ],
      [
        "g",
        "in"
      ],
      [
        "m",
        "ust"
      ],
      [
        "or",
        "ney"
      ],
      [
        "it",
        "ive"
      ],
      [
        "is",
        "ed"
      ],
      [
        "med",
        "i"
      ],
      [
        "att",
        "orney"
      ],
      [
        "fi",
        "red"
      ],
      [
        "ann",
        "ual"
      ],
      [
        "sy",
        "d"
      ],
      [
        "pre",
        "m"
      ],
      [
        "help",
        "ed"
      ],
      [
        "blo",
        "om"
      ],
      [
        "democr",
        "atic"
      ],
      [
        "effor",
        "t"
      ],
      [
        "reser",
        "ve"
      ],
      [
        "v",
        "ill"
      ],
      [
        "on",
        "du"
      ],
      [
        "en",
        "ough"
      ],
      [
        "ch",
        "ain"
      ],
      [
        "se",
        "x"
      ],
      [
        "se",
        "em"
      ],
      [
        "se",
        "mic"
      ],
      [
        "ap",
        "s"
      ],
      [
        "sh",
        "o"
      ],
      [
        "ation",
        "al"
      ],
      [
        "ban",
        "ks"
      ],
      [
        "produ",
        "ction"
      ],
      [
        "corpor",
        "ate"
      ],
      [
        "proble",
        "ms"
      ],
      [
        "confl",
        "ict"
      ],
      [
        "nasd",
        "aq"
      ],
      [
        "intro",
        "du"
      ],
      [
        "syd",
        "ney"
      ],
      [
        "semic",
        "ondu"
      ],
      [
        "g",
        "ro"
      ],
      [
        "l",
        "ay"
      ],
      [
        "l",
        "ater"
      ],
      [
        "m",
        "ut"
      ],
      [
        "p",
        "atch"
      ],
      [
        "w",
        "el"
      ],
      [
        "it",
        "z"
      ],
      [
        "ic",
        "ip"
      ],
      [
        "il",
        "i"
      ],
      [
        "sh",
        "ut"
      ],
      [
        "one",
        "y"
      ],
      [
        "bu",
        "il"
      ],
      [
        "sal",
        "e"
      ],
      [
        "sat",
        "ell"
      ],
      [
        "ris",
        "es"
      ],
      [
        "work",
        "ing"
      ],
      [
        "del",
        "ays"
      ],
      [
        "equ",
        "ip"
      ],
      [
        "tru",
        "ck"
      ],
      [
        "ord",
        "ers"
      ],
      [
        "accoun",
        "ting"
      ],
      [
        "analyst",
        "s"
      ],
      [
        "scand",
        "al"
      ],
      [
        "bankrupt",
        "cy"
      ],
      [
        "j",
        "an"
      ],
      [
        "m",
        "w"
      ],
      [
        "r",
        "ates"
      ],
      [
        "and",
        "re"
      ],
      [
        "ol",
        "a"
      ],
      [
        "ap",
        "pro"
      ],
      [
        "ag",
        "er"
      ],
      [
        "we",
        "ap"
      ],
      [
        "we",
        "ak"
      ],
      [
        "gr",
        "ap"
      ],
      [
        "invest",
        "ment"
      ],
      [
        "grow",
        "ing"
      ],
      [
        "start",
        "ing"
      ],
      [
        "acqu",
        "ire"
      ],
      [
        "reach",
        "ed"
      ],
      [
        "ru",
        "le"
      ],
      [
        "wit",
        "ness"
      ],
      [
        "child",
        "ren"
      ],
      [
        "b",
        "ow"
      ],
      [
        "b",
        "ud"
      ],
      [
        "c",
        "it"
      ],
      [
        "g",
        "ers"
      ],
      [
        "k",
        "ong"
      ],
      [
        "m",
        "at"
      ],
      [
        "m",
        "ult"
      ],
      [
        "n",
        "iger"
      ],
      [
        "p",
        "y"
      ],
      [
        "v",
        "an"
      ],
      [
        "in",
        "te"
      ],
      [
        "ar",
        "ian"
      ],
      [
        "to",
        "ur"
      ],
      [
        "of",
        "t"
      ],
      [
        "is",
        "ing"
      ],
      [
        "id",
        "ing"
      ],
      [
        "de",
        "leg"
      ],
      [
        "cl",
        "if"
      ],
      [
        "br",
        "ief"
      ],
      [
        "mak",
        "ers"
      ],
      [
        "nor",
        "tel"
      ],
      [
        "open",
        "ing"
      ],
      [
        "joh",
        "ns"
      ],
      [
        "law",
        "suit"
      ],
      [
        "stud",
        "ents"
      ],
      [
        "pop",
        "ular"
      ],
      [
        "spec",
        "ial"
      ],
      [
        "journal",
        "ist"
      ],
      [
        "awa",
        "ited"
      ],
      [
        "fri",
        "end"
      ],
      [
        "spokes",
        "man"
      ],
      [
        "inte",
        "gr"
      ],
      [
        "c",
        "oll"
      ],
      [
        "e",
        "ach"
      ],
      [
        "f",
        "f"
      ],
      [
        "g",
        "iving"
      ],
      [
        "h",
        "ong"
      ],
      [
        "n",
        "a"
      ],
      [
        "n",
        "ame"
      ],
      [
        "s",
        "ites"
      ],
      [
        "in",
        "ters"
      ],
      [
        "re",
        "ve"
      ],
      [
        "en",
        "ge"
      ],
      [
        "as",
        "k"
      ],
      [
        "ro",
        "le"
      ],
      [
        "con",
        "ference"
      ],
      [
        "that",
        "cher"
      ],
      [
        "po",
        "ints"
      ],
      [
        "bl",
        "es"
      ],
      [
        "fl",
        "aw"
      ],
      [
        "pol",
        "ic"
      ],
      [
        "ib",
        "ility"
      ],
      [
        "go",
        "es"
      ],
      [
        "cap",
        "e"
      ],
      [
        "just",
        "ice"
      ],
      [
        "mus",
        "lim"
      ],
      [
        "announ",
        "ce"
      ],
      [
        "hold",
        "ings"
      ],
      [
        "sign",
        "ed"
      ],
      [
        "secret",
        "ary"
      ],
      [
        "advanc",
        "ed"
      ],
      [
        "atlant",
        "a"
      ],
      [
        ";",
        ","
      ],
      [
        "c",
        "iv"
      ],
      [
        "d",
        "ied"
      ],
      [
        "d",
        "utch"
      ],
      [
        "f",
        "ans"
      ],
      [
        "l",
        "an"
      ],
      [
        "w",
        "ild"
      ],
      [
        "in",
        "ed"
      ],
      [
        "is",
        "s"
      ],
      [
        "con",
        "secut"
      ],
      [
        "au",
        "ction"
      ],
      [
        "dis",
        "put"
      ],
      [
        "iz",
        "on"
      ],
      [
        "ang",
        "er"
      ],
      [
        "so",
        "on"
      ],
      [
        "kill",
        "s"
      ],
      [
        "gu",
        "ine"
      ],
      [
        "par",
        "is"
      ],
      [
        "dev",
        "ices"
      ],
      [
        "hold",
        "ing"
      ],
      [
        "vir",
        "us"
      ],
      [
        "rad",
        "clif"
      ],
      [
        "sell",
        "ing"
      ],
      [
        "adv",
        "ance"
      ],
      [
        "suspect",
        "s"
      ],
      [
        "conne",
        "ct"
      ],
      [
        "islam",
        "ic"
      ],
      [
        "semicondu",
        "ctor"
      ],
      [
        "equip",
        "ment"
      ],
      [
        "johns",
        "on"
      ],
      [
        "consecut",
        "ive"
      ],
      [
        "radclif",
        "fe"
      ],
      [
        "c",
        "p"
      ],
      [
        "n",
        "ine"
      ],
      [
        "o",
        "thers"
      ],
      [
        "in",
        "i"
      ],
      [
        "st",
        "ay"
      ],
      [
        "ed",
        "u"
      ],
      [
        "are",
        "a"
      ],
      [
        "end",
        "um"
      ],
      [
        "cr",
        "imin"
      ],
      [
        "sc",
        "ience"
      ],
      [
        "mis",
        "sing"
      ],
      [
        "appe",
        "ar"
      ],
      [
        "claim",
        "ed"
      ],
      [
        "sus",
        "p"
      ],
      [
        "dec",
        "ided"
      ],
      [
        "real",
        "networks"
      ],
      [
        "ny",
        "a"
      ],
      [
        "rad",
        "io"
      ],
      [
        "riv",
        "als"
      ],
      [
        "chech",
        "nya"
      ],
      [
        "crit",
        "ic"
      ],
      [
        "refer",
        "endum"
      ],
      [
        "bry",
        "ant"
      ],
      [
        "avail",
        "able"
      ],
      [
        "d",
        "a"
      ],
      [
        "h",
        "i"
      ],
      [
        "i",
        "i"
      ],
      [
        "i",
        "ally"
      ],
      [
        "s",
        "igns"
      ],
      [
        "v",
        "s"
      ],
      [
        "re",
        "m"
      ],
      [
        "ed",
        "a"
      ],
      [
        "com",
        "pl"
      ],
      [
        "est",
        "yle"
      ],
      [
        "over",
        "time"
      ],
      [
        "gh",
        "orn"
      ],
      [
        "dis",
        "c"
      ],
      [
        "ris",
        "ing"
      ],
      [
        "oper",
        "ation"
      ],
      [
        "bre",
        "w"
      ],
      [
        "lon",
        "ghorn"
      ],
      [
        "nam",
        "ed"
      ],
      [
        "fam",
        "ily"
      ],
      [
        "continu",
        "ed"
      ],
      [
        "athlet",
        "es"
      ],
      [
        "environ",
        "ment"
      ],
      [
        "bloom",
        "berg"
      ],
      [
        "guine",
        "a"
      ],
      [
        "d",
        "ing"
      ],
      [
        "g",
        "ives"
      ],
      [
        "h",
        "ack"
      ],
      [
        "k",
        "ab"
      ],
      [
        "p",
        "ent"
      ],
      [
        "p",
        "red"
      ],
      [
        "s",
        "ant"
      ],
      [
        "re",
        "v"
      ],
      [
        "re",
        "bound"
      ],
      [
        "al",
        "ed"
      ],
      [
        "ur",
        "ies"
      ],
      [
        "comp",
        "uters"
      ],
      [
        "iv",
        "id"
      ],
      [
        "jo",
        "y"
      ],
      [
        "war",
        "ning"
      ],
      [
        "go",
        "al"
      ],
      [
        "tak",
        "en"
      ],
      [
        "hu",
        "go"
      ],
      [
        "blo",
        "od"
      ],
      [
        "wr",
        "ong"
      ],
      [
        "kore",
        "an"
      ],
      [
        "step",
        "s"
      ],
      [
        "comple",
        "te"
      ],
      [
        "aren",
        "t"
      ],
      [
        "chang",
        "es"
      ],
      [
        "wound",
        "ed"
      ],
      [
        "tou",
        "gh"
      ],
      [
        "civ",
        "il"
      ],
      [
        "f",
        "igh"
      ],
      [
        "h",
        "ill"
      ],
      [
        "m",
        "its"
      ],
      [
        "u",
        "red"
      ],
      [
        "at",
        "ory"
      ],
      [
        "ir",
        "l"
      ],
      [
        "sh",
        "ows"
      ],
      [
        "ab",
        "il"
      ],
      [
        "lo",
        "se"
      ],
      [
        "ex",
        "ports"
      ],
      [
        "ind",
        "ivid"
      ],
      [
        "um",
        "e"
      ],
      [
        "fl",
        "ag"
      ],
      [
        "fl",
        "ight"
      ],
      [
        "fi",
        "x"
      ],
      [
        "plan",
        "es"
      ],
      [
        "mand",
        "u"
      ],
      [
        "power",
        "ful"
      ],
      [
        "expl",
        "os"
      ],
      [
        "hist",
        "or"
      ],
      [
        "stru",
        "ct"
      ],
      [
        "build",
        "ing"
      ],
      [
        "prote",
        "ct"
      ],
      [
        "person",
        "al"
      ],
      [
        "clos",
        "ed"
      ],
      [
        "copy",
        "right"
      ],
      [
        "weap",
        "ons"
      ],
      [
        "r",
        "ang"
      ],
      [
        "r",
        "ier"
      ],
      [
        "th",
        "ought"
      ],
      [
        "re",
        "quest"
      ],
      [
        "ro",
        "c"
      ],
      [
        "ro",
        "om"
      ],
      [
        "ro",
        "oney"
      ],
      [
        "se",
        "ed"
      ],
      [
        "con",
        "firmed"
      ],
      [
        "sh",
        "if"
      ],
      [
        "tr",
        "ies"
      ],
      [
        "lo",
        "cal"
      ],
      [
        "au",
        "to"
      ],
      [
        "he",
        "at"
      ],
      [
        "po",
        "or"
      ],
      [
        "co",
        "al"
      ],
      [
        "co",
        "ol"
      ],
      [
        "ke",
        "pt"
      ],
      [
        "bo",
        "b"
      ],
      [
        "gen",
        "eration"
      ],
      [
        "cal",
        "if"
      ],
      [
        "law",
        "y"
      ],
      [
        "mu",
        "qtada"
      ],
      [
        "fre",
        "estyle"
      ],
      [
        "consu",
        "mers"
      ],
      [
        "issu",
        "es"
      ],
      [
        "concer",
        "n"
      ],
      [
        "exper",
        "ts"
      ],
      [
        "attemp",
        "t"
      ],
      [
        "lar",
        "ge"
      ],
      [
        "employe",
        "es"
      ],
      [
        "c",
        "ross"
      ],
      [
        "h",
        "ic"
      ],
      [
        "k",
        "ath"
      ],
      [
        "p",
        "ip"
      ],
      [
        "p",
        "ie"
      ],
      [
        "p",
        "ound"
      ],
      [
        "p",
        "rel"
      ],
      [
        "s",
        "we"
      ],
      [
        "s",
        "end"
      ],
      [
        "t",
        "ion"
      ],
      [
        "t",
        "reat"
      ],
      [
        "st",
        "ro"
      ],
      [
        "st",
        "un"
      ],
      [
        "ou",
        "l"
      ],
      [
        "ad",
        "s"
      ],
      [
        "ver",
        "y"
      ],
      [
        "be",
        "came"
      ],
      [
        "mo",
        "ved"
      ],
      [
        "fr",
        "an"
      ],
      [
        "bo",
        "eing"
      ],
      [
        "dis",
        "appoint"
      ],
      [
        "coun",
        "ter"
      ],
      [
        "cond",
        "ition"
      ],
      [
        "publ",
        "ished"
      ],
      [
        "sup",
        "pl"
      ],
      [
        "cy",
        "cl"
      ],
      [
        "col",
        "le"
      ],
      [
        "shar",
        "ply"
      ],
      [
        "sudan",
        "ese"
      ],
      [
        "pen",
        "sion"
      ],
      [
        "stor",
        "m"
      ],
      [
        "outs",
        "ide"
      ],
      [
        "chall",
        "enge"
      ],
      [
        "qa",
        "eda"
      ],
      [
        "reven",
        "ue"
      ],
      [
        "semif",
        "inals"
      ],
      [
        "jav",
        "a"
      ],
      [
        "viet",
        "nam"
      ],
      [
        "c",
        "atch"
      ],
      [
        "k",
        "ia"
      ],
      [
        "m",
        "ig"
      ],
      [
        "m",
        "ix"
      ],
      [
        "s",
        "i"
      ],
      [
        "t",
        "an"
      ],
      [
        "u",
        "es"
      ],
      [
        "th",
        "in"
      ],
      [
        "le",
        "vel"
      ],
      [
        "ol",
        "es"
      ],
      [
        "ent",
        "ion"
      ],
      [
        "lo",
        "g"
      ],
      [
        "br",
        "ought"
      ],
      [
        "fin",
        "ance"
      ],
      [
        "war",
        "ner"
      ],
      [
        "az",
        "e"
      ],
      [
        "business",
        "es"
      ],
      [
        "hur",
        "t"
      ],
      [
        "pris",
        "ing"
      ],
      [
        "fall",
        "s"
      ],
      [
        "spr",
        "inters"
      ],
      [
        "share",
        "hold"
      ],
      [
        "ator",
        "ial"
      ],
      [
        "issu",
        "e"
      ],
      [
        "foc",
        "us"
      ],
      [
        "b",
        "ass"
      ],
      [
        "f",
        "ill"
      ],
      [
        "f",
        "air"
      ],
      [
        "j",
        "ail"
      ],
      [
        "l",
        "u"
      ],
      [
        "l",
        "ou"
      ],
      [
        "m",
        "ist"
      ],
      [
        "s",
        "ab"
      ],
      [
        "t",
        "ail"
      ],
      [
        "w",
        "is"
      ],
      [
        "at",
        "o"
      ],
      [
        "ic",
        "ation"
      ],
      [
        "ter",
        "min"
      ],
      [
        "su",
        "g"
      ],
      [
        "ser",
        "ious"
      ],
      [
        "pres",
        "ent"
      ],
      [
        "att",
        "le"
      ],
      [
        "ret",
        "ur"
      ],
      [
        "ful",
        "ly"
      ],
      [
        "clo",
        "sing"
      ],
      [
        "post",
        "s"
      ],
      [
        "equ",
        "atorial"
      ],
      [
        "pot",
        "ential"
      ],
      [
        "wit",
        "t"
      ],
      [
        "discover",
        "ed"
      ],
      [
        "delay",
        "ed"
      ],
      [
        "pir",
        "acy"
      ],
      [
        "priv",
        "ate"
      ],
      [
        "abo",
        "ve"
      ],
      [
        "kab",
        "ul"
      ],
      [
        "c",
        "arter"
      ],
      [
        "m",
        "ex"
      ],
      [
        "n",
        "in"
      ],
      [
        "r",
        "out"
      ],
      [
        "al",
        "ong"
      ],
      [
        "us",
        "a"
      ],
      [
        "im",
        "port"
      ],
      [
        "lo",
        "sing"
      ],
      [
        "ex",
        "tra"
      ],
      [
        "bl",
        "ow"
      ],
      [
        "fl",
        "ights"
      ],
      [
        "bro",
        "ke"
      ],
      [
        "champ",
        "ions"
      ],
      [
        "ever",
        "ton"
      ],
      [
        "fur",
        "ther"
      ],
      [
        "stand",
        "ards"
      ],
      [
        "host",
        "age"
      ],
      [
        "mem",
        "ber"
      ],
      [
        "fut",
        "ures"
      ],
      [
        "block",
        "ade"
      ],
      [
        "tre",
        "as"
      ],
      [
        "unveil",
        "ed"
      ],
      [
        "upgr",
        "ade"
      ],
      [
        "satell",
        "ite"
      ],
      [
        "c",
        "at"
      ],
      [
        "c",
        "ies"
      ],
      [
        "h",
        "en"
      ],
      [
        "k",
        "now"
      ],
      [
        "m",
        "ach"
      ],
      [
        "o",
        "h"
      ],
      [
        "s",
        "ky"
      ],
      [
        "u",
        "ally"
      ],
      [
        "x",
        "in"
      ],
      [
        "st",
        "ren"
      ],
      [
        "se",
        "pt"
      ],
      [
        "op",
        "e"
      ],
      [
        "he",
        "witt"
      ],
      [
        "cl",
        "ashes"
      ],
      [
        "med",
        "ical"
      ],
      [
        "ser",
        "vers"
      ],
      [
        "arg",
        "ent"
      ],
      [
        "du",
        "ct"
      ],
      [
        "high",
        "s"
      ],
      [
        "war",
        "ns"
      ],
      [
        "sur",
        "v"
      ],
      [
        "let",
        "t"
      ],
      [
        "hom",
        "er"
      ],
      [
        "hol",
        "iday"
      ],
      [
        "drop",
        "ped"
      ],
      [
        "dead",
        "ly"
      ],
      [
        "find",
        "s"
      ],
      [
        "did",
        "n"
      ],
      [
        "pan",
        "el"
      ],
      [
        "athlet",
        "ics"
      ],
      [
        "rece",
        "ived"
      ],
      [
        "wa",
        "it"
      ],
      [
        "mort",
        "g"
      ],
      [
        "aver",
        "age"
      ],
      [
        "disput",
        "e"
      ],
      [
        "individ",
        "ual"
      ],
      [
        "histor",
        "ic"
      ],
      [
        "kath",
        "mandu"
      ],
      [
        "stren",
        "g"
      ],
      [
        "g",
        "ren"
      ],
      [
        "k",
        "i"
      ],
      [
        "l",
        "ad"
      ],
      [
        "l",
        "ot"
      ],
      [
        "p",
        "ain"
      ],
      [
        "w",
        "re"
      ],
      [
        "w",
        "are"
      ],
      [
        "re",
        "ver"
      ],
      [
        "le",
        "ar"
      ],
      [
        "ch",
        "o"
      ],
      [
        "ne",
        "igh"
      ],
      [
        "de",
        "tro"
      ],
      [
        "pro",
        "mp"
      ],
      [
        "lo",
        "oks"
      ],
      [
        "ha",
        "ving"
      ],
      [
        "anc",
        "ient"
      ],
      [
        "state",
        "ment"
      ],
      [
        "star",
        "s"
      ],
      [
        "star",
        "ts"
      ],
      [
        "beg",
        "ins"
      ],
      [
        "election",
        "s"
      ],
      [
        "ma",
        "o"
      ],
      [
        "squ",
        "e"
      ],
      [
        "prel",
        "imin"
      ],
      [
        "g",
        "irl"
      ],
      [
        "n",
        "ik"
      ],
      [
        "th",
        "ough"
      ],
      [
        "an",
        "e"
      ],
      [
        "en",
        "ger"
      ],
      [
        "ro",
        "d"
      ],
      [
        "se",
        "p"
      ],
      [
        "res",
        "ol"
      ],
      [
        "res",
        "ident"
      ],
      [
        "ab",
        "bey"
      ],
      [
        "he",
        "w"
      ],
      [
        "str",
        "ate"
      ],
      [
        "br",
        "and"
      ],
      [
        "fin",
        "ished"
      ],
      [
        "coun",
        "t"
      ],
      [
        "do",
        "g"
      ],
      [
        "mil",
        "es"
      ],
      [
        "minist",
        "ry"
      ],
      [
        "aim",
        "ed"
      ],
      [
        "oper",
        "ator"
      ],
      [
        "olo",
        "g"
      ],
      [
        "pa",
        "id"
      ],
      [
        "see",
        "king"
      ],
      [
        "spr",
        "ing"
      ],
      [
        "wr",
        "ap"
      ],
      [
        "loss",
        "es"
      ],
      [
        "span",
        "ish"
      ],
      [
        "deb",
        "t"
      ],
      [
        "associ",
        "ation"
      ],
      [
        "imp",
        "act"
      ],
      [
        "doz",
        "ens"
      ],
      [
        "appro",
        "ach"
      ],
      [
        "nin",
        "th"
      ],
      [
        "xin",
        "hu"
      ],
      [
        "detro",
        "it"
      ],
      [
        "b",
        "es"
      ],
      [
        "d",
        "ies"
      ],
      [
        "d",
        "les"
      ],
      [
        "m",
        "ater"
      ],
      [
        "p",
        "ons"
      ],
      [
        "se",
        "attle"
      ],
      [
        "ad",
        "el"
      ],
      [
        "am",
        "es"
      ],
      [
        "ur",
        "ged"
      ],
      [
        "be",
        "ach"
      ],
      [
        "sh",
        "ell"
      ],
      [
        "pl",
        "ant"
      ],
      [
        "pl",
        "aced"
      ],
      [
        "res",
        "pons"
      ],
      [
        "cr",
        "ib"
      ],
      [
        "air",
        "craft"
      ],
      [
        "plan",
        "ning"
      ],
      [
        "cy",
        "ber"
      ],
      [
        "enter",
        "prise"
      ],
      [
        "ward",
        "s"
      ],
      [
        "vir",
        "tu"
      ],
      [
        "aud",
        "it"
      ],
      [
        "crash",
        "ed"
      ],
      [
        "palestin",
        "ians"
      ],
      [
        "rais",
        "ed"
      ],
      [
        "qual",
        "ify"
      ],
      [
        "fis",
        "cher"
      ],
      [
        "assa",
        "ult"
      ],
      [
        "prem",
        "ier"
      ],
      [
        "polic",
        "y"
      ],
      [
        "c",
        "and"
      ],
      [
        "c",
        "bs"
      ],
      [
        "k",
        "u"
      ],
      [
        "s",
        "it"
      ],
      [
        "v",
        "ia"
      ],
      [
        "th",
        "row"
      ],
      [
        "on",
        "y"
      ],
      [
        "al",
        "em"
      ],
      [
        "ar",
        "ab"
      ],
      [
        "ar",
        "med"
      ],
      [
        "as",
        "ian"
      ],
      [
        "ac",
        "cept"
      ],
      [
        "ad",
        "vis"
      ],
      [
        "ot",
        "a"
      ],
      [
        "pl",
        "at"
      ],
      [
        "pl",
        "us"
      ],
      [
        "res",
        "pon"
      ],
      [
        "pro",
        "gress"
      ],
      [
        "te",
        "mber"
      ],
      [
        "wor",
        "ries"
      ],
      [
        "cr",
        "ip"
      ],
      [
        "ach",
        "er"
      ],
      [
        "do",
        "d"
      ],
      [
        "sl",
        "am"
      ],
      [
        "lin",
        "ked"
      ],
      [
        "bel",
        "ow"
      ],
      [
        "ris",
        "k"
      ],
      [
        "sing",
        "le"
      ],
      [
        "bom",
        "bs"
      ],
      [
        "vol",
        "ley"
      ],
      [
        "bomb",
        "ing"
      ],
      [
        "sil",
        "icon"
      ],
      [
        "pack",
        "ard"
      ],
      [
        "seven",
        "th"
      ],
      [
        "stru",
        "ction"
      ],
      [
        "blast",
        "s"
      ],
      [
        "box",
        "ing"
      ],
      [
        "approv",
        "ed"
      ],
      [
        "batter",
        "ies"
      ],
      [
        "estim",
        "ates"
      ],
      [
        "organiz",
        "ation"
      ],
      [
        "curren",
        "t"
      ],
      [
        "infl",
        "ation"
      ],
      [
        "mut",
        "ual"
      ],
      [
        "pip",
        "el"
      ],
      [
        "sep",
        "tember"
      ],
      [
        "hew",
        "lett"
      ],
      [
        "c",
        "ink"
      ],
      [
        "d",
        "v"
      ],
      [
        "f",
        "el"
      ],
      [
        "g",
        "at"
      ],
      [
        "g",
        "iven"
      ],
      [
        "h",
        "ous"
      ],
      [
        "m",
        "ad"
      ],
      [
        "r",
        "are"
      ],
      [
        "r",
        "ust"
      ],
      [
        "v",
        "end"
      ],
      [
        "al",
        "d"
      ],
      [
        "ic",
        "o"
      ],
      [
        "id",
        "ers"
      ],
      [
        "ve",
        "ter"
      ],
      [
        "ct",
        "ors"
      ],
      [
        "wh",
        "y"
      ],
      [
        "ab",
        "ad"
      ],
      [
        "ast",
        "ron"
      ],
      [
        "sa",
        "w"
      ],
      [
        "sp",
        "ar"
      ],
      [
        "air",
        "port"
      ],
      [
        "li",
        "ament"
      ],
      [
        "ang",
        "els"
      ],
      [
        "million",
        "s"
      ],
      [
        "gu",
        "il"
      ],
      [
        "par",
        "liament"
      ],
      [
        "car",
        "ry"
      ],
      [
        "appe",
        "als"
      ],
      [
        "appe",
        "ared"
      ],
      [
        "see",
        "k"
      ],
      [
        "fac",
        "ing"
      ],
      [
        "miss",
        "ile"
      ],
      [
        "break",
        "ing"
      ],
      [
        "ri",
        "but"
      ],
      [
        "issu",
        "ed"
      ],
      [
        "dav",
        "is"
      ],
      [
        "return",
        "ed"
      ],
      [
        "continu",
        "es"
      ],
      [
        "roy",
        "al"
      ],
      [
        "islam",
        "abad"
      ],
      [
        "tic",
        "ket"
      ],
      [
        "proble",
        "m"
      ],
      [
        "class",
        "ic"
      ],
      [
        "electron",
        "ics"
      ],
      [
        "advert",
        "ising"
      ],
      [
        "roc",
        "ket"
      ],
      [
        "sug",
        "gest"
      ],
      [
        "volley",
        "ball"
      ],
      [
        "c",
        "able"
      ],
      [
        "g",
        "ies"
      ],
      [
        "m",
        "un"
      ],
      [
        "p",
        "end"
      ],
      [
        "s",
        "cor"
      ],
      [
        "t",
        "un"
      ],
      [
        "v",
        "oy"
      ],
      [
        "w",
        "art"
      ],
      [
        "re",
        "new"
      ],
      [
        "re",
        "ason"
      ],
      [
        "al",
        "ex"
      ],
      [
        "il",
        "legal"
      ],
      [
        "et",
        "y"
      ],
      [
        "pl",
        "ed"
      ],
      [
        "pro",
        "posed"
      ],
      [
        "ters",
        "on"
      ],
      [
        "oc",
        "k"
      ],
      [
        "ha",
        "ul"
      ],
      [
        "ant",
        "icip"
      ],
      [
        "no",
        "v"
      ],
      [
        "lin",
        "ks"
      ],
      [
        "gu",
        "er"
      ],
      [
        "prov",
        "ed"
      ],
      [
        "clo",
        "ser"
      ],
      [
        "enter",
        "tain"
      ],
      [
        "od",
        "ed"
      ],
      [
        "son",
        "y"
      ],
      [
        "rul",
        "ed"
      ],
      [
        "bur",
        "und"
      ],
      [
        "incre",
        "ased"
      ],
      [
        "init",
        "i"
      ],
      [
        "ik",
        "es"
      ],
      [
        "ca",
        "used"
      ],
      [
        "hou",
        "ston"
      ],
      [
        "mal",
        "ays"
      ],
      [
        "vo",
        "ip"
      ],
      [
        "aster",
        "n"
      ],
      [
        "crow",
        "d"
      ],
      [
        "electron",
        "ic"
      ],
      [
        "brow",
        "n"
      ],
      [
        "bir",
        "th"
      ],
      [
        "gol",
        "f"
      ],
      [
        "vic",
        "tim"
      ],
      [
        "moun",
        "tain"
      ],
      [
        "mater",
        "ial"
      ],
      [
        "cand",
        "id"
      ],
      [
        "a",
        "id"
      ],
      [
        "a",
        "ther"
      ],
      [
        "n",
        "d"
      ],
      [
        "n",
        "an"
      ],
      [
        "s",
        "ar"
      ],
      [
        "s",
        "ong"
      ]
    ]
  }
}