{
  "version": "1.0",
  "truncation": null,
  "padding": null,
  "added_tokens": [
    {
      "id": 0,
      "content": "[UNK]",
      "single_word": false,
      "lstrip": false,
      "rstrip": false,
      "normalized": false,
      "special": true
    }
  ],
  "normalizer": null,
  "pre_tokenizer": {
    "type": "Whitespace"
  },
  "post_processor": null,
  "decoder": null,
  "model": {
    "type": "BPE",
    "dropout": null,
    "unk_token": "[UNK]",
    "continuing_subword_prefix": null,
    "end_of_word_suffix": null,
    "fuse_unk": false,
    "byte_fallback": false,
    "ignore_merges": false,
    "vocab": {
      "[UNK]": 0,
      "!": 1,
      "'": 2,
      ",": 3,
      ".": 4,
      ":": 5,
      ";": 6,
      "?": 7,
      "a": 8,
      "b": 9,
      "c": 10,
      "d": 11,
      "e": 12,
      "f": 13,
      "g": 14,
      "h": 15,
      "i": 16,
      "j": 17,
      "k": 18,
      "l": 19,
      "m": 20,
      "n": 21,
      "o": 22,
      "p": 23,
      "q": 24,
      "r": 25,
      "s": 26,
      "t": 27,
      "u": 28,
      "v": 29,
      "w": 30,
      "x": 31,
      "y": 32,
      "z": 33,
      "th": 34,
      "an": 35,
      "er": 36,
      "ou": 37,
      "in": 38,
      "and": 39,
      "the": 40,
      "is": 41,
      "or": 42,
      "at": 43,
      "re": 44,
      "ll": 45,
      "st": 46,
      "me": 47,
      "no": 48,
      "he": 49,
      "to": 50,
      "le": 51,
      "on": 52,
      "ar": 53,
      "ve": 54,
      "be": 55,
      "se": 56,
      "wi": 57,
      "ro": 58,
      "hi": 59,
      "my": 60,
      "ha": 61,
      "for": 62,
      "you": 63,
      "ir": 64,
      "en": 65,
      "as": 66,
      "de": 67,
      "li": 68,
      "ther": 69,
      "co": 70,
      "ho": 71,
      "ing": 72,
      "of": 73,
      "it": 74,
      "ld": 75,
      "we": 76,
      "her": 77,
      "bu": 78,
      "fa": 79,
      "ay": 80,
      "ri": 81,
      "his": 82,
      "that": 83,
      "ter": 84,
      "us": 85,
      "him": 86,
      "with": 87,
      "ce": 88,
      "es": 89,
      "wh": 90,
      "go": 91,
      "thou": 92,
      "thy": 93,
      "ma": 94,
      "un": 95,
      "fi": 96,
      "ra": 97,
      "our": 98,
      "so": 99,
      "ur": 100,
      "ad": 101,
      "but": 102,
      "come": 103,
      "this": 104,
      "not": 105,
      "al": 106,
      "fe": 107,
      "em": 108,
      "how": 109,
      "man": 110,
      "gh": 111,
      "all": 112,
      "pe": 113,
      "la": 114,
      "ke": 115,
      "am": 116,
      "ne": 117,
      "now": 118,
      "per": 119,
      "what": 120,
      "she": 121,
      "sha": 122,
      "ck": 123,
      "te": 124,
      "oo": 125,
      "ly": 126,
      "was": 127,
      "sir": 128,
      "there": 129,
      "their": 130,
      "let": 131,
      "ould": 132,
      "ti": 133,
      "ru": 134,
      "will": 135,
      "ght": 136,
      "do": 137,
      "sh": 138,
      "shall": 139,
      "ver": 140,
      "ch": 141,
      "ed": 142,
      "father": 143,
      "by": 144,
      "fore": 145,
      "ous": 146,
      "wor": 147,
      "they": 148,
      "are": 149,
      "fu": 150,
      "here": 151,
      "ath": 152,
      "si": 153,
      "ine": 154,
      "nt": 155,
      "have": 156,
      "see": 157,
      "tis": 158,
      "ble": 159,
      "mast": 160,
      "lu": 161,
      "thee": 162,
      "res": 163,
      "fire": 164,
      "cur": 165,
      "ds": 166,
      "ta": 167,
      "your": 168,
      "rome": 169,
      "master": 170,
      "who": 171,
      "fro": 172,
      "if": 173,
      "od": 174,
      "pr": 175,
      "kno": 176,
      "hor": 177,
      "wo": 178,
      "ere": 179,
      "ever": 180,
      "ow": 181,
      "knock": 182,
      "hath": 183,
      "urn": 184,
      "ast": 185,
      "et": 186,
      "up": 187,
      "whi": 188,
      "row": 189,
      "ind": 190,
      "why": 191,
      "hand": 192,
      "good": 193,
      "mu": 194,
      "horse": 195,
      "ive": 196,
      "el": 197,
      "ci": 198,
      "should": 199,
      "one": 200,
      "tri": 201,
      "ent": 202,
      "mb": 203,
      "from": 204,
      "than": 205,
      "il": 206,
      "were": 207,
      "know": 208,
      "mis": 209,
      "ven": 210,
      "ex": 211,
      "di": 212,
      "ress": 213,
      "comes": 214,
      "tru": 215,
      "ful": 216,
      "well": 217,
      "ps": 218,
      "ill": 219,
      "ron": 220,
      "lo": 221,
      "pro": 222,
      "qu": 223,
      "say": 224,
      "live": 225,
      "su": 226,
      "tit": 227,
      "ate": 228,
      "fri": 229,
      "sat": 230,
      "make": 231,
      "out": 232,
      "swe": 233,
      "ars": 234,
      "ts": 235,
      "emi": 236,
      "con": 237,
      "ang": 238,
      "frien": 239,
      "would": 240,
      "enter": 241,
      "them": 242,
      "emper": 243,
      "nd": 244,
      "goth": 245,
      "therefore": 246,
      "curtis": 247,
      "give": 248,
      "ood": 249,
      "aw": 250,
      "gre": 251,
      "ore": 252,
      "cle": 253,
      "chi": 254,
      "ty": 255,
      "mar": 256,
      "beg": 257,
      "bro": 258,
      "cold": 259,
      "ain": 260,
      "upon": 261,
      "call": 262,
      "arm": 263,
      "der": 264,
      "death": 265,
      "life": 266,
      "can": 267,
      "friends": 268,
      "lf": 269,
      "thing": 270,
      "emperor": 271,
      "noble": 272,
      "im": 273,
      "ear": 274,
      "too": 275,
      "bre": 276,
      "ap": 277,
      "old": 278,
      "mo": 279,
      "com": 280,
      "ic": 281,
      "bo": 282,
      "ak": 283,
      "lt": 284,
      "lie": 285,
      "spe": 286,
      "ia": 287,
      "pi": 288,
      "ink": 289,
      "luci": 290,
      "away": 291,
      "erv": 292,
      "face": 293,
      "like": 294,
      "au": 295,
      "vin": 296,
      "les": 297,
      "gra": 298,
      "sp": 299,
      "speak": 300,
      "nes": 301,
      "oul": 302,
      "uncle": 303,
      "fir": 304,
      "ion": 305,
      "son": 306,
      "tell": 307,
      "lucius": 308,
      "before": 309,
      "ple": 310,
      "hea": 311,
      "vinia": 312,
      "which": 313,
      "new": 314,
      "saturn": 315,
      "hang": 316,
      "id": 317,
      "sis": 318,
      "read": 319,
      "mist": 320,
      "forth": 321,
      "ase": 322,
      "till": 323,
      "many": 324,
      "lavinia": 325,
      "thers": 326,
      "first": 327,
      "sister": 328,
      "ard": 329,
      "self": 330,
      "may": 331,
      "mistress": 332,
      "ment": 333,
      "ry": 334,
      "dead": 335,
      "sent": 336,
      "being": 337,
      "nor": 338,
      "take": 339,
      "bar": 340,
      "turn": 341,
      "um": 342,
      "bl": 343,
      "gs": 344,
      "wel": 345,
      "ure": 346,
      "ave": 347,
      "lor": 348,
      "ey": 349,
      "gar": 350,
      "prou": 351,
      "br": 352,
      "ep": 353,
      "lp": 354,
      "mi": 355,
      "ob": 356,
      "dow": 357,
      "last": 358,
      "great": 359,
      "emp": 360,
      "ish": 361,
      "fall": 362,
      "ory": 363,
      "thine": 364,
      "ks": 365,
      "inter": 366,
      "kis": 367,
      "serv": 368,
      "ise": 369,
      "du": 370,
      "then": 371,
      "head": 372,
      "beast": 373,
      "more": 374,
      "rial": 375,
      "where": 376,
      "hen": 377,
      "limb": 378,
      "fare": 379,
      "titus": 380,
      "child": 381,
      "mind": 382,
      "lius": 383,
      "sor": 384,
      "ef": 385,
      "lad": 386,
      "ges": 387,
      "ound": 388,
      "burial": 389,
      "fell": 390,
      "tears": 391,
      "woman": 392,
      "aemi": 393,
      "stand": 394,
      "ready": 395,
      "ought": 396,
      "sweet": 397,
      "mat": 398,
      "exe": 399,
      "sight": 400,
      "aemilius": 401,
      "dev": 402,
      "brothers": 403,
      "kn": 404,
      "cri": 405,
      "gri": 406,
      "god": 407,
      "unt": 408,
      "pray": 409,
      "lieve": 410,
      "bs": 411,
      "tam": 412,
      "cus": 413,
      "ger": 414,
      "men": 415,
      "fice": 416,
      "fear": 417,
      "tale": 418,
      "af": 419,
      "ather": 420,
      "hol": 421,
      "grief": 422,
      "red": 423,
      "foo": 424,
      "liv": 425,
      "word": 426,
      "lord": 427,
      "ag": 428,
      "tre": 429,
      "tribu": 430,
      "blood": 431,
      "tal": 432,
      "help": 433,
      "ice": 434,
      "po": 435,
      "ran": 436,
      "sc": 437,
      "had": 438,
      "some": 439,
      "aar": 440,
      "kill": 441,
      "pla": 442,
      "wife": 443,
      "raise": 444,
      "rown": 445,
      "earth": 446,
      "car": 447,
      "ning": 448,
      "tt": 449,
      "wron": 450,
      "any": 451,
      "hed": 452,
      "fie": 453,
      "emies": 454,
      "arms": 455,
      "sla": 456,
      "vey": 457,
      "des": 458,
      "deed": 459,
      "exeunt": 460,
      "ja": 461,
      "withal": 462,
      "marcus": 463,
      "down": 464,
      "ju": 465,
      "two": 466,
      "ance": 467,
      "these": 468,
      "ded": 469,
      "dear": 470,
      "unto": 471,
      "ook": 472,
      "ness": 473,
      "aaron": 474,
      "cau": 475,
      "tter": 476,
      "much": 477,
      "grave": 478,
      "gent": 479,
      "pre": 480,
      "enemies": 481,
      "pets": 482,
      "worst": 483,
      "lov": 484,
      "proud": 485,
      "dges": 486,
      "foul": 487,
      "look": 488,
      "warm": 489,
      "when": 490,
      "litt": 491,
      "full": 492,
      "every": 493,
      "convey": 494,
      "limbs": 495,
      "test": 496,
      "sound": 497,
      "rel": 498,
      "llo": 499,
      "bear": 500,
      "true": 501,
      "within": 502,
      "boy": 503,
      "welcome": 504,
      "saturnine": 505,
      "gentle": 506,
      "little": 507,
      "quar": 508,
      "myself": 509,
      "nothing": 510,
      "heaven": 511,
      "fo": 512,
      "devil": 513,
      "must": 514,
      "horses": 515,
      "quarrel": 516,
      "farewell": 517,
      "ng": 518,
      "matter": 519,
      "goths": 520,
      "very": 521,
      "been": 522,
      "wit": 523,
      "sa": 524,
      "done": 525,
      "cu": 526,
      "hou": 527,
      "sen": 528,
      "ba": 529,
      "thank": 530,
      "ist": 531,
      "ff": 532,
      "hu": 533,
      "ies": 534,
      "wal": 535,
      "ors": 536,
      "lips": 537,
      "ite": 538,
      "fort": 539,
      "ters": 540,
      "peri": 541,
      "ge": 542,
      "ers": 543,
      "rest": 544,
      "bur": 545,
      "ted": 546,
      "lust": 547,
      "ses": 548,
      "pile": 549,
      "believe": 550,
      "unk": 551,
      "'?": 552,
      "ban": 553,
      "eric": 554,
      "end": 555,
      "sheath": 556,
      "dig": 557,
      "walter": 558,
      "chol": 559,
      "hate": 560,
      "lour": 561,
      "mm": 562,
      "mour": 563,
      "op": 564,
      "outh": 565,
      "ora": 566,
      "weap": 567,
      "fig": 568,
      "side": 569,
      "ah": 570,
      "dir": 571,
      "fine": 572,
      "meed": 573,
      "hast": 574,
      "coat": 575,
      "while": 576,
      "obliv": 577,
      "gat": 578,
      "hear": 579,
      "fic": 580,
      "whose": 581,
      "woe": 582,
      "own": 583,
      "exit": 584,
      "imp": 585,
      "barous": 586,
      "sacri": 587,
      "ame": 588,
      "cen": 589,
      "gate": 590,
      "mouth": 591,
      "pa": 592,
      "swor": 593,
      "yet": 594,
      "ough": 595,
      "andron": 596,
      "rece": 597,
      "none": 598,
      "office": 599,
      "bus": 600,
      "foot": 601,
      "bri": 602,
      "doo": 603,
      "hat": 604,
      "phi": 605,
      "tro": 606,
      "ans": 607,
      "inus": 608,
      "ong": 609,
      "bell": 610,
      "wilt": 611,
      "mad": 612,
      "sirs": 613,
      "trimm": 614,
      "titles": 615,
      "tamora": 616,
      "wrongs": 617,
      "weapon": 618,
      "dirt": 619,
      "gone": 620,
      "iel": 621,
      "kather": 622,
      "nay": 623,
      "temp": 624,
      "wood": 625,
      "ished": 626,
      "stri": 627,
      "heard": 628,
      "wipe": 629,
      "off": 630,
      "rave": 631,
      "alar": 632,
      "neat": 633,
      "rup": 634,
      "did": 635,
      "prove": 636,
      "icus": 637,
      "serving": 638,
      "heads": 639,
      "sheathing": 640,
      "figure": 641,
      "ft": 642,
      "pres": 643,
      "throw": 644,
      "heel": 645,
      "roman": 646,
      "haps": 647,
      "ings": 648,
      "fair": 649,
      "raven": 650,
      "soon": 651,
      "tiger": 652,
      "known": 653,
      "swear": 654,
      "duty": 655,
      "choleric": 656,
      "oblivion": 657,
      "gates": 658,
      "doom": 659,
      "bon": 660,
      "fru": 661,
      "attemp": 662,
      "means": 663,
      "hot": 664,
      "rap": 665,
      "rail": 666,
      "ned": 667,
      "cious": 668,
      "lives": 669,
      "eye": 670,
      "kiss": 671,
      "base": 672,
      "ding": 673,
      "mon": 674,
      "nath": 675,
      "vill": 676,
      "think": 677,
      "into": 678,
      "left": 679,
      "better": 680,
      "sed": 681,
      "wed": 682,
      "perfor": 683,
      "die": 684,
      "sure": 685,
      "begin": 686,
      "barbarous": 687,
      "aves": 688,
      "after": 689,
      "plain": 690,
      "loving": 691,
      "bid": 692,
      "find": 693,
      "praise": 694,
      "thus": 695,
      "stay": 696,
      "law": 697,
      "near": 698,
      "cks": 699,
      "tired": 700,
      "muti": 701,
      "breast": 702,
      "talk": 703,
      "slave": 704,
      "receive": 705,
      "bones": 706,
      "attempt": 707,
      "lks": 708,
      "ring": 709,
      "sun": 710,
      "zen": 711,
      "detest": 712,
      "hold": 713,
      "made": 714,
      "raw": 715,
      "perhaps": 716,
      "masters": 717,
      "kisses": 718,
      "sorrow": 719,
      "tribunes": 720,
      "cause": 721,
      "witness": 722,
      "ravenous": 723,
      "fruit": 724,
      "aniel": 725,
      "beastly": 726,
      "soundly": 727,
      "alarbus": 728,
      "villain": 729,
      "glad": 730,
      "lat": 731,
      "hes": 732,
      "just": 733,
      "house": 734,
      "mutius": 735,
      "cou": 736,
      "soul": 737,
      "beat": 738,
      "worthy": 739,
      "shouldst": 740,
      "trum": 741,
      "gracious": 742,
      "pledges": 743,
      "empress": 744,
      "folks": 745,
      "hew": 746,
      "deep": 747,
      "though": 748,
      "sire": 749,
      "things": 750,
      "ladder": 751,
      "lawful": 752,
      "thre": 753,
      "most": 754,
      "news": 755,
      "saturninus": 756,
      "sorry": 757,
      "nathaniel": 758,
      "show": 759,
      "truth": 760,
      "andronicus": 761,
      "pit": 762,
      "might": 763,
      "fellow": 764,
      "ece": 765,
      "comp": 766,
      "brought": 767,
      "count": 768,
      "trumpets": 769,
      "thyself": 770,
      "piece": 771,
      "ret": 772,
      "wret": 773,
      "ence": 774,
      "ut": 775,
      "ith": 776,
      "cry": 777,
      "ison": 778,
      "bir": 779,
      "fr": 780,
      "tr": 781,
      "wa": 782,
      "prison": 783,
      "birds": 784,
      "mes": 785,
      "fat": 786,
      "ss": 787,
      "int": 788,
      "dest": 789,
      "ea": 790,
      "oth": 791,
      "sta": 792,
      "led": 793,
      "som": 794,
      "gr": 795,
      "hee": 796,
      "ves": 797,
      "fac": 798,
      "mor": 799,
      "ni": 800,
      "war": 801,
      "hal": 802,
      "ess": 803,
      "eel": 804,
      "wer": 805,
      "ene": 806,
      "rai": 807,
      "peas": 808,
      "proudest": 809,
      "ek": 810,
      "est": 811,
      "gory": 812,
      "mur": 813,
      "nc": 814,
      "ock": 815,
      "ati": 816,
      "meat": 817,
      "deme": 818,
      "unap": 819,
      "rag": 820,
      "urb": 821,
      "sig": 822,
      "bosom": 823,
      "dows": 824,
      "point": 825,
      "sensi": 826,
      "lusty": 827,
      "dam": 828,
      "dag": 829,
      "dist": 830,
      "een": 831,
      "ged": 832,
      "gran": 833,
      "ky": 834,
      "king": 835,
      "link": 836,
      "mone": 837,
      "nat": 838,
      "pt": 839,
      "rt": 840,
      "rous": 841,
      "smo": 842,
      "tu": 843,
      "ul": 844,
      "incen": 845,
      "requ": 846,
      "vent": 847,
      "enc": 848,
      "colour": 849,
      "wee": 850,
      "ush": 851,
      "feel": 852,
      "pet": 853,
      "peter": 854,
      "tion": 855,
      "rum": 856,
      "dost": 857,
      "fume": 858,
      "mbly": 859,
      "brother": 860,
      "took": 861,
      "griefs": 862,
      "cuff": 863,
      "murd": 864,
      "ga": 865,
      "low": 866,
      "oath": 867,
      "sle": 868,
      "sad": 869,
      "sky": 870,
      "ue": 871,
      "way": 872,
      "oud": 873,
      "stone": 874,
      "steel": 875,
      "least": 876,
      "sel": 877,
      "deaf": 878,
      "lip": 879,
      "weep": 880,
      "faith": 881,
      "riors": 882,
      "une": 883,
      "shadows": 884,
      "whom": 885,
      "trius": 886,
      "sum": 887,
      "gregory": 888,
      "clean": 889,
      "canst": 890,
      "pip": 891,
      "welfare": 892,
      "enemy": 893,
      "money": 894,
      "smoke": 895,
      "ake": 896,
      "bod": 897,
      "hum": 898,
      "ious": 899,
      "pure": 900,
      "ser": 901,
      "sof": 902,
      "tw": 903,
      "thr": 904,
      "iss": 905,
      "light": 906,
      "ldi": 907,
      "rav": 908,
      "shalt": 909,
      "letters": 910,
      "doth": 911,
      "imperi": 912,
      "humbly": 913,
      "unappeas": 914,
      "ragged": 915,
      "sensible": 916,
      "damn": 917,
      "dagger": 918,
      "incense": 919,
      "cat": 920,
      "dis": 921,
      "eat": 922,
      "io": 923,
      "lar": 924,
      "mir": 925,
      "ok": 926,
      "ph": 927,
      "plu": 928,
      "rite": 929,
      "va": 930,
      "xe": 931,
      "thir": 932,
      "ounc": 933,
      "isfac": 934,
      "ation": 935,
      "rema": 936,
      "repro": 937,
      "cob": 938,
      "comb": 939,
      "fiend": 940,
      "soldi": 941,
      "manes": 942,
      "perfume": 943,
      "frost": 944,
      "rong": 945,
      "prodig": 946,
      "queen": 947,
      "both": 948,
      "aught": 949,
      "lords": 950,
      "garly": 951,
      "cried": 952,
      "treble": 953,
      "tribune": 954,
      "believest": 955,
      "hateful": 956,
      "mourn": 957,
      "impati": 958,
      "received": 959,
      "frat": 960,
      "ekly": 961,
      "disturb": 962,
      "granted": 963,
      "requite": 964,
      "faithful": 965,
      "body": 966,
      "soft": 967,
      "athe": 968,
      "bra": 969,
      "blu": 970,
      "dle": 971,
      "fer": 972,
      "fun": 973,
      "ian": 974,
      "min": 975,
      "ose": 976,
      "pu": 977,
      "pow": 978,
      "pill": 979,
      "tar": 980,
      "tur": 981,
      "wat": 982,
      "woo": 983,
      "winter": 984,
      "yea": 985,
      "ano": 986,
      "ators": 987,
      "rew": 988,
      "relie": 989,
      "return": 990,
      "stain": 991,
      "strai": 992,
      "lead": 993,
      "unex": 994,
      "ralp": 995,
      "adam": 996,
      "advent": 997,
      "alas": 998,
      "feed": 999,
      "shut": 1000,
      "world": 1001,
      "ineth": 1002,
      "tames": 1003,
      "indly": 1004,
      "tripe": 1005,
      "quin": 1006,
      "swept": 1007,
      "consum": 1008,
      "chio": 1009,
      "earthy": 1010,
      "moor": 1011,
      "comfort": 1012,
      "sons": 1013,
      "pleas": 1014,
      "heav": 1015,
      "brush": 1016,
      "lasting": 1017,
      "knit": 1018,
      "baby": 1019,
      "ffer": 1020,
      "perienc": 1021,
      "trot": 1022,
      "proved": 1023,
      "trunk": 1024,
      "mortal": 1025,
      "warriors": 1026,
      "halter": 1027,
      "demetrius": 1028,
      "tumu": 1029,
      "weeps": 1030,
      "weeping": 1031,
      "imperious": 1032,
      "miry": 1033,
      "thirty": 1034,
      "aim": 1035,
      "bation": 1036,
      "cit": 1037,
      "dro": 1038,
      "even": 1039,
      "ile": 1040,
      "ide": 1041,
      "list": 1042,
      "name": 1043,
      "others": 1044,
      "pp": 1045,
      "rit": 1046,
      "rus": 1047,
      "sword": 1048,
      "slow": 1049,
      "use": 1050,
      "wall": 1051,
      "thrown": 1052,
      "eral": 1053,
      "ina": 1054,
      "orn": 1055,
      "strong": 1056,
      "stian": 1057,
      "strew": 1058,
      "hears": 1059,
      "once": 1060,
      "onounc": 1061,
      "arl": 1062,
      "asle": 1063,
      "weed": 1064,
      "webs": 1065,
      "maid": 1066,
      "under": 1067,
      "fies": 1068,
      "sop": 1069,
      "fet": 1070,
      "petru": 1071,
      "amiss": 1072,
      "never": 1073,
      "ties": 1074,
      "dog": 1075,
      "bled": 1076,
      "indif": 1077,
      "suffer": 1078,
      "title": 1079,
      "satisfac": 1080,
      "angel": 1081,
      "tyr": 1082,
      "tooth": 1083,
      "less": 1084,
      "lasts": 1085,
      "match": 1086,
      "knaves": 1087,
      "tree": 1088,
      "burst": 1089,
      "coats": 1090,
      "ficing": 1091,
      "belly": 1092,
      "striking": 1093,
      "wert": 1094,
      "signi": 1095,
      "humour": 1096,
      "twain": 1097,
      "pluck": 1098,
      "blue": 1099,
      "pillow": 1100,
      "water": 1101,
      "ralph": 1102,
      "bb": 1103,
      "bst": 1104,
      "cr": 1105,
      "cro": 1106,
      "cas": 1107,
      "cast": 1108,
      "clo": 1109,
      "draw": 1110,
      "fle": 1111,
      "fit": 1112,
      "food": 1113,
      "gru": 1114,
      "grow": 1115,
      "ima": 1116,
      "jill": 1117,
      "lay": 1118,
      "lish": 1119,
      "nour": 1120,
      "othe": 1121,
      "pup": 1122,
      "run": 1123,
      "rink": 1124,
      "sin": 1125,
      "sli": 1126,
      "thread": 1127,
      "inhu": 1128,
      "rede": 1129,
      "lla": 1130,
      "stum": 1131,
      "stop": 1132,
      "meet": 1133,
      "methink": 1134,
      "tomb": 1135,
      "beh": 1136,
      "besee": 1137,
      "half": 1138,
      "desp": 1139,
      "cease": 1140,
      "gover": 1141,
      "five": 1142,
      "embra": 1143,
      "pearl": 1144,
      "laid": 1145,
      "perate": 1146,
      "shore": 1147,
      "sio": 1148,
      "seek": 1149,
      "curse": 1150,
      "pronounc": 1151,
      "venice": 1152,
      "chiron": 1153,
      "beggarly": 1154,
      "broil": 1155,
      "deri": 1156,
      "approved": 1157,
      "ums": 1158,
      "garters": 1159,
      "mio": 1160,
      "kna": 1161,
      "aglet": 1162,
      "score": 1163,
      "senators": 1164,
      "burning": 1165,
      "banish": 1166,
      "digress": 1167,
      "heart": 1168,
      "swore": 1169,
      "swords": 1170,
      "bridle": 1171,
      "philip": 1172,
      "trimming": 1173,
      "weapons": 1174,
      "preserv": 1175,
      "pities": 1176,
      "waded": 1177,
      "stabs": 1178,
      "sleekly": 1179,
      "selves": 1180,
      "serve": 1181,
      "soldiers": 1182,
      "prodigies": 1183,
      "impatient": 1184,
      "fratrum": 1185,
      "ferent": 1186,
      "leading": 1187,
      "tumult": 1188,
      "rites": 1189,
      "ac": 1190,
      "ali": 1191,
      "axe": 1192,
      "bt": 1193,
      "ct": 1194,
      "din": 1195,
      "dles": 1196,
      "flat": 1197,
      "get": 1198,
      "grown": 1199,
      "harms": 1200,
      "jose": 1201,
      "knew": 1202,
      "loud": 1203,
      "nic": 1204,
      "nought": 1205,
      "oof": 1206,
      "ople": 1207,
      "pl": 1208,
      "pink": 1209,
      "pard": 1210,
      "sup": 1211,
      "tou": 1212,
      "ument": 1213,
      "thless": 1214,
      "ant": 1215,
      "ort": 1216,
      "order": 1217,
      "rep": 1218,
      "reven": 1219,
      "heal": 1220,
      "tong": 1221,
      "lend": 1222,
      "bemo": 1223,
      "sequ": 1224,
      "rope": 1225,
      "robb": 1226,
      "hirt": 1227,
      "forso": 1228,
      "youth": 1229,
      "cook": 1230,
      "wear": 1231,
      "bush": 1232,
      "without": 1233,
      "sobs": 1234,
      "ghted": 1235,
      "among": 1236,
      "shed": 1237,
      "fustian": 1238,
      "bleed": 1239,
      "rescu": 1240,
      "white": 1241,
      "hands": 1242,
      "thanks": 1243,
      "lost": 1244,
      "love": 1245,
      "lopp": 1246,
      "sugar": 1247,
      "subst": 1248,
      "tsy": 1249,
      "march": 1250,
      "complain": 1251,
      "mayst": 1252,
      "deadly": 1253,
      "eyes": 1254,
      "lieves": 1255,
      "scath": 1256,
      "kills": 1257,
      "place": 1258,
      "prey": 1259,
      "fortune": 1260,
      "unkindly": 1261,
      "banished": 1262,
      "mourning": 1263,
      "finely": 1264,
      "rupter": 1265,
      "rails": 1266,
      "perforce": 1267,
      "sorrows": 1268,
      "nature": 1269,
      "ways": 1270,
      "vaun": 1271,
      "cobwebs": 1272,
      "funeral": 1273,
      "puts": 1274,
      "tarquin": 1275,
      "another": 1276,
      "relief": 1277,
      "straight": 1278,
      "rushes": 1279,
      "asleep": 1280,
      "cross": 1281,
      "flesh": 1282,
      "jills": 1283,
      "since": 1284,
      "slide": 1285,
      "methinks": 1286,
      "despis": 1287,
      "govern": 1288,
      "awhile": 1289,
      "bal": 1290,
      "boo": 1291,
      "bast": 1292,
      "climb": 1293,
      "came": 1294,
      "crup": 1295,
      "dou": 1296,
      "drown": 1297,
      "eth": 1298,
      "ect": 1299,
      "ner": 1300,
      "pum": 1301,
      "shirt": 1302,
      "vow": 1303,
      "vain": 1304,
      "thaw": 1305,
      "anc": 1306,
      "anci": 1307,
      "repa": 1308,
      "str": 1309,
      "tofore": 1310,
      "legs": 1311,
      "befall": 1312,
      "because": 1313,
      "set": 1314,
      "roof": 1315,
      "roderi": 1316,
      "has": 1317,
      "ass": 1318,
      "theren": 1319,
      "cock": 1320,
      "holla": 1321,
      "ceed": 1322,
      "gold": 1323,
      "ours": 1324,
      "adorn": 1325,
      "fears": 1326,
      "people": 1327,
      "ambush": 1328,
      "thereby": 1329,
      "shrink": 1330,
      "curst": 1331,
      "everlasting": 1332,
      "mish": 1333,
      "promis": 1334,
      "friend": 1335,
      "marry": 1336,
      "martyr": 1337,
      "tells": 1338,
      "garment": 1339,
      "falls": 1340,
      "interest": 1341,
      "duties": 1342,
      "beasts": 1343,
      "holas": 1344,
      "treme": 1345,
      "carpets": 1346,
      "jades": 1347,
      "judges": 1348,
      "fully": 1349,
      "bags": 1350,
      "woefull": 1351,
      "sacrifice": 1352,
      "katherina": 1353,
      "romans": 1354,
      "detested": 1355,
      "through": 1356,
      "larums": 1357,
      "remaineth": 1358,
      "mournful": 1359,
      "minded": 1360,
      "turned": 1361,
      "unexperienc": 1362,
      "heavy": 1363,
      "citing": 1364,
      "drops": 1365,
      "fetch": 1366,
      "signifies": 1367,
      "cassio": 1368,
      "closed": 1369,
      "grumio": 1370,
      "image": 1371,
      "nourish": 1372,
      "puppet": 1373,
      "inhuman": 1374,
      "redeem": 1375,
      "stumbled": 1376,
      "behind": 1377,
      "beseech": 1378,
      "embrace": 1379,
      "flatly": 1380,
      "pardon": 1381,
      "reveng": 1382,
      "bemoil": 1383,
      "rescue": 1384,
      "ched": 1385,
      "chee": 1386,
      "dare": 1387,
      "ject": 1388,
      "long": 1389,
      "mit": 1390,
      "mory": 1391,
      "nate": 1392,
      "oat": 1393,
      "scold": 1394,
      "tas": 1395,
      "tall": 1396,
      "orrow": 1397,
      "ree": 1398,
      "relieves": 1399,
      "story": 1400,
      "stock": 1401,
      "melt": 1402,
      "told": 1403,
      "becomes": 1404,
      "seem": 1405,
      "aside": 1406,
      "cost": 1407,
      "home": 1408,
      "offic": 1409,
      "famish": 1410,
      "riding": 1411,
      "goes": 1412,
      "unha": 1413,
      "unpink": 1414,
      "rah": 1415,
      "aloof": 1416,
      "thereat": 1417,
      "tio": 1418,
      "curtsy": 1419,
      "tail": 1420,
      "knocking": 1421,
      "eting": 1422,
      "whither": 1423,
      "shoulder": 1424,
      "entrails": 1425,
      "extreme": 1426,
      "dies": 1427,
      "wouldst": 1428,
      "themselves": 1429,
      "calls": 1430,
      "cannot": 1431,
      "breathe": 1432,
      "coming": 1433,
      "hangs": 1434,
      "ardy": 1435,
      "sently": 1436,
      "obsequ": 1437,
      "lastly": 1438,
      "greater": 1439,
      "foolish": 1440,
      "scars": 1441,
      "hadst": 1442,
      "slain": 1443,
      "desperate": 1444,
      "jack": 1445,
      "jacks": 1446,
      "caught": 1447,
      "pale": 1448,
      "phies": 1449,
      "katherine": 1450,
      "basely": 1451,
      "sung": 1452,
      "thren": 1453,
      "gabri": 1454,
      "ravished": 1455,
      "reprobation": 1456,
      "petruchio": 1457,
      "satisfaction": 1458,
      "growing": 1459,
      "othello": 1460,
      "alighted": 1461,
      "joseph": 1462,
      "supper": 1463,
      "touch": 1464,
      "tongue": 1465,
      "sugarsop": 1466,
      "vaunter": 1467,
      "ancient": 1468,
      "roderigo": 1469,
      "!'": 1470,
      "able": 1471,
      "four": 1472,
      "flour": 1473,
      "kne": 1474,
      "mine": 1475,
      "pare": 1476,
      "ray": 1477,
      "tend": 1478,
      "ume": 1479,
      "uile": 1480,
      "ze": 1481,
      "recount": 1482,
      "lled": 1483,
      "memory": 1484,
      "arn": 1485,
      "hill": 1486,
      "high": 1487,
      "fast": 1488,
      "rimis": 1489,
      "lament": 1490,
      "teeth": 1491,
      "worthless": 1492,
      "tricks": 1493,
      "proceed": 1494,
      "cont": 1495,
      "spru": 1496,
      "spare": 1497,
      "spake": 1498,
      "wrong": 1499,
      "sacrificing": 1500,
      "servingmen": 1501,
      "monument": 1502,
      "perform": 1503,
      "saddles": 1504,
      "disfigure": 1505,
      "indifferent": 1506,
      "knavery": 1507,
      "nicholas": 1508,
      "report": 1509,
      "forsooth": 1510,
      "weary": 1511,
      "substance": 1512,
      "boots": 1513,
      "doubt": 1514,
      "pumps": 1515,
      "repair": 1516,
      "mity": 1517,
      "task": 1518,
      "taller": 1519,
      "seems": 1520,
      "ab": 1521,
      "bion": 1522,
      "brave": 1523,
      "dit": 1524,
      "fty": 1525,
      "save": 1526,
      "tty": 1527,
      "wound": 1528,
      "incar": 1529,
      "toge": 1530,
      "leave": 1531,
      "leaves": 1532,
      "learn": 1533,
      "vex": 1534,
      "behold": 1535,
      "young": 1536,
      "enough": 1537,
      "desir": 1538,
      "demon": 1539,
      "cozen": 1540,
      "ldly": 1541,
      "faul": 1542,
      "unjust": 1543,
      "fifty": 1544,
      "almost": 1545,
      "amor": 1546,
      "neck": 1547,
      "sirrah": 1548,
      "words": 1549,
      "sider": 1550,
      "tales": 1551,
      "frozen": 1552,
      "horn": 1553,
      "owing": 1554,
      "sust": 1555,
      "cony": 1556,
      "emperess": 1557,
      "bretheren": 1558,
      "please": 1559,
      "hanging": 1560,
      "bring": 1561,
      "object": 1562,
      "servant": 1563,
      "wherein": 1564,
      "pot": 1565,
      "poor": 1566,
      "pretty": 1567,
      "llowed": 1568,
      "quarrelsome": 1569,
      "trophies": 1570,
      "woodcock": 1571,
      "wedding": 1572,
      "eaten": 1573,
      "banishment": 1574,
      "pling": 1575,
      "crupper": 1576,
      "cheeks": 1577,
      "scolding": 1578,
      "gabriel": 1579,
      "knee": 1580,
      "spruce": 1581,
      "borrow": 1582,
      "danc": 1583,
      "fought": 1584,
      "inc": 1585,
      "ony": 1586,
      "art": 1587,
      "hither": 1588,
      "hair": 1589,
      "enmity": 1590,
      "dello": 1591,
      "thought": 1592,
      "mastcr": 1593,
      "lucen": 1594,
      "cursed": 1595,
      "ange": 1596,
      "greeting": 1597,
      "brethren": 1598,
      "appare": 1599,
      "audit": 1600,
      "spraw": 1601,
      "interrupter": 1602,
      "hence": 1603,
      "dearer": 1604,
      "presently": 1605,
      "everything": 1606,
      "heavens": 1607,
      "offence": 1608,
      "presume": 1609,
      "wretched": 1610,
      "dinner": 1611,
      "balcony": 1612,
      "bastardy": 1613,
      "oats": 1614,
      "stockings": 1615,
      "officer": 1616,
      "flourish": 1617,
      "highness": 1618,
      "proceedings": 1619,
      "content": 1620,
      "faults": 1621,
      "dise": 1622,
      "free": 1623,
      "hon": 1624,
      "nance": 1625,
      "tran": 1626,
      "anion": 1627,
      "inous": 1628,
      "behea": 1629,
      "weather": 1630,
      "fetter": 1631,
      "lux": 1632,
      "proper": 1633,
      "beguile": 1634,
      "blowing": 1635,
      "mildly": 1636,
      "dumb": 1637,
      "again": 1638,
      "deeds": 1639,
      "testim": 1640,
      "imprimis": 1641,
      "stripling": 1642,
      "detestable": 1643,
      "sorrowful": 1644,
      "villains": 1645,
      "household": 1646,
      "obsequious": 1647,
      "bravely": 1648,
      "incarnate": 1649,
      "together": 1650,
      "desirous": 1651,
      "amorous": 1652,
      "sidering": 1653,
      "lucentio": 1654,
      "auditory": 1655,
      "sprawl": 1656,
      "anions": 1657,
      "uri": 1658,
      "andsire": 1659,
      "although": 1660,
      "time": 1661,
      "sati": 1662,
      "forthwith": 1663,
      "ases": 1664,
      "service": 1665,
      "desdemon": 1666,
      "showers": 1667,
      "accursed": 1668,
      "strange": 1669,
      "unhallowed": 1670,
      "about": 1671,
      "biondello": 1672,
      "honour": 1673,
      "heinous": 1674,
      "latin": 1675,
      "beaten": 1676,
      "company": 1677,
      "wrongful": 1678,
      "apparelled": 1679,
      "freeze": 1680,
      "tranio": 1681,
      "beheaded": 1682,
      "leges": 1683,
      "considering": 1684,
      "three": 1685,
      "grandsire": 1686,
      "inches": 1687,
      "luxuri": 1688,
      "testimony": 1689,
      "insati": 1690,
      "enance": 1691,
      "companions": 1692,
      "diseases": 1693,
      "devo": 1694,
      "luxurious": 1695,
      "insatiate": 1696,
      "pity": 1697,
      "devoid": 1698,
      "countenance": 1699,
      "tor": 1700,
      "dire": 1701,
      "mustard": 1702,
      "yo": 1703,
      "beef": 1704,
      "torment": 1705,
      "torments": 1706,
      "wretch": 1707,
      "cra": 1708,
      "sentence": 1709,
      "execra": 1710,
      "execrable": 1711,
      "direful": 1712,
      "tha": 1713,
      "hy": 1714,
      "ope": 1715,
      "woes": 1716,
      "thi": 1717,
      "ee": 1718,
      "ome": 1719,
      "ot": 1720,
      "tho": 1721,
      "rs": 1722,
      "ca": 1723,
      "rom": 1724,
      "eder": 1725,
      "breeder": 1726,
      "prisoner": 1727,
      "han": 1728,
      "wil": 1729,
      "ell": 1730,
      "eve": 1731,
      "uld": 1732,
      "ends": 1733,
      "om": 1734,
      "thei": 1735,
      "eir": 1736,
      "chance": 1737,
      "ev": 1738,
      "ht": 1739,
      "ici": 1740,
      "wha": 1741,
      "fathe": 1742,
      "peror": 1743,
      "ead": 1744,
      "iv": 1745,
      "oke": 1746,
      "ster": 1747,
      "hey": 1748,
      "hav": 1749,
      "hall": 1750,
      "shal": 1751,
      "mas": 1752,
      "na": 1753,
      "ny": 1754,
      "rn": 1755,
      "sho": 1756,
      "dea": 1757,
      "fath": 1758,
      "unc": 1759,
      "mischance": 1760,
      "spoke": 1761,
      "eed": 1762,
      "ius": 1763,
      "rst": 1764,
      "sw": 1765,
      "heir": 1766,
      "bea": 1767,
      "hors": 1768,
      "efore": 1769,
      "eath": 1770,
      "ire": 1771,
      "omes": 1772,
      "rd": 1773,
      "sou": 1774,
      "tle": 1775,
      "wn": 1776,
      "thin": 1777,
      "goo": 1778,
      "maste": 1779,
      "knoc": 1780,
      "andronici": 1781,
      "hould": 1782,
      "ie": 1783,
      "ife": 1784,
      "ki": 1785,
      "ms": 1786,
      "nce": 1787,
      "nds": 1788,
      "ol": 1789,
      "ught": 1790,
      "wou": 1791,
      "refore": 1792,
      "nock": 1793,
      "col": 1794,
      "lav": 1795,
      "therefo": 1796,
      "shou": 1797,
      "shoul": 1798,
      "herefore": 1799,
      "aem": 1800,
      "fou": 1801,
      "giv": 1802,
      "mperor": 1803,
      "ns": 1804,
      "nter": 1805,
      "ngs": 1806,
      "pra": 1807,
      "whe": 1808,
      "ery": 1809,
      "ons": 1810,
      "ente": 1811,
      "deat": 1812,
      "empe": 1813,
      "lavin": 1814,
      "therefor": 1815,
      "luc": 1816,
      "curt": 1817,
      "erefore": 1818,
      "urnine": 1819,
      "ronicus": 1820,
      "frie": 1821,
      "graci": 1822,
      "barbar": 1823,
      "air": 1824,
      "aven": 1825,
      "avinia": 1826,
      "dy": 1827,
      "dly": 1828,
      "east": 1829,
      "ears": 1830,
      "hing": 1831,
      "ike": 1832,
      "ight": 1833,
      "iends": 1834,
      "ls": 1835,
      "mp": 1836,
      "oble": 1837,
      "rv": 1838,
      "rth": 1839,
      "rse": 1840,
      "rtis": 1841,
      "tes": 1842,
      "ord": 1843,
      "stress": 1844,
      "nobl": 1845,
      "lea": 1846,
      "bef": 1847,
      "bein": 1848,
      "buri": 1849,
      "riends": 1850,
      "got": 1851,
      "mak": 1852,
      "urtis": 1853,
      "lain": 1854,
      "tel": 1855,
      "theref": 1856,
      "curti": 1857,
      "aster": 1858,
      "cius": 1859,
      "empero": 1860,
      "brothe": 1861,
      "saturni": 1862,
      "saturnin": 1863,
      "aemili": 1864,
      "ae": 1865,
      "ale": 1866,
      "blo": 1867,
      "cal": 1868,
      "da": 1869,
      "eg": 1870,
      "ew": 1871,
      "eing": 1872,
      "eet": 1873,
      "eak": 1874,
      "fl": 1875,
      "ig": 1876,
      "ial": 1877,
      "imb": 1878,
      "las": 1879,
      "nk": 1880,
      "nou": 1881,
      "nto": 1882,
      "ncle": 1883,
      "nia": 1884,
      "ost": 1885,
      "pon": 1886,
      "ror": 1887,
      "sl": 1888,
      "tand": 1889,
      "tus": 1890,
      "tress": 1891,
      "ust": 1892,
      "urial": 1893,
      "woul": 1894,
      "ye": 1895,
      "yself": 1896,
      "eri": 1897,
      "eror": 1898,
      "inte": 1899,
      "thes": 1900,
      "ister": 1901,
      "orse": 1902,
      "reat": 1903,
      "lls": 1904,
      "llow": 1905,
      "sto": 1906,
      "hem": 1907,
      "arrel": 1908,
      "ved": 1909,
      "bei": 1910,
      "bel": 1911,
      "bet": 1912,
      "beas": 1913,
      "rothers": 1914,
      "hild": 1915,
      "hich": 1916,
      "enemi": 1917,
      "dee": 1918,
      "lif": 1919,
      "lik": 1920,
      "ingmen": 1921,
      "itus": 1922,
      "wea": 1923,
      "fel": 1924,
      "nea": 1925,
      "tea": 1926,
      "tear": 1927,
      "til": 1928,
      "tak": 1929,
      "wom": 1930,
      "woma": 1931,
      "urninus": 1932,
      "upo": 1933,
      "ived": 1934,
      "elf": 1935,
      "satu": 1936,
      "satur": 1937,
      "swee": 1938,
      "awa": 1939,
      "grea": 1940,
      "brot": 1941,
      "luciu": 1942,
      "firs": 1943,
      "sist": 1944,
      "mistre": 1945,
      "mistres": 1946,
      "milius": 1947,
      "sorr": 1948,
      "exeun": 1949,
      "livion": 1950,
      "istress": 1951,
      "nathan": 1952,
      "compan": 1953,
      "reprob": 1954,
      "uncl": 1955,
      "aemil": 1956,
      "ace": 1957,
      "bi": 1958,
      "cl": 1959,
      "cho": 1960,
      "dst": 1961,
      "dge": 1962,
      "ese": 1963,
      "fin": 1964,
      "gi": 1965,
      "gro": 1966,
      "gen": 1967,
      "hs": 1968,
      "ild": 1969,
      "ich": 1970,
      "ilius": 1971,
      "lcome": 1972,
      "ming": 1973,
      "nous": 1974,
      "nemies": 1975,
      "oy": 1976,
      "oman": 1977,
      "rm": 1978,
      "rin": 1979,
      "rthy": 1980,
      "rds": 1981,
      "rcus": 1982,
      "rrel": 1983,
      "rms": 1984,
      "swo": 1985,
      "tly": 1986,
      "ud": 1987,
      "uth": 1988,
      "ugh": 1989,
      "umb": 1990,
      "vil": 1991,
      "wr": 1992,
      "ws": 1993,
      "wro": 1994,
      "wher": 1995,
      "wful": 1996,
      "ths": 1997,
      "thro": 1998,
      "oug": 1999,
      "oudest": 2000,
      "orth": 2001,
      "orst": 2002,
      "orses": 2003,
      "aturnine": 2004,
      "rea": 2005,
      "rec": 2006,
      "ren": 2007,
      "rewell": 2008,
      "mea": 2009,
      "mee": 2010,
      "nob": 2011,
      "noth": 2012,
      "nothi": 2013,
      "aron": 2014,
      "arcus": 2015,
      "bee": 2016,
      "belie": 2017,
      "befo": 2018,
      "mys": 2019,
      "force": 2020,
      "irt": 2021,
      "enem": 2022,
      "lim": 2023,
      "ittle": 2024,
      "ldst": 2025,
      "bunes": 2026,
      "fal": 2027,
      "withi": 2028,
      "und": 2029,
      "sooth": 2030,
      "ady": 2031,
      "ala": 2032,
      "fea": 2033,
      "perf": 2034,
      "perha": 2035,
      "ouldst": 2036,
      "worth": 2037,
      "arewell": 2038,
      "athing": 2039,
      "sid": 2040,
      "sigh": 2041,
      "ntle": 2042,
      "curs": 2043,
      "ifferent": 2044,
      "ows": 2045,
      "ets": 2046,
      "etter": 2047,
      "entle": 2048,
      "qua": 2049,
      "titl": 2050,
      "titu": 2051,
      "emilius": 2052,
      "ndly": 2053,
      "chil": 2054,
      "marr": 2055,
      "begu": 2056,
      "broth": 2057,
      "ains": 2058,
      "eart": 2059,
      "spea": 2060,
      "heave": 2061,
      "bloo": 2062,
      "welco": 2063,
      "mies": 2064,
      "interrup": 2065,
      "servi": 2066,
      "farewe": 2067,
      "devi": 2068,
      "tribun": 2069,
      "aaro": 2070,
      "ttle": 2071,
      "desde": 2072,
      "desper": 2073,
      "gentl": 2074,
      "littl": 2075,
      "banis": 2076,
      "impri": 2077,
      "sacrifi": 2078,
      "sacrific": 2079,
      "andronic": 2080,
      "coun": 2081,
      "counten": 2082,
      "oths": 2083,
      "faction": 2084,
      "disfig": 2085,
      "xeunt": 2086,
      "uldst": 2087,
      "soun": 2088,
      "lavi": 2089,
      "lavini": 2090,
      "buria": 2091,
      "imbs": 2092,
      "enemie": 2093,
      "aa": 2094,
      "ai": 2095,
      "ade": 2096,
      "awhi": 2097,
      "aps": 2098,
      "aid": 2099,
      "aise": 2100,
      "acri": 2101,
      "aded": 2102,
      "acious": 2103,
      "bas": 2104,
      "blivion": 2105,
      "che": 2106,
      "dg": 2107,
      "dl": 2108,
      "dr": 2109,
      "don": 2110,
      "dder": 2111,
      "dronicus": 2112,
      "eme": 2113,
      "ede": 2114,
      "ely": 2115,
      "eful": 2116,
      "equ": 2117,
      "eep": 2118,
      "elieve": 2119,
      "ehold": 2120,
      "event": 2121,
      "far": 2122,
      "fter": 2123,
      "ffice": 2124,
      "gl": 2125,
      "hin": 2126,
      "hous": 2127,
      "hine": 2128,
      "hrow": 2129,
      "hink": 2130,
      "haniel": 2131,
      "ip": 2132,
      "ither": 2133,
      "ient": 2134,
      "iger": 2135,
      "iend": 2136,
      "ieve": 2137,
      "ka": 2138,
      "kat": 2139,
      "kath": 2140,
      "kathe": 2141,
      "lk": 2142,
      "lis": 2143,
      "lus": 2144,
      "loo": 2145,
      "lood": 2146,
      "leric": 2147,
      "mou": 2148,
      "mus": 2149,
      "mout": 2150,
      "mpets": 2151,
      "mora": 2152,
      "mpt": 2153,
      "nin": 2154,
      "nus": 2155,
      "nine": 2156,
      "nvey": 2157,
      "nough": 2158,
      "ninus": 2159,
      "niel": 2160,
      "nicus": 2161,
      "oa": 2162,
      "oor": 2163,
      "oon": 2164,
      "ove": 2165,
      "other": 2166,
      "oil": 2167,
      "obl": 2168,
      "owed": 2169,
      "ozen": 2170,
      "par": 2171,
      "pil": 2172,
      "pany": 2173,
      "prai": 2174,
      "panions": 2175,
      "rrow": 2176,
      "rty": 2177,
      "rry": 2178,
      "rish": 2179,
      "rses": 2180,
      "rbarous": 2181,
      "rough": 2182,
      "rison": 2183,
      "rush": 2184,
      "roud": 2185,
      "sco": 2186,
      "sur": 2187,
      "spr": 2188,
      "ten": 2189,
      "tay": 2190,
      "tles": 2191,
      "tum": 2192,
      "tory": 2193,
      "tness": 2194,
      "twa": 2195,
      "uit": 2196,
      "uty": 2197,
      "ult": 2198,
      "ucius": 2199,
      "uarrel": 2200,
      "vi": 2201,
      "ving": 2202,
      "vion": 2203,
      "xit": 2204,
      "xperienc": 2205,
      "thu": 2206,
      "thal": 2207,
      "ank": 2208,
      "ouse": 2209,
      "ins": 2210,
      "insat": 2211,
      "inia": 2212,
      "isses": 2213,
      "orthy": 2214,
      "ords": 2215,
      "ats": 2216,
      "att": 2217,
      "ates": 2218,
      "atrum": 2219,
      "aturninus": 2220,
      "reli": 2221,
      "sts": 2222,
      "stan": 2223,
      "stly": 2224,
      "sters": 2225,
      "stumb": 2226,
      "non": 2227,
      "hel": 2228,
      "hein": 2229,
      "heathing": 2230,
      "lef": 2231,
      "leg": 2232,
      "ones": 2233,
      "ongs": 2234,
      "arbarous": 2235,
      "arbus": 2236,
      "bec": 2237,
      "befor": 2238,
      "beli": 2239,
      "wif": 2240,
      "wip": 2241,
      "roma": 2242,
      "myse": 2243,
      "halt": 2244,
      "hallowed": 2245,
      "form": 2246,
      "irst": 2247,
      "irous": 2248,
      "desi": 2249,
      "lit": 2250,
      "coa": 2251,
      "hom": 2252,
      "hose": 2253,
      "offi": 2254,
      "weet": 2255,
      "hers": 2256,
      "fai": 2257,
      "ric": 2258,
      "rious": 2259,
      "rief": 2260,
      "rimm": 2261,
      "witha": 2262,
      "thoug": 2263,
      "thys": 2264,
      "thysel": 2265,
      "maineth": 2266,
      "unp": 2267,
      "unes": 2268,
      "undly": 2269,
      "ral": 2270,
      "racious": 2271,
      "soo": 2272,
      "urish": 2273,
      "adder": 2274,
      "alter": 2275,
      "fee": 2276,
      "alls": 2277,
      "pea": 2278,
      "peak": 2279,
      "peop": 2280,
      "lave": 2281,
      "amo": 2282,
      "peress": 2283,
      "shea": 2284,
      "sheat": 2285,
      "ckings": 2286,
      "oom": 2287,
      "oot": 2288,
      "tig": 2289,
      "tire": 2290,
      "tius": 2291,
      "tige": 2292,
      "rue": 2293,
      "ruth": 2294,
      "ruchio": 2295,
      "edges": 2296,
      "wors": 2297,
      "wort": 2298,
      "arelled": 2299,
      "fust": 2300,
      "sible": 2301,
      "seech": 2302,
      "pris": 2303,
      "everlast": 2304,
      "urning": 2305,
      "asters": 2306,
      "whit": 2307,
      "mut": 2308,
      "ives": 2309,
      "elp": 2310,
      "elcome": 2311,
      "trib": 2312,
      "trim": 2313,
      "ils": 2314,
      "ilt": 2315,
      "venous": 2316,
      "exi": 2317,
      "ronici": 2318,
      "probation": 2319,
      "suf": 2320,
      "sug": 2321,
      "satis": 2322,
      "swea": 2323,
      "cons": 2324,
      "conve": 2325,
      "consi": 2326,
      "consider": 2327,
      "themsel": 2328,
      "ndronicus": 2329,
      "greet": 2330,
      "marc": 2331,
      "begi": 2332,
      "beggar": 2333,
      "dering": 2334,
      "imony": 2335,
      "eard": 2336,
      "brea": 2337,
      "bret": 2338,
      "breth": 2339,
      "breas": 2340,
      "appro": 2341,
      "appeas": 2342,
      "apons": 2343,
      "compla": 2344,
      "compa": 2345,
      "ause": 2346,
      "grav": 2347,
      "spa": 2348,
      "pledge": 2349,
      "siste": 2350,
      "mistr": 2351,
      "barb": 2352,
      "barba": 2353,
      "turnine": 2354,
      "umpets": 2355,
      "welc": 2356,
      "welcom": 2357,
      "garsop": 2358,
      "brou": 2359,
      "mild": 2360,
      "obs": 2361,
      "empt": 2362,
      "empre": 2363,
      "empres": 2364,
      "ishment": 2365,
      "kisse": 2366,
      "dut": 2367,
      "duti": 2368,
      "beastl": 2369,
      "farew": 2370,
      "farewel": 2371,
      "eft": 2372,
      "ladd": 2373,
      "fello": 2374,
      "matt": 2375,
      "matte": 2376,
      "exeu": 2377,
      "knave": 2378,
      "grie": 2379,
      "tamo": 2380,
      "tamor": 2381,
      "afte": 2382,
      "slav": 2383,
      "jac": 2384,
      "prese": 2385,
      "present": 2386,
      "lovi": 2387,
      "testable": 2388,
      "soundl": 2389,
      "quarr": 2390,
      "quarre": 2391,
      "mustar": 2392,
      "witne": 2393,
      "witnes": 2394,
      "sac": 2395,
      "sacr": 2396,
      "hough": 2397,
      "senat": 2398,
      "human": 2399,
      "humb": 2400,
      "walt": 2401,
      "perious": 2402,
      "unkind": 2403,
      "bani": 2404,
      "sheathi": 2405,
      "sheathin": 2406,
      "choler": 2407,
      "choleri": 2408,
      "weapo": 2409,
      "oblivi": 2410,
      "oblivio": 2411,
      "ficer": 2412,
      "sacrif": 2413,
      "recei": 2414,
      "receiv": 2415,
      "trophi": 2416,
      "katheri": 2417,
      "tempt": 2418,
      "strik": 2419,
      "raveno": 2420,
      "alarb": 2421,
      "alarbu": 2422,
      "ravenou": 2423,
      "monu": 2424,
      "mony": 2425,
      "natha": 2426,
      "lawfu": 2427,
      "trumpet": 2428,
      "ithal": 2429,
      "ithful": 2430,
      "bird": 2431,
      "eaven": 2432,
      "stable": 2433,
      "grand": 2434,
      "nifies": 2435,
      "warri": 2436,
      "demetri": 2437,
      "sign": 2438,
      "rumpets": 2439,
      "sleek": 2440,
      "ravis": 2441,
      "larbus": 2442,
      "isfaction": 2443,
      "remaine": 2444,
      "cobwe": 2445,
      "funer": 2446,
      "unexperi": 2447,
      "indiff": 2448,
      "knav": 2449,
      "sequious": 2450,
      "ceedings": 2451,
      "unhallo": 2452,
      "obsequi": 2453,
      "bionde": 2454,
      "apparell": 2455,
      "urious": 2456,
      "satiate": 2457,
      "caus": 2458,
      "evil": 2459,
      "eads": 2460,
      "ivion": 2461,
      "rnine": 2462,
      "rninus": 2463,
      "eathing": 2464,
      "houldst": 2465,
      "oleric": 2466,
      "prais": 2467,
      "gracio": 2468,
      "graciou": 2469,
      "barbaro": 2470,
      "barbarou": 2471,
      "avenous": 2472,
      "mpress": 2473,
      "saturninu": 2474,
      "aemiliu": 2475,
      "flou": 2476,
      "igure": 2477,
      "bette": 2478,
      "nathani": 2479,
      "reprobati": 2480,
      "chole": 2481,
      "perhap": 2482,
      "av": 2483,
      "ax": 2484,
      "awh": 2485,
      "ack": 2486,
      "aby": 2487,
      "abo": 2488,
      "ament": 2489,
      "abl": 2490,
      "abs": 2491,
      "ades": 2492,
      "avery": 2493,
      "alight": 2494,
      "aineth": 2495,
      "aight": 2496,
      "ails": 2497,
      "aithful": 2498,
      "bor": 2499,
      "bly": 2500,
      "bru": 2501,
      "bone": 2502,
      "bout": 2503,
      "bag": 2504,
      "bsta": 2505,
      "brav": 2506,
      "bio": 2507,
      "bwebs": 2508,
      "bject": 2509,
      "bsequious": 2510,
      "cer": 2511,
      "cli": 2512,
      "cath": 2513,
      "cars": 2514,
      "core": 2515,
      "ches": 2516,
      "ction": 2517,
      "ccursed": 2518,
      "clim": 2519,
      "dar": 2520,
      "dra": 2521,
      "drow": 2522,
      "dum": 2523,
      "dsire": 2524,
      "dvent": 2525,
      "dorn": 2526,
      "ddles": 2527,
      "dcock": 2528,
      "different": 2529,
      "dronici": 2530,
      "eh": 2531,
      "ein": 2532,
      "eno": 2533,
      "emy": 2534,
      "eas": 2535,
      "ether": 2536,
      "eter": 2537,
      "eem": 2538,
      "eck": 2539,
      "ech": 2540,
      "eby": 2541,
      "eble": 2542,
      "eive": 2543,
      "ecomes": 2544,
      "ewell": 2545,
      "eate": 2546,
      "elie": 2547,
      "ehea": 2548,
      "ease": 2549,
      "egs": 2550,
      "eave": 2551,
      "efall": 2552,
      "eks": 2553,
      "eges": 2554,
      "eunt": 2555,
      "ebs": 2556,
      "eaf": 2557,
      "eather": 2558,
      "eans": 2559,
      "ecause": 2560,
      "ecount": 2561,
      "eves": 2562,
      "eek": 2563,
      "eekly": 2564,
      "elieves": 2565,
      "eeth": 2566,
      "etheren": 2567,
      "eeting": 2568,
      "esently": 2569,
      "ethren": 2570,
      "eze": 2571,
      "elled": 2572,
      "einous": 2573,
      "eases": 2574,
      "eived": 2575,
      "emaineth": 2576,
      "eseech": 2577,
      "eprobation": 2578,
      "eapons": 2579,
      "etestable": 2580,
      "estable": 2581,
      "fs": 2582,
      "fre": 2583,
      "fas": 2584,
      "fus": 2585,
      "fra": 2586,
      "fla": 2587,
      "flo": 2588,
      "fles": 2589,
      "fough": 2590,
      "fence": 2591,
      "fune": 2592,
      "fficer": 2593,
      "gin": 2594,
      "gon": 2595,
      "ging": 2596,
      "gla": 2597,
      "glet": 2598,
      "gel": 2599,
      "gress": 2600,
      "gful": 2601,
      "gain": 2602,
      "garm": 2603,
      "gure": 2604,
      "gger": 2605,
      "gmen": 2606,
      "gies": 2607,
      "gged": 2608,
      "grum": 2609,
      "gue": 2610,
      "ggarly": 2611,
      "guile": 2612,
      "gnifies": 2613,
      "har": 2614,
      "hus": 2615,
      "hwith": 2616,
      "hful": 2617,
      "hout": 2618,
      "harm": 2619,
      "hread": 2620,
      "hment": 2621,
      "hought": 2622,
      "hance": 2623,
      "hness": 2624,
      "hted": 2625,
      "hings": 2626,
      "hless": 2627,
      "hrink": 2628,
      "hree": 2629,
      "hren": 2630,
      "hrough": 2631,
      "ime": 2632,
      "ithou": 2633,
      "ipe": 2634,
      "ied": 2635,
      "ible": 2636,
      "imis": 2637,
      "ips": 2638,
      "iate": 2639,
      "ief": 2640,
      "ifice": 2641,
      "ired": 2642,
      "iors": 2643,
      "iers": 2644,
      "icks": 2645,
      "iece": 2646,
      "iking": 2647,
      "ienc": 2648,
      "ificing": 2649,
      "ighted": 2650,
      "ildly": 2651,
      "ipling": 2652,
      "idering": 2653,
      "je": 2654,
      "ji": 2655,
      "jo": 2656,
      "jus": 2657,
      "jil": 2658,
      "kly": 2659,
      "kil": 2660,
      "kindly": 2661,
      "ler": 2662,
      "lou": 2663,
      "lon": 2664,
      "lter": 2665,
      "lts": 2666,
      "lfare": 2667,
      "lthough": 2668,
      "lmost": 2669,
      "lves": 2670,
      "mn": 2671,
      "moo": 2672,
      "mil": 2673,
      "mps": 2674,
      "mfort": 2675,
      "mong": 2676,
      "mplain": 2677,
      "mselves": 2678,
      "mperess": 2679,
      "mperious": 2680,
      "nan": 2681,
      "nst": 2682,
      "nse": 2683,
      "nit": 2684,
      "nnot": 2685,
      "nam": 2686,
      "nful": 2687,
      "nks": 2688,
      "ncar": 2689,
      "nded": 2690,
      "nted": 2691,
      "nished": 2692,
      "nsum": 2693,
      "nounc": 2694,
      "npink": 2695,
      "nument": 2696,
      "nner": 2697,
      "nanc": 2698,
      "nmity": 2699,
      "ndello": 2700,
      "nsidering": 2701,
      "nhallowed": 2702,
      "nsible": 2703,
      "nappeas": 2704,
      "nishment": 2705,
      "nhuman": 2706,
      "nsatiate": 2707,
      "oes": 2708,
      "oper": 2709,
      "ofore": 2710,
      "omb": 2711,
      "ops": 2712,
      "othing": 2713,
      "oge": 2714,
      "olour": 2715,
      "olks": 2716,
      "oss": 2717,
      "oint": 2718,
      "osom": 2719,
      "olish": 2720,
      "olla": 2721,
      "oved": 2722,
      "oving": 2723,
      "oceedings": 2724,
      "pis": 2725,
      "ping": 2726,
      "pri": 2727,
      "pter": 2728,
      "pur": 2729,
      "pal": 2730,
      "pper": 2731,
      "poo": 2732,
      "press": 2733,
      "praw": 2734,
      "put": 2735,
      "ppeas": 2736,
      "pati": 2737,
      "ppet": 2738,
      "pproved": 2739,
      "port": 2740,
      "primis": 2741,
      "pons": 2742,
      "rl": 2743,
      "rer": 2744,
      "rou": 2745,
      "rve": 2746,
      "rch": 2747,
      "rine": 2748,
      "rate": 2749,
      "rment": 2750,
      "rought": 2751,
      "rtal": 2752,
      "rning": 2753,
      "rpets": 2754,
      "rters": 2755,
      "runk": 2756,
      "rbus": 2757,
      "rhaps": 2758,
      "rned": 2759,
      "rsed": 2760,
      "rfume": 2761,
      "rriors": 2762,
      "rquin": 2763,
      "rlasting": 2764,
      "rina": 2765,
      "rsop": 2766,
      "rtyr": 2767,
      "rthless": 2768,
      "rtsy": 2769,
      "rrupter": 2770,
      "rnate": 2771,
      "rrah": 2772,
      "range": 2773,
      "randsire": 2774,
      "roudest": 2775,
      "rforce": 2776,
      "rsooth": 2777,
      "ratrum": 2778,
      "rform": 2779,
      "sk": 2780,
      "sm": 2781,
      "sy": 2782,
      "sus": 2783,
      "sses": 2784,
      "sfigure": 2785,
      "sperate": 2786,
      "ssio": 2787,
      "sdemon": 2788,
      "schance": 2789,
      "scol": 2790,
      "sfaction": 2791,
      "tin": 2792,
      "tir": 2793,
      "tra": 2794,
      "tch": 2795,
      "tent": 2796,
      "ture": 2797,
      "turb": 2798,
      "trong": 2799,
      "tcr": 2800,
      "trails": 2801,
      "tched": 2802,
      "tardy": 2803,
      "tenance": 2804,
      "uin": 2805,
      "ull": 2806,
      "uce": 2807,
      "uman": 2808,
      "uch": 2809,
      "umu": 2810,
      "uts": 2811,
      "uff": 2812,
      "uite": 2813,
      "ucen": 2814,
      "udest": 2815,
      "ueen": 2816,
      "umbly": 2817,
      "uious": 2818,
      "uchio": 2819,
      "ustian": 2820,
      "uties": 2821,
      "ubt": 2822,
      "utius": 2823,
      "ugarsop": 2824,
      "vo": 2825,
      "vau": 2826,
      "vice": 2827,
      "vant": 2828,
      "vingmen": 2829,
      "wl": 2830,
      "win": 2831,
      "wre": 2832,
      "wad": 2833,
      "wate": 2834,
      "wain": 2835,
      "wers": 2836,
      "wint": 2837,
      "winte": 2838,
      "xurious": 2839,
      "yst": 2840,
      "yes": 2841,
      "ything": 2842,
      "thwith": 2843,
      "thful": 2844,
      "anst": 2845,
      "annot": 2846,
      "anks": 2847,
      "anted": 2848,
      "anished": 2849,
      "anoth": 2850,
      "anio": 2851,
      "ern": 2852,
      "ert": 2853,
      "erve": 2854,
      "eren": 2855,
      "ering": 2856,
      "erine": 2857,
      "erent": 2858,
      "erate": 2859,
      "erhaps": 2860,
      "eress": 2861,
      "erfume": 2862,
      "erious": 2863,
      "erlasting": 2864,
      "errupter": 2865,
      "erforce": 2866,
      "ount": 2867,
      "oung": 2868,
      "oubt": 2869,
      "inh": 2870,
      "ince": 2871,
      "inch": 2872,
      "inded": 2873,
      "insa": 2874,
      "inhum": 2875,
      "inner": 2876,
      "andr": 2877,
      "ands": 2878,
      "andro": 2879,
      "thello": 2880,
      "isfigure": 2881,
      "ischance": 2882,
      "orm": 2883,
      "orde": 2884,
      "orld": 2885,
      "orce": 2886,
      "orous": 2887,
      "orry": 2888,
      "ortal": 2889,
      "orthless": 2890,
      "orsooth": 2891,
      "ater": 2892,
      "atin": 2893,
      "aten": 2894,
      "atter": 2895,
      "atte": 2896,
      "atly": 2897,
      "atch": 2898,
      "ature": 2899,
      "atisfaction": 2900,
      "rem": 2901,
      "req": 2902,
      "rev": 2903,
      "rey": 2904,
      "rein": 2905,
      "reme": 2906,
      "reve": 2907,
      "reco": 2908,
      "reby": 2909,
      "rent": 2910,
      "reble": 2911,
      "repr": 2912,
      "reast": 2913,
      "relieve": 2914,
      "repo": 2915,
      "recou": 2916,
      "regory": 2917,
      "reathe": 2918,
      "retheren": 2919,
      "reeting": 2920,
      "resently": 2921,
      "rethren": 2922,
      "recoun": 2923,
      "lly": 2924,
      "ller": 2925,
      "llain": 2926,
      "llains": 2927,
      "ste": 2928,
      "stu": 2929,
      "sty": 2930,
      "stor": 2931,
      "ston": 2932,
      "stro": 2933,
      "stra": 2934,
      "sted": 2935,
      "stron": 2936,
      "stance": 2937,
      "sturb": 2938,
      "stardy": 2939,
      "stee": 2940,
      "stimony": 2941,
      "mem": 2942,
      "meth": 2943,
      "mean": 2944,
      "memo": 2945,
      "memor": 2946,
      "metrius": 2947,
      "methi": 2948,
      "methin": 2949,
      "nother": 2950,
      "nothin": 2951,
      "hese": 2952,
      "hello": 2953,
      "tof": 2954,
      "tog": 2955,
      "tol": 2956,
      "tom": 2957,
      "ton": 2958,
      "top": 2959,
      "tofor": 2960,
      "tone": 2961,
      "tofo": 2962,
      "toget": 2963,
      "tockings": 2964,
      "len": 2965,
      "lean": 2966,
      "leas": 2967,
      "lesh": 2968,
      "leed": 2969,
      "lease": 2970,
      "leep": 2971,
      "ledges": 2972,
      "lege": 2973,
      "leekly": 2974,
      "onc": 2975,
      "oner": 2976,
      "onou": 2977,
      "onour": 2978,
      "onvey": 2979,
      "onicus": 2980,
      "onsum": 2981,
      "onument": 2982,
      "ondello": 2983,
      "onsidering": 2984,
      "onici": 2985,
      "ontent": 2986,
      "ary": 2987,
      "arth": 2988,
      "arer": 2989,
      "arthy": 2990,
      "arly": 2991,
      "arch": 2992,
      "arous": 2993,
      "arry": 2994,
      "arpets": 2995,
      "arters": 2996,
      "arriors": 2997,
      "arquin": 2998,
      "artyr": 2999
    },
    "merges": [
      [
        "t",
        "h"
      ],
      [
        "a",
        "n"
      ],
      [
        "e",
        "r"
      ],
      [
        "o",
        "u"
      ],
      [
        "i",
        "n"
      ],
      [
        "an",
        "d"
      ],
      [
        "th",
        "e"
      ],
      [
        "i",
        "s"
      ],
      [
        "o",
        "r"
      ],
      [
        "a",
        "t"
      ],
      [
        "r",
        "e"
      ],
      [
        "l",
        "l"
      ],
      [
        "s",
        "t"
      ],
      [
        "m",
        "e"
      ],
      [
        "n",
        "o"
      ],
      [
        "h",
        "e"
      ],
      [
        "t",
        "o"
      ],
      [
        "l",
        "e"
      ],
      [
        "o",
        "n"
      ],
      [
        "a",
        "r"
      ],
      [
        "v",
        "e"
      ],
      [
        "b",
        "e"
      ],
      [
        "s",
        "e"
      ],
      [
        "w",
        "i"
      ],
      [
        "r",
        "o"
      ],
      [
        "h",
        "i"
      ],
      [
        "m",
        "y"
      ],
      [
        "h",
        "a"
      ],
      [
        "f",
        "or"
      ],
      [
        "y",
        "ou"
      ],
      [
        "i",
        "r"
      ],
      [
        "e",
        "n"
      ],
      [
        "a",
        "s"
      ],
      [
        "d",
        "e"
      ],
      [
        "l",
        "i"
      ],
      [
        "th",
        "er"
      ],
      [
        "c",
        "o"
      ],
      [
        "h",
        "o"
      ],
      [
        "in",
        "g"
      ],
      [
        "o",
        "f"
      ],
      [
        "i",
        "t"
      ],
      [
        "l",
        "d"
      ],
      [
        "w",
        "e"
      ],
      [
        "h",
        "er"
      ],
      [
        "b",
        "u"
      ],
      [
        "f",
        "a"
      ],
      [
        "a",
        "y"
      ],
      [
        "r",
        "i"
      ],
      [
        "h",
        "is"
      ],
      [
        "th",
        "at"
      ],
      [
        "t",
        "er"
      ],
      [
        "u",
        "s"
      ],
      [
        "hi",
        "m"
      ],
      [
        "wi",
        "th"
      ],
      [
        "c",
        "e"
      ],
      [
        "e",
        "s"
      ],
      [
        "w",
        "h"
      ],
      [
        "g",
        "o"
      ],
      [
        "th",
        "ou"
      ],
      [
        "th",
        "y"
      ],
      [
        "m",
        "a"
      ],
      [
        "u",
        "n"
      ],
      [
        "f",
        "i"
      ],
      [
        "r",
        "a"
      ],
      [
        "ou",
        "r"
      ],
      [
        "s",
        "o"
      ],
      [
        "u",
        "r"
      ],
      [
        "a",
        "d"
      ],
      [
        "bu",
        "t"
      ],
      [
        "co",
        "me"
      ],
      [
        "th",
        "is"
      ],
      [
        "no",
        "t"
      ],
      [
        "a",
        "l"
      ],
      [
        "f",
        "e"
      ],
      [
        "e",
        "m"
      ],
      [
        "ho",
        "w"
      ],
      [
        "m",
        "an"
      ],
      [
        "g",
        "h"
      ],
      [
        "a",
        "ll"
      ],
      [
        "p",
        "e"
      ],
      [
        "l",
        "a"
      ],
      [
        "k",
        "e"
      ],
      [
        "a",
        "m"
      ],
      [
        "n",
        "e"
      ],
      [
        "no",
        "w"
      ],
      [
        "p",
        "er"
      ],
      [
        "wh",
        "at"
      ],
      [
        "s",
        "he"
      ],
      [
        "s",
        "ha"
      ],
      [
        "c",
        "k"
      ],
      [
        "t",
        "e"
      ],
      [
        "o",
        "o"
      ],
      [
        "l",
        "y"
      ],
      [
        "w",
        "as"
      ],
      [
        "s",
        "ir"
      ],
      [
        "ther",
        "e"
      ],
      [
        "the",
        "ir"
      ],
      [
        "le",
        "t"
      ],
      [
        "ou",
        "ld"
      ],
      [
        "t",
        "i"
      ],
      [
        "r",
        "u"
      ],
      [
        "wi",
        "ll"
      ],
      [
        "gh",
        "t"
      ],
      [
        "d",
        "o"
      ],
      [
        "s",
        "h"
      ],
      [
        "sha",
        "ll"
      ],
      [
        "v",
        "er"
      ],
      [
        "c",
        "h"
      ],
      [
        "e",
        "d"
      ],
      [
        "fa",
        "ther"
      ],
      [
        "b",
        "y"
      ],
      [
        "for",
        "e"
      ],
      [
        "ou",
        "s"
      ],
      [
        "w",
        "or"
      ],
      [
        "the",
        "y"
      ],
      [
        "a",
        "re"
      ],
      [
        "f",
        "u"
      ],
      [
        "her",
        "e"
      ],
      [
        "a",
        "th"
      ],
      [
        "s",
        "i"
      ],
      [
        "in",
        "e"
      ],
      [
        "n",
        "t"
      ],
      [
        "ha",
        "ve"
      ],
      [
        "se",
        "e"
      ],
      [
        "t",
        "is"
      ],
      [
        "b",
        "le"
      ],
      [
        "ma",
        "st"
      ],
      [
        "l",
        "u"
      ],
      [
        "the",
        "e"
      ],
      [
        "re",
        "s"
      ],
      [
        "fi",
        "re"
      ],
      [
        "c",
        "ur"
      ],
      [
        "d",
        "s"
      ],
      [
        "t",
        "a"
      ],
      [
        "you",
        "r"
      ],
      [
        "ro",
        "me"
      ],
      [
        "mast",
        "er"
      ],
      [
        "w",
        "ho"
      ],
      [
        "f",
        "ro"
      ],
      [
        "i",
        "f"
      ],
      [
        "o",
        "d"
      ],
      [
        "p",
        "r"
      ],
      [
        "k",
        "no"
      ],
      [
        "h",
        "or"
      ],
      [
        "w",
        "o"
      ],
      [
        "er",
        "e"
      ],
      [
        "e",
        "ver"
      ],
      [
        "o",
        "w"
      ],
      [
        "kno",
        "ck"
      ],
      [
        "ha",
        "th"
      ],
      [
        "ur",
        "n"
      ],
      [
        "a",
        "st"
      ],
      [
        "e",
        "t"
      ],
      [
        "u",
        "p"
      ],
      [
        "w",
        "hi"
      ],
      [
        "ro",
        "w"
      ],
      [
        "in",
        "d"
      ],
      [
        "wh",
        "y"
      ],
      [
        "h",
        "and"
      ],
      [
        "go",
        "od"
      ],
      [
        "m",
        "u"
      ],
      [
        "hor",
        "se"
      ],
      [
        "i",
        "ve"
      ],
      [
        "e",
        "l"
      ],
      [
        "c",
        "i"
      ],
      [
        "sh",
        "ould"
      ],
      [
        "on",
        "e"
      ],
      [
        "t",
        "ri"
      ],
      [
        "en",
        "t"
      ],
      [
        "m",
        "b"
      ],
      [
        "fro",
        "m"
      ],
      [
        "th",
        "an"
      ],
      [
        "i",
        "l"
      ],
      [
        "w",
        "ere"
      ],
      [
        "k",
        "now"
      ],
      [
        "m",
        "is"
      ],
      [
        "ve",
        "n"
      ],
      [
        "e",
        "x"
      ],
      [
        "d",
        "i"
      ],
      [
        "res",
        "s"
      ],
      [
        "come",
        "s"
      ],
      [
        "t",
        "ru"
      ],
      [
        "fu",
        "l"
      ],
      [
        "we",
        "ll"
      ],
      [
        "p",
        "s"
      ],
      [
        "i",
        "ll"
      ],
      [
        "r",
        "on"
      ],
      [
        "l",
        "o"
      ],
      [
        "p",
        "ro"
      ],
      [
        "q",
        "u"
      ],
      [
        "s",
        "ay"
      ],
      [
        "li",
        "ve"
      ],
      [
        "s",
        "u"
      ],
      [
        "t",
        "it"
      ],
      [
        "at",
        "e"
      ],
      [
        "f",
        "ri"
      ],
      [
        "s",
        "at"
      ],
      [
        "ma",
        "ke"
      ],
      [
        "ou",
        "t"
      ],
      [
        "s",
        "we"
      ],
      [
        "ar",
        "s"
      ],
      [
        "t",
        "s"
      ],
      [
        "em",
        "i"
      ],
      [
        "c",
        "on"
      ],
      [
        "an",
        "g"
      ],
      [
        "fri",
        "en"
      ],
      [
        "w",
        "ould"
      ],
      [
        "en",
        "ter"
      ],
      [
        "the",
        "m"
      ],
      [
        "em",
        "per"
      ],
      [
        "n",
        "d"
      ],
      [
        "go",
        "th"
      ],
      [
        "there",
        "fore"
      ],
      [
        "cur",
        "tis"
      ],
      [
        "g",
        "ive"
      ],
      [
        "oo",
        "d"
      ],
      [
        "a",
        "w"
      ],
      [
        "g",
        "re"
      ],
      [
        "or",
        "e"
      ],
      [
        "c",
        "le"
      ],
      [
        "c",
        "hi"
      ],
      [
        "t",
        "y"
      ],
      [
        "m",
        "ar"
      ],
      [
        "be",
        "g"
      ],
      [
        "b",
        "ro"
      ],
      [
        "co",
        "ld"
      ],
      [
        "a",
        "in"
      ],
      [
        "up",
        "on"
      ],
      [
        "c",
        "all"
      ],
      [
        "ar",
        "m"
      ],
      [
        "d",
        "er"
      ],
      [
        "de",
        "ath"
      ],
      [
        "li",
        "fe"
      ],
      [
        "c",
        "an"
      ],
      [
        "frien",
        "ds"
      ],
      [
        "l",
        "f"
      ],
      [
        "th",
        "ing"
      ],
      [
        "emper",
        "or"
      ],
      [
        "no",
        "ble"
      ],
      [
        "i",
        "m"
      ],
      [
        "e",
        "ar"
      ],
      [
        "to",
        "o"
      ],
      [
        "b",
        "re"
      ],
      [
        "a",
        "p"
      ],
      [
        "o",
        "ld"
      ],
      [
        "m",
        "o"
      ],
      [
        "co",
        "m"
      ],
      [
        "i",
        "c"
      ],
      [
        "b",
        "o"
      ],
      [
        "a",
        "k"
      ],
      [
        "l",
        "t"
      ],
      [
        "li",
        "e"
      ],
      [
        "s",
        "pe"
      ],
      [
        "i",
        "a"
      ],
      [
        "p",
        "i"
      ],
      [
        "in",
        "k"
      ],
      [
        "lu",
        "ci"
      ],
      [
        "aw",
        "ay"
      ],
      [
        "er",
        "v"
      ],
      [
        "fa",
        "ce"
      ],
      [
        "li",
        "ke"
      ],
      [
        "a",
        "u"
      ],
      [
        "v",
        "in"
      ],
      [
        "le",
        "s"
      ],
      [
        "g",
        "ra"
      ],
      [
        "s",
        "p"
      ],
      [
        "spe",
        "ak"
      ],
      [
        "n",
        "es"
      ],
      [
        "ou",
        "l"
      ],
      [
        "un",
        "cle"
      ],
      [
        "f",
        "ir"
      ],
      [
        "i",
        "on"
      ],
      [
        "s",
        "on"
      ],
      [
        "te",
        "ll"
      ],
      [
        "luci",
        "us"
      ],
      [
        "be",
        "fore"
      ],
      [
        "p",
        "le"
      ],
      [
        "he",
        "a"
      ],
      [
        "vin",
        "ia"
      ],
      [
        "whi",
        "ch"
      ],
      [
        "ne",
        "w"
      ],
      [
        "sat",
        "urn"
      ],
      [
        "h",
        "ang"
      ],
      [
        "i",
        "d"
      ],
      [
        "s",
        "is"
      ],
      [
        "re",
        "ad"
      ],
      [
        "mis",
        "t"
      ],
      [
        "for",
        "th"
      ],
      [
        "a",
        "se"
      ],
      [
        "ti",
        "ll"
      ],
      [
        "man",
        "y"
      ],
      [
        "la",
        "vinia"
      ],
      [
        "ther",
        "s"
      ],
      [
        "fir",
        "st"
      ],
      [
        "sis",
        "ter"
      ],
      [
        "ar",
        "d"
      ],
      [
        "se",
        "lf"
      ],
      [
        "m",
        "ay"
      ],
      [
        "mist",
        "ress"
      ],
      [
        "me",
        "nt"
      ],
      [
        "r",
        "y"
      ],
      [
        "de",
        "ad"
      ],
      [
        "se",
        "nt"
      ],
      [
        "be",
        "ing"
      ],
      [
        "n",
        "or"
      ],
      [
        "ta",
        "ke"
      ],
      [
        "b",
        "ar"
      ],
      [
        "t",
        "urn"
      ],
      [
        "u",
        "m"
      ],
      [
        "b",
        "l"
      ],
      [
        "g",
        "s"
      ],
      [
        "we",
        "l"
      ],
      [
        "u",
        "re"
      ],
      [
        "a",
        "ve"
      ],
      [
        "l",
        "or"
      ],
      [
        "e",
        "y"
      ],
      [
        "g",
        "ar"
      ],
      [
        "pr",
        "ou"
      ],
      [
        "b",
        "r"
      ],
      [
        "e",
        "p"
      ],
      [
        "l",
        "p"
      ],
      [
        "m",
        "i"
      ],
      [
        "o",
        "b"
      ],
      [
        "do",
        "w"
      ],
      [
        "la",
        "st"
      ],
      [
        "gre",
        "at"
      ],
      [
        "em",
        "p"
      ],
      [
        "is",
        "h"
      ],
      [
        "fa",
        "ll"
      ],
      [
        "or",
        "y"
      ],
      [
        "th",
        "ine"
      ],
      [
        "k",
        "s"
      ],
      [
        "in",
        "ter"
      ],
      [
        "k",
        "is"
      ],
      [
        "s",
        "erv"
      ],
      [
        "is",
        "e"
      ],
      [
        "d",
        "u"
      ],
      [
        "the",
        "n"
      ],
      [
        "he",
        "ad"
      ],
      [
        "be",
        "ast"
      ],
      [
        "m",
        "ore"
      ],
      [
        "ri",
        "al"
      ],
      [
        "w",
        "here"
      ],
      [
        "he",
        "n"
      ],
      [
        "li",
        "mb"
      ],
      [
        "fa",
        "re"
      ],
      [
        "tit",
        "us"
      ],
      [
        "chi",
        "ld"
      ],
      [
        "m",
        "ind"
      ],
      [
        "li",
        "us"
      ],
      [
        "s",
        "or"
      ],
      [
        "e",
        "f"
      ],
      [
        "l",
        "ad"
      ],
      [
        "g",
        "es"
      ],
      [
        "ou",
        "nd"
      ],
      [
        "bu",
        "rial"
      ],
      [
        "fe",
        "ll"
      ],
      [
        "te",
        "ars"
      ],
      [
        "wo",
        "man"
      ],
      [
        "a",
        "emi"
      ],
      [
        "st",
        "and"
      ],
      [
        "read",
        "y"
      ],
      [
        "ou",
        "ght"
      ],
      [
        "swe",
        "et"
      ],
      [
        "m",
        "at"
      ],
      [
        "ex",
        "e"
      ],
      [
        "si",
        "ght"
      ],
      [
        "aemi",
        "lius"
      ],
      [
        "de",
        "v"
      ],
      [
        "bro",
        "thers"
      ],
      [
        "k",
        "n"
      ],
      [
        "c",
        "ri"
      ],
      [
        "g",
        "ri"
      ],
      [
        "go",
        "d"
      ],
      [
        "un",
        "t"
      ],
      [
        "pr",
        "ay"
      ],
      [
        "lie",
        "ve"
      ],
      [
        "b",
        "s"
      ],
      [
        "t",
        "am"
      ],
      [
        "c",
        "us"
      ],
      [
        "g",
        "er"
      ],
      [
        "me",
        "n"
      ],
      [
        "fi",
        "ce"
      ],
      [
        "fe",
        "ar"
      ],
      [
        "ta",
        "le"
      ],
      [
        "a",
        "f"
      ],
      [
        "a",
        "ther"
      ],
      [
        "ho",
        "l"
      ],
      [
        "gri",
        "ef"
      ],
      [
        "re",
        "d"
      ],
      [
        "f",
        "oo"
      ],
      [
        "li",
        "v"
      ],
      [
        "wor",
        "d"
      ],
      [
        "lor",
        "d"
      ],
      [
        "a",
        "g"
      ],
      [
        "t",
        "re"
      ],
      [
        "tri",
        "bu"
      ],
      [
        "bl",
        "ood"
      ],
      [
        "t",
        "al"
      ],
      [
        "he",
        "lp"
      ],
      [
        "i",
        "ce"
      ],
      [
        "p",
        "o"
      ],
      [
        "r",
        "an"
      ],
      [
        "s",
        "c"
      ],
      [
        "ha",
        "d"
      ],
      [
        "so",
        "me"
      ],
      [
        "a",
        "ar"
      ],
      [
        "k",
        "ill"
      ],
      [
        "p",
        "la"
      ],
      [
        "wi",
        "fe"
      ],
      [
        "ra",
        "ise"
      ],
      [
        "row",
        "n"
      ],
      [
        "ear",
        "th"
      ],
      [
        "c",
        "ar"
      ],
      [
        "n",
        "ing"
      ],
      [
        "t",
        "t"
      ],
      [
        "w",
        "ron"
      ],
      [
        "an",
        "y"
      ],
      [
        "he",
        "d"
      ],
      [
        "fi",
        "e"
      ],
      [
        "emi",
        "es"
      ],
      [
        "arm",
        "s"
      ],
      [
        "s",
        "la"
      ],
      [
        "ve",
        "y"
      ],
      [
        "de",
        "s"
      ],
      [
        "de",
        "ed"
      ],
      [
        "exe",
        "unt"
      ],
      [
        "j",
        "a"
      ],
      [
        "with",
        "al"
      ],
      [
        "mar",
        "cus"
      ],
      [
        "dow",
        "n"
      ],
      [
        "j",
        "u"
      ],
      [
        "t",
        "wo"
      ],
      [
        "an",
        "ce"
      ],
      [
        "the",
        "se"
      ],
      [
        "de",
        "d"
      ],
      [
        "de",
        "ar"
      ],
      [
        "un",
        "to"
      ],
      [
        "oo",
        "k"
      ],
      [
        "nes",
        "s"
      ],
      [
        "aar",
        "on"
      ],
      [
        "c",
        "au"
      ],
      [
        "t",
        "ter"
      ],
      [
        "mu",
        "ch"
      ],
      [
        "gra",
        "ve"
      ],
      [
        "g",
        "ent"
      ],
      [
        "p",
        "re"
      ],
      [
        "en",
        "emies"
      ],
      [
        "pe",
        "ts"
      ],
      [
        "wor",
        "st"
      ],
      [
        "lo",
        "v"
      ],
      [
        "prou",
        "d"
      ],
      [
        "d",
        "ges"
      ],
      [
        "f",
        "oul"
      ],
      [
        "l",
        "ook"
      ],
      [
        "w",
        "arm"
      ],
      [
        "w",
        "hen"
      ],
      [
        "li",
        "tt"
      ],
      [
        "fu",
        "ll"
      ],
      [
        "ever",
        "y"
      ],
      [
        "con",
        "vey"
      ],
      [
        "limb",
        "s"
      ],
      [
        "te",
        "st"
      ],
      [
        "s",
        "ound"
      ],
      [
        "re",
        "l"
      ],
      [
        "ll",
        "o"
      ],
      [
        "be",
        "ar"
      ],
      [
        "tru",
        "e"
      ],
      [
        "with",
        "in"
      ],
      [
        "bo",
        "y"
      ],
      [
        "wel",
        "come"
      ],
      [
        "saturn",
        "ine"
      ],
      [
        "gent",
        "le"
      ],
      [
        "litt",
        "le"
      ],
      [
        "qu",
        "ar"
      ],
      [
        "my",
        "self"
      ],
      [
        "no",
        "thing"
      ],
      [
        "hea",
        "ven"
      ],
      [
        "f",
        "o"
      ],
      [
        "dev",
        "il"
      ],
      [
        "mu",
        "st"
      ],
      [
        "horse",
        "s"
      ],
      [
        "quar",
        "rel"
      ],
      [
        "fare",
        "well"
      ],
      [
        "n",
        "g"
      ],
      [
        "mat",
        "ter"
      ],
      [
        "goth",
        "s"
      ],
      [
        "ver",
        "y"
      ],
      [
        "be",
        "en"
      ],
      [
        "wi",
        "t"
      ],
      [
        "s",
        "a"
      ],
      [
        "d",
        "one"
      ],
      [
        "c",
        "u"
      ],
      [
        "h",
        "ou"
      ],
      [
        "se",
        "n"
      ],
      [
        "b",
        "a"
      ],
      [
        "than",
        "k"
      ],
      [
        "is",
        "t"
      ],
      [
        "f",
        "f"
      ],
      [
        "h",
        "u"
      ],
      [
        "i",
        "es"
      ],
      [
        "w",
        "al"
      ],
      [
        "or",
        "s"
      ],
      [
        "li",
        "ps"
      ],
      [
        "it",
        "e"
      ],
      [
        "for",
        "t"
      ],
      [
        "ter",
        "s"
      ],
      [
        "per",
        "i"
      ],
      [
        "g",
        "e"
      ],
      [
        "er",
        "s"
      ],
      [
        "re",
        "st"
      ],
      [
        "bu",
        "r"
      ],
      [
        "te",
        "d"
      ],
      [
        "lu",
        "st"
      ],
      [
        "se",
        "s"
      ],
      [
        "pi",
        "le"
      ],
      [
        "be",
        "lieve"
      ],
      [
        "un",
        "k"
      ],
      [
        "'",
        "?"
      ],
      [
        "b",
        "an"
      ],
      [
        "er",
        "ic"
      ],
      [
        "en",
        "d"
      ],
      [
        "she",
        "ath"
      ],
      [
        "di",
        "g"
      ],
      [
        "wal",
        "ter"
      ],
      [
        "c",
        "hol"
      ],
      [
        "h",
        "ate"
      ],
      [
        "l",
        "our"
      ],
      [
        "m",
        "m"
      ],
      [
        "m",
        "our"
      ],
      [
        "o",
        "p"
      ],
      [
        "ou",
        "th"
      ],
      [
        "or",
        "a"
      ],
      [
        "we",
        "ap"
      ],
      [
        "fi",
        "g"
      ],
      [
        "si",
        "de"
      ],
      [
        "a",
        "h"
      ],
      [
        "d",
        "ir"
      ],
      [
        "f",
        "ine"
      ],
      [
        "me",
        "ed"
      ],
      [
        "ha",
        "st"
      ],
      [
        "co",
        "at"
      ],
      [
        "whi",
        "le"
      ],
      [
        "ob",
        "liv"
      ],
      [
        "g",
        "at"
      ],
      [
        "he",
        "ar"
      ],
      [
        "fi",
        "c"
      ],
      [
        "who",
        "se"
      ],
      [
        "wo",
        "e"
      ],
      [
        "ow",
        "n"
      ],
      [
        "ex",
        "it"
      ],
      [
        "im",
        "p"
      ],
      [
        "bar",
        "ous"
      ],
      [
        "sa",
        "cri"
      ],
      [
        "a",
        "me"
      ],
      [
        "c",
        "en"
      ],
      [
        "g",
        "ate"
      ],
      [
        "m",
        "outh"
      ],
      [
        "p",
        "a"
      ],
      [
        "s",
        "wor"
      ],
      [
        "y",
        "et"
      ],
      [
        "ou",
        "gh"
      ],
      [
        "and",
        "ron"
      ],
      [
        "re",
        "ce"
      ],
      [
        "no",
        "ne"
      ],
      [
        "of",
        "fice"
      ],
      [
        "bu",
        "s"
      ],
      [
        "foo",
        "t"
      ],
      [
        "b",
        "ri"
      ],
      [
        "d",
        "oo"
      ],
      [
        "h",
        "at"
      ],
      [
        "p",
        "hi"
      ],
      [
        "t",
        "ro"
      ],
      [
        "an",
        "s"
      ],
      [
        "in",
        "us"
      ],
      [
        "on",
        "g"
      ],
      [
        "be",
        "ll"
      ],
      [
        "wi",
        "lt"
      ],
      [
        "ma",
        "d"
      ],
      [
        "sir",
        "s"
      ],
      [
        "tri",
        "mm"
      ],
      [
        "tit",
        "les"
      ],
      [
        "tam",
        "ora"
      ],
      [
        "wron",
        "gs"
      ],
      [
        "weap",
        "on"
      ],
      [
        "dir",
        "t"
      ],
      [
        "g",
        "one"
      ],
      [
        "i",
        "el"
      ],
      [
        "k",
        "ather"
      ],
      [
        "n",
        "ay"
      ],
      [
        "t",
        "emp"
      ],
      [
        "w",
        "ood"
      ],
      [
        "is",
        "hed"
      ],
      [
        "st",
        "ri"
      ],
      [
        "he",
        "ard"
      ],
      [
        "wi",
        "pe"
      ],
      [
        "of",
        "f"
      ],
      [
        "ra",
        "ve"
      ],
      [
        "al",
        "ar"
      ],
      [
        "ne",
        "at"
      ],
      [
        "ru",
        "p"
      ],
      [
        "di",
        "d"
      ],
      [
        "pro",
        "ve"
      ],
      [
        "ic",
        "us"
      ],
      [
        "serv",
        "ing"
      ],
      [
        "head",
        "s"
      ],
      [
        "sheath",
        "ing"
      ],
      [
        "fig",
        "ure"
      ],
      [
        "f",
        "t"
      ],
      [
        "p",
        "res"
      ],
      [
        "th",
        "row"
      ],
      [
        "he",
        "el"
      ],
      [
        "ro",
        "man"
      ],
      [
        "ha",
        "ps"
      ],
      [
        "ing",
        "s"
      ],
      [
        "fa",
        "ir"
      ],
      [
        "ra",
        "ven"
      ],
      [
        "so",
        "on"
      ],
      [
        "ti",
        "ger"
      ],
      [
        "know",
        "n"
      ],
      [
        "swe",
        "ar"
      ],
      [
        "du",
        "ty"
      ],
      [
        "chol",
        "eric"
      ],
      [
        "obliv",
        "ion"
      ],
      [
        "gat",
        "es"
      ],
      [
        "doo",
        "m"
      ],
      [
        "b",
        "on"
      ],
      [
        "f",
        "ru"
      ],
      [
        "at",
        "temp"
      ],
      [
        "me",
        "ans"
      ],
      [
        "ho",
        "t"
      ],
      [
        "ra",
        "p"
      ],
      [
        "ra",
        "il"
      ],
      [
        "ne",
        "d"
      ],
      [
        "ci",
        "ous"
      ],
      [
        "live",
        "s"
      ],
      [
        "ey",
        "e"
      ],
      [
        "kis",
        "s"
      ],
      [
        "b",
        "ase"
      ],
      [
        "d",
        "ing"
      ],
      [
        "m",
        "on"
      ],
      [
        "n",
        "ath"
      ],
      [
        "v",
        "ill"
      ],
      [
        "th",
        "ink"
      ],
      [
        "in",
        "to"
      ],
      [
        "le",
        "ft"
      ],
      [
        "be",
        "tter"
      ],
      [
        "se",
        "d"
      ],
      [
        "we",
        "d"
      ],
      [
        "per",
        "for"
      ],
      [
        "di",
        "e"
      ],
      [
        "su",
        "re"
      ],
      [
        "beg",
        "in"
      ],
      [
        "bar",
        "barous"
      ],
      [
        "ave",
        "s"
      ],
      [
        "af",
        "ter"
      ],
      [
        "pla",
        "in"
      ],
      [
        "lov",
        "ing"
      ],
      [
        "b",
        "id"
      ],
      [
        "f",
        "ind"
      ],
      [
        "p",
        "raise"
      ],
      [
        "th",
        "us"
      ],
      [
        "st",
        "ay"
      ],
      [
        "la",
        "w"
      ],
      [
        "ne",
        "ar"
      ],
      [
        "ck",
        "s"
      ],
      [
        "ti",
        "red"
      ],
      [
        "mu",
        "ti"
      ],
      [
        "bre",
        "ast"
      ],
      [
        "tal",
        "k"
      ],
      [
        "sla",
        "ve"
      ],
      [
        "rece",
        "ive"
      ],
      [
        "bon",
        "es"
      ],
      [
        "attemp",
        "t"
      ],
      [
        "l",
        "ks"
      ],
      [
        "r",
        "ing"
      ],
      [
        "s",
        "un"
      ],
      [
        "z",
        "en"
      ],
      [
        "de",
        "test"
      ],
      [
        "ho",
        "ld"
      ],
      [
        "ma",
        "de"
      ],
      [
        "ra",
        "w"
      ],
      [
        "per",
        "haps"
      ],
      [
        "master",
        "s"
      ],
      [
        "kis",
        "ses"
      ],
      [
        "sor",
        "row"
      ],
      [
        "tribu",
        "nes"
      ],
      [
        "cau",
        "se"
      ],
      [
        "wit",
        "ness"
      ],
      [
        "raven",
        "ous"
      ],
      [
        "fru",
        "it"
      ],
      [
        "an",
        "iel"
      ],
      [
        "beast",
        "ly"
      ],
      [
        "sound",
        "ly"
      ],
      [
        "alar",
        "bus"
      ],
      [
        "vill",
        "ain"
      ],
      [
        "g",
        "lad"
      ],
      [
        "l",
        "at"
      ],
      [
        "he",
        "s"
      ],
      [
        "ju",
        "st"
      ],
      [
        "hou",
        "se"
      ],
      [
        "muti",
        "us"
      ],
      [
        "c",
        "ou"
      ],
      [
        "s",
        "oul"
      ],
      [
        "be",
        "at"
      ],
      [
        "wor",
        "thy"
      ],
      [
        "should",
        "st"
      ],
      [
        "tru",
        "m"
      ],
      [
        "gra",
        "cious"
      ],
      [
        "ple",
        "dges"
      ],
      [
        "emp",
        "ress"
      ],
      [
        "fo",
        "lks"
      ],
      [
        "he",
        "w"
      ],
      [
        "de",
        "ep"
      ],
      [
        "thou",
        "gh"
      ],
      [
        "si",
        "re"
      ],
      [
        "thing",
        "s"
      ],
      [
        "lad",
        "der"
      ],
      [
        "law",
        "ful"
      ],
      [
        "th",
        "re"
      ],
      [
        "mo",
        "st"
      ],
      [
        "new",
        "s"
      ],
      [
        "saturn",
        "inus"
      ],
      [
        "sor",
        "ry"
      ],
      [
        "nath",
        "aniel"
      ],
      [
        "s",
        "how"
      ],
      [
        "tru",
        "th"
      ],
      [
        "andron",
        "icus"
      ],
      [
        "p",
        "it"
      ],
      [
        "mi",
        "ght"
      ],
      [
        "fell",
        "ow"
      ],
      [
        "e",
        "ce"
      ],
      [
        "com",
        "p"
      ],
      [
        "br",
        "ought"
      ],
      [
        "cou",
        "nt"
      ],
      [
        "trum",
        "pets"
      ],
      [
        "thy",
        "self"
      ],
      [
        "pi",
        "ece"
      ],
      [
        "re",
        "t"
      ],
      [
        "w",
        "ret"
      ],
      [
        "en",
        "ce"
      ],
      [
        "u",
        "t"
      ],
      [
        "i",
        "th"
      ],
      [
        "c",
        "ry"
      ],
      [
        "is",
        "on"
      ],
      [
        "b",
        "ir"
      ],
      [
        "f",
        "r"
      ],
      [
        "t",
        "r"
      ],
      [
        "w",
        "a"
      ],
      [
        "pr",
        "ison"
      ],
      [
        "bir",
        "ds"
      ],
      [
        "me",
        "s"
      ],
      [
        "f",
        "at"
      ],
      [
        "s",
        "s"
      ],
      [
        "in",
        "t"
      ],
      [
        "de",
        "st"
      ],
      [
        "e",
        "a"
      ],
      [
        "o",
        "th"
      ],
      [
        "st",
        "a"
      ],
      [
        "le",
        "d"
      ],
      [
        "so",
        "m"
      ],
      [
        "g",
        "r"
      ],
      [
        "he",
        "e"
      ],
      [
        "ve",
        "s"
      ],
      [
        "fa",
        "c"
      ],
      [
        "m",
        "or"
      ],
      [
        "n",
        "i"
      ],
      [
        "w",
        "ar"
      ],
      [
        "ha",
        "l"
      ],
      [
        "es",
        "s"
      ],
      [
        "e",
        "el"
      ],
      [
        "w",
        "er"
      ],
      [
        "en",
        "e"
      ],
      [
        "ra",
        "i"
      ],
      [
        "pe",
        "as"
      ],
      [
        "prou",
        "dest"
      ],
      [
        "e",
        "k"
      ],
      [
        "e",
        "st"
      ],
      [
        "g",
        "ory"
      ],
      [
        "m",
        "ur"
      ],
      [
        "n",
        "c"
      ],
      [
        "o",
        "ck"
      ],
      [
        "at",
        "i"
      ],
      [
        "me",
        "at"
      ],
      [
        "de",
        "me"
      ],
      [
        "un",
        "ap"
      ],
      [
        "ra",
        "g"
      ],
      [
        "ur",
        "b"
      ],
      [
        "si",
        "g"
      ],
      [
        "bo",
        "som"
      ],
      [
        "dow",
        "s"
      ],
      [
        "po",
        "int"
      ],
      [
        "sen",
        "si"
      ],
      [
        "lust",
        "y"
      ],
      [
        "d",
        "am"
      ],
      [
        "d",
        "ag"
      ],
      [
        "d",
        "ist"
      ],
      [
        "e",
        "en"
      ],
      [
        "g",
        "ed"
      ],
      [
        "g",
        "ran"
      ],
      [
        "k",
        "y"
      ],
      [
        "k",
        "ing"
      ],
      [
        "l",
        "ink"
      ],
      [
        "m",
        "one"
      ],
      [
        "n",
        "at"
      ],
      [
        "p",
        "t"
      ],
      [
        "r",
        "t"
      ],
      [
        "r",
        "ous"
      ],
      [
        "s",
        "mo"
      ],
      [
        "t",
        "u"
      ],
      [
        "u",
        "l"
      ],
      [
        "in",
        "cen"
      ],
      [
        "re",
        "qu"
      ],
      [
        "ve",
        "nt"
      ],
      [
        "en",
        "c"
      ],
      [
        "co",
        "lour"
      ],
      [
        "we",
        "e"
      ],
      [
        "us",
        "h"
      ],
      [
        "fe",
        "el"
      ],
      [
        "pe",
        "t"
      ],
      [
        "pe",
        "ter"
      ],
      [
        "ti",
        "on"
      ],
      [
        "ru",
        "m"
      ],
      [
        "do",
        "st"
      ],
      [
        "fu",
        "me"
      ],
      [
        "mb",
        "ly"
      ],
      [
        "bro",
        "ther"
      ],
      [
        "too",
        "k"
      ],
      [
        "grief",
        "s"
      ],
      [
        "cu",
        "ff"
      ],
      [
        "mur",
        "d"
      ],
      [
        "g",
        "a"
      ],
      [
        "l",
        "ow"
      ],
      [
        "o",
        "ath"
      ],
      [
        "s",
        "le"
      ],
      [
        "s",
        "ad"
      ],
      [
        "s",
        "ky"
      ],
      [
        "u",
        "e"
      ],
      [
        "w",
        "ay"
      ],
      [
        "ou",
        "d"
      ],
      [
        "st",
        "one"
      ],
      [
        "st",
        "eel"
      ],
      [
        "le",
        "ast"
      ],
      [
        "se",
        "l"
      ],
      [
        "de",
        "af"
      ],
      [
        "li",
        "p"
      ],
      [
        "we",
        "ep"
      ],
      [
        "fa",
        "ith"
      ],
      [
        "ri",
        "ors"
      ],
      [
        "un",
        "e"
      ],
      [
        "sha",
        "dows"
      ],
      [
        "who",
        "m"
      ],
      [
        "tri",
        "us"
      ],
      [
        "su",
        "m"
      ],
      [
        "gre",
        "gory"
      ],
      [
        "cle",
        "an"
      ],
      [
        "can",
        "st"
      ],
      [
        "pi",
        "p"
      ],
      [
        "wel",
        "fare"
      ],
      [
        "ene",
        "my"
      ],
      [
        "mone",
        "y"
      ],
      [
        "smo",
        "ke"
      ],
      [
        "a",
        "ke"
      ],
      [
        "b",
        "od"
      ],
      [
        "h",
        "um"
      ],
      [
        "i",
        "ous"
      ],
      [
        "p",
        "ure"
      ],
      [
        "s",
        "er"
      ],
      [
        "s",
        "of"
      ],
      [
        "t",
        "w"
      ],
      [
        "th",
        "r"
      ],
      [
        "is",
        "s"
      ],
      [
        "li",
        "ght"
      ],
      [
        "ld",
        "i"
      ],
      [
        "ra",
        "v"
      ],
      [
        "sha",
        "lt"
      ],
      [
        "let",
        "ters"
      ],
      [
        "do",
        "th"
      ],
      [
        "im",
        "peri"
      ],
      [
        "hu",
        "mbly"
      ],
      [
        "unap",
        "peas"
      ],
      [
        "rag",
        "ged"
      ],
      [
        "sensi",
        "ble"
      ],
      [
        "dam",
        "n"
      ],
      [
        "dag",
        "ger"
      ],
      [
        "incen",
        "se"
      ],
      [
        "c",
        "at"
      ],
      [
        "d",
        "is"
      ],
      [
        "e",
        "at"
      ],
      [
        "i",
        "o"
      ],
      [
        "l",
        "ar"
      ],
      [
        "m",
        "ir"
      ],
      [
        "o",
        "k"
      ],
      [
        "p",
        "h"
      ],
      [
        "p",
        "lu"
      ],
      [
        "r",
        "ite"
      ],
      [
        "v",
        "a"
      ],
      [
        "x",
        "e"
      ],
      [
        "th",
        "ir"
      ],
      [
        "ou",
        "nc"
      ],
      [
        "is",
        "fac"
      ],
      [
        "at",
        "ion"
      ],
      [
        "re",
        "ma"
      ],
      [
        "re",
        "pro"
      ],
      [
        "co",
        "b"
      ],
      [
        "co",
        "mb"
      ],
      [
        "fi",
        "end"
      ],
      [
        "so",
        "ldi"
      ],
      [
        "man",
        "es"
      ],
      [
        "per",
        "fume"
      ],
      [
        "fro",
        "st"
      ],
      [
        "ron",
        "g"
      ],
      [
        "pro",
        "dig"
      ],
      [
        "qu",
        "een"
      ],
      [
        "bo",
        "th"
      ],
      [
        "au",
        "ght"
      ],
      [
        "lor",
        "ds"
      ],
      [
        "gar",
        "ly"
      ],
      [
        "cri",
        "ed"
      ],
      [
        "tre",
        "ble"
      ],
      [
        "tribu",
        "ne"
      ],
      [
        "believe",
        "st"
      ],
      [
        "hate",
        "ful"
      ],
      [
        "mour",
        "n"
      ],
      [
        "imp",
        "ati"
      ],
      [
        "receive",
        "d"
      ],
      [
        "fr",
        "at"
      ],
      [
        "ek",
        "ly"
      ],
      [
        "dist",
        "urb"
      ],
      [
        "gran",
        "ted"
      ],
      [
        "requ",
        "ite"
      ],
      [
        "faith",
        "ful"
      ],
      [
        "bod",
        "y"
      ],
      [
        "sof",
        "t"
      ],
      [
        "a",
        "the"
      ],
      [
        "b",
        "ra"
      ],
      [
        "b",
        "lu"
      ],
      [
        "d",
        "le"
      ],
      [
        "f",
        "er"
      ],
      [
        "f",
        "un"
      ],
      [
        "i",
        "an"
      ],
      [
        "m",
        "in"
      ],
      [
        "o",
        "se"
      ],
      [
        "p",
        "u"
      ],
      [
        "p",
        "ow"
      ],
      [
        "p",
        "ill"
      ],
      [
        "t",
        "ar"
      ],
      [
        "t",
        "ur"
      ],
      [
        "w",
        "at"
      ],
      [
        "w",
        "oo"
      ],
      [
        "w",
        "inter"
      ],
      [
        "y",
        "ea"
      ],
      [
        "an",
        "o"
      ],
      [
        "at",
        "ors"
      ],
      [
        "re",
        "w"
      ],
      [
        "re",
        "lie"
      ],
      [
        "re",
        "turn"
      ],
      [
        "st",
        "ain"
      ],
      [
        "st",
        "rai"
      ],
      [
        "le",
        "ad"
      ],
      [
        "un",
        "ex"
      ],
      [
        "ra",
        "lp"
      ],
      [
        "ad",
        "am"
      ],
      [
        "ad",
        "vent"
      ],
      [
        "al",
        "as"
      ],
      [
        "fe",
        "ed"
      ],
      [
        "sh",
        "ut"
      ],
      [
        "wor",
        "ld"
      ],
      [
        "ine",
        "th"
      ],
      [
        "ta",
        "mes"
      ],
      [
        "ind",
        "ly"
      ],
      [
        "tri",
        "pe"
      ],
      [
        "qu",
        "in"
      ],
      [
        "swe",
        "pt"
      ],
      [
        "con",
        "sum"
      ],
      [
        "chi",
        "o"
      ],
      [
        "ear",
        "thy"
      ],
      [
        "mo",
        "or"
      ],
      [
        "com",
        "fort"
      ],
      [
        "son",
        "s"
      ],
      [
        "ple",
        "as"
      ],
      [
        "hea",
        "v"
      ],
      [
        "br",
        "ush"
      ],
      [
        "last",
        "ing"
      ],
      [
        "kn",
        "it"
      ],
      [
        "ba",
        "by"
      ],
      [
        "ff",
        "er"
      ],
      [
        "peri",
        "enc"
      ],
      [
        "tro",
        "t"
      ],
      [
        "prove",
        "d"
      ],
      [
        "tr",
        "unk"
      ],
      [
        "mor",
        "tal"
      ],
      [
        "war",
        "riors"
      ],
      [
        "hal",
        "ter"
      ],
      [
        "deme",
        "trius"
      ],
      [
        "tu",
        "mu"
      ],
      [
        "wee",
        "ps"
      ],
      [
        "weep",
        "ing"
      ],
      [
        "imperi",
        "ous"
      ],
      [
        "mir",
        "y"
      ],
      [
        "thir",
        "ty"
      ],
      [
        "a",
        "im"
      ],
      [
        "b",
        "ation"
      ],
      [
        "c",
        "it"
      ],
      [
        "d",
        "ro"
      ],
      [
        "e",
        "ven"
      ],
      [
        "i",
        "le"
      ],
      [
        "i",
        "de"
      ],
      [
        "l",
        "ist"
      ],
      [
        "n",
        "ame"
      ],
      [
        "o",
        "thers"
      ],
      [
        "p",
        "p"
      ],
      [
        "r",
        "it"
      ],
      [
        "r",
        "us"
      ],
      [
        "s",
        "word"
      ],
      [
        "s",
        "low"
      ],
      [
        "u",
        "se"
      ],
      [
        "w",
        "all"
      ],
      [
        "th",
        "rown"
      ],
      [
        "er",
        "al"
      ],
      [
        "in",
        "a"
      ],
      [
        "or",
        "n"
      ],
      [
        "st",
        "rong"
      ],
      [
        "st",
        "ian"
      ],
      [
        "st",
        "rew"
      ],
      [
        "he",
        "ars"
      ],
      [
        "on",
        "ce"
      ],
      [
        "on",
        "ounc"
      ],
      [
        "ar",
        "l"
      ],
      [
        "as",
        "le"
      ],
      [
        "we",
        "ed"
      ],
      [
        "we",
        "bs"
      ],
      [
        "ma",
        "id"
      ],
      [
        "un",
        "der"
      ],
      [
        "fi",
        "es"
      ],
      [
        "so",
        "p"
      ],
      [
        "fe",
        "t"
      ],
      [
        "pe",
        "tru"
      ],
      [
        "am",
        "iss"
      ],
      [
        "ne",
        "ver"
      ],
      [
        "ti",
        "es"
      ],
      [
        "do",
        "g"
      ],
      [
        "ble",
        "d"
      ],
      [
        "ind",
        "if"
      ],
      [
        "su",
        "ffer"
      ],
      [
        "tit",
        "le"
      ],
      [
        "sat",
        "isfac"
      ],
      [
        "ang",
        "el"
      ],
      [
        "ty",
        "r"
      ],
      [
        "too",
        "th"
      ],
      [
        "les",
        "s"
      ],
      [
        "last",
        "s"
      ],
      [
        "mat",
        "ch"
      ],
      [
        "kn",
        "aves"
      ],
      [
        "tre",
        "e"
      ],
      [
        "bur",
        "st"
      ],
      [
        "coat",
        "s"
      ],
      [
        "fic",
        "ing"
      ],
      [
        "bell",
        "y"
      ],
      [
        "stri",
        "king"
      ],
      [
        "wer",
        "t"
      ],
      [
        "sig",
        "ni"
      ],
      [
        "hum",
        "our"
      ],
      [
        "tw",
        "ain"
      ],
      [
        "plu",
        "ck"
      ],
      [
        "blu",
        "e"
      ],
      [
        "pill",
        "ow"
      ],
      [
        "wat",
        "er"
      ],
      [
        "ralp",
        "h"
      ],
      [
        "b",
        "b"
      ],
      [
        "b",
        "st"
      ],
      [
        "c",
        "r"
      ],
      [
        "c",
        "ro"
      ],
      [
        "c",
        "as"
      ],
      [
        "c",
        "ast"
      ],
      [
        "c",
        "lo"
      ],
      [
        "d",
        "raw"
      ],
      [
        "f",
        "le"
      ],
      [
        "f",
        "it"
      ],
      [
        "f",
        "ood"
      ],
      [
        "g",
        "ru"
      ],
      [
        "g",
        "row"
      ],
      [
        "i",
        "ma"
      ],
      [
        "j",
        "ill"
      ],
      [
        "l",
        "ay"
      ],
      [
        "l",
        "ish"
      ],
      [
        "n",
        "our"
      ],
      [
        "o",
        "the"
      ],
      [
        "p",
        "up"
      ],
      [
        "r",
        "un"
      ],
      [
        "r",
        "ink"
      ],
      [
        "s",
        "in"
      ],
      [
        "s",
        "li"
      ],
      [
        "th",
        "read"
      ],
      [
        "in",
        "hu"
      ],
      [
        "re",
        "de"
      ],
      [
        "ll",
        "a"
      ],
      [
        "st",
        "um"
      ],
      [
        "st",
        "op"
      ],
      [
        "me",
        "et"
      ],
      [
        "me",
        "think"
      ],
      [
        "to",
        "mb"
      ],
      [
        "be",
        "h"
      ],
      [
        "be",
        "see"
      ],
      [
        "ha",
        "lf"
      ],
      [
        "de",
        "sp"
      ],
      [
        "ce",
        "ase"
      ],
      [
        "go",
        "ver"
      ],
      [
        "fi",
        "ve"
      ],
      [
        "em",
        "bra"
      ],
      [
        "pe",
        "arl"
      ],
      [
        "la",
        "id"
      ],
      [
        "per",
        "ate"
      ],
      [
        "sh",
        "ore"
      ],
      [
        "si",
        "o"
      ],
      [
        "see",
        "k"
      ],
      [
        "cur",
        "se"
      ],
      [
        "pr",
        "onounc"
      ],
      [
        "ven",
        "ice"
      ],
      [
        "chi",
        "ron"
      ],
      [
        "beg",
        "garly"
      ],
      [
        "bro",
        "il"
      ],
      [
        "der",
        "i"
      ],
      [
        "ap",
        "proved"
      ],
      [
        "um",
        "s"
      ],
      [
        "gar",
        "ters"
      ],
      [
        "mi",
        "o"
      ],
      [
        "kn",
        "a"
      ],
      [
        "ag",
        "let"
      ],
      [
        "sc",
        "ore"
      ],
      [
        "sen",
        "ators"
      ],
      [
        "bur",
        "ning"
      ],
      [
        "ban",
        "ish"
      ],
      [
        "dig",
        "ress"
      ],
      [
        "hear",
        "t"
      ],
      [
        "swor",
        "e"
      ],
      [
        "swor",
        "ds"
      ],
      [
        "bri",
        "dle"
      ],
      [
        "phi",
        "lip"
      ],
      [
        "trimm",
        "ing"
      ],
      [
        "weapon",
        "s"
      ],
      [
        "pres",
        "erv"
      ],
      [
        "pit",
        "ies"
      ],
      [
        "wa",
        "ded"
      ],
      [
        "sta",
        "bs"
      ],
      [
        "sle",
        "ekly"
      ],
      [
        "sel",
        "ves"
      ],
      [
        "ser",
        "ve"
      ],
      [
        "soldi",
        "ers"
      ],
      [
        "prodig",
        "ies"
      ],
      [
        "impati",
        "ent"
      ],
      [
        "frat",
        "rum"
      ],
      [
        "fer",
        "ent"
      ],
      [
        "lead",
        "ing"
      ],
      [
        "tumu",
        "lt"
      ],
      [
        "rit",
        "es"
      ],
      [
        "a",
        "c"
      ],
      [
        "a",
        "li"
      ],
      [
        "a",
        "xe"
      ],
      [
        "b",
        "t"
      ],
      [
        "c",
        "t"
      ],
      [
        "d",
        "in"
      ],
      [
        "d",
        "les"
      ],
      [
        "f",
        "lat"
      ],
      [
        "g",
        "et"
      ],
      [
        "g",
        "rown"
      ],
      [
        "h",
        "arms"
      ],
      [
        "j",
        "ose"
      ],
      [
        "k",
        "new"
      ],
      [
        "l",
        "oud"
      ],
      [
        "n",
        "ic"
      ],
      [
        "n",
        "ought"
      ],
      [
        "o",
        "of"
      ],
      [
        "o",
        "ple"
      ],
      [
        "p",
        "l"
      ],
      [
        "p",
        "ink"
      ],
      [
        "p",
        "ard"
      ],
      [
        "s",
        "up"
      ],
      [
        "t",
        "ou"
      ],
      [
        "u",
        "ment"
      ],
      [
        "th",
        "less"
      ],
      [
        "an",
        "t"
      ],
      [
        "or",
        "t"
      ],
      [
        "or",
        "der"
      ],
      [
        "re",
        "p"
      ],
      [
        "re",
        "ven"
      ],
      [
        "he",
        "al"
      ],
      [
        "to",
        "ng"
      ],
      [
        "le",
        "nd"
      ],
      [
        "be",
        "mo"
      ],
      [
        "se",
        "qu"
      ],
      [
        "ro",
        "pe"
      ],
      [
        "ro",
        "bb"
      ],
      [
        "hi",
        "rt"
      ],
      [
        "for",
        "so"
      ],
      [
        "you",
        "th"
      ],
      [
        "co",
        "ok"
      ],
      [
        "we",
        "ar"
      ],
      [
        "bu",
        "sh"
      ],
      [
        "with",
        "out"
      ],
      [
        "so",
        "bs"
      ],
      [
        "gh",
        "ted"
      ],
      [
        "am",
        "ong"
      ],
      [
        "she",
        "d"
      ],
      [
        "fu",
        "stian"
      ],
      [
        "ble",
        "ed"
      ],
      [
        "res",
        "cu"
      ],
      [
        "whi",
        "te"
      ],
      [
        "hand",
        "s"
      ],
      [
        "than",
        "ks"
      ],
      [
        "lo",
        "st"
      ],
      [
        "lo",
        "ve"
      ],
      [
        "lo",
        "pp"
      ],
      [
        "su",
        "gar"
      ],
      [
        "su",
        "bst"
      ],
      [
        "ts",
        "y"
      ],
      [
        "mar",
        "ch"
      ],
      [
        "com",
        "plain"
      ],
      [
        "may",
        "st"
      ],
      [
        "dead",
        "ly"
      ],
      [
        "ey",
        "es"
      ],
      [
        "lieve",
        "s"
      ],
      [
        "sc",
        "ath"
      ],
      [
        "kill",
        "s"
      ],
      [
        "pla",
        "ce"
      ],
      [
        "pre",
        "y"
      ],
      [
        "fort",
        "une"
      ],
      [
        "unk",
        "indly"
      ],
      [
        "ban",
        "ished"
      ],
      [
        "mour",
        "ning"
      ],
      [
        "fine",
        "ly"
      ],
      [
        "rup",
        "ter"
      ],
      [
        "rail",
        "s"
      ],
      [
        "perfor",
        "ce"
      ],
      [
        "sorrow",
        "s"
      ],
      [
        "nat",
        "ure"
      ],
      [
        "way",
        "s"
      ],
      [
        "va",
        "un"
      ],
      [
        "cob",
        "webs"
      ],
      [
        "fun",
        "eral"
      ],
      [
        "pu",
        "ts"
      ],
      [
        "tar",
        "quin"
      ],
      [
        "ano",
        "ther"
      ],
      [
        "relie",
        "f"
      ],
      [
        "strai",
        "ght"
      ],
      [
        "rus",
        "hes"
      ],
      [
        "asle",
        "ep"
      ],
      [
        "cro",
        "ss"
      ],
      [
        "fle",
        "sh"
      ],
      [
        "jill",
        "s"
      ],
      [
        "sin",
        "ce"
      ],
      [
        "sli",
        "de"
      ],
      [
        "methink",
        "s"
      ],
      [
        "desp",
        "is"
      ],
      [
        "gover",
        "n"
      ],
      [
        "a",
        "while"
      ],
      [
        "b",
        "al"
      ],
      [
        "b",
        "oo"
      ],
      [
        "b",
        "ast"
      ],
      [
        "c",
        "limb"
      ],
      [
        "c",
        "ame"
      ],
      [
        "c",
        "rup"
      ],
      [
        "d",
        "ou"
      ],
      [
        "d",
        "rown"
      ],
      [
        "e",
        "th"
      ],
      [
        "e",
        "ct"
      ],
      [
        "n",
        "er"
      ],
      [
        "p",
        "um"
      ],
      [
        "s",
        "hirt"
      ],
      [
        "v",
        "ow"
      ],
      [
        "v",
        "ain"
      ],
      [
        "th",
        "aw"
      ],
      [
        "an",
        "c"
      ],
      [
        "an",
        "ci"
      ],
      [
        "re",
        "pa"
      ],
      [
        "st",
        "r"
      ],
      [
        "to",
        "fore"
      ],
      [
        "le",
        "gs"
      ],
      [
        "be",
        "fall"
      ],
      [
        "be",
        "cause"
      ],
      [
        "se",
        "t"
      ],
      [
        "ro",
        "of"
      ],
      [
        "ro",
        "deri"
      ],
      [
        "ha",
        "s"
      ],
      [
        "as",
        "s"
      ],
      [
        "ther",
        "en"
      ],
      [
        "co",
        "ck"
      ],
      [
        "ho",
        "lla"
      ],
      [
        "ce",
        "ed"
      ],
      [
        "go",
        "ld"
      ],
      [
        "our",
        "s"
      ],
      [
        "ad",
        "orn"
      ],
      [
        "fe",
        "ars"
      ],
      [
        "pe",
        "ople"
      ],
      [
        "am",
        "bush"
      ],
      [
        "there",
        "by"
      ],
      [
        "sh",
        "rink"
      ],
      [
        "cur",
        "st"
      ],
      [
        "ever",
        "lasting"
      ],
      [
        "mis",
        "h"
      ],
      [
        "pro",
        "mis"
      ],
      [
        "frien",
        "d"
      ],
      [
        "mar",
        "ry"
      ],
      [
        "mar",
        "tyr"
      ],
      [
        "tell",
        "s"
      ],
      [
        "gar",
        "ment"
      ],
      [
        "fall",
        "s"
      ],
      [
        "inter",
        "est"
      ],
      [
        "du",
        "ties"
      ],
      [
        "beast",
        "s"
      ],
      [
        "hol",
        "as"
      ],
      [
        "tre",
        "me"
      ],
      [
        "car",
        "pets"
      ],
      [
        "ja",
        "des"
      ],
      [
        "ju",
        "dges"
      ],
      [
        "full",
        "y"
      ],
      [
        "ba",
        "gs"
      ],
      [
        "woe",
        "full"
      ],
      [
        "sacri",
        "fice"
      ],
      [
        "kather",
        "ina"
      ],
      [
        "roman",
        "s"
      ],
      [
        "detest",
        "ed"
      ],
      [
        "thr",
        "ough"
      ],
      [
        "lar",
        "ums"
      ],
      [
        "rema",
        "ineth"
      ],
      [
        "mourn",
        "ful"
      ],
      [
        "min",
        "ded"
      ],
      [
        "tur",
        "ned"
      ],
      [
        "unex",
        "perienc"
      ],
      [
        "heav",
        "y"
      ],
      [
        "cit",
        "ing"
      ],
      [
        "dro",
        "ps"
      ],
      [
        "fet",
        "ch"
      ],
      [
        "signi",
        "fies"
      ],
      [
        "cas",
        "sio"
      ],
      [
        "clo",
        "sed"
      ],
      [
        "gru",
        "mio"
      ],
      [
        "ima",
        "ge"
      ],
      [
        "nour",
        "ish"
      ],
      [
        "pup",
        "pet"
      ],
      [
        "inhu",
        "man"
      ],
      [
        "rede",
        "em"
      ],
      [
        "stum",
        "bled"
      ],
      [
        "beh",
        "ind"
      ],
      [
        "besee",
        "ch"
      ],
      [
        "embra",
        "ce"
      ],
      [
        "flat",
        "ly"
      ],
      [
        "pard",
        "on"
      ],
      [
        "reven",
        "g"
      ],
      [
        "bemo",
        "il"
      ],
      [
        "rescu",
        "e"
      ],
      [
        "c",
        "hed"
      ],
      [
        "c",
        "hee"
      ],
      [
        "d",
        "are"
      ],
      [
        "j",
        "ect"
      ],
      [
        "l",
        "ong"
      ],
      [
        "m",
        "it"
      ],
      [
        "m",
        "ory"
      ],
      [
        "n",
        "ate"
      ],
      [
        "o",
        "at"
      ],
      [
        "s",
        "cold"
      ],
      [
        "t",
        "as"
      ],
      [
        "t",
        "all"
      ],
      [
        "or",
        "row"
      ],
      [
        "re",
        "e"
      ],
      [
        "re",
        "lieves"
      ],
      [
        "st",
        "ory"
      ],
      [
        "st",
        "ock"
      ],
      [
        "me",
        "lt"
      ],
      [
        "to",
        "ld"
      ],
      [
        "be",
        "comes"
      ],
      [
        "se",
        "em"
      ],
      [
        "as",
        "ide"
      ],
      [
        "co",
        "st"
      ],
      [
        "ho",
        "me"
      ],
      [
        "of",
        "fic"
      ],
      [
        "fa",
        "mish"
      ],
      [
        "ri",
        "ding"
      ],
      [
        "go",
        "es"
      ],
      [
        "un",
        "ha"
      ],
      [
        "un",
        "pink"
      ],
      [
        "ra",
        "h"
      ],
      [
        "al",
        "oof"
      ],
      [
        "there",
        "at"
      ],
      [
        "ti",
        "o"
      ],
      [
        "cur",
        "tsy"
      ],
      [
        "ta",
        "il"
      ],
      [
        "knock",
        "ing"
      ],
      [
        "et",
        "ing"
      ],
      [
        "whi",
        "ther"
      ],
      [
        "should",
        "er"
      ],
      [
        "ent",
        "rails"
      ],
      [
        "ex",
        "treme"
      ],
      [
        "di",
        "es"
      ],
      [
        "would",
        "st"
      ],
      [
        "them",
        "selves"
      ],
      [
        "call",
        "s"
      ],
      [
        "can",
        "not"
      ],
      [
        "bre",
        "athe"
      ],
      [
        "com",
        "ing"
      ],
      [
        "hang",
        "s"
      ],
      [
        "ard",
        "y"
      ],
      [
        "sent",
        "ly"
      ],
      [
        "ob",
        "sequ"
      ],
      [
        "last",
        "ly"
      ],
      [
        "great",
        "er"
      ],
      [
        "foo",
        "lish"
      ],
      [
        "sc",
        "ars"
      ],
      [
        "had",
        "st"
      ],
      [
        "sla",
        "in"
      ],
      [
        "des",
        "perate"
      ],
      [
        "ja",
        "ck"
      ],
      [
        "ja",
        "cks"
      ],
      [
        "cau",
        "ght"
      ],
      [
        "pa",
        "le"
      ],
      [
        "phi",
        "es"
      ],
      [
        "kather",
        "ine"
      ],
      [
        "base",
        "ly"
      ],
      [
        "sun",
        "g"
      ],
      [
        "thre",
        "n"
      ],
      [
        "ga",
        "bri"
      ],
      [
        "rav",
        "ished"
      ],
      [
        "repro",
        "bation"
      ],
      [
        "petru",
        "chio"
      ],
      [
        "satisfac",
        "tion"
      ],
      [
        "grow",
        "ing"
      ],
      [
        "othe",
        "llo"
      ],
      [
        "ali",
        "ghted"
      ],
      [
        "jose",
        "ph"
      ],
      [
        "sup",
        "per"
      ],
      [
        "tou",
        "ch"
      ],
      [
        "tong",
        "ue"
      ],
      [
        "sugar",
        "sop"
      ],
      [
        "vaun",
        "ter"
      ],
      [
        "anci",
        "ent"
      ],
      [
        "roderi",
        "go"
      ],
      [
        "!",
        "'"
      ],
      [
        "a",
        "ble"
      ],
      [
        "f",
        "our"
      ],
      [
        "f",
        "lour"
      ],
      [
        "k",
        "ne"
      ],
      [
        "m",
        "ine"
      ],
      [
        "p",
        "are"
      ],
      [
        "r",
        "ay"
      ],
      [
        "t",
        "end"
      ],
      [
        "u",
        "me"
      ],
      [
        "u",
        "ile"
      ],
      [
        "z",
        "e"
      ],
      [
        "re",
        "count"
      ],
      [
        "ll",
        "ed"
      ],
      [
        "me",
        "mory"
      ],
      [
        "ar",
        "n"
      ],
      [
        "hi",
        "ll"
      ],
      [
        "hi",
        "gh"
      ],
      [
        "fa",
        "st"
      ],
      [
        "ri",
        "mis"
      ],
      [
        "la",
        "ment"
      ],
      [
        "te",
        "eth"
      ],
      [
        "wor",
        "thless"
      ],
      [
        "tri",
        "cks"
      ],
      [
        "pro",
        "ceed"
      ],
      [
        "con",
        "t"
      ],
      [
        "sp",
        "ru"
      ],
      [
        "sp",
        "are"
      ],
      [
        "sp",
        "ake"
      ],
      [
        "wron",
        "g"
      ],
      [
        "sacri",
        "ficing"
      ],
      [
        "serving",
        "men"
      ],
      [
        "mon",
        "ument"
      ],
      [
        "perfor",
        "m"
      ],
      [
        "sad",
        "dles"
      ],
      [
        "dis",
        "figure"
      ],
      [
        "indif",
        "ferent"
      ],
      [
        "kna",
        "very"
      ],
      [
        "nic",
        "holas"
      ],
      [
        "rep",
        "ort"
      ],
      [
        "forso",
        "oth"
      ],
      [
        "wear",
        "y"
      ],
      [
        "subst",
        "ance"
      ],
      [
        "boo",
        "ts"
      ],
      [
        "dou",
        "bt"
      ],
      [
        "pum",
        "ps"
      ],
      [
        "repa",
        "ir"
      ],
      [
        "mit",
        "y"
      ],
      [
        "tas",
        "k"
      ],
      [
        "tall",
        "er"
      ],
      [
        "seem",
        "s"
      ],
      [
        "a",
        "b"
      ],
      [
        "b",
        "ion"
      ],
      [
        "b",
        "rave"
      ],
      [
        "d",
        "it"
      ],
      [
        "f",
        "ty"
      ],
      [
        "s",
        "ave"
      ],
      [
        "t",
        "ty"
      ],
      [
        "w",
        "ound"
      ],
      [
        "in",
        "car"
      ],
      [
        "to",
        "ge"
      ],
      [
        "le",
        "ave"
      ],
      [
        "le",
        "aves"
      ],
      [
        "le",
        "arn"
      ],
      [
        "ve",
        "x"
      ],
      [
        "be",
        "hold"
      ],
      [
        "you",
        "ng"
      ],
      [
        "en",
        "ough"
      ],
      [
        "de",
        "sir"
      ],
      [
        "de",
        "mon"
      ],
      [
        "co",
        "zen"
      ],
      [
        "ld",
        "ly"
      ],
      [
        "fa",
        "ul"
      ],
      [
        "un",
        "just"
      ],
      [
        "fi",
        "fty"
      ],
      [
        "al",
        "most"
      ],
      [
        "am",
        "or"
      ],
      [
        "ne",
        "ck"
      ],
      [
        "sir",
        "rah"
      ],
      [
        "wor",
        "ds"
      ],
      [
        "si",
        "der"
      ],
      [
        "ta",
        "les"
      ],
      [
        "fro",
        "zen"
      ],
      [
        "hor",
        "n"
      ],
      [
        "ow",
        "ing"
      ],
      [
        "su",
        "st"
      ],
      [
        "con",
        "y"
      ],
      [
        "emper",
        "ess"
      ],
      [
        "bre",
        "theren"
      ],
      [
        "ple",
        "ase"
      ],
      [
        "hang",
        "ing"
      ],
      [
        "br",
        "ing"
      ],
      [
        "ob",
        "ject"
      ],
      [
        "serv",
        "ant"
      ],
      [
        "where",
        "in"
      ],
      [
        "po",
        "t"
      ],
      [
        "po",
        "or"
      ],
      [
        "pre",
        "tty"
      ],
      [
        "llo",
        "wed"
      ],
      [
        "quarrel",
        "some"
      ],
      [
        "tro",
        "phies"
      ],
      [
        "wood",
        "cock"
      ],
      [
        "wed",
        "ding"
      ],
      [
        "eat",
        "en"
      ],
      [
        "banish",
        "ment"
      ],
      [
        "pl",
        "ing"
      ],
      [
        "crup",
        "per"
      ],
      [
        "chee",
        "ks"
      ],
      [
        "scold",
        "ing"
      ],
      [
        "gabri",
        "el"
      ],
      [
        "kne",
        "e"
      ],
      [
        "spru",
        "ce"
      ],
      [
        "b",
        "orrow"
      ],
      [
        "d",
        "anc"
      ],
      [
        "f",
        "ought"
      ],
      [
        "in",
        "c"
      ],
      [
        "on",
        "y"
      ],
      [
        "ar",
        "t"
      ],
      [
        "hi",
        "ther"
      ],
      [
        "ha",
        "ir"
      ],
      [
        "en",
        "mity"
      ],
      [
        "de",
        "llo"
      ],
      [
        "thou",
        "ght"
      ],
      [
        "mast",
        "cr"
      ],
      [
        "lu",
        "cen"
      ],
      [
        "cur",
        "sed"
      ],
      [
        "ang",
        "e"
      ],
      [
        "gre",
        "eting"
      ],
      [
        "bre",
        "thren"
      ],
      [
        "ap",
        "pare"
      ],
      [
        "au",
        "dit"
      ],
      [
        "sp",
        "raw"
      ],
      [
        "inter",
        "rupter"
      ],
      [
        "hen",
        "ce"
      ],
      [
        "dear",
        "er"
      ],
      [
        "pre",
        "sently"
      ],
      [
        "every",
        "thing"
      ],
      [
        "heaven",
        "s"
      ],
      [
        "off",
        "ence"
      ],
      [
        "pres",
        "ume"
      ],
      [
        "wret",
        "ched"
      ],
      [
        "din",
        "ner"
      ],
      [
        "bal",
        "cony"
      ],
      [
        "bast",
        "ardy"
      ],
      [
        "oat",
        "s"
      ],
      [
        "stock",
        "ings"
      ],
      [
        "offic",
        "er"
      ],
      [
        "flour",
        "ish"
      ],
      [
        "high",
        "ness"
      ],
      [
        "proceed",
        "ings"
      ],
      [
        "cont",
        "ent"
      ],
      [
        "faul",
        "ts"
      ],
      [
        "d",
        "ise"
      ],
      [
        "f",
        "ree"
      ],
      [
        "h",
        "on"
      ],
      [
        "n",
        "ance"
      ],
      [
        "t",
        "ran"
      ],
      [
        "an",
        "ion"
      ],
      [
        "in",
        "ous"
      ],
      [
        "be",
        "hea"
      ],
      [
        "we",
        "ather"
      ],
      [
        "fe",
        "tter"
      ],
      [
        "lu",
        "x"
      ],
      [
        "pro",
        "per"
      ],
      [
        "beg",
        "uile"
      ],
      [
        "bl",
        "owing"
      ],
      [
        "mi",
        "ldly"
      ],
      [
        "du",
        "mb"
      ],
      [
        "ag",
        "ain"
      ],
      [
        "deed",
        "s"
      ],
      [
        "test",
        "im"
      ],
      [
        "imp",
        "rimis"
      ],
      [
        "stri",
        "pling"
      ],
      [
        "detest",
        "able"
      ],
      [
        "sorrow",
        "ful"
      ],
      [
        "villain",
        "s"
      ],
      [
        "house",
        "hold"
      ],
      [
        "obsequ",
        "ious"
      ],
      [
        "brave",
        "ly"
      ],
      [
        "incar",
        "nate"
      ],
      [
        "toge",
        "ther"
      ],
      [
        "desir",
        "ous"
      ],
      [
        "amor",
        "ous"
      ],
      [
        "sider",
        "ing"
      ],
      [
        "lucen",
        "tio"
      ],
      [
        "audit",
        "ory"
      ],
      [
        "spraw",
        "l"
      ],
      [
        "anion",
        "s"
      ],
      [
        "u",
        "ri"
      ],
      [
        "and",
        "sire"
      ],
      [
        "al",
        "though"
      ],
      [
        "ti",
        "me"
      ],
      [
        "sat",
        "i"
      ],
      [
        "forth",
        "with"
      ],
      [
        "ase",
        "s"
      ],
      [
        "serv",
        "ice"
      ],
      [
        "des",
        "demon"
      ],
      [
        "show",
        "ers"
      ],
      [
        "ac",
        "cursed"
      ],
      [
        "str",
        "ange"
      ],
      [
        "unha",
        "llowed"
      ],
      [
        "ab",
        "out"
      ],
      [
        "bion",
        "dello"
      ],
      [
        "hon",
        "our"
      ],
      [
        "he",
        "inous"
      ],
      [
        "lat",
        "in"
      ],
      [
        "beat",
        "en"
      ],
      [
        "comp",
        "any"
      ],
      [
        "wrong",
        "ful"
      ],
      [
        "appare",
        "lled"
      ],
      [
        "free",
        "ze"
      ],
      [
        "tran",
        "io"
      ],
      [
        "behea",
        "ded"
      ],
      [
        "le",
        "ges"
      ],
      [
        "con",
        "sidering"
      ],
      [
        "thre",
        "e"
      ],
      [
        "gr",
        "andsire"
      ],
      [
        "inc",
        "hes"
      ],
      [
        "lux",
        "uri"
      ],
      [
        "testim",
        "ony"
      ],
      [
        "in",
        "sati"
      ],
      [
        "en",
        "ance"
      ],
      [
        "comp",
        "anions"
      ],
      [
        "dise",
        "ases"
      ],
      [
        "dev",
        "o"
      ],
      [
        "luxuri",
        "ous"
      ],
      [
        "insati",
        "ate"
      ],
      [
        "pit",
        "y"
      ],
      [
        "devo",
        "id"
      ],
      [
        "count",
        "enance"
      ],
      [
        "t",
        "or"
      ],
      [
        "di",
        "re"
      ],
      [
        "must",
        "ard"
      ],
      [
        "y",
        "o"
      ],
      [
        "be",
        "ef"
      ],
      [
        "tor",
        "ment"
      ],
      [
        "torment",
        "s"
      ],
      [
        "wret",
        "ch"
      ],
      [
        "c",
        "ra"
      ],
      [
        "sent",
        "ence"
      ],
      [
        "exe",
        "cra"
      ],
      [
        "execra",
        "ble"
      ],
      [
        "dire",
        "ful"
      ],
      [
        "th",
        "a"
      ],
      [
        "h",
        "y"
      ],
      [
        "o",
        "pe"
      ],
      [
        "wo",
        "es"
      ],
      [
        "th",
        "i"
      ],
      [
        "e",
        "e"
      ],
      [
        "o",
        "me"
      ],
      [
        "o",
        "t"
      ],
      [
        "th",
        "o"
      ],
      [
        "r",
        "s"
      ],
      [
        "c",
        "a"
      ],
      [
        "ro",
        "m"
      ],
      [
        "ed",
        "er"
      ],
      [
        "bre",
        "eder"
      ],
      [
        "prison",
        "er"
      ],
      [
        "h",
        "an"
      ],
      [
        "wi",
        "l"
      ],
      [
        "e",
        "ll"
      ],
      [
        "e",
        "ve"
      ],
      [
        "u",
        "ld"
      ],
      [
        "en",
        "ds"
      ],
      [
        "o",
        "m"
      ],
      [
        "the",
        "i"
      ],
      [
        "e",
        "ir"
      ],
      [
        "ch",
        "ance"
      ],
      [
        "e",
        "v"
      ],
      [
        "h",
        "t"
      ],
      [
        "i",
        "ci"
      ],
      [
        "w",
        "ha"
      ],
      [
        "fa",
        "the"
      ],
      [
        "per",
        "or"
      ],
      [
        "e",
        "ad"
      ],
      [
        "i",
        "v"
      ],
      [
        "o",
        "ke"
      ],
      [
        "st",
        "er"
      ],
      [
        "he",
        "y"
      ],
      [
        "ha",
        "v"
      ],
      [
        "ha",
        "ll"
      ],
      [
        "sha",
        "l"
      ],
      [
        "m",
        "as"
      ],
      [
        "n",
        "a"
      ],
      [
        "n",
        "y"
      ],
      [
        "r",
        "n"
      ],
      [
        "s",
        "ho"
      ],
      [
        "de",
        "a"
      ],
      [
        "fa",
        "th"
      ],
      [
        "un",
        "c"
      ],
      [
        "mis",
        "chance"
      ],
      [
        "sp",
        "oke"
      ],
      [
        "e",
        "ed"
      ],
      [
        "i",
        "us"
      ],
      [
        "r",
        "st"
      ],
      [
        "s",
        "w"
      ],
      [
        "he",
        "ir"
      ],
      [
        "be",
        "a"
      ],
      [
        "hor",
        "s"
      ],
      [
        "e",
        "fore"
      ],
      [
        "e",
        "ath"
      ],
      [
        "i",
        "re"
      ],
      [
        "o",
        "mes"
      ],
      [
        "r",
        "d"
      ],
      [
        "s",
        "ou"
      ],
      [
        "t",
        "le"
      ],
      [
        "w",
        "n"
      ],
      [
        "th",
        "in"
      ],
      [
        "go",
        "o"
      ],
      [
        "mast",
        "e"
      ],
      [
        "kno",
        "c"
      ],
      [
        "andron",
        "ici"
      ],
      [
        "h",
        "ould"
      ],
      [
        "i",
        "e"
      ],
      [
        "i",
        "fe"
      ],
      [
        "k",
        "i"
      ],
      [
        "m",
        "s"
      ],
      [
        "n",
        "ce"
      ],
      [
        "n",
        "ds"
      ],
      [
        "o",
        "l"
      ],
      [
        "u",
        "ght"
      ],
      [
        "w",
        "ou"
      ],
      [
        "re",
        "fore"
      ],
      [
        "no",
        "ck"
      ],
      [
        "co",
        "l"
      ],
      [
        "la",
        "v"
      ],
      [
        "there",
        "fo"
      ],
      [
        "sh",
        "ou"
      ],
      [
        "sh",
        "oul"
      ],
      [
        "here",
        "fore"
      ],
      [
        "a",
        "em"
      ],
      [
        "f",
        "ou"
      ],
      [
        "g",
        "iv"
      ],
      [
        "m",
        "peror"
      ],
      [
        "n",
        "s"
      ],
      [
        "n",
        "ter"
      ],
      [
        "n",
        "gs"
      ],
      [
        "p",
        "ra"
      ],
      [
        "w",
        "he"
      ],
      [
        "er",
        "y"
      ],
      [
        "on",
        "s"
      ],
      [
        "en",
        "te"
      ],
      [
        "de",
        "at"
      ],
      [
        "em",
        "pe"
      ],
      [
        "la",
        "vin"
      ],
      [
        "there",
        "for"
      ],
      [
        "lu",
        "c"
      ],
      [
        "cur",
        "t"
      ],
      [
        "ere",
        "fore"
      ],
      [
        "urn",
        "ine"
      ],
      [
        "ron",
        "icus"
      ],
      [
        "fri",
        "e"
      ],
      [
        "gra",
        "ci"
      ],
      [
        "bar",
        "bar"
      ],
      [
        "a",
        "ir"
      ],
      [
        "a",
        "ven"
      ],
      [
        "a",
        "vinia"
      ],
      [
        "d",
        "y"
      ],
      [
        "d",
        "ly"
      ],
      [
        "e",
        "ast"
      ],
      [
        "e",
        "ars"
      ],
      [
        "h",
        "ing"
      ],
      [
        "i",
        "ke"
      ],
      [
        "i",
        "ght"
      ],
      [
        "i",
        "ends"
      ],
      [
        "l",
        "s"
      ],
      [
        "m",
        "p"
      ],
      [
        "o",
        "ble"
      ],
      [
        "r",
        "v"
      ],
      [
        "r",
        "th"
      ],
      [
        "r",
        "se"
      ],
      [
        "r",
        "tis"
      ],
      [
        "t",
        "es"
      ],
      [
        "or",
        "d"
      ],
      [
        "st",
        "ress"
      ],
      [
        "no",
        "bl"
      ],
      [
        "le",
        "a"
      ],
      [
        "be",
        "f"
      ],
      [
        "be",
        "in"
      ],
      [
        "bu",
        "ri"
      ],
      [
        "ri",
        "ends"
      ],
      [
        "go",
        "t"
      ],
      [
        "ma",
        "k"
      ],
      [
        "ur",
        "tis"
      ],
      [
        "la",
        "in"
      ],
      [
        "te",
        "l"
      ],
      [
        "there",
        "f"
      ],
      [
        "cur",
        "ti"
      ],
      [
        "ast",
        "er"
      ],
      [
        "ci",
        "us"
      ],
      [
        "emper",
        "o"
      ],
      [
        "bro",
        "the"
      ],
      [
        "saturn",
        "i"
      ],
      [
        "saturn",
        "in"
      ],
      [
        "aemi",
        "li"
      ],
      [
        "a",
        "e"
      ],
      [
        "a",
        "le"
      ],
      [
        "b",
        "lo"
      ],
      [
        "c",
        "al"
      ],
      [
        "d",
        "a"
      ],
      [
        "e",
        "g"
      ],
      [
        "e",
        "w"
      ],
      [
        "e",
        "ing"
      ],
      [
        "e",
        "et"
      ],
      [
        "e",
        "ak"
      ],
      [
        "f",
        "l"
      ],
      [
        "i",
        "g"
      ],
      [
        "i",
        "al"
      ],
      [
        "i",
        "mb"
      ],
      [
        "l",
        "as"
      ],
      [
        "n",
        "k"
      ],
      [
        "n",
        "ou"
      ],
      [
        "n",
        "to"
      ],
      [
        "n",
        "cle"
      ],
      [
        "n",
        "ia"
      ],
      [
        "o",
        "st"
      ],
      [
        "p",
        "on"
      ],
      [
        "r",
        "or"
      ],
      [
        "s",
        "l"
      ],
      [
        "t",
        "and"
      ],
      [
        "t",
        "us"
      ],
      [
        "t",
        "ress"
      ],
      [
        "u",
        "st"
      ],
      [
        "u",
        "rial"
      ],
      [
        "w",
        "oul"
      ],
      [
        "y",
        "e"
      ],
      [
        "y",
        "self"
      ],
      [
        "er",
        "i"
      ],
      [
        "er",
        "or"
      ],
      [
        "in",
        "te"
      ],
      [
        "the",
        "s"
      ],
      [
        "is",
        "ter"
      ],
      [
        "or",
        "se"
      ],
      [
        "re",
        "at"
      ],
      [
        "ll",
        "s"
      ],
      [
        "ll",
        "ow"
      ],
      [
        "st",
        "o"
      ],
      [
        "he",
        "m"
      ],
      [
        "ar",
        "rel"
      ],
      [
        "ve",
        "d"
      ],
      [
        "be",
        "i"
      ],
      [
        "be",
        "l"
      ],
      [
        "be",
        "t"
      ],
      [
        "be",
        "as"
      ],
      [
        "ro",
        "thers"
      ],
      [
        "hi",
        "ld"
      ],
      [
        "hi",
        "ch"
      ],
      [
        "en",
        "emi"
      ],
      [
        "de",
        "e"
      ],
      [
        "li",
        "f"
      ],
      [
        "li",
        "k"
      ],
      [
        "ing",
        "men"
      ],
      [
        "it",
        "us"
      ],
      [
        "we",
        "a"
      ],
      [
        "fe",
        "l"
      ],
      [
        "ne",
        "a"
      ],
      [
        "te",
        "a"
      ],
      [
        "te",
        "ar"
      ],
      [
        "ti",
        "l"
      ],
      [
        "ta",
        "k"
      ],
      [
        "wo",
        "m"
      ],
      [
        "wo",
        "ma"
      ],
      [
        "urn",
        "inus"
      ],
      [
        "up",
        "o"
      ],
      [
        "ive",
        "d"
      ],
      [
        "el",
        "f"
      ],
      [
        "sat",
        "u"
      ],
      [
        "sat",
        "ur"
      ],
      [
        "swe",
        "e"
      ],
      [
        "aw",
        "a"
      ],
      [
        "gre",
        "a"
      ],
      [
        "bro",
        "t"
      ],
      [
        "luci",
        "u"
      ],
      [
        "fir",
        "s"
      ],
      [
        "sis",
        "t"
      ],
      [
        "mist",
        "re"
      ],
      [
        "mist",
        "res"
      ],
      [
        "mi",
        "lius"
      ],
      [
        "sor",
        "r"
      ],
      [
        "exe",
        "un"
      ],
      [
        "liv",
        "ion"
      ],
      [
        "ist",
        "ress"
      ],
      [
        "nath",
        "an"
      ],
      [
        "comp",
        "an"
      ],
      [
        "repro",
        "b"
      ],
      [
        "unc",
        "l"
      ],
      [
        "aem",
        "il"
      ],
      [
        "a",
        "ce"
      ],
      [
        "b",
        "i"
      ],
      [
        "c",
        "l"
      ],
      [
        "c",
        "ho"
      ],
      [
        "d",
        "st"
      ],
      [
        "d",
        "ge"
      ],
      [
        "e",
        "se"
      ],
      [
        "f",
        "in"
      ],
      [
        "g",
        "i"
      ],
      [
        "g",
        "ro"
      ],
      [
        "g",
        "en"
      ],
      [
        "h",
        "s"
      ],
      [
        "i",
        "ld"
      ],
      [
        "i",
        "ch"
      ],
      [
        "i",
        "lius"
      ],
      [
        "l",
        "come"
      ],
      [
        "m",
        "ing"
      ],
      [
        "n",
        "ous"
      ],
      [
        "n",
        "emies"
      ],
      [
        "o",
        "y"
      ],
      [
        "o",
        "man"
      ],
      [
        "r",
        "m"
      ],
      [
        "r",
        "in"
      ],
      [
        "r",
        "thy"
      ],
      [
        "r",
        "ds"
      ],
      [
        "r",
        "cus"
      ],
      [
        "r",
        "rel"
      ],
      [
        "r",
        "ms"
      ],
      [
        "s",
        "wo"
      ],
      [
        "t",
        "ly"
      ],
      [
        "u",
        "d"
      ],
      [
        "u",
        "th"
      ],
      [
        "u",
        "gh"
      ],
      [
        "u",
        "mb"
      ],
      [
        "v",
        "il"
      ],
      [
        "w",
        "r"
      ],
      [
        "w",
        "s"
      ],
      [
        "w",
        "ro"
      ],
      [
        "w",
        "her"
      ],
      [
        "w",
        "ful"
      ],
      [
        "th",
        "s"
      ],
      [
        "th",
        "ro"
      ],
      [
        "ou",
        "g"
      ],
      [
        "ou",
        "dest"
      ],
      [
        "or",
        "th"
      ],
      [
        "or",
        "st"
      ],
      [
        "or",
        "ses"
      ],
      [
        "at",
        "urnine"
      ],
      [
        "re",
        "a"
      ],
      [
        "re",
        "c"
      ],
      [
        "re",
        "n"
      ],
      [
        "re",
        "well"
      ],
      [
        "me",
        "a"
      ],
      [
        "me",
        "e"
      ],
      [
        "no",
        "b"
      ],
      [
        "no",
        "th"
      ],
      [
        "no",
        "thi"
      ],
      [
        "ar",
        "on"
      ],
      [
        "ar",
        "cus"
      ],
      [
        "be",
        "e"
      ],
      [
        "be",
        "lie"
      ],
      [
        "be",
        "fo"
      ],
      [
        "my",
        "s"
      ],
      [
        "for",
        "ce"
      ],
      [
        "ir",
        "t"
      ],
      [
        "en",
        "em"
      ],
      [
        "li",
        "m"
      ],
      [
        "it",
        "tle"
      ],
      [
        "ld",
        "st"
      ],
      [
        "bu",
        "nes"
      ],
      [
        "fa",
        "l"
      ],
      [
        "with",
        "i"
      ],
      [
        "un",
        "d"
      ],
      [
        "so",
        "oth"
      ],
      [
        "ad",
        "y"
      ],
      [
        "al",
        "a"
      ],
      [
        "fe",
        "a"
      ],
      [
        "per",
        "f"
      ],
      [
        "per",
        "ha"
      ],
      [
        "ould",
        "st"
      ],
      [
        "wor",
        "th"
      ],
      [
        "are",
        "well"
      ],
      [
        "ath",
        "ing"
      ],
      [
        "si",
        "d"
      ],
      [
        "si",
        "gh"
      ],
      [
        "nt",
        "le"
      ],
      [
        "cur",
        "s"
      ],
      [
        "if",
        "ferent"
      ],
      [
        "ow",
        "s"
      ],
      [
        "et",
        "s"
      ],
      [
        "et",
        "ter"
      ],
      [
        "ent",
        "le"
      ],
      [
        "qu",
        "a"
      ],
      [
        "tit",
        "l"
      ],
      [
        "tit",
        "u"
      ],
      [
        "emi",
        "lius"
      ],
      [
        "nd",
        "ly"
      ],
      [
        "chi",
        "l"
      ],
      [
        "mar",
        "r"
      ],
      [
        "beg",
        "u"
      ],
      [
        "bro",
        "th"
      ],
      [
        "ain",
        "s"
      ],
      [
        "ear",
        "t"
      ],
      [
        "spe",
        "a"
      ],
      [
        "hea",
        "ve"
      ],
      [
        "bl",
        "oo"
      ],
      [
        "wel",
        "co"
      ],
      [
        "mi",
        "es"
      ],
      [
        "inter",
        "rup"
      ],
      [
        "serv",
        "i"
      ],
      [
        "fare",
        "we"
      ],
      [
        "dev",
        "i"
      ],
      [
        "tribu",
        "n"
      ],
      [
        "aar",
        "o"
      ],
      [
        "tt",
        "le"
      ],
      [
        "des",
        "de"
      ],
      [
        "des",
        "per"
      ],
      [
        "gent",
        "l"
      ],
      [
        "litt",
        "l"
      ],
      [
        "ban",
        "is"
      ],
      [
        "imp",
        "ri"
      ],
      [
        "sacri",
        "fi"
      ],
      [
        "sacri",
        "fic"
      ],
      [
        "andron",
        "ic"
      ],
      [
        "cou",
        "n"
      ],
      [
        "count",
        "en"
      ],
      [
        "oth",
        "s"
      ],
      [
        "fac",
        "tion"
      ],
      [
        "dis",
        "fig"
      ],
      [
        "xe",
        "unt"
      ],
      [
        "uld",
        "st"
      ],
      [
        "sou",
        "n"
      ],
      [
        "lav",
        "i"
      ],
      [
        "lavin",
        "i"
      ],
      [
        "buri",
        "a"
      ],
      [
        "imb",
        "s"
      ],
      [
        "enemi",
        "e"
      ],
      [
        "a",
        "a"
      ],
      [
        "a",
        "i"
      ],
      [
        "a",
        "de"
      ],
      [
        "a",
        "whi"
      ],
      [
        "a",
        "ps"
      ],
      [
        "a",
        "id"
      ],
      [
        "a",
        "ise"
      ],
      [
        "a",
        "cri"
      ],
      [
        "a",
        "ded"
      ],
      [
        "a",
        "cious"
      ],
      [
        "b",
        "as"
      ],
      [
        "b",
        "livion"
      ],
      [
        "c",
        "he"
      ],
      [
        "d",
        "g"
      ],
      [
        "d",
        "l"
      ],
      [
        "d",
        "r"
      ],
      [
        "d",
        "on"
      ],
      [
        "d",
        "der"
      ],
      [
        "d",
        "ronicus"
      ],
      [
        "e",
        "me"
      ],
      [
        "e",
        "de"
      ],
      [
        "e",
        "ly"
      ],
      [
        "e",
        "ful"
      ],
      [
        "e",
        "qu"
      ],
      [
        "e",
        "ep"
      ],
      [
        "e",
        "lieve"
      ],
      [
        "e",
        "hold"
      ],
      [
        "e",
        "vent"
      ],
      [
        "f",
        "ar"
      ],
      [
        "f",
        "ter"
      ],
      [
        "f",
        "fice"
      ],
      [
        "g",
        "l"
      ],
      [
        "h",
        "in"
      ],
      [
        "h",
        "ous"
      ],
      [
        "h",
        "ine"
      ],
      [
        "h",
        "row"
      ],
      [
        "h",
        "ink"
      ],
      [
        "h",
        "aniel"
      ],
      [
        "i",
        "p"
      ],
      [
        "i",
        "ther"
      ],
      [
        "i",
        "ent"
      ],
      [
        "i",
        "ger"
      ],
      [
        "i",
        "end"
      ],
      [
        "i",
        "eve"
      ],
      [
        "k",
        "a"
      ],
      [
        "k",
        "at"
      ],
      [
        "k",
        "ath"
      ],
      [
        "k",
        "athe"
      ],
      [
        "l",
        "k"
      ],
      [
        "l",
        "is"
      ],
      [
        "l",
        "us"
      ],
      [
        "l",
        "oo"
      ],
      [
        "l",
        "ood"
      ],
      [
        "l",
        "eric"
      ],
      [
        "m",
        "ou"
      ],
      [
        "m",
        "us"
      ],
      [
        "m",
        "out"
      ],
      [
        "m",
        "pets"
      ],
      [
        "m",
        "ora"
      ],
      [
        "m",
        "pt"
      ],
      [
        "n",
        "in"
      ],
      [
        "n",
        "us"
      ],
      [
        "n",
        "ine"
      ],
      [
        "n",
        "vey"
      ],
      [
        "n",
        "ough"
      ],
      [
        "n",
        "inus"
      ],
      [
        "n",
        "iel"
      ],
      [
        "n",
        "icus"
      ],
      [
        "o",
        "a"
      ],
      [
        "o",
        "or"
      ],
      [
        "o",
        "on"
      ],
      [
        "o",
        "ve"
      ],
      [
        "o",
        "ther"
      ],
      [
        "o",
        "il"
      ],
      [
        "o",
        "bl"
      ],
      [
        "o",
        "wed"
      ],
      [
        "o",
        "zen"
      ],
      [
        "p",
        "ar"
      ],
      [
        "p",
        "il"
      ],
      [
        "p",
        "any"
      ],
      [
        "p",
        "rai"
      ],
      [
        "p",
        "anions"
      ],
      [
        "r",
        "row"
      ],
      [
        "r",
        "ty"
      ],
      [
        "r",
        "ry"
      ],
      [
        "r",
        "ish"
      ],
      [
        "r",
        "ses"
      ],
      [
        "r",
        "barous"
      ],
      [
        "r",
        "ough"
      ],
      [
        "r",
        "ison"
      ],
      [
        "r",
        "ush"
      ],
      [
        "r",
        "oud"
      ],
      [
        "s",
        "co"
      ],
      [
        "s",
        "ur"
      ],
      [
        "s",
        "pr"
      ],
      [
        "t",
        "en"
      ],
      [
        "t",
        "ay"
      ],
      [
        "t",
        "les"
      ],
      [
        "t",
        "um"
      ],
      [
        "t",
        "ory"
      ],
      [
        "t",
        "ness"
      ],
      [
        "t",
        "wa"
      ],
      [
        "u",
        "it"
      ],
      [
        "u",
        "ty"
      ],
      [
        "u",
        "lt"
      ],
      [
        "u",
        "cius"
      ],
      [
        "u",
        "arrel"
      ],
      [
        "v",
        "i"
      ],
      [
        "v",
        "ing"
      ],
      [
        "v",
        "ion"
      ],
      [
        "x",
        "it"
      ],
      [
        "x",
        "perienc"
      ],
      [
        "th",
        "u"
      ],
      [
        "th",
        "al"
      ],
      [
        "an",
        "k"
      ],
      [
        "ou",
        "se"
      ],
      [
        "in",
        "s"
      ],
      [
        "in",
        "sat"
      ],
      [
        "in",
        "ia"
      ],
      [
        "is",
        "ses"
      ],
      [
        "or",
        "thy"
      ],
      [
        "or",
        "ds"
      ],
      [
        "at",
        "s"
      ],
      [
        "at",
        "t"
      ],
      [
        "at",
        "es"
      ],
      [
        "at",
        "rum"
      ],
      [
        "at",
        "urninus"
      ],
      [
        "re",
        "li"
      ],
      [
        "st",
        "s"
      ],
      [
        "st",
        "an"
      ],
      [
        "st",
        "ly"
      ],
      [
        "st",
        "ers"
      ],
      [
        "st",
        "umb"
      ],
      [
        "no",
        "n"
      ],
      [
        "he",
        "l"
      ],
      [
        "he",
        "in"
      ],
      [
        "he",
        "athing"
      ],
      [
        "le",
        "f"
      ],
      [
        "le",
        "g"
      ],
      [
        "on",
        "es"
      ],
      [
        "on",
        "gs"
      ],
      [
        "ar",
        "barous"
      ],
      [
        "ar",
        "bus"
      ],
      [
        "be",
        "c"
      ],
      [
        "be",
        "for"
      ],
      [
        "be",
        "li"
      ],
      [
        "wi",
        "f"
      ],
      [
        "wi",
        "p"
      ],
      [
        "ro",
        "ma"
      ],
      [
        "my",
        "se"
      ],
      [
        "ha",
        "lt"
      ],
      [
        "ha",
        "llowed"
      ],
      [
        "for",
        "m"
      ],
      [
        "ir",
        "st"
      ],
      [
        "ir",
        "ous"
      ],
      [
        "de",
        "si"
      ],
      [
        "li",
        "t"
      ],
      [
        "co",
        "a"
      ],
      [
        "ho",
        "m"
      ],
      [
        "ho",
        "se"
      ],
      [
        "of",
        "fi"
      ],
      [
        "we",
        "et"
      ],
      [
        "her",
        "s"
      ],
      [
        "fa",
        "i"
      ],
      [
        "ri",
        "c"
      ],
      [
        "ri",
        "ous"
      ],
      [
        "ri",
        "ef"
      ],
      [
        "ri",
        "mm"
      ],
      [
        "with",
        "a"
      ],
      [
        "thou",
        "g"
      ],
      [
        "thy",
        "s"
      ],
      [
        "thy",
        "sel"
      ],
      [
        "ma",
        "ineth"
      ],
      [
        "un",
        "p"
      ],
      [
        "un",
        "es"
      ],
      [
        "un",
        "dly"
      ],
      [
        "ra",
        "l"
      ],
      [
        "ra",
        "cious"
      ],
      [
        "so",
        "o"
      ],
      [
        "ur",
        "ish"
      ],
      [
        "ad",
        "der"
      ],
      [
        "al",
        "ter"
      ],
      [
        "fe",
        "e"
      ],
      [
        "all",
        "s"
      ],
      [
        "pe",
        "a"
      ],
      [
        "pe",
        "ak"
      ],
      [
        "pe",
        "op"
      ],
      [
        "la",
        "ve"
      ],
      [
        "am",
        "o"
      ],
      [
        "per",
        "ess"
      ],
      [
        "she",
        "a"
      ],
      [
        "she",
        "at"
      ],
      [
        "ck",
        "ings"
      ],
      [
        "oo",
        "m"
      ],
      [
        "oo",
        "t"
      ],
      [
        "ti",
        "g"
      ],
      [
        "ti",
        "re"
      ],
      [
        "ti",
        "us"
      ],
      [
        "ti",
        "ge"
      ],
      [
        "ru",
        "e"
      ],
      [
        "ru",
        "th"
      ],
      [
        "ru",
        "chio"
      ],
      [
        "ed",
        "ges"
      ],
      [
        "wor",
        "s"
      ],
      [
        "wor",
        "t"
      ],
      [
        "are",
        "lled"
      ],
      [
        "fu",
        "st"
      ],
      [
        "si",
        "ble"
      ],
      [
        "see",
        "ch"
      ],
      [
        "pr",
        "is"
      ],
      [
        "ever",
        "last"
      ],
      [
        "urn",
        "ing"
      ],
      [
        "ast",
        "ers"
      ],
      [
        "whi",
        "t"
      ],
      [
        "mu",
        "t"
      ],
      [
        "ive",
        "s"
      ],
      [
        "el",
        "p"
      ],
      [
        "el",
        "come"
      ],
      [
        "tri",
        "b"
      ],
      [
        "tri",
        "m"
      ],
      [
        "il",
        "s"
      ],
      [
        "il",
        "t"
      ],
      [
        "ven",
        "ous"
      ],
      [
        "ex",
        "i"
      ],
      [
        "ron",
        "ici"
      ],
      [
        "pro",
        "bation"
      ],
      [
        "su",
        "f"
      ],
      [
        "su",
        "g"
      ],
      [
        "sat",
        "is"
      ],
      [
        "swe",
        "a"
      ],
      [
        "con",
        "s"
      ],
      [
        "con",
        "ve"
      ],
      [
        "con",
        "si"
      ],
      [
        "con",
        "sider"
      ],
      [
        "them",
        "sel"
      ],
      [
        "nd",
        "ronicus"
      ],
      [
        "gre",
        "et"
      ],
      [
        "mar",
        "c"
      ],
      [
        "beg",
        "i"
      ],
      [
        "beg",
        "gar"
      ],
      [
        "der",
        "ing"
      ],
      [
        "im",
        "ony"
      ],
      [
        "ear",
        "d"
      ],
      [
        "bre",
        "a"
      ],
      [
        "bre",
        "t"
      ],
      [
        "bre",
        "th"
      ],
      [
        "bre",
        "as"
      ],
      [
        "ap",
        "pro"
      ],
      [
        "ap",
        "peas"
      ],
      [
        "ap",
        "ons"
      ],
      [
        "com",
        "pla"
      ],
      [
        "com",
        "pa"
      ],
      [
        "au",
        "se"
      ],
      [
        "gra",
        "v"
      ],
      [
        "sp",
        "a"
      ],
      [
        "ple",
        "dge"
      ],
      [
        "sis",
        "te"
      ],
      [
        "mist",
        "r"
      ],
      [
        "bar",
        "b"
      ],
      [
        "bar",
        "ba"
      ],
      [
        "turn",
        "ine"
      ],
      [
        "um",
        "pets"
      ],
      [
        "wel",
        "c"
      ],
      [
        "wel",
        "com"
      ],
      [
        "gar",
        "sop"
      ],
      [
        "br",
        "ou"
      ],
      [
        "mi",
        "ld"
      ],
      [
        "ob",
        "s"
      ],
      [
        "emp",
        "t"
      ],
      [
        "emp",
        "re"
      ],
      [
        "emp",
        "res"
      ],
      [
        "ish",
        "ment"
      ],
      [
        "kis",
        "se"
      ],
      [
        "du",
        "t"
      ],
      [
        "du",
        "ti"
      ],
      [
        "beast",
        "l"
      ],
      [
        "fare",
        "w"
      ],
      [
        "fare",
        "wel"
      ],
      [
        "ef",
        "t"
      ],
      [
        "lad",
        "d"
      ],
      [
        "fell",
        "o"
      ],
      [
        "mat",
        "t"
      ],
      [
        "mat",
        "te"
      ],
      [
        "exe",
        "u"
      ],
      [
        "kn",
        "ave"
      ],
      [
        "gri",
        "e"
      ],
      [
        "tam",
        "o"
      ],
      [
        "tam",
        "or"
      ],
      [
        "af",
        "te"
      ],
      [
        "sla",
        "v"
      ],
      [
        "ja",
        "c"
      ],
      [
        "pre",
        "se"
      ],
      [
        "pre",
        "sent"
      ],
      [
        "lov",
        "i"
      ],
      [
        "test",
        "able"
      ],
      [
        "sound",
        "l"
      ],
      [
        "quar",
        "r"
      ],
      [
        "quar",
        "re"
      ],
      [
        "must",
        "ar"
      ],
      [
        "wit",
        "ne"
      ],
      [
        "wit",
        "nes"
      ],
      [
        "sa",
        "c"
      ],
      [
        "sa",
        "cr"
      ],
      [
        "hou",
        "gh"
      ],
      [
        "sen",
        "at"
      ],
      [
        "hu",
        "man"
      ],
      [
        "hu",
        "mb"
      ],
      [
        "wal",
        "t"
      ],
      [
        "peri",
        "ous"
      ],
      [
        "unk",
        "ind"
      ],
      [
        "ban",
        "i"
      ],
      [
        "sheath",
        "i"
      ],
      [
        "sheath",
        "in"
      ],
      [
        "chol",
        "er"
      ],
      [
        "chol",
        "eri"
      ],
      [
        "weap",
        "o"
      ],
      [
        "obliv",
        "i"
      ],
      [
        "obliv",
        "io"
      ],
      [
        "fic",
        "er"
      ],
      [
        "sacri",
        "f"
      ],
      [
        "rece",
        "i"
      ],
      [
        "rece",
        "iv"
      ],
      [
        "tro",
        "phi"
      ],
      [
        "kather",
        "i"
      ],
      [
        "temp",
        "t"
      ],
      [
        "stri",
        "k"
      ],
      [
        "rave",
        "no"
      ],
      [
        "alar",
        "b"
      ],
      [
        "alar",
        "bu"
      ],
      [
        "raven",
        "ou"
      ],
      [
        "mon",
        "u"
      ],
      [
        "mon",
        "y"
      ],
      [
        "nath",
        "a"
      ],
      [
        "law",
        "fu"
      ],
      [
        "trum",
        "pet"
      ],
      [
        "ith",
        "al"
      ],
      [
        "ith",
        "ful"
      ],
      [
        "bir",
        "d"
      ],
      [
        "ea",
        "ven"
      ],
      [
        "sta",
        "ble"
      ],
      [
        "gr",
        "and"
      ],
      [
        "ni",
        "fies"
      ],
      [
        "war",
        "ri"
      ],
      [
        "deme",
        "tri"
      ],
      [
        "sig",
        "n"
      ],
      [
        "rum",
        "pets"
      ],
      [
        "sle",
        "ek"
      ],
      [
        "rav",
        "is"
      ],
      [
        "lar",
        "bus"
      ],
      [
        "isfac",
        "tion"
      ],
      [
        "rema",
        "ine"
      ],
      [
        "cob",
        "we"
      ],
      [
        "fun",
        "er"
      ],
      [
        "unex",
        "peri"
      ],
      [
        "indif",
        "f"
      ],
      [
        "kna",
        "v"
      ],
      [
        "sequ",
        "ious"
      ],
      [
        "ceed",
        "ings"
      ],
      [
        "unha",
        "llo"
      ],
      [
        "obsequ",
        "i"
      ],
      [
        "bion",
        "de"
      ],
      [
        "appare",
        "ll"
      ],
      [
        "uri",
        "ous"
      ],
      [
        "sati",
        "ate"
      ],
      [
        "ca",
        "us"
      ],
      [
        "ev",
        "il"
      ],
      [
        "ead",
        "s"
      ],
      [
        "iv",
        "ion"
      ],
      [
        "rn",
        "ine"
      ],
      [
        "rn",
        "inus"
      ],
      [
        "eath",
        "ing"
      ],
      [
        "hould",
        "st"
      ],
      [
        "ol",
        "eric"
      ],
      [
        "pra",
        "is"
      ],
      [
        "graci",
        "o"
      ],
      [
        "graci",
        "ou"
      ],
      [
        "barbar",
        "o"
      ],
      [
        "barbar",
        "ou"
      ],
      [
        "aven",
        "ous"
      ],
      [
        "mp",
        "ress"
      ],
      [
        "saturnin",
        "u"
      ],
      [
        "aemili",
        "u"
      ],
      [
        "fl",
        "ou"
      ],
      [
        "ig",
        "ure"
      ],
      [
        "bet",
        "te"
      ],
      [
        "nathan",
        "i"
      ],
      [
        "reprob",
        "ati"
      ],
      [
        "cho",
        "le"
      ],
      [
        "perha",
        "p"
      ],
      [
        "a",
        "v"
      ],
      [
        "a",
        "x"
      ],
      [
        "a",
        "wh"
      ],
      [
        "a",
        "ck"
      ],
      [
        "a",
        "by"
      ],
      [
        "a",
        "bo"
      ],
      [
        "a",
        "ment"
      ],
      [
        "a",
        "bl"
      ],
      [
        "a",
        "bs"
      ],
      [
        "a",
        "des"
      ],
      [
        "a",
        "very"
      ],
      [
        "a",
        "light"
      ],
      [
        "a",
        "ineth"
      ],
      [
        "a",
        "ight"
      ],
      [
        "a",
        "ils"
      ],
      [
        "a",
        "ithful"
      ],
      [
        "b",
        "or"
      ],
      [
        "b",
        "ly"
      ],
      [
        "b",
        "ru"
      ],
      [
        "b",
        "one"
      ],
      [
        "b",
        "out"
      ],
      [
        "b",
        "ag"
      ],
      [
        "b",
        "sta"
      ],
      [
        "b",
        "rav"
      ],
      [
        "b",
        "io"
      ],
      [
        "b",
        "webs"
      ],
      [
        "b",
        "ject"
      ],
      [
        "b",
        "sequious"
      ],
      [
        "c",
        "er"
      ],
      [
        "c",
        "li"
      ],
      [
        "c",
        "ath"
      ],
      [
        "c",
        "ars"
      ],
      [
        "c",
        "ore"
      ],
      [
        "c",
        "hes"
      ],
      [
        "c",
        "tion"
      ],
      [
        "c",
        "cursed"
      ],
      [
        "c",
        "lim"
      ],
      [
        "d",
        "ar"
      ],
      [
        "d",
        "ra"
      ],
      [
        "d",
        "row"
      ],
      [
        "d",
        "um"
      ],
      [
        "d",
        "sire"
      ],
      [
        "d",
        "vent"
      ],
      [
        "d",
        "orn"
      ],
      [
        "d",
        "dles"
      ],
      [
        "d",
        "cock"
      ],
      [
        "d",
        "ifferent"
      ],
      [
        "d",
        "ronici"
      ],
      [
        "e",
        "h"
      ],
      [
        "e",
        "in"
      ],
      [
        "e",
        "no"
      ],
      [
        "e",
        "my"
      ],
      [
        "e",
        "as"
      ],
      [
        "e",
        "ther"
      ],
      [
        "e",
        "ter"
      ],
      [
        "e",
        "em"
      ],
      [
        "e",
        "ck"
      ],
      [
        "e",
        "ch"
      ],
      [
        "e",
        "by"
      ],
      [
        "e",
        "ble"
      ],
      [
        "e",
        "ive"
      ],
      [
        "e",
        "comes"
      ],
      [
        "e",
        "well"
      ],
      [
        "e",
        "ate"
      ],
      [
        "e",
        "lie"
      ],
      [
        "e",
        "hea"
      ],
      [
        "e",
        "ase"
      ],
      [
        "e",
        "gs"
      ],
      [
        "e",
        "ave"
      ],
      [
        "e",
        "fall"
      ],
      [
        "e",
        "ks"
      ],
      [
        "e",
        "ges"
      ],
      [
        "e",
        "unt"
      ],
      [
        "e",
        "bs"
      ],
      [
        "e",
        "af"
      ],
      [
        "e",
        "ather"
      ],
      [
        "e",
        "ans"
      ],
      [
        "e",
        "cause"
      ],
      [
        "e",
        "count"
      ],
      [
        "e",
        "ves"
      ],
      [
        "e",
        "ek"
      ],
      [
        "e",
        "ekly"
      ],
      [
        "e",
        "lieves"
      ],
      [
        "e",
        "eth"
      ],
      [
        "e",
        "theren"
      ],
      [
        "e",
        "eting"
      ],
      [
        "e",
        "sently"
      ],
      [
        "e",
        "thren"
      ],
      [
        "e",
        "ze"
      ],
      [
        "e",
        "lled"
      ],
      [
        "e",
        "inous"
      ],
      [
        "e",
        "ases"
      ],
      [
        "e",
        "ived"
      ],
      [
        "e",
        "maineth"
      ],
      [
        "e",
        "seech"
      ],
      [
        "e",
        "probation"
      ],
      [
        "e",
        "apons"
      ],
      [
        "e",
        "testable"
      ],
      [
        "e",
        "stable"
      ],
      [
        "f",
        "s"
      ],
      [
        "f",
        "re"
      ],
      [
        "f",
        "as"
      ],
      [
        "f",
        "us"
      ],
      [
        "f",
        "ra"
      ],
      [
        "f",
        "la"
      ],
      [
        "f",
        "lo"
      ],
      [
        "f",
        "les"
      ],
      [
        "f",
        "ough"
      ],
      [
        "f",
        "ence"
      ],
      [
        "f",
        "une"
      ],
      [
        "f",
        "ficer"
      ],
      [
        "g",
        "in"
      ],
      [
        "g",
        "on"
      ],
      [
        "g",
        "ing"
      ],
      [
        "g",
        "la"
      ],
      [
        "g",
        "let"
      ],
      [
        "g",
        "el"
      ],
      [
        "g",
        "ress"
      ],
      [
        "g",
        "ful"
      ],
      [
        "g",
        "ain"
      ],
      [
        "g",
        "arm"
      ],
      [
        "g",
        "ure"
      ],
      [
        "g",
        "ger"
      ],
      [
        "g",
        "men"
      ],
      [
        "g",
        "ies"
      ],
      [
        "g",
        "ged"
      ],
      [
        "g",
        "rum"
      ],
      [
        "g",
        "ue"
      ],
      [
        "g",
        "garly"
      ],
      [
        "g",
        "uile"
      ],
      [
        "g",
        "nifies"
      ],
      [
        "h",
        "ar"
      ],
      [
        "h",
        "us"
      ],
      [
        "h",
        "with"
      ],
      [
        "h",
        "ful"
      ],
      [
        "h",
        "out"
      ],
      [
        "h",
        "arm"
      ],
      [
        "h",
        "read"
      ],
      [
        "h",
        "ment"
      ],
      [
        "h",
        "ought"
      ],
      [
        "h",
        "ance"
      ],
      [
        "h",
        "ness"
      ],
      [
        "h",
        "ted"
      ],
      [
        "h",
        "ings"
      ],
      [
        "h",
        "less"
      ],
      [
        "h",
        "rink"
      ],
      [
        "h",
        "ree"
      ],
      [
        "h",
        "ren"
      ],
      [
        "h",
        "rough"
      ],
      [
        "i",
        "me"
      ],
      [
        "i",
        "thou"
      ],
      [
        "i",
        "pe"
      ],
      [
        "i",
        "ed"
      ],
      [
        "i",
        "ble"
      ],
      [
        "i",
        "mis"
      ],
      [
        "i",
        "ps"
      ],
      [
        "i",
        "ate"
      ],
      [
        "i",
        "ef"
      ],
      [
        "i",
        "fice"
      ],
      [
        "i",
        "red"
      ],
      [
        "i",
        "ors"
      ],
      [
        "i",
        "ers"
      ],
      [
        "i",
        "cks"
      ],
      [
        "i",
        "ece"
      ],
      [
        "i",
        "king"
      ],
      [
        "i",
        "enc"
      ],
      [
        "i",
        "ficing"
      ],
      [
        "i",
        "ghted"
      ],
      [
        "i",
        "ldly"
      ],
      [
        "i",
        "pling"
      ],
      [
        "i",
        "dering"
      ],
      [
        "j",
        "e"
      ],
      [
        "j",
        "i"
      ],
      [
        "j",
        "o"
      ],
      [
        "j",
        "us"
      ],
      [
        "j",
        "il"
      ],
      [
        "k",
        "ly"
      ],
      [
        "k",
        "il"
      ],
      [
        "k",
        "indly"
      ],
      [
        "l",
        "er"
      ],
      [
        "l",
        "ou"
      ],
      [
        "l",
        "on"
      ],
      [
        "l",
        "ter"
      ],
      [
        "l",
        "ts"
      ],
      [
        "l",
        "fare"
      ],
      [
        "l",
        "though"
      ],
      [
        "l",
        "most"
      ],
      [
        "l",
        "ves"
      ],
      [
        "m",
        "n"
      ],
      [
        "m",
        "oo"
      ],
      [
        "m",
        "il"
      ],
      [
        "m",
        "ps"
      ],
      [
        "m",
        "fort"
      ],
      [
        "m",
        "ong"
      ],
      [
        "m",
        "plain"
      ],
      [
        "m",
        "selves"
      ],
      [
        "m",
        "peress"
      ],
      [
        "m",
        "perious"
      ],
      [
        "n",
        "an"
      ],
      [
        "n",
        "st"
      ],
      [
        "n",
        "se"
      ],
      [
        "n",
        "it"
      ],
      [
        "n",
        "not"
      ],
      [
        "n",
        "am"
      ],
      [
        "n",
        "ful"
      ],
      [
        "n",
        "ks"
      ],
      [
        "n",
        "car"
      ],
      [
        "n",
        "ded"
      ],
      [
        "n",
        "ted"
      ],
      [
        "n",
        "ished"
      ],
      [
        "n",
        "sum"
      ],
      [
        "n",
        "ounc"
      ],
      [
        "n",
        "pink"
      ],
      [
        "n",
        "ument"
      ],
      [
        "n",
        "ner"
      ],
      [
        "n",
        "anc"
      ],
      [
        "n",
        "mity"
      ],
      [
        "n",
        "dello"
      ],
      [
        "n",
        "sidering"
      ],
      [
        "n",
        "hallowed"
      ],
      [
        "n",
        "sible"
      ],
      [
        "n",
        "appeas"
      ],
      [
        "n",
        "ishment"
      ],
      [
        "n",
        "human"
      ],
      [
        "n",
        "satiate"
      ],
      [
        "o",
        "es"
      ],
      [
        "o",
        "per"
      ],
      [
        "o",
        "fore"
      ],
      [
        "o",
        "mb"
      ],
      [
        "o",
        "ps"
      ],
      [
        "o",
        "thing"
      ],
      [
        "o",
        "ge"
      ],
      [
        "o",
        "lour"
      ],
      [
        "o",
        "lks"
      ],
      [
        "o",
        "ss"
      ],
      [
        "o",
        "int"
      ],
      [
        "o",
        "som"
      ],
      [
        "o",
        "lish"
      ],
      [
        "o",
        "lla"
      ],
      [
        "o",
        "ved"
      ],
      [
        "o",
        "ving"
      ],
      [
        "o",
        "ceedings"
      ],
      [
        "p",
        "is"
      ],
      [
        "p",
        "ing"
      ],
      [
        "p",
        "ri"
      ],
      [
        "p",
        "ter"
      ],
      [
        "p",
        "ur"
      ],
      [
        "p",
        "al"
      ],
      [
        "p",
        "per"
      ],
      [
        "p",
        "oo"
      ],
      [
        "p",
        "ress"
      ],
      [
        "p",
        "raw"
      ],
      [
        "p",
        "ut"
      ],
      [
        "p",
        "peas"
      ],
      [
        "p",
        "ati"
      ],
      [
        "p",
        "pet"
      ],
      [
        "p",
        "proved"
      ],
      [
        "p",
        "ort"
      ],
      [
        "p",
        "rimis"
      ],
      [
        "p",
        "ons"
      ],
      [
        "r",
        "l"
      ],
      [
        "r",
        "er"
      ],
      [
        "r",
        "ou"
      ],
      [
        "r",
        "ve"
      ],
      [
        "r",
        "ch"
      ],
      [
        "r",
        "ine"
      ],
      [
        "r",
        "ate"
      ],
      [
        "r",
        "ment"
      ],
      [
        "r",
        "ought"
      ],
      [
        "r",
        "tal"
      ],
      [
        "r",
        "ning"
      ],
      [
        "r",
        "pets"
      ],
      [
        "r",
        "ters"
      ],
      [
        "r",
        "unk"
      ],
      [
        "r",
        "bus"
      ],
      [
        "r",
        "haps"
      ],
      [
        "r",
        "ned"
      ],
      [
        "r",
        "sed"
      ],
      [
        "r",
        "fume"
      ],
      [
        "r",
        "riors"
      ],
      [
        "r",
        "quin"
      ],
      [
        "r",
        "lasting"
      ],
      [
        "r",
        "ina"
      ],
      [
        "r",
        "sop"
      ],
      [
        "r",
        "tyr"
      ],
      [
        "r",
        "thless"
      ],
      [
        "r",
        "tsy"
      ],
      [
        "r",
        "rupter"
      ],
      [
        "r",
        "nate"
      ],
      [
        "r",
        "rah"
      ],
      [
        "r",
        "ange"
      ],
      [
        "r",
        "andsire"
      ],
      [
        "r",
        "oudest"
      ],
      [
        "r",
        "force"
      ],
      [
        "r",
        "sooth"
      ],
      [
        "r",
        "atrum"
      ],
      [
        "r",
        "form"
      ],
      [
        "s",
        "k"
      ],
      [
        "s",
        "m"
      ],
      [
        "s",
        "y"
      ],
      [
        "s",
        "us"
      ],
      [
        "s",
        "ses"
      ],
      [
        "s",
        "figure"
      ],
      [
        "s",
        "perate"
      ],
      [
        "s",
        "sio"
      ],
      [
        "s",
        "demon"
      ],
      [
        "s",
        "chance"
      ],
      [
        "s",
        "col"
      ],
      [
        "s",
        "faction"
      ],
      [
        "t",
        "in"
      ],
      [
        "t",
        "ir"
      ],
      [
        "t",
        "ra"
      ],
      [
        "t",
        "ch"
      ],
      [
        "t",
        "ent"
      ],
      [
        "t",
        "ure"
      ],
      [
        "t",
        "urb"
      ],
      [
        "t",
        "rong"
      ],
      [
        "t",
        "cr"
      ],
      [
        "t",
        "rails"
      ],
      [
        "t",
        "ched"
      ],
      [
        "t",
        "ardy"
      ],
      [
        "t",
        "enance"
      ],
      [
        "u",
        "in"
      ],
      [
        "u",
        "ll"
      ],
      [
        "u",
        "ce"
      ],
      [
        "u",
        "man"
      ],
      [
        "u",
        "ch"
      ],
      [
        "u",
        "mu"
      ],
      [
        "u",
        "ts"
      ],
      [
        "u",
        "ff"
      ],
      [
        "u",
        "ite"
      ],
      [
        "u",
        "cen"
      ],
      [
        "u",
        "dest"
      ],
      [
        "u",
        "een"
      ],
      [
        "u",
        "mbly"
      ],
      [
        "u",
        "ious"
      ],
      [
        "u",
        "chio"
      ],
      [
        "u",
        "stian"
      ],
      [
        "u",
        "ties"
      ],
      [
        "u",
        "bt"
      ],
      [
        "u",
        "tius"
      ],
      [
        "u",
        "garsop"
      ],
      [
        "v",
        "o"
      ],
      [
        "v",
        "au"
      ],
      [
        "v",
        "ice"
      ],
      [
        "v",
        "ant"
      ],
      [
        "v",
        "ingmen"
      ],
      [
        "w",
        "l"
      ],
      [
        "w",
        "in"
      ],
      [
        "w",
        "re"
      ],
      [
        "w",
        "ad"
      ],
      [
        "w",
        "ate"
      ],
      [
        "w",
        "ain"
      ],
      [
        "w",
        "ers"
      ],
      [
        "w",
        "int"
      ],
      [
        "w",
        "inte"
      ],
      [
        "x",
        "urious"
      ],
      [
        "y",
        "st"
      ],
      [
        "y",
        "es"
      ],
      [
        "y",
        "thing"
      ],
      [
        "th",
        "with"
      ],
      [
        "th",
        "ful"
      ],
      [
        "an",
        "st"
      ],
      [
        "an",
        "not"
      ],
      [
        "an",
        "ks"
      ],
      [
        "an",
        "ted"
      ],
      [
        "an",
        "ished"
      ],
      [
        "an",
        "oth"
      ],
      [
        "an",
        "io"
      ],
      [
        "er",
        "n"
      ],
      [
        "er",
        "t"
      ],
      [
        "er",
        "ve"
      ],
      [
        "er",
        "en"
      ],
      [
        "er",
        "ing"
      ],
      [
        "er",
        "ine"
      ],
      [
        "er",
        "ent"
      ],
      [
        "er",
        "ate"
      ],
      [
        "er",
        "haps"
      ],
      [
        "er",
        "ess"
      ],
      [
        "er",
        "fume"
      ],
      [
        "er",
        "ious"
      ],
      [
        "er",
        "lasting"
      ],
      [
        "er",
        "rupter"
      ],
      [
        "er",
        "force"
      ],
      [
        "ou",
        "nt"
      ],
      [
        "ou",
        "ng"
      ],
      [
        "ou",
        "bt"
      ],
      [
        "in",
        "h"
      ],
      [
        "in",
        "ce"
      ],
      [
        "in",
        "ch"
      ],
      [
        "in",
        "ded"
      ],
      [
        "in",
        "sa"
      ],
      [
        "in",
        "hum"
      ],
      [
        "in",
        "ner"
      ],
      [
        "and",
        "r"
      ],
      [
        "and",
        "s"
      ],
      [
        "and",
        "ro"
      ],
      [
        "the",
        "llo"
      ],
      [
        "is",
        "figure"
      ],
      [
        "is",
        "chance"
      ],
      [
        "or",
        "m"
      ],
      [
        "or",
        "de"
      ],
      [
        "or",
        "ld"
      ],
      [
        "or",
        "ce"
      ],
      [
        "or",
        "ous"
      ],
      [
        "or",
        "ry"
      ],
      [
        "or",
        "tal"
      ],
      [
        "or",
        "thless"
      ],
      [
        "or",
        "sooth"
      ],
      [
        "at",
        "er"
      ],
      [
        "at",
        "in"
      ],
      [
        "at",
        "en"
      ],
      [
        "at",
        "ter"
      ],
      [
        "at",
        "te"
      ],
      [
        "at",
        "ly"
      ],
      [
        "at",
        "ch"
      ],
      [
        "at",
        "ure"
      ],
      [
        "at",
        "isfaction"
      ],
      [
        "re",
        "m"
      ],
      [
        "re",
        "q"
      ],
      [
        "re",
        "v"
      ],
      [
        "re",
        "y"
      ],
      [
        "re",
        "in"
      ],
      [
        "re",
        "me"
      ],
      [
        "re",
        "ve"
      ],
      [
        "re",
        "co"
      ],
      [
        "re",
        "by"
      ],
      [
        "re",
        "nt"
      ],
      [
        "re",
        "ble"
      ],
      [
        "re",
        "pr"
      ],
      [
        "re",
        "ast"
      ],
      [
        "re",
        "lieve"
      ],
      [
        "re",
        "po"
      ],
      [
        "re",
        "cou"
      ],
      [
        "re",
        "gory"
      ],
      [
        "re",
        "athe"
      ],
      [
        "re",
        "theren"
      ],
      [
        "re",
        "eting"
      ],
      [
        "re",
        "sently"
      ],
      [
        "re",
        "thren"
      ],
      [
        "re",
        "coun"
      ],
      [
        "ll",
        "y"
      ],
      [
        "ll",
        "er"
      ],
      [
        "ll",
        "ain"
      ],
      [
        "ll",
        "ains"
      ],
      [
        "st",
        "e"
      ],
      [
        "st",
        "u"
      ],
      [
        "st",
        "y"
      ],
      [
        "st",
        "or"
      ],
      [
        "st",
        "on"
      ],
      [
        "st",
        "ro"
      ],
      [
        "st",
        "ra"
      ],
      [
        "st",
        "ed"
      ],
      [
        "st",
        "ron"
      ],
      [
        "st",
        "ance"
      ],
      [
        "st",
        "urb"
      ],
      [
        "st",
        "ardy"
      ],
      [
        "st",
        "ee"
      ],
      [
        "st",
        "imony"
      ],
      [
        "me",
        "m"
      ],
      [
        "me",
        "th"
      ],
      [
        "me",
        "an"
      ],
      [
        "me",
        "mo"
      ],
      [
        "me",
        "mor"
      ],
      [
        "me",
        "trius"
      ],
      [
        "me",
        "thi"
      ],
      [
        "me",
        "thin"
      ],
      [
        "no",
        "ther"
      ],
      [
        "no",
        "thin"
      ],
      [
        "he",
        "se"
      ],
      [
        "he",
        "llo"
      ],
      [
        "to",
        "f"
      ],
      [
        "to",
        "g"
      ],
      [
        "to",
        "l"
      ],
      [
        "to",
        "m"
      ],
      [
        "to",
        "n"
      ],
      [
        "to",
        "p"
      ],
      [
        "to",
        "for"
      ],
      [
        "to",
        "ne"
      ],
      [
        "to",
        "fo"
      ],
      [
        "to",
        "get"
      ],
      [
        "to",
        "ckings"
      ],
      [
        "le",
        "n"
      ],
      [
        "le",
        "an"
      ],
      [
        "le",
        "as"
      ],
      [
        "le",
        "sh"
      ],
      [
        "le",
        "ed"
      ],
      [
        "le",
        "ase"
      ],
      [
        "le",
        "ep"
      ],
      [
        "le",
        "dges"
      ],
      [
        "le",
        "ge"
      ],
      [
        "le",
        "ekly"
      ],
      [
        "on",
        "c"
      ],
      [
        "on",
        "er"
      ],
      [
        "on",
        "ou"
      ],
      [
        "on",
        "our"
      ],
      [
        "on",
        "vey"
      ],
      [
        "on",
        "icus"
      ],
      [
        "on",
        "sum"
      ],
      [
        "on",
        "ument"
      ],
      [
        "on",
        "dello"
      ],
      [
        "on",
        "sidering"
      ],
      [
        "on",
        "ici"
      ],
      [
        "on",
        "tent"
      ],
      [
        "ar",
        "y"
      ],
      [
        "ar",
        "th"
      ],
      [
        "ar",
        "er"
      ],
      [
        "ar",
        "thy"
      ],
      [
        "ar",
        "ly"
      ],
      [
        "ar",
        "ch"
      ],
      [
        "ar",
        "ous"
      ],
      [
        "ar",
        "ry"
      ],
      [
        "ar",
        "pets"
      ],
      [
        "ar",
        "ters"
      ],
      [
        "ar",
        "riors"
      ],
      [
        "ar",
        "quin"
      ],
      [
        "ar",
        "tyr"
      ]
    ]
  }
}