{
  "version": "1.0",
  "truncation": null,
  "padding": null,
  "added_tokens": [
    {
      "id": 0,
      "content": "[UNK]",
      "single_word": false,
      "lstrip": false,
      "rstrip": false,
      "normalized": false,
      "special": true
    }
  ],
  "normalizer": null,
  "pre_tokenizer": {
    "type": "ByteLevel",
    "add_prefix_space": true,
    "trim_offsets": true,
    "use_regex": true
  },
  "post_processor": null,
  "decoder": null,
  "model": {
    "type": "BPE",
    "dropout": null,
    "unk_token": "[UNK]",
    "continuing_subword_prefix": null,
    "end_of_word_suffix": null,
    "fuse_unk": false,
    "byte_fallback": false,
    "ignore_merges": false,
    "vocab": {
      "[UNK]": 0,
      "!": 1,
      "'": 2,
      ",": 3,
      ".": 4,
      ":": 5,
      ";": 6,
      "?": 7,
      "a": 8,
      "b": 9,
      "c": 10,
      "d": 11,
      "e": 12,
      "f": 13,
      "g": 14,
      "h": 15,
      "i": 16,
      "j": 17,
      "k": 18,
      "l": 19,
      "m": 20,
      "n": 21,
      "o": 22,
      "p": 23,
      "q": 24,
      "r": 25,
      "s": 26,
      "t": 27,
      "u": 28,
      "v": 29,
      "w": 30,
      "x": 31,
      "y": 32,
      "z": 33,
      "Ġ": 34,
      "Ġt": 35,
      "Ġa": 36,
      "he": 37,
      "Ġs": 38,
      "Ġw": 39,
      "Ġm": 40,
      "ou": 41,
      "Ġh": 42,
      "re": 43,
      "Ġi": 44,
      "nd": 45,
      "Ġf": 46,
      "Ġb": 47,
      "Ġthe": 48,
      "at": 49,
      "Ġth": 50,
      "Ġand": 51,
      "er": 52,
      "Ġo": 53,
      "Ġl": 54,
      "is": 55,
      "ll": 56,
      "Ġc": 57,
      "or": 58,
      "Ġn": 59,
      "in": 60,
      "Ġhe": 61,
      "Ġd": 62,
      "Ġto": 63,
      "Ġg": 64,
      "Ġe": 65,
      "st": 66,
      "th": 67,
      "ar": 68,
      "Ġno": 69,
      "om": 70,
      "ve": 71,
      "Ġbe": 72,
      "Ġp": 73,
      "an": 74,
      "Ġy": 75,
      "on": 76,
      "Ġwi": 77,
      "es": 78,
      "Ġmy": 79,
      "Ġyou": 80,
      "ow": 81,
      "ir": 82,
      "Ġwh": 83,
      "le": 84,
      "Ġr": 85,
      "ing": 86,
      "'d": 87,
      "Ġin": 88,
      "im": 89,
      "Ġof": 90,
      "ld": 91,
      "us": 92,
      "et": 93,
      "'s": 94,
      "Ġfor": 95,
      "nt": 96,
      "Ġwe": 97,
      "Ġhis": 98,
      "Ġk": 99,
      "Ġthat": 100,
      "Ġsh": 101,
      "Ġha": 102,
      "Ġme": 103,
      "ut": 104,
      "Ġhim": 105,
      "ur": 106,
      "se": 107,
      "ie": 108,
      "ce": 109,
      "Ġma": 110,
      "ome": 111,
      "Ġwith": 112,
      "all": 113,
      "oo": 114,
      "it": 115,
      "her": 116,
      "Ġthou": 117,
      "Ġu": 118,
      "our": 119,
      "Ġde": 120,
      "Ġher": 121,
      "Ġbut": 122,
      "Ġthy": 123,
      "ad": 124,
      "as": 125,
      "Ġli": 126,
      "Ġis": 127,
      "Ġre": 128,
      "Ġas": 129,
      "ay": 130,
      "Ġkn": 131,
      "Ġthis": 132,
      "ter": 133,
      "ath": 134,
      "ed": 135,
      "Ġst": 136,
      "Ġnot": 137,
      "Ġfr": 138,
      "gh": 139,
      "ore": 140,
      "Ġso": 141,
      "Ġhow": 142,
      "Ġon": 143,
      "ke": 144,
      "al": 145,
      "Ġit": 146,
      "Ġse": 147,
      "Ġtr": 148,
      "Ġwhat": 149,
      "Ġgo": 150,
      "Ġshe": 151,
      "Ġpr": 152,
      "Ġour": 153,
      "mp": 154,
      "ather": 155,
      "ck": 156,
      "Ġan": 157,
      "Ġfi": 158,
      "Ġwas": 159,
      "ly": 160,
      "Ġthere": 161,
      "ch": 162,
      "Ġtheir": 163,
      "ould": 164,
      "ave": 165,
      "ght": 166,
      "ood": 167,
      "Ġlet": 168,
      "Ġwill": 169,
      "Ġshall": 170,
      "Ġfa": 171,
      "ver": 172,
      "Ġsir": 173,
      "Ġfather": 174,
      "Ġman": 175,
      "ear": 176,
      "id": 177,
      "Ġat": 178,
      "Ġgr": 179,
      "um": 180,
      "Ġam": 181,
      "ast": 182,
      "ous": 183,
      "Ġcom": 184,
      "fore": 185,
      "Ġta": 186,
      "Ġthey": 187,
      "il": 188,
      "ill": 189,
      "Ġall": 190,
      "ell": 191,
      "Ġdo": 192,
      "Ġbr": 193,
      "ine": 194,
      "Ġhave": 195,
      "Ġco": 196,
      "Ġsee": 197,
      "ius": 198,
      "en": 199,
      "Ġun": 200,
      "Ġmast": 201,
      "tis": 202,
      "Ġcome": 203,
      "ock": 204,
      "Ġby": 205,
      "urn": 206,
      "Ġthee": 207,
      "Ġ'": 208,
      "ot": 209,
      "pe": 210,
      "res": 211,
      "Ġfire": 212,
      "Ġyour": 213,
      "Ġrome": 214,
      "ble": 215,
      "Ġmaster": 216,
      "Ġsw": 217,
      "Ġnow": 218,
      "Ġare": 219,
      "fe": 220,
      "em": 221,
      "Ġwor": 222,
      "Ġhor": 223,
      "Ġcur": 224,
      "ul": 225,
      "Ġever": 226,
      "Ġhath": 227,
      "Ġne": 228,
      "Ġor": 229,
      "Ġlu": 230,
      "Ġwho": 231,
      "Ġla": 232,
      "un": 233,
      "Ġif": 234,
      "ies": 235,
      "Ġhere": 236,
      "Ġwhy": 237,
      "Ġemp": 238,
      "Ġhand": 239,
      "Ġgood": 240,
      "ain": 241,
      "Ġle": 242,
      "ress": 243,
      "Ġknock": 244,
      "Ġshould": 245,
      "ent": 246,
      "ive": 247,
      "Ġent": 248,
      "Ġfrom": 249,
      "Ġthan": 250,
      "pon": 251,
      "Ġwere": 252,
      "Ġknow": 253,
      "iend": 254,
      "Ġmi": 255,
      "Ġay": 256,
      "ful": 257,
      "Ġch": 258,
      "Ġal": 259,
      "ig": 260,
      "qu": 261,
      "Ġsay": 262,
      "Ġlive": 263,
      "Ġtit": 264,
      "out": 265,
      "ist": 266,
      "Ġmake": 267,
      "Ġsu": 268,
      "ate": 269,
      "Ġwhe": 270,
      "op": 271,
      "row": 272,
      "Ġex": 273,
      "lf": 274,
      "Ġwould": 275,
      "Ġcomes": 276,
      "Ġenter": 277,
      "Ġthem": 278,
      "Ġfriend": 279,
      "Ġtru": 280,
      "Ġen": 281,
      "Ġgoth": 282,
      "Ġtherefore": 283,
      "Ġcurtis": 284,
      "Ġra": 285,
      "one": 286,
      "ra": 287,
      "ic": 288,
      "Ġgive": 289,
      "Ġaw": 290,
      "Ġgre": 291,
      "Ġbo": 292,
      "ron": 293,
      "Ġsat": 294,
      "ord": 295,
      "Ġj": 296,
      "Ġwhi": 297,
      "ep": 298,
      "Ġmar": 299,
      "Ġbeg": 300,
      "bs": 301,
      "Ġupon": 302,
      "Ġhorse": 303,
      "Ġcall": 304,
      "io": 305,
      "Ġcon": 306,
      "eror": 307,
      "Ġdeath": 308,
      "Ġlife": 309,
      "Ġcan": 310,
      "Ġmu": 311,
      "oman": 312,
      "Ġfriends": 313,
      "ang": 314,
      "other": 315,
      "ight": 316,
      "Ġemperor": 317,
      "Ġnoble": 318,
      "Ġus": 319,
      "el": 320,
      "Ġear": 321,
      "Ġtoo": 322,
      "Ġv": 323,
      "Ġbre": 324,
      "Ġold": 325,
      "ri": 326,
      "ac": 327,
      "Ġtri": 328,
      "oud": 329,
      "Ġbl": 330,
      "Ġluc": 331,
      "Ġper": 332,
      "Ġunc": 333,
      "ion": 334,
      "Ġspe": 335,
      "ak": 336,
      "Ġout": 337,
      "Ġlo": 338,
      "Ġaway": 339,
      "ia": 340,
      "Ġcold": 341,
      "erv": 342,
      "Ġface": 343,
      "les": 344,
      "Ġsl": 345,
      "ink": 346,
      "Ġhear": 347,
      "Ġlike": 348,
      "ol": 349,
      "ice": 350,
      "Ġbur": 351,
      "Ġspeak": 352,
      "Ġoff": 353,
      "Ġuncle": 354,
      "Ġtell": 355,
      "Ġson": 356,
      "oul": 357,
      "Ġfir": 358,
      "Ġlucius": 359,
      "ish": 360,
      "Ġbefore": 361,
      "Ġlav": 362,
      "Ġsta": 363,
      "inia": 364,
      "iss": 365,
      "Ġwhich": 366,
      "Ġsaturn": 367,
      "pp": 368,
      "Ġhang": 369,
      "arm": 370,
      "are": 371,
      "ious": 372,
      "Ġmind": 373,
      "Ġmist": 374,
      "Ġwell": 375,
      "Ġforth": 376,
      "aven": 377,
      "ears": 378,
      "Ġtill": 379,
      "Ġsis": 380,
      "Ġmany": 381,
      "Ġlavinia": 382,
      "Ġbrother": 383,
      "Ġfirst": 384,
      "Ġsister": 385,
      "Ġad": 386,
      "Ġmay": 387,
      "Ġmistress": 388,
      "self": 389,
      "ire": 390,
      "Ġdead": 391,
      "Ġcr": 392,
      "Ġbeing": 393,
      "Ġnor": 394,
      "Ġtake": 395,
      "ps": 396,
      "lie": 397,
      "gs": 398,
      "Ġturn": 399,
      "Ġtam": 400,
      "Ġey": 401,
      "Ġba": 402,
      "am": 403,
      "ure": 404,
      "Ġlord": 405,
      "Ġob": 406,
      "arb": 407,
      "Ġenem": 408,
      "Ġgreat": 409,
      "est": 410,
      "Ġsp": 411,
      "Ġproud": 412,
      "ile": 413,
      "Ġ,": 414,
      "Ġtw": 415,
      "irt": 416,
      "Ġearth": 417,
      "unt": 418,
      "Ġqu": 419,
      "Ġsc": 420,
      "ft": 421,
      "Ġthine": 422,
      "ide": 423,
      "own": 424,
      "Ġchi": 425,
      "Ġserv": 426,
      "'ll": 427,
      "ks": 428,
      "Ġthen": 429,
      "ory": 430,
      "Ġhead": 431,
      "Ġbeast": 432,
      "Ġple": 433,
      "ial": 434,
      "Ġmore": 435,
      "Ġswe": 436,
      "der": 437,
      "ise": 438,
      "Ġdes": 439,
      "Ġmad": 440,
      "Ġwhere": 441,
      "Ġnew": 442,
      "Ġtitus": 443,
      "Ġchild": 444,
      "Ġaem": 445,
      "Ġkiss": 446,
      "ook": 447,
      "Ġar": 448,
      "Ġsor": 449,
      "Ġtears": 450,
      "Ġwoman": 451,
      "ound": 452,
      "Ġfell": 453,
      "Ġread": 454,
      "Ġburial": 455,
      "Ġaemil": 456,
      "ges": 457,
      "Ġstand": 458,
      "Ġready": 459,
      "ought": 460,
      "rew": 461,
      "ings": 462,
      "thing": 463,
      "Ġsweet": 464,
      "Ġmat": 465,
      "Ġexe": 466,
      "Ġsight": 467,
      "Ġaemilius": 468,
      "Ġdev": 469,
      "Ġbrothers": 470,
      "Ġho": 471,
      "Ġsent": 472,
      "Ġro": 473,
      "te": 474,
      "for": 475,
      "ven": 476,
      "Ġgod": 477,
      "Ġpro": 478,
      "Ġpray": 479,
      "Ġimp": 480,
      "ief": 481,
      "ite": 482,
      "Ġfear": 483,
      "Ġtale": 484,
      "lieve": 485,
      "Ġgrief": 486,
      "cus": 487,
      "Ġwel": 488,
      "Ġtrib": 489,
      "lp": 490,
      "lt": 491,
      "Ġfall": 492,
      "Ġfoo": 493,
      "mo": 494,
      "Ġpl": 495,
      "Ġhad": 496,
      "Ġunt": 497,
      "Ġblood": 498,
      "Ġlast": 499,
      "Ġhelp": 500,
      "ms": 501,
      "ue": 502,
      "Ġrep": 503,
      "ru": 504,
      "Ġaar": 505,
      "Ġdut": 506,
      "Ġwife": 507,
      "Ġkill": 508,
      "Ġtribun": 509,
      "Ġwron": 510,
      "Ġfie": 511,
      "Ġthrow": 512,
      "Ġfu": 513,
      "Ġlim": 514,
      "vey": 515,
      "Ġdeed": 516,
      "Ġword": 517,
      "Ġexeunt": 518,
      "tle": 519,
      "Ġdown": 520,
      "ess": 521,
      "Ġwithal": 522,
      "Ġmarcus": 523,
      "hed": 524,
      "ough": 525,
      "Ġthese": 526,
      "Ġtwo": 527,
      "Ġwelc": 528,
      "Ġunto": 529,
      "Ġaaron": 530,
      "Ġwo": 531,
      "Ġlit": 532,
      "Ġgrave": 533,
      "Ġmuch": 534,
      "Ġlov": 535,
      "Ġgent": 536,
      "Ġpre": 537,
      "ets": 538,
      "Ġworst": 539,
      "Ġenemies": 540,
      "ness": 541,
      "Ġtal": 542,
      "Ġwarm": 543,
      "Ġfoul": 544,
      "Ġlook": 545,
      "ance": 546,
      "iel": 547,
      "Ġevery": 548,
      "Ġwhen": 549,
      "Ġconvey": 550,
      "Ġlimbs": 551,
      "ts": 552,
      "dges": 553,
      "ry": 554,
      "Ġsound": 555,
      "Ġbear": 556,
      "Ġtrue": 557,
      "Ġwithin": 558,
      "Ġworth": 559,
      "Ġhors": 560,
      "Ġboy": 561,
      "old": 562,
      "Ġcomp": 563,
      "Ġwelcome": 564,
      "Ġsaturnine": 565,
      "Ġlittle": 566,
      "Ġgentle": 567,
      "rel": 568,
      "Ġquar": 569,
      "Ġow": 570,
      "Ġmyself": 571,
      "ree": 572,
      "Ġheaven": 573,
      "Ġnothing": 574,
      "Ġfarew": 575,
      "Ġdevil": 576,
      "Ġmust": 577,
      "Ġhorses": 578,
      "Ġquarrel": 579,
      "ard": 580,
      "Ġfarewell": 581,
      "Ġmatter": 582,
      "Ġgoths": 583,
      "ment": 584,
      "Ġfe": 585,
      "very": 586,
      "Ġot": 587,
      "Ġbeen": 588,
      "Ġwit": 589,
      "Ġdone": 590,
      "ro": 591,
      "Ġte": 592,
      "Ġsen": 593,
      "gg": 594,
      "iv": 595,
      "Ġhou": 596,
      "Ġca": 597,
      "Ġthank": 598,
      "Ġpet": 599,
      "Ġwal": 600,
      "Ġmo": 601,
      "Ġhum": 602,
      "Ġlips": 603,
      "ers": 604,
      "ters": 605,
      "ff": 606,
      "ors": 607,
      "Ġwea": 608,
      "Ġrest": 609,
      "Ġlust": 610,
      "Ġpile": 611,
      "Ġweep": 612,
      "if": 613,
      "ne": 614,
      "per": 615,
      "Ġsac": 616,
      "Ġbarb": 617,
      "Ġbelieve": 618,
      "Ġfro": 619,
      "ip": 620,
      "nc": 621,
      "Ġban": 622,
      "eric": 623,
      "Ġpo": 624,
      "Ġsheath": 625,
      "Ġany": 626,
      "rif": 627,
      "Ġobl": 628,
      "Ġwalter": 629,
      "mb": 630,
      "Ġnd": 631,
      "Ġmour": 632,
      "outh": 633,
      "Ġhate": 634,
      "isf": 635,
      "Ġcar": 636,
      "Ġpra": 637,
      "Ġchol": 638,
      "ronic": 639,
      "'?": 640,
      "by": 641,
      "ea": 642,
      "gar": 643,
      "lour": 644,
      "ph": 645,
      "Ġah": 646,
      "Ġside": 647,
      "Ġfine": 648,
      "imm": 649,
      "Ġhast": 650,
      "Ġmeed": 651,
      "Ġcoat": 652,
      "Ġobliv": 653,
      "ith": 654,
      "Ġtig": 655,
      "Ġau": 656,
      "Ġcl": 657,
      "ora": 658,
      "Ġgat": 659,
      "arous": 660,
      "ant": 661,
      "Ġint": 662,
      "ush": 663,
      "Ġdear": 664,
      "Ġwhose": 665,
      "Ġexit": 666,
      "Ġwoe": 667,
      "Ġown": 668,
      "ind": 669,
      "ma": 670,
      "Ġsome": 671,
      "Ġmouth": 672,
      "ort": 673,
      "Ġgate": 674,
      "Ġnone": 675,
      "Ġbec": 676,
      "Ġbet": 677,
      "Ġyet": 678,
      "Ġmen": 679,
      "Ġrece": 680,
      "Ġtrimm": 681,
      "Ġoffice": 682,
      "Ġfoot": 683,
      "Ġsacrif": 684,
      "Ġmourn": 685,
      "ha": 686,
      "ty": 687,
      "Ġhat": 688,
      "Ġdirt": 689,
      "Ġbell": 690,
      "Ġwilt": 691,
      "Ġraven": 692,
      "Ġsirs": 693,
      "ume": 694,
      "Ġsword": 695,
      "Ġtitles": 696,
      "Ġju": 697,
      "Ġcons": 698,
      "Ġtamora": 699,
      "Ġarms": 700,
      "Ġwrongs": 701,
      "Ġweapon": 702,
      "Ġwood": 703,
      "Ġandronic": 704,
      "Ġnay": 705,
      "Ġdid": 706,
      "Ġgone": 707,
      "Ġpu": 708,
      "Ġwipe": 709,
      "Ġkather": 710,
      "Ġstri": 711,
      "Ġneat": 712,
      "Ġheard": 713,
      "Ġserving": 714,
      "Ġheads": 715,
      "Ġsheathing": 716,
      "inus": 717,
      "Ġheel": 718,
      "Ġpres": 719,
      "ans": 720,
      "ong": 721,
      "Ġroman": 722,
      "Ġinter": 723,
      "ient": 724,
      "Ġsoon": 725,
      "mpt": 726,
      "Ġfair": 727,
      "Ġatte": 728,
      "Ġgrac": 729,
      "Ġdoom": 730,
      "Ġswear": 731,
      "Ġknown": 732,
      "ame": 733,
      "Ġduty": 734,
      "Ġcholeric": 735,
      "Ġoblivion": 736,
      "Ġtiger": 737,
      "Ġgates": 738,
      "ose": 739,
      "Ġtire": 740,
      "Ġaf": 741,
      "Ġapp": 742,
      "Ġmut": 743,
      "Ġhot": 744,
      "Ġbon": 745,
      "Ġlad": 746,
      "ished": 747,
      "Ġmeans": 748,
      "Ġfru": 749,
      "Ġalarb": 750,
      "Ġlives": 751,
      "Ġrap": 752,
      "Ġperha": 753,
      "Ġeye": 754,
      "ren": 755,
      "Ġnath": 756,
      "Ġdet": 757,
      "Ġdie": 758,
      "Ġbeh": 759,
      "use": 760,
      "Ġleft": 761,
      "Ġsure": 762,
      "Ġbegin": 763,
      "Ġvill": 764,
      "Ġperfor": 765,
      "Ġbase": 766,
      "Ġloving": 767,
      "Ġbarbarous": 768,
      "Ġinto": 769,
      "Ġbetter": 770,
      "Ġafter": 771,
      "Ġag": 772,
      "Ġbid": 773,
      "Ġthus": 774,
      "Ġnear": 775,
      "Ġgl": 776,
      "oof": 777,
      "Ġstay": 778,
      "Ġfind": 779,
      "aves": 780,
      "Ġlaw": 781,
      "Ġbreast": 782,
      "Ġslave": 783,
      "Ġfull": 784,
      "Ġtalk": 785,
      "Ġpraise": 786,
      "Ġreceive": 787,
      "Ġattempt": 788,
      "Ġtired": 789,
      "Ġbones": 790,
      "ng": 791,
      "zen": 792,
      "Ġsun": 793,
      "Ġfet": 794,
      "Ġkne": 795,
      "Ġmasters": 796,
      "Ġmade": 797,
      "Ġkisses": 798,
      "Ġsorrow": 799,
      "Ġtribunes": 800,
      "Ġwitness": 801,
      "Ġravenous": 802,
      "Ġfruit": 803,
      "Ġperhaps": 804,
      "Ġdetest": 805,
      "ack": 806,
      "raw": 807,
      "Ġbeastly": 808,
      "Ġsoundly": 809,
      "Ġalarbus": 810,
      "Ġnathan": 811,
      "Ġvillain": 812,
      "Ġhi": 813,
      "Ġfol": 814,
      "aded": 815,
      "pper": 816,
      "Ġhouse": 817,
      "Ġmutius": 818,
      "Ġglad": 819,
      "Ġsoul": 820,
      "Ġbeat": 821,
      "owing": 822,
      "Ġone": 823,
      "Ġempress": 824,
      "Ġshouldst": 825,
      "Ġpledges": 826,
      "Ġworthy": 827,
      "Ġgracious": 828,
      "Ġfolks": 829,
      "hes": 830,
      "Ġthings": 831,
      "Ġhew": 832,
      "ither": 833,
      "Ġdeep": 834,
      "Ġladder": 835,
      "Ġlawful": 836,
      "Ġshow": 837,
      "mpets": 838,
      "Ġsaturninus": 839,
      "Ġnews": 840,
      "Ġsorry": 841,
      "Ġnathaniel": 842,
      "ount": 843,
      "Ġinc": 844,
      "Ġtruth": 845,
      "Ġandronicus": 846,
      "Ġpit": 847,
      "ony": 848,
      "Ġmight": 849,
      "Ġfellow": 850,
      "Ġer": 851,
      "Ġbrought": 852,
      "Ġtrumpets": 853,
      "Ġthyself": 854,
      "Ġ.": 855,
      "Ġpie": 856,
      "Ġcompan": 857,
      "Ġpiece": 858,
      "Ġve": 859,
      "Ġwre": 860,
      "Ġere": 861,
      "Ġwret": 862,
      "me": 863,
      "ence": 864,
      "Ġtha": 865,
      "Ġvery": 866,
      "Ġfat": 867,
      "ds": 868,
      "Ġcry": 869,
      "Ġbir": 870,
      "ison": 871,
      "Ġprison": 872,
      "ss": 873,
      "Ġbirds": 874,
      "Ġcu": 875,
      "Ġll": 876,
      "Ġpe": 877,
      "Ġhea": 878,
      "Ġshal": 879,
      "Ġdea": 880,
      "Ġled": 881,
      "ppe": 882,
      "si": 883,
      "Ġou": 884,
      "Ġind": 885,
      "Ġda": 886,
      "Ġbro": 887,
      "de": 888,
      "som": 889,
      "Ġwar": 890,
      "Ġble": 891,
      "Ġcle": 892,
      "int": 893,
      "ows": 894,
      "Ġven": 895,
      "Ġwer": 896,
      "ves": 897,
      "Ġbef": 898,
      "Ġshad": 899,
      "Ġhal": 900,
      "Ġup": 901,
      "Ġdem": 902,
      "Ġuna": 903,
      "Ġperf": 904,
      "Ġproudest": 905,
      "ge": 906,
      "Ġsig": 907,
      "Ġmur": 908,
      "Ġgar": 909,
      "Ġince": 910,
      "Ġwelf": 911,
      "Ġmeat": 912,
      "urb": 913,
      "Ġret": 914,
      "Ġste": 915,
      "Ġbosom": 916,
      "Ġsensi": 917,
      "Ġlusty": 918,
      "Ġpoint": 919,
      "'re": 920,
      "ek": 921,
      "fu": 922,
      "gory": 923,
      "Ġtre": 924,
      "Ġsk": 925,
      "Ġsmo": 926,
      "Ġmone": 927,
      "Ġice": 928,
      "Ġlink": 929,
      "Ġdist": 930,
      "Ġdam": 931,
      "Ġph": 932,
      "Ġfort": 933,
      "Ġund": 934,
      "Ġrequ": 935,
      "Ġdost": 936,
      "Ġcolour": 937,
      "Ġragg": 938,
      "Ġwhile": 939,
      "Ġtook": 940,
      "Ġgriefs": 941,
      "Ġfeel": 942,
      "Ġpeter": 943,
      "Ġhumb": 944,
      "Ġcuff": 945,
      "ppeas": 946,
      "Ġdagg": 947,
      "Ġdemet": 948,
      "Ġmurd": 949,
      "Ġincen": 950,
      "king": 951,
      "men": 952,
      "Ġsle": 953,
      "Ġsad": 954,
      "Ġway": 955,
      "Ġoath": 956,
      "Ġnat": 957,
      "ved": 958,
      "vent": 959,
      "Ġpip": 960,
      "Ġwhom": 961,
      "Ġstone": 962,
      "Ġfaith": 963,
      "Ġune": 964,
      "Ġleast": 965,
      "Ġraise": 966,
      "Ġgregory": 967,
      "Ġcanst": 968,
      "Ġenemy": 969,
      "Ġque": 970,
      "Ġprod": 971,
      "Ġdeaf": 972,
      "Ġclean": 973,
      "Ġshadows": 974,
      "Ġwelfare": 975,
      "Ġsteel": 976,
      "Ġsky": 977,
      "Ġsmoke": 978,
      "Ġmoney": 979,
      "dy": 980,
      "gure": 981,
      "rius": 982,
      "tion": 983,
      "Ġtum": 984,
      "Ġser": 985,
      "Ġwin": 986,
      "Ġmort": 987,
      "Ġfl": 988,
      "Ġthr": 989,
      "Ġeat": 990,
      "Ġpure": 991,
      "Ġral": 992,
      "sel": 993,
      "ied": 994,
      "Ġsold": 995,
      "Ġang": 996,
      "Ġletters": 997,
      "Ġgrant": 998,
      "Ġdoth": 999,
      "Ġunk": 1000,
      "Ġva": 1001,
      "riors": 1002,
      "fort": 1003,
      "Ġimpat": 1004,
      "Ġimper": 1005,
      "Ġshalt": 1006,
      "Ġunappeas": 1007,
      "Ġsensible": 1008,
      "Ġdamn": 1009,
      "Ġragged": 1010,
      "Ġhumbly": 1011,
      "Ġdagger": 1012,
      "Ġincense": 1013,
      "bat": 1014,
      "last": 1015,
      "rous": 1016,
      "we": 1017,
      "xe": 1018,
      "Ġac": 1019,
      "Ġmir": 1020,
      "Ġfun": 1021,
      "Ġfiend": 1022,
      "Ġop": 1023,
      "Ġcat": 1024,
      "Ġdig": 1025,
      "Ġga": 1026,
      "Ġrave": 1027,
      "Ġrite": 1028,
      "Ġmeth": 1029,
      "ienc": 1030,
      "Ġlight": 1031,
      "Ġres": 1032,
      "Ġstra": 1033,
      "Ġfrat": 1034,
      "Ġsoft": 1035,
      "Ġtrun": 1036,
      "Ġmanes": 1037,
      "Ġcomb": 1038,
      "Ġcob": 1039,
      "Ġswep": 1040,
      "Ġempe": 1041,
      "Ġrav": 1042,
      "Ġboth": 1043,
      "Ġbody": 1044,
      "Ġcried": 1045,
      "Ġlords": 1046,
      "irty": 1047,
      "Ġplu": 1048,
      "Ġrepro": 1049,
      "Ġtribune": 1050,
      "Ġother": 1051,
      "Ġbelievest": 1052,
      "Ġfrost": 1053,
      "Ġhateful": 1054,
      "isfac": 1055,
      "Ġaught": 1056,
      "Ġreceived": 1057,
      "Ġperfume": 1058,
      "Ġsign": 1059,
      "Ġtreble": 1060,
      "Ġdisturb": 1061,
      "Ġrequite": 1062,
      "Ġfaithful": 1063,
      "Ġqueen": 1064,
      "Ġprodig": 1065,
      "Ġgranted": 1066,
      "ian": 1067,
      "iers": 1068,
      "pets": 1069,
      "rum": 1070,
      "xper": 1071,
      "Ġtar": 1072,
      "Ġwat": 1073,
      "Ġwoo": 1074,
      "ounc": 1075,
      "nds": 1076,
      "Ġburn": 1077,
      "Ġthre": 1078,
      "Ġthirty": 1079,
      "Ġhen": 1080,
      "Ġpow": 1081,
      "Ġpill": 1082,
      "Ġyea": 1083,
      "Ġran": 1084,
      "Ġinh": 1085,
      "Ġinte": 1086,
      "Ġshut": 1087,
      "Ġrec": 1088,
      "Ġrelie": 1089,
      "Ġknit": 1090,
      "Ġstum": 1091,
      "Ġstain": 1092,
      "Ġstron": 1093,
      "Ġtrot": 1094,
      "Ġfigure": 1095,
      "Ġcomfort": 1096,
      "Ġbrid": 1097,
      "Ġbrush": 1098,
      "Ġworld": 1099,
      "ult": 1100,
      "Ġlead": 1101,
      "Ġalas": 1102,
      "Ġbeggar": 1103,
      "Ġtripe": 1104,
      "Ġsons": 1105,
      "Ġadam": 1106,
      "Ġadvent": 1107,
      "Ġtames": 1108,
      "Ġbaby": 1109,
      "Ġearthy": 1110,
      "Ġpleas": 1111,
      "Ġfeed": 1112,
      "Ġsenat": 1113,
      "Ġmoor": 1114,
      "Ġweeps": 1115,
      "Ġweeping": 1116,
      "Ġconsum": 1117,
      "Ġappro": 1118,
      "Ġheav": 1119,
      "Ġwarriors": 1120,
      "Ġhalter": 1121,
      "Ġreturn": 1122,
      "ekly": 1123,
      "Ġdemetrius": 1124,
      "Ġwinter": 1125,
      "Ġmortal": 1126,
      "Ġimperious": 1127,
      "Ġmiry": 1128,
      "Ġtrunk": 1129,
      "Ġswept": 1130,
      "lain": 1131,
      "Ġtree": 1132,
      "Ġaim": 1133,
      "Ġwall": 1134,
      "rent": 1135,
      "athe": 1136,
      "Ġlist": 1137,
      "Ġcit": 1138,
      "Ġcea": 1139,
      "Ġnour": 1140,
      "Ġname": 1141,
      "Ġdr": 1142,
      "Ġdisf": 1143,
      "Ġeven": 1144,
      "Ġemb": 1145,
      "Ġbese": 1146,
      "Ġpa": 1147,
      "iron": 1148,
      "let": 1149,
      "Ġrus": 1150,
      "Ġrit": 1151,
      "Ġrun": 1152,
      "Ġweed": 1153,
      "Ġmaid": 1154,
      "Ġrema": 1155,
      "Ġasle": 1156,
      "Ġknaves": 1157,
      "Ġstrew": 1158,
      "Ġonce": 1159,
      "Ġpron": 1160,
      "chio": 1161,
      "Ġamb": 1162,
      "Ġamiss": 1163,
      "ilip": 1164,
      "Ġdog": 1165,
      "ineth": 1166,
      "Ġnever": 1167,
      "une": 1168,
      "quin": 1169,
      "Ġtitle": 1170,
      "Ġsuff": 1171,
      "Ġawh": 1172,
      "Ġsatisfac": 1173,
      "Ġuse": 1174,
      "Ġtooth": 1175,
      "Ġblue": 1176,
      "Ġslow": 1177,
      "inks": 1178,
      "Ġhears": 1179,
      "Ġburst": 1180,
      "Ġtwain": 1181,
      "Ġdesp": 1182,
      "Ġmatch": 1183,
      "Ġpla": 1184,
      "Ġlasts": 1185,
      "rup": 1186,
      "Ġthrown": 1187,
      "Ġfust": 1188,
      "Ġpetru": 1189,
      "Ġhumour": 1190,
      "iffe": 1191,
      "Ġcoats": 1192,
      "indly": 1193,
      "Ġbelly": 1194,
      "Ġstriking": 1195,
      "Ġwert": 1196,
      "Ġunder": 1197,
      "Ġralph": 1198,
      "Ġangel": 1199,
      "lasting": 1200,
      "webs": 1201,
      "Ġfuner": 1202,
      "Ġpluck": 1203,
      "Ġothers": 1204,
      "Ġsignif": 1205,
      "Ġwater": 1206,
      "Ġpillow": 1207,
      "Ġstrong": 1208,
      "Ġsuffer": 1209,
      "bst": 1210,
      "ech": 1211,
      "kn": 1212,
      "lar": 1213,
      "ning": 1214,
      "some": 1215,
      "soo": 1216,
      "sop": 1217,
      "sio": 1218,
      "Ġsin": 1219,
      "Ġwaded": 1220,
      "Ġmon": 1221,
      "Ġharm": 1222,
      "rest": 1223,
      "Ġima": 1224,
      "Ġfit": 1225,
      "Ġfood": 1226,
      "Ġfles": 1227,
      "Ġlay": 1228,
      "Ġlop": 1229,
      "Ġcas": 1230,
      "Ġcast": 1231,
      "Ġni": 1232,
      "ina": 1233,
      "Ġdraw": 1234,
      "Ġtomb": 1235,
      "Ġput": 1236,
      "Ġpear": 1237,
      "Ġpard": 1238,
      "Ġring": 1239,
      "Ġrid": 1240,
      "Ġshr": 1241,
      "Ġshore": 1242,
      "Ġhalf": 1243,
      "Ġmeet": 1244,
      "Ġrede": 1245,
      "Ġkna": 1246,
      "Ġstop": 1247,
      "Ġgover": 1248,
      "Ġanc": 1249,
      "Ġfive": 1250,
      "Ġgrum": 1251,
      "ils": 1252,
      "Ġseek": 1253,
      "Ġunp": 1254,
      "bled": 1255,
      "Ġswore": 1256,
      "Ġcurse": 1257,
      "Ġlaid": 1258,
      "Ġchiron": 1259,
      "Ġsugar": 1260,
      "Ġsubst": 1261,
      "icing": 1262,
      "Ġjill": 1263,
      "Ġbret": 1264,
      "less": 1265,
      "Ġheart": 1266,
      "Ġstabs": 1267,
      "Ġcro": 1268,
      "Ġscore": 1269,
      "Ġdesper": 1270,
      "Ġfool": 1271,
      "Ġothe": 1272,
      "Ġcau": 1273,
      "Ġbanish": 1274,
      "Ġbeca": 1275,
      "Ġtrimming": 1276,
      "tyr": 1277,
      "Ġswords": 1278,
      "Ġweapons": 1279,
      "Ġpreserv": 1280,
      "Ġaglet": 1281,
      "Ġpities": 1282,
      "Ġpeop": 1283,
      "Ġbroil": 1284,
      "Ġvenice": 1285,
      "Ġgarters": 1286,
      "Ġphilip": 1287,
      "Ġsleekly": 1288,
      "Ġunexper": 1289,
      "Ġtumult": 1290,
      "Ġserve": 1291,
      "Ġsoldiers": 1292,
      "Ġimpatient": 1293,
      "bation": 1294,
      "Ġdigress": 1295,
      "Ġresc": 1296,
      "Ġfratrum": 1297,
      "Ġprodigies": 1298,
      "Ġburning": 1299,
      "Ġthread": 1300,
      "Ġinhum": 1301,
      "Ġbridle": 1302,
      "Ġleading": 1303,
      "Ġbeggarly": 1304,
      "Ġsenators": 1305,
      "Ġapproved": 1306,
      "Ġcease": 1307,
      "Ġembra": 1308,
      "Ġrites": 1309,
      "Ġpronounc": 1310,
      "Ġpearl": 1311,
      "bb": 1312,
      "not": 1313,
      "Ġtou": 1314,
      "Ġaxe": 1315,
      "atly": 1316,
      "Ġloud": 1317,
      "lla": 1318,
      "llo": 1319,
      "Ġcook": 1320,
      "orn": 1321,
      "Ġnought": 1322,
      "Ġheal": 1323,
      "Ġdrow": 1324,
      "Ġtong": 1325,
      "Ġgarm": 1326,
      "omis": 1327,
      "Ġbemo": 1328,
      "Ġyouth": 1329,
      "Ġwhite": 1330,
      "Ġwed": 1331,
      "Ġwear": 1332,
      "Ġwithout": 1333,
      "Ġliv": 1334,
      "Ġreven": 1335,
      "Ġsobs": 1336,
      "Ġshed": 1337,
      "Ġanother": 1338,
      "chol": 1339,
      "Ġfam": 1340,
      "Ġgra": 1341,
      "Ġgrown": 1342,
      "ums": 1343,
      "Ġamong": 1344,
      "Ġorder": 1345,
      "Ġhands": 1346,
      "Ġlend": 1347,
      "Ġthanks": 1348,
      "igo": 1349,
      "ops": 1350,
      "Ġext": 1351,
      "Ġthemsel": 1352,
      "Ġrail": 1353,
      "Ġjad": 1354,
      "Ġjose": 1355,
      "Ġmarch": 1356,
      "Ġlost": 1357,
      "Ġlove": 1358,
      "Ġslide": 1359,
      "ppet": 1360,
      "Ġmayst": 1361,
      "Ġdeadly": 1362,
      "Ġeyes": 1363,
      "Ġscath": 1364,
      "Ġrope": 1365,
      "Ġroder": 1366,
      "Ġrobb": 1367,
      "Ġkills": 1368,
      "Ġprey": 1369,
      "Ġprese": 1370,
      "Ġcomplain": 1371,
      "Ġbanished": 1372,
      "Ġfinely": 1373,
      "Ġclim": 1374,
      "Ġclose": 1375,
      "Ġwoefu": 1376,
      "Ġmourning": 1377,
      "Ġperforce": 1378,
      "Ġknew": 1379,
      "Ġsorrows": 1380,
      "Ġindiffe": 1381,
      "Ġbleed": 1382,
      "Ġfortune": 1383,
      "Ġsadd": 1384,
      "Ġways": 1385,
      "Ġnature": 1386,
      "Ġunkindly": 1387,
      "Ġvaunt": 1388,
      "Ġmethinks": 1389,
      "Ġstraight": 1390,
      "Ġcobwebs": 1391,
      "Ġtarquin": 1392,
      "Ġrelief": 1393,
      "Ġdisfig": 1394,
      "Ġrushes": 1395,
      "Ġasleep": 1396,
      "Ġdespis": 1397,
      "Ġplace": 1398,
      "Ġfustian": 1399,
      "Ġfuneral": 1400,
      "Ġsince": 1401,
      "Ġharms": 1402,
      "Ġflesh": 1403,
      "Ġlopp": 1404,
      "Ġputs": 1405,
      "Ġgovern": 1406,
      "Ġjills": 1407,
      "Ġcross": 1408,
      "ase": 1409,
      "bt": 1410,
      "ct": 1411,
      "ding": 1412,
      "eth": 1413,
      "hold": 1414,
      "Ġset": 1415,
      "Ġfears": 1416,
      "Ġboo": 1417,
      "Ġbal": 1418,
      "Ġbast": 1419,
      "Ġche": 1420,
      "Ġcame": 1421,
      "Ġdou": 1422,
      "Ġtofore": 1423,
      "Ġget": 1424,
      "omes": 1425,
      "Ġroof": 1426,
      "Ġforsoo": 1427,
      "Ġshirt": 1428,
      "Ġhas": 1429,
      "Ġmem": 1430,
      "sequ": 1431,
      "Ġthough": 1432,
      "Ġrelieve": 1433,
      "Ġass": 1434,
      "Ġstr": 1435,
      "Ġtrop": 1436,
      "Ġgold": 1437,
      "Ġpromis": 1438,
      "Ġours": 1439,
      "Ġthereby": 1440,
      "ument": 1441,
      "Ġunh": 1442,
      "Ġcurst": 1443,
      "Ġcurts": 1444,
      "Ġeverlasting": 1445,
      "Ġlegs": 1446,
      "Ġentra": 1447,
      "Ġalight": 1448,
      "Ġjack": 1449,
      "Ġmarry": 1450,
      "Ġmartyr": 1451,
      "Ġvow": 1452,
      "Ġvain": 1453,
      "Ġtells": 1454,
      "Ġminded": 1455,
      "Ġadorn": 1456,
      "Ġcru": 1457,
      "Ġturned": 1458,
      "Ġbags": 1459,
      "Ġspa": 1460,
      "Ġscar": 1461,
      "Ġbeasts": 1462,
      "Ġholla": 1463,
      "Ġprove": 1464,
      "Ġfalls": 1465,
      "Ġrepa": 1466,
      "Ġduties": 1467,
      "Ġcarpets": 1468,
      "Ġsacrifice": 1469,
      "Ġmournful": 1470,
      "Ġjust": 1471,
      "Ġjudges": 1472,
      "Ġpuppet": 1473,
      "Ġkatherina": 1474,
      "Ġromans": 1475,
      "Ġbehind": 1476,
      "Ġfully": 1477,
      "Ġfetch": 1478,
      "Ġdetested": 1479,
      "Ġthaw": 1480,
      "Ġbefall": 1481,
      "Ġflatly": 1482,
      "Ġthrough": 1483,
      "Ġgab": 1484,
      "Ġinterest": 1485,
      "Ġstumbled": 1486,
      "Ġheavy": 1487,
      "Ġciting": 1488,
      "Ġnourish": 1489,
      "Ġdrops": 1490,
      "Ġbeseech": 1491,
      "Ġremaineth": 1492,
      "Ġambush": 1493,
      "Ġawhile": 1494,
      "rupter": 1495,
      "Ġsignifies": 1496,
      "Ġimage": 1497,
      "Ġcassio": 1498,
      "Ġnichol": 1499,
      "Ġpardon": 1500,
      "Ġshrink": 1501,
      "Ġredeem": 1502,
      "Ġgrumio": 1503,
      "Ġbecause": 1504,
      "Ġpeople": 1505,
      "Ġunexperienc": 1506,
      "Ġrescue": 1507,
      "Ġinhuman": 1508,
      "Ġembrace": 1509,
      "Ġdrown": 1510,
      "Ġgarment": 1511,
      "Ġbemoil": 1512,
      "Ġreveng": 1513,
      "Ġjades": 1514,
      "Ġclimb": 1515,
      "Ġclosed": 1516,
      "Ġwoefull": 1517,
      "cock": 1518,
      "eks": 1519,
      "ect": 1520,
      "ned": 1521,
      "Ġtall": 1522,
      "Ġtas": 1523,
      "Ġtest": 1524,
      "heren": 1525,
      "Ġsire": 1526,
      "Ġhome": 1527,
      "reme": 1528,
      "Ġflour": 1529,
      "Ġoat": 1530,
      "Ġlie": 1531,
      "Ġlong": 1532,
      "Ġdin": 1533,
      "Ġdies": 1534,
      "Ġdare": 1535,
      "Ġtold": 1536,
      "owed": 1537,
      "Ġwhither": 1538,
      "Ġmelt": 1539,
      "ceed": 1540,
      "Ġaside": 1541,
      "Ġstock": 1542,
      "Ġstory": 1543,
      "Ġgoes": 1544,
      "mps": 1545,
      "cks": 1546,
      "Ġthereat": 1547,
      "Ġgrowing": 1548,
      "Ġcoming": 1549,
      "Ġtail": 1550,
      "Ġcost": 1551,
      "Ġunj": 1552,
      "Ġshoulder": 1553,
      "Ġaloof": 1554,
      "Ġsupper": 1555,
      "Ġwouldst": 1556,
      "Ġcalls": 1557,
      "Ġcannot": 1558,
      "Ġbreth": 1559,
      "Ġbreathe": 1560,
      "Ġslain": 1561,
      "Ġoffic": 1562,
      "Ġhangs": 1563,
      "Ġobsequ": 1564,
      "Ġgreater": 1565,
      "Ġscold": 1566,
      "Ġhadst": 1567,
      "Ġlastly": 1568,
      "ardy": 1569,
      "Ġbecomes": 1570,
      "Ġkatherine": 1571,
      "Ġbasely": 1572,
      "Ġsung": 1573,
      "Ġacc": 1574,
      "Ġravished": 1575,
      "Ġreprobation": 1576,
      "Ġpale": 1577,
      "Ġsatisfaction": 1578,
      "Ġpetruchio": 1579,
      "knock": 1580,
      "larums": 1581,
      "Ġriding": 1582,
      "Ġancient": 1583,
      "Ġunpink": 1584,
      "Ġsugarsop": 1585,
      "Ġdesperate": 1586,
      "Ġfoolish": 1587,
      "Ġothello": 1588,
      "Ġcaught": 1589,
      "Ġtouch": 1590,
      "Ġtongue": 1591,
      "Ġfamish": 1592,
      "Ġextreme": 1593,
      "Ġthemselves": 1594,
      "Ġjoseph": 1595,
      "Ġroderigo": 1596,
      "Ġvaunter": 1597,
      "Ġbalc": 1598,
      "Ġrelieves": 1599,
      "Ġtroph": 1600,
      "Ġcurtsy": 1601,
      "Ġentrails": 1602,
      "Ġalighted": 1603,
      "Ġjacks": 1604,
      "Ġscars": 1605,
      "Ġgabr": 1606,
      "!'": 1607,
      "able": 1608,
      "cr": 1609,
      "ched": 1610,
      "dem": 1611,
      "jack": 1612,
      "ject": 1613,
      "mit": 1614,
      "ner": 1615,
      "nate": 1616,
      "pl": 1617,
      "rim": 1618,
      "sir": 1619,
      "tty": 1620,
      "with": 1621,
      "ze": 1622,
      "Ġmine": 1623,
      "Ġhill": 1624,
      "Ġfour": 1625,
      "Ġthink": 1626,
      "anc": 1627,
      "Ġray": 1628,
      "eting": 1629,
      "ntly": 1630,
      "urse": 1631,
      "Ġfift": 1632,
      "Ġfast": 1633,
      "ider": 1634,
      "Ġseems": 1635,
      "Ġluce": 1636,
      "Ġlament": 1637,
      "Ġalmo": 1638,
      "rah": 1639,
      "Ġbegu": 1640,
      "Ġcont": 1641,
      "Ġtricks": 1642,
      "Ġspare": 1643,
      "Ġspru": 1644,
      "Ġdesir": 1645,
      "Ġproceed": 1646,
      "Ġplain": 1647,
      "Ġreport": 1648,
      "Ġwrong": 1649,
      "Ġworthless": 1650,
      "Ġtend": 1651,
      "Ġteeth": 1652,
      "Ġcause": 1653,
      "Ġaud": 1654,
      "Ġsacrificing": 1655,
      "Ġpumps": 1656,
      "Ġservingmen": 1657,
      "Ġperform": 1658,
      "Ġhigh": 1659,
      "Ġrecount": 1660,
      "Ġmonument": 1661,
      "Ġknavery": 1662,
      "Ġsubstance": 1663,
      "Ġweary": 1664,
      "Ġindifferent": 1665,
      "Ġsaddles": 1666,
      "Ġdisfigure": 1667,
      "Ġboots": 1668,
      "Ġdoubt": 1669,
      "Ġforsooth": 1670,
      "Ġmemory": 1671,
      "Ġunhall": 1672,
      "Ġspake": 1673,
      "Ġrepair": 1674,
      "Ġnicholas": 1675,
      "Ġtaller": 1676,
      "Ġtask": 1677,
      "Ġunju": 1678,
      "knocking": 1679,
      "get": 1680,
      "ring": 1681,
      "Ġab": 1682,
      "Ġsave": 1683,
      "Ġwound": 1684,
      "Ġbor": 1685,
      "Ġbio": 1686,
      "Ġlear": 1687,
      "lled": 1688,
      "Ġpot": 1689,
      "Ġyoung": 1690,
      "Ġdeare": 1691,
      "Ġfaul": 1692,
      "Ġamor": 1693,
      "Ġbring": 1694,
      "Ġbrave": 1695,
      "Ġcozen": 1696,
      "Ġhorn": 1697,
      "Ġneck": 1698,
      "Ġleave": 1699,
      "Ġleaves": 1700,
      "Ġmild": 1701,
      "Ġsust": 1702,
      "Ġenough": 1703,
      "Ġenmit": 1704,
      "Ġhanging": 1705,
      "Ġobject": 1706,
      "Ġservant": 1707,
      "Ġplease": 1708,
      "Ġwherein": 1709,
      "Ġimprim": 1710,
      "Ġwords": 1711,
      "Ġpretty": 1712,
      "Ġtales": 1713,
      "Ġquarrelsome": 1714,
      "Ġfrozen": 1715,
      "Ġpoor": 1716,
      "Ġwoodcock": 1717,
      "Ġbehold": 1718,
      "Ġknee": 1719,
      "Ġincar": 1720,
      "Ġvex": 1721,
      "Ġeaten": 1722,
      "Ġemperess": 1723,
      "Ġbretheren": 1724,
      "Ġbanishment": 1725,
      "Ġwedding": 1726,
      "Ġcheeks": 1727,
      "Ġcrupper": 1728,
      "Ġscolding": 1729,
      "Ġtrophies": 1730,
      "Ġgabriel": 1731,
      "pling": 1732,
      "Ġfifty": 1733,
      "Ġalmost": 1734,
      "Ġspruce": 1735,
      "Ġaudit": 1736,
      "Ġunjust": 1737,
      "Ġlearn": 1738,
      "Ġtim": 1739,
      "Ġhon": 1740,
      "Ġhither": 1741,
      "ndell": 1742,
      "Ġfought": 1743,
      "Ġdum": 1744,
      "Ġdanc": 1745,
      "Ġtoget": 1746,
      "Ġbehe": 1747,
      "Ġins": 1748,
      "ntio": 1749,
      "Ġhair": 1750,
      "Ġthought": 1751,
      "Ġprop": 1752,
      "Ġmastcr": 1753,
      "Ġalth": 1754,
      "Ġgreeting": 1755,
      "Ġoffence": 1756,
      "Ġspraw": 1757,
      "Ġdesdem": 1758,
      "Ġart": 1759,
      "Ġeverything": 1760,
      "Ġheavens": 1761,
      "Ġmost": 1762,
      "Ġpresume": 1763,
      "Ġinterrupter": 1764,
      "Ġappare": 1765,
      "Ġwretched": 1766,
      "Ġhence": 1767,
      "Ġpresently": 1768,
      "Ġbastardy": 1769,
      "Ġflourish": 1770,
      "Ġoats": 1771,
      "Ġdinner": 1772,
      "Ġstockings": 1773,
      "Ġbrethren": 1774,
      "Ġofficer": 1775,
      "Ġbalcony": 1776,
      "sirrah": 1777,
      "ursed": 1778,
      "Ġcontent": 1779,
      "Ġproceedings": 1780,
      "Ġhighness": 1781,
      "Ġborrow": 1782,
      "Ġdearer": 1783,
      "Ġfaults": 1784,
      "Ġenmity": 1785,
      "Ġfree": 1786,
      "Ġlat": 1787,
      "Ġhein": 1788,
      "Ġdise": 1789,
      "Ġweather": 1790,
      "Ġtran": 1791,
      "Ġlux": 1792,
      "ange": 1793,
      "Ġblowing": 1794,
      "ions": 1795,
      "Ġdeeds": 1796,
      "Ġconsider": 1797,
      "Ġstripling": 1798,
      "Ġagain": 1799,
      "Ġfetter": 1800,
      "Ġsorrowful": 1801,
      "Ġdetestable": 1802,
      "Ġvillains": 1803,
      "Ġhousehold": 1804,
      "Ġtestim": 1805,
      "Ġobsequious": 1806,
      "Ġlucentio": 1807,
      "Ġbeguile": 1808,
      "Ġdesirous": 1809,
      "Ġbiondell": 1810,
      "Ġamorous": 1811,
      "Ġbravely": 1812,
      "Ġmildly": 1813,
      "Ġimprimis": 1814,
      "Ġincarnate": 1815,
      "Ġauditory": 1816,
      "Ġdumb": 1817,
      "Ġtogether": 1818,
      "Ġproper": 1819,
      "Ġsprawl": 1820,
      "Ġforthwith": 1821,
      "Ġservice": 1822,
      "Ġshowers": 1823,
      "Ġstrange": 1824,
      "Ġaccursed": 1825,
      "Ġunhallowed": 1826,
      "Ġabout": 1827,
      "Ġtime": 1828,
      "Ġhonour": 1829,
      "Ġalthough": 1830,
      "Ġdesdemon": 1831,
      "Ġbiondello": 1832,
      "nance": 1833,
      "Ġcount": 1834,
      "ases": 1835,
      "Ġbeaten": 1836,
      "Ġcompany": 1837,
      "ndsire": 1838,
      "Ġwrongful": 1839,
      "Ġbeheaded": 1840,
      "Ġinsat": 1841,
      "Ġapparelled": 1842,
      "Ġfreeze": 1843,
      "Ġlatin": 1844,
      "Ġheinous": 1845,
      "Ġtranio": 1846,
      "Ġluxur": 1847,
      "iate": 1848,
      "Ġthree": 1849,
      "leges": 1850,
      "Ġinches": 1851,
      "Ġgrandsire": 1852,
      "Ġconsidering": 1853,
      "Ġtestimony": 1854,
      "Ġcompanions": 1855,
      "Ġdiseases": 1856,
      "Ġes": 1857,
      "enance": 1858,
      "Ġdevo": 1859,
      "Ġinsatiate": 1860,
      "Ġluxurious": 1861,
      "Ġpity": 1862,
      "Ġdevoid": 1863,
      "Ġcountenance": 1864,
      "Ġ;": 1865,
      "Ġtor": 1866,
      "Ġng": 1867,
      "Ġdire": 1868,
      "Ġbee": 1869,
      "Ġmustard": 1870,
      "Ġfo": 1871,
      "Ġyo": 1872,
      "Ġtorment": 1873,
      "Ġbeef": 1874,
      "Ġtorments": 1875,
      "Ġwretch": 1876,
      "cra": 1877,
      "Ġur": 1878,
      "Ġexecra": 1879,
      "Ġsentence": 1880,
      "Ġexecrable": 1881,
      "Ġim": 1882,
      "Ġdireful": 1883,
      "Ġir": 1884,
      "Ġ!": 1885,
      "Ġ?": 1886,
      "Ġut": 1887,
      "Ġld": 1888,
      "Ġet": 1889,
      "Ġter": 1890,
      "Ġhy": 1891,
      "Ġope": 1892,
      "Ġwoes": 1893,
      "Ġther": 1894,
      "Ġsi": 1895,
      "Ġed": 1896,
      "Ġing": 1897,
      "Ġome": 1898,
      "Ġoo": 1899,
      "Ġbu": 1900,
      "Ġthi": 1901,
      "Ġem": 1902,
      "Ġkno": 1903,
      "Ġith": 1904,
      "Ġom": 1905,
      "Ġrs": 1906,
      "Ġave": 1907,
      "Ġce": 1908,
      "Ġrom": 1909,
      "Ġast": 1910,
      "Ġill": 1911,
      "Ġtho": 1912,
      "Ġnt": 1913,
      "Ġee": 1914,
      "Ġbreed": 1915,
      "Ġhan": 1916,
      "Ġbreeder": 1917,
      "Ġwa": 1918,
      "Ġprisoner": 1919,
      "Ġmis": 1920,
      "Ġie": 1921,
      "Ġore": 1922,
      "Ġgh": 1923,
      "Ġwil": 1924,
      "Ġsa": 1925,
      "Ġss": 1926,
      "Ġell": 1927,
      "Ġuld": 1928,
      "Ġath": 1929,
      "Ġmp": 1930,
      "Ġthei": 1931,
      "Ġod": 1932,
      "Ġds": 1933,
      "Ġel": 1934,
      "Ġry": 1935,
      "Ġke": 1936,
      "Ġood": 1937,
      "Ġould": 1938,
      "Ġurn": 1939,
      "Ġht": 1940,
      "Ġive": 1941,
      "Ġeve": 1942,
      "Ġeir": 1943,
      "Ġsha": 1944,
      "Ġather": 1945,
      "Ġti": 1946,
      "Ġfore": 1947,
      "Ġoth": 1948,
      "Ġly": 1949,
      "Ġhee": 1950,
      "Ġev": 1951,
      "Ġwha": 1952,
      "Ġhall": 1953,
      "Ġfrie": 1954,
      "Ġtheref": 1955,
      "chance": 1956,
      "Ġfathe": 1957,
      "Ġght": 1958,
      "Ġous": 1959,
      "Ġster": 1960,
      "Ġck": 1961,
      "Ġhey": 1962,
      "Ġead": 1963,
      "Ġess": 1964,
      "Ġine": 1965,
      "Ġhav": 1966,
      "Ġcurt": 1967,
      "oke": 1968,
      "Ġil": 1969,
      "Ġist": 1970,
      "Ġfath": 1971,
      "Ġock": 1972,
      "Ġny": 1973,
      "Ġdi": 1974,
      "Ġrn": 1975,
      "Ġmas": 1976,
      "Ġul": 1977,
      "Ġemper": 1978,
      "Ġspoke": 1979,
      "Ġmischance": 1980,
      "Ġtis": 1981,
      "Ġire": 1982,
      "Ġius": 1983,
      "Ġful": 1984,
      "Ġol": 1985,
      "Ġna": 1986,
      "Ġnc": 1987,
      "Ġns": 1988,
      "Ġheir": 1989,
      "Ġea": 1990,
      "Ġeed": 1991,
      "Ġbea": 1992,
      "Ġpi": 1993,
      "Ġru": 1994,
      "Ġrst": 1995,
      "Ġrth": 1996,
      "Ġsho": 1997,
      "Ġbrot": 1998,
      "bl": 1999,
      "Ġver": 2000,
      "Ġers": 2001,
      "Ġts": 2002,
      "Ġain": 2003,
      "Ġake": 2004,
      "Ġsou": 2005,
      "Ġwn": 2006,
      "Ġwom": 2007,
      "Ġmes": 2008,
      "Ġgoo": 2009,
      "Ġep": 2010,
      "Ġest": 2011,
      "Ġeath": 2012,
      "Ġefore": 2013,
      "Ġrd": 2014,
      "Ġrt": 2015,
      "Ġron": 2016,
      "Ġmaste": 2017,
      "Ġluci": 2018,
      "Ġnds": 2019,
      "Ġandronici": 2020,
      "Ġomes": 2021,
      "well": 2022,
      "Ġty": 2023,
      "Ġwou": 2024,
      "Ġhould": 2025,
      "Ġies": 2026,
      "Ġife": 2027,
      "Ġthing": 2028,
      "Ġnce": 2029,
      "Ġgs": 2030,
      "Ġnoth": 2031,
      "Ġnock": 2032,
      "Ġps": 2033,
      "Ġki": 2034,
      "Ġshou": 2035,
      "Ġught": 2036,
      "Ġrefore": 2037,
      "Ġress": 2038,
      "ilius": 2039,
      "Ġcol": 2040,
      "Ġherefore": 2041,
      "Ġknoc": 2042,
      "Ġtherefo": 2043,
      "Ġoud": 2044,
      "Ġav": 2045,
      "Ġsist": 2046,
      "Ġic": 2047,
      "Ġid": 2048,
      "Ġff": 2049,
      "Ġfou": 2050,
      "Ġbs": 2051,
      "Ġlf": 2052,
      "Ġngs": 2053,
      "Ġder": 2054,
      "Ġge": 2055,
      "Ġgiv": 2056,
      "Ġbel": 2057,
      "Ġperor": 2058,
      "Ġri": 2059,
      "Ġrse": 2060,
      "Ġriend": 2061,
      "Ġkis": 2062,
      "Ġshoul": 2063,
      "Ġue": 2064,
      "Ġum": 2065,
      "Ġdeat": 2066,
      "Ġrel": 2067,
      "Ġfri": 2068,
      "Ġtherefor": 2069,
      "Ġate": 2070,
      "Ġorth": 2071,
      "Ġente": 2072,
      "Ġsla": 2073,
      "Ġlavin": 2074,
      "Ġbarbar": 2075,
      "Ġery": 2076,
      "Ġves": 2077,
      "Ġerefore": 2078,
      "Ġmperor": 2079,
      "Ġfrien": 2080,
      "come": 2081,
      "iou": 2082,
      "ses": 2083,
      "ti": 2084,
      "Ġ:": 2085,
      "Ġtle": 2086,
      "Ġtter": 2087,
      "Ġtel": 2088,
      "Ġaven": 2089,
      "Ġses": 2090,
      "Ġmb": 2091,
      "Ġhing": 2092,
      "Ġia": 2093,
      "Ġile": 2094,
      "Ġike": 2095,
      "Ġight": 2096,
      "Ġious": 2097,
      "Ġthin": 2098,
      "Ġoble": 2099,
      "Ġls": 2100,
      "Ġlt": 2101,
      "Ġnter": 2102,
      "Ġdy": 2103,
      "Ġese": 2104,
      "Ġeast": 2105,
      "Ġelf": 2106,
      "Ġends": 2107,
      "Ġnobl": 2108,
      "Ġbein": 2109,
      "Ġpon": 2110,
      "Ġrv": 2111,
      "Ġrtis": 2112,
      "Ġks": 2113,
      "Ġmak": 2114,
      "Ġust": 2115,
      "Ġstress": 2116,
      "Ġons": 2117,
      "Ġgot": 2118,
      "Ġfac": 2119,
      "Ġaturn": 2120,
      "Ġord": 2121,
      "Ġlain": 2122,
      "Ġlea": 2123,
      "icus": 2124,
      "Ġears": 2125,
      "Ġvinia": 2126,
      "Ġsaturni": 2127,
      "Ġsaturnin": 2128,
      "Ġars": 2129,
      "Ġaemili": 2130,
      "Ġlitt": 2131,
      "Ġurtis": 2132,
      "Ġaster": 2133,
      "Ġiends": 2134,
      "Ġcurti": 2135,
      "Ġempero": 2136,
      "Ġbrothe": 2137,
      "Ġavinia": 2138,
      "Ġriends": 2139,
      "ai": 2140,
      "barous": 2141,
      "so": 2142,
      "Ġx": 2143,
      "Ġeror": 2144,
      "Ġerv": 2145,
      "Ġoul": 2146,
      "Ġought": 2147,
      "Ġxe": 2148,
      "Ġtu": 2149,
      "Ġtes": 2150,
      "Ġtus": 2151,
      "Ġtear": 2152,
      "Ġtil": 2153,
      "Ġtress": 2154,
      "Ġae": 2155,
      "Ġak": 2156,
      "Ġair": 2157,
      "Ġale": 2158,
      "Ġwoul": 2159,
      "Ġms": 2160,
      "Ġmor": 2161,
      "Ġmin": 2162,
      "Ġmilius": 2163,
      "oug": 2164,
      "Ġio": 2165,
      "Ġild": 2166,
      "Ġial": 2167,
      "Ġide": 2168,
      "Ġfel": 2169,
      "Ġthes": 2170,
      "Ġok": 2171,
      "Ġost": 2172,
      "Ġcus": 2173,
      "Ġcal": 2174,
      "Ġnk": 2175,
      "Ġnes": 2176,
      "Ġnem": 2177,
      "Ġnia": 2178,
      "Ġhem": 2179,
      "Ġdu": 2180,
      "Ġding": 2181,
      "Ġew": 2182,
      "Ġend": 2183,
      "Ġeing": 2184,
      "Ġeet": 2185,
      "Ġeak": 2186,
      "Ġbei": 2187,
      "Ġbeas": 2188,
      "Ġpp": 2189,
      "Ġye": 2190,
      "Ġyself": 2191,
      "Ġror": 2192,
      "Ġrow": 2193,
      "Ġrous": 2194,
      "Ġrother": 2195,
      "Ġink": 2196,
      "Ġings": 2197,
      "Ġment": 2198,
      "Ġud": 2199,
      "Ġure": 2200,
      "Ġdee": 2201,
      "Ġlif": 2202,
      "Ġlik": 2203,
      "Ġlip": 2204,
      "Ġlius": 2205,
      "Ġreat": 2206,
      "Ġsto": 2207,
      "Ġong": 2208,
      "Ġitus": 2209,
      "Ġprou": 2210,
      "Ġgrow": 2211,
      "Ġtak": 2212,
      "Ġtand": 2213,
      "Ġnea": 2214,
      "Ġory": 2215,
      "Ġorse": 2216,
      "Ġtrump": 2217,
      "ici": 2218,
      "Ġawa": 2219,
      "Ġgrea": 2220,
      "Ġsatu": 2221,
      "Ġsatur": 2222,
      "Ġuncl": 2223,
      "Ġfirs": 2224,
      "Ġmistre": 2225,
      "Ġmistres": 2226,
      "Ġswee": 2227,
      "Ġaemi": 2228,
      "Ġsorr": 2229,
      "Ġexeun": 2230,
      "Ġtea": 2231,
      "Ġweap": 2232,
      "Ġcholer": 2233,
      "ronicus": 2234,
      "Ġhild": 2235,
      "Ġhich": 2236,
      "Ġlls": 2237,
      "Ġupo": 2238,
      "Ġurial": 2239,
      "Ġnto": 2240,
      "Ġister": 2241,
      "Ġistress": 2242,
      "Ġncle": 2243,
      "Ġwoma": 2244,
      "Ġluciu": 2245,
      "Ġrothers": 2246,
      "bus": 2247,
      "dge": 2248,
      "ger": 2249,
      "Ġound": 2250,
      "Ġough": 2251,
      "Ġouth": 2252,
      "Ġtur": 2253,
      "Ġted": 2254,
      "Ġtly": 2255,
      "Ġttle": 2256,
      "Ġters": 2257,
      "Ġap": 2258,
      "Ġace": 2259,
      "Ġaron": 2260,
      "Ġaft": 2261,
      "Ġsom": 2262,
      "Ġsoo": 2263,
      "Ġwr": 2264,
      "Ġws": 2265,
      "Ġwher": 2266,
      "Ġwful": 2267,
      "Ġwro": 2268,
      "Ġmies": 2269,
      "Ġhs": 2270,
      "Ġhol": 2271,
      "Ġiv": 2272,
      "Ġise": 2273,
      "Ġich": 2274,
      "Ġiel": 2275,
      "Ġfin": 2276,
      "Ġbi": 2277,
      "Ġths": 2278,
      "Ġthro": 2279,
      "Ġoy": 2280,
      "Ġose": 2281,
      "Ġomp": 2282,
      "Ġoot": 2283,
      "Ġlor": 2284,
      "Ġles": 2285,
      "Ġlow": 2286,
      "Ġlas": 2287,
      "Ġlcome": 2288,
      "Ġcius": 2289,
      "Ġnous": 2290,
      "Ġntle": 2291,
      "Ġness": 2292,
      "Ġhed": 2293,
      "Ġheave": 2294,
      "Ġdst": 2295,
      "Ġdir": 2296,
      "Ġdly": 2297,
      "Ġdges": 2298,
      "Ġgi": 2299,
      "Ġges": 2300,
      "Ġgen": 2301,
      "Ġec": 2302,
      "Ġef": 2303,
      "Ġeg": 2304,
      "Ġece": 2305,
      "Ġeep": 2306,
      "Ġeel": 2307,
      "Ġelieve": 2308,
      "Ġets": 2309,
      "Ġnob": 2310,
      "Ġbelie": 2311,
      "Ġpets": 2312,
      "any": 2313,
      "anions": 2314,
      "Ġmys": 2315,
      "Ġwhit": 2316,
      "Ġrm": 2317,
      "Ġrop": 2318,
      "Ġroud": 2319,
      "Ġrown": 2320,
      "Ġrial": 2321,
      "Ġrcus": 2322,
      "Ġrms": 2323,
      "Ġrrel": 2324,
      "Ġrds": 2325,
      "ingmen": 2326,
      "Ġwee": 2327,
      "Ġmea": 2328,
      "Ġmee": 2329,
      "ien": 2330,
      "Ġwithi": 2331,
      "Ġuth": 2332,
      "Ġugh": 2333,
      "Ġish": 2334,
      "Ġiss": 2335,
      "Ġrea": 2336,
      "Ġred": 2337,
      "Ġree": 2338,
      "Ġrem": 2339,
      "Ġrewell": 2340,
      "Ġittle": 2341,
      "Ġself": 2342,
      "Ġance": 2343,
      "Ġfare": 2344,
      "Ġbra": 2345,
      "Ġswo": 2346,
      "Ġarewell": 2347,
      "Ġeverl": 2348,
      "Ġorst": 2349,
      "Ġorrow": 2350,
      "Ġorses": 2351,
      "unes": 2352,
      "ived": 2353,
      "Ġentle": 2354,
      "Ġcho": 2355,
      "Ġchil": 2356,
      "Ġala": 2357,
      "Ġtitl": 2358,
      "Ġtitu": 2359,
      "Ġene": 2360,
      "Ġmarc": 2361,
      "Ġmarr": 2362,
      "Ġeart": 2363,
      "Ġvil": 2364,
      "Ġblo": 2365,
      "Ġbloo": 2366,
      "Ġspea": 2367,
      "Ġburia": 2368,
      "Ġlavi": 2369,
      "Ġady": 2370,
      "Ġenemie": 2371,
      "Ġqua": 2372,
      "Ġservi": 2373,
      "Ġard": 2374,
      "Ġarcus": 2375,
      "Ġdevi": 2376,
      "Ġtribu": 2377,
      "Ġaaro": 2378,
      "Ġlimb": 2379,
      "Ġwelco": 2380,
      "Ġgentl": 2381,
      "Ġfarewe": 2382,
      "Ġfea": 2383,
      "Ġwitn": 2384,
      "Ġbanis": 2385,
      "Ġndly": 2386,
      "Ġsacrific": 2387,
      "Ġinterrup": 2388,
      "Ġmuti": 2389,
      "Ġllow": 2390,
      "Ġbroth": 2391,
      "Ġbefo": 2392,
      "Ġreprobat": 2393,
      "idering": 2394,
      "Ġcounten": 2395,
      "Ġimbs": 2396,
      "Ġirt": 2397,
      "Ġldst": 2398,
      "Ġetter": 2399,
      "Ġsigh": 2400,
      "Ġook": 2401,
      "Ġemilius": 2402,
      "Ġoman": 2403,
      "Ġuldst": 2404,
      "Ġouldst": 2405,
      "Ġurnine": 2406,
      "Ġoths": 2407,
      "Ġilius": 2408,
      "Ġrthy": 2409,
      "Ġsoun": 2410,
      "Ġnothi": 2411,
      "Ġlavini": 2412,
      "Ġaturnine": 2413,
      "Ġlittl": 2414,
      "Ġxeunt": 2415,
      "Ġnemies": 2416,
      "cius": 2417,
      "cious": 2418,
      "dg": 2419,
      "dles": 2420,
      "fo": 2421,
      "fig": 2422,
      "fac": 2423,
      "fume": 2424,
      "ga": 2425,
      "ming": 2426,
      "na": 2427,
      "uile": 2428,
      "Ġq": 2429,
      "Ġvey": 2430,
      "Ġeric": 2431,
      "Ġzen": 2432,
      "Ġtay": 2433,
      "Ġten": 2434,
      "Ġties": 2435,
      "Ġtion": 2436,
      "Ġtles": 2437,
      "Ġtory": 2438,
      "Ġtness": 2439,
      "Ġaa": 2440,
      "Ġant": 2441,
      "Ġaid": 2442,
      "Ġapon": 2443,
      "Ġaps": 2444,
      "Ġaise": 2445,
      "Ġause": 2446,
      "Ġsur": 2447,
      "Ġsed": 2448,
      "Ġsid": 2449,
      "Ġsters": 2450,
      "Ġwad": 2451,
      "Ġmou": 2452,
      "Ġming": 2453,
      "Ġmus": 2454,
      "Ġmout": 2455,
      "Ġmora": 2456,
      "Ġmpets": 2457,
      "oun": 2458,
      "Ġhr": 2459,
      "Ġhu": 2460,
      "Ġhin": 2461,
      "Ġhom": 2462,
      "Ġhit": 2463,
      "Ġhous": 2464,
      "Ġhine": 2465,
      "Ġhrow": 2466,
      "Ġhough": 2467,
      "Ġip": 2468,
      "Ġion": 2469,
      "Ġient": 2470,
      "Ġicus": 2471,
      "Ġilt": 2472,
      "Ġives": 2473,
      "Ġigure": 2474,
      "Ġiger": 2475,
      "Ġfar": 2476,
      "Ġfter": 2477,
      "Ġfal": 2478,
      "Ġbar": 2479,
      "Ġbus": 2480,
      "Ġbas": 2481,
      "Ġbarous": 2482,
      "Ġbunes": 2483,
      "ation": 2484,
      "Ġthu": 2485,
      "Ġthal": 2486,
      "Ġands": 2487,
      "Ġandron": 2488,
      "Ġoa": 2489,
      "Ġoor": 2490,
      "Ġoom": 2491,
      "Ġove": 2492,
      "Ġoon": 2493,
      "Ġobs": 2494,
      "Ġozen": 2495,
      "Ġlk": 2496,
      "Ġlus": 2497,
      "Ġloo": 2498,
      "Ġlour": 2499,
      "Ġlave": 2500,
      "Ġlood": 2501,
      "Ġlarb": 2502,
      "Ġlks": 2503,
      "Ġleric": 2504,
      "Ġci": 2505,
      "Ġcious": 2506,
      "Ġcks": 2507,
      "Ġcrif": 2508,
      "Ġnh": 2509,
      "Ġnou": 2510,
      "Ġner": 2511,
      "Ġnus": 2512,
      "Ġned": 2513,
      "Ġnine": 2514,
      "Ġnvey": 2515,
      "Ġnough": 2516,
      "Ġnance": 2517,
      "Ġniel": 2518,
      "Ġninus": 2519,
      "Ġnicus": 2520,
      "Ġhel": 2521,
      "Ġhes": 2522,
      "Ġheath": 2523,
      "Ġdis": 2524,
      "Ġdon": 2525,
      "Ġdoo": 2526,
      "Ġdder": 2527,
      "Ġdro": 2528,
      "Ġdronicus": 2529,
      "Ġtoge": 2530,
      "Ġek": 2531,
      "Ġein": 2532,
      "Ġeth": 2533,
      "Ġely": 2534,
      "Ġeen": 2535,
      "Ġeful": 2536,
      "Ġequ": 2537,
      "Ġeaven": 2538,
      "Ġeft": 2539,
      "Ġelp": 2540,
      "Ġedges": 2541,
      "Ġevent": 2542,
      "Ġehold": 2543,
      "arrel": 2544,
      "Ġnon": 2545,
      "vest": 2546,
      "Ġbefor": 2547,
      "Ġpt": 2548,
      "Ġpil": 2549,
      "Ġpare": 2550,
      "Ġwif": 2551,
      "Ġwip": 2552,
      "Ġmyse": 2553,
      "Ġrum": 2554,
      "Ġrrow": 2555,
      "Ġric": 2556,
      "Ġrish": 2557,
      "Ġrious": 2558,
      "Ġrfor": 2559,
      "Ġrief": 2560,
      "Ġrue": 2561,
      "Ġrry": 2562,
      "Ġrif": 2563,
      "Ġrimm": 2564,
      "Ġrush": 2565,
      "Ġrison": 2566,
      "Ġrbarous": 2567,
      "Ġinus": 2568,
      "Ġinia": 2569,
      "imis": 2570,
      "imony": 2571,
      "etrius": 2572,
      "Ġweet": 2573,
      "Ġka": 2574,
      "Ġkat": 2575,
      "Ġking": 2576,
      "Ġkath": 2577,
      "Ġkathe": 2578,
      "Ġhaps": 2579,
      "Ġhalt": 2580,
      "Ġwitha": 2581,
      "Ġthoug": 2582,
      "Ġuce": 2583,
      "Ġuit": 2584,
      "Ġult": 2585,
      "Ġumb": 2586,
      "Ġumpets": 2587,
      "Ġume": 2588,
      "Ġucius": 2589,
      "Ġuarrel": 2590,
      "Ġded": 2591,
      "Ġdest": 2592,
      "Ġhers": 2593,
      "Ġthys": 2594,
      "Ġthysel": 2595,
      "Ġison": 2596,
      "Ġished": 2597,
      "Ġisses": 2598,
      "Ġren": 2599,
      "Ġknave": 2600,
      "Ġsts": 2601,
      "Ġstan": 2602,
      "Ġstly": 2603,
      "Ġony": 2604,
      "Ġones": 2605,
      "Ġongs": 2606,
      "Ġite": 2607,
      "Ġither": 2608,
      "Ġtra": 2609,
      "Ġtrum": 2610,
      "Ġshea": 2611,
      "Ġsheat": 2612,
      "Ġpris": 2613,
      "Ġank": 2614,
      "Ġano": 2615,
      "Ġans": 2616,
      "Ġanot": 2617,
      "Ġaniel": 2618,
      "Ġfic": 2619,
      "Ġfig": 2620,
      "Ġfice": 2621,
      "Ġfai": 2622,
      "Ġats": 2623,
      "Ġatt": 2624,
      "Ġates": 2625,
      "Ġgri": 2626,
      "Ġgro": 2627,
      "Ġgran": 2628,
      "Ġgrie": 2629,
      "Ġame": 2630,
      "Ġamo": 2631,
      "Ġalls": 2632,
      "Ġbrou": 2633,
      "Ġcoa": 2634,
      "enc": 2635,
      "Ġunes": 2636,
      "Ġ'?": 2637,
      "Ġswor": 2638,
      "ferent": 2639,
      "Ġwors": 2640,
      "Ġwort": 2641,
      "Ġcurs": 2642,
      "Ġeverlast": 2643,
      "Ġora": 2644,
      "Ġorn": 2645,
      "Ġors": 2646,
      "Ġort": 2647,
      "Ġords": 2648,
      "Ġempre": 2649,
      "Ġempres": 2650,
      "ains": 2651,
      "Ġlef": 2652,
      "Ġalar": 2653,
      "Ġalter": 2654,
      "Ġsuf": 2655,
      "Ġexi": 2656,
      "Ġence": 2657,
      "Ġrai": 2658,
      "Ġracious": 2659,
      "Ġgreet": 2660,
      "Ġja": 2661,
      "Ġbegi": 2662,
      "Ġconve": 2663,
      "Ġcann": 2664,
      "Ġush": 2665,
      "Ġeard": 2666,
      "Ġvi": 2667,
      "Ġvion": 2668,
      "Ġbrea": 2669,
      "Ġbreas": 2670,
      "Ġbliv": 2671,
      "Ġburi": 2672,
      "Ġoffi": 2673,
      "Ġmistr": 2674,
      "Ġforthw": 2675,
      "Ġade": 2676,
      "Ġaded": 2677,
      "Ġadder": 2678,
      "Ġturnine": 2679,
      "Ġtamo": 2680,
      "Ġtamor": 2681,
      "Ġspr": 2682,
      "Ġsco": 2683,
      "Ġbeastl": 2684,
      "Ġpledge": 2685,
      "Ġswea": 2686,
      "Ġarm": 2687,
      "Ġarth": 2688,
      "Ġarrel": 2689,
      "Ġarbarous": 2690,
      "Ġarbus": 2691,
      "Ġfello": 2692,
      "Ġmatt": 2693,
      "Ġmatte": 2694,
      "Ġexeu": 2695,
      "Ġhold": 2696,
      "Ġhose": 2697,
      "Ġwelcom": 2698,
      "Ġlovi": 2699,
      "Ġeveryth": 2700,
      "Ġsoundl": 2701,
      "Ġcompa": 2702,
      "Ġcompl": 2703,
      "Ġquarr": 2704,
      "Ġquarre": 2705,
      "Ġows": 2706,
      "Ġowing": 2707,
      "Ġfarewel": 2708,
      "Ġmustar": 2709,
      "Ġfee": 2710,
      "Ġwitne": 2711,
      "Ġtempt": 2712,
      "Ġwalt": 2713,
      "ifies": 2714,
      "Ġsacr": 2715,
      "Ġbarba": 2716,
      "Ġbani": 2717,
      "Ġsheathi": 2718,
      "Ġsheathin": 2719,
      "Ġndronicus": 2720,
      "Ġcarp": 2721,
      "Ġprai": 2722,
      "Ġprais": 2723,
      "Ġoblivi": 2724,
      "Ġoblivio": 2725,
      "Ġtige": 2726,
      "Ġbette": 2727,
      "Ġrecei": 2728,
      "Ġreceiv": 2729,
      "Ġsacrifi": 2730,
      "haps": 2731,
      "Ġraveno": 2732,
      "Ġravenou": 2733,
      "Ġwoodc": 2734,
      "Ġkatheri": 2735,
      "Ġstrik": 2736,
      "Ġattemp": 2737,
      "Ġgraci": 2738,
      "Ġgracio": 2739,
      "Ġgraciou": 2740,
      "Ġladd": 2741,
      "Ġalarbu": 2742,
      "Ġperhap": 2743,
      "Ġnatha": 2744,
      "Ġlawfu": 2745,
      "Ġdetesta": 2746,
      "Ġnathani": 2747,
      "Ġved": 2748,
      "Ġwretc": 2749,
      "Ġbird": 2750,
      "Ġllo": 2751,
      "Ġpeak": 2752,
      "Ġouse": 2753,
      "Ġwarr": 2754,
      "Ġvenous": 2755,
      "Ġunappe": 2756,
      "Ġundly": 2757,
      "Ġdemetri": 2758,
      "Ġsleek": 2759,
      "Ġunex": 2760,
      "selves": 2761,
      "Ġsoldi": 2762,
      "Ġunkind": 2763,
      "Ġacious": 2764,
      "Ġacrif": 2765,
      "Ġstrai": 2766,
      "Ġcobwe": 2767,
      "Ġravis": 2768,
      "Ġreprob": 2769,
      "isfaction": 2770,
      "xperienc": 2771,
      "Ġbesee": 2772,
      "Ġsatisfact": 2773,
      "Ġpetruch": 2774,
      "ifferent": 2775,
      "kno": 2776,
      "sooth": 2777,
      "Ġmonum": 2778,
      "Ġknav": 2779,
      "Ġbrethe": 2780,
      "Ġwedd": 2781,
      "Ġlivion": 2782,
      "Ġgrav": 2783,
      "Ġpresent": 2784,
      "Ġaccur": 2785,
      "demon": 2786,
      "Ġunhallow": 2787,
      "Ġapparell": 2788,
      "Ġinsati": 2789,
      "Ġurish": 2790,
      "Ġirst": 2791,
      "Ġuty": 2792,
      "Ġthers": 2793,
      "Ġoof": 2794,
      "Ġemies": 2795,
      "Ġithal": 2796,
      "Ġrses": 2797,
      "Ġroma": 2798,
      "Ġasters": 2799,
      "Ġhaniel": 2800,
      "Ġiend": 2801,
      "Ġmpt": 2802,
      "Ġmpress": 2803,
      "Ġelcome": 2804,
      "Ġurning": 2805,
      "Ġurninus": 2806,
      "Ġevil": 2807,
      "Ġeads": 2808,
      "Ġrnine": 2809,
      "Ġrninus": 2810,
      "Ġoleric": 2811,
      "Ġruth": 2812,
      "Ġrumpets": 2813,
      "Ġeathing": 2814,
      "Ġronicus": 2815,
      "Ġhouldst": 2816,
      "Ġoudest": 2817,
      "Ġsiste": 2818,
      "Ġffice": 2819,
      "Ġbeli": 2820,
      "Ġkisse": 2821,
      "Ġreli": 2822,
      "Ġorthy": 2823,
      "Ġslav": 2824,
      "Ġbarbaro": 2825,
      "Ġbarbarou": 2826,
      "Ġavenous": 2827,
      "Ġaturninus": 2828,
      "Ġsaturninu": 2829,
      "Ġaemiliu": 2830,
      "Ġxit": 2831,
      "Ġtrumpet": 2832,
      "Ġweapo": 2833,
      "Ġcholeri": 2834,
      "Ġafte": 2835,
      "Ġivion": 2836,
      "Ġremain": 2837,
      "Ġchole": 2838,
      "Ġwitnes": 2839,
      "figure": 2840,
      "faction": 2841,
      "Ġlarbus": 2842,
      "Ġheathing": 2843,
      "Ġblivion": 2844,
      "air": 2845,
      "ause": 2846,
      "bunes": 2847,
      "cue": 2848,
      "cursed": 2849,
      "ged": 2850,
      "gress": 2851,
      "ho": 2852,
      "hies": 2853,
      "hind": 2854,
      "iff": 2855,
      "ja": 2856,
      "je": 2857,
      "jac": 2858,
      "lves": 2859,
      "ni": 2860,
      "nat": 2861,
      "nin": 2862,
      "nan": 2863,
      "nful": 2864,
      "nanc": 2865,
      "nifies": 2866,
      "os": 2867,
      "pter": 2868,
      "pink": 2869,
      "rou": 2870,
      "rin": 2871,
      "ving": 2872,
      "wl": 2873,
      "Ġount": 2874,
      "Ġurb": 2875,
      "Ġze": 2876,
      "Ġurse": 2877,
      "Ġursed": 2878,
      "Ġxperienc": 2879,
      "Ġtin": 2880,
      "Ġtir": 2881,
      "Ġtch": 2882,
      "Ġtius": 2883,
      "Ġtio": 2884,
      "Ġture": 2885,
      "Ġtte": 2886,
      "Ġtters": 2887,
      "Ġturb": 2888,
      "Ġtian": 2889,
      "Ġtardy": 2890,
      "Ġtcr": 2891,
      "Ġtched": 2892,
      "Ġtenance": 2893,
      "Ġtisfaction": 2894,
      "Ġax": 2895,
      "Ġase": 2896,
      "Ġater": 2897,
      "Ġack": 2898,
      "Ġable": 2899,
      "Ġaul": 2900,
      "Ġabs": 2901,
      "Ġaight": 2902,
      "Ġathing": 2903,
      "Ġavery": 2904,
      "Ġagg": 2905,
      "Ġaby": 2906,
      "Ġaith": 2907,
      "Ġaves": 2908,
      "Ġappeas": 2909,
      "Ġaineth": 2910,
      "Ġails": 2911,
      "headed": 2912,
      "Ġsm": 2913,
      "Ġsy": 2914,
      "Ġsus": 2915,
      "Ġsum": 2916,
      "Ġsume": 2917,
      "Ġssio": 2918,
      "Ġschance": 2919,
      "Ġsidering": 2920,
      "Ġsdemon": 2921,
      "Ġsfigure": 2922,
      "Ġsfaction": 2923,
      "Ġwl": 2924,
      "Ġwain": 2925,
      "Ġwate": 2926,
      "Ġwers": 2927,
      "Ġwint": 2928,
      "Ġmm": 2929,
      "Ġmn": 2930,
      "Ġmoo": 2931,
      "Ġmit": 2932,
      "Ġmil": 2933,
      "Ġmpe": 2934,
      "Ġmbs": 2935,
      "Ġmish": 2936,
      "Ġmiss": 2937,
      "Ġmps": 2938,
      "Ġmory": 2939,
      "Ġmper": 2940,
      "Ġmong": 2941,
      "Ġmony": 2942,
      "Ġmfort": 2943,
      "Ġmming": 2944,
      "Ġmetrius": 2945,
      "Ġmselves": 2946,
      "Ġhre": 2947,
      "Ġhar": 2948,
      "Ġhus": 2949,
      "Ġhut": 2950,
      "Ġhore": 2951,
      "Ġhil": 2952,
      "Ġhful": 2953,
      "Ġhig": 2954,
      "Ġhout": 2955,
      "Ġhio": 2956,
      "Ġhink": 2957,
      "Ġhile": 2958,
      "Ġhirt": 2959,
      "Ġhought": 2960,
      "Ġhings": 2961,
      "Ġhite": 2962,
      "Ġhness": 2963,
      "Ġhance": 2964,
      "Ġhree": 2965,
      "Ġhment": 2966,
      "Ġhith": 2967,
      "Ġhren": 2968,
      "Ġhirty": 2969,
      "Ġhiron": 2970,
      "Ġhilip": 2971,
      "Ġhinks": 2972,
      "Ġhless": 2973,
      "Ġhwith": 2974,
      "red": 2975,
      "Ġian": 2976,
      "Ġied": 2977,
      "Ġipe": 2978,
      "Ġible": 2979,
      "Ġiate": 2980,
      "Ġiron": 2981,
      "Ġips": 2982,
      "Ġider": 2983,
      "Ġiers": 2984,
      "Ġiors": 2985,
      "Ġimb": 2986,
      "Ġime": 2987,
      "Ġiking": 2988,
      "Ġived": 2989,
      "Ġirous": 2990,
      "Ġichol": 2991,
      "Ġiding": 2992,
      "Ġicks": 2993,
      "Ġipling": 2994,
      "Ġienc": 2995,
      "Ġigress": 2996,
      "ndel": 2997,
      "ndsi": 2998,
      "Ġfs": 2999
    },
    "merges": [
      [
        "Ġ",
        "t"
      ],
      [
        "Ġ",
        "a"
      ],
      [
        "h",
        "e"
      ],
      [
        "Ġ",
        "s"
      ],
      [
        "Ġ",
        "w"
      ],
      [
        "Ġ",
        "m"
      ],
      [
        "o",
        "u"
      ],
      [
        "Ġ",
        "h"
      ],
      [
        "r",
        "e"
      ],
      [
        "Ġ",
        "i"
      ],
      [
        "n",
        "d"
      ],
      [
        "Ġ",
        "f"
      ],
      [
        "Ġ",
        "b"
      ],
      [
        "Ġt",
        "he"
      ],
      [
        "a",
        "t"
      ],
      [
        "Ġt",
        "h"
      ],
      [
        "Ġa",
        "nd"
      ],
      [
        "e",
        "r"
      ],
      [
        "Ġ",
        "o"
      ],
      [
        "Ġ",
        "l"
      ],
      [
        "i",
        "s"
      ],
      [
        "l",
        "l"
      ],
      [
        "Ġ",
        "c"
      ],
      [
        "o",
        "r"
      ],
      [
        "Ġ",
        "n"
      ],
      [
        "i",
        "n"
      ],
      [
        "Ġ",
        "he"
      ],
      [
        "Ġ",
        "d"
      ],
      [
        "Ġt",
        "o"
      ],
      [
        "Ġ",
        "g"
      ],
      [
        "Ġ",
        "e"
      ],
      [
        "s",
        "t"
      ],
      [
        "t",
        "h"
      ],
      [
        "a",
        "r"
      ],
      [
        "Ġn",
        "o"
      ],
      [
        "o",
        "m"
      ],
      [
        "v",
        "e"
      ],
      [
        "Ġb",
        "e"
      ],
      [
        "Ġ",
        "p"
      ],
      [
        "a",
        "n"
      ],
      [
        "Ġ",
        "y"
      ],
      [
        "o",
        "n"
      ],
      [
        "Ġw",
        "i"
      ],
      [
        "e",
        "s"
      ],
      [
        "Ġm",
        "y"
      ],
      [
        "Ġy",
        "ou"
      ],
      [
        "o",
        "w"
      ],
      [
        "i",
        "r"
      ],
      [
        "Ġw",
        "h"
      ],
      [
        "l",
        "e"
      ],
      [
        "Ġ",
        "r"
      ],
      [
        "in",
        "g"
      ],
      [
        "'",
        "d"
      ],
      [
        "Ġi",
        "n"
      ],
      [
        "i",
        "m"
      ],
      [
        "Ġo",
        "f"
      ],
      [
        "l",
        "d"
      ],
      [
        "u",
        "s"
      ],
      [
        "e",
        "t"
      ],
      [
        "'",
        "s"
      ],
      [
        "Ġf",
        "or"
      ],
      [
        "n",
        "t"
      ],
      [
        "Ġw",
        "e"
      ],
      [
        "Ġh",
        "is"
      ],
      [
        "Ġ",
        "k"
      ],
      [
        "Ġth",
        "at"
      ],
      [
        "Ġs",
        "h"
      ],
      [
        "Ġh",
        "a"
      ],
      [
        "Ġm",
        "e"
      ],
      [
        "u",
        "t"
      ],
      [
        "Ġh",
        "im"
      ],
      [
        "u",
        "r"
      ],
      [
        "s",
        "e"
      ],
      [
        "i",
        "e"
      ],
      [
        "c",
        "e"
      ],
      [
        "Ġm",
        "a"
      ],
      [
        "om",
        "e"
      ],
      [
        "Ġwi",
        "th"
      ],
      [
        "a",
        "ll"
      ],
      [
        "o",
        "o"
      ],
      [
        "i",
        "t"
      ],
      [
        "he",
        "r"
      ],
      [
        "Ġth",
        "ou"
      ],
      [
        "Ġ",
        "u"
      ],
      [
        "ou",
        "r"
      ],
      [
        "Ġd",
        "e"
      ],
      [
        "Ġhe",
        "r"
      ],
      [
        "Ġb",
        "ut"
      ],
      [
        "Ġth",
        "y"
      ],
      [
        "a",
        "d"
      ],
      [
        "a",
        "s"
      ],
      [
        "Ġl",
        "i"
      ],
      [
        "Ġi",
        "s"
      ],
      [
        "Ġ",
        "re"
      ],
      [
        "Ġa",
        "s"
      ],
      [
        "a",
        "y"
      ],
      [
        "Ġk",
        "n"
      ],
      [
        "Ġth",
        "is"
      ],
      [
        "t",
        "er"
      ],
      [
        "at",
        "h"
      ],
      [
        "e",
        "d"
      ],
      [
        "Ġs",
        "t"
      ],
      [
        "Ġno",
        "t"
      ],
      [
        "Ġf",
        "r"
      ],
      [
        "g",
        "h"
      ],
      [
        "o",
        "re"
      ],
      [
        "Ġs",
        "o"
      ],
      [
        "Ġh",
        "ow"
      ],
      [
        "Ġo",
        "n"
      ],
      [
        "k",
        "e"
      ],
      [
        "a",
        "l"
      ],
      [
        "Ġi",
        "t"
      ],
      [
        "Ġs",
        "e"
      ],
      [
        "Ġt",
        "r"
      ],
      [
        "Ġwh",
        "at"
      ],
      [
        "Ġg",
        "o"
      ],
      [
        "Ġs",
        "he"
      ],
      [
        "Ġp",
        "r"
      ],
      [
        "Ġ",
        "our"
      ],
      [
        "m",
        "p"
      ],
      [
        "at",
        "her"
      ],
      [
        "c",
        "k"
      ],
      [
        "Ġa",
        "n"
      ],
      [
        "Ġf",
        "i"
      ],
      [
        "Ġw",
        "as"
      ],
      [
        "l",
        "y"
      ],
      [
        "Ġthe",
        "re"
      ],
      [
        "c",
        "h"
      ],
      [
        "Ġthe",
        "ir"
      ],
      [
        "ou",
        "ld"
      ],
      [
        "a",
        "ve"
      ],
      [
        "gh",
        "t"
      ],
      [
        "oo",
        "d"
      ],
      [
        "Ġl",
        "et"
      ],
      [
        "Ġwi",
        "ll"
      ],
      [
        "Ġsh",
        "all"
      ],
      [
        "Ġf",
        "a"
      ],
      [
        "v",
        "er"
      ],
      [
        "Ġs",
        "ir"
      ],
      [
        "Ġf",
        "ather"
      ],
      [
        "Ġm",
        "an"
      ],
      [
        "e",
        "ar"
      ],
      [
        "i",
        "d"
      ],
      [
        "Ġa",
        "t"
      ],
      [
        "Ġg",
        "r"
      ],
      [
        "u",
        "m"
      ],
      [
        "Ġa",
        "m"
      ],
      [
        "a",
        "st"
      ],
      [
        "ou",
        "s"
      ],
      [
        "Ġc",
        "om"
      ],
      [
        "f",
        "ore"
      ],
      [
        "Ġt",
        "a"
      ],
      [
        "Ġthe",
        "y"
      ],
      [
        "i",
        "l"
      ],
      [
        "i",
        "ll"
      ],
      [
        "Ġa",
        "ll"
      ],
      [
        "e",
        "ll"
      ],
      [
        "Ġd",
        "o"
      ],
      [
        "Ġb",
        "r"
      ],
      [
        "in",
        "e"
      ],
      [
        "Ġha",
        "ve"
      ],
      [
        "Ġc",
        "o"
      ],
      [
        "Ġse",
        "e"
      ],
      [
        "i",
        "us"
      ],
      [
        "e",
        "n"
      ],
      [
        "Ġu",
        "n"
      ],
      [
        "Ġma",
        "st"
      ],
      [
        "t",
        "is"
      ],
      [
        "Ġc",
        "ome"
      ],
      [
        "o",
        "ck"
      ],
      [
        "Ġb",
        "y"
      ],
      [
        "ur",
        "n"
      ],
      [
        "Ġthe",
        "e"
      ],
      [
        "Ġ",
        "'"
      ],
      [
        "o",
        "t"
      ],
      [
        "p",
        "e"
      ],
      [
        "re",
        "s"
      ],
      [
        "Ġfi",
        "re"
      ],
      [
        "Ġyou",
        "r"
      ],
      [
        "Ġr",
        "ome"
      ],
      [
        "b",
        "le"
      ],
      [
        "Ġmast",
        "er"
      ],
      [
        "Ġs",
        "w"
      ],
      [
        "Ġno",
        "w"
      ],
      [
        "Ġa",
        "re"
      ],
      [
        "f",
        "e"
      ],
      [
        "e",
        "m"
      ],
      [
        "Ġw",
        "or"
      ],
      [
        "Ġh",
        "or"
      ],
      [
        "Ġc",
        "ur"
      ],
      [
        "u",
        "l"
      ],
      [
        "Ġe",
        "ver"
      ],
      [
        "Ġh",
        "ath"
      ],
      [
        "Ġn",
        "e"
      ],
      [
        "Ġo",
        "r"
      ],
      [
        "Ġl",
        "u"
      ],
      [
        "Ġwh",
        "o"
      ],
      [
        "Ġl",
        "a"
      ],
      [
        "u",
        "n"
      ],
      [
        "Ġi",
        "f"
      ],
      [
        "i",
        "es"
      ],
      [
        "Ġhe",
        "re"
      ],
      [
        "Ġwh",
        "y"
      ],
      [
        "Ġe",
        "mp"
      ],
      [
        "Ġha",
        "nd"
      ],
      [
        "Ġg",
        "ood"
      ],
      [
        "a",
        "in"
      ],
      [
        "Ġl",
        "e"
      ],
      [
        "res",
        "s"
      ],
      [
        "Ġkn",
        "ock"
      ],
      [
        "Ġsh",
        "ould"
      ],
      [
        "e",
        "nt"
      ],
      [
        "i",
        "ve"
      ],
      [
        "Ġe",
        "nt"
      ],
      [
        "Ġfr",
        "om"
      ],
      [
        "Ġth",
        "an"
      ],
      [
        "p",
        "on"
      ],
      [
        "Ġwe",
        "re"
      ],
      [
        "Ġkn",
        "ow"
      ],
      [
        "ie",
        "nd"
      ],
      [
        "Ġm",
        "i"
      ],
      [
        "Ġa",
        "y"
      ],
      [
        "f",
        "ul"
      ],
      [
        "Ġc",
        "h"
      ],
      [
        "Ġa",
        "l"
      ],
      [
        "i",
        "g"
      ],
      [
        "q",
        "u"
      ],
      [
        "Ġs",
        "ay"
      ],
      [
        "Ġli",
        "ve"
      ],
      [
        "Ġt",
        "it"
      ],
      [
        "ou",
        "t"
      ],
      [
        "is",
        "t"
      ],
      [
        "Ġma",
        "ke"
      ],
      [
        "Ġs",
        "u"
      ],
      [
        "at",
        "e"
      ],
      [
        "Ġw",
        "he"
      ],
      [
        "o",
        "p"
      ],
      [
        "r",
        "ow"
      ],
      [
        "Ġe",
        "x"
      ],
      [
        "l",
        "f"
      ],
      [
        "Ġw",
        "ould"
      ],
      [
        "Ġcom",
        "es"
      ],
      [
        "Ġent",
        "er"
      ],
      [
        "Ġthe",
        "m"
      ],
      [
        "Ġfr",
        "iend"
      ],
      [
        "Ġtr",
        "u"
      ],
      [
        "Ġe",
        "n"
      ],
      [
        "Ġgo",
        "th"
      ],
      [
        "Ġthere",
        "fore"
      ],
      [
        "Ġcur",
        "tis"
      ],
      [
        "Ġr",
        "a"
      ],
      [
        "on",
        "e"
      ],
      [
        "r",
        "a"
      ],
      [
        "i",
        "c"
      ],
      [
        "Ġg",
        "ive"
      ],
      [
        "Ġa",
        "w"
      ],
      [
        "Ġg",
        "re"
      ],
      [
        "Ġb",
        "o"
      ],
      [
        "r",
        "on"
      ],
      [
        "Ġs",
        "at"
      ],
      [
        "or",
        "d"
      ],
      [
        "Ġ",
        "j"
      ],
      [
        "Ġwh",
        "i"
      ],
      [
        "e",
        "p"
      ],
      [
        "Ġm",
        "ar"
      ],
      [
        "Ġbe",
        "g"
      ],
      [
        "b",
        "s"
      ],
      [
        "Ġu",
        "pon"
      ],
      [
        "Ġhor",
        "se"
      ],
      [
        "Ġc",
        "all"
      ],
      [
        "i",
        "o"
      ],
      [
        "Ġc",
        "on"
      ],
      [
        "er",
        "or"
      ],
      [
        "Ġde",
        "ath"
      ],
      [
        "Ġli",
        "fe"
      ],
      [
        "Ġc",
        "an"
      ],
      [
        "Ġm",
        "u"
      ],
      [
        "om",
        "an"
      ],
      [
        "Ġfriend",
        "s"
      ],
      [
        "an",
        "g"
      ],
      [
        "ot",
        "her"
      ],
      [
        "i",
        "ght"
      ],
      [
        "Ġemp",
        "eror"
      ],
      [
        "Ġno",
        "ble"
      ],
      [
        "Ġ",
        "us"
      ],
      [
        "e",
        "l"
      ],
      [
        "Ġe",
        "ar"
      ],
      [
        "Ġto",
        "o"
      ],
      [
        "Ġ",
        "v"
      ],
      [
        "Ġb",
        "re"
      ],
      [
        "Ġo",
        "ld"
      ],
      [
        "r",
        "i"
      ],
      [
        "a",
        "c"
      ],
      [
        "Ġtr",
        "i"
      ],
      [
        "ou",
        "d"
      ],
      [
        "Ġb",
        "l"
      ],
      [
        "Ġlu",
        "c"
      ],
      [
        "Ġp",
        "er"
      ],
      [
        "Ġun",
        "c"
      ],
      [
        "i",
        "on"
      ],
      [
        "Ġs",
        "pe"
      ],
      [
        "a",
        "k"
      ],
      [
        "Ġ",
        "out"
      ],
      [
        "Ġl",
        "o"
      ],
      [
        "Ġaw",
        "ay"
      ],
      [
        "i",
        "a"
      ],
      [
        "Ġco",
        "ld"
      ],
      [
        "er",
        "v"
      ],
      [
        "Ġfa",
        "ce"
      ],
      [
        "l",
        "es"
      ],
      [
        "Ġs",
        "l"
      ],
      [
        "in",
        "k"
      ],
      [
        "Ġhe",
        "ar"
      ],
      [
        "Ġli",
        "ke"
      ],
      [
        "o",
        "l"
      ],
      [
        "i",
        "ce"
      ],
      [
        "Ġb",
        "ur"
      ],
      [
        "Ġspe",
        "ak"
      ],
      [
        "Ġof",
        "f"
      ],
      [
        "Ġunc",
        "le"
      ],
      [
        "Ġt",
        "ell"
      ],
      [
        "Ġs",
        "on"
      ],
      [
        "ou",
        "l"
      ],
      [
        "Ġf",
        "ir"
      ],
      [
        "Ġluc",
        "ius"
      ],
      [
        "is",
        "h"
      ],
      [
        "Ġbe",
        "fore"
      ],
      [
        "Ġla",
        "v"
      ],
      [
        "Ġst",
        "a"
      ],
      [
        "in",
        "ia"
      ],
      [
        "is",
        "s"
      ],
      [
        "Ġwhi",
        "ch"
      ],
      [
        "Ġsat",
        "urn"
      ],
      [
        "p",
        "p"
      ],
      [
        "Ġh",
        "ang"
      ],
      [
        "ar",
        "m"
      ],
      [
        "a",
        "re"
      ],
      [
        "i",
        "ous"
      ],
      [
        "Ġmi",
        "nd"
      ],
      [
        "Ġm",
        "ist"
      ],
      [
        "Ġwe",
        "ll"
      ],
      [
        "Ġfor",
        "th"
      ],
      [
        "ave",
        "n"
      ],
      [
        "ear",
        "s"
      ],
      [
        "Ġt",
        "ill"
      ],
      [
        "Ġs",
        "is"
      ],
      [
        "Ġman",
        "y"
      ],
      [
        "Ġlav",
        "inia"
      ],
      [
        "Ġbr",
        "other"
      ],
      [
        "Ġfir",
        "st"
      ],
      [
        "Ġsis",
        "ter"
      ],
      [
        "Ġa",
        "d"
      ],
      [
        "Ġma",
        "y"
      ],
      [
        "Ġmist",
        "ress"
      ],
      [
        "se",
        "lf"
      ],
      [
        "i",
        "re"
      ],
      [
        "Ġde",
        "ad"
      ],
      [
        "Ġc",
        "r"
      ],
      [
        "Ġbe",
        "ing"
      ],
      [
        "Ġn",
        "or"
      ],
      [
        "Ġta",
        "ke"
      ],
      [
        "p",
        "s"
      ],
      [
        "l",
        "ie"
      ],
      [
        "g",
        "s"
      ],
      [
        "Ġt",
        "urn"
      ],
      [
        "Ġta",
        "m"
      ],
      [
        "Ġe",
        "y"
      ],
      [
        "Ġb",
        "a"
      ],
      [
        "a",
        "m"
      ],
      [
        "u",
        "re"
      ],
      [
        "Ġl",
        "ord"
      ],
      [
        "Ġo",
        "b"
      ],
      [
        "ar",
        "b"
      ],
      [
        "Ġen",
        "em"
      ],
      [
        "Ġgre",
        "at"
      ],
      [
        "e",
        "st"
      ],
      [
        "Ġs",
        "p"
      ],
      [
        "Ġpr",
        "oud"
      ],
      [
        "i",
        "le"
      ],
      [
        "Ġ",
        ","
      ],
      [
        "Ġt",
        "w"
      ],
      [
        "ir",
        "t"
      ],
      [
        "Ġear",
        "th"
      ],
      [
        "u",
        "nt"
      ],
      [
        "Ġ",
        "qu"
      ],
      [
        "Ġs",
        "c"
      ],
      [
        "f",
        "t"
      ],
      [
        "Ġth",
        "ine"
      ],
      [
        "id",
        "e"
      ],
      [
        "ow",
        "n"
      ],
      [
        "Ġch",
        "i"
      ],
      [
        "Ġs",
        "erv"
      ],
      [
        "'",
        "ll"
      ],
      [
        "k",
        "s"
      ],
      [
        "Ġthe",
        "n"
      ],
      [
        "or",
        "y"
      ],
      [
        "Ġhe",
        "ad"
      ],
      [
        "Ġbe",
        "ast"
      ],
      [
        "Ġp",
        "le"
      ],
      [
        "i",
        "al"
      ],
      [
        "Ġm",
        "ore"
      ],
      [
        "Ġsw",
        "e"
      ],
      [
        "d",
        "er"
      ],
      [
        "is",
        "e"
      ],
      [
        "Ġd",
        "es"
      ],
      [
        "Ġma",
        "d"
      ],
      [
        "Ġwhe",
        "re"
      ],
      [
        "Ġne",
        "w"
      ],
      [
        "Ġtit",
        "us"
      ],
      [
        "Ġchi",
        "ld"
      ],
      [
        "Ġa",
        "em"
      ],
      [
        "Ġk",
        "iss"
      ],
      [
        "oo",
        "k"
      ],
      [
        "Ġa",
        "r"
      ],
      [
        "Ġs",
        "or"
      ],
      [
        "Ġt",
        "ears"
      ],
      [
        "Ġw",
        "oman"
      ],
      [
        "ou",
        "nd"
      ],
      [
        "Ġf",
        "ell"
      ],
      [
        "Ġre",
        "ad"
      ],
      [
        "Ġbur",
        "ial"
      ],
      [
        "Ġaem",
        "il"
      ],
      [
        "g",
        "es"
      ],
      [
        "Ġsta",
        "nd"
      ],
      [
        "Ġread",
        "y"
      ],
      [
        "ou",
        "ght"
      ],
      [
        "re",
        "w"
      ],
      [
        "ing",
        "s"
      ],
      [
        "th",
        "ing"
      ],
      [
        "Ġswe",
        "et"
      ],
      [
        "Ġm",
        "at"
      ],
      [
        "Ġex",
        "e"
      ],
      [
        "Ġs",
        "ight"
      ],
      [
        "Ġaemil",
        "ius"
      ],
      [
        "Ġde",
        "v"
      ],
      [
        "Ġbrother",
        "s"
      ],
      [
        "Ġh",
        "o"
      ],
      [
        "Ġse",
        "nt"
      ],
      [
        "Ġr",
        "o"
      ],
      [
        "t",
        "e"
      ],
      [
        "f",
        "or"
      ],
      [
        "ve",
        "n"
      ],
      [
        "Ġgo",
        "d"
      ],
      [
        "Ġpr",
        "o"
      ],
      [
        "Ġpr",
        "ay"
      ],
      [
        "Ġi",
        "mp"
      ],
      [
        "ie",
        "f"
      ],
      [
        "it",
        "e"
      ],
      [
        "Ġf",
        "ear"
      ],
      [
        "Ġta",
        "le"
      ],
      [
        "lie",
        "ve"
      ],
      [
        "Ġgr",
        "ief"
      ],
      [
        "c",
        "us"
      ],
      [
        "Ġwe",
        "l"
      ],
      [
        "Ġtri",
        "b"
      ],
      [
        "l",
        "p"
      ],
      [
        "l",
        "t"
      ],
      [
        "Ġf",
        "all"
      ],
      [
        "Ġf",
        "oo"
      ],
      [
        "m",
        "o"
      ],
      [
        "Ġp",
        "l"
      ],
      [
        "Ġha",
        "d"
      ],
      [
        "Ġu",
        "nt"
      ],
      [
        "Ġbl",
        "ood"
      ],
      [
        "Ġl",
        "ast"
      ],
      [
        "Ġhe",
        "lp"
      ],
      [
        "m",
        "s"
      ],
      [
        "u",
        "e"
      ],
      [
        "Ġre",
        "p"
      ],
      [
        "r",
        "u"
      ],
      [
        "Ġa",
        "ar"
      ],
      [
        "Ġd",
        "ut"
      ],
      [
        "Ġwi",
        "fe"
      ],
      [
        "Ġk",
        "ill"
      ],
      [
        "Ġtrib",
        "un"
      ],
      [
        "Ġw",
        "ron"
      ],
      [
        "Ġf",
        "ie"
      ],
      [
        "Ġth",
        "row"
      ],
      [
        "Ġf",
        "u"
      ],
      [
        "Ġl",
        "im"
      ],
      [
        "ve",
        "y"
      ],
      [
        "Ġde",
        "ed"
      ],
      [
        "Ġwor",
        "d"
      ],
      [
        "Ġexe",
        "unt"
      ],
      [
        "t",
        "le"
      ],
      [
        "Ġd",
        "own"
      ],
      [
        "es",
        "s"
      ],
      [
        "Ġwith",
        "al"
      ],
      [
        "Ġmar",
        "cus"
      ],
      [
        "he",
        "d"
      ],
      [
        "ou",
        "gh"
      ],
      [
        "Ġthe",
        "se"
      ],
      [
        "Ġtw",
        "o"
      ],
      [
        "Ġwel",
        "c"
      ],
      [
        "Ġunt",
        "o"
      ],
      [
        "Ġaar",
        "on"
      ],
      [
        "Ġw",
        "o"
      ],
      [
        "Ġl",
        "it"
      ],
      [
        "Ġgr",
        "ave"
      ],
      [
        "Ġmu",
        "ch"
      ],
      [
        "Ġlo",
        "v"
      ],
      [
        "Ġg",
        "ent"
      ],
      [
        "Ġp",
        "re"
      ],
      [
        "et",
        "s"
      ],
      [
        "Ġwor",
        "st"
      ],
      [
        "Ġenem",
        "ies"
      ],
      [
        "n",
        "ess"
      ],
      [
        "Ġt",
        "al"
      ],
      [
        "Ġw",
        "arm"
      ],
      [
        "Ġf",
        "oul"
      ],
      [
        "Ġl",
        "ook"
      ],
      [
        "an",
        "ce"
      ],
      [
        "ie",
        "l"
      ],
      [
        "Ġever",
        "y"
      ],
      [
        "Ġwhe",
        "n"
      ],
      [
        "Ġcon",
        "vey"
      ],
      [
        "Ġlim",
        "bs"
      ],
      [
        "t",
        "s"
      ],
      [
        "d",
        "ges"
      ],
      [
        "r",
        "y"
      ],
      [
        "Ġs",
        "ound"
      ],
      [
        "Ġbe",
        "ar"
      ],
      [
        "Ġtru",
        "e"
      ],
      [
        "Ġwith",
        "in"
      ],
      [
        "Ġwor",
        "th"
      ],
      [
        "Ġhor",
        "s"
      ],
      [
        "Ġbo",
        "y"
      ],
      [
        "o",
        "ld"
      ],
      [
        "Ġcom",
        "p"
      ],
      [
        "Ġwelc",
        "ome"
      ],
      [
        "Ġsaturn",
        "ine"
      ],
      [
        "Ġlit",
        "tle"
      ],
      [
        "Ġgent",
        "le"
      ],
      [
        "re",
        "l"
      ],
      [
        "Ġqu",
        "ar"
      ],
      [
        "Ġo",
        "w"
      ],
      [
        "Ġmy",
        "self"
      ],
      [
        "re",
        "e"
      ],
      [
        "Ġhe",
        "aven"
      ],
      [
        "Ġno",
        "thing"
      ],
      [
        "Ġfa",
        "rew"
      ],
      [
        "Ġdev",
        "il"
      ],
      [
        "Ġmu",
        "st"
      ],
      [
        "Ġhors",
        "es"
      ],
      [
        "Ġquar",
        "rel"
      ],
      [
        "ar",
        "d"
      ],
      [
        "Ġfarew",
        "ell"
      ],
      [
        "Ġmat",
        "ter"
      ],
      [
        "Ġgoth",
        "s"
      ],
      [
        "m",
        "ent"
      ],
      [
        "Ġf",
        "e"
      ],
      [
        "ver",
        "y"
      ],
      [
        "Ġo",
        "t"
      ],
      [
        "Ġbe",
        "en"
      ],
      [
        "Ġwi",
        "t"
      ],
      [
        "Ġd",
        "one"
      ],
      [
        "r",
        "o"
      ],
      [
        "Ġt",
        "e"
      ],
      [
        "Ġse",
        "n"
      ],
      [
        "g",
        "g"
      ],
      [
        "i",
        "v"
      ],
      [
        "Ġh",
        "ou"
      ],
      [
        "Ġc",
        "a"
      ],
      [
        "Ġthan",
        "k"
      ],
      [
        "Ġp",
        "et"
      ],
      [
        "Ġw",
        "al"
      ],
      [
        "Ġm",
        "o"
      ],
      [
        "Ġh",
        "um"
      ],
      [
        "Ġli",
        "ps"
      ],
      [
        "er",
        "s"
      ],
      [
        "ter",
        "s"
      ],
      [
        "f",
        "f"
      ],
      [
        "or",
        "s"
      ],
      [
        "Ġwe",
        "a"
      ],
      [
        "Ġre",
        "st"
      ],
      [
        "Ġlu",
        "st"
      ],
      [
        "Ġp",
        "ile"
      ],
      [
        "Ġwe",
        "ep"
      ],
      [
        "i",
        "f"
      ],
      [
        "n",
        "e"
      ],
      [
        "p",
        "er"
      ],
      [
        "Ġs",
        "ac"
      ],
      [
        "Ġb",
        "arb"
      ],
      [
        "Ġbe",
        "lieve"
      ],
      [
        "Ġfr",
        "o"
      ],
      [
        "i",
        "p"
      ],
      [
        "n",
        "c"
      ],
      [
        "Ġb",
        "an"
      ],
      [
        "er",
        "ic"
      ],
      [
        "Ġp",
        "o"
      ],
      [
        "Ġshe",
        "ath"
      ],
      [
        "Ġan",
        "y"
      ],
      [
        "ri",
        "f"
      ],
      [
        "Ġob",
        "l"
      ],
      [
        "Ġwal",
        "ter"
      ],
      [
        "m",
        "b"
      ],
      [
        "Ġ",
        "nd"
      ],
      [
        "Ġm",
        "our"
      ],
      [
        "ou",
        "th"
      ],
      [
        "Ġh",
        "ate"
      ],
      [
        "is",
        "f"
      ],
      [
        "Ġc",
        "ar"
      ],
      [
        "Ġpr",
        "a"
      ],
      [
        "Ġch",
        "ol"
      ],
      [
        "ron",
        "ic"
      ],
      [
        "'",
        "?"
      ],
      [
        "b",
        "y"
      ],
      [
        "e",
        "a"
      ],
      [
        "g",
        "ar"
      ],
      [
        "l",
        "our"
      ],
      [
        "p",
        "h"
      ],
      [
        "Ġa",
        "h"
      ],
      [
        "Ġs",
        "ide"
      ],
      [
        "Ġf",
        "ine"
      ],
      [
        "im",
        "m"
      ],
      [
        "Ġha",
        "st"
      ],
      [
        "Ġme",
        "ed"
      ],
      [
        "Ġco",
        "at"
      ],
      [
        "Ġobl",
        "iv"
      ],
      [
        "i",
        "th"
      ],
      [
        "Ġt",
        "ig"
      ],
      [
        "Ġa",
        "u"
      ],
      [
        "Ġc",
        "l"
      ],
      [
        "or",
        "a"
      ],
      [
        "Ġg",
        "at"
      ],
      [
        "ar",
        "ous"
      ],
      [
        "an",
        "t"
      ],
      [
        "Ġin",
        "t"
      ],
      [
        "us",
        "h"
      ],
      [
        "Ġde",
        "ar"
      ],
      [
        "Ġwho",
        "se"
      ],
      [
        "Ġex",
        "it"
      ],
      [
        "Ġwo",
        "e"
      ],
      [
        "Ġow",
        "n"
      ],
      [
        "i",
        "nd"
      ],
      [
        "m",
        "a"
      ],
      [
        "Ġs",
        "ome"
      ],
      [
        "Ġm",
        "outh"
      ],
      [
        "or",
        "t"
      ],
      [
        "Ġg",
        "ate"
      ],
      [
        "Ġno",
        "ne"
      ],
      [
        "Ġbe",
        "c"
      ],
      [
        "Ġbe",
        "t"
      ],
      [
        "Ġy",
        "et"
      ],
      [
        "Ġme",
        "n"
      ],
      [
        "Ġre",
        "ce"
      ],
      [
        "Ġtr",
        "imm"
      ],
      [
        "Ġoff",
        "ice"
      ],
      [
        "Ġfoo",
        "t"
      ],
      [
        "Ġsac",
        "rif"
      ],
      [
        "Ġmour",
        "n"
      ],
      [
        "h",
        "a"
      ],
      [
        "t",
        "y"
      ],
      [
        "Ġh",
        "at"
      ],
      [
        "Ġd",
        "irt"
      ],
      [
        "Ġbe",
        "ll"
      ],
      [
        "Ġwi",
        "lt"
      ],
      [
        "Ġr",
        "aven"
      ],
      [
        "Ġsir",
        "s"
      ],
      [
        "um",
        "e"
      ],
      [
        "Ġsw",
        "ord"
      ],
      [
        "Ġtit",
        "les"
      ],
      [
        "Ġj",
        "u"
      ],
      [
        "Ġcon",
        "s"
      ],
      [
        "Ġtam",
        "ora"
      ],
      [
        "Ġar",
        "ms"
      ],
      [
        "Ġwron",
        "gs"
      ],
      [
        "Ġwea",
        "pon"
      ],
      [
        "Ġw",
        "ood"
      ],
      [
        "Ġand",
        "ronic"
      ],
      [
        "Ġn",
        "ay"
      ],
      [
        "Ġd",
        "id"
      ],
      [
        "Ġg",
        "one"
      ],
      [
        "Ġp",
        "u"
      ],
      [
        "Ġwi",
        "pe"
      ],
      [
        "Ġk",
        "ather"
      ],
      [
        "Ġst",
        "ri"
      ],
      [
        "Ġne",
        "at"
      ],
      [
        "Ġhear",
        "d"
      ],
      [
        "Ġserv",
        "ing"
      ],
      [
        "Ġhead",
        "s"
      ],
      [
        "Ġsheath",
        "ing"
      ],
      [
        "in",
        "us"
      ],
      [
        "Ġhe",
        "el"
      ],
      [
        "Ġp",
        "res"
      ],
      [
        "an",
        "s"
      ],
      [
        "on",
        "g"
      ],
      [
        "Ġr",
        "oman"
      ],
      [
        "Ġin",
        "ter"
      ],
      [
        "ie",
        "nt"
      ],
      [
        "Ġso",
        "on"
      ],
      [
        "mp",
        "t"
      ],
      [
        "Ġfa",
        "ir"
      ],
      [
        "Ġat",
        "te"
      ],
      [
        "Ġgr",
        "ac"
      ],
      [
        "Ġdo",
        "om"
      ],
      [
        "Ġsw",
        "ear"
      ],
      [
        "Ġknow",
        "n"
      ],
      [
        "am",
        "e"
      ],
      [
        "Ġdut",
        "y"
      ],
      [
        "Ġchol",
        "eric"
      ],
      [
        "Ġobliv",
        "ion"
      ],
      [
        "Ġtig",
        "er"
      ],
      [
        "Ġgat",
        "es"
      ],
      [
        "o",
        "se"
      ],
      [
        "Ġt",
        "ire"
      ],
      [
        "Ġa",
        "f"
      ],
      [
        "Ġa",
        "pp"
      ],
      [
        "Ġm",
        "ut"
      ],
      [
        "Ġh",
        "ot"
      ],
      [
        "Ġb",
        "on"
      ],
      [
        "Ġl",
        "ad"
      ],
      [
        "is",
        "hed"
      ],
      [
        "Ġme",
        "ans"
      ],
      [
        "Ġfr",
        "u"
      ],
      [
        "Ġal",
        "arb"
      ],
      [
        "Ġlive",
        "s"
      ],
      [
        "Ġra",
        "p"
      ],
      [
        "Ġper",
        "ha"
      ],
      [
        "Ġey",
        "e"
      ],
      [
        "re",
        "n"
      ],
      [
        "Ġn",
        "ath"
      ],
      [
        "Ġd",
        "et"
      ],
      [
        "Ġd",
        "ie"
      ],
      [
        "Ġbe",
        "h"
      ],
      [
        "us",
        "e"
      ],
      [
        "Ġle",
        "ft"
      ],
      [
        "Ġsu",
        "re"
      ],
      [
        "Ġbeg",
        "in"
      ],
      [
        "Ġv",
        "ill"
      ],
      [
        "Ġper",
        "for"
      ],
      [
        "Ġba",
        "se"
      ],
      [
        "Ġlov",
        "ing"
      ],
      [
        "Ġbarb",
        "arous"
      ],
      [
        "Ġint",
        "o"
      ],
      [
        "Ġbet",
        "ter"
      ],
      [
        "Ġaf",
        "ter"
      ],
      [
        "Ġa",
        "g"
      ],
      [
        "Ġb",
        "id"
      ],
      [
        "Ġth",
        "us"
      ],
      [
        "Ġn",
        "ear"
      ],
      [
        "Ġg",
        "l"
      ],
      [
        "oo",
        "f"
      ],
      [
        "Ġst",
        "ay"
      ],
      [
        "Ġfi",
        "nd"
      ],
      [
        "ave",
        "s"
      ],
      [
        "Ġla",
        "w"
      ],
      [
        "Ġbre",
        "ast"
      ],
      [
        "Ġsl",
        "ave"
      ],
      [
        "Ġfu",
        "ll"
      ],
      [
        "Ġtal",
        "k"
      ],
      [
        "Ġpra",
        "ise"
      ],
      [
        "Ġrece",
        "ive"
      ],
      [
        "Ġatte",
        "mpt"
      ],
      [
        "Ġtire",
        "d"
      ],
      [
        "Ġbon",
        "es"
      ],
      [
        "n",
        "g"
      ],
      [
        "z",
        "en"
      ],
      [
        "Ġs",
        "un"
      ],
      [
        "Ġf",
        "et"
      ],
      [
        "Ġkn",
        "e"
      ],
      [
        "Ġmaster",
        "s"
      ],
      [
        "Ġmad",
        "e"
      ],
      [
        "Ġkiss",
        "es"
      ],
      [
        "Ġsor",
        "row"
      ],
      [
        "Ġtribun",
        "es"
      ],
      [
        "Ġwit",
        "ness"
      ],
      [
        "Ġraven",
        "ous"
      ],
      [
        "Ġfru",
        "it"
      ],
      [
        "Ġperha",
        "ps"
      ],
      [
        "Ġdet",
        "est"
      ],
      [
        "a",
        "ck"
      ],
      [
        "ra",
        "w"
      ],
      [
        "Ġbeast",
        "ly"
      ],
      [
        "Ġsound",
        "ly"
      ],
      [
        "Ġalarb",
        "us"
      ],
      [
        "Ġnath",
        "an"
      ],
      [
        "Ġvill",
        "ain"
      ],
      [
        "Ġh",
        "i"
      ],
      [
        "Ġf",
        "ol"
      ],
      [
        "ad",
        "ed"
      ],
      [
        "pp",
        "er"
      ],
      [
        "Ġhou",
        "se"
      ],
      [
        "Ġmut",
        "ius"
      ],
      [
        "Ġgl",
        "ad"
      ],
      [
        "Ġs",
        "oul"
      ],
      [
        "Ġbe",
        "at"
      ],
      [
        "ow",
        "ing"
      ],
      [
        "Ġon",
        "e"
      ],
      [
        "Ġemp",
        "ress"
      ],
      [
        "Ġshould",
        "st"
      ],
      [
        "Ġple",
        "dges"
      ],
      [
        "Ġworth",
        "y"
      ],
      [
        "Ġgrac",
        "ious"
      ],
      [
        "Ġfol",
        "ks"
      ],
      [
        "he",
        "s"
      ],
      [
        "Ġth",
        "ings"
      ],
      [
        "Ġhe",
        "w"
      ],
      [
        "it",
        "her"
      ],
      [
        "Ġde",
        "ep"
      ],
      [
        "Ġlad",
        "der"
      ],
      [
        "Ġlaw",
        "ful"
      ],
      [
        "Ġsh",
        "ow"
      ],
      [
        "mp",
        "ets"
      ],
      [
        "Ġsaturn",
        "inus"
      ],
      [
        "Ġnew",
        "s"
      ],
      [
        "Ġsor",
        "ry"
      ],
      [
        "Ġnathan",
        "iel"
      ],
      [
        "ou",
        "nt"
      ],
      [
        "Ġin",
        "c"
      ],
      [
        "Ġtru",
        "th"
      ],
      [
        "Ġandronic",
        "us"
      ],
      [
        "Ġp",
        "it"
      ],
      [
        "on",
        "y"
      ],
      [
        "Ġmi",
        "ght"
      ],
      [
        "Ġfell",
        "ow"
      ],
      [
        "Ġ",
        "er"
      ],
      [
        "Ġbr",
        "ought"
      ],
      [
        "Ġtru",
        "mpets"
      ],
      [
        "Ġthy",
        "self"
      ],
      [
        "Ġ",
        "."
      ],
      [
        "Ġp",
        "ie"
      ],
      [
        "Ġcomp",
        "an"
      ],
      [
        "Ġpie",
        "ce"
      ],
      [
        "Ġ",
        "ve"
      ],
      [
        "Ġw",
        "re"
      ],
      [
        "Ġe",
        "re"
      ],
      [
        "Ġwre",
        "t"
      ],
      [
        "m",
        "e"
      ],
      [
        "en",
        "ce"
      ],
      [
        "Ġth",
        "a"
      ],
      [
        "Ġ",
        "very"
      ],
      [
        "Ġf",
        "at"
      ],
      [
        "d",
        "s"
      ],
      [
        "Ġcr",
        "y"
      ],
      [
        "Ġb",
        "ir"
      ],
      [
        "is",
        "on"
      ],
      [
        "Ġpr",
        "ison"
      ],
      [
        "s",
        "s"
      ],
      [
        "Ġbir",
        "ds"
      ],
      [
        "Ġc",
        "u"
      ],
      [
        "Ġl",
        "l"
      ],
      [
        "Ġp",
        "e"
      ],
      [
        "Ġhe",
        "a"
      ],
      [
        "Ġsh",
        "al"
      ],
      [
        "Ġde",
        "a"
      ],
      [
        "Ġl",
        "ed"
      ],
      [
        "p",
        "pe"
      ],
      [
        "s",
        "i"
      ],
      [
        "Ġ",
        "ou"
      ],
      [
        "Ġi",
        "nd"
      ],
      [
        "Ġd",
        "a"
      ],
      [
        "Ġbr",
        "o"
      ],
      [
        "d",
        "e"
      ],
      [
        "s",
        "om"
      ],
      [
        "Ġw",
        "ar"
      ],
      [
        "Ġb",
        "le"
      ],
      [
        "Ġc",
        "le"
      ],
      [
        "in",
        "t"
      ],
      [
        "ow",
        "s"
      ],
      [
        "Ġ",
        "ven"
      ],
      [
        "Ġw",
        "er"
      ],
      [
        "ve",
        "s"
      ],
      [
        "Ġbe",
        "f"
      ],
      [
        "Ġsh",
        "ad"
      ],
      [
        "Ġha",
        "l"
      ],
      [
        "Ġu",
        "p"
      ],
      [
        "Ġde",
        "m"
      ],
      [
        "Ġun",
        "a"
      ],
      [
        "Ġper",
        "f"
      ],
      [
        "Ġproud",
        "est"
      ],
      [
        "g",
        "e"
      ],
      [
        "Ġs",
        "ig"
      ],
      [
        "Ġm",
        "ur"
      ],
      [
        "Ġg",
        "ar"
      ],
      [
        "Ġin",
        "ce"
      ],
      [
        "Ġwe",
        "lf"
      ],
      [
        "Ġme",
        "at"
      ],
      [
        "ur",
        "b"
      ],
      [
        "Ġre",
        "t"
      ],
      [
        "Ġst",
        "e"
      ],
      [
        "Ġbo",
        "som"
      ],
      [
        "Ġsen",
        "si"
      ],
      [
        "Ġlust",
        "y"
      ],
      [
        "Ġpo",
        "int"
      ],
      [
        "'",
        "re"
      ],
      [
        "e",
        "k"
      ],
      [
        "f",
        "u"
      ],
      [
        "g",
        "ory"
      ],
      [
        "Ġt",
        "re"
      ],
      [
        "Ġs",
        "k"
      ],
      [
        "Ġs",
        "mo"
      ],
      [
        "Ġm",
        "one"
      ],
      [
        "Ġi",
        "ce"
      ],
      [
        "Ġl",
        "ink"
      ],
      [
        "Ġd",
        "ist"
      ],
      [
        "Ġd",
        "am"
      ],
      [
        "Ġp",
        "h"
      ],
      [
        "Ġfor",
        "t"
      ],
      [
        "Ġu",
        "nd"
      ],
      [
        "Ġre",
        "qu"
      ],
      [
        "Ġdo",
        "st"
      ],
      [
        "Ġco",
        "lour"
      ],
      [
        "Ġra",
        "gg"
      ],
      [
        "Ġwhi",
        "le"
      ],
      [
        "Ġtoo",
        "k"
      ],
      [
        "Ġgrief",
        "s"
      ],
      [
        "Ġfe",
        "el"
      ],
      [
        "Ġpet",
        "er"
      ],
      [
        "Ġhum",
        "b"
      ],
      [
        "Ġcu",
        "ff"
      ],
      [
        "ppe",
        "as"
      ],
      [
        "Ġda",
        "gg"
      ],
      [
        "Ġdem",
        "et"
      ],
      [
        "Ġmur",
        "d"
      ],
      [
        "Ġince",
        "n"
      ],
      [
        "k",
        "ing"
      ],
      [
        "m",
        "en"
      ],
      [
        "Ġs",
        "le"
      ],
      [
        "Ġs",
        "ad"
      ],
      [
        "Ġw",
        "ay"
      ],
      [
        "Ġo",
        "ath"
      ],
      [
        "Ġn",
        "at"
      ],
      [
        "ve",
        "d"
      ],
      [
        "ve",
        "nt"
      ],
      [
        "Ġp",
        "ip"
      ],
      [
        "Ġwh",
        "om"
      ],
      [
        "Ġst",
        "one"
      ],
      [
        "Ġfa",
        "ith"
      ],
      [
        "Ġun",
        "e"
      ],
      [
        "Ġle",
        "ast"
      ],
      [
        "Ġra",
        "ise"
      ],
      [
        "Ġgre",
        "gory"
      ],
      [
        "Ġcan",
        "st"
      ],
      [
        "Ġenem",
        "y"
      ],
      [
        "Ġqu",
        "e"
      ],
      [
        "Ġpro",
        "d"
      ],
      [
        "Ġdea",
        "f"
      ],
      [
        "Ġcle",
        "an"
      ],
      [
        "Ġshad",
        "ows"
      ],
      [
        "Ġwelf",
        "are"
      ],
      [
        "Ġste",
        "el"
      ],
      [
        "Ġsk",
        "y"
      ],
      [
        "Ġsmo",
        "ke"
      ],
      [
        "Ġmone",
        "y"
      ],
      [
        "d",
        "y"
      ],
      [
        "g",
        "ure"
      ],
      [
        "r",
        "ius"
      ],
      [
        "t",
        "ion"
      ],
      [
        "Ġt",
        "um"
      ],
      [
        "Ġs",
        "er"
      ],
      [
        "Ġw",
        "in"
      ],
      [
        "Ġm",
        "ort"
      ],
      [
        "Ġf",
        "l"
      ],
      [
        "Ġth",
        "r"
      ],
      [
        "Ġe",
        "at"
      ],
      [
        "Ġp",
        "ure"
      ],
      [
        "Ġr",
        "al"
      ],
      [
        "se",
        "l"
      ],
      [
        "ie",
        "d"
      ],
      [
        "Ġso",
        "ld"
      ],
      [
        "Ġan",
        "g"
      ],
      [
        "Ġlet",
        "ters"
      ],
      [
        "Ġgr",
        "ant"
      ],
      [
        "Ġdo",
        "th"
      ],
      [
        "Ġun",
        "k"
      ],
      [
        "Ġv",
        "a"
      ],
      [
        "ri",
        "ors"
      ],
      [
        "for",
        "t"
      ],
      [
        "Ġimp",
        "at"
      ],
      [
        "Ġimp",
        "er"
      ],
      [
        "Ġshal",
        "t"
      ],
      [
        "Ġuna",
        "ppeas"
      ],
      [
        "Ġsensi",
        "ble"
      ],
      [
        "Ġdam",
        "n"
      ],
      [
        "Ġragg",
        "ed"
      ],
      [
        "Ġhumb",
        "ly"
      ],
      [
        "Ġdagg",
        "er"
      ],
      [
        "Ġincen",
        "se"
      ],
      [
        "b",
        "at"
      ],
      [
        "l",
        "ast"
      ],
      [
        "r",
        "ous"
      ],
      [
        "w",
        "e"
      ],
      [
        "x",
        "e"
      ],
      [
        "Ġa",
        "c"
      ],
      [
        "Ġm",
        "ir"
      ],
      [
        "Ġf",
        "un"
      ],
      [
        "Ġf",
        "iend"
      ],
      [
        "Ġo",
        "p"
      ],
      [
        "Ġc",
        "at"
      ],
      [
        "Ġd",
        "ig"
      ],
      [
        "Ġg",
        "a"
      ],
      [
        "Ġr",
        "ave"
      ],
      [
        "Ġr",
        "ite"
      ],
      [
        "Ġme",
        "th"
      ],
      [
        "ie",
        "nc"
      ],
      [
        "Ġli",
        "ght"
      ],
      [
        "Ġre",
        "s"
      ],
      [
        "Ġst",
        "ra"
      ],
      [
        "Ġfr",
        "at"
      ],
      [
        "Ġso",
        "ft"
      ],
      [
        "Ġtr",
        "un"
      ],
      [
        "Ġman",
        "es"
      ],
      [
        "Ġcom",
        "b"
      ],
      [
        "Ġco",
        "b"
      ],
      [
        "Ġsw",
        "ep"
      ],
      [
        "Ġemp",
        "e"
      ],
      [
        "Ġra",
        "v"
      ],
      [
        "Ġbo",
        "th"
      ],
      [
        "Ġbo",
        "dy"
      ],
      [
        "Ġcr",
        "ied"
      ],
      [
        "Ġlord",
        "s"
      ],
      [
        "irt",
        "y"
      ],
      [
        "Ġpl",
        "u"
      ],
      [
        "Ġrep",
        "ro"
      ],
      [
        "Ġtribun",
        "e"
      ],
      [
        "Ġot",
        "her"
      ],
      [
        "Ġbelieve",
        "st"
      ],
      [
        "Ġfro",
        "st"
      ],
      [
        "Ġhate",
        "ful"
      ],
      [
        "isf",
        "ac"
      ],
      [
        "Ġau",
        "ght"
      ],
      [
        "Ġreceive",
        "d"
      ],
      [
        "Ġperf",
        "ume"
      ],
      [
        "Ġsig",
        "n"
      ],
      [
        "Ġtre",
        "ble"
      ],
      [
        "Ġdist",
        "urb"
      ],
      [
        "Ġrequ",
        "ite"
      ],
      [
        "Ġfaith",
        "ful"
      ],
      [
        "Ġque",
        "en"
      ],
      [
        "Ġprod",
        "ig"
      ],
      [
        "Ġgrant",
        "ed"
      ],
      [
        "i",
        "an"
      ],
      [
        "i",
        "ers"
      ],
      [
        "p",
        "ets"
      ],
      [
        "r",
        "um"
      ],
      [
        "x",
        "per"
      ],
      [
        "Ġt",
        "ar"
      ],
      [
        "Ġw",
        "at"
      ],
      [
        "Ġw",
        "oo"
      ],
      [
        "ou",
        "nc"
      ],
      [
        "nd",
        "s"
      ],
      [
        "Ġb",
        "urn"
      ],
      [
        "Ġth",
        "re"
      ],
      [
        "Ġth",
        "irty"
      ],
      [
        "Ġhe",
        "n"
      ],
      [
        "Ġp",
        "ow"
      ],
      [
        "Ġp",
        "ill"
      ],
      [
        "Ġy",
        "ea"
      ],
      [
        "Ġr",
        "an"
      ],
      [
        "Ġin",
        "h"
      ],
      [
        "Ġin",
        "te"
      ],
      [
        "Ġsh",
        "ut"
      ],
      [
        "Ġre",
        "c"
      ],
      [
        "Ġre",
        "lie"
      ],
      [
        "Ġkn",
        "it"
      ],
      [
        "Ġst",
        "um"
      ],
      [
        "Ġst",
        "ain"
      ],
      [
        "Ġst",
        "ron"
      ],
      [
        "Ġtr",
        "ot"
      ],
      [
        "Ġfi",
        "gure"
      ],
      [
        "Ġcom",
        "fort"
      ],
      [
        "Ġbr",
        "id"
      ],
      [
        "Ġbr",
        "ush"
      ],
      [
        "Ġwor",
        "ld"
      ],
      [
        "ul",
        "t"
      ],
      [
        "Ġle",
        "ad"
      ],
      [
        "Ġal",
        "as"
      ],
      [
        "Ġbeg",
        "gar"
      ],
      [
        "Ġtri",
        "pe"
      ],
      [
        "Ġson",
        "s"
      ],
      [
        "Ġad",
        "am"
      ],
      [
        "Ġad",
        "vent"
      ],
      [
        "Ġtam",
        "es"
      ],
      [
        "Ġba",
        "by"
      ],
      [
        "Ġearth",
        "y"
      ],
      [
        "Ġple",
        "as"
      ],
      [
        "Ġfe",
        "ed"
      ],
      [
        "Ġsen",
        "at"
      ],
      [
        "Ġmo",
        "or"
      ],
      [
        "Ġweep",
        "s"
      ],
      [
        "Ġweep",
        "ing"
      ],
      [
        "Ġcons",
        "um"
      ],
      [
        "Ġapp",
        "ro"
      ],
      [
        "Ġhea",
        "v"
      ],
      [
        "Ġwar",
        "riors"
      ],
      [
        "Ġhal",
        "ter"
      ],
      [
        "Ġret",
        "urn"
      ],
      [
        "ek",
        "ly"
      ],
      [
        "Ġdemet",
        "rius"
      ],
      [
        "Ġwin",
        "ter"
      ],
      [
        "Ġmort",
        "al"
      ],
      [
        "Ġimper",
        "ious"
      ],
      [
        "Ġmir",
        "y"
      ],
      [
        "Ġtrun",
        "k"
      ],
      [
        "Ġswep",
        "t"
      ],
      [
        "l",
        "ain"
      ],
      [
        "Ġt",
        "ree"
      ],
      [
        "Ġa",
        "im"
      ],
      [
        "Ġw",
        "all"
      ],
      [
        "re",
        "nt"
      ],
      [
        "at",
        "he"
      ],
      [
        "Ġl",
        "ist"
      ],
      [
        "Ġc",
        "it"
      ],
      [
        "Ġc",
        "ea"
      ],
      [
        "Ġn",
        "our"
      ],
      [
        "Ġn",
        "ame"
      ],
      [
        "Ġd",
        "r"
      ],
      [
        "Ġd",
        "isf"
      ],
      [
        "Ġe",
        "ven"
      ],
      [
        "Ġe",
        "mb"
      ],
      [
        "Ġbe",
        "se"
      ],
      [
        "Ġp",
        "a"
      ],
      [
        "ir",
        "on"
      ],
      [
        "le",
        "t"
      ],
      [
        "Ġr",
        "us"
      ],
      [
        "Ġr",
        "it"
      ],
      [
        "Ġr",
        "un"
      ],
      [
        "Ġwe",
        "ed"
      ],
      [
        "Ġma",
        "id"
      ],
      [
        "Ġre",
        "ma"
      ],
      [
        "Ġas",
        "le"
      ],
      [
        "Ġkn",
        "aves"
      ],
      [
        "Ġst",
        "rew"
      ],
      [
        "Ġon",
        "ce"
      ],
      [
        "Ġpr",
        "on"
      ],
      [
        "ch",
        "io"
      ],
      [
        "Ġam",
        "b"
      ],
      [
        "Ġam",
        "iss"
      ],
      [
        "il",
        "ip"
      ],
      [
        "Ġdo",
        "g"
      ],
      [
        "ine",
        "th"
      ],
      [
        "Ġne",
        "ver"
      ],
      [
        "un",
        "e"
      ],
      [
        "qu",
        "in"
      ],
      [
        "Ġtit",
        "le"
      ],
      [
        "Ġsu",
        "ff"
      ],
      [
        "Ġaw",
        "h"
      ],
      [
        "Ġsat",
        "isfac"
      ],
      [
        "Ġus",
        "e"
      ],
      [
        "Ġtoo",
        "th"
      ],
      [
        "Ġbl",
        "ue"
      ],
      [
        "Ġsl",
        "ow"
      ],
      [
        "ink",
        "s"
      ],
      [
        "Ġhear",
        "s"
      ],
      [
        "Ġbur",
        "st"
      ],
      [
        "Ġtw",
        "ain"
      ],
      [
        "Ġdes",
        "p"
      ],
      [
        "Ġmat",
        "ch"
      ],
      [
        "Ġpl",
        "a"
      ],
      [
        "Ġlast",
        "s"
      ],
      [
        "ru",
        "p"
      ],
      [
        "Ġthrow",
        "n"
      ],
      [
        "Ġfu",
        "st"
      ],
      [
        "Ġpet",
        "ru"
      ],
      [
        "Ġhum",
        "our"
      ],
      [
        "if",
        "fe"
      ],
      [
        "Ġcoat",
        "s"
      ],
      [
        "ind",
        "ly"
      ],
      [
        "Ġbell",
        "y"
      ],
      [
        "Ġstri",
        "king"
      ],
      [
        "Ġwer",
        "t"
      ],
      [
        "Ġund",
        "er"
      ],
      [
        "Ġral",
        "ph"
      ],
      [
        "Ġang",
        "el"
      ],
      [
        "last",
        "ing"
      ],
      [
        "we",
        "bs"
      ],
      [
        "Ġfun",
        "er"
      ],
      [
        "Ġplu",
        "ck"
      ],
      [
        "Ġother",
        "s"
      ],
      [
        "Ġsign",
        "if"
      ],
      [
        "Ġwat",
        "er"
      ],
      [
        "Ġpill",
        "ow"
      ],
      [
        "Ġstron",
        "g"
      ],
      [
        "Ġsuff",
        "er"
      ],
      [
        "b",
        "st"
      ],
      [
        "e",
        "ch"
      ],
      [
        "k",
        "n"
      ],
      [
        "l",
        "ar"
      ],
      [
        "n",
        "ing"
      ],
      [
        "s",
        "ome"
      ],
      [
        "s",
        "oo"
      ],
      [
        "s",
        "op"
      ],
      [
        "s",
        "io"
      ],
      [
        "Ġs",
        "in"
      ],
      [
        "Ġw",
        "aded"
      ],
      [
        "Ġm",
        "on"
      ],
      [
        "Ġh",
        "arm"
      ],
      [
        "re",
        "st"
      ],
      [
        "Ġi",
        "ma"
      ],
      [
        "Ġf",
        "it"
      ],
      [
        "Ġf",
        "ood"
      ],
      [
        "Ġf",
        "les"
      ],
      [
        "Ġl",
        "ay"
      ],
      [
        "Ġl",
        "op"
      ],
      [
        "Ġc",
        "as"
      ],
      [
        "Ġc",
        "ast"
      ],
      [
        "Ġn",
        "i"
      ],
      [
        "in",
        "a"
      ],
      [
        "Ġd",
        "raw"
      ],
      [
        "Ġto",
        "mb"
      ],
      [
        "Ġp",
        "ut"
      ],
      [
        "Ġp",
        "ear"
      ],
      [
        "Ġp",
        "ard"
      ],
      [
        "Ġr",
        "ing"
      ],
      [
        "Ġr",
        "id"
      ],
      [
        "Ġsh",
        "r"
      ],
      [
        "Ġsh",
        "ore"
      ],
      [
        "Ġha",
        "lf"
      ],
      [
        "Ġme",
        "et"
      ],
      [
        "Ġre",
        "de"
      ],
      [
        "Ġkn",
        "a"
      ],
      [
        "Ġst",
        "op"
      ],
      [
        "Ġgo",
        "ver"
      ],
      [
        "Ġan",
        "c"
      ],
      [
        "Ġfi",
        "ve"
      ],
      [
        "Ġgr",
        "um"
      ],
      [
        "il",
        "s"
      ],
      [
        "Ġsee",
        "k"
      ],
      [
        "Ġun",
        "p"
      ],
      [
        "ble",
        "d"
      ],
      [
        "Ġsw",
        "ore"
      ],
      [
        "Ġcur",
        "se"
      ],
      [
        "Ġla",
        "id"
      ],
      [
        "Ġch",
        "iron"
      ],
      [
        "Ġsu",
        "gar"
      ],
      [
        "Ġsu",
        "bst"
      ],
      [
        "ic",
        "ing"
      ],
      [
        "Ġj",
        "ill"
      ],
      [
        "Ġbre",
        "t"
      ],
      [
        "les",
        "s"
      ],
      [
        "Ġhear",
        "t"
      ],
      [
        "Ġsta",
        "bs"
      ],
      [
        "Ġcr",
        "o"
      ],
      [
        "Ġsc",
        "ore"
      ],
      [
        "Ġdes",
        "per"
      ],
      [
        "Ġfoo",
        "l"
      ],
      [
        "Ġot",
        "he"
      ],
      [
        "Ġca",
        "u"
      ],
      [
        "Ġban",
        "ish"
      ],
      [
        "Ġbec",
        "a"
      ],
      [
        "Ġtrimm",
        "ing"
      ],
      [
        "ty",
        "r"
      ],
      [
        "Ġsword",
        "s"
      ],
      [
        "Ġweapon",
        "s"
      ],
      [
        "Ġpres",
        "erv"
      ],
      [
        "Ġag",
        "let"
      ],
      [
        "Ġpit",
        "ies"
      ],
      [
        "Ġpe",
        "op"
      ],
      [
        "Ġbro",
        "il"
      ],
      [
        "Ġven",
        "ice"
      ],
      [
        "Ġgar",
        "ters"
      ],
      [
        "Ġph",
        "ilip"
      ],
      [
        "Ġsle",
        "ekly"
      ],
      [
        "Ġune",
        "xper"
      ],
      [
        "Ġtum",
        "ult"
      ],
      [
        "Ġser",
        "ve"
      ],
      [
        "Ġsold",
        "iers"
      ],
      [
        "Ġimpat",
        "ient"
      ],
      [
        "bat",
        "ion"
      ],
      [
        "Ġdig",
        "ress"
      ],
      [
        "Ġres",
        "c"
      ],
      [
        "Ġfrat",
        "rum"
      ],
      [
        "Ġprodig",
        "ies"
      ],
      [
        "Ġburn",
        "ing"
      ],
      [
        "Ġthre",
        "ad"
      ],
      [
        "Ġinh",
        "um"
      ],
      [
        "Ġbrid",
        "le"
      ],
      [
        "Ġlead",
        "ing"
      ],
      [
        "Ġbeggar",
        "ly"
      ],
      [
        "Ġsenat",
        "ors"
      ],
      [
        "Ġappro",
        "ved"
      ],
      [
        "Ġcea",
        "se"
      ],
      [
        "Ġemb",
        "ra"
      ],
      [
        "Ġrit",
        "es"
      ],
      [
        "Ġpron",
        "ounc"
      ],
      [
        "Ġpear",
        "l"
      ],
      [
        "b",
        "b"
      ],
      [
        "n",
        "ot"
      ],
      [
        "Ġt",
        "ou"
      ],
      [
        "Ġa",
        "xe"
      ],
      [
        "at",
        "ly"
      ],
      [
        "Ġl",
        "oud"
      ],
      [
        "ll",
        "a"
      ],
      [
        "ll",
        "o"
      ],
      [
        "Ġc",
        "ook"
      ],
      [
        "or",
        "n"
      ],
      [
        "Ġn",
        "ought"
      ],
      [
        "Ġhe",
        "al"
      ],
      [
        "Ġd",
        "row"
      ],
      [
        "Ġto",
        "ng"
      ],
      [
        "Ġg",
        "arm"
      ],
      [
        "om",
        "is"
      ],
      [
        "Ġbe",
        "mo"
      ],
      [
        "Ġyou",
        "th"
      ],
      [
        "Ġwh",
        "ite"
      ],
      [
        "Ġwe",
        "d"
      ],
      [
        "Ġwe",
        "ar"
      ],
      [
        "Ġwith",
        "out"
      ],
      [
        "Ġli",
        "v"
      ],
      [
        "Ġre",
        "ven"
      ],
      [
        "Ġso",
        "bs"
      ],
      [
        "Ġshe",
        "d"
      ],
      [
        "Ġan",
        "other"
      ],
      [
        "ch",
        "ol"
      ],
      [
        "Ġfa",
        "m"
      ],
      [
        "Ġgr",
        "a"
      ],
      [
        "Ġgr",
        "own"
      ],
      [
        "um",
        "s"
      ],
      [
        "Ġam",
        "ong"
      ],
      [
        "Ġor",
        "der"
      ],
      [
        "Ġhand",
        "s"
      ],
      [
        "Ġle",
        "nd"
      ],
      [
        "Ġthan",
        "ks"
      ],
      [
        "ig",
        "o"
      ],
      [
        "op",
        "s"
      ],
      [
        "Ġex",
        "t"
      ],
      [
        "Ġthem",
        "sel"
      ],
      [
        "Ġra",
        "il"
      ],
      [
        "Ġj",
        "ad"
      ],
      [
        "Ġj",
        "ose"
      ],
      [
        "Ġmar",
        "ch"
      ],
      [
        "Ġlo",
        "st"
      ],
      [
        "Ġlo",
        "ve"
      ],
      [
        "Ġsl",
        "ide"
      ],
      [
        "pp",
        "et"
      ],
      [
        "Ġmay",
        "st"
      ],
      [
        "Ġdead",
        "ly"
      ],
      [
        "Ġey",
        "es"
      ],
      [
        "Ġsc",
        "ath"
      ],
      [
        "Ġro",
        "pe"
      ],
      [
        "Ġro",
        "der"
      ],
      [
        "Ġro",
        "bb"
      ],
      [
        "Ġkill",
        "s"
      ],
      [
        "Ġpre",
        "y"
      ],
      [
        "Ġpre",
        "se"
      ],
      [
        "Ġcomp",
        "lain"
      ],
      [
        "Ġban",
        "ished"
      ],
      [
        "Ġfine",
        "ly"
      ],
      [
        "Ġcl",
        "im"
      ],
      [
        "Ġcl",
        "ose"
      ],
      [
        "Ġwoe",
        "fu"
      ],
      [
        "Ġmourn",
        "ing"
      ],
      [
        "Ġperfor",
        "ce"
      ],
      [
        "Ġkne",
        "w"
      ],
      [
        "Ġsorrow",
        "s"
      ],
      [
        "Ġind",
        "iffe"
      ],
      [
        "Ġble",
        "ed"
      ],
      [
        "Ġfort",
        "une"
      ],
      [
        "Ġsad",
        "d"
      ],
      [
        "Ġway",
        "s"
      ],
      [
        "Ġnat",
        "ure"
      ],
      [
        "Ġunk",
        "indly"
      ],
      [
        "Ġva",
        "unt"
      ],
      [
        "Ġmeth",
        "inks"
      ],
      [
        "Ġstra",
        "ight"
      ],
      [
        "Ġcob",
        "webs"
      ],
      [
        "Ġtar",
        "quin"
      ],
      [
        "Ġrelie",
        "f"
      ],
      [
        "Ġdisf",
        "ig"
      ],
      [
        "Ġrus",
        "hes"
      ],
      [
        "Ġasle",
        "ep"
      ],
      [
        "Ġdesp",
        "is"
      ],
      [
        "Ġpla",
        "ce"
      ],
      [
        "Ġfust",
        "ian"
      ],
      [
        "Ġfuner",
        "al"
      ],
      [
        "Ġsin",
        "ce"
      ],
      [
        "Ġharm",
        "s"
      ],
      [
        "Ġfles",
        "h"
      ],
      [
        "Ġlop",
        "p"
      ],
      [
        "Ġput",
        "s"
      ],
      [
        "Ġgover",
        "n"
      ],
      [
        "Ġjill",
        "s"
      ],
      [
        "Ġcro",
        "ss"
      ],
      [
        "a",
        "se"
      ],
      [
        "b",
        "t"
      ],
      [
        "c",
        "t"
      ],
      [
        "d",
        "ing"
      ],
      [
        "e",
        "th"
      ],
      [
        "h",
        "old"
      ],
      [
        "Ġs",
        "et"
      ],
      [
        "Ġf",
        "ears"
      ],
      [
        "Ġb",
        "oo"
      ],
      [
        "Ġb",
        "al"
      ],
      [
        "Ġb",
        "ast"
      ],
      [
        "Ġc",
        "he"
      ],
      [
        "Ġc",
        "ame"
      ],
      [
        "Ġd",
        "ou"
      ],
      [
        "Ġto",
        "fore"
      ],
      [
        "Ġg",
        "et"
      ],
      [
        "om",
        "es"
      ],
      [
        "Ġr",
        "oof"
      ],
      [
        "Ġfor",
        "soo"
      ],
      [
        "Ġsh",
        "irt"
      ],
      [
        "Ġha",
        "s"
      ],
      [
        "Ġme",
        "m"
      ],
      [
        "se",
        "qu"
      ],
      [
        "Ġthou",
        "gh"
      ],
      [
        "Ġre",
        "lieve"
      ],
      [
        "Ġas",
        "s"
      ],
      [
        "Ġst",
        "r"
      ],
      [
        "Ġtr",
        "op"
      ],
      [
        "Ġgo",
        "ld"
      ],
      [
        "Ġpr",
        "omis"
      ],
      [
        "Ġour",
        "s"
      ],
      [
        "Ġthere",
        "by"
      ],
      [
        "um",
        "ent"
      ],
      [
        "Ġun",
        "h"
      ],
      [
        "Ġcur",
        "st"
      ],
      [
        "Ġcur",
        "ts"
      ],
      [
        "Ġever",
        "lasting"
      ],
      [
        "Ġle",
        "gs"
      ],
      [
        "Ġent",
        "ra"
      ],
      [
        "Ġal",
        "ight"
      ],
      [
        "Ġj",
        "ack"
      ],
      [
        "Ġmar",
        "ry"
      ],
      [
        "Ġmar",
        "tyr"
      ],
      [
        "Ġv",
        "ow"
      ],
      [
        "Ġv",
        "ain"
      ],
      [
        "Ġtell",
        "s"
      ],
      [
        "Ġmind",
        "ed"
      ],
      [
        "Ġad",
        "orn"
      ],
      [
        "Ġcr",
        "u"
      ],
      [
        "Ġturn",
        "ed"
      ],
      [
        "Ġba",
        "gs"
      ],
      [
        "Ġsp",
        "a"
      ],
      [
        "Ġsc",
        "ar"
      ],
      [
        "Ġbeast",
        "s"
      ],
      [
        "Ġho",
        "lla"
      ],
      [
        "Ġpro",
        "ve"
      ],
      [
        "Ġfall",
        "s"
      ],
      [
        "Ġrep",
        "a"
      ],
      [
        "Ġdut",
        "ies"
      ],
      [
        "Ġcar",
        "pets"
      ],
      [
        "Ġsacrif",
        "ice"
      ],
      [
        "Ġmourn",
        "ful"
      ],
      [
        "Ġju",
        "st"
      ],
      [
        "Ġju",
        "dges"
      ],
      [
        "Ġpu",
        "ppet"
      ],
      [
        "Ġkather",
        "ina"
      ],
      [
        "Ġroman",
        "s"
      ],
      [
        "Ġbeh",
        "ind"
      ],
      [
        "Ġfull",
        "y"
      ],
      [
        "Ġfet",
        "ch"
      ],
      [
        "Ġdetest",
        "ed"
      ],
      [
        "Ġtha",
        "w"
      ],
      [
        "Ġbef",
        "all"
      ],
      [
        "Ġfl",
        "atly"
      ],
      [
        "Ġthr",
        "ough"
      ],
      [
        "Ġga",
        "b"
      ],
      [
        "Ġinte",
        "rest"
      ],
      [
        "Ġstum",
        "bled"
      ],
      [
        "Ġheav",
        "y"
      ],
      [
        "Ġcit",
        "ing"
      ],
      [
        "Ġnour",
        "ish"
      ],
      [
        "Ġdr",
        "ops"
      ],
      [
        "Ġbese",
        "ech"
      ],
      [
        "Ġrema",
        "ineth"
      ],
      [
        "Ġamb",
        "ush"
      ],
      [
        "Ġawh",
        "ile"
      ],
      [
        "rup",
        "ter"
      ],
      [
        "Ġsignif",
        "ies"
      ],
      [
        "Ġima",
        "ge"
      ],
      [
        "Ġcas",
        "sio"
      ],
      [
        "Ġni",
        "chol"
      ],
      [
        "Ġpard",
        "on"
      ],
      [
        "Ġshr",
        "ink"
      ],
      [
        "Ġrede",
        "em"
      ],
      [
        "Ġgrum",
        "io"
      ],
      [
        "Ġbeca",
        "use"
      ],
      [
        "Ġpeop",
        "le"
      ],
      [
        "Ġunexper",
        "ienc"
      ],
      [
        "Ġresc",
        "ue"
      ],
      [
        "Ġinhum",
        "an"
      ],
      [
        "Ġembra",
        "ce"
      ],
      [
        "Ġdrow",
        "n"
      ],
      [
        "Ġgarm",
        "ent"
      ],
      [
        "Ġbemo",
        "il"
      ],
      [
        "Ġreven",
        "g"
      ],
      [
        "Ġjad",
        "es"
      ],
      [
        "Ġclim",
        "b"
      ],
      [
        "Ġclose",
        "d"
      ],
      [
        "Ġwoefu",
        "ll"
      ],
      [
        "c",
        "ock"
      ],
      [
        "e",
        "ks"
      ],
      [
        "e",
        "ct"
      ],
      [
        "n",
        "ed"
      ],
      [
        "Ġt",
        "all"
      ],
      [
        "Ġt",
        "as"
      ],
      [
        "Ġt",
        "est"
      ],
      [
        "he",
        "ren"
      ],
      [
        "Ġs",
        "ire"
      ],
      [
        "Ġh",
        "ome"
      ],
      [
        "re",
        "me"
      ],
      [
        "Ġf",
        "lour"
      ],
      [
        "Ġo",
        "at"
      ],
      [
        "Ġl",
        "ie"
      ],
      [
        "Ġl",
        "ong"
      ],
      [
        "Ġd",
        "in"
      ],
      [
        "Ġd",
        "ies"
      ],
      [
        "Ġd",
        "are"
      ],
      [
        "Ġto",
        "ld"
      ],
      [
        "ow",
        "ed"
      ],
      [
        "Ġwh",
        "ither"
      ],
      [
        "Ġme",
        "lt"
      ],
      [
        "ce",
        "ed"
      ],
      [
        "Ġas",
        "ide"
      ],
      [
        "Ġst",
        "ock"
      ],
      [
        "Ġst",
        "ory"
      ],
      [
        "Ġgo",
        "es"
      ],
      [
        "mp",
        "s"
      ],
      [
        "ck",
        "s"
      ],
      [
        "Ġthere",
        "at"
      ],
      [
        "Ġgr",
        "owing"
      ],
      [
        "Ġcom",
        "ing"
      ],
      [
        "Ġta",
        "il"
      ],
      [
        "Ġco",
        "st"
      ],
      [
        "Ġun",
        "j"
      ],
      [
        "Ġshould",
        "er"
      ],
      [
        "Ġal",
        "oof"
      ],
      [
        "Ġsu",
        "pper"
      ],
      [
        "Ġwould",
        "st"
      ],
      [
        "Ġcall",
        "s"
      ],
      [
        "Ġcan",
        "not"
      ],
      [
        "Ġbre",
        "th"
      ],
      [
        "Ġbre",
        "athe"
      ],
      [
        "Ġsl",
        "ain"
      ],
      [
        "Ġoff",
        "ic"
      ],
      [
        "Ġhang",
        "s"
      ],
      [
        "Ġob",
        "sequ"
      ],
      [
        "Ġgreat",
        "er"
      ],
      [
        "Ġsc",
        "old"
      ],
      [
        "Ġhad",
        "st"
      ],
      [
        "Ġlast",
        "ly"
      ],
      [
        "ard",
        "y"
      ],
      [
        "Ġbec",
        "omes"
      ],
      [
        "Ġkather",
        "ine"
      ],
      [
        "Ġbase",
        "ly"
      ],
      [
        "Ġsun",
        "g"
      ],
      [
        "Ġac",
        "c"
      ],
      [
        "Ġrav",
        "ished"
      ],
      [
        "Ġrepro",
        "bation"
      ],
      [
        "Ġpa",
        "le"
      ],
      [
        "Ġsatisfac",
        "tion"
      ],
      [
        "Ġpetru",
        "chio"
      ],
      [
        "kn",
        "ock"
      ],
      [
        "lar",
        "ums"
      ],
      [
        "Ġrid",
        "ing"
      ],
      [
        "Ġanc",
        "ient"
      ],
      [
        "Ġunp",
        "ink"
      ],
      [
        "Ġsugar",
        "sop"
      ],
      [
        "Ġdesper",
        "ate"
      ],
      [
        "Ġfool",
        "ish"
      ],
      [
        "Ġothe",
        "llo"
      ],
      [
        "Ġcau",
        "ght"
      ],
      [
        "Ġtou",
        "ch"
      ],
      [
        "Ġtong",
        "ue"
      ],
      [
        "Ġfam",
        "ish"
      ],
      [
        "Ġext",
        "reme"
      ],
      [
        "Ġthemsel",
        "ves"
      ],
      [
        "Ġjose",
        "ph"
      ],
      [
        "Ġroder",
        "igo"
      ],
      [
        "Ġvaunt",
        "er"
      ],
      [
        "Ġbal",
        "c"
      ],
      [
        "Ġrelieve",
        "s"
      ],
      [
        "Ġtrop",
        "h"
      ],
      [
        "Ġcurts",
        "y"
      ],
      [
        "Ġentra",
        "ils"
      ],
      [
        "Ġalight",
        "ed"
      ],
      [
        "Ġjack",
        "s"
      ],
      [
        "Ġscar",
        "s"
      ],
      [
        "Ġgab",
        "r"
      ],
      [
        "!",
        "'"
      ],
      [
        "a",
        "ble"
      ],
      [
        "c",
        "r"
      ],
      [
        "c",
        "hed"
      ],
      [
        "d",
        "em"
      ],
      [
        "j",
        "ack"
      ],
      [
        "j",
        "ect"
      ],
      [
        "m",
        "it"
      ],
      [
        "n",
        "er"
      ],
      [
        "n",
        "ate"
      ],
      [
        "p",
        "l"
      ],
      [
        "r",
        "im"
      ],
      [
        "s",
        "ir"
      ],
      [
        "t",
        "ty"
      ],
      [
        "w",
        "ith"
      ],
      [
        "z",
        "e"
      ],
      [
        "Ġm",
        "ine"
      ],
      [
        "Ġh",
        "ill"
      ],
      [
        "Ġf",
        "our"
      ],
      [
        "Ġth",
        "ink"
      ],
      [
        "an",
        "c"
      ],
      [
        "Ġr",
        "ay"
      ],
      [
        "et",
        "ing"
      ],
      [
        "nt",
        "ly"
      ],
      [
        "ur",
        "se"
      ],
      [
        "Ġfi",
        "ft"
      ],
      [
        "Ġfa",
        "st"
      ],
      [
        "id",
        "er"
      ],
      [
        "Ġsee",
        "ms"
      ],
      [
        "Ġlu",
        "ce"
      ],
      [
        "Ġla",
        "ment"
      ],
      [
        "Ġal",
        "mo"
      ],
      [
        "ra",
        "h"
      ],
      [
        "Ġbeg",
        "u"
      ],
      [
        "Ġcon",
        "t"
      ],
      [
        "Ġtri",
        "cks"
      ],
      [
        "Ġsp",
        "are"
      ],
      [
        "Ġsp",
        "ru"
      ],
      [
        "Ġdes",
        "ir"
      ],
      [
        "Ġpro",
        "ceed"
      ],
      [
        "Ġpl",
        "ain"
      ],
      [
        "Ġrep",
        "ort"
      ],
      [
        "Ġwron",
        "g"
      ],
      [
        "Ġworth",
        "less"
      ],
      [
        "Ġte",
        "nd"
      ],
      [
        "Ġte",
        "eth"
      ],
      [
        "Ġca",
        "use"
      ],
      [
        "Ġau",
        "d"
      ],
      [
        "Ġsacrif",
        "icing"
      ],
      [
        "Ġpu",
        "mps"
      ],
      [
        "Ġserving",
        "men"
      ],
      [
        "Ġperfor",
        "m"
      ],
      [
        "Ġhi",
        "gh"
      ],
      [
        "Ġrec",
        "ount"
      ],
      [
        "Ġmon",
        "ument"
      ],
      [
        "Ġkna",
        "very"
      ],
      [
        "Ġsubst",
        "ance"
      ],
      [
        "Ġwear",
        "y"
      ],
      [
        "Ġindiffe",
        "rent"
      ],
      [
        "Ġsadd",
        "les"
      ],
      [
        "Ġdisfig",
        "ure"
      ],
      [
        "Ġboo",
        "ts"
      ],
      [
        "Ġdou",
        "bt"
      ],
      [
        "Ġforsoo",
        "th"
      ],
      [
        "Ġmem",
        "ory"
      ],
      [
        "Ġunh",
        "all"
      ],
      [
        "Ġspa",
        "ke"
      ],
      [
        "Ġrepa",
        "ir"
      ],
      [
        "Ġnichol",
        "as"
      ],
      [
        "Ġtall",
        "er"
      ],
      [
        "Ġtas",
        "k"
      ],
      [
        "Ġunj",
        "u"
      ],
      [
        "knock",
        "ing"
      ],
      [
        "g",
        "et"
      ],
      [
        "r",
        "ing"
      ],
      [
        "Ġa",
        "b"
      ],
      [
        "Ġs",
        "ave"
      ],
      [
        "Ġw",
        "ound"
      ],
      [
        "Ġb",
        "or"
      ],
      [
        "Ġb",
        "io"
      ],
      [
        "Ġl",
        "ear"
      ],
      [
        "ll",
        "ed"
      ],
      [
        "Ġp",
        "ot"
      ],
      [
        "Ġyou",
        "ng"
      ],
      [
        "Ġde",
        "are"
      ],
      [
        "Ġfa",
        "ul"
      ],
      [
        "Ġam",
        "or"
      ],
      [
        "Ġbr",
        "ing"
      ],
      [
        "Ġbr",
        "ave"
      ],
      [
        "Ġco",
        "zen"
      ],
      [
        "Ġhor",
        "n"
      ],
      [
        "Ġne",
        "ck"
      ],
      [
        "Ġle",
        "ave"
      ],
      [
        "Ġle",
        "aves"
      ],
      [
        "Ġmi",
        "ld"
      ],
      [
        "Ġsu",
        "st"
      ],
      [
        "Ġen",
        "ough"
      ],
      [
        "Ġen",
        "mit"
      ],
      [
        "Ġhang",
        "ing"
      ],
      [
        "Ġob",
        "ject"
      ],
      [
        "Ġserv",
        "ant"
      ],
      [
        "Ġple",
        "ase"
      ],
      [
        "Ġwhere",
        "in"
      ],
      [
        "Ġimp",
        "rim"
      ],
      [
        "Ġword",
        "s"
      ],
      [
        "Ġpre",
        "tty"
      ],
      [
        "Ġtal",
        "es"
      ],
      [
        "Ġquarrel",
        "some"
      ],
      [
        "Ġfro",
        "zen"
      ],
      [
        "Ġpo",
        "or"
      ],
      [
        "Ġwood",
        "cock"
      ],
      [
        "Ġbeh",
        "old"
      ],
      [
        "Ġkne",
        "e"
      ],
      [
        "Ġinc",
        "ar"
      ],
      [
        "Ġve",
        "x"
      ],
      [
        "Ġeat",
        "en"
      ],
      [
        "Ġempe",
        "ress"
      ],
      [
        "Ġbret",
        "heren"
      ],
      [
        "Ġbanish",
        "ment"
      ],
      [
        "Ġwed",
        "ding"
      ],
      [
        "Ġche",
        "eks"
      ],
      [
        "Ġcru",
        "pper"
      ],
      [
        "Ġscold",
        "ing"
      ],
      [
        "Ġtroph",
        "ies"
      ],
      [
        "Ġgabr",
        "iel"
      ],
      [
        "pl",
        "ing"
      ],
      [
        "Ġfift",
        "y"
      ],
      [
        "Ġalmo",
        "st"
      ],
      [
        "Ġspru",
        "ce"
      ],
      [
        "Ġaud",
        "it"
      ],
      [
        "Ġunju",
        "st"
      ],
      [
        "Ġlear",
        "n"
      ],
      [
        "Ġt",
        "im"
      ],
      [
        "Ġh",
        "on"
      ],
      [
        "Ġh",
        "ither"
      ],
      [
        "nd",
        "ell"
      ],
      [
        "Ġf",
        "ought"
      ],
      [
        "Ġd",
        "um"
      ],
      [
        "Ġd",
        "anc"
      ],
      [
        "Ġto",
        "get"
      ],
      [
        "Ġbe",
        "he"
      ],
      [
        "Ġin",
        "s"
      ],
      [
        "nt",
        "io"
      ],
      [
        "Ġha",
        "ir"
      ],
      [
        "Ġthou",
        "ght"
      ],
      [
        "Ġpr",
        "op"
      ],
      [
        "Ġmast",
        "cr"
      ],
      [
        "Ġal",
        "th"
      ],
      [
        "Ġgre",
        "eting"
      ],
      [
        "Ġoff",
        "ence"
      ],
      [
        "Ġsp",
        "raw"
      ],
      [
        "Ġdes",
        "dem"
      ],
      [
        "Ġar",
        "t"
      ],
      [
        "Ġevery",
        "thing"
      ],
      [
        "Ġheaven",
        "s"
      ],
      [
        "Ġmo",
        "st"
      ],
      [
        "Ġpres",
        "ume"
      ],
      [
        "Ġinter",
        "rupter"
      ],
      [
        "Ġapp",
        "are"
      ],
      [
        "Ġwret",
        "ched"
      ],
      [
        "Ġhen",
        "ce"
      ],
      [
        "Ġprese",
        "ntly"
      ],
      [
        "Ġbast",
        "ardy"
      ],
      [
        "Ġflour",
        "ish"
      ],
      [
        "Ġoat",
        "s"
      ],
      [
        "Ġdin",
        "ner"
      ],
      [
        "Ġstock",
        "ings"
      ],
      [
        "Ġbreth",
        "ren"
      ],
      [
        "Ġoffic",
        "er"
      ],
      [
        "Ġbalc",
        "ony"
      ],
      [
        "sir",
        "rah"
      ],
      [
        "urse",
        "d"
      ],
      [
        "Ġcont",
        "ent"
      ],
      [
        "Ġproceed",
        "ings"
      ],
      [
        "Ġhigh",
        "ness"
      ],
      [
        "Ġbor",
        "row"
      ],
      [
        "Ġdeare",
        "r"
      ],
      [
        "Ġfaul",
        "ts"
      ],
      [
        "Ġenmit",
        "y"
      ],
      [
        "Ġf",
        "ree"
      ],
      [
        "Ġl",
        "at"
      ],
      [
        "Ġhe",
        "in"
      ],
      [
        "Ġd",
        "ise"
      ],
      [
        "Ġwe",
        "ather"
      ],
      [
        "Ġtr",
        "an"
      ],
      [
        "Ġlu",
        "x"
      ],
      [
        "ang",
        "e"
      ],
      [
        "Ġbl",
        "owing"
      ],
      [
        "ion",
        "s"
      ],
      [
        "Ġdeed",
        "s"
      ],
      [
        "Ġcons",
        "ider"
      ],
      [
        "Ġstri",
        "pling"
      ],
      [
        "Ġag",
        "ain"
      ],
      [
        "Ġfet",
        "ter"
      ],
      [
        "Ġsorrow",
        "ful"
      ],
      [
        "Ġdetest",
        "able"
      ],
      [
        "Ġvillain",
        "s"
      ],
      [
        "Ġhouse",
        "hold"
      ],
      [
        "Ġtest",
        "im"
      ],
      [
        "Ġobsequ",
        "ious"
      ],
      [
        "Ġluce",
        "ntio"
      ],
      [
        "Ġbegu",
        "ile"
      ],
      [
        "Ġdesir",
        "ous"
      ],
      [
        "Ġbio",
        "ndell"
      ],
      [
        "Ġamor",
        "ous"
      ],
      [
        "Ġbrave",
        "ly"
      ],
      [
        "Ġmild",
        "ly"
      ],
      [
        "Ġimprim",
        "is"
      ],
      [
        "Ġincar",
        "nate"
      ],
      [
        "Ġaudit",
        "ory"
      ],
      [
        "Ġdum",
        "b"
      ],
      [
        "Ġtoget",
        "her"
      ],
      [
        "Ġprop",
        "er"
      ],
      [
        "Ġspraw",
        "l"
      ],
      [
        "Ġforth",
        "with"
      ],
      [
        "Ġserv",
        "ice"
      ],
      [
        "Ġshow",
        "ers"
      ],
      [
        "Ġstr",
        "ange"
      ],
      [
        "Ġacc",
        "ursed"
      ],
      [
        "Ġunhall",
        "owed"
      ],
      [
        "Ġab",
        "out"
      ],
      [
        "Ġtim",
        "e"
      ],
      [
        "Ġhon",
        "our"
      ],
      [
        "Ġalth",
        "ough"
      ],
      [
        "Ġdesdem",
        "on"
      ],
      [
        "Ġbiondell",
        "o"
      ],
      [
        "n",
        "ance"
      ],
      [
        "Ġc",
        "ount"
      ],
      [
        "as",
        "es"
      ],
      [
        "Ġbeat",
        "en"
      ],
      [
        "Ġcompan",
        "y"
      ],
      [
        "nds",
        "ire"
      ],
      [
        "Ġwrong",
        "ful"
      ],
      [
        "Ġbehe",
        "aded"
      ],
      [
        "Ġins",
        "at"
      ],
      [
        "Ġappare",
        "lled"
      ],
      [
        "Ġfree",
        "ze"
      ],
      [
        "Ġlat",
        "in"
      ],
      [
        "Ġhein",
        "ous"
      ],
      [
        "Ġtran",
        "io"
      ],
      [
        "Ġlux",
        "ur"
      ],
      [
        "i",
        "ate"
      ],
      [
        "Ġth",
        "ree"
      ],
      [
        "le",
        "ges"
      ],
      [
        "Ġinc",
        "hes"
      ],
      [
        "Ġgra",
        "ndsire"
      ],
      [
        "Ġconsider",
        "ing"
      ],
      [
        "Ġtestim",
        "ony"
      ],
      [
        "Ġcompan",
        "ions"
      ],
      [
        "Ġdise",
        "ases"
      ],
      [
        "Ġe",
        "s"
      ],
      [
        "en",
        "ance"
      ],
      [
        "Ġdev",
        "o"
      ],
      [
        "Ġinsat",
        "iate"
      ],
      [
        "Ġluxur",
        "ious"
      ],
      [
        "Ġpit",
        "y"
      ],
      [
        "Ġdevo",
        "id"
      ],
      [
        "Ġcount",
        "enance"
      ],
      [
        "Ġ",
        ";"
      ],
      [
        "Ġt",
        "or"
      ],
      [
        "Ġn",
        "g"
      ],
      [
        "Ġd",
        "ire"
      ],
      [
        "Ġbe",
        "e"
      ],
      [
        "Ġmust",
        "ard"
      ],
      [
        "Ġf",
        "o"
      ],
      [
        "Ġy",
        "o"
      ],
      [
        "Ġtor",
        "ment"
      ],
      [
        "Ġbee",
        "f"
      ],
      [
        "Ġtorment",
        "s"
      ],
      [
        "Ġwret",
        "ch"
      ],
      [
        "c",
        "ra"
      ],
      [
        "Ġ",
        "ur"
      ],
      [
        "Ġexe",
        "cra"
      ],
      [
        "Ġsent",
        "ence"
      ],
      [
        "Ġexecra",
        "ble"
      ],
      [
        "Ġi",
        "m"
      ],
      [
        "Ġdire",
        "ful"
      ],
      [
        "Ġi",
        "r"
      ],
      [
        "Ġ",
        "!"
      ],
      [
        "Ġ",
        "?"
      ],
      [
        "Ġ",
        "ut"
      ],
      [
        "Ġl",
        "d"
      ],
      [
        "Ġe",
        "t"
      ],
      [
        "Ġt",
        "er"
      ],
      [
        "Ġh",
        "y"
      ],
      [
        "Ġo",
        "pe"
      ],
      [
        "Ġwo",
        "es"
      ],
      [
        "Ġthe",
        "r"
      ],
      [
        "Ġs",
        "i"
      ],
      [
        "Ġe",
        "d"
      ],
      [
        "Ġin",
        "g"
      ],
      [
        "Ġo",
        "me"
      ],
      [
        "Ġo",
        "o"
      ],
      [
        "Ġb",
        "u"
      ],
      [
        "Ġth",
        "i"
      ],
      [
        "Ġe",
        "m"
      ],
      [
        "Ġkn",
        "o"
      ],
      [
        "Ġi",
        "th"
      ],
      [
        "Ġo",
        "m"
      ],
      [
        "Ġr",
        "s"
      ],
      [
        "Ġa",
        "ve"
      ],
      [
        "Ġc",
        "e"
      ],
      [
        "Ġr",
        "om"
      ],
      [
        "Ġa",
        "st"
      ],
      [
        "Ġi",
        "ll"
      ],
      [
        "Ġth",
        "o"
      ],
      [
        "Ġn",
        "t"
      ],
      [
        "Ġe",
        "e"
      ],
      [
        "Ġbre",
        "ed"
      ],
      [
        "Ġh",
        "an"
      ],
      [
        "Ġbreed",
        "er"
      ],
      [
        "Ġw",
        "a"
      ],
      [
        "Ġprison",
        "er"
      ],
      [
        "Ġm",
        "is"
      ],
      [
        "Ġi",
        "e"
      ],
      [
        "Ġo",
        "re"
      ],
      [
        "Ġg",
        "h"
      ],
      [
        "Ġwi",
        "l"
      ],
      [
        "Ġs",
        "a"
      ],
      [
        "Ġs",
        "s"
      ],
      [
        "Ġe",
        "ll"
      ],
      [
        "Ġu",
        "ld"
      ],
      [
        "Ġa",
        "th"
      ],
      [
        "Ġm",
        "p"
      ],
      [
        "Ġthe",
        "i"
      ],
      [
        "Ġo",
        "d"
      ],
      [
        "Ġd",
        "s"
      ],
      [
        "Ġe",
        "l"
      ],
      [
        "Ġr",
        "y"
      ],
      [
        "Ġk",
        "e"
      ],
      [
        "Ġoo",
        "d"
      ],
      [
        "Ġ",
        "ould"
      ],
      [
        "Ġ",
        "urn"
      ],
      [
        "Ġh",
        "t"
      ],
      [
        "Ġi",
        "ve"
      ],
      [
        "Ġe",
        "ve"
      ],
      [
        "Ġe",
        "ir"
      ],
      [
        "Ġsh",
        "a"
      ],
      [
        "Ġat",
        "her"
      ],
      [
        "Ġt",
        "i"
      ],
      [
        "Ġf",
        "ore"
      ],
      [
        "Ġo",
        "th"
      ],
      [
        "Ġl",
        "y"
      ],
      [
        "Ġhe",
        "e"
      ],
      [
        "Ġe",
        "v"
      ],
      [
        "Ġwh",
        "a"
      ],
      [
        "Ġha",
        "ll"
      ],
      [
        "Ġfr",
        "ie"
      ],
      [
        "Ġthere",
        "f"
      ],
      [
        "ch",
        "ance"
      ],
      [
        "Ġfat",
        "he"
      ],
      [
        "Ġgh",
        "t"
      ],
      [
        "Ġ",
        "ous"
      ],
      [
        "Ġs",
        "ter"
      ],
      [
        "Ġc",
        "k"
      ],
      [
        "Ġhe",
        "y"
      ],
      [
        "Ġe",
        "ad"
      ],
      [
        "Ġe",
        "ss"
      ],
      [
        "Ġin",
        "e"
      ],
      [
        "Ġha",
        "v"
      ],
      [
        "Ġcur",
        "t"
      ],
      [
        "o",
        "ke"
      ],
      [
        "Ġi",
        "l"
      ],
      [
        "Ġi",
        "st"
      ],
      [
        "Ġf",
        "ath"
      ],
      [
        "Ġo",
        "ck"
      ],
      [
        "Ġn",
        "y"
      ],
      [
        "Ġd",
        "i"
      ],
      [
        "Ġr",
        "n"
      ],
      [
        "Ġma",
        "s"
      ],
      [
        "Ġu",
        "l"
      ],
      [
        "Ġemp",
        "er"
      ],
      [
        "Ġsp",
        "oke"
      ],
      [
        "Ġmis",
        "chance"
      ],
      [
        "Ġt",
        "is"
      ],
      [
        "Ġi",
        "re"
      ],
      [
        "Ġi",
        "us"
      ],
      [
        "Ġf",
        "ul"
      ],
      [
        "Ġo",
        "l"
      ],
      [
        "Ġn",
        "a"
      ],
      [
        "Ġn",
        "c"
      ],
      [
        "Ġn",
        "s"
      ],
      [
        "Ġhe",
        "ir"
      ],
      [
        "Ġe",
        "a"
      ],
      [
        "Ġe",
        "ed"
      ],
      [
        "Ġbe",
        "a"
      ],
      [
        "Ġp",
        "i"
      ],
      [
        "Ġr",
        "u"
      ],
      [
        "Ġr",
        "st"
      ],
      [
        "Ġr",
        "th"
      ],
      [
        "Ġsh",
        "o"
      ],
      [
        "Ġbr",
        "ot"
      ],
      [
        "b",
        "l"
      ],
      [
        "Ġ",
        "ver"
      ],
      [
        "Ġ",
        "ers"
      ],
      [
        "Ġt",
        "s"
      ],
      [
        "Ġa",
        "in"
      ],
      [
        "Ġa",
        "ke"
      ],
      [
        "Ġs",
        "ou"
      ],
      [
        "Ġw",
        "n"
      ],
      [
        "Ġw",
        "om"
      ],
      [
        "Ġm",
        "es"
      ],
      [
        "Ġg",
        "oo"
      ],
      [
        "Ġe",
        "p"
      ],
      [
        "Ġe",
        "st"
      ],
      [
        "Ġe",
        "ath"
      ],
      [
        "Ġe",
        "fore"
      ],
      [
        "Ġr",
        "d"
      ],
      [
        "Ġr",
        "t"
      ],
      [
        "Ġr",
        "on"
      ],
      [
        "Ġmast",
        "e"
      ],
      [
        "Ġluc",
        "i"
      ],
      [
        "Ġnd",
        "s"
      ],
      [
        "Ġandronic",
        "i"
      ],
      [
        "Ġom",
        "es"
      ],
      [
        "w",
        "ell"
      ],
      [
        "Ġt",
        "y"
      ],
      [
        "Ġw",
        "ou"
      ],
      [
        "Ġh",
        "ould"
      ],
      [
        "Ġi",
        "es"
      ],
      [
        "Ġi",
        "fe"
      ],
      [
        "Ġth",
        "ing"
      ],
      [
        "Ġn",
        "ce"
      ],
      [
        "Ġg",
        "s"
      ],
      [
        "Ġno",
        "th"
      ],
      [
        "Ġno",
        "ck"
      ],
      [
        "Ġp",
        "s"
      ],
      [
        "Ġk",
        "i"
      ],
      [
        "Ġsh",
        "ou"
      ],
      [
        "Ġu",
        "ght"
      ],
      [
        "Ġre",
        "fore"
      ],
      [
        "Ġre",
        "ss"
      ],
      [
        "il",
        "ius"
      ],
      [
        "Ġco",
        "l"
      ],
      [
        "Ġhere",
        "fore"
      ],
      [
        "Ġkno",
        "c"
      ],
      [
        "Ġtheref",
        "o"
      ],
      [
        "Ġ",
        "oud"
      ],
      [
        "Ġa",
        "v"
      ],
      [
        "Ġs",
        "ist"
      ],
      [
        "Ġi",
        "c"
      ],
      [
        "Ġi",
        "d"
      ],
      [
        "Ġf",
        "f"
      ],
      [
        "Ġf",
        "ou"
      ],
      [
        "Ġb",
        "s"
      ],
      [
        "Ġl",
        "f"
      ],
      [
        "Ġn",
        "gs"
      ],
      [
        "Ġd",
        "er"
      ],
      [
        "Ġg",
        "e"
      ],
      [
        "Ġg",
        "iv"
      ],
      [
        "Ġbe",
        "l"
      ],
      [
        "Ġp",
        "eror"
      ],
      [
        "Ġr",
        "i"
      ],
      [
        "Ġr",
        "se"
      ],
      [
        "Ġr",
        "iend"
      ],
      [
        "Ġk",
        "is"
      ],
      [
        "Ġsh",
        "oul"
      ],
      [
        "Ġu",
        "e"
      ],
      [
        "Ġu",
        "m"
      ],
      [
        "Ġde",
        "at"
      ],
      [
        "Ġre",
        "l"
      ],
      [
        "Ġfr",
        "i"
      ],
      [
        "Ġthere",
        "for"
      ],
      [
        "Ġat",
        "e"
      ],
      [
        "Ġor",
        "th"
      ],
      [
        "Ġent",
        "e"
      ],
      [
        "Ġsl",
        "a"
      ],
      [
        "Ġlav",
        "in"
      ],
      [
        "Ġbarb",
        "ar"
      ],
      [
        "Ġer",
        "y"
      ],
      [
        "Ġve",
        "s"
      ],
      [
        "Ġere",
        "fore"
      ],
      [
        "Ġmp",
        "eror"
      ],
      [
        "Ġfrie",
        "n"
      ],
      [
        "c",
        "ome"
      ],
      [
        "i",
        "ou"
      ],
      [
        "s",
        "es"
      ],
      [
        "t",
        "i"
      ],
      [
        "Ġ",
        ":"
      ],
      [
        "Ġt",
        "le"
      ],
      [
        "Ġt",
        "ter"
      ],
      [
        "Ġt",
        "el"
      ],
      [
        "Ġa",
        "ven"
      ],
      [
        "Ġs",
        "es"
      ],
      [
        "Ġm",
        "b"
      ],
      [
        "Ġh",
        "ing"
      ],
      [
        "Ġi",
        "a"
      ],
      [
        "Ġi",
        "le"
      ],
      [
        "Ġi",
        "ke"
      ],
      [
        "Ġi",
        "ght"
      ],
      [
        "Ġi",
        "ous"
      ],
      [
        "Ġth",
        "in"
      ],
      [
        "Ġo",
        "ble"
      ],
      [
        "Ġl",
        "s"
      ],
      [
        "Ġl",
        "t"
      ],
      [
        "Ġn",
        "ter"
      ],
      [
        "Ġd",
        "y"
      ],
      [
        "Ġe",
        "se"
      ],
      [
        "Ġe",
        "ast"
      ],
      [
        "Ġe",
        "lf"
      ],
      [
        "Ġe",
        "nds"
      ],
      [
        "Ġno",
        "bl"
      ],
      [
        "Ġbe",
        "in"
      ],
      [
        "Ġp",
        "on"
      ],
      [
        "Ġr",
        "v"
      ],
      [
        "Ġr",
        "tis"
      ],
      [
        "Ġk",
        "s"
      ],
      [
        "Ġma",
        "k"
      ],
      [
        "Ġu",
        "st"
      ],
      [
        "Ġst",
        "ress"
      ],
      [
        "Ġon",
        "s"
      ],
      [
        "Ġgo",
        "t"
      ],
      [
        "Ġfa",
        "c"
      ],
      [
        "Ġat",
        "urn"
      ],
      [
        "Ġor",
        "d"
      ],
      [
        "Ġla",
        "in"
      ],
      [
        "Ġle",
        "a"
      ],
      [
        "ic",
        "us"
      ],
      [
        "Ġear",
        "s"
      ],
      [
        "Ġv",
        "inia"
      ],
      [
        "Ġsaturn",
        "i"
      ],
      [
        "Ġsaturn",
        "in"
      ],
      [
        "Ġar",
        "s"
      ],
      [
        "Ġaemil",
        "i"
      ],
      [
        "Ġlit",
        "t"
      ],
      [
        "Ġur",
        "tis"
      ],
      [
        "Ġast",
        "er"
      ],
      [
        "Ġie",
        "nds"
      ],
      [
        "Ġcurt",
        "i"
      ],
      [
        "Ġemper",
        "o"
      ],
      [
        "Ġbrot",
        "he"
      ],
      [
        "Ġav",
        "inia"
      ],
      [
        "Ġriend",
        "s"
      ],
      [
        "a",
        "i"
      ],
      [
        "b",
        "arous"
      ],
      [
        "s",
        "o"
      ],
      [
        "Ġ",
        "x"
      ],
      [
        "Ġ",
        "eror"
      ],
      [
        "Ġ",
        "erv"
      ],
      [
        "Ġ",
        "oul"
      ],
      [
        "Ġ",
        "ought"
      ],
      [
        "Ġ",
        "xe"
      ],
      [
        "Ġt",
        "u"
      ],
      [
        "Ġt",
        "es"
      ],
      [
        "Ġt",
        "us"
      ],
      [
        "Ġt",
        "ear"
      ],
      [
        "Ġt",
        "il"
      ],
      [
        "Ġt",
        "ress"
      ],
      [
        "Ġa",
        "e"
      ],
      [
        "Ġa",
        "k"
      ],
      [
        "Ġa",
        "ir"
      ],
      [
        "Ġa",
        "le"
      ],
      [
        "Ġw",
        "oul"
      ],
      [
        "Ġm",
        "s"
      ],
      [
        "Ġm",
        "or"
      ],
      [
        "Ġm",
        "in"
      ],
      [
        "Ġm",
        "ilius"
      ],
      [
        "ou",
        "g"
      ],
      [
        "Ġi",
        "o"
      ],
      [
        "Ġi",
        "ld"
      ],
      [
        "Ġi",
        "al"
      ],
      [
        "Ġi",
        "de"
      ],
      [
        "Ġf",
        "el"
      ],
      [
        "Ġthe",
        "s"
      ],
      [
        "Ġo",
        "k"
      ],
      [
        "Ġo",
        "st"
      ],
      [
        "Ġc",
        "us"
      ],
      [
        "Ġc",
        "al"
      ],
      [
        "Ġn",
        "k"
      ],
      [
        "Ġn",
        "es"
      ],
      [
        "Ġn",
        "em"
      ],
      [
        "Ġn",
        "ia"
      ],
      [
        "Ġhe",
        "m"
      ],
      [
        "Ġd",
        "u"
      ],
      [
        "Ġd",
        "ing"
      ],
      [
        "Ġe",
        "w"
      ],
      [
        "Ġe",
        "nd"
      ],
      [
        "Ġe",
        "ing"
      ],
      [
        "Ġe",
        "et"
      ],
      [
        "Ġe",
        "ak"
      ],
      [
        "Ġbe",
        "i"
      ],
      [
        "Ġbe",
        "as"
      ],
      [
        "Ġp",
        "p"
      ],
      [
        "Ġy",
        "e"
      ],
      [
        "Ġy",
        "self"
      ],
      [
        "Ġr",
        "or"
      ],
      [
        "Ġr",
        "ow"
      ],
      [
        "Ġr",
        "ous"
      ],
      [
        "Ġr",
        "other"
      ],
      [
        "Ġin",
        "k"
      ],
      [
        "Ġin",
        "gs"
      ],
      [
        "Ġme",
        "nt"
      ],
      [
        "Ġu",
        "d"
      ],
      [
        "Ġu",
        "re"
      ],
      [
        "Ġde",
        "e"
      ],
      [
        "Ġli",
        "f"
      ],
      [
        "Ġli",
        "k"
      ],
      [
        "Ġli",
        "p"
      ],
      [
        "Ġli",
        "us"
      ],
      [
        "Ġre",
        "at"
      ],
      [
        "Ġst",
        "o"
      ],
      [
        "Ġon",
        "g"
      ],
      [
        "Ġit",
        "us"
      ],
      [
        "Ġpr",
        "ou"
      ],
      [
        "Ġgr",
        "ow"
      ],
      [
        "Ġta",
        "k"
      ],
      [
        "Ġta",
        "nd"
      ],
      [
        "Ġne",
        "a"
      ],
      [
        "Ġor",
        "y"
      ],
      [
        "Ġor",
        "se"
      ],
      [
        "Ġtru",
        "mp"
      ],
      [
        "ic",
        "i"
      ],
      [
        "Ġaw",
        "a"
      ],
      [
        "Ġgre",
        "a"
      ],
      [
        "Ġsat",
        "u"
      ],
      [
        "Ġsat",
        "ur"
      ],
      [
        "Ġunc",
        "l"
      ],
      [
        "Ġfir",
        "s"
      ],
      [
        "Ġmist",
        "re"
      ],
      [
        "Ġmist",
        "res"
      ],
      [
        "Ġswe",
        "e"
      ],
      [
        "Ġaem",
        "i"
      ],
      [
        "Ġsor",
        "r"
      ],
      [
        "Ġexe",
        "un"
      ],
      [
        "Ġte",
        "a"
      ],
      [
        "Ġwea",
        "p"
      ],
      [
        "Ġchol",
        "er"
      ],
      [
        "ronic",
        "us"
      ],
      [
        "Ġhi",
        "ld"
      ],
      [
        "Ġhi",
        "ch"
      ],
      [
        "Ġll",
        "s"
      ],
      [
        "Ġup",
        "o"
      ],
      [
        "Ġur",
        "ial"
      ],
      [
        "Ġnt",
        "o"
      ],
      [
        "Ġist",
        "er"
      ],
      [
        "Ġist",
        "ress"
      ],
      [
        "Ġnc",
        "le"
      ],
      [
        "Ġwom",
        "a"
      ],
      [
        "Ġluci",
        "u"
      ],
      [
        "Ġrother",
        "s"
      ],
      [
        "b",
        "us"
      ],
      [
        "d",
        "ge"
      ],
      [
        "g",
        "er"
      ],
      [
        "Ġ",
        "ound"
      ],
      [
        "Ġ",
        "ough"
      ],
      [
        "Ġ",
        "outh"
      ],
      [
        "Ġt",
        "ur"
      ],
      [
        "Ġt",
        "ed"
      ],
      [
        "Ġt",
        "ly"
      ],
      [
        "Ġt",
        "tle"
      ],
      [
        "Ġt",
        "ers"
      ],
      [
        "Ġa",
        "p"
      ],
      [
        "Ġa",
        "ce"
      ],
      [
        "Ġa",
        "ron"
      ],
      [
        "Ġa",
        "ft"
      ],
      [
        "Ġs",
        "om"
      ],
      [
        "Ġs",
        "oo"
      ],
      [
        "Ġw",
        "r"
      ],
      [
        "Ġw",
        "s"
      ],
      [
        "Ġw",
        "her"
      ],
      [
        "Ġw",
        "ful"
      ],
      [
        "Ġw",
        "ro"
      ],
      [
        "Ġm",
        "ies"
      ],
      [
        "Ġh",
        "s"
      ],
      [
        "Ġh",
        "ol"
      ],
      [
        "Ġi",
        "v"
      ],
      [
        "Ġi",
        "se"
      ],
      [
        "Ġi",
        "ch"
      ],
      [
        "Ġi",
        "el"
      ],
      [
        "Ġf",
        "in"
      ],
      [
        "Ġb",
        "i"
      ],
      [
        "Ġth",
        "s"
      ],
      [
        "Ġth",
        "ro"
      ],
      [
        "Ġo",
        "y"
      ],
      [
        "Ġo",
        "se"
      ],
      [
        "Ġo",
        "mp"
      ],
      [
        "Ġo",
        "ot"
      ],
      [
        "Ġl",
        "or"
      ],
      [
        "Ġl",
        "es"
      ],
      [
        "Ġl",
        "ow"
      ],
      [
        "Ġl",
        "as"
      ],
      [
        "Ġl",
        "come"
      ],
      [
        "Ġc",
        "ius"
      ],
      [
        "Ġn",
        "ous"
      ],
      [
        "Ġn",
        "tle"
      ],
      [
        "Ġn",
        "ess"
      ],
      [
        "Ġhe",
        "d"
      ],
      [
        "Ġhe",
        "ave"
      ],
      [
        "Ġd",
        "st"
      ],
      [
        "Ġd",
        "ir"
      ],
      [
        "Ġd",
        "ly"
      ],
      [
        "Ġd",
        "ges"
      ],
      [
        "Ġg",
        "i"
      ],
      [
        "Ġg",
        "es"
      ],
      [
        "Ġg",
        "en"
      ],
      [
        "Ġe",
        "c"
      ],
      [
        "Ġe",
        "f"
      ],
      [
        "Ġe",
        "g"
      ],
      [
        "Ġe",
        "ce"
      ],
      [
        "Ġe",
        "ep"
      ],
      [
        "Ġe",
        "el"
      ],
      [
        "Ġe",
        "lieve"
      ],
      [
        "Ġe",
        "ts"
      ],
      [
        "Ġno",
        "b"
      ],
      [
        "Ġbe",
        "lie"
      ],
      [
        "Ġp",
        "ets"
      ],
      [
        "an",
        "y"
      ],
      [
        "an",
        "ions"
      ],
      [
        "Ġmy",
        "s"
      ],
      [
        "Ġwh",
        "it"
      ],
      [
        "Ġr",
        "m"
      ],
      [
        "Ġr",
        "op"
      ],
      [
        "Ġr",
        "oud"
      ],
      [
        "Ġr",
        "own"
      ],
      [
        "Ġr",
        "ial"
      ],
      [
        "Ġr",
        "cus"
      ],
      [
        "Ġr",
        "ms"
      ],
      [
        "Ġr",
        "rel"
      ],
      [
        "Ġr",
        "ds"
      ],
      [
        "ing",
        "men"
      ],
      [
        "Ġwe",
        "e"
      ],
      [
        "Ġme",
        "a"
      ],
      [
        "Ġme",
        "e"
      ],
      [
        "ie",
        "n"
      ],
      [
        "Ġwith",
        "i"
      ],
      [
        "Ġu",
        "th"
      ],
      [
        "Ġu",
        "gh"
      ],
      [
        "Ġis",
        "h"
      ],
      [
        "Ġis",
        "s"
      ],
      [
        "Ġre",
        "a"
      ],
      [
        "Ġre",
        "d"
      ],
      [
        "Ġre",
        "e"
      ],
      [
        "Ġre",
        "m"
      ],
      [
        "Ġre",
        "well"
      ],
      [
        "Ġit",
        "tle"
      ],
      [
        "Ġse",
        "lf"
      ],
      [
        "Ġan",
        "ce"
      ],
      [
        "Ġfa",
        "re"
      ],
      [
        "Ġbr",
        "a"
      ],
      [
        "Ġsw",
        "o"
      ],
      [
        "Ġare",
        "well"
      ],
      [
        "Ġever",
        "l"
      ],
      [
        "Ġor",
        "st"
      ],
      [
        "Ġor",
        "row"
      ],
      [
        "Ġor",
        "ses"
      ],
      [
        "un",
        "es"
      ],
      [
        "ive",
        "d"
      ],
      [
        "Ġent",
        "le"
      ],
      [
        "Ġch",
        "o"
      ],
      [
        "Ġch",
        "il"
      ],
      [
        "Ġal",
        "a"
      ],
      [
        "Ġtit",
        "l"
      ],
      [
        "Ġtit",
        "u"
      ],
      [
        "Ġen",
        "e"
      ],
      [
        "Ġmar",
        "c"
      ],
      [
        "Ġmar",
        "r"
      ],
      [
        "Ġear",
        "t"
      ],
      [
        "Ġv",
        "il"
      ],
      [
        "Ġbl",
        "o"
      ],
      [
        "Ġbl",
        "oo"
      ],
      [
        "Ġspe",
        "a"
      ],
      [
        "Ġbur",
        "ia"
      ],
      [
        "Ġlav",
        "i"
      ],
      [
        "Ġad",
        "y"
      ],
      [
        "Ġenem",
        "ie"
      ],
      [
        "Ġqu",
        "a"
      ],
      [
        "Ġserv",
        "i"
      ],
      [
        "Ġar",
        "d"
      ],
      [
        "Ġar",
        "cus"
      ],
      [
        "Ġdev",
        "i"
      ],
      [
        "Ġtrib",
        "u"
      ],
      [
        "Ġaar",
        "o"
      ],
      [
        "Ġlim",
        "b"
      ],
      [
        "Ġwelc",
        "o"
      ],
      [
        "Ġgent",
        "l"
      ],
      [
        "Ġfarew",
        "e"
      ],
      [
        "Ġfe",
        "a"
      ],
      [
        "Ġwit",
        "n"
      ],
      [
        "Ġban",
        "is"
      ],
      [
        "Ġnd",
        "ly"
      ],
      [
        "Ġsacrif",
        "ic"
      ],
      [
        "Ġinter",
        "rup"
      ],
      [
        "Ġmut",
        "i"
      ],
      [
        "Ġll",
        "ow"
      ],
      [
        "Ġbro",
        "th"
      ],
      [
        "Ġbef",
        "o"
      ],
      [
        "Ġrepro",
        "bat"
      ],
      [
        "ider",
        "ing"
      ],
      [
        "Ġcount",
        "en"
      ],
      [
        "Ġim",
        "bs"
      ],
      [
        "Ġir",
        "t"
      ],
      [
        "Ġld",
        "st"
      ],
      [
        "Ġet",
        "ter"
      ],
      [
        "Ġsi",
        "gh"
      ],
      [
        "Ġoo",
        "k"
      ],
      [
        "Ġem",
        "ilius"
      ],
      [
        "Ġom",
        "an"
      ],
      [
        "Ġuld",
        "st"
      ],
      [
        "Ġould",
        "st"
      ],
      [
        "Ġurn",
        "ine"
      ],
      [
        "Ġoth",
        "s"
      ],
      [
        "Ġil",
        "ius"
      ],
      [
        "Ġrth",
        "y"
      ],
      [
        "Ġsou",
        "n"
      ],
      [
        "Ġnoth",
        "i"
      ],
      [
        "Ġlavin",
        "i"
      ],
      [
        "Ġaturn",
        "ine"
      ],
      [
        "Ġlitt",
        "l"
      ],
      [
        "Ġxe",
        "unt"
      ],
      [
        "Ġnem",
        "ies"
      ],
      [
        "c",
        "ius"
      ],
      [
        "c",
        "ious"
      ],
      [
        "d",
        "g"
      ],
      [
        "d",
        "les"
      ],
      [
        "f",
        "o"
      ],
      [
        "f",
        "ig"
      ],
      [
        "f",
        "ac"
      ],
      [
        "f",
        "ume"
      ],
      [
        "g",
        "a"
      ],
      [
        "m",
        "ing"
      ],
      [
        "n",
        "a"
      ],
      [
        "u",
        "ile"
      ],
      [
        "Ġ",
        "q"
      ],
      [
        "Ġ",
        "vey"
      ],
      [
        "Ġ",
        "eric"
      ],
      [
        "Ġ",
        "zen"
      ],
      [
        "Ġt",
        "ay"
      ],
      [
        "Ġt",
        "en"
      ],
      [
        "Ġt",
        "ies"
      ],
      [
        "Ġt",
        "ion"
      ],
      [
        "Ġt",
        "les"
      ],
      [
        "Ġt",
        "ory"
      ],
      [
        "Ġt",
        "ness"
      ],
      [
        "Ġa",
        "a"
      ],
      [
        "Ġa",
        "nt"
      ],
      [
        "Ġa",
        "id"
      ],
      [
        "Ġa",
        "pon"
      ],
      [
        "Ġa",
        "ps"
      ],
      [
        "Ġa",
        "ise"
      ],
      [
        "Ġa",
        "use"
      ],
      [
        "Ġs",
        "ur"
      ],
      [
        "Ġs",
        "ed"
      ],
      [
        "Ġs",
        "id"
      ],
      [
        "Ġs",
        "ters"
      ],
      [
        "Ġw",
        "ad"
      ],
      [
        "Ġm",
        "ou"
      ],
      [
        "Ġm",
        "ing"
      ],
      [
        "Ġm",
        "us"
      ],
      [
        "Ġm",
        "out"
      ],
      [
        "Ġm",
        "ora"
      ],
      [
        "Ġm",
        "pets"
      ],
      [
        "ou",
        "n"
      ],
      [
        "Ġh",
        "r"
      ],
      [
        "Ġh",
        "u"
      ],
      [
        "Ġh",
        "in"
      ],
      [
        "Ġh",
        "om"
      ],
      [
        "Ġh",
        "it"
      ],
      [
        "Ġh",
        "ous"
      ],
      [
        "Ġh",
        "ine"
      ],
      [
        "Ġh",
        "row"
      ],
      [
        "Ġh",
        "ough"
      ],
      [
        "Ġi",
        "p"
      ],
      [
        "Ġi",
        "on"
      ],
      [
        "Ġi",
        "ent"
      ],
      [
        "Ġi",
        "cus"
      ],
      [
        "Ġi",
        "lt"
      ],
      [
        "Ġi",
        "ves"
      ],
      [
        "Ġi",
        "gure"
      ],
      [
        "Ġi",
        "ger"
      ],
      [
        "Ġf",
        "ar"
      ],
      [
        "Ġf",
        "ter"
      ],
      [
        "Ġf",
        "al"
      ],
      [
        "Ġb",
        "ar"
      ],
      [
        "Ġb",
        "us"
      ],
      [
        "Ġb",
        "as"
      ],
      [
        "Ġb",
        "arous"
      ],
      [
        "Ġb",
        "unes"
      ],
      [
        "at",
        "ion"
      ],
      [
        "Ġth",
        "u"
      ],
      [
        "Ġth",
        "al"
      ],
      [
        "Ġand",
        "s"
      ],
      [
        "Ġand",
        "ron"
      ],
      [
        "Ġo",
        "a"
      ],
      [
        "Ġo",
        "or"
      ],
      [
        "Ġo",
        "om"
      ],
      [
        "Ġo",
        "ve"
      ],
      [
        "Ġo",
        "on"
      ],
      [
        "Ġo",
        "bs"
      ],
      [
        "Ġo",
        "zen"
      ],
      [
        "Ġl",
        "k"
      ],
      [
        "Ġl",
        "us"
      ],
      [
        "Ġl",
        "oo"
      ],
      [
        "Ġl",
        "our"
      ],
      [
        "Ġl",
        "ave"
      ],
      [
        "Ġl",
        "ood"
      ],
      [
        "Ġl",
        "arb"
      ],
      [
        "Ġl",
        "ks"
      ],
      [
        "Ġl",
        "eric"
      ],
      [
        "Ġc",
        "i"
      ],
      [
        "Ġc",
        "ious"
      ],
      [
        "Ġc",
        "ks"
      ],
      [
        "Ġc",
        "rif"
      ],
      [
        "Ġn",
        "h"
      ],
      [
        "Ġn",
        "ou"
      ],
      [
        "Ġn",
        "er"
      ],
      [
        "Ġn",
        "us"
      ],
      [
        "Ġn",
        "ed"
      ],
      [
        "Ġn",
        "ine"
      ],
      [
        "Ġn",
        "vey"
      ],
      [
        "Ġn",
        "ough"
      ],
      [
        "Ġn",
        "ance"
      ],
      [
        "Ġn",
        "iel"
      ],
      [
        "Ġn",
        "inus"
      ],
      [
        "Ġn",
        "icus"
      ],
      [
        "Ġhe",
        "l"
      ],
      [
        "Ġhe",
        "s"
      ],
      [
        "Ġhe",
        "ath"
      ],
      [
        "Ġd",
        "is"
      ],
      [
        "Ġd",
        "on"
      ],
      [
        "Ġd",
        "oo"
      ],
      [
        "Ġd",
        "der"
      ],
      [
        "Ġd",
        "ro"
      ],
      [
        "Ġd",
        "ronicus"
      ],
      [
        "Ġto",
        "ge"
      ],
      [
        "Ġe",
        "k"
      ],
      [
        "Ġe",
        "in"
      ],
      [
        "Ġe",
        "th"
      ],
      [
        "Ġe",
        "ly"
      ],
      [
        "Ġe",
        "en"
      ],
      [
        "Ġe",
        "ful"
      ],
      [
        "Ġe",
        "qu"
      ],
      [
        "Ġe",
        "aven"
      ],
      [
        "Ġe",
        "ft"
      ],
      [
        "Ġe",
        "lp"
      ],
      [
        "Ġe",
        "dges"
      ],
      [
        "Ġe",
        "vent"
      ],
      [
        "Ġe",
        "hold"
      ],
      [
        "ar",
        "rel"
      ],
      [
        "Ġno",
        "n"
      ],
      [
        "ve",
        "st"
      ],
      [
        "Ġbe",
        "for"
      ],
      [
        "Ġp",
        "t"
      ],
      [
        "Ġp",
        "il"
      ],
      [
        "Ġp",
        "are"
      ],
      [
        "Ġwi",
        "f"
      ],
      [
        "Ġwi",
        "p"
      ],
      [
        "Ġmy",
        "se"
      ],
      [
        "Ġr",
        "um"
      ],
      [
        "Ġr",
        "row"
      ],
      [
        "Ġr",
        "ic"
      ],
      [
        "Ġr",
        "ish"
      ],
      [
        "Ġr",
        "ious"
      ],
      [
        "Ġr",
        "for"
      ],
      [
        "Ġr",
        "ief"
      ],
      [
        "Ġr",
        "ue"
      ],
      [
        "Ġr",
        "ry"
      ],
      [
        "Ġr",
        "if"
      ],
      [
        "Ġr",
        "imm"
      ],
      [
        "Ġr",
        "ush"
      ],
      [
        "Ġr",
        "ison"
      ],
      [
        "Ġr",
        "barous"
      ],
      [
        "Ġin",
        "us"
      ],
      [
        "Ġin",
        "ia"
      ],
      [
        "im",
        "is"
      ],
      [
        "im",
        "ony"
      ],
      [
        "et",
        "rius"
      ],
      [
        "Ġwe",
        "et"
      ],
      [
        "Ġk",
        "a"
      ],
      [
        "Ġk",
        "at"
      ],
      [
        "Ġk",
        "ing"
      ],
      [
        "Ġk",
        "ath"
      ],
      [
        "Ġk",
        "athe"
      ],
      [
        "Ġha",
        "ps"
      ],
      [
        "Ġha",
        "lt"
      ],
      [
        "Ġwith",
        "a"
      ],
      [
        "Ġthou",
        "g"
      ],
      [
        "Ġu",
        "ce"
      ],
      [
        "Ġu",
        "it"
      ],
      [
        "Ġu",
        "lt"
      ],
      [
        "Ġu",
        "mb"
      ],
      [
        "Ġu",
        "mpets"
      ],
      [
        "Ġu",
        "me"
      ],
      [
        "Ġu",
        "cius"
      ],
      [
        "Ġu",
        "arrel"
      ],
      [
        "Ġde",
        "d"
      ],
      [
        "Ġde",
        "st"
      ],
      [
        "Ġher",
        "s"
      ],
      [
        "Ġthy",
        "s"
      ],
      [
        "Ġthy",
        "sel"
      ],
      [
        "Ġis",
        "on"
      ],
      [
        "Ġis",
        "hed"
      ],
      [
        "Ġis",
        "ses"
      ],
      [
        "Ġre",
        "n"
      ],
      [
        "Ġkn",
        "ave"
      ],
      [
        "Ġst",
        "s"
      ],
      [
        "Ġst",
        "an"
      ],
      [
        "Ġst",
        "ly"
      ],
      [
        "Ġon",
        "y"
      ],
      [
        "Ġon",
        "es"
      ],
      [
        "Ġon",
        "gs"
      ],
      [
        "Ġit",
        "e"
      ],
      [
        "Ġit",
        "her"
      ],
      [
        "Ġtr",
        "a"
      ],
      [
        "Ġtr",
        "um"
      ],
      [
        "Ġshe",
        "a"
      ],
      [
        "Ġshe",
        "at"
      ],
      [
        "Ġpr",
        "is"
      ],
      [
        "Ġan",
        "k"
      ],
      [
        "Ġan",
        "o"
      ],
      [
        "Ġan",
        "s"
      ],
      [
        "Ġan",
        "ot"
      ],
      [
        "Ġan",
        "iel"
      ],
      [
        "Ġfi",
        "c"
      ],
      [
        "Ġfi",
        "g"
      ],
      [
        "Ġfi",
        "ce"
      ],
      [
        "Ġfa",
        "i"
      ],
      [
        "Ġat",
        "s"
      ],
      [
        "Ġat",
        "t"
      ],
      [
        "Ġat",
        "es"
      ],
      [
        "Ġgr",
        "i"
      ],
      [
        "Ġgr",
        "o"
      ],
      [
        "Ġgr",
        "an"
      ],
      [
        "Ġgr",
        "ie"
      ],
      [
        "Ġam",
        "e"
      ],
      [
        "Ġam",
        "o"
      ],
      [
        "Ġall",
        "s"
      ],
      [
        "Ġbr",
        "ou"
      ],
      [
        "Ġco",
        "a"
      ],
      [
        "en",
        "c"
      ],
      [
        "Ġun",
        "es"
      ],
      [
        "Ġ'",
        "?"
      ],
      [
        "Ġsw",
        "or"
      ],
      [
        "fe",
        "rent"
      ],
      [
        "Ġwor",
        "s"
      ],
      [
        "Ġwor",
        "t"
      ],
      [
        "Ġcur",
        "s"
      ],
      [
        "Ġever",
        "last"
      ],
      [
        "Ġor",
        "a"
      ],
      [
        "Ġor",
        "n"
      ],
      [
        "Ġor",
        "s"
      ],
      [
        "Ġor",
        "t"
      ],
      [
        "Ġor",
        "ds"
      ],
      [
        "Ġemp",
        "re"
      ],
      [
        "Ġemp",
        "res"
      ],
      [
        "ain",
        "s"
      ],
      [
        "Ġle",
        "f"
      ],
      [
        "Ġal",
        "ar"
      ],
      [
        "Ġal",
        "ter"
      ],
      [
        "Ġsu",
        "f"
      ],
      [
        "Ġex",
        "i"
      ],
      [
        "Ġen",
        "ce"
      ],
      [
        "Ġra",
        "i"
      ],
      [
        "Ġra",
        "cious"
      ],
      [
        "Ġgre",
        "et"
      ],
      [
        "Ġj",
        "a"
      ],
      [
        "Ġbeg",
        "i"
      ],
      [
        "Ġcon",
        "ve"
      ],
      [
        "Ġcan",
        "n"
      ],
      [
        "Ġus",
        "h"
      ],
      [
        "Ġear",
        "d"
      ],
      [
        "Ġv",
        "i"
      ],
      [
        "Ġv",
        "ion"
      ],
      [
        "Ġbre",
        "a"
      ],
      [
        "Ġbre",
        "as"
      ],
      [
        "Ġbl",
        "iv"
      ],
      [
        "Ġbur",
        "i"
      ],
      [
        "Ġoff",
        "i"
      ],
      [
        "Ġmist",
        "r"
      ],
      [
        "Ġforth",
        "w"
      ],
      [
        "Ġad",
        "e"
      ],
      [
        "Ġad",
        "ed"
      ],
      [
        "Ġad",
        "der"
      ],
      [
        "Ġturn",
        "ine"
      ],
      [
        "Ġtam",
        "o"
      ],
      [
        "Ġtam",
        "or"
      ],
      [
        "Ġsp",
        "r"
      ],
      [
        "Ġsc",
        "o"
      ],
      [
        "Ġbeast",
        "l"
      ],
      [
        "Ġple",
        "dge"
      ],
      [
        "Ġswe",
        "a"
      ],
      [
        "Ġar",
        "m"
      ],
      [
        "Ġar",
        "th"
      ],
      [
        "Ġar",
        "rel"
      ],
      [
        "Ġar",
        "barous"
      ],
      [
        "Ġar",
        "bus"
      ],
      [
        "Ġfell",
        "o"
      ],
      [
        "Ġmat",
        "t"
      ],
      [
        "Ġmat",
        "te"
      ],
      [
        "Ġexe",
        "u"
      ],
      [
        "Ġho",
        "ld"
      ],
      [
        "Ġho",
        "se"
      ],
      [
        "Ġwelc",
        "om"
      ],
      [
        "Ġlov",
        "i"
      ],
      [
        "Ġevery",
        "th"
      ],
      [
        "Ġsound",
        "l"
      ],
      [
        "Ġcomp",
        "a"
      ],
      [
        "Ġcomp",
        "l"
      ],
      [
        "Ġquar",
        "r"
      ],
      [
        "Ġquar",
        "re"
      ],
      [
        "Ġow",
        "s"
      ],
      [
        "Ġow",
        "ing"
      ],
      [
        "Ġfarew",
        "el"
      ],
      [
        "Ġmust",
        "ar"
      ],
      [
        "Ġfe",
        "e"
      ],
      [
        "Ġwit",
        "ne"
      ],
      [
        "Ġte",
        "mpt"
      ],
      [
        "Ġwal",
        "t"
      ],
      [
        "if",
        "ies"
      ],
      [
        "Ġsac",
        "r"
      ],
      [
        "Ġbarb",
        "a"
      ],
      [
        "Ġban",
        "i"
      ],
      [
        "Ġsheath",
        "i"
      ],
      [
        "Ġsheath",
        "in"
      ],
      [
        "Ġnd",
        "ronicus"
      ],
      [
        "Ġcar",
        "p"
      ],
      [
        "Ġpra",
        "i"
      ],
      [
        "Ġpra",
        "is"
      ],
      [
        "Ġobliv",
        "i"
      ],
      [
        "Ġobliv",
        "io"
      ],
      [
        "Ġtig",
        "e"
      ],
      [
        "Ġbet",
        "te"
      ],
      [
        "Ġrece",
        "i"
      ],
      [
        "Ġrece",
        "iv"
      ],
      [
        "Ġsacrif",
        "i"
      ],
      [
        "ha",
        "ps"
      ],
      [
        "Ġraven",
        "o"
      ],
      [
        "Ġraven",
        "ou"
      ],
      [
        "Ġwood",
        "c"
      ],
      [
        "Ġkather",
        "i"
      ],
      [
        "Ġstri",
        "k"
      ],
      [
        "Ġatte",
        "mp"
      ],
      [
        "Ġgrac",
        "i"
      ],
      [
        "Ġgrac",
        "io"
      ],
      [
        "Ġgrac",
        "iou"
      ],
      [
        "Ġlad",
        "d"
      ],
      [
        "Ġalarb",
        "u"
      ],
      [
        "Ġperha",
        "p"
      ],
      [
        "Ġnath",
        "a"
      ],
      [
        "Ġlaw",
        "fu"
      ],
      [
        "Ġdetest",
        "a"
      ],
      [
        "Ġnathan",
        "i"
      ],
      [
        "Ġve",
        "d"
      ],
      [
        "Ġwret",
        "c"
      ],
      [
        "Ġbir",
        "d"
      ],
      [
        "Ġll",
        "o"
      ],
      [
        "Ġpe",
        "ak"
      ],
      [
        "Ġou",
        "se"
      ],
      [
        "Ġwar",
        "r"
      ],
      [
        "Ġven",
        "ous"
      ],
      [
        "Ġuna",
        "ppe"
      ],
      [
        "Ġund",
        "ly"
      ],
      [
        "Ġdemet",
        "ri"
      ],
      [
        "Ġsle",
        "ek"
      ],
      [
        "Ġune",
        "x"
      ],
      [
        "sel",
        "ves"
      ],
      [
        "Ġsold",
        "i"
      ],
      [
        "Ġunk",
        "ind"
      ],
      [
        "Ġac",
        "ious"
      ],
      [
        "Ġac",
        "rif"
      ],
      [
        "Ġstra",
        "i"
      ],
      [
        "Ġcob",
        "we"
      ],
      [
        "Ġrav",
        "is"
      ],
      [
        "Ġrepro",
        "b"
      ],
      [
        "isfac",
        "tion"
      ],
      [
        "xper",
        "ienc"
      ],
      [
        "Ġbese",
        "e"
      ],
      [
        "Ġsatisfac",
        "t"
      ],
      [
        "Ġpetru",
        "ch"
      ],
      [
        "iffe",
        "rent"
      ],
      [
        "kn",
        "o"
      ],
      [
        "soo",
        "th"
      ],
      [
        "Ġmon",
        "um"
      ],
      [
        "Ġkna",
        "v"
      ],
      [
        "Ġbret",
        "he"
      ],
      [
        "Ġwed",
        "d"
      ],
      [
        "Ġliv",
        "ion"
      ],
      [
        "Ġgra",
        "v"
      ],
      [
        "Ġprese",
        "nt"
      ],
      [
        "Ġacc",
        "ur"
      ],
      [
        "dem",
        "on"
      ],
      [
        "Ġunhall",
        "ow"
      ],
      [
        "Ġappare",
        "ll"
      ],
      [
        "Ġinsat",
        "i"
      ],
      [
        "Ġur",
        "ish"
      ],
      [
        "Ġir",
        "st"
      ],
      [
        "Ġut",
        "y"
      ],
      [
        "Ġther",
        "s"
      ],
      [
        "Ġoo",
        "f"
      ],
      [
        "Ġem",
        "ies"
      ],
      [
        "Ġith",
        "al"
      ],
      [
        "Ġrs",
        "es"
      ],
      [
        "Ġrom",
        "a"
      ],
      [
        "Ġast",
        "ers"
      ],
      [
        "Ġhan",
        "iel"
      ],
      [
        "Ġie",
        "nd"
      ],
      [
        "Ġmp",
        "t"
      ],
      [
        "Ġmp",
        "ress"
      ],
      [
        "Ġel",
        "come"
      ],
      [
        "Ġurn",
        "ing"
      ],
      [
        "Ġurn",
        "inus"
      ],
      [
        "Ġev",
        "il"
      ],
      [
        "Ġead",
        "s"
      ],
      [
        "Ġrn",
        "ine"
      ],
      [
        "Ġrn",
        "inus"
      ],
      [
        "Ġol",
        "eric"
      ],
      [
        "Ġru",
        "th"
      ],
      [
        "Ġru",
        "mpets"
      ],
      [
        "Ġeath",
        "ing"
      ],
      [
        "Ġron",
        "icus"
      ],
      [
        "Ġhould",
        "st"
      ],
      [
        "Ġoud",
        "est"
      ],
      [
        "Ġsist",
        "e"
      ],
      [
        "Ġff",
        "ice"
      ],
      [
        "Ġbel",
        "i"
      ],
      [
        "Ġkis",
        "se"
      ],
      [
        "Ġrel",
        "i"
      ],
      [
        "Ġorth",
        "y"
      ],
      [
        "Ġsla",
        "v"
      ],
      [
        "Ġbarbar",
        "o"
      ],
      [
        "Ġbarbar",
        "ou"
      ],
      [
        "Ġaven",
        "ous"
      ],
      [
        "Ġaturn",
        "inus"
      ],
      [
        "Ġsaturnin",
        "u"
      ],
      [
        "Ġaemili",
        "u"
      ],
      [
        "Ġx",
        "it"
      ],
      [
        "Ġtrump",
        "et"
      ],
      [
        "Ġweap",
        "o"
      ],
      [
        "Ġcholer",
        "i"
      ],
      [
        "Ġaft",
        "e"
      ],
      [
        "Ġiv",
        "ion"
      ],
      [
        "Ġrem",
        "ain"
      ],
      [
        "Ġcho",
        "le"
      ],
      [
        "Ġwitn",
        "es"
      ],
      [
        "fig",
        "ure"
      ],
      [
        "fac",
        "tion"
      ],
      [
        "Ġlarb",
        "us"
      ],
      [
        "Ġheath",
        "ing"
      ],
      [
        "Ġbliv",
        "ion"
      ],
      [
        "a",
        "ir"
      ],
      [
        "a",
        "use"
      ],
      [
        "b",
        "unes"
      ],
      [
        "c",
        "ue"
      ],
      [
        "c",
        "ursed"
      ],
      [
        "g",
        "ed"
      ],
      [
        "g",
        "ress"
      ],
      [
        "h",
        "o"
      ],
      [
        "h",
        "ies"
      ],
      [
        "h",
        "ind"
      ],
      [
        "i",
        "ff"
      ],
      [
        "j",
        "a"
      ],
      [
        "j",
        "e"
      ],
      [
        "j",
        "ac"
      ],
      [
        "l",
        "ves"
      ],
      [
        "n",
        "i"
      ],
      [
        "n",
        "at"
      ],
      [
        "n",
        "in"
      ],
      [
        "n",
        "an"
      ],
      [
        "n",
        "ful"
      ],
      [
        "n",
        "anc"
      ],
      [
        "n",
        "ifies"
      ],
      [
        "o",
        "s"
      ],
      [
        "p",
        "ter"
      ],
      [
        "p",
        "ink"
      ],
      [
        "r",
        "ou"
      ],
      [
        "r",
        "in"
      ],
      [
        "v",
        "ing"
      ],
      [
        "w",
        "l"
      ],
      [
        "Ġ",
        "ount"
      ],
      [
        "Ġ",
        "urb"
      ],
      [
        "Ġ",
        "ze"
      ],
      [
        "Ġ",
        "urse"
      ],
      [
        "Ġ",
        "ursed"
      ],
      [
        "Ġ",
        "xperienc"
      ],
      [
        "Ġt",
        "in"
      ],
      [
        "Ġt",
        "ir"
      ],
      [
        "Ġt",
        "ch"
      ],
      [
        "Ġt",
        "ius"
      ],
      [
        "Ġt",
        "io"
      ],
      [
        "Ġt",
        "ure"
      ],
      [
        "Ġt",
        "te"
      ],
      [
        "Ġt",
        "ters"
      ],
      [
        "Ġt",
        "urb"
      ],
      [
        "Ġt",
        "ian"
      ],
      [
        "Ġt",
        "ardy"
      ],
      [
        "Ġt",
        "cr"
      ],
      [
        "Ġt",
        "ched"
      ],
      [
        "Ġt",
        "enance"
      ],
      [
        "Ġt",
        "isfaction"
      ],
      [
        "Ġa",
        "x"
      ],
      [
        "Ġa",
        "se"
      ],
      [
        "Ġa",
        "ter"
      ],
      [
        "Ġa",
        "ck"
      ],
      [
        "Ġa",
        "ble"
      ],
      [
        "Ġa",
        "ul"
      ],
      [
        "Ġa",
        "bs"
      ],
      [
        "Ġa",
        "ight"
      ],
      [
        "Ġa",
        "thing"
      ],
      [
        "Ġa",
        "very"
      ],
      [
        "Ġa",
        "gg"
      ],
      [
        "Ġa",
        "by"
      ],
      [
        "Ġa",
        "ith"
      ],
      [
        "Ġa",
        "ves"
      ],
      [
        "Ġa",
        "ppeas"
      ],
      [
        "Ġa",
        "ineth"
      ],
      [
        "Ġa",
        "ils"
      ],
      [
        "he",
        "aded"
      ],
      [
        "Ġs",
        "m"
      ],
      [
        "Ġs",
        "y"
      ],
      [
        "Ġs",
        "us"
      ],
      [
        "Ġs",
        "um"
      ],
      [
        "Ġs",
        "ume"
      ],
      [
        "Ġs",
        "sio"
      ],
      [
        "Ġs",
        "chance"
      ],
      [
        "Ġs",
        "idering"
      ],
      [
        "Ġs",
        "demon"
      ],
      [
        "Ġs",
        "figure"
      ],
      [
        "Ġs",
        "faction"
      ],
      [
        "Ġw",
        "l"
      ],
      [
        "Ġw",
        "ain"
      ],
      [
        "Ġw",
        "ate"
      ],
      [
        "Ġw",
        "ers"
      ],
      [
        "Ġw",
        "int"
      ],
      [
        "Ġm",
        "m"
      ],
      [
        "Ġm",
        "n"
      ],
      [
        "Ġm",
        "oo"
      ],
      [
        "Ġm",
        "it"
      ],
      [
        "Ġm",
        "il"
      ],
      [
        "Ġm",
        "pe"
      ],
      [
        "Ġm",
        "bs"
      ],
      [
        "Ġm",
        "ish"
      ],
      [
        "Ġm",
        "iss"
      ],
      [
        "Ġm",
        "ps"
      ],
      [
        "Ġm",
        "ory"
      ],
      [
        "Ġm",
        "per"
      ],
      [
        "Ġm",
        "ong"
      ],
      [
        "Ġm",
        "ony"
      ],
      [
        "Ġm",
        "fort"
      ],
      [
        "Ġm",
        "ming"
      ],
      [
        "Ġm",
        "etrius"
      ],
      [
        "Ġm",
        "selves"
      ],
      [
        "Ġh",
        "re"
      ],
      [
        "Ġh",
        "ar"
      ],
      [
        "Ġh",
        "us"
      ],
      [
        "Ġh",
        "ut"
      ],
      [
        "Ġh",
        "ore"
      ],
      [
        "Ġh",
        "il"
      ],
      [
        "Ġh",
        "ful"
      ],
      [
        "Ġh",
        "ig"
      ],
      [
        "Ġh",
        "out"
      ],
      [
        "Ġh",
        "io"
      ],
      [
        "Ġh",
        "ink"
      ],
      [
        "Ġh",
        "ile"
      ],
      [
        "Ġh",
        "irt"
      ],
      [
        "Ġh",
        "ought"
      ],
      [
        "Ġh",
        "ings"
      ],
      [
        "Ġh",
        "ite"
      ],
      [
        "Ġh",
        "ness"
      ],
      [
        "Ġh",
        "ance"
      ],
      [
        "Ġh",
        "ree"
      ],
      [
        "Ġh",
        "ment"
      ],
      [
        "Ġh",
        "ith"
      ],
      [
        "Ġh",
        "ren"
      ],
      [
        "Ġh",
        "irty"
      ],
      [
        "Ġh",
        "iron"
      ],
      [
        "Ġh",
        "ilip"
      ],
      [
        "Ġh",
        "inks"
      ],
      [
        "Ġh",
        "less"
      ],
      [
        "Ġh",
        "with"
      ],
      [
        "re",
        "d"
      ],
      [
        "Ġi",
        "an"
      ],
      [
        "Ġi",
        "ed"
      ],
      [
        "Ġi",
        "pe"
      ],
      [
        "Ġi",
        "ble"
      ],
      [
        "Ġi",
        "ate"
      ],
      [
        "Ġi",
        "ron"
      ],
      [
        "Ġi",
        "ps"
      ],
      [
        "Ġi",
        "der"
      ],
      [
        "Ġi",
        "ers"
      ],
      [
        "Ġi",
        "ors"
      ],
      [
        "Ġi",
        "mb"
      ],
      [
        "Ġi",
        "me"
      ],
      [
        "Ġi",
        "king"
      ],
      [
        "Ġi",
        "ved"
      ],
      [
        "Ġi",
        "rous"
      ],
      [
        "Ġi",
        "chol"
      ],
      [
        "Ġi",
        "ding"
      ],
      [
        "Ġi",
        "cks"
      ],
      [
        "Ġi",
        "pling"
      ],
      [
        "Ġi",
        "enc"
      ],
      [
        "Ġi",
        "gress"
      ],
      [
        "nd",
        "el"
      ],
      [
        "nd",
        "si"
      ],
      [
        "Ġf",
        "s"
      ]
    ]
  }
}