{
  "version": "1.0",
  "truncation": null,
  "padding": null,
  "added_tokens": [
    {
      "id": 0,
      "content": "[UNK]",
      "single_word": false,
      "lstrip": false,
      "rstrip": false,
      "normalized": false,
      "special": true
    },
    {
      "id": 1,
      "content": "[PAD]",
      "single_word": false,
      "lstrip": false,
      "rstrip": false,
      "normalized": false,
      "special": true
    },
    {
      "id": 2,
      "content": "[CLS]",
      "single_word": false,
      "lstrip": false,
      "rstrip": false,
      "normalized": false,
      "special": true
    },
    {
      "id": 3,
      "content": "[SEP]",
      "single_word": false,
      "lstrip": false,
      "rstrip": false,
      "normalized": false,
      "special": true
    }
  ],
  "normalizer": null,
  "pre_tokenizer": {
    "type": "ByteLevel",
    "add_prefix_space": true,
    "trim_offsets": true,
    "use_regex": true
  },
  "post_processor": null,
  "decoder": null,
  "model": {
    "type": "BPE",
    "dropout": null,
    "unk_token": "[UNK]",
    "continuing_subword_prefix": null,
    "end_of_word_suffix": null,
    "fuse_unk": false,
    "byte_fallback": false,
    "ignore_merges": false,
    "vocab": {
      "[UNK]": 0,
      "[PAD]": 1,
      "[CLS]": 2,
      "[SEP]": 3,
      "!": 4,
      "'": 5,
      ",": 6,
      "-": 7,
      ".": 8,
      "0": 9,
      "1": 10,
      "2": 11,
      "3": 12,
      "4": 13,
      "5": 14,
      "6": 15,
      "7": 16,
      "8": 17,
      "9": 18,
      ":": 19,
      ";": 20,
      "?": 21,
      "a": 22,
      "b": 23,
      "c": 24,
      "d": 25,
      "e": 26,
      "f": 27,
      "g": 28,
      "h": 29,
      "i": 30,
      "j": 31,
      "k": 32,
      "l": 33,
      "m": 34,
      "n": 35,
      "o": 36,
      "p": 37,
      "q": 38,
      "r": 39,
      "s": 40,
      "t": 41,
      "u": 42,
      "v": 43,
      "w": 44,
      "x": 45,
      "y": 46,
      "z": 47,
      "Ġ": 48,
      "Ġt": 49,
      "Ġa": 50,
      "in": 51,
      "er": 52,
      "Ġs": 53,
      "on": 54,
      "he": 55,
      "re": 56,
      "Ġc": 57,
      "Ġthe": 58,
      "Ġf": 59,
      "Ġo": 60,
      "an": 61,
      "es": 62,
      "Ġb": 63,
      "Ġw": 64,
      "Ġp": 65,
      "or": 66,
      "Ġm": 67,
      "ed": 68,
      "it": 69,
      "en": 70,
      "at": 71,
      "Ġin": 72,
      "al": 73,
      "ing": 74,
      "ar": 75,
      "is": 76,
      "Ġto": 77,
      "ic": 78,
      "Ġh": 79,
      "Ġd": 80,
      "ro": 81,
      "Ġof": 82,
      "Ġg": 83,
      "Ġl": 84,
      "as": 85,
      "Ġre": 86,
      "Ġan": 87,
      "Ġn": 88,
      "ay": 89,
      "il": 90,
      "ter": 91,
      "ion": 92,
      "us": 93,
      "un": 94,
      "ur": 95,
      "le": 96,
      "om": 97,
      "Ġth": 98,
      "Ġe": 99,
      "id": 100,
      "Ġon": 101,
      "Ġand": 102,
      "et": 103,
      "ent": 104,
      "ut": 105,
      "ra": 106,
      "Ġst": 107,
      "el": 108,
      "ol": 109,
      "Ġfor": 110,
      "ig": 111,
      "st": 112,
      "Ġ-": 113,
      "ec": 114,
      "am": 115,
      "ad": 116,
      "ac": 117,
      "ir": 118,
      "day": 119,
      "ot": 120,
      "Ġ3": 121,
      "ly": 122,
      "ver": 123,
      "Ġat": 124,
      "Ġit": 125,
      "ve": 126,
      "im": 127,
      "ow": 128,
      "ul": 129,
      "Ġ39": 130,
      "Ġne": 131,
      "ill": 132,
      "Ġj": 133,
      "ers": 134,
      "up": 135,
      "Ġr": 136,
      "Ġy": 137,
      "est": 138,
      "qu": 139,
      "ation": 140,
      "Ġch": 141,
      "Ġas": 142,
      "Ġk": 143,
      "Ġbe": 144,
      "ch": 145,
      "Ġde": 146,
      "ith": 147,
      "igh": 148,
      "ts": 149,
      "Ġv": 150,
      "Ġcom": 151,
      "th": 152,
      "Ġpro": 153,
      "Ġsh": 154,
      "ters": 155,
      "Ġco": 156,
      "Ġwith": 157,
      "Ġis": 158,
      "ce": 159,
      "Ġap": 160,
      "Ġcon": 161,
      "os": 162,
      "and": 163,
      "Ġ1": 164,
      "Ġthat": 165,
      "ak": 166,
      "'s": 167,
      "ag": 168,
      "Ġhe": 169,
      "Ġnew": 170,
      "..": 171,
      "ore": 172,
      "Ġaf": 173,
      "ri": 174,
      "ks": 175,
      "mp": 176,
      "ug": 177,
      "Ġsa": 178,
      "Ġi": 179,
      "res": 180,
      "op": 181,
      "ear": 182,
      "Ġun": 183,
      "Ġsp": 184,
      "uters": 185,
      "Ġby": 186,
      "Ġal": 187,
      "oc": 188,
      "Ġus": 189,
      "ment": 190,
      "all": 191,
      "Ġreuters": 192,
      "Ġle": 193,
      "Ġwh": 194,
      "ain": 195,
      "Ġex": 196,
      "ct": 197,
      "Ġqu": 198,
      "ast": 199,
      "Ġ2": 200,
      "Ġits": 201,
      "00": 202,
      "Ġpl": 203,
      "oo": 204,
      "ia": 205,
      "ap": 206,
      "ian": 207,
      "ate": 208,
      "ust": 209,
      "Ġcomp": 210,
      "Ġsaid": 211,
      "ist": 212,
      "rom": 213,
      "ight": 214,
      "ee": 215,
      "Ġwas": 216,
      "end": 217,
      "Ġhas": 218,
      "Ġoff": 219,
      "ort": 220,
      "Ġfrom": 221,
      "ies": 222,
      "Ġso": 223,
      "old": 224,
      "ess": 225,
      "hen": 226,
      "ft": 227,
      "Ġup": 228,
      "um": 229,
      "ud": 230,
      "ity": 231,
      "ial": 232,
      "Ġag": 233,
      "und": 234,
      "Ġcl": 235,
      "ine": 236,
      "ric": 237,
      "Ġro": 238,
      "Ġse": 239,
      "ack": 240,
      "art": 241,
      "Ġwor": 242,
      "Ġhis": 243,
      "ip": 244,
      "ub": 245,
      "Ġmon": 246,
      "ave": 247,
      "Ġafter": 248,
      "are": 249,
      "Ġoly": 250,
      "Ġolymp": 251,
      "Ġover": 252,
      "Ġwill": 253,
      "ard": 254,
      "Ġmo": 255,
      "Ġolympic": 256,
      "esday": 257,
      "ry": 258,
      "Ġu": 259,
      "Ġsec": 260,
      "ive": 261,
      "Ġmar": 262,
      "Ġinc": 263,
      "if": 264,
      "Ġwin": 265,
      "Ġac": 266,
      "ere": 267,
      "mer": 268,
      "ab": 269,
      "Ġfir": 270,
      "iv": 271,
      "our": 272,
      "ect": 273,
      "...": 274,
      "ell": 275,
      "ong": 276,
      "ld": 277,
      "Ġop": 278,
      "Ġtw": 279,
      "Ġte": 280,
      "Ġlt": 281,
      "Ġrep": 282,
      "Ġout": 283,
      "Ġres": 284,
      "Ġint": 285,
      "em": 286,
      "ree": 287,
      "Ġfr": 288,
      "ge": 289,
      "Ġexp": 290,
      "Ġfin": 291,
      "Ġab": 292,
      "Ġare": 293,
      "uld": 294,
      "ays": 295,
      "ice": 296,
      "Ġen": 297,
      "Ġgt": 298,
      "Ġhave": 299,
      "Ġgo": 300,
      "raq": 301,
      "ond": 302,
      "ie": 303,
      "Ġra": 304,
      "ant": 305,
      "Ġiraq": 306,
      "Ġar": 307,
      "Ġinter": 308,
      "ome": 309,
      "Ġ--": 310,
      "ans": 311,
      "ning": 312,
      "any": 313,
      "Ġad": 314,
      "hens": 315,
      "Ġquot": 316,
      "Ġtwo": 317,
      "Ġmed": 318,
      "Ġgro": 319,
      "ord": 320,
      "Ġsc": 321,
      "Ġathens": 322,
      "Ġbut": 323,
      "ire": 324,
      "ost": 325,
      "out": 326,
      "age": 327,
      "ions": 328,
      "ork": 329,
      "Ġser": 330,
      "Ġbl": 331,
      "ace": 332,
      "ime": 333,
      "Ġpres": 334,
      "uc": 335,
      "Ġbr": 336,
      "ke": 337,
      "ile": 338,
      "Ġapp": 339,
      "Ġfirst": 340,
      "Ġrec": 341,
      "Ġtheir": 342,
      "Ġmore": 343,
      "se": 344,
      "arg": 345,
      "Ġgold": 346,
      "Ġoil": 347,
      "Ġpe": 348,
      "ket": 349,
      "ure": 350,
      "Ġpric": 351,
      "ail": 352,
      "Ġyear": 353,
      "ide": 354,
      "ugh": 355,
      "ish": 356,
      "Ġnot": 357,
      "ign": 358,
      "ite": 359,
      "Ġdis": 360,
      "Ġper": 361,
      "Ġcont": 362,
      "ous": 363,
      "Ġor": 364,
      "ue": 365,
      "Ġind": 366,
      "ors": 367,
      "urs": 368,
      "Ġcr": 369,
      "Ġban": 370,
      "av": 371,
      "eek": 372,
      "Ġstoc": 373,
      "illion": 374,
      "own": 375,
      "aj": 376,
      "hed": 377,
      "unt": 378,
      "Ġtra": 379,
      "ros": 380,
      "Ġmic": 381,
      "ase": 382,
      "Ġcan": 383,
      "ates": 384,
      "Ġthis": 385,
      "Ġgam": 386,
      "der": 387,
      "Ġworld": 388,
      "Ġjo": 389,
      "Ġone": 390,
      "Ġatt": 391,
      "ff": 392,
      "ident": 393,
      "Ġlead": 394,
      "Ġacc": 395,
      "Ġbus": 396,
      "iday": 397,
      "Ġfl": 398,
      "amp": 399,
      "Ġmonday": 400,
      "lic": 401,
      "Ġman": 402,
      "Ġmin": 403,
      "Ġdo": 404,
      "Ġthurs": 405,
      "Ġthursday": 406,
      "Ġinv": 407,
      "ations": 408,
      "ath": 409,
      "Ġintern": 410,
      "ass": 411,
      "Ġcompany": 412,
      "ton": 413,
      "Ġgre": 414,
      "Ġhigh": 415,
      "Ġ200": 416,
      "ens": 417,
      "Ġpol": 418,
      "Ġfriday": 419,
      "Ġgoo": 420,
      "Ġmil": 421,
      "Ġtu": 422,
      "Ġwe": 423,
      "als": 424,
      "Ġtuesday": 425,
      "ake": 426,
      "Ġagain": 427,
      "Ġall": 428,
      "one": 429,
      "ited": 430,
      "Ġair": 431,
      "ance": 432,
      "iz": 433,
      "Ġthan": 434,
      "Ġ4": 435,
      "Ġbo": 436,
      "ence": 437,
      "Ġim": 438,
      "Ġwed": 439,
      "Ġyork": 440,
      "ational": 441,
      "ester": 442,
      "ary": 443,
      "ber": 444,
      "hn": 445,
      "Ġcor": 446,
      "ated": 447,
      "aw": 448,
      "nesday": 449,
      "Ġwednesday": 450,
      "Ġweek": 451,
      "Ġsun": 452,
      "Ġset": 453,
      "ory": 454,
      "Ġinto": 455,
      "Ġsl": 456,
      "Ġno": 457,
      "ina": 458,
      "ition": 459,
      "iss": 460,
      "anc": 461,
      "Ġoffic": 462,
      "af": 463,
      "Ġwar": 464,
      "Ġamer": 465,
      "ach": 466,
      "Ġprices": 467,
      "vers": 468,
      "Ġameric": 469,
      "Ġlast": 470,
      "Ġteam": 471,
      "Ġwho": 472,
      "ould": 473,
      "Ġthey": 474,
      "etw": 475,
      "Ġreport": 476,
      "vern": 477,
      "og": 478,
      "uth": 479,
      "Ġbu": 480,
      "urn": 481,
      "Ġear": 482,
      "ick": 483,
      "ound": 484,
      "Ġend": 485,
      "Ġgovern": 486,
      "Ġabout": 487,
      "earch": 488,
      "Ġplan": 489,
      "Ġsecond": 490,
      "ich": 491,
      "lect": 492,
      "Ġret": 493,
      "Ġaug": 494,
      "Ġprof": 495,
      "uct": 496,
      "ey": 497,
      "Ġmilit": 498,
      "ict": 499,
      "Ġph": 500,
      "Ġthree": 501,
      "uss": 502,
      "oft": 503,
      "ds": 504,
      "hing": 505,
      "Ġsy": 506,
      "rop": 507,
      "Ġpresident": 508,
      "Ġwere": 509,
      "Ġcorp": 510,
      "Ġofficial": 511,
      "oun": 512,
      "ical": 513,
      "ms": 514,
      "ral": 515,
      "Ġme": 516,
      "Ġgovernment": 517,
      "Ġstocks": 518,
      "Ġcomm": 519,
      "Ġmedal": 520,
      "ows": 521,
      "Ġpre": 522,
      "Ġli": 523,
      "ther": 524,
      "lo": 525,
      "Ġkill": 526,
      "Ġagainst": 527,
      "Ġserv": 528,
      "tle": 529,
      "arter": 530,
      "Ġam": 531,
      "Ġsat": 532,
      "ting": 533,
      "com": 534,
      "Ġsw": 535,
      "Ġsal": 536,
      "vel": 537,
      "Ġinvest": 538,
      "ren": 539,
      "Ġsunday": 540,
      "Ġmicros": 541,
      "Ġyester": 542,
      "Ġyesterday": 543,
      "Ġann": 544,
      "led": 545,
      "co": 546,
      "Ġsup": 547,
      "Ġbeen": 548,
      "Ġmarket": 549,
      "ating": 550,
      "Ġunited": 551,
      "ven": 552,
      "Ġ...": 553,
      "lp": 554,
      "ower": 555,
      "orts": 556,
      "gle": 557,
      "Ġwhen": 558,
      "Ġpr": 559,
      "ased": 560,
      "Ġmicrosoft": 561,
      "urt": 562,
      "Ġplay": 563,
      "Ġhad": 564,
      "ib": 565,
      "Ġdes": 566,
      "Ġbank": 567,
      "Ġmay": 568,
      "man": 569,
      "ajaf": 570,
      "its": 571,
      "Ġpeop": 572,
      "Ġbro": 573,
      "Ġback": 574,
      "Ġpart": 575,
      "hes": 576,
      "Ġsecur": 577,
      "Ġnajaf": 578,
      "Ġcons": 579,
      "Ġdown": 580,
      "les": 581,
      "Ġdef": 582,
      "cent": 583,
      "Ġreg": 584,
      "Ġfour": 585,
      "Ġmillion": 586,
      "oll": 587,
      "Ġsur": 588,
      "Ġafp": 589,
      "Ġcould": 590,
      "con": 591,
      "Ġgroup": 592,
      "Ġ6": 593,
      "ets": 594,
      "Ġsays": 595,
      "Ġstr": 596,
      "Ġfinal": 597,
      "ise": 598,
      "Ġgoogle": 599,
      "Ġ5": 600,
      "Ġcap": 601,
      "eral": 602,
      "ged": 603,
      "ists": 604,
      "Ġlos": 605,
      "ame": 606,
      "ull": 607,
      "Ġcount": 608,
      "ware": 609,
      "Ġdec": 610,
      "Ġpeople": 611,
      "Ġmus": 612,
      "act": 613,
      "Ġsome": 614,
      "Ġsoft": 615,
      "line": 616,
      "ister": 617,
      "po": 618,
      "Ġmak": 619,
      "ball": 620,
      "land": 621,
      "orm": 622,
      "Ġnight": 623,
      "Ġruss": 624,
      "Ġwhich": 625,
      "Ġwould": 626,
      "ected": 627,
      "Ġter": 628,
      "orn": 629,
      "cy": 630,
      "Ġaust": 631,
      "Ġcar": 632,
      "Ġrecord": 633,
      "ital": 634,
      "ublic": 635,
      "Ġolympics": 636,
      "ced": 637,
      "ade": 638,
      "Ġsouth": 639,
      "Ġpercent": 640,
      "Ġmen": 641,
      "Ġlong": 642,
      "ked": 643,
      "ult": 644,
      "Ġtec": 645,
      "Ġgu": 646,
      "Ġbec": 647,
      "ines": 648,
      "Ġjust": 649,
      "Ġtal": 650,
      "pt": 651,
      "ou": 652,
      "Ġtime": 653,
      "oth": 654,
      "Ġchina": 655,
      "ier": 656,
      "wn": 657,
      "able": 658,
      "Ġdem": 659,
      "Ġtri": 660,
      "Ġinternet": 661,
      "port": 662,
      "Ġtop": 663,
      "Ġopen": 664,
      "Ġgames": 665,
      "Ġtoday": 666,
      "Ġnews": 667,
      "ph": 668,
      "iness": 669,
      "Ġprod": 670,
      "ual": 671,
      "Ġbrit": 672,
      "ix": 673,
      "ics": 674,
      "Ġminister": 675,
      "Ġreb": 676,
      "Ġelect": 677,
      "Ġsecurity": 678,
      "ces": 679,
      "ely": 680,
      "Ġbig": 681,
      "king": 682,
      "els": 683,
      "Ġyears": 684,
      "stem": 685,
      "urday": 686,
      "Ġsaturday": 687,
      "ang": 688,
      "ird": 689,
      "Ġresearch": 690,
      "Ġtr": 691,
      "Ġrun": 692,
      "bs": 693,
      "Ġinf": 694,
      "Ġcourt": 695,
      "Ġday": 696,
      "Ġaustral": 697,
      "Ġass": 698,
      "Ġbusiness": 699,
      "Ġsoftware": 700,
      "Ġfed": 701,
      "Ġwom": 702,
      "pos": 703,
      "de": 704,
      "Ġconf": 705,
      "Ġoffer": 706,
      "vent": 707,
      "Ġrele": 708,
      "let": 709,
      "hington": 710,
      "Ġhelp": 711,
      "Ġher": 712,
      "Ġsystem": 713,
      "Ġdel": 714,
      "istan": 715,
      "Ġcity": 716,
      "Ġsales": 717,
      "xt": 718,
      "Ġannoun": 719,
      "Ġsu": 720,
      "Ġcol": 721,
      "Ġfe": 722,
      "ities": 723,
      "Ġeu": 724,
      "Ġecon": 725,
      "Ġeconom": 726,
      "ling": 727,
      "Ġvict": 728,
      "Ġmonth": 729,
      "ands": 730,
      "Ġwashington": 731,
      "ares": 732,
      "Ġnear": 733,
      "ote": 734,
      "Ġcall": 735,
      "az": 736,
      "Ġ8": 737,
      "Ġpo": 738,
      "Ġstates": 739,
      "ror": 740,
      "Ġquarter": 741,
      "Ġshe": 742,
      "Ġwon": 743,
      "Ġamerican": 744,
      "ck": 745,
      "ins": 746,
      "ley": 747,
      "Ġste": 748,
      "Ġgrow": 749,
      "Ġx": 750,
      "use": 751,
      "Ġdeal": 752,
      "Ġwind": 753,
      "ern": 754,
      "ater": 755,
      "Ġchamp": 756,
      "ason": 757,
      "ood": 758,
      "ose": 759,
      "air": 760,
      "ient": 761,
      "Ġhome": 762,
      "olog": 763,
      "ious": 764,
      "Ġche": 765,
      "atch": 766,
      "eep": 767,
      "Ġsay": 768,
      "ings": 769,
      "int": 770,
      "ok": 771,
      "apan": 772,
      "Ġofficials": 773,
      "Ġcut": 774,
      "Ġstate": 775,
      "ied": 776,
      "Ġpar": 777,
      "Ġjapan": 778,
      "Ġeng": 779,
      "Ġsm": 780,
      "Ġnext": 781,
      "ved": 782,
      "Ġ7": 783,
      "way": 784,
      "Ġfore": 785,
      "ange": 786,
      "ped": 787,
      "Ġhol": 788,
      "ash": 789,
      "Ġju": 790,
      "Ġtarg": 791,
      "Ġla": 792,
      "Ġbuy": 793,
      "ece": 794,
      "Ġrel": 795,
      "Ġwomen": 796,
      "Ġservice": 797,
      "ont": 798,
      "Ġnor": 799,
      "Ġtechn": 800,
      "000": 801,
      "ene": 802,
      "Ġunder": 803,
      "Ġprofit": 804,
      "io": 805,
      "rough": 806,
      "Ġ10": 807,
      "Ġmiss": 808,
      "ments": 809,
      "Ġnetw": 810,
      "Ġpost": 811,
      "Ġgian": 812,
      "Ġdr": 813,
      "uring": 814,
      "Ġbush": 815,
      "Ġyou": 816,
      "ner": 817,
      "Ġupd": 818,
      "aim": 819,
      "rael": 820,
      "ger": 821,
      "Ġstri": 822,
      "Ġbef": 823,
      "ah": 824,
      "Ġref": 825,
      "Ġimp": 826,
      "Ġed": 827,
      "Ġmost": 828,
      "Ġsus": 829,
      "Ġjohn": 830,
      "Ġbefore": 831,
      "Ġnational": 832,
      "Ġisrael": 833,
      "ress": 834,
      "Ġwindows": 835,
      "Ġget": 836,
      "Ġcountry": 837,
      "Ġtak": 838,
      "Ġsign": 839,
      "velop": 840,
      "Ġbat": 841,
      "acks": 842,
      "Ġcanad": 843,
      "ward": 844,
      "Ġbre": 845,
      "Ġbillion": 846,
      "Ġiraqi": 847,
      "Ġgreece": 848,
      "iel": 849,
      "Ġtro": 850,
      "han": 851,
      "Ġprot": 852,
      "be": 853,
      "ves": 854,
      "Ġcre": 855,
      "ants": 856,
      "Ġtalks": 857,
      "Ġgame": 858,
      "Ġterror": 859,
      "Ġshi": 860,
      "Ġshares": 861,
      "ding": 862,
      "Ġshow": 863,
      "Ġoper": 864,
      "Ġsusp": 865,
      "Ġfull": 866,
      "Ġhit": 867,
      "ecut": 868,
      "Ġtarget": 869,
      "Ġcost": 870,
      "ned": 871,
      "Ġact": 872,
      "Ġbel": 873,
      "ures": 874,
      "Ġtake": 875,
      "Ġstart": 876,
      "Ġdevelop": 877,
      "Ġ19": 878,
      "less": 879,
      "Ġbom": 880,
      "Ġrem": 881,
      "Ġvi": 882,
      "Ġclaim": 883,
      "Ġvictory": 884,
      "Ġtest": 885,
      "Ġbas": 886,
      "year": 887,
      "Ġ'": 888,
      "alif": 889,
      "Ġipo": 890,
      "ron": 891,
      "Ġif": 892,
      "Ġpublic": 893,
      "Ġkilled": 894,
      "Ġham": 895,
      "Ġother": 896,
      "Ġant": 897,
      "ices": 898,
      "Ġinternational": 899,
      "cess": 900,
      "Ġgen": 901,
      "ook": 902,
      "hip": 903,
      "lud": 904,
      "uel": 905,
      "Ġpower": 906,
      "Ġmaj": 907,
      "Ġdep": 908,
      "Ġadv": 909,
      "Ġta": 910,
      "Ġlaw": 911,
      "Ġstre": 912,
      "Ġwork": 913,
      "other": 914,
      "gest": 915,
      "Ġmusic": 916,
      "Ġpos": 917,
      "Ġins": 918,
      "Ġhom": 919,
      "Ġwhat": 920,
      "Ġstock": 921,
      "Ġreported": 922,
      "ons": 923,
      "Ġpay": 924,
      "ally": 925,
      "Ġ2004": 926,
      "Ġz": 927,
      "inu": 928,
      "Ġfound": 929,
      "itt": 930,
      "Ġaccord": 931,
      "Ġred": 932,
      "Ġrul": 933,
      "Ġhead": 934,
      "Ġpa": 935,
      "Ġgr": 936,
      "ract": 937,
      "Ġext": 938,
      "uter": 939,
      "eric": 940,
      "Ġbar": 941,
      "Ġpress": 942,
      "Ġmajor": 943,
      "Ġplans": 944,
      "Ġprime": 945,
      "Ġtechnolog": 946,
      "med": 947,
      "ision": 948,
      "ents": 949,
      "Ġpolice": 950,
      "Ġannounced": 951,
      "pl": 952,
      "Ġprov": 953,
      "Ġfederal": 954,
      "Ġupdate": 955,
      "iam": 956,
      "Ġthrough": 957,
      "Ġever": 958,
      "Ġ15": 959,
      "rest": 960,
      "Ġthird": 961,
      "Ġbeg": 962,
      "gra": 963,
      "ough": 964,
      "Ġfall": 965,
      "Ġattack": 966,
      "Ġaccording": 967,
      "ert": 968,
      "Ġway": 969,
      "Ġweb": 970,
      "reat": 971,
      "Ġwhile": 972,
      "Ġrussian": 973,
      "Ġeff": 974,
      "ives": 975,
      "me": 976,
      "Ġpeace": 977,
      "ll": 978,
      "Ġstar": 979,
      "Ġstud": 980,
      "Ġsan": 981,
      "ne": 982,
      "Ġsch": 983,
      "Ġhim": 984,
      "Ġang": 985,
      "ones": 986,
      "Ġem": 987,
      "Ġnow": 988,
      "Ġleast": 989,
      "Ġpak": 990,
      "Ġmade": 991,
      "ising": 992,
      "Ġinclud": 993,
      "ince": 994,
      "Ġhow": 995,
      "Ġcomputer": 996,
      "Ġput": 997,
      "Ġdat": 998,
      "ble": 999,
      "Ġaustralia": 1000,
      "Ġeurop": 1001,
      "ful": 1002,
      "lin": 1003,
      "ys": 1004,
      "Ġsud": 1005,
      "Ġformer": 1006,
      "Ġcharg": 1007,
      "Ġquick": 1008,
      "ief": 1009,
      "Ġprice": 1010,
      "Ġconsum": 1011,
      "Ġlaun": 1012,
      "Ġhold": 1013,
      "Ġfight": 1014,
      "Ġeurope": 1015,
      "aring": 1016,
      "Ġdar": 1017,
      "Ġgrowth": 1018,
      "ause": 1019,
      "od": 1020,
      "Ġlarg": 1021,
      "Ġanother": 1022,
      "Ġbeat": 1023,
      "Ġindust": 1024,
      "Ġbritish": 1025,
      "cl": 1026,
      "Ġfive": 1027,
      "adr": 1028,
      "Ġdrug": 1029,
      "een": 1030,
      "Ġger": 1031,
      "rican": 1032,
      "Ġpakistan": 1033,
      "Ġhur": 1034,
      "Ġhop": 1035,
      "ild": 1036,
      "Ġchar": 1037,
      "ched": 1038,
      "Ġspr": 1039,
      "Ġbomb": 1040,
      "ky": 1041,
      "Ġel": 1042,
      "ending": 1043,
      "Ġhigher": 1044,
      "Ġdeb": 1045,
      "Ġcompet": 1046,
      "Ġrad": 1047,
      "Ġfo": 1048,
      "used": 1049,
      "Ġstill": 1050,
      "ops": 1051,
      "Ġboo": 1052,
      "Ġonline": 1053,
      "ese": 1054,
      "su": 1055,
      "Ġhal": 1056,
      "row": 1057,
      "Ġreal": 1058,
      "Ġwins": 1059,
      "Ġtele": 1060,
      "nings": 1061,
      "ha": 1062,
      "Ġcent": 1063,
      "Ġtechnology": 1064,
      "'t": 1065,
      "Ġthem": 1066,
      "ects": 1067,
      "Ġchip": 1068,
      "Ġshr": 1069,
      "Ġsudan": 1070,
      "pe": 1071,
      "Ġmake": 1072,
      "Ġleader": 1073,
      "Ġaugust": 1074,
      "Ġgiant": 1075,
      "Ġ100": 1076,
      "Ġmob": 1077,
      "min": 1078,
      "ots": 1079,
      "Ġcleric": 1080,
      "Ġsix": 1081,
      "isco": 1082,
      "Ġshare": 1083,
      "iew": 1084,
      "ured": 1085,
      "Ġretail": 1086,
      "head": 1087,
      "ock": 1088,
      "Ġ9": 1089,
      "Ġir": 1090,
      "Ġsee": 1091,
      "Ġlo": 1092,
      "etween": 1093,
      "uch": 1094,
      "Ġbetween": 1095,
      "Ġthere": 1096,
      "Ġacqu": 1097,
      ".,": 1098,
      "Ġcamp": 1099,
      "ury": 1100,
      "leg": 1101,
      "ague": 1102,
      "Ġcontro": 1103,
      "round": 1104,
      "reed": 1105,
      "Ġbid": 1106,
      "Ġround": 1107,
      "Ġnetwork": 1108,
      "ield": 1109,
      "Ġseason": 1110,
      "fo": 1111,
      "Ġbra": 1112,
      "Ġdead": 1113,
      "Ġsil": 1114,
      "ref": 1115,
      "Ġnas": 1116,
      "Ġinvestors": 1117,
      "Ġnorth": 1118,
      "Ġdata": 1119,
      "Ġsing": 1120,
      "Ġincre": 1121,
      "Ġreturn": 1122,
      "Ġdrop": 1123,
      "Ġclos": 1124,
      "iff": 1125,
      "uction": 1126,
      "son": 1127,
      "Ġcle": 1128,
      "ator": 1129,
      "Ġver": 1130,
      "Ġhref": 1131,
      "Ġcompan": 1132,
      "ze": 1133,
      "Ġface": 1134,
      "Ġexpl": 1135,
      "Ġsold": 1136,
      "Ġinj": 1137,
      "Ġonly": 1138,
      "Ġkn": 1139,
      "Ġshar": 1140,
      "Ġmobile": 1141,
      "66": 1142,
      "Ġcompanies": 1143,
      "ind": 1144,
      "Ġjud": 1145,
      "ians": 1146,
      "Ġmilitary": 1147,
      "Ġstrong": 1148,
      "ik": 1149,
      "Ġwal": 1150,
      "aly": 1151,
      "Ġrev": 1152,
      "ators": 1153,
      "Ġrest": 1154,
      "Ġarrest": 1155,
      "ired": 1156,
      "Ġapple": 1157,
      "Ġproduc": 1158,
      "ivers": 1159,
      "ration": 1160,
      "Ġpc": 1161,
      "Ġbeing": 1162,
      "Ġconc": 1163,
      "Ġleg": 1164,
      "ared": 1165,
      "ches": 1166,
      "Ġfil": 1167,
      "atest": 1168,
      "app": 1169,
      "Ġlargest": 1170,
      "sh": 1171,
      "Ġmid": 1172,
      "Ġsem": 1173,
      "Ġfirm": 1174,
      "Ġattacks": 1175,
      "Ġdoub": 1176,
      "Ġdesp": 1177,
      "Ġviol": 1178,
      "Ġav": 1179,
      "ered": 1180,
      "alth": 1181,
      "Ġleague": 1182,
      "Ġstand": 1183,
      "Ġleft": 1184,
      "Ġ20": 1185,
      "Ġcapital": 1186,
      "Ġsince": 1187,
      "ular": 1188,
      "Ġarm": 1189,
      "fur": 1190,
      "Ġcalif": 1191,
      "ago": 1192,
      "ty": 1193,
      "Ġown": 1194,
      "Ġpat": 1195,
      "Ġeven": 1196,
      "Ġstra": 1197,
      "Ġmaker": 1198,
      "Ġdarfur": 1199,
      "ium": 1200,
      "to": 1201,
      "Ġinit": 1202,
      "ollar": 1203,
      "Ġbasket": 1204,
      "Ġsell": 1205,
      "Ġsearch": 1206,
      "Ġpri": 1207,
      "Ġhost": 1208,
      "Ġkore": 1209,
      "Ġ18": 1210,
      "Ġspace": 1211,
      "Ġscient": 1212,
      "Ġappe": 1213,
      "gy": 1214,
      "Ġchic": 1215,
      "ains": 1216,
      "Ġloss": 1217,
      "Ġindustry": 1218,
      "Ġ,": 1219,
      "ises": 1220,
      "Ġdays": 1221,
      "Ġequ": 1222,
      "Ġduring": 1223,
      "Ġlond": 1224,
      "ady": 1225,
      "Ġmove": 1226,
      "ross": 1227,
      "Ġregion": 1228,
      "Ġbasketball": 1229,
      "Ġlondon": 1230,
      "info": 1231,
      "Ġce": 1232,
      "Ġfell": 1233,
      "ution": 1234,
      "Ġexpected": 1235,
      "Ġpolit": 1236,
      "Ġrussia": 1237,
      "Ġsub": 1238,
      "Ġfren": 1239,
      "Ġpop": 1240,
      "ised": 1241,
      "Ġany": 1242,
      "Ġstore": 1243,
      "Ġphone": 1244,
      "Ġoffering": 1245,
      "Ġchicago": 1246,
      "bo": 1247,
      "cle": 1248,
      "cast": 1249,
      "Ġcra": 1250,
      "ency": 1251,
      "quote": 1252,
      "Ġbroad": 1253,
      "Ġfail": 1254,
      "Ġappro": 1255,
      "Ġfullquote": 1256,
      "Ġquickinfo": 1257,
      "Ġindia": 1258,
      "Ġtit": 1259,
      "erry": 1260,
      "enter": 1261,
      "ility": 1262,
      "Ġrose": 1263,
      "Ġnet": 1264,
      "Ġnation": 1265,
      "upt": 1266,
      "Ġdev": 1267,
      "Ġrebels": 1268,
      "orks": 1269,
      "Ġdra": 1270,
      "Ġthreat": 1271,
      "umb": 1272,
      "Ġdemand": 1273,
      "Ġca": 1274,
      "ights": 1275,
      "ude": 1276,
      "Ġpaul": 1277,
      "ym": 1278,
      "Ġcup": 1279,
      "Ġfac": 1280,
      "ism": 1281,
      "Ġvir": 1282,
      "Ġcanadian": 1283,
      "Ġpast": 1284,
      "Ġfinanc": 1285,
      "Ġeconomy": 1286,
      "Ġshrine": 1287,
      "Ġcust": 1288,
      "Ġib": 1289,
      "Ġexecut": 1290,
      "Ġenter": 1291,
      "Ġbecause": 1292,
      "ink": 1293,
      "Ġpal": 1294,
      "Ġmany": 1295,
      "Ġinst": 1296,
      "Ġhealth": 1297,
      "Ġinvestig": 1298,
      "Ġbiggest": 1299,
      "Ġrelease": 1300,
      "Ġfrench": 1301,
      "owing": 1302,
      "Ġafg": 1303,
      "Ġagreed": 1304,
      "Ġconsumer": 1305,
      "based": 1306,
      "ny": 1307,
      "Ġmot": 1308,
      "Ġhand": 1309,
      "Ġrise": 1310,
      "Ġchief": 1311,
      "Ġincluding": 1312,
      "br": 1313,
      "pr": 1314,
      "Ġsuc": 1315,
      "Ġcase": 1316,
      "atic": 1317,
      "arm": 1318,
      "Ġhist": 1319,
      "Ġdollar": 1320,
      "Ġlit": 1321,
      "Ġlatest": 1322,
      "Ġkeep": 1323,
      "ission": 1324,
      "Ġxp": 1325,
      "time": 1326,
      "Ġwire": 1327,
      "ense": 1328,
      "Ġearly": 1329,
      "Ġturn": 1330,
      "Ġmet": 1331,
      "Ġmem": 1332,
      "ative": 1333,
      "Ġgra": 1334,
      "Ġfoll": 1335,
      "Ġwest": 1336,
      "Ġwall": 1337,
      "iting": 1338,
      "ible": 1339,
      "ites": 1340,
      "ison": 1341,
      "Ġdet": 1342,
      "ex": 1343,
      "ool": 1344,
      "uk": 1345,
      "Ġbill": 1346,
      "Ġlower": 1347,
      "ife": 1348,
      "Ġevent": 1349,
      "idn": 1350,
      "Ġvis": 1351,
      "Ġspec": 1352,
      "Ġcommun": 1353,
      ";...": 1354,
      "Ġsoc": 1355,
      "Ġfut": 1356,
      "Ġbag": 1357,
      "Ġgl": 1358,
      "Ġ11": 1359,
      "uck": 1360,
      "Ġchampions": 1361,
      "Ġtry": 1362,
      "Ġwr": 1363,
      "Ġmat": 1364,
      "Ġvide": 1365,
      "back": 1366,
      "Ġtim": 1367,
      "Ġservices": 1368,
      "Ġchampion": 1369,
      "Ġcustom": 1370,
      "Ġibm": 1371,
      "Ġafghan": 1372,
      "form": 1373,
      "Ġdri": 1374,
      "aster": 1375,
      "ades": 1376,
      "ears": 1377,
      "ught": 1378,
      "Ġreleased": 1379,
      "Ġeconomic": 1380,
      "Ġjuly": 1381,
      "red": 1382,
      "ily": 1383,
      "Ġneed": 1384,
      "Ġkerry": 1385,
      "Ġsports": 1386,
      "Ġmanag": 1387,
      "Ġgood": 1388,
      "Ġq": 1389,
      "Ġdom": 1390,
      "Ġforces": 1391,
      "Ġshould": 1392,
      "Ġuse": 1393,
      "Ġoppos": 1394,
      "Ġrecent": 1395,
      "off": 1396,
      "ply": 1397,
      "Ġdig": 1398,
      "Ġge": 1399,
      "Ġlow": 1400,
      "Ġ12": 1401,
      "Ġcrude": 1402,
      "Ġparty": 1403,
      "Ġboost": 1404,
      "Ġdespite": 1405,
      "iver": 1406,
      "par": 1407,
      "rupt": 1408,
      "Ġvers": 1409,
      "ished": 1410,
      "Ġglo": 1411,
      "estin": 1412,
      "Ġemb": 1413,
      "Ġfighting": 1414,
      "Ġdist": 1415,
      "Ġdav": 1416,
      "Ġlab": 1417,
      "ults": 1418,
      "loy": 1419,
      "Ġsupport": 1420,
      "Ġmonths": 1421,
      "Ġnearly": 1422,
      "Ġty": 1423,
      "Ġfund": 1424,
      "Ġpass": 1425,
      "Ġgree": 1426,
      "Ġeight": 1427,
      "Ġusers": 1428,
      "Ġmeet": 1429,
      "Ġbreak": 1430,
      "Ġwireless": 1431,
      "Ġsum": 1432,
      "Ġcy": 1433,
      "Ġfree": 1434,
      "Ġline": 1435,
      "Ġriv": 1436,
      "cher": 1437,
      "Ġagree": 1438,
      "Ġelection": 1439,
      "Ġtrans": 1440,
      "Ġtroops": 1441,
      "Ġlittle": 1442,
      "cer": 1443,
      "ps": 1444,
      "Ġsour": 1445,
      "Ġhamm": 1446,
      "Ġconcern": 1447,
      "Ġtitle": 1448,
      "over": 1449,
      "ping": 1450,
      "Ġahead": 1451,
      "Ġfam": 1452,
      "urg": 1453,
      "Ġreports": 1454,
      "Ġrace": 1455,
      "ize": 1456,
      "Ġlike": 1457,
      "hd": 1458,
      "ness": 1459,
      "Ġpack": 1460,
      "Ġgym": 1461,
      "Ġwhere": 1462,
      "Ġrepublic": 1463,
      "Ġstrike": 1464,
      "Ġcontrol": 1465,
      "Ġinitial": 1466,
      "emp": 1467,
      "Ġmain": 1468,
      "Ġloo": 1469,
      "Ġev": 1470,
      "erson": 1471,
      "Ġkey": 1472,
      "eeks": 1473,
      "Ġsettle": 1474,
      "fact": 1475,
      "Ġmos": 1476,
      "Ġhere": 1477,
      "Ġintel": 1478,
      "ov": 1479,
      "Ġsim": 1480,
      "Ġprogra": 1481,
      "Ġago": 1482,
      "Ġuk": 1483,
      "iving": 1484,
      "Ġcontinu": 1485,
      "Ġearnings": 1486,
      "Ġanti": 1487,
      "Ġgymn": 1488,
      "Ġer": 1489,
      "inals": 1490,
      "ony": 1491,
      "Ġcare": 1492,
      "Ġweeks": 1493,
      "Ġyour": 1494,
      "Ġused": 1495,
      "Ġbron": 1496,
      "Ġjump": 1497,
      "gl": 1498,
      "iers": 1499,
      "Ġest": 1500,
      "Ġsen": 1501,
      "Ġtook": 1502,
      "Ġvo": 1503,
      "Ġfranc": 1504,
      "by": 1505,
      "Ġ:": 1506,
      "Ġtor": 1507,
      "Ġyan": 1508,
      "rib": 1509,
      "Ġadd": 1510,
      "Ġamericans": 1511,
      "Ġregul": 1512,
      "Ġbritain": 1513,
      "Ġsmall": 1514,
      "enez": 1515,
      "ump": 1516,
      "Ġmuch": 1517,
      "Ġunion": 1518,
      "ourn": 1519,
      "lam": 1520,
      "Ġmass": 1521,
      "elf": 1522,
      "Ġ14": 1523,
      "Ġcalled": 1524,
      "Ġisraeli": 1525,
      "Ġscientists": 1526,
      "bal": 1527,
      "Ġhp": 1528,
      "Ġwithout": 1529,
      "Ġmicha": 1530,
      "Ġcommission": 1531,
      "Ġgeneral": 1532,
      "Ġstreet": 1533,
      "Ġmichael": 1534,
      "Ġhous": 1535,
      "imin": 1536,
      "Ġmilitants": 1537,
      "Ġsystems": 1538,
      "Ġamp": 1539,
      "Ġfire": 1540,
      "ute": 1541,
      "Ġjourn": 1542,
      "Ġcontract": 1543,
      "Ġfinancial": 1544,
      "dit": 1545,
      "Ġauth": 1546,
      "Ġmor": 1547,
      "ashed": 1548,
      "ott": 1549,
      "Ġ36": 1550,
      "ific": 1551,
      "Ġprotest": 1552,
      "Ġiran": 1553,
      "sc": 1554,
      "so": 1555,
      "ving": 1556,
      "Ġath": 1557,
      "Ġsever": 1558,
      "Ġmanage": 1559,
      "Ġcompetition": 1560,
      "Ġsuccess": 1561,
      "Ġversion": 1562,
      "down": 1563,
      "ees": 1564,
      "rel": 1565,
      "ada": 1566,
      "Ġheld": 1567,
      "Ġlik": 1568,
      "Ġforeign": 1569,
      "Ġposs": 1570,
      "Ġgive": 1571,
      "Ġemp": 1572,
      "eles": 1573,
      "ages": 1574,
      "Ġvideo": 1575,
      "Ġauthor": 1576,
      "ways": 1577,
      "Ġbet": 1578,
      "Ġma": 1579,
      "Ġdeath": 1580,
      "Ġdepart": 1581,
      "Ġbaghd": 1582,
      "Ġopposition": 1583,
      "Ġgreek": 1584,
      "Ġbronze": 1585,
      "Ġbaghdad": 1586,
      "Ġsol": 1587,
      "idence": 1588,
      "Ġengine": 1589,
      "Ġeuropean": 1590,
      "Ġfoot": 1591,
      "Ġgymnast": 1592,
      "Ġathlet": 1593,
      "Ġgas": 1594,
      "ards": 1595,
      "Ġresults": 1596,
      "Ġdemoc": 1597,
      "Ġshiite": 1598,
      "Ġtax": 1599,
      "Ġcampa": 1600,
      "Ġpalestin": 1601,
      "ject": 1602,
      "Ġhour": 1603,
      "Ġislam": 1604,
      "Ġacross": 1605,
      "Ġtrial": 1606,
      "Ġhurrican": 1607,
      "Ġjournal": 1608,
      "ira": 1609,
      "ming": 1610,
      "ream": 1611,
      "Ġphe": 1612,
      "Ġpus": 1613,
      "ider": 1614,
      "Ġvol": 1615,
      "Ġvenez": 1616,
      "Ġcoach": 1617,
      "Ġspe": 1618,
      "Ġquest": 1619,
      "ended": 1620,
      "Ġaustralian": 1621,
      "Ġengland": 1622,
      "Ġvenezuel": 1623,
      "lines": 1624,
      "Ġaround": 1625,
      "Ġho": 1626,
      "Ġseven": 1627,
      "Ġquote": 1628,
      "lps": 1629,
      "Ġdigital": 1630,
      "Ġphelps": 1631,
      "Ġaway": 1632,
      "Ġpit": 1633,
      "Ġconn": 1634,
      "Ġlaunch": 1635,
      "Ġhalf": 1636,
      "Ġcampaign": 1637,
      "band": 1638,
      "py": 1639,
      "set": 1640,
      "sadr": 1641,
      "Ġfar": 1642,
      "Ġmark": 1643,
      "ized": 1644,
      "Ġfourth": 1645,
      "oon": 1646,
      "Ġhew": 1647,
      "ries": 1648,
      "ugg": 1649,
      "Ġtakes": 1650,
      "Ġcharges": 1651,
      "Ġviolence": 1652,
      "Ġcaliforn": 1653,
      "Ġcub": 1654,
      "Ġwhe": 1655,
      "Ġwater": 1656,
      "Ġhum": 1657,
      "Ġeas": 1658,
      "Ġsox": 1659,
      "Ġleading": 1660,
      "ather": 1661,
      "Ġstudy": 1662,
      "ij": 1663,
      "Ġalle": 1664,
      "Ġcosts": 1665,
      "Ġkorea": 1666,
      "Ġpolitical": 1667,
      "Ġglobal": 1668,
      "gan": 1669,
      "Ġcur": 1670,
      "Ġlate": 1671,
      "ament": 1672,
      "Ġalso": 1673,
      "Ġphil": 1674,
      "ior": 1675,
      "Ġmc": 1676,
      "eng": 1677,
      "ale": 1678,
      "Ġ30": 1679,
      "Ġmedia": 1680,
      "Ġdisc": 1681,
      "Ġtrade": 1682,
      "Ġexplos": 1683,
      "Ġcalifornia": 1684,
      "da": 1685,
      "ided": 1686,
      "Ġunivers": 1687,
      "Ġresp": 1688,
      "Ġexper": 1689,
      "aving": 1690,
      "Ġproduct": 1691,
      "Ġhurricane": 1692,
      "gress": 1693,
      "we": 1694,
      "Ġlight": 1695,
      "str": 1696,
      "Ġrally": 1697,
      "Ġshot": 1698,
      "Ġship": 1699,
      "athon": 1700,
      "Ġholy": 1701,
      "ret": 1702,
      "Ġbase": 1703,
      "Ġje": 1704,
      "Ġmoney": 1705,
      "Ġwinning": 1706,
      "Ġearl": 1707,
      "Ġamid": 1708,
      "Ġplayers": 1709,
      "Ġmaking": 1710,
      "cing": 1711,
      "ined": 1712,
      "Ġtoky": 1713,
      "lear": 1714,
      "Ġdisco": 1715,
      "Ġprofile": 1716,
      "Ġsouthern": 1717,
      "Ġclaims": 1718,
      "Ġschool": 1719,
      "Ġdepartment": 1720,
      "Ġalleged": 1721,
      "Ġtokyo": 1722,
      "pal": 1723,
      "Ġes": 1724,
      "Ġfra": 1725,
      "Ġbest": 1726,
      "ida": 1727,
      "Ġcrit": 1728,
      "Ġkilling": 1729,
      "Ġresearchers": 1730,
      "Ġimpro": 1731,
      "Ġgerm": 1732,
      "Ġnasa": 1733,
      "Ġfrancisco": 1734,
      "Ġmanagement": 1735,
      "Ġ.": 1736,
      "Ġpil": 1737,
      "Ġmer": 1738,
      "enn": 1739,
      "Ġreach": 1740,
      "Ġnuc": 1741,
      "Ġ25": 1742,
      "Ġopt": 1743,
      "Ġapplic": 1744,
      "Ġcris": 1745,
      "ergy": 1746,
      "Ġcenter": 1747,
      "Ġmight": 1748,
      "ung": 1749,
      "Ġpropos": 1750,
      "Ġ17": 1751,
      "Ġcorpor": 1752,
      "Ġ50": 1753,
      "inux": 1754,
      "Ġgeor": 1755,
      "Ġnuclear": 1756,
      "ep": 1757,
      "fi": 1758,
      "hold": 1759,
      "Ġbird": 1760,
      "Ġdire": 1761,
      "ends": 1762,
      "Ġos": 1763,
      "Ġright": 1764,
      "Ġblock": 1765,
      "Ġtrading": 1766,
      "Ġaccused": 1767,
      "vention": 1768,
      "Ġcanada": 1769,
      "Ġseveral": 1770,
      "Ġsn": 1771,
      "Ġdon": 1772,
      "Ġthous": 1773,
      "Ġheav": 1774,
      "Ġcomplet": 1775,
      "umber": 1776,
      "Ġart": 1777,
      "Ġblue": 1778,
      "Ġorder": 1779,
      "go": 1780,
      "most": 1781,
      "the": 1782,
      "Ġsame": 1783,
      "Ġold": 1784,
      "ashes": 1785,
      "Ġanaly": 1786,
      "Ġjones": 1787,
      "que": 1788,
      "Ġissu": 1789,
      "ained": 1790,
      "Ġclose": 1791,
      "kees": 1792,
      "Ġplayer": 1793,
      "Ġarrested": 1794,
      "Ġyankees": 1795,
      "tada": 1796,
      "Ġloc": 1797,
      "Ġproble": 1798,
      "Ġclass": 1799,
      "Ġairways": 1800,
      "estern": 1801,
      "Ġamerica": 1802,
      "Ġsweep": 1803,
      "Ġcapt": 1804,
      "Ġbecome": 1805,
      "Ġbattle": 1806,
      "Ġsilver": 1807,
      "Ġdirect": 1808,
      "ns": 1809,
      "oid": 1810,
      "ica": 1811,
      "Ġlife": 1812,
      "asts": 1813,
      "lex": 1814,
      "Ġmarathon": 1815,
      "Ġenergy": 1816,
      "Ġleaders": 1817,
      "Ġprison": 1818,
      "ders": 1819,
      "Ġcell": 1820,
      "Ġport": 1821,
      "Ġdoc": 1822,
      "Ġ16": 1823,
      "Ġbangl": 1824,
      "Ġaccess": 1825,
      "Ġrebel": 1826,
      "Ġoperating": 1827,
      "Ġarmy": 1828,
      "Ġhistory": 1829,
      "Ġcrisis": 1830,
      "ike": 1831,
      "ience": 1832,
      "Ġgets": 1833,
      "Ġrece": 1834,
      "Ġ13": 1835,
      "resh": 1836,
      "Ġmilitia": 1837,
      "Ġrules": 1838,
      "Ġgrand": 1839,
      "Ġdebut": 1840,
      "Ġdemocr": 1841,
      "ef": 1842,
      "ker": 1843,
      "mart": 1844,
      "Ġval": 1845,
      "oston": 1846,
      "Ġfollowing": 1847,
      "adesh": 1848,
      "Ġbangladesh": 1849,
      "val": 1850,
      "Ġtre": 1851,
      "Ġaim": 1852,
      "ining": 1853,
      "eration": 1854,
      "Ġlet": 1855,
      "Ġthough": 1856,
      "Ġnepal": 1857,
      "Ġry": 1858,
      "Ġshort": 1859,
      "ember": 1860,
      "Ġseries": 1861,
      "Ġtrack": 1862,
      "Ġjob": 1863,
      "Ġdesign": 1864,
      "Ġjudge": 1865,
      "ault": 1866,
      "iation": 1867,
      "Ġboth": 1868,
      "Ġboston": 1869,
      "Ġwell": 1870,
      "Ġwant": 1871,
      "ides": 1872,
      "utes": 1873,
      "vert": 1874,
      "Ġvote": 1875,
      "Ġprom": 1876,
      "Ġexch": 1877,
      "Ġrecall": 1878,
      "Ġcharley": 1879,
      "Ġcentral": 1880,
      "Ġcustomers": 1881,
      "Ġprogram": 1882,
      "Ġearlier": 1883,
      "ded": 1884,
      "for": 1885,
      "ging": 1886,
      "Ġaut": 1887,
      "Ġast": 1888,
      "Ġfuel": 1889,
      "Ġhot": 1890,
      "Ġlost": 1891,
      "Ġnumber": 1892,
      "owed": 1893,
      "Ġkidn": 1894,
      "Ġalmost": 1895,
      "Ġouts": 1896,
      "Ġinterest": 1897,
      "Ġelectron": 1898,
      "Ġinform": 1899,
      "Ġchampionship": 1900,
      "Ġlabor": 1901,
      "Ġanalyst": 1902,
      "ners": 1903,
      "Ġmal": 1904,
      "Ġhug": 1905,
      "Ġland": 1906,
      "Ġform": 1907,
      "imb": 1908,
      "Ġafric": 1909,
      "Ġagency": 1910,
      "aren": 1911,
      "Ġarri": 1912,
      "Ġgreat": 1913,
      "Ġairlines": 1914,
      "ounded": 1915,
      "Ġsuper": 1916,
      "Ġconfir": 1917,
      "Ġadvanc": 1918,
      "Ġproducts": 1919,
      "Ġfresh": 1920,
      "Ġperson": 1921,
      "Ġlinux": 1922,
      "Ġchall": 1923,
      "Ġbeh": 1924,
      "cept": 1925,
      "Ġusing": 1926,
      "Ġmedals": 1927,
      "Ġscore": 1928,
      "Ġinfl": 1929,
      "onto": 1930,
      "Ġvisit": 1931,
      "Ġsummer": 1932,
      "Ġlikely": 1933,
      "Ġgymnastics": 1934,
      "Ġgermany": 1935,
      "dle": 1936,
      "Ġsent": 1937,
      "Ġfield": 1938,
      "Ġwatch": 1939,
      "Ġhard": 1940,
      "Ġdue": 1941,
      "Ġnam": 1942,
      "Ġey": 1943,
      "Ġreser": 1944,
      "Ġworkers": 1945,
      "Ġevery": 1946,
      "Ġexecutive": 1947,
      "Ġfuture": 1948,
      "Ġtoronto": 1949,
      "Ġthousands": 1950,
      "run": 1951,
      "ened": 1952,
      "Ġhits": 1953,
      "ential": 1954,
      "iger": 1955,
      "Ġconvention": 1956,
      "Ġorgan": 1957,
      "Ġattemp": 1958,
      "Ġprev": 1959,
      "Ġcuts": 1960,
      "Ġforecast": 1961,
      "Ġangeles": 1962,
      "Ġgerman": 1963,
      "Ġdouble": 1964,
      "Ġconnect": 1965,
      "per": 1966,
      "Ġseek": 1967,
      "Ġtourn": 1968,
      "ases": 1969,
      "Ġpros": 1970,
      "aper": 1971,
      "ishing": 1972,
      "Ġperform": 1973,
      "Ġsuch": 1974,
      "Ġnetworks": 1975,
      "Ġipod": 1976,
      "Ġemploy": 1977,
      "Ġhuman": 1978,
      "Ġuniversity": 1979,
      "Ġara": 1980,
      "ana": 1981,
      "Ġbur": 1982,
      "ars": 1983,
      "Ġless": 1984,
      "Ġwhite": 1985,
      "oods": 1986,
      "Ġsept": 1987,
      "Ġtech": 1988,
      "Ġassoc": 1989,
      "Ġquarterly": 1990,
      "Ġexchange": 1991,
      "ax": 1992,
      "qtada": 1993,
      "ws": 1994,
      "Ġmac": 1995,
      "Ġnort": 1996,
      "vered": 1997,
      "Ġafrican": 1998,
      "Ġwilliam": 1999,
      "Ġenv": 2000,
      "Ġshowed": 2001,
      "Ġmotor": 2002,
      "Ġsoccer": 2003,
      "ount": 2004,
      "yle": 2005,
      "Ġshut": 2006,
      "Ġwithd": 2007,
      "aker": 2008,
      "Ġplace": 2009,
      "Ġadmin": 2010,
      "Ġblack": 2011,
      "Ġcontin": 2012,
      "ension": 2013,
      "Ġdecision": 2014,
      "Ġfew": 2015,
      "Ġstep": 2016,
      "Ġbegin": 2017,
      "meter": 2018,
      "Ġbroadband": 2019,
      "Ġtimes": 2020,
      "Ġhours": 2021,
      "Ġwhether": 2022,
      "Ġinformation": 2023,
      "Ġafrica": 2024,
      "--": 2025,
      "ai": 2026,
      "uce": 2027,
      "Ġfast": 2028,
      "Ġbal": 2029,
      "veil": 2030,
      "Ġprocess": 2031,
      "Ġunveil": 2032,
      "Ġleave": 2033,
      "Ġseen": 2034,
      "Ġbring": 2035,
      "Ġfeat": 2036,
      "Ġtaking": 2037,
      "Ġadminist": 2038,
      "iet": 2039,
      "wan": 2040,
      "ying": 2041,
      "ann": 2042,
      "ately": 2043,
      "ech": 2044,
      "Ġjun": 2045,
      "ander": 2046,
      "Ġfrance": 2047,
      "Ġserver": 2048,
      "Ġjobs": 2049,
      "Ġhomes": 2050,
      "Ġbarrel": 2051,
      "Ġdomin": 2052,
      "Ġrival": 2053,
      "Ġheavy": 2054,
      "Ġtournament": 2055,
      "Ġve": 2056,
      "Ġmort": 2057,
      "Ġhund": 2058,
      "raft": 2059,
      "Ġplot": 2060,
      "Ġindian": 2061,
      "Ġjapanese": 2062,
      "Ġstraight": 2063,
      "Ġagreement": 2064,
      "Ġbetter": 2065,
      "ted": 2066,
      "Ġsqu": 2067,
      "Ġfile": 2068,
      "Ġfood": 2069,
      "Ġwi": 2070,
      "oring": 2071,
      "Ġgun": 2072,
      "Ġrequ": 2073,
      "Ġneg": 2074,
      "Ġbod": 2075,
      "Ġended": 2076,
      "Ġmeters": 2077,
      "Ġdelay": 2078,
      "Ġretailer": 2079,
      "Ġauthorities": 2080,
      "bc": 2081,
      "ints": 2082,
      "ications": 2083,
      "Ġstop": 2084,
      "Ġran": 2085,
      "Ġcome": 2086,
      "Ġtroub": 2087,
      "mail": 2088,
      "Ġcisco": 2089,
      "Ġpan": 2090,
      "Ġden": 2091,
      "Ġonce": 2092,
      "Ġital": 2093,
      "thers": 2094,
      "Ġbox": 2095,
      "Ġcommitt": 2096,
      "Ġrunning": 2097,
      "Ġsaying": 2098,
      "wards": 2099,
      "Ġhopes": 2100,
      "bers": 2101,
      "get": 2102,
      "Ġtv": 2103,
      "Ġcard": 2104,
      "Ġfre": 2105,
      "Ġtoo": 2106,
      "Ġlist": 2107,
      "Ġreven": 2108,
      "Ġnations": 2109,
      "Ġchair": 2110,
      "Ġcomb": 2111,
      "Ġconv": 2112,
      "Ġ23": 2113,
      "okes": 2114,
      "Ġcharged": 2115,
      "Ġappeal": 2116,
      "Ġtrying": 2117,
      "Ġfootball": 2118,
      "cap": 2119,
      "wa": 2120,
      "Ġcame": 2121,
      "Ġdiv": 2122,
      "Ġreac": 2123,
      "Ġforce": 2124,
      "Ġisland": 2125,
      "osp": 2126,
      "ived": 2127,
      "Ġtex": 2128,
      "Ġairline": 2129,
      "Ġbuil": 2130,
      "load": 2131,
      "Ġhouse": 2132,
      "iwan": 2133,
      "ler": 2134,
      "ris": 2135,
      "uj": 2136,
      "Ġsite": 2137,
      "Ġfav": 2138,
      "Ġmatch": 2139,
      "ats": 2140,
      "Ġali": 2141,
      "Ġpresidential": 2142,
      "Ġcredit": 2143,
      "Ġtelev": 2144,
      "Ġtyph": 2145,
      "Ġwilliams": 2146,
      "Ġitalian": 2147,
      "aff": 2148,
      "Ġur": 2149,
      "Ġfis": 2150,
      "Ġbri": 2151,
      "Ġlin": 2152,
      "Ġrange": 2153,
      "Ġyoun": 2154,
      "Ġsepar": 2155,
      "Ġoutl": 2156,
      "Ġarg": 2157,
      "Ġweekend": 2158,
      "Ġactiv": 2159,
      "Ġtaiwan": 2160,
      "Ġstores": 2161,
      "her": 2162,
      "Ġpull": 2163,
      "Ġdid": 2164,
      "akes": 2165,
      "Ġoffice": 2166,
      "ession": 2167,
      "Ġrob": 2168,
      "Ġpoll": 2169,
      "Ġgiants": 2170,
      "Ġprotect": 2171,
      "Ġsoldiers": 2172,
      "Ġrepublican": 2173,
      "Ġbehind": 2174,
      "fl": 2175,
      "ham": 2176,
      "ule": 2177,
      "Ġsize": 2178,
      "Ġtown": 2179,
      "Ġdam": 2180,
      "Ġdream": 2181,
      "Ġlar": 2182,
      "vey": 2183,
      "Ġchild": 2184,
      "oping": 2185,
      "Ġ24": 2186,
      "Ġearth": 2187,
      "Ġtyphoon": 2188,
      "bit": 2189,
      "ges": 2190,
      "Ġpot": 2191,
      "Ġpub": 2192,
      "Ġhar": 2193,
      "ulation": 2194,
      "Ġsaf": 2195,
      "Ġsecret": 2196,
      "Ġ400": 2197,
      "Ġconflic": 2198,
      "aza": 2199,
      "Ġchips": 2200,
      "ijing": 2201,
      "Ġcontinue": 2202,
      "Ġchairman": 2203,
      "oy": 2204,
      "rew": 2205,
      "Ġcash": 2206,
      "Ġora": 2207,
      "Ġwestern": 2208,
      "orters": 2209,
      "Ġmur": 2210,
      "ening": 2211,
      "Ġhosp": 2212,
      "Ġemer": 2213,
      "quarter": 2214,
      "Ġclub": 2215,
      "Ġflor": 2216,
      "Ġpolic": 2217,
      "Ġmarkets": 2218,
      "Ġdefe": 2219,
      "Ġinjured": 2220,
      "Ġpriv": 2221,
      "Ġcele": 2222,
      "Ġmorning": 2223,
      "Ġpossible": 2224,
      "Ġoracle": 2225,
      "cow": 2226,
      "gian": 2227,
      "Ġbene": 2228,
      "Ġple": 2229,
      "Ġtool": 2230,
      "Ġatl": 2231,
      "Ġbeijing": 2232,
      "Ġspending": 2233,
      "ified": 2234,
      "Ġfirms": 2235,
      "Ġexpect": 2236,
      "awa": 2237,
      "Ġmakes": 2238,
      "Ġcolor": 2239,
      "Ġcalls": 2240,
      "Ġbatter": 2241,
      "Ġeffect": 2242,
      "Ġradical": 2243,
      "Ġsharon": 2244,
      "Ġlegal": 2245,
      "Ġmanager": 2246,
      "Ġvenezuela": 2247,
      "Ġcurren": 2248,
      "Ġpubl": 2249,
      ".'": 2250,
      "yal": 2251,
      "Ġ0": 2252,
      "Ġil": 2253,
      "Ġtur": 2254,
      "reme": 2255,
      "Ġfig": 2256,
      "Ġfact": 2257,
      "icon": 2258,
      "Ġrej": 2259,
      "Ġstad": 2260,
      "ola": 2261,
      "verage": 2262,
      "aking": 2263,
      "Ġunt": 2264,
      "Ġgoing": 2265,
      "Ġdoes": 2266,
      "Ġrefer": 2267,
      "Ġflorida": 2268,
      "na": 2269,
      "Ġhands": 2270,
      "Ġlook": 2271,
      "iron": 2272,
      "Ġsport": 2273,
      "Ġspokes": 2274,
      "Ġmars": 2275,
      "Ġblast": 2276,
      "Ġwarned": 2277,
      "Ġprep": 2278,
      "Ġfinally": 2279,
      "Ġaction": 2280,
      "Ġfraud": 2281,
      "Ġadministration": 2282,
      "Ġtexas": 2283,
      "cal": 2284,
      "ford": 2285,
      "mon": 2286,
      "Ġaud": 2287,
      "Ġmess": 2288,
      "Ġchave": 2289,
      "Ġcoun": 2290,
      "Ġstrugg": 2291,
      "inese": 2292,
      "Ġsprint": 2293,
      "Ġbraz": 2294,
      "Ġevidence": 2295,
      "Ġmoscow": 2296,
      "Ġcommittee": 2297,
      "Ġchavez": 2298,
      "nam": 2299,
      "top": 2300,
      "uan": 2301,
      "ering": 2302,
      "ank": 2303,
      "Ġber": 2304,
      "Ġgot": 2305,
      "Ġlim": 2306,
      "Ġchinese": 2307,
      "Ġke": 2308,
      "Ġprop": 2309,
      "Ġfind": 2310,
      "Ġflu": 2311,
      "Ġinvol": 2312,
      "Ġsecurities": 2313,
      "Ġlawsu": 2314,
      "Ġposit": 2315,
      "Ġconcerns": 2316,
      "Ġpalestinian": 2317,
      "Ġwithdra": 2318,
      "Ġbenef": 2319,
      "ta": 2320,
      "reds": 2321,
      "Ġpip": 2322,
      "Ġmag": 2323,
      "rod": 2324,
      "Ġled": 2325,
      "asing": 2326,
      "uses": 2327,
      "rap": 2328,
      "Ġyet": 2329,
      "Ġheart": 2330,
      "Ġrecover": 2331,
      "Ġcontent": 2332,
      "Ġmanu": 2333,
      "ensive": 2334,
      "Ġbankrupt": 2335,
      "Ġsprin": 2336,
      "Ġincrease": 2337,
      "prise": 2338,
      "Ġcareer": 2339,
      "iracy": 2340,
      "daq": 2341,
      "Ġbaseball": 2342,
      "Ġanalysts": 2343,
      "lim": 2344,
      "ney": 2345,
      "Ġari": 2346,
      "Ġsk": 2347,
      "Ġthen": 2348,
      "Ġfears": 2349,
      "Ġwent": 2350,
      "Ġmill": 2351,
      "Ġniger": 2352,
      "ama": 2353,
      "Ġadvert": 2354,
      "Ġdoz": 2355,
      "Ġslow": 2356,
      "Ġplanned": 2357,
      "Ġgroups": 2358,
      "Ġruling": 2359,
      "Ġryder": 2360,
      "Ġbrazil": 2361,
      "ready": 2362,
      "Ġgave": 2363,
      "Ġgains": 2364,
      "Ġthose": 2365,
      "Ġcopy": 2366,
      "Ġcond": 2367,
      "Ġspain": 2368,
      "ipp": 2369,
      "Ġsett": 2370,
      "Ġplanet": 2371,
      "Ġmission": 2372,
      "Ġposted": 2373,
      "Ġjohnson": 2374,
      "Ġterrorism": 2375,
      "Ġsemif": 2376,
      "Ġestim": 2377,
      "Ġstadium": 2378,
      "hal": 2379,
      "erence": 2380,
      "ane": 2381,
      "Ġmult": 2382,
      "Ġris": 2383,
      "Ġcour": 2384,
      "Ġcoup": 2385,
      "ips": 2386,
      "Ġmod": 2387,
      "Ġltd": 2388,
      "Ġprofits": 2389,
      "Ġcarri": 2390,
      "Ġgetting": 2391,
      "Ġbegan": 2392,
      "Ġfailed": 2393,
      "Ġafghanistan": 2394,
      "Ġquestion": 2395,
      "Ġapplications": 2396,
      "Ġcorporate": 2397,
      "Ġhundreds": 2398,
      "mar": 2399,
      "ues": 2400,
      "wide": 2401,
      "Ġtenn": 2402,
      "Ġwa": 2403,
      "Ġmom": 2404,
      "Ġgaza": 2405,
      "Ġasked": 2406,
      "aged": 2407,
      "apore": 2408,
      "Ġintell": 2409,
      "Ġminutes": 2410,
      "Ġamong": 2411,
      "Ġdesk": 2412,
      "Ġdefense": 2413,
      "Ġdeliver": 2414,
      "Ġdrugs": 2415,
      "Ġsingapore": 2416,
      "Ġpilots": 2417,
      "Ġpersonal": 2418,
      "Ġprevious": 2419,
      "Ġoutlook": 2420,
      "ires": 2421,
      "Ġsom": 2422,
      "Ġfur": 2423,
      "Ġothers": 2424,
      "Ġmis": 2425,
      "Ġinning": 2426,
      "Ġhall": 2427,
      "utch": 2428,
      "oting": 2429,
      "Ġprobe": 2430,
      "Ġalready": 2431,
      "ume": 2432,
      "anta": 2433,
      "Ġinsur": 2434,
      "Ġtelevision": 2435,
      "Ġuntil": 2436,
      "horn": 2437,
      "right": 2438,
      "vet": 2439,
      "Ġcal": 2440,
      "Ġcrow": 2441,
      "Ġfun": 2442,
      "Ġbad": 2443,
      "itness": 2444,
      "Ġtom": 2445,
      "Ġny": 2446,
      "Ġitaly": 2447,
      "Ġchange": 2448,
      "Ġkh": 2449,
      "onduct": 2450,
      "Ġaccount": 2451,
      "thern": 2452,
      "Ġdownload": 2453,
      "Ġsurvey": 2454,
      "Ġchec": 2455,
      "Ġbelie": 2456,
      "Ġavoid": 2457,
      "Ġadvanced": 2458,
      "Ġhospital": 2459,
      "Ġmanufact": 2460,
      "eg": 2461,
      "era": 2462,
      "hel": 2463,
      "Ġread": 2464,
      "igence": 2465,
      "Ġyah": 2466,
      "Ġunit": 2467,
      "Ġspam": 2468,
      "Ġrow": 2469,
      "Ġswim": 2470,
      "Ġannual": 2471,
      "Ġsuspected": 2472,
      "Ġinvestigation": 2473,
      "Ġsource": 2474,
      "Ġlooking": 2475,
      "Ġyahoo": 2476,
      "uit": 2477,
      "Ġmy": 2478,
      "eda": 2479,
      "Ġcommer": 2480,
      "Ġsho": 2481,
      "Ġspan": 2482,
      "Ġlevel": 2483,
      "Ġqualif": 2484,
      "Ġseat": 2485,
      "Ġmarch": 2486,
      "Ġscand": 2487,
      "key": 2488,
      "Ġattorn": 2489,
      "Ġhelped": 2490,
      "Ġterrorist": 2491,
      "Ġattorney": 2492,
      "eing": 2493,
      "fire": 2494,
      "Ġthese": 2495,
      "Ġob": 2496,
      "Ġbay": 2497,
      "icket": 2498,
      "Ġhung": 2499,
      "ural": 2500,
      "Ġstorm": 2501,
      "Ġvill": 2502,
      "Ġ22": 2503,
      "Ġground": 2504,
      "Ġphones": 2505,
      "Ġprovide": 2506,
      "Ġ151": 2507,
      "Ġhope": 2508,
      "Ġacquis": 2509,
      "Ġorganiz": 2510,
      "Ġperformance": 2511,
      "Ġtennis": 2512,
      "bi": 2513,
      "inal": 2514,
      "Ġpow": 2515,
      "Ġtold": 2516,
      "Ġstake": 2517,
      "Ġstaff": 2518,
      "Ġnever": 2519,
      "Ġkong": 2520,
      "Ġoffers": 2521,
      "Ġdisp": 2522,
      "Ġ2005": 2523,
      "Ġeffort": 2524,
      "Ġreview": 2525,
      "Ġavail": 2526,
      "Ġcommunications": 2527,
      "Ġchallen": 2528,
      "Ġintelligence": 2529,
      "aeda": 2530,
      "gen": 2531,
      "Ġsites": 2532,
      "Ġcoll": 2533,
      "Ġour": 2534,
      "Ġpm": 2535,
      "Ġpract": 2536,
      "iconduct": 2537,
      "Ġhong": 2538,
      "Ġdiff": 2539,
      "Ġeast": 2540,
      "uts": 2541,
      "Ġrates": 2542,
      "Ġrises": 2543,
      "Ġchance": 2544,
      "aging": 2545,
      "Ġenough": 2546,
      "aves": 2547,
      "Ġrelay": 2548,
      "Ġnorthern": 2549,
      "Ġextra": 2550,
      "Ġmembers": 2551,
      "Ġsources": 2552,
      "Ġoutside": 2553,
      "Ġyoung": 2554,
      "Ġcelebr": 2555,
      "gin": 2556,
      "netw": 2557,
      "pan": 2558,
      "Ġball": 2559,
      "tered": 2560,
      "oming": 2561,
      "Ġwithin": 2562,
      "Ġcomputers": 2563,
      "iven": 2564,
      "Ġmuslim": 2565,
      "Ġruns": 2566,
      "Ġlaunched": 2567,
      "Ġacquire": 2568,
      "Ġsemiconduct": 2569,
      "Ġtreas": 2570,
      "bed": 2571,
      "des": 2572,
      "dict": 2573,
      "mw": 2574,
      "men": 2575,
      "pack": 2576,
      "ss": 2577,
      "tt": 2578,
      "west": 2579,
      "Ġbond": 2580,
      "Ġpur": 2581,
      "ories": 2582,
      "Ġtour": 2583,
      "ili": 2584,
      "aps": 2585,
      "Ġroad": 2586,
      "Ġexplo": 2587,
      "Ġexports": 2588,
      "Ġabu": 2589,
      "Ġtravel": 2590,
      "oney": 2591,
      "Ġlift": 2592,
      "Ġinvestment": 2593,
      "Ġsupply": 2594,
      "Ġmissing": 2595,
      "Ġpressure": 2596,
      "Ġdevices": 2597,
      "Ġfunds": 2598,
      "Ġenviron": 2599,
      "Ġmurder": 2600,
      "Ġilleg": 2601,
      "ga": 2602,
      "pon": 2603,
      "ruct": 2604,
      "Ġwitness": 2605,
      "orth": 2606,
      "Ġtoward": 2607,
      "Ġlay": 2608,
      "Ġready": 2609,
      "ills": 2610,
      "Ġrate": 2611,
      "Ġchain": 2612,
      "Ġroc": 2613,
      "Ġmov": 2614,
      "Ġrepl": 2615,
      "Ġleads": 2616,
      "Ġstarting": 2617,
      "Ġadvance": 2618,
      "Ġefforts": 2619,
      "new": 2620,
      "Ġnasdaq": 2621,
      "Ġmiddle": 2622,
      "exp": 2623,
      "Ġislamic": 2624,
      "Ġproblems": 2625,
      "Ġreserve": 2626,
      "Ġpotential": 2627,
      "Ġwithdraw": 2628,
      "oom": 2629,
      "Ġcit": 2630,
      "Ġcro": 2631,
      "Ġciv": 2632,
      "Ġfoc": 2633,
      "Ġmust": 2634,
      "Ġreve": 2635,
      "Ġcho": 2636,
      "Ġasia": 2637,
      "Ġven": 2638,
      "Ġmont": 2639,
      "Ġmount": 2640,
      "Ġdism": 2641,
      "Ġ2006": 2642,
      "Ġ40": 2643,
      "Ġplane": 2644,
      "Ġlonghorn": 2645,
      "lett": 2646,
      "Ġparis": 2647,
      "Ġsuspects": 2648,
      "Ġregulators": 2649,
      "Ġspeed": 2650,
      "Ġhewitt": 2651,
      "Ġdemocratic": 2652,
      "Ġnegot": 2653,
      "Ġbody": 2654,
      "Ġcopyright": 2655,
      "cc": 2656,
      "ring": 2657,
      "Ġent": 2658,
      "ino": 2659,
      "Ġsadr": 2660,
      "Ġobs": 2661,
      "Ġbir": 2662,
      "Ġpick": 2663,
      "att": 2664,
      "aled": 2665,
      "Ġhapp": 2666,
      "using": 2667,
      "chny": 2668,
      "Ġdeleg": 2669,
      "Ġsoon": 2670,
      "Ġovertime": 2671,
      "Ġinteg": 2672,
      "Ġgoes": 2673,
      "Ġrain": 2674,
      "ually": 2675,
      "Ġchechny": 2676,
      "Ġsigns": 2677,
      "Ġrealnetw": 2678,
      "Ġfiled": 2679,
      "Ġspecial": 2680,
      "Ġdavid": 2681,
      "Ġsenior": 2682,
      "Ġpush": 2683,
      "Ġphilipp": 2684,
      "Ġimprove": 2685,
      "Ġreached": 2686,
      "Ġbrief": 2687,
      "Ġspokesman": 2688,
      "Ġnegoti": 2689,
      "Ġchechnya": 2690,
      "ma": 2691,
      "week": 2692,
      "Ġtell": 2693,
      "ini": 2694,
      "icip": 2695,
      "Ġeach": 2696,
      "olf": 2697,
      "Ġproject": 2698,
      "aining": 2699,
      "Ġupgra": 2700,
      "Ġworth": 2701,
      "Ġaccept": 2702,
      "ivid": 2703,
      "Ġscience": 2704,
      "Ġdisap": 2705,
      "Ġproduction": 2706,
      "Ġpoor": 2707,
      "Ġstrip": 2708,
      "Ġsigned": 2709,
      "Ġbatt": 2710,
      "Ġhomer": 2711,
      "Ġradio": 2712,
      "Ġcubs": 2713,
      "Ġlocal": 2714,
      "arent": 2715,
      "Ġrevenue": 2716,
      "Ġrealnetworks": 2717,
      "fect": 2718,
      "kia": 2719,
      "Ġauction": 2720,
      "Ġfans": 2721,
      "Ġbud": 2722,
      "Ġwants": 2723,
      "Ġmu": 2724,
      "omo": 2725,
      "Ġchang": 2726,
      "Ġview": 2727,
      "Ġthatcher": 2728,
      "Ġ21": 2729,
      "Ġadm": 2730,
      "Ġboard": 2731,
      "ically": 2732,
      "Ġprem": 2733,
      "Ġconference": 2734,
      "Ġeuro": 2735,
      "Ġ199": 2736,
      "Ġholdings": 2737,
      "Ġhostage": 2738,
      "Ġchildren": 2739,
      "Ġpipel": 2740,
      "Ġavailable": 2741,
      "Ġsemiconductor": 2742,
      "expected": 2743,
      "Ġcivil": 2744,
      "field": 2745,
      "game": 2746,
      "mo": 2747,
      "net": 2748,
      "Ġcam": 2749,
      "Ġciting": 2750,
      "Ġfif": 2751,
      "Ġwat": 2752,
      "Ġpet": 2753,
      "arian": 2754,
      "uries": 2755,
      "Ġstation": 2756,
      "aced": 2757,
      "Ġkar": 2758,
      "Ġ28": 2759,
      "endum": 2760,
      "rich": 2761,
      "Ġsex": 2762,
      "Ġteen": 2763,
      "Ġenc": 2764,
      "Ġindivid": 2765,
      "Ġboy": 2766,
      "berg": 2767,
      "Ġbuild": 2768,
      "Ġlose": 2769,
      "Ġdecl": 2770,
      "Ġjustice": 2771,
      "phone": 2772,
      "Ġdelays": 2773,
      "Ġrefug": 2774,
      "Ġdevelopment": 2775,
      "Ġpopular": 2776,
      "Ġfaces": 2777,
      "Ġcontinued": 2778,
      "Ġreferendum": 2779,
      "Ġacquisition": 2780,
      "book": 2781,
      "ran": 2782,
      "Ġlater": 2783,
      "Ġanc": 2784,
      "Ġrising": 2785,
      "Ġshop": 2786,
      "Ġcoast": 2787,
      "oss": 2788,
      "Ġfront": 2789,
      "Ġfinish": 2790,
      "Ġweap": 2791,
      "Ġweight": 2792,
      "Ġpoints": 2793,
      "Ġpark": 2794,
      "Ġtaken": 2795,
      "Ġconsumers": 2796,
      "Ġclear": 2797,
      "Ġequip": 2798,
      "Ġconflict": 2799,
      "Ġbankruptcy": 2800,
      "mand": 2801,
      "wood": 2802,
      "Ġcir": 2803,
      "Ġwounded": 2804,
      "Ġpent": 2805,
      "oric": 2806,
      "Ġgives": 2807,
      "Ġworking": 2808,
      "ability": 2809,
      "Ġintrod": 2810,
      "Ġmedical": 2811,
      "Ġpartners": 2812,
      "Ġtruck": 2813,
      "Ġbusinesses": 2814,
      "Ġstudents": 2815,
      "Ġturned": 2816,
      "Ġhewlett": 2817,
      "Ġexperts": 2818,
      "Ġconfirmed": 2819,
      "Ġfifth": 2820,
      "dles": 2821,
      "dney": 2822,
      "finals": 2823,
      "Ġbry": 2824,
      "itz": 2825,
      "atory": 2826,
      "Ġdoping": 2827,
      "Ġgiving": 2828,
      "Ġnine": 2829,
      "ention": 2830,
      "Ġ27": 2831,
      "apped": 2832,
      "Ġclin": 2833,
      "Ġdispl": 2834,
      "Ġ49": 2835,
      "Ġwarning": 2836,
      "Ġsale": 2837,
      "Ġpowerful": 2838,
      "Ġissues": 2839,
      "Ġjune": 2840,
      "Ġlawsuit": 2841,
      "Ġfurther": 2842,
      "mandu": 2843,
      "bby": 2844,
      "cies": 2845,
      "inc": 2846,
      "inh": 2847,
      "Ġson": 2848,
      "Ġsug": 2849,
      "anged": 2850,
      "Ġwild": 2851,
      "enal": 2852,
      "Ġname": 2853,
      "iding": 2854,
      "Ġshows": 2855,
      "Ġtemp": 2856,
      "Ġserious": 2857,
      "Ġbanks": 2858,
      "Ġsydney": 2859,
      "Ġsilicon": 2860,
      "Ġcrack": 2861,
      "Ġmeeting": 2862,
      "Ġcritic": 2863,
      "Ġautom": 2864,
      "Ġnortel": 2865,
      "Ġsecretary": 2866,
      "Ġscandal": 2867,
      "packard": 2868,
      "gers": 2869,
      "Ġcp": 2870,
      "Ġfish": 2871,
      "Ġwrap": 2872,
      "ald": 2873,
      "ico": 2874,
      "Ġha": 2875,
      "Ġdip": 2876,
      "Ġnat": 2877,
      "Ġnec": 2878,
      "oles": 2879,
      "ota": 2880,
      "Ġspot": 2881,
      "Ġalong": 2882,
      "Ġ29": 2883,
      "Ġresult": 2884,
      "Ġgoal": 2885,
      "Ġbloom": 2886,
      "Ġappear": 2887,
      "Ġflaw": 2888,
      "ibility": 2889,
      "Ġlosing": 2890,
      "Ġbecame": 2891,
      "Ġannounce": 2892,
      "Ġsuff": 2893,
      "Ġgrowing": 2894,
      "Ġtelecom": 2895,
      "Ġsudanese": 2896,
      "Ġselling": 2897,
      "Ġwrong": 2898,
      "Ġfamily": 2899,
      "Ġlarge": 2900,
      "Ġatlanta": 2901,
      "Ġdesktop": 2902,
      "Ġenvironment": 2903,
      "Ġequipment": 2904,
      "ove": 2905,
      "Ġside": 2906,
      "read": 2907,
      "Ġfle": 2908,
      "Ġbol": 2909,
      "Ġmut": 2910,
      "icks": 2911,
      "Ġdied": 2912,
      "Ġdutch": 2913,
      "Ġstay": 2914,
      "oted": 2915,
      "Ġyuk": 2916,
      "estyle": 2917,
      "Ġkath": 2918,
      "riend": 2919,
      "istry": 2920,
      "inea": 2921,
      "Ġresident": 2922,
      "Ġexpress": 2923,
      "Ġfinance": 2924,
      "Ġarea": 2925,
      "Ġblow": 2926,
      "Ġwarner": 2927,
      "Ġdesc": 2928,
      "Ġguinea": 2929,
      "ertain": 2930,
      "Ġcontrovers": 2931,
      "Ġcontinues": 2932,
      "Ġmortg": 2933,
      "Ġpropert": 2934,
      "Ġsemifinals": 2935,
      "Ġdisappo": 2936,
      "Ġmuqtada": 2937,
      "ba": 2938,
      "Ġsong": 2939,
      "Ġsant": 2940,
      "Ġfly": 2941,
      "Ġfigh": 2942,
      "Ġfired": 2943,
      "Ġbased": 2944,
      "Ġmix": 2945,
      "itor": 2946,
      "around": 2947,
      "Ġhack": 2948,
      "Ġdidn": 2949,
      "Ġgiven": 2950,
      "term": 2951,
      "ams": 2952,
      "Ġjav": 2953,
      "Ġko": 2954,
      "Ġvac": 2955,
      "Ġcomes": 2956,
      "ocked": 2957,
      "abil": 2958,
      "Ġsched": 2959,
      "Ġorders": 2960,
      "Ġflat": 2961,
      "Ġconsecut": 2962,
      "Ġopening": 2963,
      "Ġpoint": 2964,
      "Ġbelow": 2965,
      "Ġlawy": 2966,
      "Ġfutures": 2967,
      "Ġmao": 2968,
      "Ġathletes": 2969,
      "Ġjournalist": 2970,
      "Ġcomplete": 2971,
      "Ġattempt": 2972,
      "Ġprosecut": 2973,
      "Ġemployees": 2974,
      "Ġmillions": 2975,
      "Ġancient": 2976,
      "Ġyukos": 2977,
      "Ġconsecutive": 2978,
      "den": 2979,
      "ien": 2980,
      "ko": 2981,
      "tain": 2982,
      "Ġticket": 2983,
      "rem": 2984,
      "Ġba": 2985,
      "Ġmist": 2986,
      "Ġgh": 2987,
      "Ġlu": 2988,
      "ims": 2989,
      "Ġjail": 2990,
      "Ġabb": 2991,
      "Ġflag": 2992,
      "acher": 2993,
      "Ġedge": 2994,
      "Ġviet": 2995,
      "Ġrequest": 2996,
      "Ġpolicy": 2997,
      "Ġchallenge": 2998,
      "Ġweapons": 2999,
      ";,": 3000,
      "bes": 3001,
      "Ġrom": 3002,
      "Ġurg": 3003,
      "Ġpict": 3004,
      "itors": 3005,
      "Ġdie": 3006,
      "Ġgate": 3007,
      "Ġgolf": 3008,
      "Ġsab": 3009,
      "Ġrooney": 3010,
      "Ġarch": 3011,
      "Ġgreen": 3012,
      "Ġboeing": 3013,
      "Ġsatell": 3014,
      "Ġsuppl": 3015,
      "Ġpool": 3016,
      "Ġvirus": 3017,
      "Ġdistrib": 3018,
      "Ġsuccessful": 3019,
      "Ġthought": 3020,
      "Ġhugo": 3021,
      "Ġinflation": 3022,
      "Ġseeking": 3023,
      "Ġprivate": 3024,
      "Ġdozens": 3025,
      "Ġsuggest": 3026,
      "Ġvietnam": 3027,
      "ka": 3028,
      "view": 3029,
      "Ġsend": 3030,
      "Ġwel": 3031,
      "Ġms": 3032,
      "ush": 3033,
      "Ġstun": 3034,
      "ager": 3035,
      "uston": 3036,
      "Ġcrash": 3037,
      "Ġmicro": 3038,
      "Ġplanes": 3039,
      "lection": 3040,
      "Ġsupp": 3041,
      "anger": 3042,
      "Ġcolle": 3043,
      "Ġsuspended": 3044,
      "Ġvery": 3045,
      "Ġknow": 3046,
      "Ġsharply": 3047,
      "Ġkorean": 3048,
      "Ġvirgin": 3049,
      "Ġblockade": 3050,
      "Ġelectronics": 3051,
      "Ġargent": 3052,
      "Ġindividual": 3053,
      "Ġkathmandu": 3054,
      "500": 3055,
      "ever": 3056,
      "har": 3057,
      "nes": 3058,
      "Ġalex": 3059,
      "erv": 3060,
      "Ġsit": 3061,
      "Ġcand": 3062,
      "Ġoct": 3063,
      "rol": 3064,
      "unch": 3065,
      "irl": 3066,
      "Ġrule": 3067,
      "Ġ26": 3068,
      "Ġclimb": 3069,
      "rict": 3070,
      "ource": 3071,
      "Ġexpand": 3072,
      "Ġblood": 3073,
      "Ġcrashed": 3074,
      "Ġimport": 3075,
      "Ġwarns": 3076,
      "Ġbrought": 3077,
      "Ġsurv": 3078,
      "Ġshell": 3079,
      "beat": 3080,
      "Ġruled": 3081,
      "Ġclosed": 3082,
      "board": 3083,
      "Ġcyber": 3084,
      "Ġrivals": 3085,
      "factor": 3086,
      "Ġjournalists": 3087,
      "Ġelectronic": 3088,
      "Ġmotorola": 3089,
      "Ġcourse": 3090,
      "Ġsomet": 3091,
      "Ġchanges": 3092,
      "ift": 3093,
      "kn": 3094,
      "pro": 3095,
      "post": 3096,
      "rust": 3097,
      "tal": 3098,
      "Ġaverage": 3099,
      "Ġcause": 3100,
      "Ġbord": 3101,
      "Ġwre": 3102,
      "Ġpin": 3103,
      "Ġhaving": 3104,
      "Ġdan": 3105,
      "Ġdest": 3106,
      "Ġlack": 3107,
      "ented": 3108,
      "uted": 3109,
      "Ġjer": 3110,
      "Ġrights": 3111,
      "Ġasian": 3112,
      "Ġcoming": 3113,
      "Ġplant": 3114,
      "Ġfinds": 3115,
      "Ġfinished": 3116,
      "Ġflight": 3117,
      "Ġflights": 3118,
      "Ġallow": 3119,
      "reng": 3120,
      "Ġguil": 3121,
      "Ġxinh": 3122,
      "Ġposts": 3123,
      "Ġshift": 3124,
      "Ġbombs": 3125,
      "Ġremains": 3126,
      "Ġclaimed": 3127,
      "Ġdeadline": 3128,
      "atorial": 3129,
      "astern": 3130,
      "Ġpalestinians": 3131,
      "Ġhouston": 3132,
      "Ġpanel": 3133,
      "Ġfreestyle": 3134,
      "Ġpublished": 3135,
      "Ġcrowd": 3136,
      "Ġspanish": 3137,
      "lon": 3138,
      "self": 3139,
      "Ġcbs": 3140,
      "Ġcatch": 3141,
      "Ġmart": 3142,
      "Ġinnings": 3143,
      "Ġgat": 3144,
      "Ġnumb": 3145,
      "Ġthin": 3146,
      "Ġstem": 3147,
      "Ġstreng": 3148,
      "Ġrang": 3149,
      "Ġvend": 3150,
      "Ġcool": 3151,
      "Ġalleg": 3152,
      "Ġwhy": 3153,
      "under": 3154,
      "abad": 3155,
      "Ġgren": 3156,
      "Ġweak": 3157,
      "Ġsets": 3158,
      "Ġmilitant": 3159,
      "Ġswe": 3160,
      "Ġbroke": 3161,
      "Ġdefending": 3162,
      "Ġdecided": 3163,
      "Ġdemands": 3164,
      "Ġnewsfactor": 3165,
      "Ġassault": 3166,
      "Ġholiday": 3167,
      "Ġbuys": 3168,
      "Ġholding": 3169,
      "cliff": 3170,
      "Ġradcliff": 3171,
      "Ġwalk": 3172,
      "Ġappeals": 3173,
      "Ġequatorial": 3174,
      "Ġapproved": 3175,
      "Ġhistoric": 3176,
      "Ġislamabad": 3177,
      "Ġdiscovered": 3178,
      "Ġassociation": 3179,
      "Ġfischer": 3180,
      "awaited": 3181,
      "Ġbatteries": 3182,
      "Ġcurrent": 3183,
      "Ġsprinters": 3184,
      "Ġaccounting": 3185,
      "Ġseattle": 3186,
      "Ġbloomberg": 3187,
      "Ġabbey": 3188,
      "Ġnumbers": 3189,
      "Ġradcliffe": 3190,
      "bn": 3191,
      "craft": 3192,
      "gu": 3193,
      "put": 3194,
      "Ġident": 3195,
      "Ġaz": 3196,
      "err": 3197,
      "Ġcarter": 3198,
      "Ġcities": 3199,
      "Ġcink": 3200,
      "Ġbow": 3201,
      "Ġbell": 3202,
      "Ġhurt": 3203,
      "roke": 3204,
      "Ġgain": 3205,
      "Ġlog": 3206,
      "Ġreason": 3207,
      "olution": 3208,
      "Ġiss": 3209,
      "Ġhearing": 3210,
      "ored": 3211,
      "Ġplat": 3212,
      "Ġrod": 3213,
      "Ġrole": 3214,
      "Ġable": 3215,
      "Ġram": 3216,
      "Ġrare": 3217,
      "Ġministry": 3218,
      "Ġimam": 3219,
      "Ġslight": 3220,
      "Ġpredict": 3221,
      "coming": 3222,
      "Ġconsider": 3223,
      "Ġlonger": 3224,
      "Ġwoman": 3225,
      "Ġparl": 3226,
      "Ġeverton": 3227,
      "Ġcloser": 3228,
      "Ġstandards": 3229,
      "Ġdavis": 3230,
      "Ġsettlement": 3231,
      "Ġrespons": 3232,
      "Ġmalays": 3233,
      "Ġnames": 3234,
      "Ġarab": 3235,
      "Ġseptember": 3236,
      "Ġassoci": 3237,
      "Ġrisk": 3238,
      "Ġcarrier": 3239,
      "Ġgateway": 3240,
      "Ġguilty": 3241,
      "hy": 3242,
      "of": 3243,
      "Ġtan": 3244,
      "Ġaid": 3245,
      "ination": 3246,
      "Ġsans": 3247,
      "Ġfont": 3248,
      "Ġow": 3249,
      "Ġbi": 3250,
      "Ġpul": 3251,
      "Ġpain": 3252,
      "Ġpair": 3253,
      "Ġgirl": 3254,
      "Ġcoal": 3255,
      "Ġspar": 3256,
      "Ġclashes": 3257,
      "abul": 3258,
      "Ġoppon": 3259,
      "Ġtwins": 3260,
      "Ġads": 3261,
      "Ġaircraft": 3262,
      "ances": 3263,
      "Ġmilitiam": 3264,
      "Ġcarry": 3265,
      "Ġnewsp": 3266,
      "aze": 3267,
      "Ġrelief": 3268,
      "Ġimpact": 3269,
      "Ġoperations": 3270,
      "Ġze": 3271,
      "Ġbegins": 3272,
      "Ġschum": 3273,
      "Ġcharge": 3274,
      "Ġdeadly": 3275,
      "Ġapproval": 3276,
      "Ġcaused": 3277,
      "Ġathletics": 3278,
      "Ġdiscuss": 3279,
      "Ġastron": 3280,
      "Ġfeatures": 3281,
      "Ġveter": 3282,
      "Ġboxing": 3283,
      "cape": 3284,
      "Ġexpectations": 3285,
      "Ġdismiss": 3286,
      "Ġcirc": 3287,
      "Ġmortgage": 3288,
      "Ġmaoist": 3289,
      "Ġmilitiamen": 3290,
      ";-": 3291,
      "au": 3292,
      "cial": 3293,
      "kes": 3294,
      "nd": 3295,
      "ple": 3296,
      "Ġid": 3297,
      "alem": 3298,
      "Ġtough": 3299,
      "Ġdow": 3300,
      "roy": 3301,
      "Ġlear": 3302,
      "Ġlines": 3303,
      "Ġnfl": 3304,
      "unes": 3305,
      "elt": 3306,
      "imes": 3307,
      "Ġvent": 3308,
      "Ġvod": 3309,
      "ope": 3310,
      "ify": 3311,
      "ably": 3312,
      "Ġraised": 3313,
      "Ġmiles": 3314,
      "Ġnokia": 3315,
      "afone": 3316,
      "Ġseconds": 3317,
      "Ġsym": 3318,
      "Ġmex": 3319,
      "Ġguard": 3320,
      "Ġbombing": 3321,
      "Ġsharehold": 3322,
      "Ġsingle": 3323,
      "Ġincreased": 3324,
      "Ġverd": 3325,
      "Ġknown": 3326,
      "sharing": 3327,
      "Ġinstall": 3328,
      "Ġrecently": 3329,
      "Ġlooks": 3330,
      "Ġissued": 3331,
      "Ġclassic": 3332,
      "Ġreceived": 3333,
      "Ġaimed": 3334,
      "force": 3335,
      "Ġburund": 3336,
      "Ġdivision": 3337,
      "Ġpositive": 3338,
      "Ġadvertising": 3339,
      "Ġpurch": 3340,
      "Ġbryant": 3341,
      "'re": 3342,
      "bl": 3343,
      "font": 3344,
      "mes": 3345,
      "Ġide": 3346,
      "Ġbit": 3347,
      "Ġhy": 3348,
      "Ġnin": 3349,
      "omer": 3350,
      "Ġbeating": 3351,
      "Ġdeep": 3352,
      "Ġprogress": 3353,
      "agu": 3354,
      "Ġusa": 3355,
      "Ġexc": 3356,
      "Ġsevent": 3357,
      "Ġhighs": 3358,
      "Ġairport": 3359,
      "Ġplanning": 3360,
      "Ġkills": 3361,
      "Ġbrok": 3362,
      "Ġbrown": 3363,
      "Ġstruck": 3364,
      "Ġrelations": 3365,
      "Ġstarts": 3366,
      "Ġputs": 3367,
      "Ġpakistani": 3368,
      "Ġsubsc": 3369,
      "Ġvirt": 3370,
      "Ġdollars": 3371,
      "Ġdetro": 3372,
      "Ġvoip": 3373,
      "Ġvolley": 3374,
      "Ġgeorge": 3375,
      "Ġnamed": 3376,
      "Ġunveiled": 3377,
      "Ġfavor": 3378,
      "Ġariel": 3379,
      "Ġcrackdown": 3380,
      "Ġresidents": 3381,
      "Ġfighters": 3382,
      "Ġargentina": 3383,
      "Ġvodafone": 3384,
      "ban": 3385,
      "burg": 3386,
      "lus": 3387,
      "limin": 3388,
      "night": 3389,
      "pect": 3390,
      "Ġcertain": 3391,
      "Ġfier": 3392,
      "arial": 3393,
      "iders": 3394,
      "elph": 3395,
      "ste": 3396,
      "ames": 3397,
      "Ġjan": 3398,
      "Ġku": 3399,
      "Ġdeals": 3400,
      "than": 3401,
      "Ġpromp": 3402,
      "Ġcongress": 3403,
      "Ġii": 3404,
      "Ġspect": 3405,
      "Ġleaving": 3406,
      "Ġpled": 3407,
      "Ġroyal": 3408,
      "Ġsees": 3409,
      "Ġmoder": 3410,
      "Ġserif": 3411,
      "Ġdisarm": 3412,
      "ouse": 3413,
      "Ġprelimin": 3414,
      "Ġ666": 3415,
      "Ġstatement": 3416,
      "Ġmissed": 3417,
      "Ġstarted": 3418,
      "Ġdepot": 3419,
      "Ġstars": 3420,
      "Ġangels": 3421,
      "Ġhurdles": 3422,
      "Ġincreasing": 3423,
      "666": 3424,
      "Ġexecutives": 3425,
      "Ġnigeria": 3426,
      "Ġestimates": 3427,
      "vetica": 3428,
      "helvetica": 3429,
      "iliar": 3430,
      "Ġreplace": 3431,
      "Ġgatlin": 3432,
      "Ġaziz": 3433,
      "Ġverdana": 3434,
      "Ġninth": 3435,
      "Ġdetroit": 3436,
      "Ġvolleyball": 3437,
      "elphia": 3438,
      "Ġ666666": 3439,
      "dition": 3440,
      "Ġill": 3441,
      "Ġsky": 3442,
      "Ġcas": 3443,
      "Ġocc": 3444,
      "Ġmad": 3445,
      "Ġren": 3446,
      "usalem": 3447,
      "Ġjets": 3448,
      "Ġring": 3449,
      "Ġrich": 3450,
      "Ġrating": 3451,
      "Ġchanged": 3452,
      "terson": 3453,
      "Ġaff": 3454,
      "rial": 3455,
      "Ġworries": 3456,
      "Ġresc": 3457,
      "Ġblasts": 3458,
      "Ġapparent": 3459,
      "igned": 3460,
      "Ġdod": 3461,
      "athlon": 3462,
      "Ġslip": 3463,
      "ption": 3464,
      "iament": 3465,
      "Ġfalls": 3466,
      "Ġdropped": 3467,
      "Ġsoldier": 3468,
      "Ġpcs": 3469,
      "Ġlosses": 3470,
      "Ġcease": 3471,
      "enteris": 3472,
      "Ġfacing": 3473,
      "Ġproblem": 3474,
      "Ġhuge": 3475,
      "Ġdelayed": 3476,
      "month": 3477,
      "Ġcounter": 3478,
      "Ġkept": 3479,
      "half": 3480,
      "Ġpreviously": 3481,
      "Ġcommercial": 3482,
      "Ġdispute": 3483,
      "Ġupgrade": 3484,
      "Ġjava": 3485,
      "Ġcandid": 3486,
      "Ġjerusalem": 3487,
      "Ġparliament": 3488,
      "Ġpulled": 3489,
      "10": 3490,
      "sw": 3491,
      "sol": 3492,
      "ship": 3493,
      "zz": 3494,
      "Ġtight": 3495,
      "Ġtreat": 3496,
      "Ġawa": 3497,
      "Ġcross": 3498,
      "Ġpiracy": 3499,
      "Ġdv": 3500,
      "Ġnl": 3501,
      "ety": 3502,
      "raib": 3503,
      "Ġ35": 3504,
      "Ġjays": 3505,
      "Ġking": 3506,
      "Ġkabul": 3507,
      "Ġkenteris": 3508,
      "though": 3509,
      "Ġheat": 3510,
      "Ġsaw": 3511,
      "Ġalthough": 3512,
      "Ġwhose": 3513,
      "Ġabove": 3514,
      "Ġarmed": 3515,
      "Ġbrand": 3516,
      "Ġperio": 3517,
      "Ġgrew": 3518,
      "Ġ2003": 3519,
      "Ġsurf": 3520,
      "Ġ500": 3521,
      "Ġsteps": 3522,
      "Ġantit": 3523,
      "Ġprovider": 3524,
      "Ġhoward": 3525,
      "Ġhoping": 3526,
      "Ġthreatened": 3527,
      "Ġenterprise": 3528,
      "Ġmosque": 3529,
      "Ġproposed": 3530,
      "Ġplead": 3531,
      "Ġfigures": 3532,
      "Ġillegal": 3533,
      "Ġghraib": 3534,
      "Ġcollege": 3535,
      "Ġissue": 3536,
      "Ġschumacher": 3537,
      "Ġseventh": 3538,
      "ead": 3539,
      "iy": 3540,
      "maker": 3541,
      "rist": 3542,
      "source": 3543,
      "va": 3544,
      "wart": 3545,
      "zai": 3546,
      "inting": 3547,
      "Ġsi": 3548,
      "Ġsar": 3549,
      "Ġoh": 3550,
      "Ġwood": 3551,
      "Ġwrest": 3552,
      "Ġmets": 3553,
      "Ġmater": 3554,
      "ena": 3555,
      "encies": 3556,
      "ato": 3557,
      "Ġtotal": 3558,
      "iles": 3559,
      "Ġthor": 3560,
      "Ġthom": 3561,
      "Ġthings": 3562,
      "Ġbeach": 3563,
      "Ġcore": 3564,
      "ceed": 3565,
      "Ġhelic": 3566,
      "ockey": 3567,
      "Ġinterim": 3568,
      "Ġscre": 3569,
      "Ġdise": 3570,
      "Ġjoin": 3571,
      "Ġjoint": 3572,
      "Ġslam": 3573,
      "Ġofficer": 3574,
      "Ġamate": 3575,
      "Ġsupreme": 3576,
      "Ġcountries": 3577,
      "Ġelections": 3578,
      "ients": 3579,
      "Ġremain": 3580,
      "itted": 3581,
      "Ġgrant": 3582,
      "ody": 3583,
      "Ġroundup": 3584,
      "Ġinjury": 3585,
      "Ġinstead": 3586,
      "Ġdrive": 3587,
      "Ġfamiliar": 3588,
      "Ġwanted": 3589,
      "Ġkidnapp": 3590,
      "Ġconvict": 3591,
      "Ġbuilding": 3592,
      "Ġurged": 3593,
      "Ġdamage": 3594,
      "Ġsafety": 3595,
      "Ġrejected": 3596,
      "Ġwitnesses": 3597,
      "Ġfocus": 3598,
      "Ġkarzai": 3599,
      "Ġburundi": 3600,
      "Ġhelicop": 3601,
      "dom": 3602,
      "fat": 3603,
      "work": 3604,
      "Ġsony": 3605,
      "Ġfear": 3606,
      "Ġbul": 3607,
      "Ġboss": 3608,
      "Ġwide": 3609,
      "Ġpurs": 3610,
      "aland": 3611,
      "Ġhav": 3612,
      "Ġrenew": 3613,
      "amo": 3614,
      "acy": 3615,
      "iring": 3616,
      "Ġip": 3617,
      "Ġleaves": 3618,
      "Ġrol": 3619,
      "ube": 3620,
      "Ġmoved": 3621,
      "Ġmoqtada": 3622,
      "ously": 3623,
      "Ġbobby": 3624,
      "Ġpharm": 3625,
      "Ġbecoming": 3626,
      "Ġtalk": 3627,
      "Ġopened": 3628,
      "Ġmissile": 3629,
      "Ġedwards": 3630,
      "Ġbrew": 3631,
      "Ġoperator": 3632,
      "Ġdeveloped": 3633,
      "Ġtests": 3634,
      "Ġziff": 3635,
      "Ġbeats": 3636,
      "Ġspring": 3637,
      "Ġdebt": 3638,
      "chester": 3639,
      "Ġcommunity": 3640,
      "Ġhousing": 3641,
      "Ġdesigned": 3642,
      "Ġkidnapped": 3643,
      "Ġeye": 3644,
      "Ġbenefits": 3645,
      "Ġinsurance": 3646,
      "Ġrocket": 3647,
      "Ġpipeline": 3648,
      "Ġsatellite": 3649,
      "Ġgrenade": 3650,
      "fer": 3651,
      "mun": 3652,
      "sp": 3653,
      "oned": 3654,
      "hest": 3655,
      "heim": 3656,
      "Ġfix": 3657,
      "Ġwound": 3658,
      "Ġmach": 3659,
      "enger": 3660,
      "Ġhon": 3661,
      "Ġhun": 3662,
      "Ġhockey": 3663,
      "Ġgart": 3664,
      "Ġlou": 3665,
      "Ġnik": 3666,
      "Ġease": 3667,
      "Ġneigh": 3668,
      "Ġchart": 3669,
      "Ġvia": 3670,
      "Ġsha": 3671,
      "Ġconstr": 3672,
      "ction": 3673,
      "Ġplus": 3674,
      "Ġrout": 3675,
      "Ġrock": 3676,
      "Ġsea": 3677,
      "erem": 3678,
      "emen": 3679,
      "antas": 3680,
      "Ġars": 3681,
      "Ġgolden": 3682,
      "Ġmanchester": 3683,
      "izon": 3684,
      "Ġteams": 3685,
      "ounts": 3686,
      "Ġinvestor": 3687,
      "Ġmakers": 3688,
      "Ġguant": 3689,
      "Ġfeel": 3690,
      "Ġholly": 3691,
      "Ġshowing": 3692,
      "Ġtesting": 3693,
      "Ġinside": 3694,
      "Ġhimself": 3695,
      "Ġseeks": 3696,
      "Ġclean": 3697,
      "Ġproducer": 3698,
      "Ġdraw": 3699,
      "Ġsettlements": 3700,
      "ditions": 3701,
      "weight": 3702,
      "Ġproposal": 3703,
      "Ġordered": 3704,
      "Ġprisoners": 3705,
      "Ġtroubled": 3706,
      "Ġphilippines": 3707,
      "Ġzealand": 3708,
      "Ġamateur": 3709,
      "Ġgartner": 3710,
      "Ġneighb": 3711,
      "65": 3712,
      "ca": 3713,
      "hi": 3714,
      "lish": 3715,
      "nn": 3716,
      "north": 3717,
      "rising": 3718,
      "uments": 3719,
      "Ġut": 3720,
      "Ġult": 3721,
      "iny": 3722,
      "ery": 3723,
      "Ġcable": 3724,
      "Ġfoods": 3725,
      "Ġben": 3726,
      "Ġdell": 3727,
      "iled": 3728,
      "Ġthink": 3729,
      "Ġep": 3730,
      "ids": 3731,
      "Ġjacks": 3732,
      "Ġkhan": 3733,
      "Ġisn": 3734,
      "Ġconditions": 3735,
      "rian": 3736,
      "oph": 3737,
      "ucks": 3738,
      "kei": 3739,
      "ails": 3740,
      "Ġnote": 3741,
      "Ġindians": 3742,
      "Ġindex": 3743,
      "izing": 3744,
      "bert": 3745,
      "Ġending": 3746,
      "Ġphot": 3747,
      "Ġtrib": 3748,
      "istani": 3749,
      "Ġvictims": 3750,
      "Ġquarterback": 3751,
      "Ġcheck": 3752,
      "Ġdeveloper": 3753,
      "Ġreturned": 3754,
      "Ġclosing": 3755,
      "Ġprix": 3756,
      "Ġappeared": 3757,
      "Ġmetres": 3758,
      "Ġsocial": 3759,
      "Ġvoters": 3760,
      "iminal": 3761,
      "Ġjew": 3762,
      "Ġschools": 3763,
      "Ġapplication": 3764,
      "Ġdirector": 3765,
      "Ġscored": 3766,
      "Ġeyes": 3767,
      "Ġdefeat": 3768,
      "Ġswimming": 3769,
      "Ġpractice": 3770,
      "Ġbirth": 3771,
      "icipated": 3772,
      "Ġmixed": 3773,
      "Ġslightly": 3774,
      "Ġfierce": 3775,
      "Ġantitrust": 3776,
      "Ġmaterial": 3777,
      "Ġnikkei": 3778,
      "ique": 3779,
      "mit": 3780,
      "met": 3781,
      "tor": 3782,
      "ona": 3783,
      "Ġfal": 3784,
      "anamo": 3785,
      "Ġwid": 3786,
      "Ġmys": 3787,
      "Ġdone": 3788,
      "Ġlith": 3789,
      "Ġstor": 3790,
      "aches": 3791,
      "iment": 3792,
      "uled": 3793,
      "Ġjet": 3794,
      "estic": 3795,
      "Ġvs": 3796,
      "Ġspac": 3797,
      "ctions": 3798,
      "iable": 3799,
      "Ġuprising": 3800,
      "Ġagencies": 3801,
      "Ġroom": 3802,
      "Ġwinner": 3803,
      "Ġoutput": 3804,
      "Ġinterview": 3805,
      "ansas": 3806,
      "Ġpeak": 3807,
      "Ġcru": 3808,
      "Ġcriminal": 3809,
      "Ġ2000": 3810,
      "Ġweather": 3811,
      "awn": 3812,
      "Ġliver": 3813,
      "Ġstrate": 3814,
      "Ġjustin": 3815,
      "posed": 3816,
      "Ġoffered": 3817,
      "Ġhelping": 3818,
      "Ġsuit": 3819,
      "Ġ89": 3820,
      "Ġstreak": 3821,
      "Ġdebate": 3822,
      "Ġsharp": 3823,
      "Ġrestruct": 3824,
      "Ġstandard": 3825,
      "Ġevents": 3826,
      "Ġspecies": 3827,
      "Ġneeded": 3828,
      "Ġboosted": 3829,
      "Ġprograms": 3830,
      "Ġmassive": 3831,
      "Ġarrived": 3832,
      "Ġarafat": 3833,
      "Ġseparate": 3834,
      "Ġdoesn": 3835,
      "Ġmoment": 3836,
      "Ġmanufacturing": 3837,
      "Ġmovie": 3838,
      "Ġnewspaper": 3839,
      "Ġperiod": 3840,
      "Ġarsenal": 3841,
      "Ġguantanamo": 3842,
      "Ġjackson": 3843,
      ";.": 3844,
      "don": 3845,
      "friend": 3846,
      "house": 3847,
      "mers": 3848,
      "ober": 3849,
      "wh": 3850,
      "Ġton": 3851,
      "erer": 3852,
      "Ġster": 3853,
      "real": 3854,
      "Ġok": 3855,
      "Ġpace": 3856,
      "Ġdro": 3857,
      "Ġgard": 3858,
      "iling": 3859,
      "Ġandre": 3860,
      "utions": 3861,
      "thing": 3862,
      "anda": 3863,
      "Ġitself": 3864,
      "Ġupset": 3865,
      "ums": 3866,
      "Ġworm": 3867,
      "elled": 3868,
      "Ġtwice": 3869,
      "Ġexpects": 3870,
      "Ġadds": 3871,
      "Ġtraining": 3872,
      "Ġgreens": 3873,
      "Ġmeas": 3874,
      "Ġcommon": 3875,
      "Ġamaz": 3876,
      "Ġswed": 3877,
      "Ġswiss": 3878,
      "Ġbanknorth": 3879,
      "Ġpeoples": 3880,
      "Ġsmith": 3881,
      "Ġforest": 3882,
      "Ġrelig": 3883,
      "Ġstriker": 3884,
      "Ġoperation": 3885,
      "Ġsuspic": 3886,
      "Ġbelgian": 3887,
      "Ġreduc": 3888,
      "Ġfalling": 3889,
      "Ġentertain": 3890,
      "Ġcustomer": 3891,
      "Ġqaeda": 3892,
      "Ġdomestic": 3893,
      "Ġpitch": 3894,
      "Ġoptions": 3895,
      "Ġgeorg": 3896,
      "Ġfiscal": 3897,
      "Ġlinks": 3898,
      "Ġstruggling": 3899,
      "Ġorganization": 3900,
      "Ġstripped": 3901,
      "Ġboyc": 3902,
      "Ġsantander": 3903,
      "Ġoctober": 3904,
      "Ġwreck": 3905,
      "Ġmalaysia": 3906,
      "Ġventure": 3907,
      "Ġlithuan": 3908,
      "bre": 3909,
      "ias": 3910,
      "range": 3911,
      "Ġsending": 3912,
      "het": 3913,
      "Ġcat": 3914,
      "Ġbh": 3915,
      "Ġpatch": 3916,
      "Ġmig": 3917,
      "Ġmike": 3918,
      "iter": 3919,
      "itch": 3920,
      "ality": 3921,
      "Ġtoll": 3922,
      "Ġtouch": 3923,
      "Ġdall": 3924,
      "Ġdial": 3925,
      "roup": 3926,
      "Ġlot": 3927,
      "Ġlands": 3928,
      "uty": 3929,
      "Ġford": 3930,
      "stit": 3931,
      "illed": 3932,
      "Ġjury": 3933,
      "akers": 3934,
      "Ġhen": 3935,
      "Ġsap": 3936,
      "Ġspir": 3937,
      "Ġspread": 3938,
      "Ġcompl": 3939,
      "Ġwinds": 3940,
      "ively": 3941,
      "Ġtraff": 3942,
      "Ġimage": 3943,
      "Ġbuick": 3944,
      "ounds": 3945,
      "Ġends": 3946,
      "Ġplayed": 3947,
      "Ġassist": 3948,
      "Ġ85": 3949,
      "Ġcreate": 3950,
      "Ġtakeover": 3951,
      "Ġlaunches": 3952,
      "Ġceo": 3953,
      "Ġpope": 3954,
      "Ġdram": 3955,
      "Ġneeds": 3956,
      "Ġembass": 3957,
      "Ġallegedly": 3958,
      "Ġvalue": 3959,
      "Ġastros": 3960,
      "Ġtrouble": 3961,
      "Ġseparat": 3962,
      "uanet": 3963,
      "Ġrecovery": 3964,
      "Ġchechen": 3965,
      "Ġexploded": 3966,
      "Ġmountain": 3967,
      "Ġnegotiations": 3968,
      "Ġmutual": 3969,
      "Ġsomething": 3970,
      "Ġxinhuanet": 3971,
      "Ġgreenspan": 3972,
      "Ġdallas": 3973,
      "cube": 3974,
      "fa": 3975,
      "oke": 3976,
      "Ġtd": 3977,
      "Ġtig": 3978,
      "Ġtack": 3979,
      "Ġtie": 3980,
      "inning": 3981,
      "Ġsession": 3982,
      "Ġcry": 3983,
      "Ġmice": 3984,
      "ati": 3985,
      "Ġdh": 3986,
      "Ġdir": 3987,
      "urton": 3988,
      "Ġeag": 3989,
      "idge": 3990,
      "Ġforward": 3991,
      "stand": 3992,
      "ading": 3993,
      "adelphia": 3994,
      "illing": 3995,
      "Ġjose": 3996,
      "aka": 3997,
      "ria": 3998,
      "ried": 3999,
      "Ġspent": 4000,
      "Ġquiet": 4001,
      "Ġplc": 4002,
      "istic": 4003,
      "Ġsound": 4004,
      "umn": 4005,
      "Ġmoves": 4006,
      "Ġrepres": 4007,
      "Ġraising": 4008,
      "Ġappears": 4009,
      "Ġdisrupt": 4010,
      "Ġorig": 4011,
      "Ġcanc": 4012,
      "Ġjoy": 4013,
      "Ġteamm": 4014,
      "iburton": 4015,
      "Ġconfidence": 4016,
      "Ġcollect": 4017,
      "Ġforec": 4018,
      "Ġtargets": 4019,
      "Ġpowerbook": 4020,
      "Ġinsurg": 4021,
      "Ġattacked": 4022,
      "Ġiniti": 4023,
      "box": 4024,
      "Ġpackage": 4025,
      "Ġphiladelphia": 4026,
      "Ġexplosion": 4027,
      "Ġoptim": 4028,
      "Ġosset": 4029,
      "Ġconnections": 4030,
      "Ġtools": 4031,
      "Ġhalliburton": 4032,
      "Ġdiffer": 4033,
      "Ġbonds": 4034,
      "Ġcrown": 4035,
      "Ġproperty": 4036,
      "Ġkobe": 4037,
      "Ġmexico": 4038,
      "Ġohio": 4039,
      "Ġjewish": 4040,
      "Ġentertainment": 4041,
      "Ġtigers": 4042,
      "80": 4043,
      "fj": 4044,
      "hard": 4045,
      "iest": 4046,
      "light": 4047,
      "larg": 4048,
      "spe": 4049,
      "ument": 4050,
      "well": 4051,
      "Ġties": 4052,
      "Ġaward": 4053,
      "Ġsand": 4054,
      "Ġfair": 4055,
      "Ġfred": 4056,
      "Ġpers": 4057,
      "Ġpension": 4058,
      "Ġmiam": 4059,
      "icle": 4060,
      "Ġdail": 4061,
      "Ġdiving": 4062,
      "Ġnar": 4063,
      "Ġnorm": 4064,
      "Ġnba": 4065,
      "rac": 4066,
      "state": 4067,
      "Ġ31": 4068,
      "illa": 4069,
      "Ġken": 4070,
      "agon": 4071,
      "Ġsave": 4072,
      "Ġunp": 4073,
      "Ġroll": 4074,
      "Ġufj": 4075,
      "Ġopens": 4076,
      "Ġresol": 4077,
      "eman": 4078,
      "Ġareas": 4079,
      "Ġrap": 4080,
      "Ġperfect": 4081,
      "Ġtradition": 4082,
      "Ġminnes": 4083,
      "Ġgoods": 4084,
      "Ġbought": 4085,
      "ogra": 4086,
      "Ġplaying": 4087,
      "Ġsurprise": 4088,
      "Ġ51": 4089,
      "Ġstewart": 4090,
      "Ġreform": 4091,
      "Ġsignific": 4092,
      "Ġterrorists": 4093,
      "lined": 4094,
      "Ġsixth": 4095,
      "Ġverizon": 4096,
      "Ġfiles": 4097,
      "Ġowners": 4098,
      "Ġnationwide": 4099,
      "Ġdevice": 4100,
      "Ġinvestigators": 4101,
      "Ġmanagers": 4102,
      "Ġdistrict": 4103,
      "Ġcompleted": 4104,
      "Ġcaptain": 4105,
      "Ġinflu": 4106,
      "Ġrobot": 4107,
      "Ġprotection": 4108,
      "Ġlevels": 4109,
      "Ġhungary": 4110,
      "Ġvillage": 4111,
      "Ġrefugees": 4112,
      "Ġpicture": 4113,
      "Ġvirtual": 4114,
      "Ġconstruction": 4115,
      "Ġpeoplesoft": 4116,
      "Ġembassy": 4117,
      "Ġmiami": 4118,
      "Ġdaily": 4119,
      "cling": 4120,
      "ster": 4121,
      "uff": 4122,
      "Ġtens": 4123,
      "Ġaere": 4124,
      "Ġsamp": 4125,
      "Ġfreed": 4126,
      "edia": 4127,
      "Ġtoget": 4128,
      "Ġreally": 4129,
      "tery": 4130,
      "racy": 4131,
      "oline": 4132,
      "ecraft": 4133,
      "ador": 4134,
      "Ġvar": 4135,
      "ription": 4136,
      "ender": 4137,
      "Ġsoaring": 4138,
      "Ġovernight": 4139,
      "emb": 4140,
      "Ġraises": 4141,
      "Ġblair": 4142,
      "Ġindic": 4143,
      "Ġindep": 4144,
      "Ġtrain": 4145,
      "Ġmind": 4146,
      "Ġslump": 4147,
      "Ġnov": 4148,
      "Ġprofession": 4149,
      "Ġsalv": 4150,
      "Ġmarketing": 4151,
      "Ġbanking": 4152,
      "Ġsurge": 4153,
      "Ġsurpr": 4154,
      "Ġloses": 4155,
      "Ġterm": 4156,
      "Ġcars": 4157,
      "ultane": 4158,
      "Ġdemon": 4159,
      "Ġelectric": 4160,
      "Ġfederer": 4161,
      "Ġhero": 4162,
      "Ġ800": 4163,
      "Ġshel": 4164,
      "Ġholmes": 4165,
      "Ġremained": 4166,
      "Ġgeneration": 4167,
      "Ġhomered": 4168,
      "Ġpaid": 4169,
      "Ġ150": 4170,
      "liners": 4171,
      "Ġtelephone": 4172,
      "Ġloyal": 4173,
      "Ġreturns": 4174,
      "Ġsemi": 4175,
      "boy": 4176,
      "castle": 4177,
      "Ġpaula": 4178,
      "Ġkeeps": 4179,
      "Ġfollow": 4180,
      "ukat": 4181,
      "Ġmatter": 4182,
      "Ġjumped": 4183,
      "Ġadded": 4184,
      "Ġmerger": 4185,
      "going": 4186,
      "Ġbringing": 4187,
      "Ġmagaz": 4188,
      "Ġpowell": 4189,
      "Ġlawyers": 4190,
      "Ġdistribution": 4191,
      "Ġsupporters": 4192,
      "harra": 4193,
      "Ġcoalition": 4194,
      "Ġdodgers": 4195,
      "Ġdvd": 4196,
      "Ġhaven": 4197,
      "Ġrenewed": 4198,
      "Ġshaukat": 4199,
      "Ġhollywood": 4200,
      "Ġspacecraft": 4201,
      "Ġdrove": 4202,
      "largest": 4203,
      "Ġnarrow": 4204,
      "Ġminnesota": 4205,
      "Ġtogether": 4206,
      "Ġindepend": 4207,
      ".-": 4208,
      "30": 4209,
      "bus": 4210,
      "come": 4211,
      "ki": 4212,
      "tors": 4213,
      "Ġtren": 4214,
      "Ġsle": 4215,
      "Ġsure": 4216,
      "Ġcents": 4217,
      "Ġfarm": 4218,
      "Ġflex": 4219,
      "Ġbarg": 4220,
      "Ġmadr": 4221,
      "eded": 4222,
      "Ġinn": 4223,
      "arters": 4224,
      "icit": 4225,
      "Ġdanger": 4226,
      "Ġlad": 4227,
      "Ġlap": 4228,
      "Ġlive": 4229,
      "Ġreact": 4230,
      "Ġnets": 4231,
      "Ġeased": 4232,
      "igning": 4233,
      "ulner": 4234,
      "Ġyemen": 4235,
      "Ġchile": 4236,
      "Ġash": 4237,
      "Ġdeter": 4238,
      "Ġvulner": 4239,
      "Ġcode": 4240,
      "Ġhear": 4241,
      "rip": 4242,
      "Ġire": 4243,
      "Ġalan": 4244,
      "Ġupcoming": 4245,
      "rick": 4246,
      "Ġraise": 4247,
      "Ġworldwide": 4248,
      "Ġslashed": 4249,
      "Ġreporting": 4250,
      "Ġretire": 4251,
      "Ġliqu": 4252,
      "veland": 4253,
      "Ġregular": 4254,
      "Ġcounties": 4255,
      "Ġmuse": 4256,
      "point": 4257,
      "Ġrecords": 4258,
      "Ġguid": 4259,
      "Ġdelta": 4260,
      "azi": 4261,
      "Ġ80": 4262,
      "Ġposition": 4263,
      "Ġextended": 4264,
      "Ġprovince": 4265,
      "Ġwayne": 4266,
      "Ġhalt": 4267,
      "Ġcleveland": 4268,
      "Ġpopulation": 4269,
      "Ġcraw": 4270,
      "Ġfailure": 4271,
      "Ġimproved": 4272,
      "Ġmerc": 4273,
      "Ġdocomo": 4274,
      "Ġfastest": 4275,
      "attled": 4276,
      "Ġintegr": 4277,
      "Ġbriefly": 4278,
      "Ġweightl": 4279,
      "Ġdisplay": 4280,
      "Ġdisappointing": 4281,
      "Ġurges": 4282,
      "Ġplatform": 4283,
      "Ġtanks": 4284,
      "Ġmodern": 4285,
      "Ġhelicopter": 4286,
      "Ġboycott": 4287,
      "Ġlithuania": 4288,
      "Ġmagazine": 4289,
      "50": 4290,
      "hit": 4291,
      "mad": 4292,
      "piracy": 4293,
      "uation": 4294,
      "vin": 4295,
      "za": 4296,
      "Ġteles": 4297,
      "Ġay": 4298,
      "held": 4299,
      "rees": 4300,
      "Ġfires": 4301,
      "Ġfbi": 4302,
      "Ġott": 4303,
      "Ġpen": 4304,
      "itational": 4305,
      "atives": 4306,
      "icide": 4307,
      "Ġhig": 4308,
      "Ġdu": 4309,
      "Ġlley": 4310,
      "ask": 4311,
      "ashing": 4312,
      "Ġrein": 4313,
      "Ġnav": 4314,
      "une": 4315,
      "lement": 4316,
      "Ġstat": 4317,
      "olph": 4318,
      "Ġyen": 4319,
      "Ġdeport": 4320,
      "ighth": 4321,
      "Ġprob": 4322,
      "rie": 4323,
      "earing": 4324,
      "Ġspa": 4325,
      "Ġspy": 4326,
      "Ġusato": 4327,
      "ape": 4328,
      "Ġage": 4329,
      "Ġservers": 4330,
      "ailed": 4331,
      "Ġcann": 4332,
      "Ġinvitational": 4333,
      "Ġwebs": 4334,
      "Ġallows": 4335,
      "iban": 4336,
      "Ġmusharra": 4337,
      "Ġcarl": 4338,
      "angu": 4339,
      "Ġinfo": 4340,
      "Ġsued": 4341,
      "Ġcolumn": 4342,
      "Ġupdates": 4343,
      "Ġstrikes": 4344,
      "Ġtechnologies": 4345,
      "Ġputin": 4346,
      "Ġacquired": 4347,
      "Ġtransport": 4348,
      "Ġcuba": 4349,
      "engers": 4350,
      "Ġdiscover": 4351,
      "Ġcaptured": 4352,
      "Ġfavour": 4353,
      "Ġlinked": 4354,
      "Ġaudit": 4355,
      "Ġpositions": 4356,
      "Ġbelieve": 4357,
      "Ġshooting": 4358,
      "Ġchoice": 4359,
      "Ġdelegation": 4360,
      "Ġshopping": 4361,
      "Ġsupplies": 4362,
      "Ġborder": 4363,
      "Ġrangers": 4364,
      "Ġpreliminary": 4365,
      "Ġthorpe": 4366,
      "Ġdisease": 4367,
      "Ġreligious": 4368,
      "Ġwreckage": 4369,
      "Ġsignificant": 4370,
      "Ġtelesc": 4371,
      "Ġlleyton": 4372,
      "Ġusatoday": 4373,
      "Ġmusharraf": 4374,
      "dog": 4375,
      "hib": 4376,
      "long": 4377,
      "ox": 4378,
      "oil": 4379,
      "sl": 4380,
      "ued": 4381,
      "Ġic": 4382,
      "Ġtony": 4383,
      "inated": 4384,
      "Ġself": 4385,
      "Ġfan": 4386,
      "Ġbab": 4387,
      "Ġmr": 4388,
      "Ġmaster": 4389,
      "isan": 4390,
      "Ġhills": 4391,
      "Ġlives": 4392,
      "Ġeighth": 4393,
      "igroup": 4394,
      "acre": 4395,
      "imate": 4396,
      "Ġkansas": 4397,
      "Ġvan": 4398,
      "Ġvoted": 4399,
      "Ġproj": 4400,
      "Ġcompon": 4401,
      "isting": 4402,
      "Ġadop": 4403,
      "Ġmedall": 4404,
      "Ġcrashes": 4405,
      "Ġcrimes": 4406,
      "Ġhighly": 4407,
      "Ġallowed": 4408,
      "ization": 4409,
      "Ġthanks": 4410,
      "Ġ46": 4411,
      "Ġ48": 4412,
      "Ġsyn": 4413,
      "Ġsaturn": 4414,
      "Ġdefensive": 4415,
      "Ġdeficit": 4416,
      "pool": 4417,
      "Ġtaliban": 4418,
      "Ġannounces": 4419,
      "Ġsuicide": 4420,
      "Ġzimb": 4421,
      "Ġextension": 4422,
      "ysis": 4423,
      "Ġbooks": 4424,
      "Ġfiling": 4425,
      "Ġdrag": 4426,
      "Ġinstit": 4427,
      "Ġgasoline": 4428,
      "Ġvenezuelan": 4429,
      "Ġexplosions": 4430,
      "Ġjeff": 4431,
      "Ġcorporation": 4432,
      "Ġnorthe": 4433,
      "uja": 4434,
      "Ġactivity": 4435,
      "Ġqualifying": 4436,
      "Ġimportant": 4437,
      "Ġvendor": 4438,
      "Ġshareholders": 4439,
      "Ġratings": 4440,
      "Ġlouis": 4441,
      "Ġgeorgia": 4442,
      "Ġmadrid": 4443,
      "Ġmuseum": 4444,
      "Ġhighest": 4445,
      "Ġzimbab": 4446,
      "aida": 4447,
      "cks": 4448,
      "mal": 4449,
      "qaeda": 4450,
      "Ġten": 4451,
      "Ġtable": 4452,
      "Ġbook": 4453,
      "Ġwoods": 4454,
      "Ġinqu": 4455,
      "Ġtoy": 4456,
      "Ġdolph": 4457,
      "Ġgal": 4458,
      "Ġnon": 4459,
      "ille": 4460,
      "acity": 4461,
      "Ġitunes": 4462,
      "vement": 4463,
      "Ġchrist": 4464,
      "Ġkick": 4465,
      "Ġkind": 4466,
      "Ġian": 4467,
      "Ġalert": 4468,
      "iance": 4469,
      "Ġsought": 4470,
      "Ġclot": 4471,
      "ubble": 4472,
      "Ġmarion": 4473,
      "ival": 4474,
      "Ġfinding": 4475,
      "Ġaband": 4476,
      "Ġattention": 4477,
      "Ġdoom": 4478,
      "Ġgreater": 4479,
      "Ġimmed": 4480,
      "Ġsurged": 4481,
      "Ġdecades": 4482,
      "Ġtried": 4483,
      "Ġcolin": 4484,
      "Ġwashingtonpost": 4485,
      "Ġdeveloping": 4486,
      "Ġdevelopers": 4487,
      "Ġadvis": 4488,
      "Ġreportedly": 4489,
      "place": 4490,
      "Ġindustrial": 4491,
      "clus": 4492,
      "Ġrevolution": 4493,
      "Ġstrain": 4494,
      "Ġfellow": 4495,
      "Ġqantas": 4496,
      "Ġiranian": 4497,
      "scar": 4498,
      "Ġhole": 4499,
      "Ġexplosives": 4500,
      "Ġshipments": 4501,
      "Ġcritical": 4502,
      "Ġgeorgian": 4503,
      "Ġshuttle": 4504,
      "Ġariz": 4505,
      "Ġnyse": 4506,
      "Ġwatched": 4507,
      "Ġpentagon": 4508,
      "Ġcontroversial": 4509,
      "Ġdiego": 4510,
      "azeera": 4511,
      "Ġkidnappers": 4512,
      "Ġliverpool": 4513,
      "Ġdhaka": 4514,
      "Ġossetia": 4515,
      "Ġcrawford": 4516,
      "Ġzimbabwe": 4517,
      "Ġimmedi": 4518,
      "car": 4519,
      "dick": 4520,
      "oud": 4521,
      "qaida": 4522,
      "rit": 4523,
      "sch": 4524,
      "te": 4525,
      "Ġtiny": 4526,
      "Ġsens": 4527,
      "oning": 4528,
      "Ġcs": 4529,
      "Ġcass": 4530,
      "anch": 4531,
      "Ġwond": 4532,
      "Ġwife": 4533,
      "Ġpi": 4534,
      "Ġpac": 4535,
      "Ġmall": 4536,
      "itive": 4537,
      "ences": 4538,
      "Ġlif": 4539,
      "ilton": 4540,
      "stroke": 4541,
      "iry": 4542,
      "Ġ32": 4543,
      "Ġjack": 4544,
      "Ġkris": 4545,
      "Ġkreme": 4546,
      "Ġspitz": 4547,
      "Ġrouse": 4548,
      "ipe": 4549,
      "Ġmoving": 4550,
      "Ġresume": 4551,
      "Ġabuse": 4552,
      "Ġcruc": 4553,
      "Ġwarming": 4554,
      "Ġliber": 4555,
      "Ġamd": 4556,
      "Ġplayoff": 4557,
      "Ġ60": 4558,
      "Ġ64": 4559,
      "Ġcounty": 4560,
      "Ġdecline": 4561,
      "Ġelected": 4562,
      "Ġreleases": 4563,
      "Ġholes": 4564,
      "Ġbuying": 4565,
      "Ġremote": 4566,
      "Ġstreets": 4567,
      "Ġjudges": 4568,
      "Ġarrests": 4569,
      "apping": 4570,
      "Ġpatterson": 4571,
      "Ġmemory": 4572,
      "Ġpassengers": 4573,
      "Ġcycling": 4574,
      "Ġmassacre": 4575,
      "Ġpushed": 4576,
      "Ġvolume": 4577,
      "strong": 4578,
      "Ġchalleng": 4579,
      "Ġsquad": 4580,
      "Ġemerg": 4581,
      "Ġmessage": 4582,
      "Ġsettles": 4583,
      "Ġwait": 4584,
      "Ġtreasuries": 4585,
      "Ġbattles": 4586,
      "Ġpremier": 4587,
      "Ġencour": 4588,
      "Ġsongs": 4589,
      "Ġvacc": 4590,
      "Ġprosecutors": 4591,
      "Ġwelcom": 4592,
      "Ġallegations": 4593,
      "Ġbroken": 4594,
      "Ġgardner": 4595,
      "ograph": 4596,
      "card": 4597,
      "do": 4598,
      "fr": 4599,
      "fly": 4600,
      "keep": 4601,
      "ten": 4602,
      "tim": 4603,
      "reg": 4604,
      "Ġcast": 4605,
      "Ġchen": 4606,
      "Ġcab": 4607,
      "Ġfat": 4608,
      "Ġful": 4609,
      "Ġpig": 4610,
      "Ġpaper": 4611,
      "aries": 4612,
      "icult": 4613,
      "Ġhunt": 4614,
      "Ġder": 4615,
      "Ġliving": 4616,
      "Ġliable": 4617,
      "Ġansw": 4618,
      "Ġnh": 4619,
      "ram": 4620,
      "Ġstory": 4621,
      "olina": 4622,
      "Ġforbes": 4623,
      "aces": 4624,
      "Ġ300": 4625,
      "Ġjama": 4626,
      "Ġask": 4627,
      "Ġbears": 4628,
      "Ġvice": 4629,
      "Ġnewcastle": 4630,
      "Ġunf": 4631,
      "Ġunl": 4632,
      "Ġroger": 4633,
      "Ġworks": 4634,
      "Ġoverha": 4635,
      "ivity": 4636,
      "Ġabd": 4637,
      "antic": 4638,
      "Ġscoring": 4639,
      "Ġnothing": 4640,
      "Ġdiscl": 4641,
      "Ġdisaster": 4642,
      "Ġflo": 4643,
      "Ġweigh": 4644,
      "Ġ47": 4645,
      "Ġsatis": 4646,
      "Ġbrows": 4647,
      "ollah": 4648,
      "Ġtrip": 4649,
      "Ġtriump": 4650,
      "Ġfeet": 4651,
      "Ġcalling": 4652,
      "Ġ70": 4653,
      "Ġeduc": 4654,
      "Ġcrew": 4655,
      "Ġcreated": 4656,
      "Ġgenet": 4657,
      "Ġextends": 4658,
      "Ġsanctions": 4659,
      "Ġinclude": 4660,
      "Ġquickly": 4661,
      "Ġeli": 4662,
      "Ġbraves": 4663,
      "Ġexplor": 4664,
      "Ġpatients": 4665,
      "Ġscientific": 4666,
      "umbled": 4667,
      "Ġkeeping": 4668,
      "Ġgrab": 4669,
      "Ġbills": 4670,
      "Ġpassenger": 4671,
      "Ġsimultane": 4672,
      "Ġprotests": 4673,
      "Ġsolid": 4674,
      "Ġeasy": 4675,
      "Ġeasily": 4676,
      "Ġwatchdog": 4677,
      "Ġunveils": 4678,
      "Ġrejects": 4679,
      "Ġcitigroup": 4680,
      "Ġmontreal": 4681,
      "Ġintegration": 4682,
      "Ġopponents": 4683,
      "Ġoccup": 4684,
      "Ġapparently": 4685,
      "Ġrepresent": 4686,
      "Ġforecasts": 4687,
      "speed": 4688,
      "Ġireland": 4689,
      "Ġottawa": 4690,
      "Ġkrispy": 4691,
      "Ġtriumph": 4692,
      "ae": 4693,
      "bel": 4694,
      "cat": 4695,
      "fall": 4696,
      "hran": 4697,
      "lers": 4698,
      "ole": 4699,
      "oul": 4700,
      "tion": 4701,
      "Ġauss": 4702,
      "inn": 4703,
      "erc": 4704,
      "Ġfer": 4705,
      "Ġbin": 4706,
      "Ġwine": 4707,
      "Ġmother": 4708,
      "ari": 4709,
      "Ġdur": 4710,
      "Ġlic": 4711,
      "Ġluc": 4712,
      "Ġrevered": 4713,
      "urning": 4714,
      "Ġeth": 4715,
      "Ġstage": 4716,
      "oly": 4717,
      "igan": 4718,
      "stone": 4719,
      "ado": 4720,
      "Ġjim": 4721,
      "Ġkmart": 4722,
      "Ġdevers": 4723,
      "Ġprove": 4724,
      "Ġalter": 4725,
      "isted": 4726,
      "Ġaggress": 4727,
      "iple": 4728,
      "Ġmoore": 4729,
      "emens": 4730,
      "Ġiraqis": 4731,
      "outh": 4732,
      "Ġcontrib": 4733,
      "Ġmich": 4734,
      "Ġfla": 4735,
      "Ġinvent": 4736,
      "away": 4737,
      "Ġbroker": 4738,
      "Ġsurger": 4739,
      "portun": 4740,
      "Ġassemb": 4741,
      "Ġcolumb": 4742,
      "Ġenglish": 4743,
      "ields": 4744,
      "Ġdatab": 4745,
      "Ġseems": 4746,
      "Ġsingh": 4747,
      "Ġdoubles": 4748,
      "Ġpolitic": 4749,
      "Ġdevast": 4750,
      "Ġinvestigating": 4751,
      "Ġerror": 4752,
      "Ġspeech": 4753,
      "Ġquestions": 4754,
      "Ġeasing": 4755,
      "Ġdiscount": 4756,
      "Ġvalley": 4757,
      "Ġaims": 4758,
      "Ġhotel": 4759,
      "iety": 4760,
      "Ġmortar": 4761,
      "Ġnigerian": 4762,
      "Ġfunk": 4763,
      "Ġobser": 4764,
      "Ġteenager": 4765,
      "Ġtruckers": 4766,
      "Ġflaws": 4767,
      "Ġsuffered": 4768,
      "Ġscheduled": 4769,
      "Ġstrength": 4770,
      "Ġcandidate": 4771,
      "Ġsiemens": 4772,
      "Ġwounding": 4773,
      "Ġrestructuring": 4774,
      "Ġtraffic": 4775,
      "Ġdramatic": 4776,
      "Ġdifferent": 4777,
      "Ġprofessional": 4778,
      "Ġprobably": 4779,
      "Ġemergency": 4780,
      "Ġoverhaul": 4781,
      "Ġsurgery": 4782,
      "11": 4783,
      "ahead": 4784,
      "cro": 4785,
      "dt": 4786,
      "final": 4787,
      "iro": 4788,
      "lad": 4789,
      "oum": 4790,
      "rant": 4791,
      "town": 4792,
      "ville": 4793,
      "Ġtrop": 4794,
      "Ġaw": 4795,
      "iner": 4796,
      "onage": 4797,
      "rell": 4798,
      "Ġcz": 4799,
      "esters": 4800,
      "Ġbug": 4801,
      "Ġbbc": 4802,
      "Ġwis": 4803,
      "Ġpra": 4804,
      "orter": 4805,
      "orrow": 4806,
      "attered": 4807,
      "aling": 4808,
      "isl": 4809,
      "isign": 4810,
      "Ġhor": 4811,
      "Ġdate": 4812,
      "ilities": 4813,
      "Ġthing": 4814,
      "Ġeastern": 4815,
      "elves": 4816,
      "Ġforced": 4817,
      "amed": 4818,
      "aming": 4819,
      "vez": 4820,
      "owled": 4821,
      "Ġjac": 4822,
      "Ġrall": 4823,
      "Ġbea": 4824,
      "Ġcoverage": 4825,
      "ugged": 4826,
      "Ġunbeat": 4827,
      "Ġwholes": 4828,
      "Ġexerc": 4829,
      "Ġsecure": 4830,
      "Ġmarks": 4831,
      "Ġackn": 4832,
      "abor": 4833,
      "Ġopec": 4834,
      "Ġopportun": 4835,
      "Ġtehran": 4836,
      "Ġexpans": 4837,
      "antage": 4838,
      "Ġarms": 4839,
      "Ġscott": 4840,
      "Ġcrime": 4841,
      "Ġtraders": 4842,
      "Ġdoing": 4843,
      "Ġ2002": 4844,
      "Ġthanou": 4845,
      "awi": 4846,
      "Ġsetting": 4847,
      "Ġphill": 4848,
      "Ġmean": 4849,
      "Ġpartic": 4850,
      "Ġcapacity": 4851,
      "Ġdecember": 4852,
      "Ġassass": 4853,
      "Ġhelps": 4854,
      "Ġsues": 4855,
      "Ġsteve": 4856,
      "inted": 4857,
      "okie": 4858,
      "Ġparts": 4859,
      "Ġeditor": 4860,
      "Ġdeploy": 4861,
      "Ġextend": 4862,
      "Ġmajority": 4863,
      "news": 4864,
      "Ġlargely": 4865,
      "Ġ90": 4866,
      "Ġnorthwest": 4867,
      "Ġverisign": 4868,
      "ikh": 4869,
      "ikely": 4870,
      "Ġdoubled": 4871,
      "Ġthreats": 4872,
      "Ġentered": 4873,
      "Ġhealthday": 4874,
      "Ġdriven": 4875,
      "Ġbreaking": 4876,
      "Ġsenate": 4877,
      "Ġartisan": 4878,
      "Ġconfirms": 4879,
      "Ġdenied": 4880,
      "Ġconduct": 4881,
      "Ġcommerce": 4882,
      "Ġhungarian": 4883,
      "Ġtreasury": 4884,
      "Ġrevealed": 4885,
      "Ġdeclared": 4886,
      "Ġtempor": 4887,
      "Ġroman": 4888,
      "Ġfavorite": 4889,
      "Ġtonight": 4890,
      "Ġamazon": 4891,
      "Ġtrend": 4892,
      "Ġtelescope": 4893,
      "Ġarizona": 4894,
      "Ġacknowled": 4895,
      "aug": 4896,
      "augh": 4897,
      "aheim": 4898,
      "dem": 4899,
      "gomer": 4900,
      "hare": 4901,
      "joy": 4902,
      "lom": 4903,
      "pers": 4904,
      "sy": 4905,
      "van": 4906,
      "western": 4907,
      "Ġul": 4908,
      "Ġak": 4909,
      "erro": 4910,
      "Ġsac": 4911,
      "Ġsbc": 4912,
      "Ġcow": 4913,
      "Ġcold": 4914,
      "Ġches": 4915,
      "Ġoust": 4916,
      "Ġpy": 4917,
      "Ġmun": 4918,
      "iti": 4919,
      "isions": 4920,
      "Ġdub": 4921,
      "Ġgop": 4922,
      "Ġlink": 4923,
      "Ġanal": 4924,
      "Ġanaheim": 4925,
      "Ġnazi": 4926,
      "illy": 4927,
      "quarters": 4928,
      "Ġasks": 4929,
      "char": 4930,
      "Ġvows": 4931,
      "Ġvonage": 4932,
      "Ġsharing": 4933,
      "Ġcoop": 4934,
      "aks": 4935,
      "Ġunions": 4936,
      "Ġunits": 4937,
      "Ġspl": 4938,
      "Ġquit": 4939,
      "aste": 4940,
      "Ġplaced": 4941,
      "Ġoffset": 4942,
      "Ġagrees": 4943,
      "Ġroy": 4944,
      "Ġrookie": 4945,
      "artoum": 4946,
      "Ġword": 4947,
      "Ġworst": 4948,
      "Ġmary": 4949,
      "Ġfinals": 4950,
      "Ġenforce": 4951,
      "Ġrail": 4952,
      "Ġscream": 4953,
      "Ġflash": 4954,
      "Ġgoog": 4955,
      "Ġairliners": 4956,
      "Ġ45": 4957,
      "Ġannivers": 4958,
      "Ġdefend": 4959,
      "coni": 4960,
      "Ġterms": 4961,
      "Ġdelhi": 4962,
      "Ġchem": 4963,
      "Ġanticipated": 4964,
      "Ġheaded": 4965,
      "Ġelimin": 4966,
      "Ġcompete": 4967,
      "Ġfilm": 4968,
      "Ġowner": 4969,
      "Ġhostages": 4970,
      "Ġpolitics": 4971,
      "Ġfailing": 4972,
      "Ġturns": 4973,
      "Ġdetain": 4974,
      "Ġglax": 4975,
      "Ġtransfer": 4976,
      "Ġlooked": 4977,
      "Ġsimpl": 4978,
      "Ġpitcher": 4979,
      "Ġlanding": 4980,
      "Ġbeginning": 4981,
      "Ġbaltim": 4982,
      "Ġbodies": 4983,
      "Ġbuilt": 4984,
      "Ġberlus": 4985,
      "Ġlimited": 4986,
      "Ġinvolved": 4987,
      "Ġbenefit": 4988,
      "Ġkhartoum": 4989,
      "Ġdifficult": 4990,
      "Ġmovies": 4991,
      "Ġmontgomer": 4992,
      "Ġhappy": 4993,
      "Ġbudget": 4994,
      "Ġdiplom": 4995,
      "Ġenvironmental": 4996,
      "Ġbowl": 4997,
      "Ġveteran": 4998,
      "Ġspirit": 4999
    },
    "merges": [
      [
        "Ġ",
        "t"
      ],
      [
        "Ġ",
        "a"
      ],
      [
        "i",
        "n"
      ],
      [
        "e",
        "r"
      ],
      [
        "Ġ",
        "s"
      ],
      [
        "o",
        "n"
      ],
      [
        "h",
        "e"
      ],
      [
        "r",
        "e"
      ],
      [
        "Ġ",
        "c"
      ],
      [
        "Ġt",
        "he"
      ],
      [
        "Ġ",
        "f"
      ],
      [
        "Ġ",
        "o"
      ],
      [
        "a",
        "n"
      ],
      [
        "e",
        "s"
      ],
      [
        "Ġ",
        "b"
      ],
      [
        "Ġ",
        "w"
      ],
      [
        "Ġ",
        "p"
      ],
      [
        "o",
        "r"
      ],
      [
        "Ġ",
        "m"
      ],
      [
        "e",
        "d"
      ],
      [
        "i",
        "t"
      ],
      [
        "e",
        "n"
      ],
      [
        "a",
        "t"
      ],
      [
        "Ġ",
        "in"
      ],
      [
        "a",
        "l"
      ],
      [
        "in",
        "g"
      ],
      [
        "a",
        "r"
      ],
      [
        "i",
        "s"
      ],
      [
        "Ġt",
        "o"
      ],
      [
        "i",
        "c"
      ],
      [
        "Ġ",
        "h"
      ],
      [
        "Ġ",
        "d"
      ],
      [
        "r",
        "o"
      ],
      [
        "Ġo",
        "f"
      ],
      [
        "Ġ",
        "g"
      ],
      [
        "Ġ",
        "l"
      ],
      [
        "a",
        "s"
      ],
      [
        "Ġ",
        "re"
      ],
      [
        "Ġa",
        "n"
      ],
      [
        "Ġ",
        "n"
      ],
      [
        "a",
        "y"
      ],
      [
        "i",
        "l"
      ],
      [
        "t",
        "er"
      ],
      [
        "i",
        "on"
      ],
      [
        "u",
        "s"
      ],
      [
        "u",
        "n"
      ],
      [
        "u",
        "r"
      ],
      [
        "l",
        "e"
      ],
      [
        "o",
        "m"
      ],
      [
        "Ġt",
        "h"
      ],
      [
        "Ġ",
        "e"
      ],
      [
        "i",
        "d"
      ],
      [
        "Ġ",
        "on"
      ],
      [
        "Ġan",
        "d"
      ],
      [
        "e",
        "t"
      ],
      [
        "en",
        "t"
      ],
      [
        "u",
        "t"
      ],
      [
        "r",
        "a"
      ],
      [
        "Ġs",
        "t"
      ],
      [
        "e",
        "l"
      ],
      [
        "o",
        "l"
      ],
      [
        "Ġf",
        "or"
      ],
      [
        "i",
        "g"
      ],
      [
        "s",
        "t"
      ],
      [
        "Ġ",
        "-"
      ],
      [
        "e",
        "c"
      ],
      [
        "a",
        "m"
      ],
      [
        "a",
        "d"
      ],
      [
        "a",
        "c"
      ],
      [
        "i",
        "r"
      ],
      [
        "d",
        "ay"
      ],
      [
        "o",
        "t"
      ],
      [
        "Ġ",
        "3"
      ],
      [
        "l",
        "y"
      ],
      [
        "v",
        "er"
      ],
      [
        "Ġa",
        "t"
      ],
      [
        "Ġ",
        "it"
      ],
      [
        "v",
        "e"
      ],
      [
        "i",
        "m"
      ],
      [
        "o",
        "w"
      ],
      [
        "u",
        "l"
      ],
      [
        "Ġ3",
        "9"
      ],
      [
        "Ġn",
        "e"
      ],
      [
        "il",
        "l"
      ],
      [
        "Ġ",
        "j"
      ],
      [
        "er",
        "s"
      ],
      [
        "u",
        "p"
      ],
      [
        "Ġ",
        "r"
      ],
      [
        "Ġ",
        "y"
      ],
      [
        "es",
        "t"
      ],
      [
        "q",
        "u"
      ],
      [
        "at",
        "ion"
      ],
      [
        "Ġc",
        "h"
      ],
      [
        "Ġa",
        "s"
      ],
      [
        "Ġ",
        "k"
      ],
      [
        "Ġb",
        "e"
      ],
      [
        "c",
        "h"
      ],
      [
        "Ġd",
        "e"
      ],
      [
        "it",
        "h"
      ],
      [
        "ig",
        "h"
      ],
      [
        "t",
        "s"
      ],
      [
        "Ġ",
        "v"
      ],
      [
        "Ġc",
        "om"
      ],
      [
        "t",
        "h"
      ],
      [
        "Ġp",
        "ro"
      ],
      [
        "Ġs",
        "h"
      ],
      [
        "ter",
        "s"
      ],
      [
        "Ġc",
        "o"
      ],
      [
        "Ġw",
        "ith"
      ],
      [
        "Ġ",
        "is"
      ],
      [
        "c",
        "e"
      ],
      [
        "Ġa",
        "p"
      ],
      [
        "Ġc",
        "on"
      ],
      [
        "o",
        "s"
      ],
      [
        "an",
        "d"
      ],
      [
        "Ġ",
        "1"
      ],
      [
        "Ġth",
        "at"
      ],
      [
        "a",
        "k"
      ],
      [
        "'",
        "s"
      ],
      [
        "a",
        "g"
      ],
      [
        "Ġ",
        "he"
      ],
      [
        "Ġne",
        "w"
      ],
      [
        ".",
        "."
      ],
      [
        "o",
        "re"
      ],
      [
        "Ġa",
        "f"
      ],
      [
        "r",
        "i"
      ],
      [
        "k",
        "s"
      ],
      [
        "m",
        "p"
      ],
      [
        "u",
        "g"
      ],
      [
        "Ġs",
        "a"
      ],
      [
        "Ġ",
        "i"
      ],
      [
        "re",
        "s"
      ],
      [
        "o",
        "p"
      ],
      [
        "e",
        "ar"
      ],
      [
        "Ġ",
        "un"
      ],
      [
        "Ġs",
        "p"
      ],
      [
        "u",
        "ters"
      ],
      [
        "Ġb",
        "y"
      ],
      [
        "Ġa",
        "l"
      ],
      [
        "o",
        "c"
      ],
      [
        "Ġ",
        "us"
      ],
      [
        "m",
        "ent"
      ],
      [
        "al",
        "l"
      ],
      [
        "Ġre",
        "uters"
      ],
      [
        "Ġl",
        "e"
      ],
      [
        "Ġw",
        "h"
      ],
      [
        "a",
        "in"
      ],
      [
        "Ġe",
        "x"
      ],
      [
        "c",
        "t"
      ],
      [
        "Ġ",
        "qu"
      ],
      [
        "as",
        "t"
      ],
      [
        "Ġ",
        "2"
      ],
      [
        "Ġit",
        "s"
      ],
      [
        "0",
        "0"
      ],
      [
        "Ġp",
        "l"
      ],
      [
        "o",
        "o"
      ],
      [
        "i",
        "a"
      ],
      [
        "a",
        "p"
      ],
      [
        "i",
        "an"
      ],
      [
        "at",
        "e"
      ],
      [
        "us",
        "t"
      ],
      [
        "Ġcom",
        "p"
      ],
      [
        "Ġsa",
        "id"
      ],
      [
        "is",
        "t"
      ],
      [
        "ro",
        "m"
      ],
      [
        "igh",
        "t"
      ],
      [
        "e",
        "e"
      ],
      [
        "Ġw",
        "as"
      ],
      [
        "en",
        "d"
      ],
      [
        "Ġh",
        "as"
      ],
      [
        "Ġof",
        "f"
      ],
      [
        "or",
        "t"
      ],
      [
        "Ġf",
        "rom"
      ],
      [
        "i",
        "es"
      ],
      [
        "Ġs",
        "o"
      ],
      [
        "ol",
        "d"
      ],
      [
        "es",
        "s"
      ],
      [
        "he",
        "n"
      ],
      [
        "f",
        "t"
      ],
      [
        "Ġ",
        "up"
      ],
      [
        "u",
        "m"
      ],
      [
        "u",
        "d"
      ],
      [
        "it",
        "y"
      ],
      [
        "i",
        "al"
      ],
      [
        "Ġa",
        "g"
      ],
      [
        "un",
        "d"
      ],
      [
        "Ġc",
        "l"
      ],
      [
        "in",
        "e"
      ],
      [
        "r",
        "ic"
      ],
      [
        "Ġ",
        "ro"
      ],
      [
        "Ġs",
        "e"
      ],
      [
        "ac",
        "k"
      ],
      [
        "ar",
        "t"
      ],
      [
        "Ġw",
        "or"
      ],
      [
        "Ġh",
        "is"
      ],
      [
        "i",
        "p"
      ],
      [
        "u",
        "b"
      ],
      [
        "Ġm",
        "on"
      ],
      [
        "a",
        "ve"
      ],
      [
        "Ġaf",
        "ter"
      ],
      [
        "a",
        "re"
      ],
      [
        "Ġo",
        "ly"
      ],
      [
        "Ġoly",
        "mp"
      ],
      [
        "Ġo",
        "ver"
      ],
      [
        "Ġw",
        "ill"
      ],
      [
        "ar",
        "d"
      ],
      [
        "Ġm",
        "o"
      ],
      [
        "Ġolymp",
        "ic"
      ],
      [
        "es",
        "day"
      ],
      [
        "r",
        "y"
      ],
      [
        "Ġ",
        "u"
      ],
      [
        "Ġs",
        "ec"
      ],
      [
        "i",
        "ve"
      ],
      [
        "Ġm",
        "ar"
      ],
      [
        "Ġin",
        "c"
      ],
      [
        "i",
        "f"
      ],
      [
        "Ġw",
        "in"
      ],
      [
        "Ġa",
        "c"
      ],
      [
        "er",
        "e"
      ],
      [
        "m",
        "er"
      ],
      [
        "a",
        "b"
      ],
      [
        "Ġf",
        "ir"
      ],
      [
        "i",
        "v"
      ],
      [
        "o",
        "ur"
      ],
      [
        "ec",
        "t"
      ],
      [
        "..",
        "."
      ],
      [
        "el",
        "l"
      ],
      [
        "on",
        "g"
      ],
      [
        "l",
        "d"
      ],
      [
        "Ġo",
        "p"
      ],
      [
        "Ġt",
        "w"
      ],
      [
        "Ġt",
        "e"
      ],
      [
        "Ġl",
        "t"
      ],
      [
        "Ġre",
        "p"
      ],
      [
        "Ġo",
        "ut"
      ],
      [
        "Ġre",
        "s"
      ],
      [
        "Ġin",
        "t"
      ],
      [
        "e",
        "m"
      ],
      [
        "re",
        "e"
      ],
      [
        "Ġf",
        "r"
      ],
      [
        "g",
        "e"
      ],
      [
        "Ġex",
        "p"
      ],
      [
        "Ġf",
        "in"
      ],
      [
        "Ġa",
        "b"
      ],
      [
        "Ġa",
        "re"
      ],
      [
        "ul",
        "d"
      ],
      [
        "ay",
        "s"
      ],
      [
        "ic",
        "e"
      ],
      [
        "Ġ",
        "en"
      ],
      [
        "Ġg",
        "t"
      ],
      [
        "Ġh",
        "ave"
      ],
      [
        "Ġg",
        "o"
      ],
      [
        "ra",
        "q"
      ],
      [
        "on",
        "d"
      ],
      [
        "i",
        "e"
      ],
      [
        "Ġ",
        "ra"
      ],
      [
        "an",
        "t"
      ],
      [
        "Ġi",
        "raq"
      ],
      [
        "Ġa",
        "r"
      ],
      [
        "Ġin",
        "ter"
      ],
      [
        "om",
        "e"
      ],
      [
        "Ġ-",
        "-"
      ],
      [
        "an",
        "s"
      ],
      [
        "n",
        "ing"
      ],
      [
        "an",
        "y"
      ],
      [
        "Ġa",
        "d"
      ],
      [
        "hen",
        "s"
      ],
      [
        "Ġqu",
        "ot"
      ],
      [
        "Ġtw",
        "o"
      ],
      [
        "Ġm",
        "ed"
      ],
      [
        "Ġg",
        "ro"
      ],
      [
        "or",
        "d"
      ],
      [
        "Ġs",
        "c"
      ],
      [
        "Ġat",
        "hens"
      ],
      [
        "Ġb",
        "ut"
      ],
      [
        "i",
        "re"
      ],
      [
        "o",
        "st"
      ],
      [
        "o",
        "ut"
      ],
      [
        "ag",
        "e"
      ],
      [
        "ion",
        "s"
      ],
      [
        "or",
        "k"
      ],
      [
        "Ġs",
        "er"
      ],
      [
        "Ġb",
        "l"
      ],
      [
        "ac",
        "e"
      ],
      [
        "im",
        "e"
      ],
      [
        "Ġp",
        "res"
      ],
      [
        "u",
        "c"
      ],
      [
        "Ġb",
        "r"
      ],
      [
        "k",
        "e"
      ],
      [
        "il",
        "e"
      ],
      [
        "Ġap",
        "p"
      ],
      [
        "Ġfir",
        "st"
      ],
      [
        "Ġre",
        "c"
      ],
      [
        "Ġthe",
        "ir"
      ],
      [
        "Ġm",
        "ore"
      ],
      [
        "s",
        "e"
      ],
      [
        "ar",
        "g"
      ],
      [
        "Ġg",
        "old"
      ],
      [
        "Ġo",
        "il"
      ],
      [
        "Ġp",
        "e"
      ],
      [
        "k",
        "et"
      ],
      [
        "u",
        "re"
      ],
      [
        "Ġp",
        "ric"
      ],
      [
        "a",
        "il"
      ],
      [
        "Ġy",
        "ear"
      ],
      [
        "id",
        "e"
      ],
      [
        "ug",
        "h"
      ],
      [
        "is",
        "h"
      ],
      [
        "Ġn",
        "ot"
      ],
      [
        "ig",
        "n"
      ],
      [
        "it",
        "e"
      ],
      [
        "Ġd",
        "is"
      ],
      [
        "Ġp",
        "er"
      ],
      [
        "Ġcon",
        "t"
      ],
      [
        "o",
        "us"
      ],
      [
        "Ġo",
        "r"
      ],
      [
        "u",
        "e"
      ],
      [
        "Ġin",
        "d"
      ],
      [
        "or",
        "s"
      ],
      [
        "ur",
        "s"
      ],
      [
        "Ġc",
        "r"
      ],
      [
        "Ġb",
        "an"
      ],
      [
        "a",
        "v"
      ],
      [
        "ee",
        "k"
      ],
      [
        "Ġst",
        "oc"
      ],
      [
        "ill",
        "ion"
      ],
      [
        "ow",
        "n"
      ],
      [
        "a",
        "j"
      ],
      [
        "he",
        "d"
      ],
      [
        "un",
        "t"
      ],
      [
        "Ġt",
        "ra"
      ],
      [
        "ro",
        "s"
      ],
      [
        "Ġm",
        "ic"
      ],
      [
        "as",
        "e"
      ],
      [
        "Ġc",
        "an"
      ],
      [
        "at",
        "es"
      ],
      [
        "Ġth",
        "is"
      ],
      [
        "Ġg",
        "am"
      ],
      [
        "d",
        "er"
      ],
      [
        "Ġwor",
        "ld"
      ],
      [
        "Ġj",
        "o"
      ],
      [
        "Ġon",
        "e"
      ],
      [
        "Ġat",
        "t"
      ],
      [
        "f",
        "f"
      ],
      [
        "id",
        "ent"
      ],
      [
        "Ġle",
        "ad"
      ],
      [
        "Ġac",
        "c"
      ],
      [
        "Ġb",
        "us"
      ],
      [
        "id",
        "ay"
      ],
      [
        "Ġf",
        "l"
      ],
      [
        "am",
        "p"
      ],
      [
        "Ġmon",
        "day"
      ],
      [
        "l",
        "ic"
      ],
      [
        "Ġm",
        "an"
      ],
      [
        "Ġm",
        "in"
      ],
      [
        "Ġd",
        "o"
      ],
      [
        "Ġth",
        "urs"
      ],
      [
        "Ġthurs",
        "day"
      ],
      [
        "Ġin",
        "v"
      ],
      [
        "ation",
        "s"
      ],
      [
        "at",
        "h"
      ],
      [
        "Ġinter",
        "n"
      ],
      [
        "as",
        "s"
      ],
      [
        "Ġcomp",
        "any"
      ],
      [
        "t",
        "on"
      ],
      [
        "Ġg",
        "re"
      ],
      [
        "Ġh",
        "igh"
      ],
      [
        "Ġ2",
        "00"
      ],
      [
        "en",
        "s"
      ],
      [
        "Ġp",
        "ol"
      ],
      [
        "Ġfr",
        "iday"
      ],
      [
        "Ġg",
        "oo"
      ],
      [
        "Ġm",
        "il"
      ],
      [
        "Ġt",
        "u"
      ],
      [
        "Ġw",
        "e"
      ],
      [
        "al",
        "s"
      ],
      [
        "Ġtu",
        "esday"
      ],
      [
        "ak",
        "e"
      ],
      [
        "Ġag",
        "ain"
      ],
      [
        "Ġal",
        "l"
      ],
      [
        "on",
        "e"
      ],
      [
        "it",
        "ed"
      ],
      [
        "Ġa",
        "ir"
      ],
      [
        "an",
        "ce"
      ],
      [
        "i",
        "z"
      ],
      [
        "Ġth",
        "an"
      ],
      [
        "Ġ",
        "4"
      ],
      [
        "Ġb",
        "o"
      ],
      [
        "en",
        "ce"
      ],
      [
        "Ġ",
        "im"
      ],
      [
        "Ġw",
        "ed"
      ],
      [
        "Ġy",
        "ork"
      ],
      [
        "ation",
        "al"
      ],
      [
        "es",
        "ter"
      ],
      [
        "ar",
        "y"
      ],
      [
        "b",
        "er"
      ],
      [
        "h",
        "n"
      ],
      [
        "Ġc",
        "or"
      ],
      [
        "at",
        "ed"
      ],
      [
        "a",
        "w"
      ],
      [
        "n",
        "esday"
      ],
      [
        "Ġwed",
        "nesday"
      ],
      [
        "Ġw",
        "eek"
      ],
      [
        "Ġs",
        "un"
      ],
      [
        "Ġs",
        "et"
      ],
      [
        "or",
        "y"
      ],
      [
        "Ġint",
        "o"
      ],
      [
        "Ġs",
        "l"
      ],
      [
        "Ġn",
        "o"
      ],
      [
        "in",
        "a"
      ],
      [
        "it",
        "ion"
      ],
      [
        "is",
        "s"
      ],
      [
        "an",
        "c"
      ],
      [
        "Ġoff",
        "ic"
      ],
      [
        "a",
        "f"
      ],
      [
        "Ġw",
        "ar"
      ],
      [
        "Ġa",
        "mer"
      ],
      [
        "ac",
        "h"
      ],
      [
        "Ġpric",
        "es"
      ],
      [
        "ver",
        "s"
      ],
      [
        "Ġamer",
        "ic"
      ],
      [
        "Ġl",
        "ast"
      ],
      [
        "Ġte",
        "am"
      ],
      [
        "Ġwh",
        "o"
      ],
      [
        "o",
        "uld"
      ],
      [
        "Ġthe",
        "y"
      ],
      [
        "et",
        "w"
      ],
      [
        "Ġrep",
        "ort"
      ],
      [
        "ver",
        "n"
      ],
      [
        "o",
        "g"
      ],
      [
        "ut",
        "h"
      ],
      [
        "Ġb",
        "u"
      ],
      [
        "ur",
        "n"
      ],
      [
        "Ġe",
        "ar"
      ],
      [
        "ic",
        "k"
      ],
      [
        "o",
        "und"
      ],
      [
        "Ġ",
        "end"
      ],
      [
        "Ġgo",
        "vern"
      ],
      [
        "Ġab",
        "out"
      ],
      [
        "ear",
        "ch"
      ],
      [
        "Ġpl",
        "an"
      ],
      [
        "Ġsec",
        "ond"
      ],
      [
        "ic",
        "h"
      ],
      [
        "le",
        "ct"
      ],
      [
        "Ġre",
        "t"
      ],
      [
        "Ġa",
        "ug"
      ],
      [
        "Ġpro",
        "f"
      ],
      [
        "u",
        "ct"
      ],
      [
        "e",
        "y"
      ],
      [
        "Ġmil",
        "it"
      ],
      [
        "ic",
        "t"
      ],
      [
        "Ġp",
        "h"
      ],
      [
        "Ġth",
        "ree"
      ],
      [
        "us",
        "s"
      ],
      [
        "o",
        "ft"
      ],
      [
        "d",
        "s"
      ],
      [
        "h",
        "ing"
      ],
      [
        "Ġs",
        "y"
      ],
      [
        "ro",
        "p"
      ],
      [
        "Ġpres",
        "ident"
      ],
      [
        "Ġw",
        "ere"
      ],
      [
        "Ġcor",
        "p"
      ],
      [
        "Ġoffic",
        "ial"
      ],
      [
        "o",
        "un"
      ],
      [
        "ic",
        "al"
      ],
      [
        "m",
        "s"
      ],
      [
        "r",
        "al"
      ],
      [
        "Ġm",
        "e"
      ],
      [
        "Ġgovern",
        "ment"
      ],
      [
        "Ġstoc",
        "ks"
      ],
      [
        "Ġcom",
        "m"
      ],
      [
        "Ġmed",
        "al"
      ],
      [
        "ow",
        "s"
      ],
      [
        "Ġp",
        "re"
      ],
      [
        "Ġl",
        "i"
      ],
      [
        "th",
        "er"
      ],
      [
        "l",
        "o"
      ],
      [
        "Ġk",
        "ill"
      ],
      [
        "Ġagain",
        "st"
      ],
      [
        "Ġser",
        "v"
      ],
      [
        "t",
        "le"
      ],
      [
        "ar",
        "ter"
      ],
      [
        "Ġa",
        "m"
      ],
      [
        "Ġs",
        "at"
      ],
      [
        "t",
        "ing"
      ],
      [
        "c",
        "om"
      ],
      [
        "Ġs",
        "w"
      ],
      [
        "Ġs",
        "al"
      ],
      [
        "v",
        "el"
      ],
      [
        "Ġinv",
        "est"
      ],
      [
        "re",
        "n"
      ],
      [
        "Ġsun",
        "day"
      ],
      [
        "Ġmic",
        "ros"
      ],
      [
        "Ġy",
        "ester"
      ],
      [
        "Ġyester",
        "day"
      ],
      [
        "Ġan",
        "n"
      ],
      [
        "l",
        "ed"
      ],
      [
        "c",
        "o"
      ],
      [
        "Ġs",
        "up"
      ],
      [
        "Ġbe",
        "en"
      ],
      [
        "Ġmar",
        "ket"
      ],
      [
        "at",
        "ing"
      ],
      [
        "Ġun",
        "ited"
      ],
      [
        "v",
        "en"
      ],
      [
        "Ġ",
        "..."
      ],
      [
        "l",
        "p"
      ],
      [
        "ow",
        "er"
      ],
      [
        "or",
        "ts"
      ],
      [
        "g",
        "le"
      ],
      [
        "Ġw",
        "hen"
      ],
      [
        "Ġp",
        "r"
      ],
      [
        "as",
        "ed"
      ],
      [
        "Ġmicros",
        "oft"
      ],
      [
        "ur",
        "t"
      ],
      [
        "Ġpl",
        "ay"
      ],
      [
        "Ġh",
        "ad"
      ],
      [
        "i",
        "b"
      ],
      [
        "Ġd",
        "es"
      ],
      [
        "Ġban",
        "k"
      ],
      [
        "Ġm",
        "ay"
      ],
      [
        "m",
        "an"
      ],
      [
        "aj",
        "af"
      ],
      [
        "it",
        "s"
      ],
      [
        "Ġpe",
        "op"
      ],
      [
        "Ġb",
        "ro"
      ],
      [
        "Ġb",
        "ack"
      ],
      [
        "Ġp",
        "art"
      ],
      [
        "he",
        "s"
      ],
      [
        "Ġsec",
        "ur"
      ],
      [
        "Ġn",
        "ajaf"
      ],
      [
        "Ġcon",
        "s"
      ],
      [
        "Ġd",
        "own"
      ],
      [
        "l",
        "es"
      ],
      [
        "Ġde",
        "f"
      ],
      [
        "c",
        "ent"
      ],
      [
        "Ġre",
        "g"
      ],
      [
        "Ġf",
        "our"
      ],
      [
        "Ġm",
        "illion"
      ],
      [
        "ol",
        "l"
      ],
      [
        "Ġs",
        "ur"
      ],
      [
        "Ġaf",
        "p"
      ],
      [
        "Ġco",
        "uld"
      ],
      [
        "c",
        "on"
      ],
      [
        "Ġgro",
        "up"
      ],
      [
        "Ġ",
        "6"
      ],
      [
        "et",
        "s"
      ],
      [
        "Ġs",
        "ays"
      ],
      [
        "Ġst",
        "r"
      ],
      [
        "Ġfin",
        "al"
      ],
      [
        "is",
        "e"
      ],
      [
        "Ġgoo",
        "gle"
      ],
      [
        "Ġ",
        "5"
      ],
      [
        "Ġc",
        "ap"
      ],
      [
        "er",
        "al"
      ],
      [
        "g",
        "ed"
      ],
      [
        "is",
        "ts"
      ],
      [
        "Ġl",
        "os"
      ],
      [
        "am",
        "e"
      ],
      [
        "ul",
        "l"
      ],
      [
        "Ġco",
        "unt"
      ],
      [
        "w",
        "are"
      ],
      [
        "Ġd",
        "ec"
      ],
      [
        "Ġpeop",
        "le"
      ],
      [
        "Ġm",
        "us"
      ],
      [
        "ac",
        "t"
      ],
      [
        "Ġs",
        "ome"
      ],
      [
        "Ġso",
        "ft"
      ],
      [
        "l",
        "ine"
      ],
      [
        "is",
        "ter"
      ],
      [
        "p",
        "o"
      ],
      [
        "Ġm",
        "ak"
      ],
      [
        "b",
        "all"
      ],
      [
        "l",
        "and"
      ],
      [
        "or",
        "m"
      ],
      [
        "Ġn",
        "ight"
      ],
      [
        "Ġr",
        "uss"
      ],
      [
        "Ġwh",
        "ich"
      ],
      [
        "Ġw",
        "ould"
      ],
      [
        "ect",
        "ed"
      ],
      [
        "Ġt",
        "er"
      ],
      [
        "or",
        "n"
      ],
      [
        "c",
        "y"
      ],
      [
        "Ġa",
        "ust"
      ],
      [
        "Ġc",
        "ar"
      ],
      [
        "Ġrec",
        "ord"
      ],
      [
        "it",
        "al"
      ],
      [
        "ub",
        "lic"
      ],
      [
        "Ġolympic",
        "s"
      ],
      [
        "c",
        "ed"
      ],
      [
        "ad",
        "e"
      ],
      [
        "Ġso",
        "uth"
      ],
      [
        "Ġper",
        "cent"
      ],
      [
        "Ġm",
        "en"
      ],
      [
        "Ġl",
        "ong"
      ],
      [
        "k",
        "ed"
      ],
      [
        "ul",
        "t"
      ],
      [
        "Ġt",
        "ec"
      ],
      [
        "Ġg",
        "u"
      ],
      [
        "Ġb",
        "ec"
      ],
      [
        "in",
        "es"
      ],
      [
        "Ġj",
        "ust"
      ],
      [
        "Ġt",
        "al"
      ],
      [
        "p",
        "t"
      ],
      [
        "o",
        "u"
      ],
      [
        "Ġt",
        "ime"
      ],
      [
        "ot",
        "h"
      ],
      [
        "Ġch",
        "ina"
      ],
      [
        "i",
        "er"
      ],
      [
        "w",
        "n"
      ],
      [
        "ab",
        "le"
      ],
      [
        "Ġde",
        "m"
      ],
      [
        "Ġt",
        "ri"
      ],
      [
        "Ġintern",
        "et"
      ],
      [
        "p",
        "ort"
      ],
      [
        "Ġto",
        "p"
      ],
      [
        "Ġop",
        "en"
      ],
      [
        "Ġgam",
        "es"
      ],
      [
        "Ġto",
        "day"
      ],
      [
        "Ġnew",
        "s"
      ],
      [
        "p",
        "h"
      ],
      [
        "in",
        "ess"
      ],
      [
        "Ġpro",
        "d"
      ],
      [
        "u",
        "al"
      ],
      [
        "Ġbr",
        "it"
      ],
      [
        "i",
        "x"
      ],
      [
        "ic",
        "s"
      ],
      [
        "Ġmin",
        "ister"
      ],
      [
        "Ġre",
        "b"
      ],
      [
        "Ġe",
        "lect"
      ],
      [
        "Ġsecur",
        "ity"
      ],
      [
        "c",
        "es"
      ],
      [
        "el",
        "y"
      ],
      [
        "Ġb",
        "ig"
      ],
      [
        "k",
        "ing"
      ],
      [
        "el",
        "s"
      ],
      [
        "Ġyear",
        "s"
      ],
      [
        "st",
        "em"
      ],
      [
        "ur",
        "day"
      ],
      [
        "Ġsat",
        "urday"
      ],
      [
        "an",
        "g"
      ],
      [
        "ir",
        "d"
      ],
      [
        "Ġres",
        "earch"
      ],
      [
        "Ġt",
        "r"
      ],
      [
        "Ġr",
        "un"
      ],
      [
        "b",
        "s"
      ],
      [
        "Ġin",
        "f"
      ],
      [
        "Ġco",
        "urt"
      ],
      [
        "Ġd",
        "ay"
      ],
      [
        "Ġaust",
        "ral"
      ],
      [
        "Ġas",
        "s"
      ],
      [
        "Ġbus",
        "iness"
      ],
      [
        "Ġsoft",
        "ware"
      ],
      [
        "Ġf",
        "ed"
      ],
      [
        "Ġw",
        "om"
      ],
      [
        "p",
        "os"
      ],
      [
        "d",
        "e"
      ],
      [
        "Ġcon",
        "f"
      ],
      [
        "Ġoff",
        "er"
      ],
      [
        "v",
        "ent"
      ],
      [
        "Ġre",
        "le"
      ],
      [
        "le",
        "t"
      ],
      [
        "hing",
        "ton"
      ],
      [
        "Ġhe",
        "lp"
      ],
      [
        "Ġh",
        "er"
      ],
      [
        "Ġsy",
        "stem"
      ],
      [
        "Ġd",
        "el"
      ],
      [
        "ist",
        "an"
      ],
      [
        "Ġc",
        "ity"
      ],
      [
        "Ġsal",
        "es"
      ],
      [
        "x",
        "t"
      ],
      [
        "Ġann",
        "oun"
      ],
      [
        "Ġs",
        "u"
      ],
      [
        "Ġc",
        "ol"
      ],
      [
        "Ġf",
        "e"
      ],
      [
        "it",
        "ies"
      ],
      [
        "Ġe",
        "u"
      ],
      [
        "Ġe",
        "con"
      ],
      [
        "Ġecon",
        "om"
      ],
      [
        "l",
        "ing"
      ],
      [
        "Ġv",
        "ict"
      ],
      [
        "Ġmon",
        "th"
      ],
      [
        "and",
        "s"
      ],
      [
        "Ġwas",
        "hington"
      ],
      [
        "a",
        "res"
      ],
      [
        "Ġne",
        "ar"
      ],
      [
        "ot",
        "e"
      ],
      [
        "Ġc",
        "all"
      ],
      [
        "a",
        "z"
      ],
      [
        "Ġ",
        "8"
      ],
      [
        "Ġp",
        "o"
      ],
      [
        "Ġst",
        "ates"
      ],
      [
        "r",
        "or"
      ],
      [
        "Ġqu",
        "arter"
      ],
      [
        "Ġs",
        "he"
      ],
      [
        "Ġw",
        "on"
      ],
      [
        "Ġameric",
        "an"
      ],
      [
        "c",
        "k"
      ],
      [
        "in",
        "s"
      ],
      [
        "le",
        "y"
      ],
      [
        "Ġst",
        "e"
      ],
      [
        "Ġgro",
        "w"
      ],
      [
        "Ġ",
        "x"
      ],
      [
        "us",
        "e"
      ],
      [
        "Ġde",
        "al"
      ],
      [
        "Ġwin",
        "d"
      ],
      [
        "er",
        "n"
      ],
      [
        "at",
        "er"
      ],
      [
        "Ġch",
        "amp"
      ],
      [
        "as",
        "on"
      ],
      [
        "oo",
        "d"
      ],
      [
        "os",
        "e"
      ],
      [
        "a",
        "ir"
      ],
      [
        "i",
        "ent"
      ],
      [
        "Ġh",
        "ome"
      ],
      [
        "ol",
        "og"
      ],
      [
        "i",
        "ous"
      ],
      [
        "Ġc",
        "he"
      ],
      [
        "at",
        "ch"
      ],
      [
        "ee",
        "p"
      ],
      [
        "Ġs",
        "ay"
      ],
      [
        "ing",
        "s"
      ],
      [
        "in",
        "t"
      ],
      [
        "o",
        "k"
      ],
      [
        "ap",
        "an"
      ],
      [
        "Ġofficial",
        "s"
      ],
      [
        "Ġc",
        "ut"
      ],
      [
        "Ġst",
        "ate"
      ],
      [
        "i",
        "ed"
      ],
      [
        "Ġp",
        "ar"
      ],
      [
        "Ġj",
        "apan"
      ],
      [
        "Ġen",
        "g"
      ],
      [
        "Ġs",
        "m"
      ],
      [
        "Ġne",
        "xt"
      ],
      [
        "v",
        "ed"
      ],
      [
        "Ġ",
        "7"
      ],
      [
        "w",
        "ay"
      ],
      [
        "Ġf",
        "ore"
      ],
      [
        "an",
        "ge"
      ],
      [
        "p",
        "ed"
      ],
      [
        "Ġh",
        "ol"
      ],
      [
        "as",
        "h"
      ],
      [
        "Ġj",
        "u"
      ],
      [
        "Ġt",
        "arg"
      ],
      [
        "Ġl",
        "a"
      ],
      [
        "Ġbu",
        "y"
      ],
      [
        "ec",
        "e"
      ],
      [
        "Ġre",
        "l"
      ],
      [
        "Ġwom",
        "en"
      ],
      [
        "Ġserv",
        "ice"
      ],
      [
        "on",
        "t"
      ],
      [
        "Ġn",
        "or"
      ],
      [
        "Ġtec",
        "hn"
      ],
      [
        "00",
        "0"
      ],
      [
        "en",
        "e"
      ],
      [
        "Ġun",
        "der"
      ],
      [
        "Ġprof",
        "it"
      ],
      [
        "i",
        "o"
      ],
      [
        "ro",
        "ugh"
      ],
      [
        "Ġ1",
        "0"
      ],
      [
        "Ġm",
        "iss"
      ],
      [
        "ment",
        "s"
      ],
      [
        "Ġn",
        "etw"
      ],
      [
        "Ġp",
        "ost"
      ],
      [
        "Ġg",
        "ian"
      ],
      [
        "Ġd",
        "r"
      ],
      [
        "ur",
        "ing"
      ],
      [
        "Ġbus",
        "h"
      ],
      [
        "Ġy",
        "ou"
      ],
      [
        "n",
        "er"
      ],
      [
        "Ġup",
        "d"
      ],
      [
        "a",
        "im"
      ],
      [
        "ra",
        "el"
      ],
      [
        "g",
        "er"
      ],
      [
        "Ġst",
        "ri"
      ],
      [
        "Ġbe",
        "f"
      ],
      [
        "a",
        "h"
      ],
      [
        "Ġre",
        "f"
      ],
      [
        "Ġim",
        "p"
      ],
      [
        "Ġ",
        "ed"
      ],
      [
        "Ġmo",
        "st"
      ],
      [
        "Ġs",
        "us"
      ],
      [
        "Ġjo",
        "hn"
      ],
      [
        "Ġbef",
        "ore"
      ],
      [
        "Ġn",
        "ational"
      ],
      [
        "Ġis",
        "rael"
      ],
      [
        "res",
        "s"
      ],
      [
        "Ġwind",
        "ows"
      ],
      [
        "Ġg",
        "et"
      ],
      [
        "Ġcount",
        "ry"
      ],
      [
        "Ġt",
        "ak"
      ],
      [
        "Ġs",
        "ign"
      ],
      [
        "vel",
        "op"
      ],
      [
        "Ġb",
        "at"
      ],
      [
        "ac",
        "ks"
      ],
      [
        "Ġcan",
        "ad"
      ],
      [
        "w",
        "ard"
      ],
      [
        "Ġb",
        "re"
      ],
      [
        "Ġb",
        "illion"
      ],
      [
        "Ġiraq",
        "i"
      ],
      [
        "Ġgre",
        "ece"
      ],
      [
        "i",
        "el"
      ],
      [
        "Ġt",
        "ro"
      ],
      [
        "h",
        "an"
      ],
      [
        "Ġpro",
        "t"
      ],
      [
        "b",
        "e"
      ],
      [
        "v",
        "es"
      ],
      [
        "Ġc",
        "re"
      ],
      [
        "an",
        "ts"
      ],
      [
        "Ġtal",
        "ks"
      ],
      [
        "Ġgam",
        "e"
      ],
      [
        "Ġter",
        "ror"
      ],
      [
        "Ġsh",
        "i"
      ],
      [
        "Ġsh",
        "ares"
      ],
      [
        "d",
        "ing"
      ],
      [
        "Ġsh",
        "ow"
      ],
      [
        "Ġop",
        "er"
      ],
      [
        "Ġsus",
        "p"
      ],
      [
        "Ġf",
        "ull"
      ],
      [
        "Ġh",
        "it"
      ],
      [
        "ec",
        "ut"
      ],
      [
        "Ġtarg",
        "et"
      ],
      [
        "Ġco",
        "st"
      ],
      [
        "n",
        "ed"
      ],
      [
        "Ġa",
        "ct"
      ],
      [
        "Ġb",
        "el"
      ],
      [
        "u",
        "res"
      ],
      [
        "Ġt",
        "ake"
      ],
      [
        "Ġst",
        "art"
      ],
      [
        "Ġde",
        "velop"
      ],
      [
        "Ġ1",
        "9"
      ],
      [
        "l",
        "ess"
      ],
      [
        "Ġb",
        "om"
      ],
      [
        "Ġre",
        "m"
      ],
      [
        "Ġv",
        "i"
      ],
      [
        "Ġcl",
        "aim"
      ],
      [
        "Ġvict",
        "ory"
      ],
      [
        "Ġt",
        "est"
      ],
      [
        "Ġb",
        "as"
      ],
      [
        "y",
        "ear"
      ],
      [
        "Ġ",
        "'"
      ],
      [
        "al",
        "if"
      ],
      [
        "Ġi",
        "po"
      ],
      [
        "r",
        "on"
      ],
      [
        "Ġi",
        "f"
      ],
      [
        "Ġp",
        "ublic"
      ],
      [
        "Ġkill",
        "ed"
      ],
      [
        "Ġh",
        "am"
      ],
      [
        "Ġo",
        "ther"
      ],
      [
        "Ġan",
        "t"
      ],
      [
        "ic",
        "es"
      ],
      [
        "Ġintern",
        "ational"
      ],
      [
        "c",
        "ess"
      ],
      [
        "Ġg",
        "en"
      ],
      [
        "oo",
        "k"
      ],
      [
        "h",
        "ip"
      ],
      [
        "l",
        "ud"
      ],
      [
        "u",
        "el"
      ],
      [
        "Ġp",
        "ower"
      ],
      [
        "Ġm",
        "aj"
      ],
      [
        "Ġde",
        "p"
      ],
      [
        "Ġad",
        "v"
      ],
      [
        "Ġt",
        "a"
      ],
      [
        "Ġl",
        "aw"
      ],
      [
        "Ġst",
        "re"
      ],
      [
        "Ġwor",
        "k"
      ],
      [
        "oth",
        "er"
      ],
      [
        "g",
        "est"
      ],
      [
        "Ġmus",
        "ic"
      ],
      [
        "Ġp",
        "os"
      ],
      [
        "Ġin",
        "s"
      ],
      [
        "Ġh",
        "om"
      ],
      [
        "Ġwh",
        "at"
      ],
      [
        "Ġstoc",
        "k"
      ],
      [
        "Ġreport",
        "ed"
      ],
      [
        "on",
        "s"
      ],
      [
        "Ġp",
        "ay"
      ],
      [
        "al",
        "ly"
      ],
      [
        "Ġ200",
        "4"
      ],
      [
        "Ġ",
        "z"
      ],
      [
        "in",
        "u"
      ],
      [
        "Ġf",
        "ound"
      ],
      [
        "it",
        "t"
      ],
      [
        "Ġacc",
        "ord"
      ],
      [
        "Ġre",
        "d"
      ],
      [
        "Ġr",
        "ul"
      ],
      [
        "Ġhe",
        "ad"
      ],
      [
        "Ġp",
        "a"
      ],
      [
        "Ġg",
        "r"
      ],
      [
        "ra",
        "ct"
      ],
      [
        "Ġex",
        "t"
      ],
      [
        "u",
        "ter"
      ],
      [
        "er",
        "ic"
      ],
      [
        "Ġb",
        "ar"
      ],
      [
        "Ġpres",
        "s"
      ],
      [
        "Ġmaj",
        "or"
      ],
      [
        "Ġpl",
        "ans"
      ],
      [
        "Ġpr",
        "ime"
      ],
      [
        "Ġtechn",
        "olog"
      ],
      [
        "m",
        "ed"
      ],
      [
        "is",
        "ion"
      ],
      [
        "ent",
        "s"
      ],
      [
        "Ġpol",
        "ice"
      ],
      [
        "Ġannoun",
        "ced"
      ],
      [
        "p",
        "l"
      ],
      [
        "Ġpro",
        "v"
      ],
      [
        "Ġfed",
        "eral"
      ],
      [
        "Ġupd",
        "ate"
      ],
      [
        "i",
        "am"
      ],
      [
        "Ġth",
        "rough"
      ],
      [
        "Ġe",
        "ver"
      ],
      [
        "Ġ1",
        "5"
      ],
      [
        "re",
        "st"
      ],
      [
        "Ġth",
        "ird"
      ],
      [
        "Ġbe",
        "g"
      ],
      [
        "g",
        "ra"
      ],
      [
        "o",
        "ugh"
      ],
      [
        "Ġf",
        "all"
      ],
      [
        "Ġatt",
        "ack"
      ],
      [
        "Ġaccord",
        "ing"
      ],
      [
        "er",
        "t"
      ],
      [
        "Ġw",
        "ay"
      ],
      [
        "Ġwe",
        "b"
      ],
      [
        "re",
        "at"
      ],
      [
        "Ġwh",
        "ile"
      ],
      [
        "Ġruss",
        "ian"
      ],
      [
        "Ġe",
        "ff"
      ],
      [
        "iv",
        "es"
      ],
      [
        "m",
        "e"
      ],
      [
        "Ġpe",
        "ace"
      ],
      [
        "l",
        "l"
      ],
      [
        "Ġst",
        "ar"
      ],
      [
        "Ġst",
        "ud"
      ],
      [
        "Ġs",
        "an"
      ],
      [
        "n",
        "e"
      ],
      [
        "Ġs",
        "ch"
      ],
      [
        "Ġh",
        "im"
      ],
      [
        "Ġan",
        "g"
      ],
      [
        "on",
        "es"
      ],
      [
        "Ġe",
        "m"
      ],
      [
        "Ġn",
        "ow"
      ],
      [
        "Ġle",
        "ast"
      ],
      [
        "Ġp",
        "ak"
      ],
      [
        "Ġm",
        "ade"
      ],
      [
        "is",
        "ing"
      ],
      [
        "Ġinc",
        "lud"
      ],
      [
        "in",
        "ce"
      ],
      [
        "Ġh",
        "ow"
      ],
      [
        "Ġcomp",
        "uter"
      ],
      [
        "Ġp",
        "ut"
      ],
      [
        "Ġd",
        "at"
      ],
      [
        "b",
        "le"
      ],
      [
        "Ġaustral",
        "ia"
      ],
      [
        "Ġeu",
        "rop"
      ],
      [
        "f",
        "ul"
      ],
      [
        "l",
        "in"
      ],
      [
        "y",
        "s"
      ],
      [
        "Ġs",
        "ud"
      ],
      [
        "Ġfor",
        "mer"
      ],
      [
        "Ġch",
        "arg"
      ],
      [
        "Ġqu",
        "ick"
      ],
      [
        "ie",
        "f"
      ],
      [
        "Ġpric",
        "e"
      ],
      [
        "Ġcons",
        "um"
      ],
      [
        "Ġla",
        "un"
      ],
      [
        "Ġh",
        "old"
      ],
      [
        "Ġf",
        "ight"
      ],
      [
        "Ġeurop",
        "e"
      ],
      [
        "ar",
        "ing"
      ],
      [
        "Ġd",
        "ar"
      ],
      [
        "Ġgrow",
        "th"
      ],
      [
        "a",
        "use"
      ],
      [
        "o",
        "d"
      ],
      [
        "Ġl",
        "arg"
      ],
      [
        "Ġan",
        "other"
      ],
      [
        "Ġbe",
        "at"
      ],
      [
        "Ġind",
        "ust"
      ],
      [
        "Ġbrit",
        "ish"
      ],
      [
        "c",
        "l"
      ],
      [
        "Ġf",
        "ive"
      ],
      [
        "ad",
        "r"
      ],
      [
        "Ġdr",
        "ug"
      ],
      [
        "e",
        "en"
      ],
      [
        "Ġg",
        "er"
      ],
      [
        "ric",
        "an"
      ],
      [
        "Ġpak",
        "istan"
      ],
      [
        "Ġh",
        "ur"
      ],
      [
        "Ġh",
        "op"
      ],
      [
        "il",
        "d"
      ],
      [
        "Ġch",
        "ar"
      ],
      [
        "c",
        "hed"
      ],
      [
        "Ġsp",
        "r"
      ],
      [
        "Ġbom",
        "b"
      ],
      [
        "k",
        "y"
      ],
      [
        "Ġe",
        "l"
      ],
      [
        "end",
        "ing"
      ],
      [
        "Ġhigh",
        "er"
      ],
      [
        "Ġde",
        "b"
      ],
      [
        "Ġcomp",
        "et"
      ],
      [
        "Ġra",
        "d"
      ],
      [
        "Ġf",
        "o"
      ],
      [
        "us",
        "ed"
      ],
      [
        "Ġst",
        "ill"
      ],
      [
        "op",
        "s"
      ],
      [
        "Ġb",
        "oo"
      ],
      [
        "Ġon",
        "line"
      ],
      [
        "es",
        "e"
      ],
      [
        "s",
        "u"
      ],
      [
        "Ġh",
        "al"
      ],
      [
        "ro",
        "w"
      ],
      [
        "Ġre",
        "al"
      ],
      [
        "Ġwin",
        "s"
      ],
      [
        "Ġte",
        "le"
      ],
      [
        "ning",
        "s"
      ],
      [
        "h",
        "a"
      ],
      [
        "Ġc",
        "ent"
      ],
      [
        "Ġtechnolog",
        "y"
      ],
      [
        "'",
        "t"
      ],
      [
        "Ġthe",
        "m"
      ],
      [
        "ec",
        "ts"
      ],
      [
        "Ġch",
        "ip"
      ],
      [
        "Ġsh",
        "r"
      ],
      [
        "Ġsud",
        "an"
      ],
      [
        "p",
        "e"
      ],
      [
        "Ġm",
        "ake"
      ],
      [
        "Ġlead",
        "er"
      ],
      [
        "Ġaug",
        "ust"
      ],
      [
        "Ġgian",
        "t"
      ],
      [
        "Ġ1",
        "00"
      ],
      [
        "Ġmo",
        "b"
      ],
      [
        "m",
        "in"
      ],
      [
        "ot",
        "s"
      ],
      [
        "Ġcl",
        "eric"
      ],
      [
        "Ġs",
        "ix"
      ],
      [
        "is",
        "co"
      ],
      [
        "Ġsh",
        "are"
      ],
      [
        "ie",
        "w"
      ],
      [
        "ure",
        "d"
      ],
      [
        "Ġret",
        "ail"
      ],
      [
        "he",
        "ad"
      ],
      [
        "oc",
        "k"
      ],
      [
        "Ġ",
        "9"
      ],
      [
        "Ġ",
        "ir"
      ],
      [
        "Ġs",
        "ee"
      ],
      [
        "Ġl",
        "o"
      ],
      [
        "etw",
        "een"
      ],
      [
        "u",
        "ch"
      ],
      [
        "Ġb",
        "etween"
      ],
      [
        "Ġth",
        "ere"
      ],
      [
        "Ġac",
        "qu"
      ],
      [
        ".",
        ","
      ],
      [
        "Ġc",
        "amp"
      ],
      [
        "ur",
        "y"
      ],
      [
        "le",
        "g"
      ],
      [
        "ag",
        "ue"
      ],
      [
        "Ġcont",
        "ro"
      ],
      [
        "ro",
        "und"
      ],
      [
        "re",
        "ed"
      ],
      [
        "Ġb",
        "id"
      ],
      [
        "Ġro",
        "und"
      ],
      [
        "Ġnetw",
        "ork"
      ],
      [
        "iel",
        "d"
      ],
      [
        "Ġse",
        "ason"
      ],
      [
        "f",
        "o"
      ],
      [
        "Ġb",
        "ra"
      ],
      [
        "Ġde",
        "ad"
      ],
      [
        "Ġs",
        "il"
      ],
      [
        "re",
        "f"
      ],
      [
        "Ġn",
        "as"
      ],
      [
        "Ġinvest",
        "ors"
      ],
      [
        "Ġnor",
        "th"
      ],
      [
        "Ġdat",
        "a"
      ],
      [
        "Ġs",
        "ing"
      ],
      [
        "Ġinc",
        "re"
      ],
      [
        "Ġret",
        "urn"
      ],
      [
        "Ġd",
        "rop"
      ],
      [
        "Ġcl",
        "os"
      ],
      [
        "if",
        "f"
      ],
      [
        "uct",
        "ion"
      ],
      [
        "s",
        "on"
      ],
      [
        "Ġc",
        "le"
      ],
      [
        "at",
        "or"
      ],
      [
        "Ġ",
        "ver"
      ],
      [
        "Ġh",
        "ref"
      ],
      [
        "Ġcomp",
        "an"
      ],
      [
        "z",
        "e"
      ],
      [
        "Ġf",
        "ace"
      ],
      [
        "Ġexp",
        "l"
      ],
      [
        "Ġs",
        "old"
      ],
      [
        "Ġin",
        "j"
      ],
      [
        "Ġon",
        "ly"
      ],
      [
        "Ġk",
        "n"
      ],
      [
        "Ġsh",
        "ar"
      ],
      [
        "Ġmob",
        "ile"
      ],
      [
        "6",
        "6"
      ],
      [
        "Ġcompan",
        "ies"
      ],
      [
        "in",
        "d"
      ],
      [
        "Ġj",
        "ud"
      ],
      [
        "ian",
        "s"
      ],
      [
        "Ġmilit",
        "ary"
      ],
      [
        "Ġstr",
        "ong"
      ],
      [
        "i",
        "k"
      ],
      [
        "Ġw",
        "al"
      ],
      [
        "al",
        "y"
      ],
      [
        "Ġre",
        "v"
      ],
      [
        "at",
        "ors"
      ],
      [
        "Ġre",
        "st"
      ],
      [
        "Ġar",
        "rest"
      ],
      [
        "ire",
        "d"
      ],
      [
        "Ġapp",
        "le"
      ],
      [
        "Ġprod",
        "uc"
      ],
      [
        "i",
        "vers"
      ],
      [
        "r",
        "ation"
      ],
      [
        "Ġp",
        "c"
      ],
      [
        "Ġbe",
        "ing"
      ],
      [
        "Ġcon",
        "c"
      ],
      [
        "Ġle",
        "g"
      ],
      [
        "are",
        "d"
      ],
      [
        "c",
        "hes"
      ],
      [
        "Ġf",
        "il"
      ],
      [
        "at",
        "est"
      ],
      [
        "ap",
        "p"
      ],
      [
        "Ġlarg",
        "est"
      ],
      [
        "s",
        "h"
      ],
      [
        "Ġm",
        "id"
      ],
      [
        "Ġse",
        "m"
      ],
      [
        "Ġfir",
        "m"
      ],
      [
        "Ġatt",
        "acks"
      ],
      [
        "Ġdo",
        "ub"
      ],
      [
        "Ġdes",
        "p"
      ],
      [
        "Ġvi",
        "ol"
      ],
      [
        "Ġa",
        "v"
      ],
      [
        "er",
        "ed"
      ],
      [
        "al",
        "th"
      ],
      [
        "Ġle",
        "ague"
      ],
      [
        "Ġst",
        "and"
      ],
      [
        "Ġle",
        "ft"
      ],
      [
        "Ġ2",
        "0"
      ],
      [
        "Ġcap",
        "ital"
      ],
      [
        "Ġs",
        "ince"
      ],
      [
        "ul",
        "ar"
      ],
      [
        "Ġar",
        "m"
      ],
      [
        "f",
        "ur"
      ],
      [
        "Ġc",
        "alif"
      ],
      [
        "ag",
        "o"
      ],
      [
        "t",
        "y"
      ],
      [
        "Ġo",
        "wn"
      ],
      [
        "Ġp",
        "at"
      ],
      [
        "Ġe",
        "ven"
      ],
      [
        "Ġst",
        "ra"
      ],
      [
        "Ġmak",
        "er"
      ],
      [
        "Ġdar",
        "fur"
      ],
      [
        "i",
        "um"
      ],
      [
        "t",
        "o"
      ],
      [
        "Ġin",
        "it"
      ],
      [
        "oll",
        "ar"
      ],
      [
        "Ġbas",
        "ket"
      ],
      [
        "Ġs",
        "ell"
      ],
      [
        "Ġs",
        "earch"
      ],
      [
        "Ġp",
        "ri"
      ],
      [
        "Ġh",
        "ost"
      ],
      [
        "Ġk",
        "ore"
      ],
      [
        "Ġ1",
        "8"
      ],
      [
        "Ġsp",
        "ace"
      ],
      [
        "Ġsc",
        "ient"
      ],
      [
        "Ġapp",
        "e"
      ],
      [
        "g",
        "y"
      ],
      [
        "Ġch",
        "ic"
      ],
      [
        "ain",
        "s"
      ],
      [
        "Ġlos",
        "s"
      ],
      [
        "Ġindust",
        "ry"
      ],
      [
        "Ġ",
        ","
      ],
      [
        "is",
        "es"
      ],
      [
        "Ġd",
        "ays"
      ],
      [
        "Ġe",
        "qu"
      ],
      [
        "Ġd",
        "uring"
      ],
      [
        "Ġl",
        "ond"
      ],
      [
        "ad",
        "y"
      ],
      [
        "Ġmo",
        "ve"
      ],
      [
        "ros",
        "s"
      ],
      [
        "Ġreg",
        "ion"
      ],
      [
        "Ġbasket",
        "ball"
      ],
      [
        "Ġlond",
        "on"
      ],
      [
        "in",
        "fo"
      ],
      [
        "Ġc",
        "e"
      ],
      [
        "Ġf",
        "ell"
      ],
      [
        "ut",
        "ion"
      ],
      [
        "Ġexp",
        "ected"
      ],
      [
        "Ġpol",
        "it"
      ],
      [
        "Ġruss",
        "ia"
      ],
      [
        "Ġs",
        "ub"
      ],
      [
        "Ġf",
        "ren"
      ],
      [
        "Ġp",
        "op"
      ],
      [
        "is",
        "ed"
      ],
      [
        "Ġan",
        "y"
      ],
      [
        "Ġst",
        "ore"
      ],
      [
        "Ġph",
        "one"
      ],
      [
        "Ġoffer",
        "ing"
      ],
      [
        "Ġchic",
        "ago"
      ],
      [
        "b",
        "o"
      ],
      [
        "c",
        "le"
      ],
      [
        "c",
        "ast"
      ],
      [
        "Ġc",
        "ra"
      ],
      [
        "en",
        "cy"
      ],
      [
        "qu",
        "ote"
      ],
      [
        "Ġbro",
        "ad"
      ],
      [
        "Ġf",
        "ail"
      ],
      [
        "Ġapp",
        "ro"
      ],
      [
        "Ġfull",
        "quote"
      ],
      [
        "Ġquick",
        "info"
      ],
      [
        "Ġind",
        "ia"
      ],
      [
        "Ġt",
        "it"
      ],
      [
        "er",
        "ry"
      ],
      [
        "en",
        "ter"
      ],
      [
        "il",
        "ity"
      ],
      [
        "Ġro",
        "se"
      ],
      [
        "Ġn",
        "et"
      ],
      [
        "Ġn",
        "ation"
      ],
      [
        "up",
        "t"
      ],
      [
        "Ġde",
        "v"
      ],
      [
        "Ġreb",
        "els"
      ],
      [
        "or",
        "ks"
      ],
      [
        "Ġd",
        "ra"
      ],
      [
        "Ġth",
        "reat"
      ],
      [
        "um",
        "b"
      ],
      [
        "Ġdem",
        "and"
      ],
      [
        "Ġc",
        "a"
      ],
      [
        "igh",
        "ts"
      ],
      [
        "ud",
        "e"
      ],
      [
        "Ġpa",
        "ul"
      ],
      [
        "y",
        "m"
      ],
      [
        "Ġc",
        "up"
      ],
      [
        "Ġf",
        "ac"
      ],
      [
        "is",
        "m"
      ],
      [
        "Ġv",
        "ir"
      ],
      [
        "Ġcanad",
        "ian"
      ],
      [
        "Ġp",
        "ast"
      ],
      [
        "Ġfin",
        "anc"
      ],
      [
        "Ġeconom",
        "y"
      ],
      [
        "Ġshr",
        "ine"
      ],
      [
        "Ġc",
        "ust"
      ],
      [
        "Ġi",
        "b"
      ],
      [
        "Ġex",
        "ecut"
      ],
      [
        "Ġen",
        "ter"
      ],
      [
        "Ġbec",
        "ause"
      ],
      [
        "in",
        "k"
      ],
      [
        "Ġp",
        "al"
      ],
      [
        "Ġm",
        "any"
      ],
      [
        "Ġin",
        "st"
      ],
      [
        "Ġhe",
        "alth"
      ],
      [
        "Ġinvest",
        "ig"
      ],
      [
        "Ġbig",
        "gest"
      ],
      [
        "Ġrele",
        "ase"
      ],
      [
        "Ġfren",
        "ch"
      ],
      [
        "ow",
        "ing"
      ],
      [
        "Ġaf",
        "g"
      ],
      [
        "Ġag",
        "reed"
      ],
      [
        "Ġconsum",
        "er"
      ],
      [
        "b",
        "ased"
      ],
      [
        "n",
        "y"
      ],
      [
        "Ġm",
        "ot"
      ],
      [
        "Ġh",
        "and"
      ],
      [
        "Ġr",
        "ise"
      ],
      [
        "Ġch",
        "ief"
      ],
      [
        "Ġinclud",
        "ing"
      ],
      [
        "b",
        "r"
      ],
      [
        "p",
        "r"
      ],
      [
        "Ġs",
        "uc"
      ],
      [
        "Ġc",
        "ase"
      ],
      [
        "at",
        "ic"
      ],
      [
        "ar",
        "m"
      ],
      [
        "Ġh",
        "ist"
      ],
      [
        "Ġd",
        "ollar"
      ],
      [
        "Ġl",
        "it"
      ],
      [
        "Ġl",
        "atest"
      ],
      [
        "Ġk",
        "eep"
      ],
      [
        "iss",
        "ion"
      ],
      [
        "Ġx",
        "p"
      ],
      [
        "t",
        "ime"
      ],
      [
        "Ġw",
        "ire"
      ],
      [
        "en",
        "se"
      ],
      [
        "Ġear",
        "ly"
      ],
      [
        "Ġt",
        "urn"
      ],
      [
        "Ġm",
        "et"
      ],
      [
        "Ġm",
        "em"
      ],
      [
        "at",
        "ive"
      ],
      [
        "Ġg",
        "ra"
      ],
      [
        "Ġf",
        "oll"
      ],
      [
        "Ġw",
        "est"
      ],
      [
        "Ġw",
        "all"
      ],
      [
        "it",
        "ing"
      ],
      [
        "ib",
        "le"
      ],
      [
        "it",
        "es"
      ],
      [
        "is",
        "on"
      ],
      [
        "Ġd",
        "et"
      ],
      [
        "e",
        "x"
      ],
      [
        "o",
        "ol"
      ],
      [
        "u",
        "k"
      ],
      [
        "Ġb",
        "ill"
      ],
      [
        "Ġl",
        "ower"
      ],
      [
        "if",
        "e"
      ],
      [
        "Ġe",
        "vent"
      ],
      [
        "id",
        "n"
      ],
      [
        "Ġv",
        "is"
      ],
      [
        "Ġsp",
        "ec"
      ],
      [
        "Ġcomm",
        "un"
      ],
      [
        ";",
        "..."
      ],
      [
        "Ġs",
        "oc"
      ],
      [
        "Ġf",
        "ut"
      ],
      [
        "Ġb",
        "ag"
      ],
      [
        "Ġg",
        "l"
      ],
      [
        "Ġ1",
        "1"
      ],
      [
        "uc",
        "k"
      ],
      [
        "Ġchamp",
        "ions"
      ],
      [
        "Ġt",
        "ry"
      ],
      [
        "Ġw",
        "r"
      ],
      [
        "Ġm",
        "at"
      ],
      [
        "Ġv",
        "ide"
      ],
      [
        "b",
        "ack"
      ],
      [
        "Ġt",
        "im"
      ],
      [
        "Ġserv",
        "ices"
      ],
      [
        "Ġchamp",
        "ion"
      ],
      [
        "Ġcust",
        "om"
      ],
      [
        "Ġib",
        "m"
      ],
      [
        "Ġafg",
        "han"
      ],
      [
        "f",
        "orm"
      ],
      [
        "Ġd",
        "ri"
      ],
      [
        "as",
        "ter"
      ],
      [
        "ad",
        "es"
      ],
      [
        "ear",
        "s"
      ],
      [
        "ugh",
        "t"
      ],
      [
        "Ġrele",
        "ased"
      ],
      [
        "Ġeconom",
        "ic"
      ],
      [
        "Ġju",
        "ly"
      ],
      [
        "re",
        "d"
      ],
      [
        "il",
        "y"
      ],
      [
        "Ġne",
        "ed"
      ],
      [
        "Ġk",
        "erry"
      ],
      [
        "Ġsp",
        "orts"
      ],
      [
        "Ġman",
        "ag"
      ],
      [
        "Ġgoo",
        "d"
      ],
      [
        "Ġ",
        "q"
      ],
      [
        "Ġd",
        "om"
      ],
      [
        "Ġfor",
        "ces"
      ],
      [
        "Ġsh",
        "ould"
      ],
      [
        "Ġus",
        "e"
      ],
      [
        "Ġop",
        "pos"
      ],
      [
        "Ġrec",
        "ent"
      ],
      [
        "o",
        "ff"
      ],
      [
        "p",
        "ly"
      ],
      [
        "Ġd",
        "ig"
      ],
      [
        "Ġg",
        "e"
      ],
      [
        "Ġl",
        "ow"
      ],
      [
        "Ġ1",
        "2"
      ],
      [
        "Ġcr",
        "ude"
      ],
      [
        "Ġpart",
        "y"
      ],
      [
        "Ġboo",
        "st"
      ],
      [
        "Ġdesp",
        "ite"
      ],
      [
        "i",
        "ver"
      ],
      [
        "p",
        "ar"
      ],
      [
        "r",
        "upt"
      ],
      [
        "Ġ",
        "vers"
      ],
      [
        "is",
        "hed"
      ],
      [
        "Ġg",
        "lo"
      ],
      [
        "est",
        "in"
      ],
      [
        "Ġem",
        "b"
      ],
      [
        "Ġfight",
        "ing"
      ],
      [
        "Ġd",
        "ist"
      ],
      [
        "Ġd",
        "av"
      ],
      [
        "Ġl",
        "ab"
      ],
      [
        "ul",
        "ts"
      ],
      [
        "lo",
        "y"
      ],
      [
        "Ġsup",
        "port"
      ],
      [
        "Ġmonth",
        "s"
      ],
      [
        "Ġnear",
        "ly"
      ],
      [
        "Ġt",
        "y"
      ],
      [
        "Ġf",
        "und"
      ],
      [
        "Ġp",
        "ass"
      ],
      [
        "Ġg",
        "ree"
      ],
      [
        "Ġe",
        "ight"
      ],
      [
        "Ġus",
        "ers"
      ],
      [
        "Ġme",
        "et"
      ],
      [
        "Ġbre",
        "ak"
      ],
      [
        "Ġwire",
        "less"
      ],
      [
        "Ġs",
        "um"
      ],
      [
        "Ġc",
        "y"
      ],
      [
        "Ġf",
        "ree"
      ],
      [
        "Ġl",
        "ine"
      ],
      [
        "Ġr",
        "iv"
      ],
      [
        "ch",
        "er"
      ],
      [
        "Ġag",
        "ree"
      ],
      [
        "Ġelect",
        "ion"
      ],
      [
        "Ġtr",
        "ans"
      ],
      [
        "Ġtro",
        "ops"
      ],
      [
        "Ġlit",
        "tle"
      ],
      [
        "c",
        "er"
      ],
      [
        "p",
        "s"
      ],
      [
        "Ġso",
        "ur"
      ],
      [
        "Ġham",
        "m"
      ],
      [
        "Ġconc",
        "ern"
      ],
      [
        "Ġtit",
        "le"
      ],
      [
        "o",
        "ver"
      ],
      [
        "p",
        "ing"
      ],
      [
        "Ġa",
        "head"
      ],
      [
        "Ġf",
        "am"
      ],
      [
        "ur",
        "g"
      ],
      [
        "Ġrep",
        "orts"
      ],
      [
        "Ġra",
        "ce"
      ],
      [
        "iz",
        "e"
      ],
      [
        "Ġli",
        "ke"
      ],
      [
        "h",
        "d"
      ],
      [
        "n",
        "ess"
      ],
      [
        "Ġp",
        "ack"
      ],
      [
        "Ġg",
        "ym"
      ],
      [
        "Ġwh",
        "ere"
      ],
      [
        "Ġrep",
        "ublic"
      ],
      [
        "Ġstri",
        "ke"
      ],
      [
        "Ġcontro",
        "l"
      ],
      [
        "Ġinit",
        "ial"
      ],
      [
        "e",
        "mp"
      ],
      [
        "Ġm",
        "ain"
      ],
      [
        "Ġl",
        "oo"
      ],
      [
        "Ġe",
        "v"
      ],
      [
        "ers",
        "on"
      ],
      [
        "Ġk",
        "ey"
      ],
      [
        "ee",
        "ks"
      ],
      [
        "Ġset",
        "tle"
      ],
      [
        "f",
        "act"
      ],
      [
        "Ġm",
        "os"
      ],
      [
        "Ġh",
        "ere"
      ],
      [
        "Ġint",
        "el"
      ],
      [
        "o",
        "v"
      ],
      [
        "Ġs",
        "im"
      ],
      [
        "Ġpro",
        "gra"
      ],
      [
        "Ġag",
        "o"
      ],
      [
        "Ġu",
        "k"
      ],
      [
        "iv",
        "ing"
      ],
      [
        "Ġcont",
        "inu"
      ],
      [
        "Ġear",
        "nings"
      ],
      [
        "Ġant",
        "i"
      ],
      [
        "Ġgym",
        "n"
      ],
      [
        "Ġ",
        "er"
      ],
      [
        "in",
        "als"
      ],
      [
        "on",
        "y"
      ],
      [
        "Ġc",
        "are"
      ],
      [
        "Ġw",
        "eeks"
      ],
      [
        "Ġy",
        "our"
      ],
      [
        "Ġus",
        "ed"
      ],
      [
        "Ġbr",
        "on"
      ],
      [
        "Ġju",
        "mp"
      ],
      [
        "g",
        "l"
      ],
      [
        "i",
        "ers"
      ],
      [
        "Ġ",
        "est"
      ],
      [
        "Ġs",
        "en"
      ],
      [
        "Ġto",
        "ok"
      ],
      [
        "Ġv",
        "o"
      ],
      [
        "Ġfr",
        "anc"
      ],
      [
        "b",
        "y"
      ],
      [
        "Ġ",
        ":"
      ],
      [
        "Ġt",
        "or"
      ],
      [
        "Ġy",
        "an"
      ],
      [
        "ri",
        "b"
      ],
      [
        "Ġad",
        "d"
      ],
      [
        "Ġameric",
        "ans"
      ],
      [
        "Ġreg",
        "ul"
      ],
      [
        "Ġbrit",
        "ain"
      ],
      [
        "Ġsm",
        "all"
      ],
      [
        "ene",
        "z"
      ],
      [
        "u",
        "mp"
      ],
      [
        "Ġm",
        "uch"
      ],
      [
        "Ġun",
        "ion"
      ],
      [
        "our",
        "n"
      ],
      [
        "l",
        "am"
      ],
      [
        "Ġm",
        "ass"
      ],
      [
        "el",
        "f"
      ],
      [
        "Ġ1",
        "4"
      ],
      [
        "Ġcall",
        "ed"
      ],
      [
        "Ġisrael",
        "i"
      ],
      [
        "Ġscient",
        "ists"
      ],
      [
        "b",
        "al"
      ],
      [
        "Ġh",
        "p"
      ],
      [
        "Ġwith",
        "out"
      ],
      [
        "Ġmic",
        "ha"
      ],
      [
        "Ġcomm",
        "ission"
      ],
      [
        "Ġgen",
        "eral"
      ],
      [
        "Ġstre",
        "et"
      ],
      [
        "Ġmicha",
        "el"
      ],
      [
        "Ġh",
        "ous"
      ],
      [
        "im",
        "in"
      ],
      [
        "Ġmilit",
        "ants"
      ],
      [
        "Ġsystem",
        "s"
      ],
      [
        "Ġa",
        "mp"
      ],
      [
        "Ġf",
        "ire"
      ],
      [
        "ut",
        "e"
      ],
      [
        "Ġj",
        "ourn"
      ],
      [
        "Ġcont",
        "ract"
      ],
      [
        "Ġfinanc",
        "ial"
      ],
      [
        "d",
        "it"
      ],
      [
        "Ġa",
        "uth"
      ],
      [
        "Ġm",
        "or"
      ],
      [
        "as",
        "hed"
      ],
      [
        "ot",
        "t"
      ],
      [
        "Ġ3",
        "6"
      ],
      [
        "if",
        "ic"
      ],
      [
        "Ġprot",
        "est"
      ],
      [
        "Ġir",
        "an"
      ],
      [
        "s",
        "c"
      ],
      [
        "s",
        "o"
      ],
      [
        "v",
        "ing"
      ],
      [
        "Ġat",
        "h"
      ],
      [
        "Ġse",
        "ver"
      ],
      [
        "Ġman",
        "age"
      ],
      [
        "Ġcompet",
        "ition"
      ],
      [
        "Ġsuc",
        "cess"
      ],
      [
        "Ġvers",
        "ion"
      ],
      [
        "d",
        "own"
      ],
      [
        "e",
        "es"
      ],
      [
        "re",
        "l"
      ],
      [
        "ad",
        "a"
      ],
      [
        "Ġhe",
        "ld"
      ],
      [
        "Ġli",
        "k"
      ],
      [
        "Ġfore",
        "ign"
      ],
      [
        "Ġpos",
        "s"
      ],
      [
        "Ġg",
        "ive"
      ],
      [
        "Ġe",
        "mp"
      ],
      [
        "el",
        "es"
      ],
      [
        "ag",
        "es"
      ],
      [
        "Ġvide",
        "o"
      ],
      [
        "Ġauth",
        "or"
      ],
      [
        "w",
        "ays"
      ],
      [
        "Ġb",
        "et"
      ],
      [
        "Ġm",
        "a"
      ],
      [
        "Ġde",
        "ath"
      ],
      [
        "Ġdep",
        "art"
      ],
      [
        "Ġbag",
        "hd"
      ],
      [
        "Ġoppos",
        "ition"
      ],
      [
        "Ġgree",
        "k"
      ],
      [
        "Ġbron",
        "ze"
      ],
      [
        "Ġbaghd",
        "ad"
      ],
      [
        "Ġs",
        "ol"
      ],
      [
        "id",
        "ence"
      ],
      [
        "Ġeng",
        "ine"
      ],
      [
        "Ġeurope",
        "an"
      ],
      [
        "Ġfo",
        "ot"
      ],
      [
        "Ġgymn",
        "ast"
      ],
      [
        "Ġath",
        "let"
      ],
      [
        "Ġg",
        "as"
      ],
      [
        "ard",
        "s"
      ],
      [
        "Ġres",
        "ults"
      ],
      [
        "Ġdem",
        "oc"
      ],
      [
        "Ġshi",
        "ite"
      ],
      [
        "Ġta",
        "x"
      ],
      [
        "Ġcamp",
        "a"
      ],
      [
        "Ġpal",
        "estin"
      ],
      [
        "j",
        "ect"
      ],
      [
        "Ġh",
        "our"
      ],
      [
        "Ġis",
        "lam"
      ],
      [
        "Ġac",
        "ross"
      ],
      [
        "Ġtri",
        "al"
      ],
      [
        "Ġhur",
        "rican"
      ],
      [
        "Ġjourn",
        "al"
      ],
      [
        "i",
        "ra"
      ],
      [
        "m",
        "ing"
      ],
      [
        "re",
        "am"
      ],
      [
        "Ġp",
        "he"
      ],
      [
        "Ġp",
        "us"
      ],
      [
        "id",
        "er"
      ],
      [
        "Ġv",
        "ol"
      ],
      [
        "Ġv",
        "enez"
      ],
      [
        "Ġco",
        "ach"
      ],
      [
        "Ġsp",
        "e"
      ],
      [
        "Ġqu",
        "est"
      ],
      [
        "end",
        "ed"
      ],
      [
        "Ġaustral",
        "ian"
      ],
      [
        "Ġeng",
        "land"
      ],
      [
        "Ġvenez",
        "uel"
      ],
      [
        "l",
        "ines"
      ],
      [
        "Ġa",
        "round"
      ],
      [
        "Ġh",
        "o"
      ],
      [
        "Ġse",
        "ven"
      ],
      [
        "Ġquot",
        "e"
      ],
      [
        "lp",
        "s"
      ],
      [
        "Ġdig",
        "ital"
      ],
      [
        "Ġphe",
        "lps"
      ],
      [
        "Ġa",
        "way"
      ],
      [
        "Ġp",
        "it"
      ],
      [
        "Ġcon",
        "n"
      ],
      [
        "Ġlaun",
        "ch"
      ],
      [
        "Ġhal",
        "f"
      ],
      [
        "Ġcampa",
        "ign"
      ],
      [
        "b",
        "and"
      ],
      [
        "p",
        "y"
      ],
      [
        "s",
        "et"
      ],
      [
        "s",
        "adr"
      ],
      [
        "Ġf",
        "ar"
      ],
      [
        "Ġmar",
        "k"
      ],
      [
        "iz",
        "ed"
      ],
      [
        "Ġfour",
        "th"
      ],
      [
        "o",
        "on"
      ],
      [
        "Ġhe",
        "w"
      ],
      [
        "ri",
        "es"
      ],
      [
        "ug",
        "g"
      ],
      [
        "Ġtak",
        "es"
      ],
      [
        "Ġcharg",
        "es"
      ],
      [
        "Ġviol",
        "ence"
      ],
      [
        "Ġcalif",
        "orn"
      ],
      [
        "Ġc",
        "ub"
      ],
      [
        "Ġw",
        "he"
      ],
      [
        "Ġw",
        "ater"
      ],
      [
        "Ġh",
        "um"
      ],
      [
        "Ġe",
        "as"
      ],
      [
        "Ġso",
        "x"
      ],
      [
        "Ġlead",
        "ing"
      ],
      [
        "ath",
        "er"
      ],
      [
        "Ġstud",
        "y"
      ],
      [
        "i",
        "j"
      ],
      [
        "Ġal",
        "le"
      ],
      [
        "Ġcost",
        "s"
      ],
      [
        "Ġkore",
        "a"
      ],
      [
        "Ġpolit",
        "ical"
      ],
      [
        "Ġglo",
        "bal"
      ],
      [
        "g",
        "an"
      ],
      [
        "Ġc",
        "ur"
      ],
      [
        "Ġl",
        "ate"
      ],
      [
        "am",
        "ent"
      ],
      [
        "Ġal",
        "so"
      ],
      [
        "Ġph",
        "il"
      ],
      [
        "i",
        "or"
      ],
      [
        "Ġm",
        "c"
      ],
      [
        "en",
        "g"
      ],
      [
        "al",
        "e"
      ],
      [
        "Ġ3",
        "0"
      ],
      [
        "Ġmed",
        "ia"
      ],
      [
        "Ġdis",
        "c"
      ],
      [
        "Ġtra",
        "de"
      ],
      [
        "Ġexpl",
        "os"
      ],
      [
        "Ġcaliforn",
        "ia"
      ],
      [
        "d",
        "a"
      ],
      [
        "id",
        "ed"
      ],
      [
        "Ġun",
        "ivers"
      ],
      [
        "Ġres",
        "p"
      ],
      [
        "Ġexp",
        "er"
      ],
      [
        "av",
        "ing"
      ],
      [
        "Ġprod",
        "uct"
      ],
      [
        "Ġhurrican",
        "e"
      ],
      [
        "g",
        "ress"
      ],
      [
        "w",
        "e"
      ],
      [
        "Ġl",
        "ight"
      ],
      [
        "st",
        "r"
      ],
      [
        "Ġr",
        "ally"
      ],
      [
        "Ġsh",
        "ot"
      ],
      [
        "Ġsh",
        "ip"
      ],
      [
        "ath",
        "on"
      ],
      [
        "Ġhol",
        "y"
      ],
      [
        "re",
        "t"
      ],
      [
        "Ġb",
        "ase"
      ],
      [
        "Ġj",
        "e"
      ],
      [
        "Ġmon",
        "ey"
      ],
      [
        "Ġwin",
        "ning"
      ],
      [
        "Ġear",
        "l"
      ],
      [
        "Ġam",
        "id"
      ],
      [
        "Ġplay",
        "ers"
      ],
      [
        "Ġmak",
        "ing"
      ],
      [
        "c",
        "ing"
      ],
      [
        "in",
        "ed"
      ],
      [
        "Ġto",
        "ky"
      ],
      [
        "le",
        "ar"
      ],
      [
        "Ġdis",
        "co"
      ],
      [
        "Ġprof",
        "ile"
      ],
      [
        "Ġsouth",
        "ern"
      ],
      [
        "Ġclaim",
        "s"
      ],
      [
        "Ġsch",
        "ool"
      ],
      [
        "Ġdepart",
        "ment"
      ],
      [
        "Ġalle",
        "ged"
      ],
      [
        "Ġtoky",
        "o"
      ],
      [
        "p",
        "al"
      ],
      [
        "Ġ",
        "es"
      ],
      [
        "Ġf",
        "ra"
      ],
      [
        "Ġb",
        "est"
      ],
      [
        "id",
        "a"
      ],
      [
        "Ġcr",
        "it"
      ],
      [
        "Ġkill",
        "ing"
      ],
      [
        "Ġresearch",
        "ers"
      ],
      [
        "Ġimp",
        "ro"
      ],
      [
        "Ġger",
        "m"
      ],
      [
        "Ġnas",
        "a"
      ],
      [
        "Ġfranc",
        "isco"
      ],
      [
        "Ġmanage",
        "ment"
      ],
      [
        "Ġ",
        "."
      ],
      [
        "Ġp",
        "il"
      ],
      [
        "Ġm",
        "er"
      ],
      [
        "en",
        "n"
      ],
      [
        "Ġre",
        "ach"
      ],
      [
        "Ġn",
        "uc"
      ],
      [
        "Ġ2",
        "5"
      ],
      [
        "Ġop",
        "t"
      ],
      [
        "Ġapp",
        "lic"
      ],
      [
        "Ġcr",
        "is"
      ],
      [
        "er",
        "gy"
      ],
      [
        "Ġc",
        "enter"
      ],
      [
        "Ġm",
        "ight"
      ],
      [
        "un",
        "g"
      ],
      [
        "Ġpro",
        "pos"
      ],
      [
        "Ġ1",
        "7"
      ],
      [
        "Ġcorp",
        "or"
      ],
      [
        "Ġ5",
        "0"
      ],
      [
        "inu",
        "x"
      ],
      [
        "Ġge",
        "or"
      ],
      [
        "Ġnuc",
        "lear"
      ],
      [
        "e",
        "p"
      ],
      [
        "f",
        "i"
      ],
      [
        "h",
        "old"
      ],
      [
        "Ġb",
        "ird"
      ],
      [
        "Ġd",
        "ire"
      ],
      [
        "end",
        "s"
      ],
      [
        "Ġo",
        "s"
      ],
      [
        "Ġr",
        "ight"
      ],
      [
        "Ġbl",
        "ock"
      ],
      [
        "Ġtra",
        "ding"
      ],
      [
        "Ġacc",
        "used"
      ],
      [
        "vent",
        "ion"
      ],
      [
        "Ġcanad",
        "a"
      ],
      [
        "Ġsever",
        "al"
      ],
      [
        "Ġs",
        "n"
      ],
      [
        "Ġd",
        "on"
      ],
      [
        "Ġth",
        "ous"
      ],
      [
        "Ġhe",
        "av"
      ],
      [
        "Ġcomp",
        "let"
      ],
      [
        "um",
        "ber"
      ],
      [
        "Ġar",
        "t"
      ],
      [
        "Ġbl",
        "ue"
      ],
      [
        "Ġor",
        "der"
      ],
      [
        "g",
        "o"
      ],
      [
        "m",
        "ost"
      ],
      [
        "t",
        "he"
      ],
      [
        "Ġs",
        "ame"
      ],
      [
        "Ġo",
        "ld"
      ],
      [
        "as",
        "hes"
      ],
      [
        "Ġan",
        "aly"
      ],
      [
        "Ġj",
        "ones"
      ],
      [
        "qu",
        "e"
      ],
      [
        "Ġis",
        "su"
      ],
      [
        "ain",
        "ed"
      ],
      [
        "Ġcl",
        "ose"
      ],
      [
        "ke",
        "es"
      ],
      [
        "Ġplay",
        "er"
      ],
      [
        "Ġarrest",
        "ed"
      ],
      [
        "Ġyan",
        "kees"
      ],
      [
        "t",
        "ada"
      ],
      [
        "Ġl",
        "oc"
      ],
      [
        "Ġpro",
        "ble"
      ],
      [
        "Ġcl",
        "ass"
      ],
      [
        "Ġair",
        "ways"
      ],
      [
        "ester",
        "n"
      ],
      [
        "Ġameric",
        "a"
      ],
      [
        "Ġsw",
        "eep"
      ],
      [
        "Ġcap",
        "t"
      ],
      [
        "Ġbec",
        "ome"
      ],
      [
        "Ġbat",
        "tle"
      ],
      [
        "Ġsil",
        "ver"
      ],
      [
        "Ġdire",
        "ct"
      ],
      [
        "n",
        "s"
      ],
      [
        "o",
        "id"
      ],
      [
        "ic",
        "a"
      ],
      [
        "Ġl",
        "ife"
      ],
      [
        "as",
        "ts"
      ],
      [
        "le",
        "x"
      ],
      [
        "Ġmar",
        "athon"
      ],
      [
        "Ġen",
        "ergy"
      ],
      [
        "Ġlead",
        "ers"
      ],
      [
        "Ġpr",
        "ison"
      ],
      [
        "d",
        "ers"
      ],
      [
        "Ġc",
        "ell"
      ],
      [
        "Ġp",
        "ort"
      ],
      [
        "Ġd",
        "oc"
      ],
      [
        "Ġ1",
        "6"
      ],
      [
        "Ġban",
        "gl"
      ],
      [
        "Ġacc",
        "ess"
      ],
      [
        "Ġreb",
        "el"
      ],
      [
        "Ġoper",
        "ating"
      ],
      [
        "Ġarm",
        "y"
      ],
      [
        "Ġhist",
        "ory"
      ],
      [
        "Ġcris",
        "is"
      ],
      [
        "i",
        "ke"
      ],
      [
        "i",
        "ence"
      ],
      [
        "Ġg",
        "ets"
      ],
      [
        "Ġre",
        "ce"
      ],
      [
        "Ġ1",
        "3"
      ],
      [
        "res",
        "h"
      ],
      [
        "Ġmilit",
        "ia"
      ],
      [
        "Ġrul",
        "es"
      ],
      [
        "Ġgr",
        "and"
      ],
      [
        "Ġdeb",
        "ut"
      ],
      [
        "Ġdemoc",
        "r"
      ],
      [
        "e",
        "f"
      ],
      [
        "k",
        "er"
      ],
      [
        "m",
        "art"
      ],
      [
        "Ġv",
        "al"
      ],
      [
        "ost",
        "on"
      ],
      [
        "Ġfoll",
        "owing"
      ],
      [
        "ades",
        "h"
      ],
      [
        "Ġbangl",
        "adesh"
      ],
      [
        "v",
        "al"
      ],
      [
        "Ġt",
        "re"
      ],
      [
        "Ġa",
        "im"
      ],
      [
        "in",
        "ing"
      ],
      [
        "er",
        "ation"
      ],
      [
        "Ġl",
        "et"
      ],
      [
        "Ġth",
        "ough"
      ],
      [
        "Ġne",
        "pal"
      ],
      [
        "Ġr",
        "y"
      ],
      [
        "Ġsh",
        "ort"
      ],
      [
        "em",
        "ber"
      ],
      [
        "Ġser",
        "ies"
      ],
      [
        "Ġtra",
        "ck"
      ],
      [
        "Ġjo",
        "b"
      ],
      [
        "Ġdes",
        "ign"
      ],
      [
        "Ġjud",
        "ge"
      ],
      [
        "a",
        "ult"
      ],
      [
        "i",
        "ation"
      ],
      [
        "Ġb",
        "oth"
      ],
      [
        "Ġb",
        "oston"
      ],
      [
        "Ġw",
        "ell"
      ],
      [
        "Ġw",
        "ant"
      ],
      [
        "id",
        "es"
      ],
      [
        "ut",
        "es"
      ],
      [
        "ver",
        "t"
      ],
      [
        "Ġv",
        "ote"
      ],
      [
        "Ġpro",
        "m"
      ],
      [
        "Ġex",
        "ch"
      ],
      [
        "Ġrec",
        "all"
      ],
      [
        "Ġchar",
        "ley"
      ],
      [
        "Ġcent",
        "ral"
      ],
      [
        "Ġcustom",
        "ers"
      ],
      [
        "Ġprogra",
        "m"
      ],
      [
        "Ġearl",
        "ier"
      ],
      [
        "d",
        "ed"
      ],
      [
        "f",
        "or"
      ],
      [
        "g",
        "ing"
      ],
      [
        "Ġa",
        "ut"
      ],
      [
        "Ġa",
        "st"
      ],
      [
        "Ġf",
        "uel"
      ],
      [
        "Ġh",
        "ot"
      ],
      [
        "Ġl",
        "ost"
      ],
      [
        "Ġn",
        "umber"
      ],
      [
        "ow",
        "ed"
      ],
      [
        "Ġk",
        "idn"
      ],
      [
        "Ġal",
        "most"
      ],
      [
        "Ġout",
        "s"
      ],
      [
        "Ġinter",
        "est"
      ],
      [
        "Ġelect",
        "ron"
      ],
      [
        "Ġinf",
        "orm"
      ],
      [
        "Ġchampions",
        "hip"
      ],
      [
        "Ġlab",
        "or"
      ],
      [
        "Ġanaly",
        "st"
      ],
      [
        "n",
        "ers"
      ],
      [
        "Ġm",
        "al"
      ],
      [
        "Ġh",
        "ug"
      ],
      [
        "Ġl",
        "and"
      ],
      [
        "Ġfor",
        "m"
      ],
      [
        "im",
        "b"
      ],
      [
        "Ġaf",
        "ric"
      ],
      [
        "Ġag",
        "ency"
      ],
      [
        "are",
        "n"
      ],
      [
        "Ġar",
        "ri"
      ],
      [
        "Ġgre",
        "at"
      ],
      [
        "Ġair",
        "lines"
      ],
      [
        "ound",
        "ed"
      ],
      [
        "Ġsup",
        "er"
      ],
      [
        "Ġconf",
        "ir"
      ],
      [
        "Ġadv",
        "anc"
      ],
      [
        "Ġproduc",
        "ts"
      ],
      [
        "Ġf",
        "resh"
      ],
      [
        "Ġp",
        "erson"
      ],
      [
        "Ġl",
        "inux"
      ],
      [
        "Ġch",
        "all"
      ],
      [
        "Ġbe",
        "h"
      ],
      [
        "ce",
        "pt"
      ],
      [
        "Ġus",
        "ing"
      ],
      [
        "Ġmed",
        "als"
      ],
      [
        "Ġsc",
        "ore"
      ],
      [
        "Ġinf",
        "l"
      ],
      [
        "ont",
        "o"
      ],
      [
        "Ġvis",
        "it"
      ],
      [
        "Ġsum",
        "mer"
      ],
      [
        "Ġlik",
        "ely"
      ],
      [
        "Ġgymnast",
        "ics"
      ],
      [
        "Ġgerm",
        "any"
      ],
      [
        "d",
        "le"
      ],
      [
        "Ġs",
        "ent"
      ],
      [
        "Ġf",
        "ield"
      ],
      [
        "Ġw",
        "atch"
      ],
      [
        "Ġh",
        "ard"
      ],
      [
        "Ġd",
        "ue"
      ],
      [
        "Ġn",
        "am"
      ],
      [
        "Ġe",
        "y"
      ],
      [
        "Ġres",
        "er"
      ],
      [
        "Ġwork",
        "ers"
      ],
      [
        "Ġever",
        "y"
      ],
      [
        "Ġexecut",
        "ive"
      ],
      [
        "Ġfut",
        "ure"
      ],
      [
        "Ġtor",
        "onto"
      ],
      [
        "Ġthous",
        "ands"
      ],
      [
        "r",
        "un"
      ],
      [
        "en",
        "ed"
      ],
      [
        "Ġh",
        "its"
      ],
      [
        "ent",
        "ial"
      ],
      [
        "ig",
        "er"
      ],
      [
        "Ġcon",
        "vention"
      ],
      [
        "Ġor",
        "gan"
      ],
      [
        "Ġatt",
        "emp"
      ],
      [
        "Ġpre",
        "v"
      ],
      [
        "Ġcut",
        "s"
      ],
      [
        "Ġfore",
        "cast"
      ],
      [
        "Ġang",
        "eles"
      ],
      [
        "Ġger",
        "man"
      ],
      [
        "Ġdoub",
        "le"
      ],
      [
        "Ġconn",
        "ect"
      ],
      [
        "p",
        "er"
      ],
      [
        "Ġs",
        "eek"
      ],
      [
        "Ġto",
        "urn"
      ],
      [
        "as",
        "es"
      ],
      [
        "Ġpro",
        "s"
      ],
      [
        "ap",
        "er"
      ],
      [
        "ish",
        "ing"
      ],
      [
        "Ġper",
        "form"
      ],
      [
        "Ġsu",
        "ch"
      ],
      [
        "Ġnetw",
        "orks"
      ],
      [
        "Ġipo",
        "d"
      ],
      [
        "Ġemp",
        "loy"
      ],
      [
        "Ġhum",
        "an"
      ],
      [
        "Ġunivers",
        "ity"
      ],
      [
        "Ġa",
        "ra"
      ],
      [
        "an",
        "a"
      ],
      [
        "Ġb",
        "ur"
      ],
      [
        "ar",
        "s"
      ],
      [
        "Ġl",
        "ess"
      ],
      [
        "Ġwh",
        "ite"
      ],
      [
        "oo",
        "ds"
      ],
      [
        "Ġse",
        "pt"
      ],
      [
        "Ġtec",
        "h"
      ],
      [
        "Ġass",
        "oc"
      ],
      [
        "Ġquarter",
        "ly"
      ],
      [
        "Ġexch",
        "ange"
      ],
      [
        "a",
        "x"
      ],
      [
        "q",
        "tada"
      ],
      [
        "w",
        "s"
      ],
      [
        "Ġm",
        "ac"
      ],
      [
        "Ġn",
        "ort"
      ],
      [
        "ver",
        "ed"
      ],
      [
        "Ġaf",
        "rican"
      ],
      [
        "Ġwill",
        "iam"
      ],
      [
        "Ġen",
        "v"
      ],
      [
        "Ġshow",
        "ed"
      ],
      [
        "Ġmot",
        "or"
      ],
      [
        "Ġsoc",
        "cer"
      ],
      [
        "o",
        "unt"
      ],
      [
        "y",
        "le"
      ],
      [
        "Ġsh",
        "ut"
      ],
      [
        "Ġwith",
        "d"
      ],
      [
        "ak",
        "er"
      ],
      [
        "Ġpl",
        "ace"
      ],
      [
        "Ġad",
        "min"
      ],
      [
        "Ġbl",
        "ack"
      ],
      [
        "Ġcont",
        "in"
      ],
      [
        "ens",
        "ion"
      ],
      [
        "Ġdec",
        "ision"
      ],
      [
        "Ġfe",
        "w"
      ],
      [
        "Ġste",
        "p"
      ],
      [
        "Ġbeg",
        "in"
      ],
      [
        "me",
        "ter"
      ],
      [
        "Ġbroad",
        "band"
      ],
      [
        "Ġtim",
        "es"
      ],
      [
        "Ġhour",
        "s"
      ],
      [
        "Ġwhe",
        "ther"
      ],
      [
        "Ġinform",
        "ation"
      ],
      [
        "Ġafric",
        "a"
      ],
      [
        "-",
        "-"
      ],
      [
        "a",
        "i"
      ],
      [
        "u",
        "ce"
      ],
      [
        "Ġf",
        "ast"
      ],
      [
        "Ġb",
        "al"
      ],
      [
        "ve",
        "il"
      ],
      [
        "Ġpro",
        "cess"
      ],
      [
        "Ġun",
        "veil"
      ],
      [
        "Ġle",
        "ave"
      ],
      [
        "Ġse",
        "en"
      ],
      [
        "Ġbr",
        "ing"
      ],
      [
        "Ġfe",
        "at"
      ],
      [
        "Ġtak",
        "ing"
      ],
      [
        "Ġadmin",
        "ist"
      ],
      [
        "i",
        "et"
      ],
      [
        "w",
        "an"
      ],
      [
        "y",
        "ing"
      ],
      [
        "an",
        "n"
      ],
      [
        "at",
        "ely"
      ],
      [
        "ec",
        "h"
      ],
      [
        "Ġj",
        "un"
      ],
      [
        "and",
        "er"
      ],
      [
        "Ġfr",
        "ance"
      ],
      [
        "Ġser",
        "ver"
      ],
      [
        "Ġjo",
        "bs"
      ],
      [
        "Ġhom",
        "es"
      ],
      [
        "Ġbar",
        "rel"
      ],
      [
        "Ġdom",
        "in"
      ],
      [
        "Ġriv",
        "al"
      ],
      [
        "Ġheav",
        "y"
      ],
      [
        "Ġtourn",
        "ament"
      ],
      [
        "Ġ",
        "ve"
      ],
      [
        "Ġm",
        "ort"
      ],
      [
        "Ġh",
        "und"
      ],
      [
        "ra",
        "ft"
      ],
      [
        "Ġpl",
        "ot"
      ],
      [
        "Ġind",
        "ian"
      ],
      [
        "Ġjapan",
        "ese"
      ],
      [
        "Ġstra",
        "ight"
      ],
      [
        "Ġagree",
        "ment"
      ],
      [
        "Ġbet",
        "ter"
      ],
      [
        "t",
        "ed"
      ],
      [
        "Ġs",
        "qu"
      ],
      [
        "Ġf",
        "ile"
      ],
      [
        "Ġf",
        "ood"
      ],
      [
        "Ġw",
        "i"
      ],
      [
        "or",
        "ing"
      ],
      [
        "Ġg",
        "un"
      ],
      [
        "Ġre",
        "qu"
      ],
      [
        "Ġne",
        "g"
      ],
      [
        "Ġbo",
        "d"
      ],
      [
        "Ġend",
        "ed"
      ],
      [
        "Ġme",
        "ters"
      ],
      [
        "Ġdel",
        "ay"
      ],
      [
        "Ġretail",
        "er"
      ],
      [
        "Ġauthor",
        "ities"
      ],
      [
        "b",
        "c"
      ],
      [
        "in",
        "ts"
      ],
      [
        "ic",
        "ations"
      ],
      [
        "Ġst",
        "op"
      ],
      [
        "Ġr",
        "an"
      ],
      [
        "Ġcom",
        "e"
      ],
      [
        "Ġtro",
        "ub"
      ],
      [
        "m",
        "ail"
      ],
      [
        "Ġc",
        "isco"
      ],
      [
        "Ġp",
        "an"
      ],
      [
        "Ġd",
        "en"
      ],
      [
        "Ġon",
        "ce"
      ],
      [
        "Ġit",
        "al"
      ],
      [
        "th",
        "ers"
      ],
      [
        "Ġbo",
        "x"
      ],
      [
        "Ġcomm",
        "itt"
      ],
      [
        "Ġrun",
        "ning"
      ],
      [
        "Ġsay",
        "ing"
      ],
      [
        "ward",
        "s"
      ],
      [
        "Ġhop",
        "es"
      ],
      [
        "b",
        "ers"
      ],
      [
        "g",
        "et"
      ],
      [
        "Ġt",
        "v"
      ],
      [
        "Ġc",
        "ard"
      ],
      [
        "Ġf",
        "re"
      ],
      [
        "Ġto",
        "o"
      ],
      [
        "Ġl",
        "ist"
      ],
      [
        "Ġre",
        "ven"
      ],
      [
        "Ġn",
        "ations"
      ],
      [
        "Ġch",
        "air"
      ],
      [
        "Ġcom",
        "b"
      ],
      [
        "Ġcon",
        "v"
      ],
      [
        "Ġ2",
        "3"
      ],
      [
        "ok",
        "es"
      ],
      [
        "Ġcharg",
        "ed"
      ],
      [
        "Ġappe",
        "al"
      ],
      [
        "Ġtry",
        "ing"
      ],
      [
        "Ġfoot",
        "ball"
      ],
      [
        "c",
        "ap"
      ],
      [
        "w",
        "a"
      ],
      [
[...]
