{
  "version": "1.0",
  "truncation": null,
  "padding": null,
  "added_tokens": [
    {
      "id": 0,
      "content": "[UNK]",
      "single_word": false,
      "lstrip": false,
      "rstrip": false,
      "normalized": false,
      "special": true
    }
  ],
  "normalizer": null,
  "pre_tokenizer": {
    "type": "ByteLevel",
    "add_prefix_space": true,
    "trim_offsets": true,
    "use_regex": true
  },
  "post_processor": null,
  "decoder": null,
  "model": {
    "type": "BPE",
    "dropout": null,
    "unk_token": "[UNK]",
    "continuing_subword_prefix": null,
    "end_of_word_suffix": null,
    "fuse_unk": false,
    "byte_fallback": false,
    "ignore_merges": false,
    "vocab": {
      "[UNK]": 0,
      "!": 1,
      "'": 2,
      ",": 3,
      ".": 4,
      ":": 5,
      ";": 6,
      "?": 7,
      "_": 8,
      "a": 9,
      "b": 10,
      "c": 11,
      "d": 12,
      "e": 13,
      "f": 14,
      "g": 15,
      "h": 16,
      "i": 17,
      "j": 18,
      "k": 19,
      "l": 20,
      "m": 21,
      "n": 22,
      "o": 23,
      "p": 24,
      "q": 25,
      "r": 26,
      "s": 27,
      "t": 28,
      "u": 29,
      "v": 30,
      "w": 31,
      "x": 32,
      "y": 33,
      "z": 34,
      "Ġ": 35,
      "Ġt": 36,
      "Ġa": 37,
      "in": 38,
      "er": 39,
      "Ġs": 40,
      "Ġth": 41,
      "on": 42,
      "re": 43,
      "Ġc": 44,
      "Ġthe": 45,
      "Ġf": 46,
      "es": 47,
      "Ġo": 48,
      "Ġb": 49,
      "an": 50,
      "Ġw": 51,
      "Ġp": 52,
      "en": 53,
      "or": 54,
      "ed": 55,
      "Ġm": 56,
      "it": 57,
      "at": 58,
      "Ġin": 59,
      "al": 60,
      "Ġh": 61,
      "ing": 62,
      "ar": 63,
      "is": 64,
      "Ġto": 65,
      "ic": 66,
      "Ġd": 67,
      "ro": 68,
      "Ġg": 69,
      "Ġof": 70,
      "Ġl": 71,
      "as": 72,
      "Ġre": 73,
      "Ġan": 74,
      "Ġn": 75,
      "ay": 76,
      "il": 77,
      "ter": 78,
      "us": 79,
      "ion": 80,
      "el": 81,
      "un": 82,
      "ur": 83,
      "om": 84,
      "et": 85,
      "id": 86,
      "ec": 87,
      "Ġon": 88,
      "Ġand": 89,
      "ent": 90,
      "ut": 91,
      "Ġst": 92,
      "ra": 93,
      "Ġe": 94,
      "ol": 95,
      "le": 96,
      "Ġfor": 97,
      "ig": 98,
      "am": 99,
      "st": 100,
      "ad": 101,
      "ac": 102,
      "ir": 103,
      "ot": 104,
      "day": 105,
      "ly": 106,
      "ver": 107,
      "Ġat": 108,
      "Ġit": 109,
      "Ġ;": 110,
      "ve": 111,
      "im": 112,
      "ul": 113,
      "ow": 114,
      "Ġne": 115,
      "ill": 116,
      "Ġj": 117,
      "Ġch": 118,
      "Ġr": 119,
      "Ġy": 120,
      "ch": 121,
      "ers": 122,
      "up": 123,
      "qu": 124,
      "Ġsh": 125,
      "est": 126,
      "ation": 127,
      "Ġk": 128,
      "Ġas": 129,
      "Ġbe": 130,
      "igh": 131,
      "Ġpro": 132,
      "ith": 133,
      "Ġde": 134,
      "Ġv": 135,
      "Ġcom": 136,
      "ts": 137,
      "Ġco": 138,
      "ters": 139,
      "Ġwith": 140,
      "Ġap": 141,
      "Ġis": 142,
      "ce": 143,
      "Ġcon": 144,
      "os": 145,
      "Ġwh": 146,
      "th": 147,
      "Ġthat": 148,
      "and": 149,
      "ak": 150,
      "'s": 151,
      "Ġnew": 152,
      "ag": 153,
      "..": 154,
      "ore": 155,
      "ear": 156,
      "Ġaf": 157,
      "ri": 158,
      "Ġsa": 159,
      "ks": 160,
      "ug": 161,
      "Ġun": 162,
      "Ġsp": 163,
      "mp": 164,
      "res": 165,
      "Ġi": 166,
      "op": 167,
      "Ġby": 168,
      "all": 169,
      "uters": 170,
      "Ġqu": 171,
      "Ġus": 172,
      "ment": 173,
      "Ġle": 174,
      "Ġal": 175,
      "oc": 176,
      "Ġex": 177,
      "Ġreuters": 178,
      "Ġpl": 179,
      "Ġits": 180,
      "ain": 181,
      "ast": 182,
      "ap": 183,
      "oo": 184,
      "ate": 185,
      "ia": 186,
      "ian": 187,
      "ust": 188,
      "Ġsaid": 189,
      "Ġcomp": 190,
      "rom": 191,
      "ens": 192,
      "ee": 193,
      "ect": 194,
      "Ġwas": 195,
      "ight": 196,
      "ist": 197,
      "end": 198,
      "Ġhas": 199,
      "Ġoff": 200,
      "Ġso": 201,
      "Ġfrom": 202,
      "ess": 203,
      "ies": 204,
      "ort": 205,
      "Ġup": 206,
      "Ġhe": 207,
      "ud": 208,
      "um": 209,
      "ft": 210,
      "Ġro": 211,
      "Ġcl": 212,
      "Ġag": 213,
      "ial": 214,
      "ine": 215,
      "und": 216,
      "ity": 217,
      "old": 218,
      "Ġac": 219,
      "ric": 220,
      "Ġse": 221,
      "Ġwor": 222,
      "Ġhis": 223,
      "ack": 224,
      "Ġmon": 225,
      "uc": 226,
      "art": 227,
      "ip": 228,
      "ub": 229,
      "ave": 230,
      "Ġafter": 231,
      "Ġoly": 232,
      "Ġolymp": 233,
      "Ġwill": 234,
      "are": 235,
      "Ġmo": 236,
      "Ġover": 237,
      "ard": 238,
      "ry": 239,
      "esday": 240,
      "ell": 241,
      "Ġolympic": 242,
      "Ġsec": 243,
      "Ġu": 244,
      "Ġinc": 245,
      "ive": 246,
      "mer": 247,
      "if": 248,
      "Ġmar": 249,
      "Ġwin": 250,
      "ere": 251,
      "ab": 252,
      "our": 253,
      "...": 254,
      "iv": 255,
      "Ġop": 256,
      "Ġfir": 257,
      "Ġyear": 258,
      "Ġint": 259,
      "Ġrep": 260,
      "Ġ.": 261,
      "Ġath": 262,
      "Ġfin": 263,
      "Ġtw": 264,
      "Ġout": 265,
      "ld": 266,
      "em": 267,
      "Ġexp": 268,
      "Ġra": 269,
      "Ġab": 270,
      "Ġres": 271,
      "ong": 272,
      "ge": 273,
      "Ġfr": 274,
      "ree": 275,
      "ays": 276,
      "Ġlt": 277,
      "Ġgo": 278,
      "ish": 279,
      "Ġare": 280,
      "ond": 281,
      "uld": 282,
      "Ġhave": 283,
      "Ġen": 284,
      "ie": 285,
      "Ġ,": 286,
      "Ġinter": 287,
      "ans": 288,
      "ice": 289,
      "Ġad": 290,
      "ant": 291,
      "Ġar": 292,
      "ome": 293,
      "ning": 294,
      "Ġgt": 295,
      "any": 296,
      "ord": 297,
      "Ġquot": 298,
      "Ġira": 299,
      "Ġgro": 300,
      "Ġmed": 301,
      "Ġiraq": 302,
      "Ġathens": 303,
      "Ġbl": 304,
      "Ġtwo": 305,
      "Ġrec": 306,
      "Ġpres": 307,
      "Ġbut": 308,
      "ire": 309,
      "out": 310,
      "ork": 311,
      "Ġmore": 312,
      "Ġsc": 313,
      "ost": 314,
      "Ġser": 315,
      "ions": 316,
      "ke": 317,
      "ile": 318,
      "Ġapp": 319,
      "Ġte": 320,
      "Ġgold": 321,
      "Ġoil": 322,
      "Ġpric": 323,
      "ace": 324,
      "age": 325,
      "ime": 326,
      "Ġtheir": 327,
      "Ġpe": 328,
      "Ġbr": 329,
      "ugh": 330,
      "Ġfirst": 331,
      "arg": 332,
      "Ġdis": 333,
      "ite": 334,
      "ure": 335,
      "ail": 336,
      "urs": 337,
      "Ġnot": 338,
      "Ġcont": 339,
      "Ġper": 340,
      "rac": 341,
      "ign": 342,
      "ous": 343,
      "ide": 344,
      "ket": 345,
      "Ġor": 346,
      "Ġwee": 347,
      "ors": 348,
      "ich": 349,
      "Ġgam": 350,
      "Ġcr": 351,
      "her": 352,
      "illion": 353,
      "ue": 354,
      "Ġind": 355,
      "Ġban": 356,
      "unt": 357,
      "Ġstoc": 358,
      "Ġfl": 359,
      "av": 360,
      "ase": 361,
      "ros": 362,
      "der": 363,
      "Ġthis": 364,
      "Ġworld": 365,
      "Ġcan": 366,
      "ates": 367,
      "Ġhigh": 368,
      "Ġbus": 369,
      "Ġone": 370,
      "Ġph": 371,
      "Ġjo": 372,
      "own": 373,
      "amp": 374,
      "Ġdo": 375,
      "Ġatt": 376,
      "Ġlead": 377,
      "ach": 378,
      "ident": 379,
      "Ġmin": 380,
      "Ġmonday": 381,
      "aj": 382,
      "iday": 383,
      "Ġcompany": 384,
      "Ġacc": 385,
      "Ġinv": 386,
      "hn": 387,
      "Ġthurs": 388,
      "Ġthursday": 389,
      "Ġman": 390,
      "Ġtu": 391,
      "Ġgre": 392,
      "ass": 393,
      "Ġwe": 394,
      "Ġintern": 395,
      "Ġtuesday": 396,
      "Ġel": 397,
      "ations": 398,
      "ff": 399,
      "ton": 400,
      "lic": 401,
      "Ġthan": 402,
      "Ġair": 403,
      "Ġpol": 404,
      "Ġim": 405,
      "ester": 406,
      "Ġweek": 407,
      "ited": 408,
      "ake": 409,
      "one": 410,
      "als": 411,
      "Ġme": 412,
      "Ġagain": 413,
      "Ġbo": 414,
      "ational": 415,
      "Ġmil": 416,
      "iz": 417,
      "Ġfriday": 418,
      "Ġyork": 419,
      "ence": 420,
      "Ġgoo": 421,
      "ber": 422,
      "Ġall": 423,
      "Ġcor": 424,
      "ary": 425,
      "Ġsun": 426,
      "Ġla": 427,
      "vers": 428,
      "Ġinto": 429,
      "og": 430,
      "ance": 431,
      "ition": 432,
      "iss": 433,
      "Ġset": 434,
      "ated": 435,
      "Ġsl": 436,
      "anc": 437,
      "Ġwed": 438,
      "Ġprices": 439,
      "Ġamer": 440,
      "Ġameric": 441,
      "Ġend": 442,
      "Ġtra": 443,
      "nesday": 444,
      "Ġwednesday": 445,
      "Ġear": 446,
      "Ġwar": 447,
      "Ġlast": 448,
      "ory": 449,
      "ina": 450,
      "ash": 451,
      "Ġplan": 452,
      "Ġabout": 453,
      "urn": 454,
      "Ġbu": 455,
      "Ġprof": 456,
      "Ġoffic": 457,
      "ey": 458,
      "Ġthey": 459,
      "Ġreport": 460,
      "Ġteam": 461,
      "Ġmic": 462,
      "Ġno": 463,
      "etw": 464,
      "ick": 465,
      "ould": 466,
      "uss": 467,
      "Ġsecond": 468,
      "Ġwho": 469,
      "earch": 470,
      "ds": 471,
      "elp": 472,
      "Ġgover": 473,
      "ath": 474,
      "rop": 475,
      "Ġaug": 476,
      "Ġli": 477,
      "Ġret": 478,
      "Ġpresident": 479,
      "ral": 480,
      "Ġthree": 481,
      "ict": 482,
      "Ġmedal": 483,
      "uct": 484,
      "Ġgovern": 485,
      "ound": 486,
      "ows": 487,
      "Ġcorp": 488,
      "oft": 489,
      "oll": 490,
      "oun": 491,
      "Ġev": 492,
      "af": 493,
      "Ġwere": 494,
      "Ġmilit": 495,
      "ms": 496,
      "Ġsy": 497,
      "Ġsat": 498,
      "ical": 499,
      "Ġsw": 500,
      "arter": 501,
      "Ġpre": 502,
      "ull": 503,
      "Ġofficial": 504,
      "Ġcomm": 505,
      "Ġback": 506,
      "Ġagainst": 507,
      "Ġstocks": 508,
      "Ġpart": 509,
      "hing": 510,
      "Ġinvest": 511,
      "Ġkill": 512,
      "Ġsunday": 513,
      "Ġserv": 514,
      "Ġyester": 515,
      "Ġunited": 516,
      "Ġ...": 517,
      "Ġyesterday": 518,
      "lo": 519,
      "ting": 520,
      "Ġmicros": 521,
      "Ġann": 522,
      "Ġgovernment": 523,
      "Ġsup": 524,
      "co": 525,
      "Ġfour": 526,
      "Ġbeen": 527,
      "tle": 528,
      "Ġsal": 529,
      "Ġam": 530,
      "Ġsecur": 531,
      "Ġmillion": 532,
      "ets": 533,
      "ected": 534,
      "vel": 535,
      "its": 536,
      "Ġpeop": 537,
      "uth": 538,
      "Ġter": 539,
      "urt": 540,
      "Ġmicrosoft": 541,
      "Ġtime": 542,
      "Ġhad": 543,
      "Ġdef": 544,
      "orts": 545,
      "Ġcons": 546,
      "Ġmarket": 547,
      "Ġdec": 548,
      "ib": 549,
      "Ġpr": 550,
      "Ġbank": 551,
      "Ġbas": 552,
      "Ġwhen": 553,
      "ating": 554,
      "ower": 555,
      "Ġstr": 556,
      "Ġplay": 557,
      "Ġrecord": 558,
      "Ġgroup": 559,
      "Ġbro": 560,
      "wn": 561,
      "Ġdown": 562,
      "se": 563,
      "Ġsays": 564,
      "Ġgoog": 565,
      "Ġdes": 566,
      "Ġafp": 567,
      "Ġsur": 568,
      "les": 569,
      "Ġrun": 570,
      "Ġreg": 571,
      "Ġcould": 572,
      "Ġaust": 573,
      "Ġday": 574,
      "ren": 575,
      "Ġmay": 576,
      "Ġcount": 577,
      "Ġlos": 578,
      "Ġfinal": 579,
      "man": 580,
      "Ġcap": 581,
      "ise": 582,
      "cent": 583,
      "ware": 584,
      "Ġpeople": 585,
      "ang": 586,
      "Ġruss": 587,
      "line": 588,
      "ists": 589,
      "Ġwhich": 590,
      "Ġsoft": 591,
      "Ġec": 592,
      "Ġgoogle": 593,
      "Ġtec": 594,
      "eral": 595,
      "Ġquarter": 596,
      "king": 597,
      "ublic": 598,
      "act": 599,
      "Ġtri": 600,
      "ult": 601,
      "Ġmak": 602,
      "ther": 603,
      "Ġtal": 604,
      "atch": 605,
      "ball": 606,
      "Ġolympics": 607,
      "Ġgames": 608,
      "ep": 609,
      "ked": 610,
      "Ġdel": 611,
      "Ġbec": 612,
      "Ġnaj": 613,
      "Ġmus": 614,
      "Ġnajaf": 615,
      "led": 616,
      "orm": 617,
      "Ġaustral": 618,
      "onom": 619,
      "Ġsome": 620,
      "ister": 621,
      "ade": 622,
      "Ġdem": 623,
      "Ġwould": 624,
      "Ġnight": 625,
      "Ġopen": 626,
      "Ġpercent": 627,
      "land": 628,
      "Ġbig": 629,
      "Ġgu": 630,
      "Ġjust": 631,
      "ital": 632,
      "Ġtr": 633,
      "ced": 634,
      "Ġchina": 635,
      "iness": 636,
      "eld": 637,
      "ines": 638,
      "ier": 639,
      "ou": 640,
      "orn": 641,
      "ix": 642,
      "Ġcar": 643,
      "Ġprod": 644,
      "Ġlong": 645,
      "able": 646,
      "Ġsecurity": 647,
      "Ġbrit": 648,
      "Ġinternet": 649,
      "Ġmonth": 650,
      "Ġimp": 651,
      "Ġmen": 652,
      "ual": 653,
      "Ġtoday": 654,
      "ics": 655,
      "Ġbusiness": 656,
      "Ġelect": 657,
      "po": 658,
      "Ġwom": 659,
      "Ġyears": 660,
      "urday": 661,
      "Ġnews": 662,
      "Ġsaturday": 663,
      "bs": 664,
      "com": 665,
      "Ġreb": 666,
      "Ġcourt": 667,
      "Ġwashing": 668,
      "Ġeconom": 669,
      "ged": 670,
      "Ġx": 671,
      "ely": 672,
      "Ġresearch": 673,
      "Ġwashington": 674,
      "ird": 675,
      "Ġsoftware": 676,
      "Ġsu": 677,
      "Ġass": 678,
      "els": 679,
      "ame": 680,
      "Ġminister": 681,
      "let": 682,
      "Ġfed": 683,
      "Ġtop": 684,
      "Ġcall": 685,
      "Ġrele": 686,
      "Ġoffer": 687,
      "Ġamerican": 688,
      "Ġannoun": 689,
      "Ġhelp": 690,
      "Ġfe": 691,
      "Ġconf": 692,
      "xt": 693,
      "Ġnor": 694,
      "Ġnear": 695,
      "Ġinf": 696,
      "Ġeu": 697,
      "az": 698,
      "ling": 699,
      "ities": 700,
      "stem": 701,
      "Ġgrow": 702,
      "Ġwon": 703,
      "Ġstates": 704,
      "Ġwind": 705,
      "Ġvict": 706,
      "Ġpar": 707,
      "ror": 708,
      "Ġhome": 709,
      "Ġsales": 710,
      "ose": 711,
      "Ġjap": 712,
      "ange": 713,
      "Ġjapan": 714,
      "ins": 715,
      "Ġher": 716,
      "Ġsupp": 717,
      "ason": 718,
      "ok": 719,
      "Ġgen": 720,
      "olog": 721,
      "Ġdeal": 722,
      "Ġcut": 723,
      "ater": 724,
      "Ġstate": 725,
      "Ġdep": 726,
      "ied": 727,
      "Ġrel": 728,
      "ents": 729,
      "istan": 730,
      "ah": 731,
      "Ġcol": 732,
      "air": 733,
      "use": 734,
      "ote": 735,
      "ces": 736,
      "Ġnext": 737,
      "ood": 738,
      "de": 739,
      "Ġsch": 740,
      "Ġcity": 741,
      "Ġsha": 742,
      "Ġsouth": 743,
      "Ġwomen": 744,
      "Ġfore": 745,
      "Ġsystem": 746,
      "ings": 747,
      "Ġunder": 748,
      "way": 749,
      "Ġhol": 750,
      "Ġofficials": 751,
      "ands": 752,
      "Ġtechn": 753,
      "int": 754,
      "Ġchamp": 755,
      "eep": 756,
      "Ġprofit": 757,
      "pt": 758,
      "ece": 759,
      "ley": 760,
      "ious": 761,
      "Ġpo": 762,
      "Ġeng": 763,
      "ger": 764,
      "ped": 765,
      "Ġgame": 766,
      "cer": 767,
      "Ġstri": 768,
      "ved": 769,
      "Ġmiss": 770,
      "Ġbuy": 771,
      "Ġsm": 772,
      "io": 773,
      "Ġcost": 774,
      "Ġservice": 775,
      "Ġsee": 776,
      "Ġdr": 777,
      "Ġnational": 778,
      "ont": 779,
      "Ġhit": 780,
      "Ġbef": 781,
      "ned": 782,
      "Ġref": 783,
      "Ġnetw": 784,
      "Ġsay": 785,
      "ons": 786,
      "Ġju": 787,
      "rough": 788,
      "Ġwindows": 789,
      "han": 790,
      "Ġupd": 791,
      "Ġbush": 792,
      "Ġbefore": 793,
      "ven": 794,
      "Ġtarg": 795,
      "unch": 796,
      "Ġcountry": 797,
      "Ġed": 798,
      "ress": 799,
      "aim": 800,
      "Ġlin": 801,
      "ments": 802,
      "Ġfi": 803,
      "Ġpost": 804,
      "Ġterror": 805,
      "pos": 806,
      "ws": 807,
      "Ġprot": 808,
      "Ġcanad": 809,
      "ves": 810,
      "Ġtak": 811,
      "Ġgian": 812,
      "Ġgreece": 813,
      "cy": 814,
      "Ġbre": 815,
      "Ġtalks": 816,
      "ants": 817,
      "uring": 818,
      "ild": 819,
      "ecut": 820,
      "Ġact": 821,
      "Ġwork": 822,
      "ner": 823,
      "ward": 824,
      "Ġbillion": 825,
      "Ġoper": 826,
      "Ġbat": 827,
      "Ġbel": 828,
      "Ġisra": 829,
      "ene": 830,
      "Ġvi": 831,
      "Ġisrael": 832,
      "Ġta": 833,
      "Ġbom": 834,
      "Ġmost": 835,
      "Ġsus": 836,
      "Ġyou": 837,
      "velop": 838,
      "Ġvictory": 839,
      "Ġget": 840,
      "Ġstart": 841,
      "Ġjohn": 842,
      "cess": 843,
      "Ġcre": 844,
      "Ġfound": 845,
      "Ġant": 846,
      "Ġclaim": 847,
      "Ġz": 848,
      "Ġsign": 849,
      "Ġother": 850,
      "Ġpublic": 851,
      "Ġshar": 852,
      "Ġplans": 853,
      "be": 854,
      "Ġpa": 855,
      "Ġif": 856,
      "Ġtest": 857,
      "Ġway": 858,
      "Ġtro": 859,
      "Ġshow": 860,
      "ient": 861,
      "Ġhead": 862,
      "Ġiraqi": 863,
      "ract": 864,
      "Ġinternational": 865,
      "ph": 866,
      "ally": 867,
      "Ġdevelop": 868,
      "Ġwhat": 869,
      "ices": 870,
      "Ġpress": 871,
      "Ġstock": 872,
      "Ġtake": 873,
      "Ġpower": 874,
      "Ġstre": 875,
      "acks": 876,
      "Ġshi": 877,
      "Ġtel": 878,
      "Ġsusp": 879,
      "lud": 880,
      "Ġfull": 881,
      "less": 882,
      "ures": 883,
      "Ġshares": 884,
      "ead": 885,
      "Ġham": 886,
      "other": 887,
      "ased": 888,
      "Ġkilled": 889,
      "Ġtarget": 890,
      "ct": 891,
      "Ġbar": 892,
      "Ġmaj": 893,
      "Ġever": 894,
      "gest": 895,
      "Ġ'": 896,
      "Ġstar": 897,
      "uel": 898,
      "Ġins": 899,
      "Ġprov": 900,
      "ook": 901,
      "hip": 902,
      "ision": 903,
      "Ġrem": 904,
      "Ġtechnolog": 905,
      "Ġhal": 906,
      "Ġgr": 907,
      "Ġcompu": 908,
      "ky": 909,
      "Ġhom": 910,
      "Ġmusic": 911,
      "Ġpos": 912,
      "Ġred": 913,
      "Ġaustralia": 914,
      "Ġext": 915,
      "Ġreported": 916,
      "Ġthrough": 917,
      "Ġpay": 918,
      "Ġweb": 919,
      "Ġupdate": 920,
      "Ġthird": 921,
      "Ġbeg": 922,
      "Ġadv": 923,
      "Ġrussian": 924,
      "iam": 925,
      "alif": 926,
      "Ġannounced": 927,
      "Ġhim": 928,
      "Ġmajor": 929,
      "Ġipo": 930,
      "Ġhow": 931,
      "Ġstud": 932,
      "ram": 933,
      "Ġrul": 934,
      "ives": 935,
      "Ġattack": 936,
      "Ġfall": 937,
      "reat": 938,
      "Ġwhile": 939,
      "Ġlarg": 940,
      "Ġaccord": 941,
      "ince": 942,
      "ough": 943,
      "Ġspr": 944,
      "Ġround": 945,
      "med": 946,
      "ys": 947,
      "Ġ:": 948,
      "Ġhold": 949,
      "Ġlaunch": 950,
      "Ġold": 951,
      "itt": 952,
      "Ġdat": 953,
      "Ġcomputer": 954,
      "Ġcharg": 955,
      "Ġfederal": 956,
      "Ġeff": 957,
      "Ġprime": 958,
      "Ġnorth": 959,
      "ese": 960,
      "Ġleast": 961,
      "rest": 962,
      "adr": 963,
      "Ġkn": 964,
      "Ġpolice": 965,
      "ause": 966,
      "Ġinclud": 967,
      "Ġang": 968,
      "ising": 969,
      "Ġgrowth": 970,
      "Ġdrug": 971,
      "Ġaccording": 972,
      "ble": 973,
      "Ġshe": 974,
      "Ġeurop": 975,
      "uch": 976,
      "ones": 977,
      "Ġcent": 978,
      "Ġstill": 979,
      "Ġem": 980,
      "Ġformer": 981,
      "Ġcompet": 982,
      "Ġprice": 983,
      "Ġsan": 984,
      "Ġquick": 985,
      "Ġbomb": 986,
      "Ġput": 987,
      "Ġonline": 988,
      "Ġbritish": 989,
      "ert": 990,
      "Ġmade": 991,
      "Ġdrop": 992,
      "Ġanother": 993,
      "ects": 994,
      "Ġdeb": 995,
      "Ġcontin": 996,
      "Ġhigher": 997,
      "Ġeurope": 998,
      "ding": 999,
      "lin": 1000,
      "Ġsud": 1001,
      "Ġfight": 1002,
      "Ġchip": 1003,
      "Ġboo": 1004,
      "Ġindust": 1005,
      "Ġhop": 1006,
      "Ġconsum": 1007,
      "Ġhur": 1008,
      "'t": 1009,
      "ron": 1010,
      "eric": 1011,
      "Ġcamp": 1012,
      "Ġfive": 1013,
      "een": 1014,
      "rican": 1015,
      "Ġseason": 1016,
      "Ġq": 1017,
      "nings": 1018,
      "Ġfire": 1019,
      "Ġmake": 1020,
      "Ġdar": 1021,
      "Ġpeace": 1022,
      "Ġexpected": 1023,
      "Ġrad": 1024,
      "ending": 1025,
      "ief": 1026,
      "Ġaugust": 1027,
      "ful": 1028,
      "od": 1029,
      "Ġger": 1030,
      "Ġleg": 1031,
      "Ġjud": 1032,
      "Ġbeat": 1033,
      "Ġcontro": 1034,
      "Ġtechnology": 1035,
      "Ġthem": 1036,
      "Ġfo": 1037,
      "round": 1038,
      "used": 1039,
      "Ġnow": 1040,
      "Ġwins": 1041,
      "ne": 1042,
      "Ġsing": 1043,
      "Ġchar": 1044,
      "Ġsudan": 1045,
      "Ġpak": 1046,
      "ator": 1047,
      "Ġleader": 1048,
      "vent": 1049,
      "Ġsix": 1050,
      "ops": 1051,
      "Ġmob": 1052,
      "iff": 1053,
      "Ġretail": 1054,
      "Ġshare": 1055,
      "Ġbased": 1056,
      "Ġlargest": 1057,
      ".,": 1058,
      "Ġlo": 1059,
      "ivers": 1060,
      "Ġreal": 1061,
      "etween": 1062,
      "Ġdata": 1063,
      "Ġface": 1064,
      "Ġbetween": 1065,
      "isco": 1066,
      "Ġonly": 1067,
      "Ġcompan": 1068,
      "Ġincre": 1069,
      "Ġstrong": 1070,
      "Ġsell": 1071,
      "Ġstra": 1072,
      "ock": 1073,
      "Ġown": 1074,
      "Ġclos": 1075,
      "Ġeven": 1076,
      "Ġpakistan": 1077,
      "Ġexpl": 1078,
      "Ġnetwork": 1079,
      "Ġsadr": 1080,
      "Ġthere": 1081,
      "Ġmid": 1082,
      "ured": 1083,
      "ns": 1084,
      "Ġsil": 1085,
      "reed": 1086,
      "Ġacqu": 1087,
      "Ġcompanies": 1088,
      "row": 1089,
      "cl": 1090,
      "Ġver": 1091,
      "Ġcleric": 1092,
      "Ġwal": 1093,
      "Ġrev": 1094,
      "Ġgiant": 1095,
      "min": 1096,
      "Ġfil": 1097,
      "Ġpc": 1098,
      "Ġshr": 1099,
      "Ġbeing": 1100,
      "Ġir": 1101,
      "atest": 1102,
      "lear": 1103,
      "str": 1104,
      "ots": 1105,
      "Ġkore": 1106,
      "Ġloss": 1107,
      "ik": 1108,
      "Ġsold": 1109,
      "Ġfirm": 1110,
      "Ġreturn": 1111,
      "uction": 1112,
      "Ġbiggest": 1113,
      "Ġmobile": 1114,
      "Ġbid": 1115,
      "Ġinit": 1116,
      "ury": 1117,
      "Ġprog": 1118,
      "Ġsearch": 1119,
      "Ġsince": 1120,
      "Ġfac": 1121,
      "Ġmilitary": 1122,
      "Ġdead": 1123,
      "ollar": 1124,
      "head": 1125,
      "ym": 1126,
      "ators": 1127,
      "Ġinvestors": 1128,
      "Ġhear": 1129,
      "ared": 1130,
      "Ġmove": 1131,
      "iew": 1132,
      "ref": 1133,
      "Ġequ": 1134,
      "ains": 1135,
      "Ġappe": 1136,
      "inf": 1137,
      "Ġmich": 1138,
      "Ġleft": 1139,
      "Ġdoub": 1140,
      "Ġhref": 1141,
      "Ġreach": 1142,
      "Ġsour": 1143,
      "cast": 1144,
      "Ġpal": 1145,
      "Ġinj": 1146,
      "aw": 1147,
      "ues": 1148,
      "Ġdollar": 1149,
      "Ġnas": 1150,
      "ague": 1151,
      "Ġrussia": 1152,
      "Ġproduc": 1153,
      "Ġviol": 1154,
      "Ġav": 1155,
      "Ġnation": 1156,
      "rack": 1157,
      "Ġca": 1158,
      "ility": 1159,
      "Ġsem": 1160,
      "Ġsub": 1161,
      "alth": 1162,
      "Ġhost": 1163,
      "Ġstore": 1164,
      "ights": 1165,
      "Ġcapital": 1166,
      "ross": 1167,
      "Ġindustry": 1168,
      "ium": 1169,
      "Ġtit": 1170,
      "Ġbra": 1171,
      "ago": 1172,
      "Ġarm": 1173,
      "Ġdemand": 1174,
      "eb": 1175,
      "ration": 1176,
      "Ġcust": 1177,
      "ush": 1178,
      "Ġstand": 1179,
      "ians": 1180,
      "ping": 1181,
      "Ġturn": 1182,
      "Ġpack": 1183,
      "aly": 1184,
      "Ġappro": 1185,
      "Ġpolit": 1186,
      "Ġbasket": 1187,
      "Ġbecause": 1188,
      "Ġoffering": 1189,
      "Ġchic": 1190,
      "Ġphone": 1191,
      "Ġdesp": 1192,
      "Ġpaul": 1193,
      "Ġfund": 1194,
      "Ġnet": 1195,
      "ular": 1196,
      "fur": 1197,
      "Ġwire": 1198,
      "Ġmet": 1199,
      "Ġfinanc": 1200,
      "ondon": 1201,
      "Ġarrest": 1202,
      "Ġapple": 1203,
      "Ġeconomy": 1204,
      "gy": 1205,
      "ised": 1206,
      "Ġlondon": 1207,
      "Ġany": 1208,
      "owing": 1209,
      "Ġafg": 1210,
      "Ġindia": 1211,
      "Ġbasketball": 1212,
      "ze": 1213,
      "Ġdays": 1214,
      "Ġduring": 1215,
      "Ġlatest": 1216,
      "upt": 1217,
      "Ġenter": 1218,
      "Ġdarfur": 1219,
      "Ġaround": 1220,
      "Ġmaker": 1221,
      "Ġxp": 1222,
      "Ġchicago": 1223,
      "Ġfell": 1224,
      "Ġpri": 1225,
      "ution": 1226,
      "Ġleague": 1227,
      "Ġparty": 1228,
      "bo": 1229,
      "pe": 1230,
      "ty": 1231,
      "enter": 1232,
      "ative": 1233,
      "ude": 1234,
      "ev": 1235,
      "Ġfoll": 1236,
      "Ġbill": 1237,
      "Ġmeet": 1238,
      "Ġer": 1239,
      "Ġpop": 1240,
      "Ġdet": 1241,
      "Ġearly": 1242,
      "Ġinvestig": 1243,
      "Ġregion": 1244,
      "Ġcanadian": 1245,
      "Ġincluding": 1246,
      "ges": 1247,
      "Ġahead": 1248,
      "ind": 1249,
      "Ġcase": 1250,
      "ense": 1251,
      "Ġscient": 1252,
      "Ġattacks": 1253,
      "Ġeconomic": 1254,
      "Ġdom": 1255,
      "Ġgra": 1256,
      "Ġste": 1257,
      "Ġiss": 1258,
      "ael": 1259,
      "Ġcalif": 1260,
      "Ġpat": 1261,
      "orks": 1262,
      "Ġvir": 1263,
      "erry": 1264,
      "Ġpass": 1265,
      "itch": 1266,
      "quote": 1267,
      "Ġelection": 1268,
      "Ġhalf": 1269,
      "ered": 1270,
      "Ġfail": 1271,
      "ises": 1272,
      "Ġvis": 1273,
      "Ġrelease": 1274,
      "Ġfullquote": 1275,
      "Ġquickinf": 1276,
      "Ġcustom": 1277,
      "Ġquickinfo": 1278,
      "bers": 1279,
      "ool": 1280,
      "uk": 1281,
      "Ġwall": 1282,
      "Ġhand": 1283,
      "Ġneed": 1284,
      "Ġhealth": 1285,
      "ished": 1286,
      "Ġlaw": 1287,
      "Ġlike": 1288,
      "Ġrebels": 1289,
      "Ġconsumer": 1290,
      "Ġdist": 1291,
      "ady": 1292,
      "Ġuse": 1293,
      "Ġafghan": 1294,
      "Ġty": 1295,
      "Ġtim": 1296,
      "Ġsuc": 1297,
      "Ġdri": 1298,
      "Ġline": 1299,
      "Ġchec": 1300,
      "Ġrace": 1301,
      "Ġfranc": 1302,
      "pl": 1303,
      "son": 1304,
      "Ġthreat": 1305,
      "Ġdev": 1306,
      "Ġspec": 1307,
      "Ġspace": 1308,
      "Ġexecut": 1309,
      "Ġagreed": 1310,
      "Ġoppos": 1311,
      "Ġnearly": 1312,
      "Ġcup": 1313,
      "Ġwr": 1314,
      "Ġpast": 1315,
      "Ġgree": 1316,
      "Ġjuly": 1317,
      "Ġcub": 1318,
      "ism": 1319,
      "Ġdav": 1320,
      "ute": 1321,
      "Ġrose": 1322,
      "Ġmanag": 1323,
      "Ġearnings": 1324,
      "Ġfree": 1325,
      "Ġalle": 1326,
      "Ġwest": 1327,
      "atic": 1328,
      "raw": 1329,
      "Ġconcer": 1330,
      "Ġboost": 1331,
      "eg": 1332,
      "ux": 1333,
      "Ġtry": 1334,
      "ency": 1335,
      "iting": 1336,
      "ison": 1337,
      "Ġreports": 1338,
      "Ġcrude": 1339,
      "ission": 1340,
      "Ġgeneral": 1341,
      "Ġfut": 1342,
      "Ġmem": 1343,
      "Ġmany": 1344,
      "Ġinst": 1345,
      "Ġgym": 1346,
      "Ġlit": 1347,
      "Ġnum": 1348,
      "Ġchief": 1349,
      "Ġriv": 1350,
      "Ġib": 1351,
      "Ġbroad": 1352,
      "Ġstrike": 1353,
      "Ġmichael": 1354,
      "Ġgl": 1355,
      "ades": 1356,
      "ife": 1357,
      "Ġphelp": 1358,
      "Ġbreak": 1359,
      "Ġshrine": 1360,
      "Ġphelps": 1361,
      "over": 1362,
      "rupt": 1363,
      "Ġfren": 1364,
      "Ġmot": 1365,
      "Ġlab": 1366,
      "Ġkeep": 1367,
      "ears": 1368,
      "Ġrepublic": 1369,
      "Ġreleased": 1370,
      "Ġgymn": 1371,
      "arm": 1372,
      "Ġshould": 1373,
      "Ġcoach": 1374,
      "Ġago": 1375,
      "Ġchampions": 1376,
      "Ġspe": 1377,
      "ible": 1378,
      "Ġcontrol": 1379,
      "Ġdespite": 1380,
      "Ġsoc": 1381,
      "Ġcard": 1382,
      "Ġge": 1383,
      "ught": 1384,
      "Ġsupport": 1385,
      "Ġsum": 1386,
      "Ġbag": 1387,
      "Ġhist": 1388,
      "Ġhere": 1389,
      "Ġglo": 1390,
      "estin": 1391,
      "uck": 1392,
      "Ġcommun": 1393,
      "Ġmonths": 1394,
      "form": 1395,
      "py": 1396,
      "Ġdig": 1397,
      "Ġgas": 1398,
      "oth": 1399,
      "Ġkerry": 1400,
      "Ġservices": 1401,
      "loy": 1402,
      "Ġsim": 1403,
      "ony": 1404,
      "Ġmain": 1405,
      "Ġshot": 1406,
      "Ġusers": 1407,
      "Ġrecent": 1408,
      "Ġtrans": 1409,
      "pr": 1410,
      "Ġur": 1411,
      "Ġvers": 1412,
      "Ġmuch": 1413,
      "Ġlower": 1414,
      "aster": 1415,
      "Ġyour": 1416,
      "Ġinitial": 1417,
      "Ġwireless": 1418,
      "by": 1419,
      "Ġest": 1420,
      "Ġfam": 1421,
      "Ġmos": 1422,
      "Ġhour": 1423,
      "Ġrest": 1424,
      "ily": 1425,
      "Ġuk": 1426,
      "ize": 1427,
      "Ġhamm": 1428,
      "port": 1429,
      "Ġloo": 1430,
      "Ġrise": 1431,
      "Ġkey": 1432,
      "Ġwhere": 1433,
      "ites": 1434,
      "Ġlow": 1435,
      "Ġeight": 1436,
      "imin": 1437,
      "Ġintel": 1438,
      "Ġibm": 1439,
      "Ġfrench": 1440,
      "ll": 1441,
      "ump": 1442,
      "Ġbet": 1443,
      "Ġtook": 1444,
      "Ġaustralian": 1445,
      "Ġchampion": 1446,
      "Ġfinancial": 1447,
      "gl": 1448,
      "ink": 1449,
      "Ġsen": 1450,
      "Ġsol": 1451,
      "idn": 1452,
      "Ġsmall": 1453,
      "red": 1454,
      "enn": 1455,
      "ather": 1456,
      "Ġstep": 1457,
      "Ġsports": 1458,
      "Ġcrash": 1459,
      "Ġtitle": 1460,
      "Ġgreek": 1461,
      "bal": 1462,
      "idence": 1463,
      "Ġadd": 1464,
      "Ġcontract": 1465,
      "Ġemb": 1466,
      "Ġfighting": 1467,
      "Ġcampa": 1468,
      ";...": 1469,
      "ued": 1470,
      "ourn": 1471,
      "iving": 1472,
      "Ġathlet": 1473,
      "Ġgood": 1474,
      "Ġschool": 1475,
      "rem": 1476,
      "Ġmart": 1477,
      "ott": 1478,
      "Ġregul": 1479,
      "Ġanti": 1480,
      "Ġstreet": 1481,
      "Ġopposition": 1482,
      "ees": 1483,
      "Ġmor": 1484,
      "Ġvo": 1485,
      "ection": 1486,
      "Ġweeks": 1487,
      "Ġsettle": 1488,
      "Ġcalled": 1489,
      "Ġprotest": 1490,
      "enez": 1491,
      "Ġgymnast": 1492,
      "hd": 1493,
      "oon": 1494,
      "uit": 1495,
      "ether": 1496,
      "Ġused": 1497,
      "Ġfourth": 1498,
      "Ġtroops": 1499,
      "Ġcompetition": 1500,
      "ways": 1501,
      "Ġtor": 1502,
      "ream": 1503,
      "Ġcare": 1504,
      "elf": 1505,
      "ults": 1506,
      "Ġjourn": 1507,
      "Ġvide": 1508,
      "Ġunion": 1509,
      "Ġamericans": 1510,
      "Ġmilitants": 1511,
      "Ġheld": 1512,
      "Ġemp": 1513,
      "Ġbritain": 1514,
      "Ġcampaign": 1515,
      "wa": 1516,
      "Ġagree": 1517,
      "Ġcommission": 1518,
      "Ġlittle": 1519,
      "par": 1520,
      "Ġwatch": 1521,
      "Ġpull": 1522,
      "Ġmc": 1523,
      "Ġwithout": 1524,
      "Ġisraeli": 1525,
      "Ġtax": 1526,
      "ging": 1527,
      "iver": 1528,
      "ov": 1529,
      "Ġhous": 1530,
      "Ġgive": 1531,
      "Ġlate": 1532,
      "Ġdepart": 1533,
      "Ġcharges": 1534,
      "Ġpalestin": 1535,
      "lier": 1536,
      "Ġcy": 1537,
      "Ġmass": 1538,
      "ada": 1539,
      "Ġsever": 1540,
      "ized": 1541,
      "Ġlik": 1542,
      "Ġdemoc": 1543,
      "Ġcosts": 1544,
      "ming": 1545,
      "Ġauth": 1546,
      "Ġhum": 1547,
      "ider": 1548,
      "ific": 1549,
      "Ġmark": 1550,
      "Ġdisco": 1551,
      "Ġpolitical": 1552,
      "iers": 1553,
      "lines": 1554,
      "Ġyan": 1555,
      "ugg": 1556,
      "Ġengine": 1557,
      "Ġposs": 1558,
      "Ġkorea": 1559,
      "Ġsuccess": 1560,
      "Ġconn": 1561,
      "Ġjournal": 1562,
      "ving": 1563,
      "Ġtoky": 1564,
      "Ġvenez": 1565,
      "Ġevent": 1566,
      "Ġfoot": 1567,
      "Ġversion": 1568,
      "Ġtokyo": 1569,
      "Ġvenezuel": 1570,
      "fact": 1571,
      "lam": 1572,
      "ness": 1573,
      "Ġunivers": 1574,
      "Ġscientists": 1575,
      "ages": 1576,
      "Ġcomplet": 1577,
      "Ġphil": 1578,
      "Ġtrial": 1579,
      "Ġeuropean": 1580,
      "Ġbaghd": 1581,
      "Ġglobal": 1582,
      "Ġbaghdad": 1583,
      "Ġbron": 1584,
      "Ġtrade": 1585,
      "Ġhurrican": 1586,
      "Ġfrancisco": 1587,
      "Ġrally": 1588,
      "Ġleading": 1589,
      "Ġmanage": 1590,
      "Ġprofile": 1591,
      "Ġauthor": 1592,
      "ij": 1593,
      "ject": 1594,
      "Ġforces": 1595,
      "erson": 1596,
      "ries": 1597,
      "Ġacross": 1598,
      "Ġjump": 1599,
      "Ġstudy": 1600,
      "Ġexplos": 1601,
      "emp": 1602,
      "Ġes": 1603,
      "Ġtrack": 1604,
      "ung": 1605,
      "Ġright": 1606,
      "Ġdeath": 1607,
      "Ġproduct": 1608,
      "Ġshiite": 1609,
      "Ġcond": 1610,
      "Ġengland": 1611,
      "ex": 1612,
      "ided": 1613,
      "Ġquest": 1614,
      "Ġwinning": 1615,
      "Ġdepartment": 1616,
      "Ġma": 1617,
      "Ġhp": 1618,
      "Ġvol": 1619,
      "Ġmaking": 1620,
      "Ġforeign": 1621,
      "Ġvideo": 1622,
      "so": 1623,
      "Ġos": 1624,
      "Ġbase": 1625,
      "Ġwater": 1626,
      "Ġden": 1627,
      "Ġislam": 1628,
      "ended": 1629,
      "Ġmeter": 1630,
      "Ġsystems": 1631,
      "Ġclaims": 1632,
      "gan": 1633,
      "ret": 1634,
      "Ġcenter": 1635,
      "Ġber": 1636,
      "Ġlight": 1637,
      "hern": 1638,
      "aving": 1639,
      "athon": 1640,
      "Ġsn": 1641,
      "raft": 1642,
      "cher": 1643,
      "Ġresults": 1644,
      "Ġart": 1645,
      "Ġquote": 1646,
      "Ġcanada": 1647,
      "Ġtakes": 1648,
      "Ġdigital": 1649,
      "hold": 1650,
      "ior": 1651,
      "Ġfar": 1652,
      "ida": 1653,
      "ament": 1654,
      "vention": 1655,
      "Ġviolence": 1656,
      "Ġamp": 1657,
      "Ġthous": 1658,
      "lex": 1659,
      "Ġje": 1660,
      "Ġdisc": 1661,
      "Ġbuild": 1662,
      "Ġiran": 1663,
      "Ġgeor": 1664,
      "Ġbronze": 1665,
      "ai": 1666,
      "ergy": 1667,
      "Ġmat": 1668,
      "Ġeas": 1669,
      "Ġshort": 1670,
      "Ġsox": 1671,
      "Ġseven": 1672,
      "Ġmoney": 1673,
      "tain": 1674,
      "Ġwell": 1675,
      "Ġdire": 1676,
      "uthern": 1677,
      "Ġship": 1678,
      "resh": 1679,
      "Ġsouthern": 1680,
      "umb": 1681,
      "Ġcris": 1682,
      "Ġfield": 1683,
      "Ġhurricane": 1684,
      "ker": 1685,
      "off": 1686,
      "Ġcoll": 1687,
      "Ġmer": 1688,
      "Ġprom": 1689,
      "Ġprocess": 1690,
      "Ġalso": 1691,
      "Ġopt": 1692,
      "Ġapplic": 1693,
      "Ġforecast": 1694,
      "set": 1695,
      "ule": 1696,
      "Ġaway": 1697,
      "Ġfresh": 1698,
      "asts": 1699,
      "Ġexch": 1700,
      "Ġclose": 1701,
      "Ġmarathon": 1702,
      "Ġblock": 1703,
      "Ġairways": 1704,
      "Ġearlier": 1705,
      "Ġkilling": 1706,
      "tada": 1707,
      "Ġmatch": 1708,
      "Ġvote": 1709,
      "ends": 1710,
      "Ġexper": 1711,
      "Ġlaws": 1712,
      "Ġamid": 1713,
      "Ġresearchers": 1714,
      "Ġlinux": 1715,
      "Ġgrand": 1716,
      "Ġjudge": 1717,
      "Ġsilver": 1718,
      "ault": 1719,
      "ount": 1720,
      "Ġlost": 1721,
      "Ġenergy": 1722,
      "estern": 1723,
      "Ġtrading": 1724,
      "Ġnasa": 1725,
      "Ġvisit": 1726,
      "Ġmanagement": 1727,
      "Ġaim": 1728,
      "Ġcur": 1729,
      "Ġpil": 1730,
      "Ġgets": 1731,
      "Ġrece": 1732,
      "vert": 1733,
      "Ġchang": 1734,
      "Ġrange": 1735,
      "Ġproble": 1736,
      "Ġresp": 1737,
      "Ġangel": 1738,
      "Ġsource": 1739,
      "Ġfollowing": 1740,
      "Ġcaliforn": 1741,
      "back": 1742,
      "rel": 1743,
      "Ġled": 1744,
      "Ġval": 1745,
      "Ġplace": 1746,
      "Ġblue": 1747,
      "ired": 1748,
      "Ġjob": 1749,
      "Ġdesign": 1750,
      "Ġimpro": 1751,
      "Ġsuch": 1752,
      "Ġtaking": 1753,
      "Ġseveral": 1754,
      "Ġdirect": 1755,
      "oid": 1756,
      "ined": 1757,
      "Ġhot": 1758,
      "Ġpropos": 1759,
      "oci": 1760,
      "Ġassoci": 1761,
      "Ġjapanese": 1762,
      "Ġcustomers": 1763,
      "Ġthousands": 1764,
      "Ġcrisis": 1765,
      "band": 1766,
      "da": 1767,
      "ef": 1768,
      "most": 1769,
      "Ġmal": 1770,
      "Ġhard": 1771,
      "Ġwithd": 1772,
      "Ġwhite": 1773,
      "allen": 1774,
      "Ġclass": 1775,
      "rica": 1776,
      "Ġtech": 1777,
      "Ġbecome": 1778,
      "Ġnumber": 1779,
      "Ġlabor": 1780,
      "Ġgymnastics": 1781,
      "bed": 1782,
      "cing": 1783,
      "Ġcell": 1784,
      "Ġpush": 1785,
      "Ġnations": 1786,
      "Ġheav": 1787,
      "Ġagency": 1788,
      "Ġcrit": 1789,
      "Ġcorpor": 1790,
      "Ġplayers": 1791,
      "Ġgerm": 1792,
      "Ġalleged": 1793,
      "Ġsummer": 1794,
      "Ġexchange": 1795,
      "Ġcalifornia": 1796,
      "Ġsame": 1797,
      "Ġthough": 1798,
      "ened": 1799,
      "uts": 1800,
      "owed": 1801,
      "que": 1802,
      "ards": 1803,
      "Ġperform": 1804,
      "Ġorder": 1805,
      "Ġbangl": 1806,
      "Ġleaders": 1807,
      "Ġdecision": 1808,
      "Ġplayer": 1809,
      "Ġcuts": 1810,
      "Ġsharp": 1811,
      "Ġprogram": 1812,
      "Ġarrested": 1813,
      "iw": 1814,
      "eration": 1815,
      "Ġbird": 1816,
      "Ġwi": 1817,
      "Ġmight": 1818,
      "Ġlife": 1819,
      "Ġconvention": 1820,
      "racy": 1821,
      "Ġamerica": 1822,
      "Ġoperating": 1823,
      "Ġhuman": 1824,
      "Ġbal": 1825,
      "Ġbur": 1826,
      "Ġwound": 1827,
      "Ġhug": 1828,
      "Ġjones": 1829,
      "Ġbeh": 1830,
      "Ġpros": 1831,
      "Ġmedia": 1832,
      "kees": 1833,
      "Ġairlines": 1834,
      "Ġbegin": 1835,
      "Ġdomin": 1836,
      "adesh": 1837,
      "Ġyankees": 1838,
      "Ġbangladesh": 1839,
      "Ġpitch": 1840,
      "Ġlet": 1841,
      "veil": 1842,
      "Ġchallen": 1843,
      "Ġseries": 1844,
      "Ġarmy": 1845,
      "Ġcel": 1846,
      "Ġboth": 1847,
      "Ġpan": 1848,
      "Ġport": 1849,
      "Ġnam": 1850,
      "ential": 1851,
      "Ġjun": 1852,
      "Ġunveil": 1853,
      "Ġrecall": 1854,
      "Ġsuper": 1855,
      "Ġprison": 1856,
      "Ġrebel": 1857,
      "Ġholy": 1858,
      "Ġbattle": 1859,
      "Ġstraight": 1860,
      "Ġlikely": 1861,
      "down": 1862,
      "go": 1863,
      "gers": 1864,
      "ners": 1865,
      "Ġsent": 1866,
      "ale": 1867,
      "Ġrequ": 1868,
      "utes": 1869,
      "Ġafrica": 1870,
      "Ġaccused": 1871,
      "Ġsweep": 1872,
      "Ġretailer": 1873,
      "Ġfuture": 1874,
      "Ġdemocr": 1875,
      "cri": 1876,
      "ded": 1877,
      "iet": 1878,
      "we": 1879,
      "ino": 1880,
      "Ġhits": 1881,
      "Ġland": 1882,
      "Ġwilliam": 1883,
      "Ġmedals": 1884,
      "Ġconfir": 1885,
      "Ġinfl": 1886,
      "Ġcred": 1887,
      "Ġevery": 1888,
      "Ġchampionship": 1889,
      "Ġhours": 1890,
      "Ġemploy": 1891,
      "yle": 1892,
      "Ġcle": 1893,
      "Ġfuel": 1894,
      "Ġbest": 1895,
      "ides": 1896,
      "Ġran": 1897,
      "aper": 1898,
      "Ġhew": 1899,
      "Ġsept": 1900,
      "aren": 1901,
      "Ġreser": 1902,
      "Ġinterest": 1903,
      "Ġnetworks": 1904,
      "Ġdouble": 1905,
      "ck": 1906,
      "inals": 1907,
      "Ġdoc": 1908,
      "Ġloc": 1909,
      "ech": 1910,
      "Ġey": 1911,
      "Ġry": 1912,
      "Ġalmost": 1913,
      "ishing": 1914,
      "Ġscore": 1915,
      "oston": 1916,
      "Ġattemp": 1917,
      "Ġrunning": 1918,
      "Ġinform": 1919,
      "Ġactiv": 1920,
      "Ġbarrel": 1921,
      "Ġcentral": 1922,
      "Ġlegal": 1923,
      "Ġangeles": 1924,
      "Ġfre": 1925,
      "Ġfast": 1926,
      "Ġwant": 1927,
      "Ġhund": 1928,
      "Ġtourn": 1929,
      "Ġdon": 1930,
      "Ġnuc": 1931,
      "ille": 1932,
      "vered": 1933,
      "Ġleave": 1934,
      "Ġshowed": 1935,
      "Ġgerman": 1936,
      "Ġrival": 1937,
      "Ġbetter": 1938,
      "dle": 1939,
      "qtada": 1940,
      "ying": 1941,
      "Ġboston": 1942,
      "itions": 1943,
      "Ġdue": 1944,
      "Ġless": 1945,
      "ases": 1946,
      "cept": 1947,
      "Ġusing": 1948,
      "app": 1949,
      "Ġserver": 1950,
      "racle": 1951,
      "Ġorgan": 1952,
      "Ġaccess": 1953,
      "Ġfeat": 1954,
      "onto": 1955,
      "Ġappeal": 1956,
      "Ġhistory": 1957,
      "Ġnuclear": 1958,
      "ience": 1959,
      "ann": 1960,
      "Ġatl": 1961,
      "Ġyoun": 1962,
      "ember": 1963,
      "Ġpoll": 1964,
      "Ġfew": 1965,
      "Ġinsur": 1966,
      "Ġhomes": 1967,
      "Ġcharley": 1968,
      "Ġproducts": 1969,
      "Ġtoronto": 1970,
      "iwan": 1971,
      "ax": 1972,
      "bc": 1973,
      "Ġanaly": 1974,
      "Ġche": 1975,
      "Ġwhether": 1976,
      "ension": 1977,
      "Ġrob": 1978,
      "Ġbox": 1979,
      "Ġtaiwan": 1980,
      "Ġexecutive": 1981,
      "aff": 1982,
      "ders": 1983,
      "fi": 1984,
      "ining": 1985,
      "Ġmac": 1986,
      "Ġtoo": 1987,
      "ications": 1988,
      "ained": 1989,
      "ipp": 1990,
      "Ġfrance": 1991,
      "Ġgoing": 1992,
      "Ġjobs": 1993,
      "Ġgreat": 1994,
      "Ġrules": 1995,
      "ike": 1996,
      "ted": 1997,
      "Ġtv": 1998,
      "Ġmail": 1999,
      "Ġtool": 2000,
      "ica": 2001,
      "Ġafrican": 2002,
      "Ġseen": 2003,
      "Ġmeters": 2004,
      "Ġquarterly": 2005,
      "aza": 2006,
      "wards": 2007,
      "minist": 2008,
      "Ġtyph": 2009,
      "Ġtimes": 2010,
      "Ġsoccer": 2011,
      "pal": 2012,
      "Ġtenn": 2013,
      "Ġfood": 2014,
      "ived": 2015,
      "Ġadminist": 2016,
      "Ġmilitia": 2017,
      "Ġdelay": 2018,
      "Ġdebut": 2019,
      "Ġhopes": 2020,
      "Ġuniversity": 2021,
      "Ġwilliams": 2022,
      "Ġtournament": 2023,
      "ris": 2024,
      "uce": 2025,
      "Ġve": 2026,
      "Ġaut": 2027,
      "oring": 2028,
      "Ġdam": 2029,
      "Ġdream": 2030,
      "Ġneg": 2031,
      "Ġplot": 2032,
      "oods": 2033,
      "Ġoutl": 2034,
      "Ġarri": 2035,
      "Ġprev": 2036,
      "Ġtyphoon": 2037,
      "cal": 2038,
      "Ġara": 2039,
      "Ġfra": 2040,
      "ana": 2041,
      "Ġho": 2042,
      "Ġnepal": 2043,
      "Ġkidn": 2044,
      "Ġconv": 2045,
      "osp": 2046,
      "Ġouts": 2047,
      "Ġenv": 2048,
      "Ġblack": 2049,
      "Ġaccount": 2050,
      "Ġcommitt": 2051,
      "Ġstrugg": 2052,
      "Ġelectron": 2053,
      "Ġgiants": 2054,
      "Ġworkers": 2055,
      "Ġheavy": 2056,
      "Ġgermany": 2057,
      "gra": 2058,
      "ya": 2059,
      "Ġsite": 2060,
      "Ġfis": 2061,
      "Ġfact": 2062,
      "Ġperson": 2063,
      "Ġmur": 2064,
      "Ġhar": 2065,
      "Ġstop": 2066,
      "Ġsaying": 2067,
      "Ġsprint": 2068,
      "cow": 2069,
      "dy": 2070,
      "rew": 2071,
      "Ġclear": 2072,
      "uses": 2073,
      "Ġital": 2074,
      "Ġadvanc": 2075,
      "Ġstores": 2076,
      "Ġhouse": 2077,
      ".'": 2078,
      "Ġsqu": 2079,
      "Ġfile": 2080,
      "Ġoracle": 2081,
      "Ġmess": 2082,
      "rap": 2083,
      "Ġform": 2084,
      "Ġchave": 2085,
      "ession": 2086,
      "Ġsecret": 2087,
      "Ġairline": 2088,
      "Ġended": 2089,
      "Ġevidence": 2090,
      "Ġtroub": 2091,
      "Ġmotor": 2092,
      "Ġmoscow": 2093,
      "Ġinformation": 2094,
      "Ġchavez": 2095,
      "ham": 2096,
      "ler": 2097,
      "Ġawa": 2098,
      "Ġpot": 2099,
      "ats": 2100,
      "ately": 2101,
      "Ġlar": 2102,
      "Ġforce": 2103,
      "Ġchair": 2104,
      "ander": 2105,
      "aker": 2106,
      "oping": 2107,
      "Ġarg": 2108,
      "Ġindian": 2109,
      "Ġflor": 2110,
      "Ġdoes": 2111,
      "Ġcalls": 2112,
      "okes": 2113,
      "Ġtelev": 2114,
      "Ġtrying": 2115,
      "Ġanalyst": 2116,
      "Ġtre": 2117,
      "Ġsize": 2118,
      "Ġce": 2119,
      "Ġpi": 2120,
      "Ġrej": 2121,
      "Ġchild": 2122,
      "Ġprop": 2123,
      "Ġisland": 2124,
      "Ġmars": 2125,
      "Ġintell": 2126,
      "Ġwarned": 2127,
      "Ġsprin": 2128,
      "Ġchips": 2129,
      "Ġincrease": 2130,
      "Ġrepublican": 2131,
      "Ġball": 2132,
      "ening": 2133,
      "Ġmort": 2134,
      "Ġgains": 2135,
      "Ġsport": 2136,
      "Ġbring": 2137,
      "Ġearth": 2138,
      "Ġplanet": 2139,
      "Ġswim": 2140,
      "Ġaction": 2141,
      "Ġbehind": 2142,
      "Ġcash": 2143,
      "Ġwestern": 2144,
      "Ġgun": 2145,
      "Ġlist": 2146,
      "Ġsaf": 2147,
      "Ġoffice": 2148,
      "Ġfind": 2149,
      "Ġrecover": 2150,
      "load": 2151,
      "Ġsecurities": 2152,
      "Ġcharged": 2153,
      "Ġcontinue": 2154,
      "Ġmorning": 2155,
      "Ġpalestinian": 2156,
      "Ġatlant": 2157,
      "Ġitalian": 2158,
      "Ġflorida": 2159,
      "Ġgaza": 2160,
      "iger": 2161,
      "vey": 2162,
      "Ġunt": 2163,
      "Ġlevel": 2164,
      "ape": 2165,
      "Ġclim": 2166,
      "Ġposted": 2167,
      "Ġbatter": 2168,
      "Ġipod": 2169,
      "Ġqa": 2170,
      "Ġbroadband": 2171,
      "Ġagreement": 2172,
      "Ġpossible": 2173,
      "Ġvenezuela": 2174,
      "Ġauthorities": 2175,
      "Ġceleb": 2176,
      "Ġcredit": 2177,
      "ney": 2178,
      "yal": 2179,
      "Ġthen": 2180,
      "Ġbeij": 2181,
      "Ġcommer": 2182,
      "Ġunit": 2183,
      "Ġrow": 2184,
      "Ġadvert": 2185,
      "Ġweekend": 2186,
      "Ġdefe": 2187,
      "Ġmakes": 2188,
      "Ġconflic": 2189,
      "prise": 2190,
      "Ġbeijing": 2191,
      "ny": 2192,
      "Ġfig": 2193,
      "Ġbri": 2194,
      "Ġmis": 2195,
      "Ġhosp": 2196,
      "Ġreven": 2197,
      "Ġcoun": 2198,
      "rib": 2199,
      "Ġcolor": 2200,
      "Ġruling": 2201,
      "Ġheart": 2202,
      "Ġmanager": 2203,
      "Ġspeed": 2204,
      "Ġfootball": 2205,
      "Ġchairman": 2206,
      "ford": 2207,
      "to": 2208,
      "uj": 2209,
      "Ġtur": 2210,
      "Ġfav": 2211,
      "Ġpub": 2212,
      "Ġtom": 2213,
      "asing": 2214,
      "iron": 2215,
      "Ġspending": 2216,
      "ified": 2217,
      "Ġfirms": 2218,
      "Ġtex": 2219,
      "ashes": 2220,
      "Ġpresidential": 2221,
      "Ġdeliver": 2222,
      "Ġsoldiers": 2223,
      "Ġinjured": 2224,
      "Ġconcerns": 2225,
      "reme": 2226,
      "val": 2227,
      "ering": 2228,
      "reds": 2229,
      "Ġcame": 2230,
      "Ġbene": 2231,
      "ank": 2232,
      "Ġinning": 2233,
      "Ġtown": 2234,
      "akes": 2235,
      "Ġsepar": 2236,
      "Ġfinish": 2237,
      "Ġltd": 2238,
      "Ġscand": 2239,
      "Ġrefer": 2240,
      "Ġsharon": 2241,
      "Ġdrugs": 2242,
      "Ġpriv": 2243,
      "Ġpubl": 2244,
      "Ġwa": 2245,
      "Ġple": 2246,
      "Ġhung": 2247,
      "verage": 2248,
      "Ġvot": 2249,
      "Ġcoup": 2250,
      "Ġdefense": 2251,
      "Ġbankrupt": 2252,
      "Ġterrorism": 2253,
      "Ġyoung": 2254,
      "ints": 2255,
      "ready": 2256,
      "Ġhall": 2257,
      "Ġdid": 2258,
      "Ġlook": 2259,
      "Ġonce": 2260,
      "utch": 2261,
      "Ġchange": 2262,
      "Ġyet": 2263,
      "Ġspokes": 2264,
      "Ġali": 2265,
      "Ġmarch": 2266,
      "Ġblast": 2267,
      "Ġflu": 2268,
      "Ġsett": 2269,
      "Ġprofits": 2270,
      "Ġmarkets": 2271,
      "Ġeffect": 2272,
      "Ġestim": 2273,
      "Ġcareer": 2274,
      "Ġbaseball": 2275,
      "Ġperformance": 2276,
      "Ġhundreds": 2277,
      "Ġcommittee": 2278,
      "nam": 2279,
      "Ġast": 2280,
      "Ġfun": 2281,
      "Ġstaff": 2282,
      "Ġemer": 2283,
      "irc": 2284,
      "Ġshut": 2285,
      "Ġdoz": 2286,
      "Ġinvol": 2287,
      "Ġslow": 2288,
      "Ġplanned": 2289,
      "Ġafghanistan": 2290,
      "Ġintellig": 2291,
      "Ġbenef": 2292,
      "sh": 2293,
      "time": 2294,
      "ane": 2295,
      "Ġmult": 2296,
      "Ġgot": 2297,
      "Ġlim": 2298,
      "Ġstad": 2299,
      "Ġprobe": 2300,
      "oss": 2301,
      "ensive": 2302,
      "Ġdisp": 2303,
      "thern": 2304,
      "Ġnorthern": 2305,
      "Ġtennis": 2306,
      "wide": 2307,
      "Ġcrow": 2308,
      "Ġfoc": 2309,
      "Ġbay": 2310,
      "Ġbir": 2311,
      "Ġgave": 2312,
      "Ġris": 2313,
      "thers": 2314,
      "Ġalready": 2315,
      "apore": 2316,
      "Ġdesk": 2317,
      "Ġextra": 2318,
      "Ġsingapore": 2319,
      "Ġadministration": 2320,
      "mar": 2321,
      "oom": 2322,
      "Ġaud": 2323,
      "erence": 2324,
      "Ġsk": 2325,
      "Ġthose": 2326,
      "Ġob": 2327,
      "Ġpract": 2328,
      "Ġmy": 2329,
      "Ġmag": 2330,
      "icon": 2331,
      "Ġrich": 2332,
      "Ġcopy": 2333,
      "Ġclub": 2334,
      "Ġexpect": 2335,
      "ashed": 2336,
      "Ġplane": 2337,
      "Ġbelie": 2338,
      "Ġinvestigation": 2339,
      "Ġintelligence": 2340,
      "gian": 2341,
      "Ġcal": 2342,
      "Ġthese": 2343,
      "Ġfears": 2344,
      "Ġpick": 2345,
      "Ġdoping": 2346,
      "ural": 2347,
      "Ġcomb": 2348,
      "aging": 2349,
      "Ġrelay": 2350,
      "Ġmission": 2351,
      "Ġpressure": 2352,
      "Ġlaunched": 2353,
      "Ġfailed": 2354,
      "Ġphilipp": 2355,
      "Ġcurren": 2356,
      "Ġryder": 2357,
      "Ġfraud": 2358,
      "Ġtelevision": 2359,
      "Ġuntil": 2360,
      "uan": 2361,
      "Ġcisco": 2362,
      "Ġpow": 2363,
      "ories": 2364,
      "Ġmom": 2365,
      "Ġtold": 2366,
      "Ġready": 2367,
      "Ġitaly": 2368,
      "Ġasked": 2369,
      "onduct": 2370,
      "Ġcontent": 2371,
      "Ġflat": 2372,
      "berg": 2373,
      "Ġtravel": 2374,
      "Ġamong": 2375,
      "Ġfinally": 2376,
      "Ġradical": 2377,
      "Ġbraz": 2378,
      "Ġtexas": 2379,
      "Ġstadium": 2380,
      "ss": 2381,
      "yc": 2382,
      "Ġour": 2383,
      "Ġwent": 2384,
      "orters": 2385,
      "Ġupgra": 2386,
      "ips": 2387,
      "Ġmod": 2388,
      "Ġteen": 2389,
      "Ġpolic": 2390,
      "Ġgroups": 2391,
      "Ġterrorist": 2392,
      "Ġbegan": 2393,
      "Ġsemif": 2394,
      "Ġmembers": 2395,
      "Ġlooking": 2396,
      "Ġconnect": 2397,
      "Ġwithdraw": 2398,
      "Ġfly": 2399,
      "rod": 2400,
      "ulation": 2401,
      "Ġkh": 2402,
      "Ġko": 2403,
      "Ġven": 2404,
      "Ġspain": 2405,
      "inese": 2406,
      "Ġeuro": 2407,
      "Ġstrip": 2408,
      "Ġrefug": 2409,
      "Ġsharing": 2410,
      "Ġprovide": 2411,
      "Ġavoid": 2412,
      "Ġfunds": 2413,
      "Ġhospital": 2414,
      "Ġtoward": 2415,
      "Ġchinese": 2416,
      "Ġspan": 2417,
      "Ġspam": 2418,
      "Ġroc": 2419,
      "Ġseat": 2420,
      "Ġmont": 2421,
      "Ġsurvey": 2422,
      "Ġgetting": 2423,
      "Ġacquis": 2424,
      "Ġpilots": 2425,
      "Ġmurder": 2426,
      "Ġdeskt": 2427,
      "Ġbrazil": 2428,
      "cc": 2429,
      "eing": 2430,
      "for": 2431,
      "gress": 2432,
      "na": 2433,
      "Ġille": 2434,
      "Ġari": 2435,
      "Ġcro": 2436,
      "Ġfif": 2437,
      "Ġdiv": 2438,
      "Ġstorm": 2439,
      "ola": 2440,
      "ama": 2441,
      "Ġyuk": 2442,
      "Ġminutes": 2443,
      "Ġlift": 2444,
      "Ġdownload": 2445,
      "Ġfaces": 2446,
      "Ġsenior": 2447,
      "Ġregulators": 2448,
      "Ġapplications": 2449,
      "Ġilleg": 2450,
      "br": 2451,
      "oy": 2452,
      "pan": 2453,
      "era": 2454,
      "Ġcirc": 2455,
      "Ġfur": 2456,
      "Ġbry": 2457,
      "Ġmut": 2458,
      "Ġstake": 2459,
      "Ġnever": 2460,
      "Ġrate": 2461,
      "Ġyah": 2462,
      "Ġoffers": 2463,
      "key": 2464,
      "Ġfla": 2465,
      "Ġterm": 2466,
      "Ġruns": 2467,
      "Ġcolle": 2468,
      "Ġdevelopment": 2469,
      "Ġhope": 2470,
      "Ġdavid": 2471,
      "Ġcommunications": 2472,
      "Ġquestion": 2473,
      "Ġimprove": 2474,
      "Ġpotential": 2475,
      "Ġyukos": 2476,
      "Ġyahoo": 2477,
      "fl": 2478,
      "gth": 2479,
      "ove": 2480,
      "Ġsom": 2481,
      "Ġwants": 2482,
      "ili": 2483,
      "oles": 2484,
      "Ġjav": 2485,
      "Ġprem": 2486,
      "Ġannual": 2487,
      "Ġefforts": 2488,
      "Ġfiled": 2489,
      "Ġsources": 2490,
      "Ġavail": 2491,
      "Ġsubs": 2492,
      "Ġmeeting": 2493,
      "Ġcubs": 2494,
      "Ġcelebr": 2495,
      "lim": 2496,
      "ufact": 2497,
      "Ġet": 2498,
      "Ġtell": 2499,
      "Ġson": 2500,
      "Ġfer": 2501,
      "Ġwit": 2502,
      "itive": 2503,
      "Ġnort": 2504,
      "oti": 2505,
      "Ġchance": 2506,
      "Ġwithin": 2507,
      "Ġmount": 2508,
      "Ġground": 2509,
      "ization": 2510,
      "Ġsuspected": 2511,
      "Ġturned": 2512,
      "Ġjune": 2513,
      "Ġoutlook": 2514,
      "Ġprevious": 2515,
      "Ġenviron": 2516,
      "Ġfifth": 2517,
      "tt": 2518,
      "vet": 2519,
      "Ġcam": 2520,
      "Ġbad": 2521,
      "Ġbond": 2522,
      "Ġhands": 2523,
      "Ġread": 2524,
      "using": 2525,
      "Ġqualif": 2526,
      "Ġphones": 2527,
      "Ġattorn": 2528,
      "Ġboard": 2529,
      "Ġsyd": 2530,
      "Ġhelped": 2531,
      "Ġeffort": 2532,
      "Ġequip": 2533,
      "Ġreserve": 2534,
      "Ġattorney": 2535,
      "Ġrom": 2536,
      "Ġsel": 2537,
      "Ġsant": 2538,
      "Ġpen": 2539,
      "orth": 2540,
      "Ġmill": 2541,
      "itz": 2542,
      "ars": 2543,
      "iconduct": 2544,
      "tered": 2545,
      "ams": 2546,
      "Ġrights": 2547,
      "Ġsho": 2548,
      "Ġkar": 2549,
      "Ġvill": 2550,
      "Ġcome": 2551,
      "aged": 2552,
      "Ġsex": 2553,
      "Ġrepl": 2554,
      "Ġexplo": 2555,
      "Ġenc": 2556,
      "Ġenough": 2557,
      "Ġbloom": 2558,
      "Ġbanks": 2559,
      "Ġprep": 2560,
      "Ġproduction": 2561,
      "Ġfired": 2562,
      "Ġmiddle": 2563,
      "daq": 2564,
      "Ġnegoti": 2565,
      "Ġsydney": 2566,
      "bab": 2567,
      "dict": 2568,
      "right": 2569,
      "Ġent": 2570,
      "Ġobs": 2571,
      "Ġben": 2572,
      "Ġwrap": 2573,
      "Ġmu": 2574,
      "icip": 2575,
      "Ġdiff": 2576,
      "Ġlater": 2577,
      "Ġeast": 2578,
      "Ġrises": 2579,
      "Ġclin": 2580,
      "ability": 2581,
      "aves": 2582,
      "Ġleads": 2583,
      "Ġmanufact": 2584,
      "oney": 2585,
      "Ġsatell": 2586,
      "Ġsale": 2587,
      "Ġdelays": 2588,
      "Ġtruck": 2589,
      "Ġsupply": 2590,
      "Ġsemiconduct": 2591,
      "Ġaccounting": 2592,
      "Ġanalysts": 2593,
      "Ġscandal": 2594,
      "Ġbankruptcy": 2595,
      "Ġfle": 2596,
      "Ġpm": 2597,
      "Ġrates": 2598,
      "Ġshop": 2599,
      "Ġspot": 2600,
      "Ġworking": 2601,
      "Ġintrod": 2602,
      "Ġdism": 2603,
      "Ġweap": 2604,
      "Ġinvestment": 2605,
      "Ġcapt": 2606,
      "Ġgrowing": 2607,
      "Ġstarting": 2608,
      "Ġacquire": 2609,
      "Ġreview": 2610,
      "Ġreached": 2611,
      "Ġpassen": 2612,
      "Ġspecial": 2613,
      "Ġproblems": 2614,
      "Ġcorporate": 2615,
      "Ġdemocratic": 2616,
      "Ġconflict": 2617,
      "Ġbrief": 2618,
      "Ġwitness": 2619,
      "mw": 2620,
      "Ġfri": 2621,
      "Ġbud": 2622,
      "Ġmust": 2623,
      "aring": 2624,
      "arian": 2625,
      "Ġdra": 2626,
      "Ġdip": 2627,
      "Ġlay": 2628,
      "Ġniger": 2629,
      "urch": 2630,
      "iding": 2631,
      "olf": 2632,
      "Ġkong": 2633,
      "Ġproject": 2634,
      "Ġcoast": 2635,
      "Ġroad": 2636,
      "Ġworth": 2637,
      "Ġinteg": 2638,
      "Ġdisap": 2639,
      "Ġweight": 2640,
      "Ġdeleg": 2641,
      "Ġstudents": 2642,
      "Ġjournalist": 2643,
      "Ġlawsuit": 2644,
      "Ġprosecut": 2645,
      "Ġawaited": 2646,
      "Ġspokesman": 2647,
      "gin": 2648,
      "netw": 2649,
      "ini": 2650,
      "Ġsites": 2651,
      "Ġcit": 2652,
      "Ġciting": 2653,
      "Ġbit": 2654,
      "Ġwild": 2655,
      "Ġpip": 2656,
      "att": 2657,
      "Ġreve": 2658,
      "Ġnec": 2659,
      "ecom": 2660,
      "ention": 2661,
      "Ġeach": 2662,
      "Ġrule": 2663,
      "Ġasia": 2664,
      "Ġthatcher": 2665,
      "Ġmov": 2666,
      "Ġfinals": 2667,
      "ibility": 2668,
      "Ġannounce": 2669,
      "Ġpark": 2670,
      "Ġholdings": 2671,
      "Ġcontrovers": 2672,
      "Ġadvanced": 2673,
      "Ġacquisition": 2674,
      "Ġnortel": 2675,
      "ew": 2676,
      "ps": 2677,
      "Ġauction": 2678,
      "Ġciv": 2679,
      "Ġfans": 2680,
      "aled": 2681,
      "Ġhong": 2682,
      "icket": 2683,
      "Ġdie": 2684,
      "Ġchain": 2685,
      "Ġcomes": 2686,
      "aps": 2687,
      "Ġrain": 2688,
      "Ġabu": 2689,
      "Ġfront": 2690,
      "Ġgoes": 2691,
      "ically": 2692,
      "Ġconsecut": 2693,
      "Ġmuslim": 2694,
      "Ġparis": 2695,
      "Ġpoint": 2696,
      "Ġbatt": 2697,
      "Ġjohnson": 2698,
      "Ġsigned": 2699,
      "Ġsuspects": 2700,
      "Ġadvance": 2701,
      "Ġradcl": 2702,
      "iffe": 2703,
      "Ġrealnetw": 2704,
      "Ġpopular": 2705,
      "Ġdevices": 2706,
      "Ġislamic": 2707,
      "Ġchildren": 2708,
      "Ġatlanta": 2709,
      "Ġequipment": 2710,
      "Ġconsecutive": 2711,
      "Ġradcliffe": 2712,
      "bi": 2713,
      "bit": 2714,
      "ha": 2715,
      "hi": 2716,
      "horn": 2717,
      "men": 2718,
      "Ġside": 2719,
      "Ġothers": 2720,
      "itor": 2721,
      "Ġdutch": 2722,
      "Ġnine": 2723,
      "Ġname": 2724,
      "aced": 2725,
      "Ġaff": 2726,
      "endum": 2727,
      "ume": 2728,
      "Ġarea": 2729,
      "hnya": 2730,
      "Ġgreen": 2731,
      "Ġbody": 2732,
      "Ġopening": 2733,
      "Ġguine": 2734,
      "Ġjustice": 2735,
      "ually": 2736,
      "Ġconference": 2737,
      "Ġknown": 2738,
      "Ġradio": 2739,
      "Ġchechnya": 2740,
      "Ġsecretary": 2741,
      "Ġreferendum": 2742,
      "Ġbryant": 2743,
      "Ġsemiconductor": 2744,
      "Ġrealnetworks": 2745,
      "bby": 2746,
      "cape": 2747,
      "pon": 2748,
      "west": 2749,
      "atory": 2750,
      "Ġdied": 2751,
      "Ġstay": 2752,
      "Ġcho": 2753,
      "Ġrising": 2754,
      "estyle": 2755,
      "Ġkm": 2756,
      "ager": 2757,
      "Ġsoon": 2758,
      "Ġovertime": 2759,
      "Ġadm": 2760,
      "Ġscience": 2761,
      "ept": 2762,
      "Ġsigns": 2763,
      "Ġcontinued": 2764,
      "Ġselling": 2765,
      "Ġvirus": 2766,
      "Ġfamily": 2767,
      "Ġathletes": 2768,
      "arent": 2769,
      "field": 2770,
      "Ġavailable": 2771,
      "Ġguinea": 2772,
      "con": 2773,
      "ga": 2774,
      "hel": 2775,
      "wood": 2776,
      "xic": 2777,
      "inh": 2778,
      "Ġoct": 2779,
      "Ġbell": 2780,
      "Ġbord": 2781,
      "Ġpet": 2782,
      "eda": 2783,
      "Ġhack": 2784,
      "Ġtour": 2785,
      "Ġtough": 2786,
      "Ġgives": 2787,
      "uries": 2788,
      "ented": 2789,
      "Ġview": 2790,
      "Ġaccept": 2791,
      "abul": 2792,
      "iven": 2793,
      "ivid": 2794,
      "Ġgoal": 2795,
      "Ġwarning": 2796,
      "Ġbuil": 2797,
      "Ġpartners": 2798,
      "Ġrebound": 2799,
      "Ġsuff": 2800,
      "Ġmissing": 2801,
      "Ġwrong": 2802,
      "Ġwounded": 2803,
      "Ġhugo": 2804,
      "Ġenvironment": 2805,
      "Ġbloomberg": 2806,
      "Ġcivil": 2807,
      "ba": 2808,
      "get": 2809,
      "mand": 2810,
      "net": 2811,
      "Ġfigh": 2812,
      "Ġfish": 2813,
      "Ġpent": 2814,
      "Ġnat": 2815,
      "Ġstation": 2816,
      "apped": 2817,
      "Ġexports": 2818,
      "Ġappear": 2819,
      "Ġindivid": 2820,
      "Ġconsider": 2821,
      "Ġpersonal": 2822,
      "Ġcopyright": 2823,
      "Ġweapons": 2824,
      "mandu": 2825,
      "ko": 2826,
      "Ġcross": 2827,
      "Ġoh": 2828,
      "Ġha": 2829,
      "Ġhy": 2830,
      "Ġgain": 2831,
      "Ġgiving": 2832,
      "Ġrene": 2833,
      "Ġanc": 2834,
      "Ġcoming": 2835,
      "Ġcoal": 2836,
      "rier": 2837,
      "Ġrod": 2838,
      "Ġrooney": 2839,
      "erem": 2840,
      "Ġresult": 2841,
      "Ġblood": 2842,
      "Ġdispl": 2843,
      "Ġflag": 2844,
      "Ġlose": 2845,
      "Ġbecom": 2846,
      "Ġgeneration": 2847,
      "Ġpoor": 2848,
      "Ġpowerful": 2849,
      "Ġconsumers": 2850,
      "Ġkorean": 2851,
      "Ġlawy": 2852,
      "Ġconcern": 2853,
      "Ġrivals": 2854,
      "Ġcomplete": 2855,
      "Ġexperts": 2856,
      "Ġthought": 2857,
      "Ġrequest": 2858,
      "Ġconfirmed": 2859,
      "Ġemployees": 2860,
      "Ġlocal": 2861,
      "Ġattempt": 2862,
      "Ġfreestyle": 2863,
      "Ġlarge": 2864,
      "Ġmuqtada": 2865,
      "Ġdisappo": 2866,
      "cial": 2867,
      "Ġba": 2868,
      "Ġbol": 2869,
      "Ġpound": 2870,
      "ills": 2871,
      "Ġrang": 2872,
      "Ġdeter": 2873,
      "osed": 2874,
      "Ġcomputers": 2875,
      "Ġflight": 2876,
      "Ġboeing": 2877,
      "Ġdecided": 2878,
      "Ġbecame": 2879,
      "Ġsched": 2880,
      "Ġpoints": 2881,
      "Ġviet": 2882,
      "Ġclaimed": 2883,
      "Ġtelecom": 2884,
      "Ġsudanese": 2885,
      "Ġissues": 2886,
      "Ġcritic": 2887,
      "Ġsharply": 2888,
      "Ġchallenge": 2889,
      "Ġoutside": 2890,
      "Ġqaeda": 2891,
      "Ġrevenue": 2892,
      "Ġdesktop": 2893,
      "Ġjava": 2894,
      "hen": 2895,
      "kia": 2896,
      "post": 2897,
      "Ġsend": 2898,
      "Ġcatch": 2899,
      "enc": 2900,
      "Ġmix": 2901,
      "Ġdow": 2902,
      "Ġny": 2903,
      "Ġshows": 2904,
      "Ġkath": 2905,
      "Ġcool": 2906,
      "Ġabb": 2907,
      "Ġads": 2908,
      "urse": 2909,
      "Ġwarner": 2910,
      "Ġdecl": 2911,
      "Ġbrought": 2912,
      "Ġbusinesses": 2913,
      "Ġremain": 2914,
      "atorial": 2915,
      "Ġsharehold": 2916,
      "board": 2917,
      "Ġissue": 2918,
      "Ġsprinters": 2919,
      "Ġpublished": 2920,
      "Ġsemifinals": 2921,
      "Ġvietnam": 2922,
      "ring": 2923,
      "Ġtreat": 2924,
      "Ġsug": 2925,
      "Ġcp": 2926,
      "Ġcrack": 2927,
      "oric": 2928,
      "Ġstun": 2929,
      "Ġjail": 2930,
      "Ġkabul": 2931,
      "Ġdeep": 2932,
      "Ġfinance": 2933,
      "Ġabove": 2934,
      "Ġserious": 2935,
      "Ġtemp": 2936,
      "Ġmicro": 2937,
      "Ġlonghorn": 2938,
      "Ġequatorial": 2939,
      "Ġchanges": 2940,
      "Ġnamed": 2941,
      "Ġdelayed": 2942,
      "Ġautom": 2943,
      "Ġpiracy": 2944,
      "Ġprivate": 2945,
      "bur": 2946,
      "des": 2947,
      "Ġcand": 2948,
      "Ġcarter": 2949,
      "Ġpatch": 2950,
      "Ġmist": 2951,
      "Ġnin": 2952,
      "uted": 2953,
      "Ġvac": 2954,
      "Ġalong": 2955,
      "istry": 2956,
      "Ġarch": 2957,
      "Ġblow": 2958,
      "Ġflights": 2959,
      "Ġbroke": 2960,
      "Ġlosing": 2961,
      "Ġpool": 2962,
      "Ġtaken": 2963,
      "Ġshift": 2964,
      "Ġtelep": 2965,
      "Ġeverton": 2966,
      "Ġfalls": 2967,
      "Ġhostage": 2968,
      "Ġstandards": 2969,
      "Ġfutures": 2970,
      "Ġdiscovered": 2971,
      "Ġbuilding": 2972,
      "Ġblockade": 2973,
      "Ġunveiled": 2974,
      "Ġtreas": 2975,
      "Ġpropert": 2976,
      "Ġupgrade": 2977,
      "Ġfurther": 2978,
      "Ġsatellite": 2979,
      "gage": 2980,
      "ta": 2981,
      "Ġthin": 2982,
      "read": 2983,
      "icks": 2984,
      "Ġdidn": 2985,
      "ilities": 2986,
      "Ġstren": 2987,
      "irl": 2988,
      "Ġjer": 2989,
      "Ġjan": 2990,
      "Ġsab": 2991,
      "Ġclashes": 2992,
      "Ġsevent": 2993,
      "Ġfinds": 2994,
      "Ġmedical": 2995,
      "Ġhighs": 2996,
      "izing": 2997,
      "Ġsets": 2998,
      "Ġwarns": 2999
    },
    "merges": [
      [
        "Ġ",
        "t"
      ],
      [
        "Ġ",
        "a"
      ],
      [
        "i",
        "n"
      ],
      [
        "e",
        "r"
      ],
      [
        "Ġ",
        "s"
      ],
      [
        "Ġt",
        "h"
      ],
      [
        "o",
        "n"
      ],
      [
        "r",
        "e"
      ],
      [
        "Ġ",
        "c"
      ],
      [
        "Ġth",
        "e"
      ],
      [
        "Ġ",
        "f"
      ],
      [
        "e",
        "s"
      ],
      [
        "Ġ",
        "o"
      ],
      [
        "Ġ",
        "b"
      ],
      [
        "a",
        "n"
      ],
      [
        "Ġ",
        "w"
      ],
      [
        "Ġ",
        "p"
      ],
      [
        "e",
        "n"
      ],
      [
        "o",
        "r"
      ],
      [
        "e",
        "d"
      ],
      [
        "Ġ",
        "m"
      ],
      [
        "i",
        "t"
      ],
      [
        "a",
        "t"
      ],
      [
        "Ġ",
        "in"
      ],
      [
        "a",
        "l"
      ],
      [
        "Ġ",
        "h"
      ],
      [
        "in",
        "g"
      ],
      [
        "a",
        "r"
      ],
      [
        "i",
        "s"
      ],
      [
        "Ġt",
        "o"
      ],
      [
        "i",
        "c"
      ],
      [
        "Ġ",
        "d"
      ],
      [
        "r",
        "o"
      ],
      [
        "Ġ",
        "g"
      ],
      [
        "Ġo",
        "f"
      ],
      [
        "Ġ",
        "l"
      ],
      [
        "a",
        "s"
      ],
      [
        "Ġ",
        "re"
      ],
      [
        "Ġa",
        "n"
      ],
      [
        "Ġ",
        "n"
      ],
      [
        "a",
        "y"
      ],
      [
        "i",
        "l"
      ],
      [
        "t",
        "er"
      ],
      [
        "u",
        "s"
      ],
      [
        "i",
        "on"
      ],
      [
        "e",
        "l"
      ],
      [
        "u",
        "n"
      ],
      [
        "u",
        "r"
      ],
      [
        "o",
        "m"
      ],
      [
        "e",
        "t"
      ],
      [
        "i",
        "d"
      ],
      [
        "e",
        "c"
      ],
      [
        "Ġ",
        "on"
      ],
      [
        "Ġan",
        "d"
      ],
      [
        "en",
        "t"
      ],
      [
        "u",
        "t"
      ],
      [
        "Ġs",
        "t"
      ],
      [
        "r",
        "a"
      ],
      [
        "Ġ",
        "e"
      ],
      [
        "o",
        "l"
      ],
      [
        "l",
        "e"
      ],
      [
        "Ġf",
        "or"
      ],
      [
        "i",
        "g"
      ],
      [
        "a",
        "m"
      ],
      [
        "s",
        "t"
      ],
      [
        "a",
        "d"
      ],
      [
        "a",
        "c"
      ],
      [
        "i",
        "r"
      ],
      [
        "o",
        "t"
      ],
      [
        "d",
        "ay"
      ],
      [
        "l",
        "y"
      ],
      [
        "v",
        "er"
      ],
      [
        "Ġa",
        "t"
      ],
      [
        "Ġ",
        "it"
      ],
      [
        "Ġ",
        ";"
      ],
      [
        "v",
        "e"
      ],
      [
        "i",
        "m"
      ],
      [
        "u",
        "l"
      ],
      [
        "o",
        "w"
      ],
      [
        "Ġn",
        "e"
      ],
      [
        "il",
        "l"
      ],
      [
        "Ġ",
        "j"
      ],
      [
        "Ġc",
        "h"
      ],
      [
        "Ġ",
        "r"
      ],
      [
        "Ġ",
        "y"
      ],
      [
        "c",
        "h"
      ],
      [
        "er",
        "s"
      ],
      [
        "u",
        "p"
      ],
      [
        "q",
        "u"
      ],
      [
        "Ġs",
        "h"
      ],
      [
        "es",
        "t"
      ],
      [
        "at",
        "ion"
      ],
      [
        "Ġ",
        "k"
      ],
      [
        "Ġa",
        "s"
      ],
      [
        "Ġb",
        "e"
      ],
      [
        "ig",
        "h"
      ],
      [
        "Ġp",
        "ro"
      ],
      [
        "it",
        "h"
      ],
      [
        "Ġd",
        "e"
      ],
      [
        "Ġ",
        "v"
      ],
      [
        "Ġc",
        "om"
      ],
      [
        "t",
        "s"
      ],
      [
        "Ġc",
        "o"
      ],
      [
        "ter",
        "s"
      ],
      [
        "Ġw",
        "ith"
      ],
      [
        "Ġa",
        "p"
      ],
      [
        "Ġ",
        "is"
      ],
      [
        "c",
        "e"
      ],
      [
        "Ġc",
        "on"
      ],
      [
        "o",
        "s"
      ],
      [
        "Ġw",
        "h"
      ],
      [
        "t",
        "h"
      ],
      [
        "Ġth",
        "at"
      ],
      [
        "an",
        "d"
      ],
      [
        "a",
        "k"
      ],
      [
        "'",
        "s"
      ],
      [
        "Ġne",
        "w"
      ],
      [
        "a",
        "g"
      ],
      [
        ".",
        "."
      ],
      [
        "o",
        "re"
      ],
      [
        "e",
        "ar"
      ],
      [
        "Ġa",
        "f"
      ],
      [
        "r",
        "i"
      ],
      [
        "Ġs",
        "a"
      ],
      [
        "k",
        "s"
      ],
      [
        "u",
        "g"
      ],
      [
        "Ġ",
        "un"
      ],
      [
        "Ġs",
        "p"
      ],
      [
        "m",
        "p"
      ],
      [
        "re",
        "s"
      ],
      [
        "Ġ",
        "i"
      ],
      [
        "o",
        "p"
      ],
      [
        "Ġb",
        "y"
      ],
      [
        "al",
        "l"
      ],
      [
        "u",
        "ters"
      ],
      [
        "Ġ",
        "qu"
      ],
      [
        "Ġ",
        "us"
      ],
      [
        "m",
        "ent"
      ],
      [
        "Ġl",
        "e"
      ],
      [
        "Ġa",
        "l"
      ],
      [
        "o",
        "c"
      ],
      [
        "Ġe",
        "x"
      ],
      [
        "Ġre",
        "uters"
      ],
      [
        "Ġp",
        "l"
      ],
      [
        "Ġit",
        "s"
      ],
      [
        "a",
        "in"
      ],
      [
        "as",
        "t"
      ],
      [
        "a",
        "p"
      ],
      [
        "o",
        "o"
      ],
      [
        "at",
        "e"
      ],
      [
        "i",
        "a"
      ],
      [
        "i",
        "an"
      ],
      [
        "us",
        "t"
      ],
      [
        "Ġsa",
        "id"
      ],
      [
        "Ġcom",
        "p"
      ],
      [
        "ro",
        "m"
      ],
      [
        "en",
        "s"
      ],
      [
        "e",
        "e"
      ],
      [
        "ec",
        "t"
      ],
      [
        "Ġw",
        "as"
      ],
      [
        "igh",
        "t"
      ],
      [
        "is",
        "t"
      ],
      [
        "en",
        "d"
      ],
      [
        "Ġh",
        "as"
      ],
      [
        "Ġof",
        "f"
      ],
      [
        "Ġs",
        "o"
      ],
      [
        "Ġf",
        "rom"
      ],
      [
        "es",
        "s"
      ],
      [
        "i",
        "es"
      ],
      [
        "or",
        "t"
      ],
      [
        "Ġ",
        "up"
      ],
      [
        "Ġh",
        "e"
      ],
      [
        "u",
        "d"
      ],
      [
        "u",
        "m"
      ],
      [
        "f",
        "t"
      ],
      [
        "Ġ",
        "ro"
      ],
      [
        "Ġc",
        "l"
      ],
      [
        "Ġa",
        "g"
      ],
      [
        "i",
        "al"
      ],
      [
        "in",
        "e"
      ],
      [
        "un",
        "d"
      ],
      [
        "it",
        "y"
      ],
      [
        "ol",
        "d"
      ],
      [
        "Ġa",
        "c"
      ],
      [
        "r",
        "ic"
      ],
      [
        "Ġs",
        "e"
      ],
      [
        "Ġw",
        "or"
      ],
      [
        "Ġh",
        "is"
      ],
      [
        "ac",
        "k"
      ],
      [
        "Ġm",
        "on"
      ],
      [
        "u",
        "c"
      ],
      [
        "ar",
        "t"
      ],
      [
        "i",
        "p"
      ],
      [
        "u",
        "b"
      ],
      [
        "a",
        "ve"
      ],
      [
        "Ġaf",
        "ter"
      ],
      [
        "Ġo",
        "ly"
      ],
      [
        "Ġoly",
        "mp"
      ],
      [
        "Ġw",
        "ill"
      ],
      [
        "a",
        "re"
      ],
      [
        "Ġm",
        "o"
      ],
      [
        "Ġo",
        "ver"
      ],
      [
        "ar",
        "d"
      ],
      [
        "r",
        "y"
      ],
      [
        "es",
        "day"
      ],
      [
        "el",
        "l"
      ],
      [
        "Ġolymp",
        "ic"
      ],
      [
        "Ġs",
        "ec"
      ],
      [
        "Ġ",
        "u"
      ],
      [
        "Ġin",
        "c"
      ],
      [
        "i",
        "ve"
      ],
      [
        "m",
        "er"
      ],
      [
        "i",
        "f"
      ],
      [
        "Ġm",
        "ar"
      ],
      [
        "Ġw",
        "in"
      ],
      [
        "er",
        "e"
      ],
      [
        "a",
        "b"
      ],
      [
        "o",
        "ur"
      ],
      [
        "..",
        "."
      ],
      [
        "i",
        "v"
      ],
      [
        "Ġo",
        "p"
      ],
      [
        "Ġf",
        "ir"
      ],
      [
        "Ġy",
        "ear"
      ],
      [
        "Ġin",
        "t"
      ],
      [
        "Ġre",
        "p"
      ],
      [
        "Ġ",
        "."
      ],
      [
        "Ġat",
        "h"
      ],
      [
        "Ġf",
        "in"
      ],
      [
        "Ġt",
        "w"
      ],
      [
        "Ġo",
        "ut"
      ],
      [
        "l",
        "d"
      ],
      [
        "e",
        "m"
      ],
      [
        "Ġex",
        "p"
      ],
      [
        "Ġ",
        "ra"
      ],
      [
        "Ġa",
        "b"
      ],
      [
        "Ġre",
        "s"
      ],
      [
        "on",
        "g"
      ],
      [
        "g",
        "e"
      ],
      [
        "Ġf",
        "r"
      ],
      [
        "re",
        "e"
      ],
      [
        "ay",
        "s"
      ],
      [
        "Ġl",
        "t"
      ],
      [
        "Ġg",
        "o"
      ],
      [
        "is",
        "h"
      ],
      [
        "Ġa",
        "re"
      ],
      [
        "on",
        "d"
      ],
      [
        "ul",
        "d"
      ],
      [
        "Ġh",
        "ave"
      ],
      [
        "Ġ",
        "en"
      ],
      [
        "i",
        "e"
      ],
      [
        "Ġ",
        ","
      ],
      [
        "Ġin",
        "ter"
      ],
      [
        "an",
        "s"
      ],
      [
        "ic",
        "e"
      ],
      [
        "Ġa",
        "d"
      ],
      [
        "an",
        "t"
      ],
      [
        "Ġa",
        "r"
      ],
      [
        "om",
        "e"
      ],
      [
        "n",
        "ing"
      ],
      [
        "Ġg",
        "t"
      ],
      [
        "an",
        "y"
      ],
      [
        "or",
        "d"
      ],
      [
        "Ġqu",
        "ot"
      ],
      [
        "Ġi",
        "ra"
      ],
      [
        "Ġg",
        "ro"
      ],
      [
        "Ġm",
        "ed"
      ],
      [
        "Ġira",
        "q"
      ],
      [
        "Ġath",
        "ens"
      ],
      [
        "Ġb",
        "l"
      ],
      [
        "Ġtw",
        "o"
      ],
      [
        "Ġre",
        "c"
      ],
      [
        "Ġp",
        "res"
      ],
      [
        "Ġb",
        "ut"
      ],
      [
        "i",
        "re"
      ],
      [
        "o",
        "ut"
      ],
      [
        "or",
        "k"
      ],
      [
        "Ġm",
        "ore"
      ],
      [
        "Ġs",
        "c"
      ],
      [
        "o",
        "st"
      ],
      [
        "Ġs",
        "er"
      ],
      [
        "ion",
        "s"
      ],
      [
        "k",
        "e"
      ],
      [
        "il",
        "e"
      ],
      [
        "Ġap",
        "p"
      ],
      [
        "Ġt",
        "e"
      ],
      [
        "Ġg",
        "old"
      ],
      [
        "Ġo",
        "il"
      ],
      [
        "Ġp",
        "ric"
      ],
      [
        "ac",
        "e"
      ],
      [
        "ag",
        "e"
      ],
      [
        "im",
        "e"
      ],
      [
        "Ġthe",
        "ir"
      ],
      [
        "Ġp",
        "e"
      ],
      [
        "Ġb",
        "r"
      ],
      [
        "ug",
        "h"
      ],
      [
        "Ġfir",
        "st"
      ],
      [
        "ar",
        "g"
      ],
      [
        "Ġd",
        "is"
      ],
      [
        "it",
        "e"
      ],
      [
        "u",
        "re"
      ],
      [
        "a",
        "il"
      ],
      [
        "ur",
        "s"
      ],
      [
        "Ġn",
        "ot"
      ],
      [
        "Ġcon",
        "t"
      ],
      [
        "Ġp",
        "er"
      ],
      [
        "ra",
        "c"
      ],
      [
        "ig",
        "n"
      ],
      [
        "o",
        "us"
      ],
      [
        "id",
        "e"
      ],
      [
        "k",
        "et"
      ],
      [
        "Ġo",
        "r"
      ],
      [
        "Ġw",
        "ee"
      ],
      [
        "or",
        "s"
      ],
      [
        "ic",
        "h"
      ],
      [
        "Ġg",
        "am"
      ],
      [
        "Ġc",
        "r"
      ],
      [
        "h",
        "er"
      ],
      [
        "ill",
        "ion"
      ],
      [
        "u",
        "e"
      ],
      [
        "Ġin",
        "d"
      ],
      [
        "Ġb",
        "an"
      ],
      [
        "un",
        "t"
      ],
      [
        "Ġst",
        "oc"
      ],
      [
        "Ġf",
        "l"
      ],
      [
        "a",
        "v"
      ],
      [
        "as",
        "e"
      ],
      [
        "ro",
        "s"
      ],
      [
        "d",
        "er"
      ],
      [
        "Ġth",
        "is"
      ],
      [
        "Ġwor",
        "ld"
      ],
      [
        "Ġc",
        "an"
      ],
      [
        "at",
        "es"
      ],
      [
        "Ġh",
        "igh"
      ],
      [
        "Ġb",
        "us"
      ],
      [
        "Ġon",
        "e"
      ],
      [
        "Ġp",
        "h"
      ],
      [
        "Ġj",
        "o"
      ],
      [
        "ow",
        "n"
      ],
      [
        "am",
        "p"
      ],
      [
        "Ġd",
        "o"
      ],
      [
        "Ġat",
        "t"
      ],
      [
        "Ġle",
        "ad"
      ],
      [
        "ac",
        "h"
      ],
      [
        "id",
        "ent"
      ],
      [
        "Ġm",
        "in"
      ],
      [
        "Ġmon",
        "day"
      ],
      [
        "a",
        "j"
      ],
      [
        "id",
        "ay"
      ],
      [
        "Ġcomp",
        "any"
      ],
      [
        "Ġac",
        "c"
      ],
      [
        "Ġin",
        "v"
      ],
      [
        "h",
        "n"
      ],
      [
        "Ġth",
        "urs"
      ],
      [
        "Ġthurs",
        "day"
      ],
      [
        "Ġm",
        "an"
      ],
      [
        "Ġt",
        "u"
      ],
      [
        "Ġg",
        "re"
      ],
      [
        "as",
        "s"
      ],
      [
        "Ġw",
        "e"
      ],
      [
        "Ġinter",
        "n"
      ],
      [
        "Ġtu",
        "esday"
      ],
      [
        "Ġ",
        "el"
      ],
      [
        "ation",
        "s"
      ],
      [
        "f",
        "f"
      ],
      [
        "t",
        "on"
      ],
      [
        "l",
        "ic"
      ],
      [
        "Ġth",
        "an"
      ],
      [
        "Ġa",
        "ir"
      ],
      [
        "Ġp",
        "ol"
      ],
      [
        "Ġ",
        "im"
      ],
      [
        "es",
        "ter"
      ],
      [
        "Ġwee",
        "k"
      ],
      [
        "it",
        "ed"
      ],
      [
        "ak",
        "e"
      ],
      [
        "on",
        "e"
      ],
      [
        "al",
        "s"
      ],
      [
        "Ġm",
        "e"
      ],
      [
        "Ġag",
        "ain"
      ],
      [
        "Ġb",
        "o"
      ],
      [
        "ation",
        "al"
      ],
      [
        "Ġm",
        "il"
      ],
      [
        "i",
        "z"
      ],
      [
        "Ġfr",
        "iday"
      ],
      [
        "Ġy",
        "ork"
      ],
      [
        "en",
        "ce"
      ],
      [
        "Ġg",
        "oo"
      ],
      [
        "b",
        "er"
      ],
      [
        "Ġal",
        "l"
      ],
      [
        "Ġc",
        "or"
      ],
      [
        "ar",
        "y"
      ],
      [
        "Ġs",
        "un"
      ],
      [
        "Ġl",
        "a"
      ],
      [
        "ver",
        "s"
      ],
      [
        "Ġint",
        "o"
      ],
      [
        "o",
        "g"
      ],
      [
        "an",
        "ce"
      ],
      [
        "it",
        "ion"
      ],
      [
        "is",
        "s"
      ],
      [
        "Ġs",
        "et"
      ],
      [
        "at",
        "ed"
      ],
      [
        "Ġs",
        "l"
      ],
      [
        "an",
        "c"
      ],
      [
        "Ġw",
        "ed"
      ],
      [
        "Ġpric",
        "es"
      ],
      [
        "Ġa",
        "mer"
      ],
      [
        "Ġamer",
        "ic"
      ],
      [
        "Ġ",
        "end"
      ],
      [
        "Ġt",
        "ra"
      ],
      [
        "n",
        "esday"
      ],
      [
        "Ġwed",
        "nesday"
      ],
      [
        "Ġe",
        "ar"
      ],
      [
        "Ġw",
        "ar"
      ],
      [
        "Ġl",
        "ast"
      ],
      [
        "or",
        "y"
      ],
      [
        "in",
        "a"
      ],
      [
        "as",
        "h"
      ],
      [
        "Ġpl",
        "an"
      ],
      [
        "Ġab",
        "out"
      ],
      [
        "ur",
        "n"
      ],
      [
        "Ġb",
        "u"
      ],
      [
        "Ġpro",
        "f"
      ],
      [
        "Ġoff",
        "ic"
      ],
      [
        "e",
        "y"
      ],
      [
        "Ġthe",
        "y"
      ],
      [
        "Ġrep",
        "ort"
      ],
      [
        "Ġte",
        "am"
      ],
      [
        "Ġm",
        "ic"
      ],
      [
        "Ġn",
        "o"
      ],
      [
        "et",
        "w"
      ],
      [
        "ic",
        "k"
      ],
      [
        "o",
        "uld"
      ],
      [
        "us",
        "s"
      ],
      [
        "Ġsec",
        "ond"
      ],
      [
        "Ġwh",
        "o"
      ],
      [
        "ear",
        "ch"
      ],
      [
        "d",
        "s"
      ],
      [
        "el",
        "p"
      ],
      [
        "Ġgo",
        "ver"
      ],
      [
        "at",
        "h"
      ],
      [
        "ro",
        "p"
      ],
      [
        "Ġa",
        "ug"
      ],
      [
        "Ġl",
        "i"
      ],
      [
        "Ġre",
        "t"
      ],
      [
        "Ġpres",
        "ident"
      ],
      [
        "r",
        "al"
      ],
      [
        "Ġth",
        "ree"
      ],
      [
        "ic",
        "t"
      ],
      [
        "Ġmed",
        "al"
      ],
      [
        "uc",
        "t"
      ],
      [
        "Ġgover",
        "n"
      ],
      [
        "o",
        "und"
      ],
      [
        "ow",
        "s"
      ],
      [
        "Ġcor",
        "p"
      ],
      [
        "o",
        "ft"
      ],
      [
        "ol",
        "l"
      ],
      [
        "o",
        "un"
      ],
      [
        "Ġe",
        "v"
      ],
      [
        "a",
        "f"
      ],
      [
        "Ġw",
        "ere"
      ],
      [
        "Ġmil",
        "it"
      ],
      [
        "m",
        "s"
      ],
      [
        "Ġs",
        "y"
      ],
      [
        "Ġs",
        "at"
      ],
      [
        "ic",
        "al"
      ],
      [
        "Ġs",
        "w"
      ],
      [
        "ar",
        "ter"
      ],
      [
        "Ġp",
        "re"
      ],
      [
        "ul",
        "l"
      ],
      [
        "Ġoffic",
        "ial"
      ],
      [
        "Ġcom",
        "m"
      ],
      [
        "Ġb",
        "ack"
      ],
      [
        "Ġagain",
        "st"
      ],
      [
        "Ġstoc",
        "ks"
      ],
      [
        "Ġp",
        "art"
      ],
      [
        "h",
        "ing"
      ],
      [
        "Ġinv",
        "est"
      ],
      [
        "Ġk",
        "ill"
      ],
      [
        "Ġsun",
        "day"
      ],
      [
        "Ġser",
        "v"
      ],
      [
        "Ġy",
        "ester"
      ],
      [
        "Ġun",
        "ited"
      ],
      [
        "Ġ",
        "..."
      ],
      [
        "Ġyester",
        "day"
      ],
      [
        "l",
        "o"
      ],
      [
        "t",
        "ing"
      ],
      [
        "Ġmic",
        "ros"
      ],
      [
        "Ġan",
        "n"
      ],
      [
        "Ġgovern",
        "ment"
      ],
      [
        "Ġs",
        "up"
      ],
      [
        "c",
        "o"
      ],
      [
        "Ġf",
        "our"
      ],
      [
        "Ġbe",
        "en"
      ],
      [
        "t",
        "le"
      ],
      [
        "Ġs",
        "al"
      ],
      [
        "Ġa",
        "m"
      ],
      [
        "Ġsec",
        "ur"
      ],
      [
        "Ġm",
        "illion"
      ],
      [
        "et",
        "s"
      ],
      [
        "ect",
        "ed"
      ],
      [
        "v",
        "el"
      ],
      [
        "it",
        "s"
      ],
      [
        "Ġpe",
        "op"
      ],
      [
        "ut",
        "h"
      ],
      [
        "Ġt",
        "er"
      ],
      [
        "ur",
        "t"
      ],
      [
        "Ġmicros",
        "oft"
      ],
      [
        "Ġt",
        "ime"
      ],
      [
        "Ġh",
        "ad"
      ],
      [
        "Ġde",
        "f"
      ],
      [
        "or",
        "ts"
      ],
      [
        "Ġcon",
        "s"
      ],
      [
        "Ġmar",
        "ket"
      ],
      [
        "Ġd",
        "ec"
      ],
      [
        "i",
        "b"
      ],
      [
        "Ġp",
        "r"
      ],
      [
        "Ġban",
        "k"
      ],
      [
        "Ġb",
        "as"
      ],
      [
        "Ġwh",
        "en"
      ],
      [
        "at",
        "ing"
      ],
      [
        "ow",
        "er"
      ],
      [
        "Ġst",
        "r"
      ],
      [
        "Ġpl",
        "ay"
      ],
      [
        "Ġrec",
        "ord"
      ],
      [
        "Ġgro",
        "up"
      ],
      [
        "Ġb",
        "ro"
      ],
      [
        "w",
        "n"
      ],
      [
        "Ġd",
        "own"
      ],
      [
        "s",
        "e"
      ],
      [
        "Ġs",
        "ays"
      ],
      [
        "Ġgoo",
        "g"
      ],
      [
        "Ġd",
        "es"
      ],
      [
        "Ġaf",
        "p"
      ],
      [
        "Ġs",
        "ur"
      ],
      [
        "l",
        "es"
      ],
      [
        "Ġr",
        "un"
      ],
      [
        "Ġre",
        "g"
      ],
      [
        "Ġco",
        "uld"
      ],
      [
        "Ġa",
        "ust"
      ],
      [
        "Ġd",
        "ay"
      ],
      [
        "re",
        "n"
      ],
      [
        "Ġm",
        "ay"
      ],
      [
        "Ġco",
        "unt"
      ],
      [
        "Ġl",
        "os"
      ],
      [
        "Ġfin",
        "al"
      ],
      [
        "m",
        "an"
      ],
      [
        "Ġc",
        "ap"
      ],
      [
        "is",
        "e"
      ],
      [
        "c",
        "ent"
      ],
      [
        "w",
        "are"
      ],
      [
        "Ġpeop",
        "le"
      ],
      [
        "an",
        "g"
      ],
      [
        "Ġr",
        "uss"
      ],
      [
        "l",
        "ine"
      ],
      [
        "is",
        "ts"
      ],
      [
        "Ġwh",
        "ich"
      ],
      [
        "Ġso",
        "ft"
      ],
      [
        "Ġ",
        "ec"
      ],
      [
        "Ġgoog",
        "le"
      ],
      [
        "Ġt",
        "ec"
      ],
      [
        "er",
        "al"
      ],
      [
        "Ġqu",
        "arter"
      ],
      [
        "k",
        "ing"
      ],
      [
        "ub",
        "lic"
      ],
      [
        "ac",
        "t"
      ],
      [
        "Ġt",
        "ri"
      ],
      [
        "ul",
        "t"
      ],
      [
        "Ġm",
        "ak"
      ],
      [
        "th",
        "er"
      ],
      [
        "Ġt",
        "al"
      ],
      [
        "at",
        "ch"
      ],
      [
        "b",
        "all"
      ],
      [
        "Ġolympic",
        "s"
      ],
      [
        "Ġgam",
        "es"
      ],
      [
        "e",
        "p"
      ],
      [
        "k",
        "ed"
      ],
      [
        "Ġd",
        "el"
      ],
      [
        "Ġb",
        "ec"
      ],
      [
        "Ġn",
        "aj"
      ],
      [
        "Ġm",
        "us"
      ],
      [
        "Ġnaj",
        "af"
      ],
      [
        "l",
        "ed"
      ],
      [
        "or",
        "m"
      ],
      [
        "Ġaust",
        "ral"
      ],
      [
        "on",
        "om"
      ],
      [
        "Ġs",
        "ome"
      ],
      [
        "is",
        "ter"
      ],
      [
        "ad",
        "e"
      ],
      [
        "Ġde",
        "m"
      ],
      [
        "Ġw",
        "ould"
      ],
      [
        "Ġn",
        "ight"
      ],
      [
        "Ġop",
        "en"
      ],
      [
        "Ġper",
        "cent"
      ],
      [
        "l",
        "and"
      ],
      [
        "Ġb",
        "ig"
      ],
      [
        "Ġg",
        "u"
      ],
      [
        "Ġj",
        "ust"
      ],
      [
        "it",
        "al"
      ],
      [
        "Ġt",
        "r"
      ],
      [
        "c",
        "ed"
      ],
      [
        "Ġch",
        "ina"
      ],
      [
        "in",
        "ess"
      ],
      [
        "el",
        "d"
      ],
      [
        "in",
        "es"
      ],
      [
        "i",
        "er"
      ],
      [
        "o",
        "u"
      ],
      [
        "or",
        "n"
      ],
      [
        "i",
        "x"
      ],
      [
        "Ġc",
        "ar"
      ],
      [
        "Ġpro",
        "d"
      ],
      [
        "Ġl",
        "ong"
      ],
      [
        "ab",
        "le"
      ],
      [
        "Ġsecur",
        "ity"
      ],
      [
        "Ġbr",
        "it"
      ],
      [
        "Ġintern",
        "et"
      ],
      [
        "Ġmon",
        "th"
      ],
      [
        "Ġim",
        "p"
      ],
      [
        "Ġm",
        "en"
      ],
      [
        "u",
        "al"
      ],
      [
        "Ġto",
        "day"
      ],
      [
        "ic",
        "s"
      ],
      [
        "Ġbus",
        "iness"
      ],
      [
        "Ġel",
        "ect"
      ],
      [
        "p",
        "o"
      ],
      [
        "Ġw",
        "om"
      ],
      [
        "Ġyear",
        "s"
      ],
      [
        "ur",
        "day"
      ],
      [
        "Ġnew",
        "s"
      ],
      [
        "Ġsat",
        "urday"
      ],
      [
        "b",
        "s"
      ],
      [
        "c",
        "om"
      ],
      [
        "Ġre",
        "b"
      ],
      [
        "Ġco",
        "urt"
      ],
      [
        "Ġwas",
        "hing"
      ],
      [
        "Ġec",
        "onom"
      ],
      [
        "g",
        "ed"
      ],
      [
        "Ġ",
        "x"
      ],
      [
        "el",
        "y"
      ],
      [
        "Ġres",
        "earch"
      ],
      [
        "Ġwashing",
        "ton"
      ],
      [
        "ir",
        "d"
      ],
      [
        "Ġsoft",
        "ware"
      ],
      [
        "Ġs",
        "u"
      ],
      [
        "Ġas",
        "s"
      ],
      [
        "el",
        "s"
      ],
      [
        "am",
        "e"
      ],
      [
        "Ġmin",
        "ister"
      ],
      [
        "l",
        "et"
      ],
      [
        "Ġf",
        "ed"
      ],
      [
        "Ġto",
        "p"
      ],
      [
        "Ġc",
        "all"
      ],
      [
        "Ġre",
        "le"
      ],
      [
        "Ġoff",
        "er"
      ],
      [
        "Ġameric",
        "an"
      ],
      [
        "Ġann",
        "oun"
      ],
      [
        "Ġh",
        "elp"
      ],
      [
        "Ġf",
        "e"
      ],
      [
        "Ġcon",
        "f"
      ],
      [
        "x",
        "t"
      ],
      [
        "Ġn",
        "or"
      ],
      [
        "Ġne",
        "ar"
      ],
      [
        "Ġin",
        "f"
      ],
      [
        "Ġe",
        "u"
      ],
      [
        "a",
        "z"
      ],
      [
        "l",
        "ing"
      ],
      [
        "it",
        "ies"
      ],
      [
        "st",
        "em"
      ],
      [
        "Ġgro",
        "w"
      ],
      [
        "Ġw",
        "on"
      ],
      [
        "Ġst",
        "ates"
      ],
      [
        "Ġwin",
        "d"
      ],
      [
        "Ġv",
        "ict"
      ],
      [
        "Ġp",
        "ar"
      ],
      [
        "r",
        "or"
      ],
      [
        "Ġh",
        "ome"
      ],
      [
        "Ġsal",
        "es"
      ],
      [
        "os",
        "e"
      ],
      [
        "Ġj",
        "ap"
      ],
      [
        "an",
        "ge"
      ],
      [
        "Ġjap",
        "an"
      ],
      [
        "in",
        "s"
      ],
      [
        "Ġh",
        "er"
      ],
      [
        "Ġsup",
        "p"
      ],
      [
        "as",
        "on"
      ],
      [
        "o",
        "k"
      ],
      [
        "Ġg",
        "en"
      ],
      [
        "ol",
        "og"
      ],
      [
        "Ġde",
        "al"
      ],
      [
        "Ġc",
        "ut"
      ],
      [
        "at",
        "er"
      ],
      [
        "Ġst",
        "ate"
      ],
      [
        "Ġde",
        "p"
      ],
      [
        "i",
        "ed"
      ],
      [
        "Ġre",
        "l"
      ],
      [
        "ent",
        "s"
      ],
      [
        "ist",
        "an"
      ],
      [
        "a",
        "h"
      ],
      [
        "Ġc",
        "ol"
      ],
      [
        "a",
        "ir"
      ],
      [
        "us",
        "e"
      ],
      [
        "ot",
        "e"
      ],
      [
        "c",
        "es"
      ],
      [
        "Ġne",
        "xt"
      ],
      [
        "oo",
        "d"
      ],
      [
        "d",
        "e"
      ],
      [
        "Ġs",
        "ch"
      ],
      [
        "Ġc",
        "ity"
      ],
      [
        "Ġsh",
        "a"
      ],
      [
        "Ġso",
        "uth"
      ],
      [
        "Ġwom",
        "en"
      ],
      [
        "Ġf",
        "ore"
      ],
      [
        "Ġsy",
        "stem"
      ],
      [
        "ing",
        "s"
      ],
      [
        "Ġun",
        "der"
      ],
      [
        "w",
        "ay"
      ],
      [
        "Ġh",
        "ol"
      ],
      [
        "Ġofficial",
        "s"
      ],
      [
        "and",
        "s"
      ],
      [
        "Ġtec",
        "hn"
      ],
      [
        "in",
        "t"
      ],
      [
        "Ġch",
        "amp"
      ],
      [
        "ee",
        "p"
      ],
      [
        "Ġprof",
        "it"
      ],
      [
        "p",
        "t"
      ],
      [
        "ec",
        "e"
      ],
      [
        "le",
        "y"
      ],
      [
        "i",
        "ous"
      ],
      [
        "Ġp",
        "o"
      ],
      [
        "Ġen",
        "g"
      ],
      [
        "g",
        "er"
      ],
      [
        "p",
        "ed"
      ],
      [
        "Ġgam",
        "e"
      ],
      [
        "c",
        "er"
      ],
      [
        "Ġst",
        "ri"
      ],
      [
        "v",
        "ed"
      ],
      [
        "Ġm",
        "iss"
      ],
      [
        "Ġbu",
        "y"
      ],
      [
        "Ġs",
        "m"
      ],
      [
        "i",
        "o"
      ],
      [
        "Ġco",
        "st"
      ],
      [
        "Ġserv",
        "ice"
      ],
      [
        "Ġs",
        "ee"
      ],
      [
        "Ġd",
        "r"
      ],
      [
        "Ġn",
        "ational"
      ],
      [
        "on",
        "t"
      ],
      [
        "Ġh",
        "it"
      ],
      [
        "Ġbe",
        "f"
      ],
      [
        "n",
        "ed"
      ],
      [
        "Ġre",
        "f"
      ],
      [
        "Ġn",
        "etw"
      ],
      [
        "Ġs",
        "ay"
      ],
      [
        "on",
        "s"
      ],
      [
        "Ġj",
        "u"
      ],
      [
        "ro",
        "ugh"
      ],
      [
        "Ġwind",
        "ows"
      ],
      [
        "h",
        "an"
      ],
      [
        "Ġup",
        "d"
      ],
      [
        "Ġbus",
        "h"
      ],
      [
        "Ġbef",
        "ore"
      ],
      [
        "v",
        "en"
      ],
      [
        "Ġt",
        "arg"
      ],
      [
        "un",
        "ch"
      ],
      [
        "Ġcount",
        "ry"
      ],
      [
        "Ġ",
        "ed"
      ],
      [
        "res",
        "s"
      ],
      [
        "a",
        "im"
      ],
      [
        "Ġl",
        "in"
      ],
      [
        "ment",
        "s"
      ],
      [
        "Ġf",
        "i"
      ],
      [
        "Ġp",
        "ost"
      ],
      [
        "Ġter",
        "ror"
      ],
      [
        "p",
        "os"
      ],
      [
        "w",
        "s"
      ],
      [
        "Ġpro",
        "t"
      ],
      [
        "Ġcan",
        "ad"
      ],
      [
        "v",
        "es"
      ],
      [
        "Ġt",
        "ak"
      ],
      [
        "Ġg",
        "ian"
      ],
      [
        "Ġgre",
        "ece"
      ],
      [
        "c",
        "y"
      ],
      [
        "Ġb",
        "re"
      ],
      [
        "Ġtal",
        "ks"
      ],
      [
        "an",
        "ts"
      ],
      [
        "ur",
        "ing"
      ],
      [
        "il",
        "d"
      ],
      [
        "ec",
        "ut"
      ],
      [
        "Ġac",
        "t"
      ],
      [
        "Ġwor",
        "k"
      ],
      [
        "n",
        "er"
      ],
      [
        "w",
        "ard"
      ],
      [
        "Ġb",
        "illion"
      ],
      [
        "Ġop",
        "er"
      ],
      [
        "Ġb",
        "at"
      ],
      [
        "Ġb",
        "el"
      ],
      [
        "Ġis",
        "ra"
      ],
      [
        "en",
        "e"
      ],
      [
        "Ġv",
        "i"
      ],
      [
        "Ġisra",
        "el"
      ],
      [
        "Ġt",
        "a"
      ],
      [
        "Ġb",
        "om"
      ],
      [
        "Ġmo",
        "st"
      ],
      [
        "Ġs",
        "us"
      ],
      [
        "Ġy",
        "ou"
      ],
      [
        "vel",
        "op"
      ],
      [
        "Ġvict",
        "ory"
      ],
      [
        "Ġg",
        "et"
      ],
      [
        "Ġst",
        "art"
      ],
      [
        "Ġjo",
        "hn"
      ],
      [
        "c",
        "ess"
      ],
      [
        "Ġc",
        "re"
      ],
      [
        "Ġf",
        "ound"
      ],
      [
        "Ġan",
        "t"
      ],
      [
        "Ġcl",
        "aim"
      ],
      [
        "Ġ",
        "z"
      ],
      [
        "Ġs",
        "ign"
      ],
      [
        "Ġo",
        "ther"
      ],
      [
        "Ġp",
        "ublic"
      ],
      [
        "Ġsh",
        "ar"
      ],
      [
        "Ġpl",
        "ans"
      ],
      [
        "b",
        "e"
      ],
      [
        "Ġp",
        "a"
      ],
      [
        "Ġi",
        "f"
      ],
      [
        "Ġt",
        "est"
      ],
      [
        "Ġw",
        "ay"
      ],
      [
        "Ġt",
        "ro"
      ],
      [
        "Ġsh",
        "ow"
      ],
      [
        "i",
        "ent"
      ],
      [
        "Ġhe",
        "ad"
      ],
      [
        "Ġiraq",
        "i"
      ],
      [
        "rac",
        "t"
      ],
      [
        "Ġintern",
        "ational"
      ],
      [
        "p",
        "h"
      ],
      [
        "al",
        "ly"
      ],
      [
        "Ġde",
        "velop"
      ],
      [
        "Ġwh",
        "at"
      ],
      [
        "ic",
        "es"
      ],
      [
        "Ġpres",
        "s"
      ],
      [
        "Ġstoc",
        "k"
      ],
      [
        "Ġt",
        "ake"
      ],
      [
        "Ġp",
        "ower"
      ],
      [
        "Ġst",
        "re"
      ],
      [
        "ac",
        "ks"
      ],
      [
        "Ġsh",
        "i"
      ],
      [
        "Ġt",
        "el"
      ],
      [
        "Ġsus",
        "p"
      ],
      [
        "l",
        "ud"
      ],
      [
        "Ġf",
        "ull"
      ],
      [
        "l",
        "ess"
      ],
      [
        "u",
        "res"
      ],
      [
        "Ġsha",
        "res"
      ],
      [
        "e",
        "ad"
      ],
      [
        "Ġh",
        "am"
      ],
      [
        "ot",
        "her"
      ],
      [
        "as",
        "ed"
      ],
      [
        "Ġkill",
        "ed"
      ],
      [
        "Ġtarg",
        "et"
      ],
      [
        "c",
        "t"
      ],
      [
        "Ġb",
        "ar"
      ],
      [
        "Ġm",
        "aj"
      ],
      [
        "Ġe",
        "ver"
      ],
      [
        "g",
        "est"
      ],
      [
        "Ġ",
        "'"
      ],
      [
        "Ġst",
        "ar"
      ],
      [
        "u",
        "el"
      ],
      [
        "Ġin",
        "s"
      ],
      [
        "Ġpro",
        "v"
      ],
      [
        "oo",
        "k"
      ],
      [
        "h",
        "ip"
      ],
      [
        "is",
        "ion"
      ],
      [
        "Ġre",
        "m"
      ],
      [
        "Ġtechn",
        "olog"
      ],
      [
        "Ġh",
        "al"
      ],
      [
        "Ġg",
        "r"
      ],
      [
        "Ġcomp",
        "u"
      ],
      [
        "k",
        "y"
      ],
      [
        "Ġh",
        "om"
      ],
      [
        "Ġmus",
        "ic"
      ],
      [
        "Ġp",
        "os"
      ],
      [
        "Ġre",
        "d"
      ],
      [
        "Ġaustral",
        "ia"
      ],
      [
        "Ġex",
        "t"
      ],
      [
        "Ġreport",
        "ed"
      ],
      [
        "Ġth",
        "rough"
      ],
      [
        "Ġp",
        "ay"
      ],
      [
        "Ġwe",
        "b"
      ],
      [
        "Ġupd",
        "ate"
      ],
      [
        "Ġth",
        "ird"
      ],
      [
        "Ġbe",
        "g"
      ],
      [
        "Ġad",
        "v"
      ],
      [
        "Ġruss",
        "ian"
      ],
      [
        "i",
        "am"
      ],
      [
        "al",
        "if"
      ],
      [
        "Ġannoun",
        "ced"
      ],
      [
        "Ġh",
        "im"
      ],
      [
        "Ġmaj",
        "or"
      ],
      [
        "Ġi",
        "po"
      ],
      [
        "Ġh",
        "ow"
      ],
      [
        "Ġst",
        "ud"
      ],
      [
        "ra",
        "m"
      ],
      [
        "Ġr",
        "ul"
      ],
      [
        "iv",
        "es"
      ],
      [
        "Ġatt",
        "ack"
      ],
      [
        "Ġf",
        "all"
      ],
      [
        "re",
        "at"
      ],
      [
        "Ġwh",
        "ile"
      ],
      [
        "Ġl",
        "arg"
      ],
      [
        "Ġacc",
        "ord"
      ],
      [
        "in",
        "ce"
      ],
      [
        "o",
        "ugh"
      ],
      [
        "Ġsp",
        "r"
      ],
      [
        "Ġro",
        "und"
      ],
      [
        "m",
        "ed"
      ],
      [
        "y",
        "s"
      ],
      [
        "Ġ",
        ":"
      ],
      [
        "Ġh",
        "old"
      ],
      [
        "Ġla",
        "unch"
      ],
      [
        "Ġo",
        "ld"
      ],
      [
        "it",
        "t"
      ],
      [
        "Ġd",
        "at"
      ],
      [
        "Ġcompu",
        "ter"
      ],
      [
        "Ġch",
        "arg"
      ],
      [
        "Ġfed",
        "eral"
      ],
      [
        "Ġe",
        "ff"
      ],
      [
        "Ġpr",
        "ime"
      ],
      [
        "Ġnor",
        "th"
      ],
      [
        "es",
        "e"
      ],
      [
        "Ġle",
        "ast"
      ],
      [
        "re",
        "st"
      ],
      [
        "ad",
        "r"
      ],
      [
        "Ġk",
        "n"
      ],
      [
        "Ġpol",
        "ice"
      ],
      [
        "a",
        "use"
      ],
      [
        "Ġinc",
        "lud"
      ],
      [
        "Ġan",
        "g"
      ],
      [
        "is",
        "ing"
      ],
      [
        "Ġgrow",
        "th"
      ],
      [
        "Ġdr",
        "ug"
      ],
      [
        "Ġaccord",
        "ing"
      ],
      [
        "b",
        "le"
      ],
      [
        "Ġsh",
        "e"
      ],
      [
        "Ġeu",
        "rop"
      ],
      [
        "u",
        "ch"
      ],
      [
        "on",
        "es"
      ],
      [
        "Ġc",
        "ent"
      ],
      [
        "Ġst",
        "ill"
      ],
      [
        "Ġe",
        "m"
      ],
      [
        "Ġfor",
        "mer"
      ],
      [
        "Ġcomp",
        "et"
      ],
      [
        "Ġpric",
        "e"
      ],
      [
        "Ġs",
        "an"
      ],
      [
        "Ġqu",
        "ick"
      ],
      [
        "Ġbom",
        "b"
      ],
      [
        "Ġp",
        "ut"
      ],
      [
        "Ġon",
        "line"
      ],
      [
        "Ġbrit",
        "ish"
      ],
      [
        "er",
        "t"
      ],
      [
        "Ġm",
        "ade"
      ],
      [
        "Ġd",
        "rop"
      ],
      [
        "Ġan",
        "other"
      ],
      [
        "ec",
        "ts"
      ],
      [
        "Ġde",
        "b"
      ],
      [
        "Ġcont",
        "in"
      ],
      [
        "Ġhigh",
        "er"
      ],
      [
        "Ġeurop",
        "e"
      ],
      [
        "d",
        "ing"
      ],
      [
        "l",
        "in"
      ],
      [
        "Ġs",
        "ud"
      ],
      [
        "Ġf",
        "ight"
      ],
      [
        "Ġch",
        "ip"
      ],
      [
        "Ġb",
        "oo"
      ],
      [
        "Ġind",
        "ust"
      ],
      [
        "Ġh",
        "op"
      ],
      [
        "Ġcons",
        "um"
      ],
      [
        "Ġh",
        "ur"
      ],
      [
        "'",
        "t"
      ],
      [
        "r",
        "on"
      ],
      [
        "er",
        "ic"
      ],
      [
        "Ġc",
        "amp"
      ],
      [
        "Ġf",
        "ive"
      ],
      [
        "e",
        "en"
      ],
      [
        "ric",
        "an"
      ],
      [
        "Ġse",
        "ason"
      ],
      [
        "Ġ",
        "q"
      ],
      [
        "ning",
        "s"
      ],
      [
        "Ġf",
        "ire"
      ],
      [
        "Ġm",
        "ake"
      ],
      [
        "Ġd",
        "ar"
      ],
      [
        "Ġpe",
        "ace"
      ],
      [
        "Ġexp",
        "ected"
      ],
      [
        "Ġra",
        "d"
      ],
      [
        "end",
        "ing"
      ],
      [
        "ie",
        "f"
      ],
      [
        "Ġaug",
        "ust"
      ],
      [
        "f",
        "ul"
      ],
      [
        "o",
        "d"
      ],
      [
        "Ġg",
        "er"
      ],
      [
        "Ġle",
        "g"
      ],
      [
        "Ġj",
        "ud"
      ],
      [
        "Ġbe",
        "at"
      ],
      [
        "Ġcont",
        "ro"
      ],
      [
        "Ġtechnolog",
        "y"
      ],
      [
        "Ġthe",
        "m"
      ],
      [
        "Ġf",
        "o"
      ],
      [
        "ro",
        "und"
      ],
      [
        "us",
        "ed"
      ],
      [
        "Ġn",
        "ow"
      ],
      [
        "Ġwin",
        "s"
      ],
      [
        "n",
        "e"
      ],
      [
        "Ġs",
        "ing"
      ],
      [
        "Ġch",
        "ar"
      ],
      [
        "Ġsud",
        "an"
      ],
      [
        "Ġp",
        "ak"
      ],
      [
        "at",
        "or"
      ],
      [
        "Ġlead",
        "er"
      ],
      [
        "v",
        "ent"
      ],
      [
        "Ġs",
        "ix"
      ],
      [
        "op",
        "s"
      ],
      [
        "Ġmo",
        "b"
      ],
      [
        "if",
        "f"
      ],
      [
        "Ġret",
        "ail"
      ],
      [
        "Ġsh",
        "are"
      ],
      [
        "Ġbas",
        "ed"
      ],
      [
        "Ġlarg",
        "est"
      ],
      [
        ".",
        ","
      ],
      [
        "Ġl",
        "o"
      ],
      [
        "i",
        "vers"
      ],
      [
        "Ġre",
        "al"
      ],
      [
        "etw",
        "een"
      ],
      [
        "Ġdat",
        "a"
      ],
      [
        "Ġf",
        "ace"
      ],
      [
        "Ġb",
        "etween"
      ],
      [
        "is",
        "co"
      ],
      [
        "Ġon",
        "ly"
      ],
      [
        "Ġcomp",
        "an"
      ],
      [
        "Ġinc",
        "re"
      ],
      [
        "Ġstr",
        "ong"
      ],
      [
        "Ġs",
        "ell"
      ],
      [
        "Ġst",
        "ra"
      ],
      [
        "oc",
        "k"
      ],
      [
        "Ġo",
        "wn"
      ],
      [
        "Ġcl",
        "os"
      ],
      [
        "Ġev",
        "en"
      ],
      [
        "Ġpak",
        "istan"
      ],
      [
        "Ġexp",
        "l"
      ],
      [
        "Ġnetw",
        "ork"
      ],
      [
        "Ġs",
        "adr"
      ],
      [
        "Ġth",
        "ere"
      ],
      [
        "Ġm",
        "id"
      ],
      [
        "ure",
        "d"
      ],
      [
        "n",
        "s"
      ],
      [
        "Ġs",
        "il"
      ],
      [
        "re",
        "ed"
      ],
      [
        "Ġac",
        "qu"
      ],
      [
        "Ġcompan",
        "ies"
      ],
      [
        "ro",
        "w"
      ],
      [
        "c",
        "l"
      ],
      [
        "Ġ",
        "ver"
      ],
      [
        "Ġcl",
        "eric"
      ],
      [
        "Ġw",
        "al"
      ],
      [
        "Ġre",
        "v"
      ],
      [
        "Ġgian",
        "t"
      ],
      [
        "m",
        "in"
      ],
      [
        "Ġf",
        "il"
      ],
      [
        "Ġp",
        "c"
      ],
      [
        "Ġsh",
        "r"
      ],
      [
        "Ġbe",
        "ing"
      ],
      [
        "Ġ",
        "ir"
      ],
      [
        "at",
        "est"
      ],
      [
        "le",
        "ar"
      ],
      [
        "st",
        "r"
      ],
      [
        "ot",
        "s"
      ],
      [
        "Ġk",
        "ore"
      ],
      [
        "Ġlos",
        "s"
      ],
      [
        "i",
        "k"
      ],
      [
        "Ġs",
        "old"
      ],
      [
        "Ġfir",
        "m"
      ],
      [
        "Ġret",
        "urn"
      ],
      [
        "uct",
        "ion"
      ],
      [
        "Ġbig",
        "gest"
      ],
      [
        "Ġmob",
        "ile"
      ],
      [
        "Ġb",
        "id"
      ],
      [
        "Ġin",
        "it"
      ],
      [
        "ur",
        "y"
      ],
      [
        "Ġpro",
        "g"
      ],
      [
        "Ġs",
        "earch"
      ],
      [
        "Ġs",
        "ince"
      ],
      [
        "Ġf",
        "ac"
      ],
      [
        "Ġmilit",
        "ary"
      ],
      [
        "Ġde",
        "ad"
      ],
      [
        "oll",
        "ar"
      ],
      [
        "h",
        "ead"
      ],
      [
        "y",
        "m"
      ],
      [
        "at",
        "ors"
      ],
      [
        "Ġinvest",
        "ors"
      ],
      [
        "Ġh",
        "ear"
      ],
      [
        "are",
        "d"
      ],
      [
        "Ġmo",
        "ve"
      ],
      [
        "ie",
        "w"
      ],
      [
        "re",
        "f"
      ],
      [
        "Ġe",
        "qu"
      ],
      [
        "ain",
        "s"
      ],
      [
        "Ġapp",
        "e"
      ],
      [
        "in",
        "f"
      ],
      [
        "Ġm",
        "ich"
      ],
      [
        "Ġle",
        "ft"
      ],
      [
        "Ġdo",
        "ub"
      ],
      [
        "Ġh",
        "ref"
      ],
      [
        "Ġre",
        "ach"
      ],
      [
        "Ġso",
        "ur"
      ],
      [
        "c",
        "ast"
      ],
      [
        "Ġp",
        "al"
      ],
      [
        "Ġin",
        "j"
      ],
      [
        "a",
        "w"
      ],
      [
        "u",
        "es"
      ],
      [
        "Ġd",
        "ollar"
      ],
      [
        "Ġn",
        "as"
      ],
      [
        "ag",
        "ue"
      ],
      [
        "Ġruss",
        "ia"
      ],
      [
        "Ġprod",
        "uc"
      ],
      [
        "Ġvi",
        "ol"
      ],
      [
        "Ġa",
        "v"
      ],
      [
        "Ġn",
        "ation"
      ],
      [
        "rac",
        "k"
      ],
      [
        "Ġc",
        "a"
      ],
      [
        "il",
        "ity"
      ],
      [
        "Ġse",
        "m"
      ],
      [
        "Ġs",
        "ub"
      ],
      [
        "al",
        "th"
      ],
      [
        "Ġh",
        "ost"
      ],
      [
        "Ġst",
        "ore"
      ],
      [
        "igh",
        "ts"
      ],
      [
        "Ġcap",
        "ital"
      ],
      [
        "ros",
        "s"
      ],
      [
        "Ġindust",
        "ry"
      ],
      [
        "i",
        "um"
      ],
      [
        "Ġt",
        "it"
      ],
      [
        "Ġb",
        "ra"
      ],
      [
        "ag",
        "o"
      ],
      [
        "Ġar",
        "m"
      ],
      [
        "Ġdem",
        "and"
      ],
      [
        "e",
        "b"
      ],
      [
        "r",
        "ation"
      ],
      [
        "Ġc",
        "ust"
      ],
      [
        "us",
        "h"
      ],
      [
        "Ġst",
        "and"
      ],
      [
        "ian",
        "s"
      ],
      [
        "p",
        "ing"
      ],
      [
        "Ġt",
        "urn"
      ],
      [
        "Ġp",
        "ack"
      ],
      [
        "al",
        "y"
      ],
      [
        "Ġapp",
        "ro"
      ],
      [
        "Ġpol",
        "it"
      ],
      [
        "Ġbas",
        "ket"
      ],
      [
        "Ġbec",
        "ause"
      ],
      [
        "Ġoffer",
        "ing"
      ],
      [
        "Ġch",
        "ic"
      ],
      [
        "Ġph",
        "one"
      ],
      [
        "Ġdes",
        "p"
      ],
      [
        "Ġpa",
        "ul"
      ],
      [
        "Ġf",
        "und"
      ],
      [
        "Ġn",
        "et"
      ],
      [
        "ul",
        "ar"
      ],
      [
        "f",
        "ur"
      ],
      [
        "Ġw",
        "ire"
      ],
      [
        "Ġm",
        "et"
      ],
      [
        "Ġfin",
        "anc"
      ],
      [
        "ond",
        "on"
      ],
      [
        "Ġar",
        "rest"
      ],
      [
        "Ġapp",
        "le"
      ],
      [
        "Ġeconom",
        "y"
      ],
      [
        "g",
        "y"
      ],
      [
        "is",
        "ed"
      ],
      [
        "Ġl",
        "ondon"
      ],
      [
        "Ġan",
        "y"
      ],
      [
        "ow",
        "ing"
      ],
      [
        "Ġaf",
        "g"
      ],
      [
        "Ġind",
        "ia"
      ],
      [
        "Ġbasket",
        "ball"
      ],
      [
        "z",
        "e"
      ],
      [
        "Ġd",
        "ays"
      ],
      [
        "Ġd",
        "uring"
      ],
      [
        "Ġl",
        "atest"
      ],
      [
        "up",
        "t"
      ],
      [
        "Ġen",
        "ter"
      ],
      [
        "Ġdar",
        "fur"
      ],
      [
        "Ġa",
        "round"
      ],
      [
        "Ġmak",
        "er"
      ],
      [
        "Ġx",
        "p"
      ],
      [
        "Ġchic",
        "ago"
      ],
      [
        "Ġf",
        "ell"
      ],
      [
        "Ġp",
        "ri"
      ],
      [
        "ut",
        "ion"
      ],
      [
        "Ġle",
        "ague"
      ],
      [
        "Ġpart",
        "y"
      ],
      [
        "b",
        "o"
      ],
      [
        "p",
        "e"
      ],
      [
        "t",
        "y"
      ],
      [
        "en",
        "ter"
      ],
      [
        "at",
        "ive"
      ],
      [
        "ud",
        "e"
      ],
      [
        "e",
        "v"
      ],
      [
        "Ġf",
        "oll"
      ],
      [
        "Ġb",
        "ill"
      ],
      [
        "Ġme",
        "et"
      ],
      [
        "Ġ",
        "er"
      ],
      [
        "Ġp",
        "op"
      ],
      [
        "Ġd",
        "et"
      ],
      [
        "Ġear",
        "ly"
      ],
      [
        "Ġinvest",
        "ig"
      ],
      [
        "Ġreg",
        "ion"
      ],
      [
        "Ġcanad",
        "ian"
      ],
      [
        "Ġinclud",
        "ing"
      ],
      [
        "g",
        "es"
      ],
      [
        "Ġa",
        "head"
      ],
      [
        "in",
        "d"
      ],
      [
        "Ġc",
        "ase"
      ],
      [
        "ens",
        "e"
      ],
      [
        "Ġsc",
        "ient"
      ],
      [
        "Ġatt",
        "acks"
      ],
      [
        "Ġeconom",
        "ic"
      ],
      [
        "Ġd",
        "om"
      ],
      [
        "Ġg",
        "ra"
      ],
      [
        "Ġst",
        "e"
      ],
      [
        "Ġis",
        "s"
      ],
      [
        "a",
        "el"
      ],
      [
        "Ġc",
        "alif"
      ],
      [
        "Ġp",
        "at"
      ],
      [
        "or",
        "ks"
      ],
      [
        "Ġv",
        "ir"
      ],
      [
        "er",
        "ry"
      ],
      [
        "Ġp",
        "ass"
      ],
      [
        "it",
        "ch"
      ],
      [
        "qu",
        "ote"
      ],
      [
        "Ġelect",
        "ion"
      ],
      [
        "Ġhal",
        "f"
      ],
      [
        "er",
        "ed"
      ],
      [
        "Ġf",
        "ail"
      ],
      [
        "is",
        "es"
      ],
      [
        "Ġv",
        "is"
      ],
      [
        "Ġrele",
        "ase"
      ],
      [
        "Ġfull",
        "quote"
      ],
      [
        "Ġquick",
        "inf"
      ],
      [
        "Ġcust",
        "om"
      ],
      [
        "Ġquickinf",
        "o"
      ],
      [
        "b",
        "ers"
      ],
      [
        "o",
        "ol"
      ],
      [
        "u",
        "k"
      ],
      [
        "Ġw",
        "all"
      ],
      [
        "Ġh",
        "and"
      ],
      [
        "Ġne",
        "ed"
      ],
      [
        "Ġhe",
        "alth"
      ],
      [
        "ish",
        "ed"
      ],
      [
        "Ġla",
        "w"
      ],
      [
        "Ġli",
        "ke"
      ],
      [
        "Ġreb",
        "els"
      ],
      [
        "Ġconsum",
        "er"
      ],
      [
        "Ġd",
        "ist"
      ],
      [
        "ad",
        "y"
      ],
      [
        "Ġus",
        "e"
      ],
      [
        "Ġafg",
        "han"
      ],
      [
        "Ġt",
        "y"
      ],
      [
        "Ġt",
        "im"
      ],
      [
        "Ġs",
        "uc"
      ],
      [
        "Ġd",
        "ri"
      ],
      [
        "Ġl",
        "ine"
      ],
      [
        "Ġch",
        "ec"
      ],
      [
        "Ġra",
        "ce"
      ],
      [
        "Ġfr",
        "anc"
      ],
      [
        "p",
        "l"
      ],
      [
        "s",
        "on"
      ],
      [
        "Ġth",
        "reat"
      ],
      [
        "Ġde",
        "v"
      ],
      [
        "Ġsp",
        "ec"
      ],
      [
        "Ġsp",
        "ace"
      ],
      [
        "Ġex",
        "ecut"
      ],
      [
        "Ġag",
        "reed"
      ],
      [
        "Ġop",
        "pos"
      ],
      [
        "Ġnear",
        "ly"
      ],
      [
        "Ġc",
        "up"
      ],
      [
        "Ġw",
        "r"
      ],
      [
        "Ġp",
        "ast"
      ],
      [
        "Ġg",
        "ree"
      ],
      [
        "Ġju",
        "ly"
      ],
      [
        "Ġc",
        "ub"
      ],
      [
        "is",
        "m"
      ],
      [
        "Ġd",
        "av"
      ],
      [
        "ut",
        "e"
      ],
      [
        "Ġro",
        "se"
      ],
      [
        "Ġman",
        "ag"
      ],
      [
        "Ġear",
        "nings"
      ],
      [
        "Ġf",
        "ree"
      ],
      [
        "Ġal",
        "le"
      ],
      [
        "Ġw",
        "est"
      ],
      [
        "at",
        "ic"
      ],
      [
        "ra",
        "w"
      ],
      [
        "Ġcon",
        "cer"
      ],
      [
        "Ġboo",
        "st"
      ],
      [
        "e",
        "g"
      ],
      [
        "u",
        "x"
      ],
      [
        "Ġt",
        "ry"
      ],
      [
        "en",
        "cy"
      ],
      [
        "it",
        "ing"
      ],
      [
        "is",
        "on"
      ],
      [
        "Ġrep",
        "orts"
      ],
      [
        "Ġcr",
        "ude"
      ],
      [
        "iss",
        "ion"
      ],
      [
        "Ġgen",
        "eral"
      ],
      [
        "Ġf",
        "ut"
      ],
      [
        "Ġm",
        "em"
      ],
      [
        "Ġm",
        "any"
      ],
      [
        "Ġin",
        "st"
      ],
      [
        "Ġg",
        "ym"
      ],
      [
        "Ġl",
        "it"
      ],
      [
        "Ġn",
        "um"
      ],
      [
        "Ġch",
        "ief"
      ],
      [
        "Ġr",
        "iv"
      ],
      [
        "Ġi",
        "b"
      ],
      [
        "Ġbro",
        "ad"
      ],
      [
        "Ġstri",
        "ke"
      ],
      [
        "Ġmich",
        "ael"
      ],
      [
        "Ġg",
        "l"
      ],
      [
        "ad",
        "es"
      ],
      [
        "if",
        "e"
      ],
      [
        "Ġph",
        "elp"
      ],
      [
        "Ġbre",
        "ak"
      ],
      [
        "Ġshr",
        "ine"
      ],
      [
        "Ġphelp",
        "s"
      ],
      [
        "o",
        "ver"
      ],
      [
        "r",
        "upt"
      ],
      [
        "Ġf",
        "ren"
      ],
      [
        "Ġm",
        "ot"
      ],
      [
        "Ġl",
        "ab"
      ],
      [
        "Ġk",
        "eep"
      ],
      [
        "ear",
        "s"
      ],
      [
        "Ġrep",
        "ublic"
      ],
      [
        "Ġrele",
        "ased"
      ],
      [
        "Ġgym",
        "n"
      ],
      [
        "ar",
        "m"
      ],
      [
        "Ġsh",
        "ould"
      ],
      [
        "Ġco",
        "ach"
      ],
      [
        "Ġag",
        "o"
      ],
      [
        "Ġchamp",
        "ions"
      ],
      [
        "Ġsp",
        "e"
      ],
      [
        "ib",
        "le"
      ],
      [
        "Ġcontro",
        "l"
      ],
      [
        "Ġdesp",
        "ite"
      ],
      [
        "Ġs",
        "oc"
      ],
      [
        "Ġc",
        "ard"
      ],
      [
        "Ġg",
        "e"
      ],
      [
        "ugh",
        "t"
      ],
      [
        "Ġsupp",
        "ort"
      ],
      [
        "Ġs",
        "um"
      ],
      [
        "Ġb",
        "ag"
      ],
      [
        "Ġh",
        "ist"
      ],
      [
        "Ġh",
        "ere"
      ],
      [
        "Ġg",
        "lo"
      ],
      [
        "est",
        "in"
      ],
      [
        "uc",
        "k"
      ],
      [
        "Ġcomm",
        "un"
      ],
      [
        "Ġmonth",
        "s"
      ],
      [
        "f",
        "orm"
      ],
      [
        "p",
        "y"
      ],
      [
        "Ġd",
        "ig"
      ],
      [
        "Ġg",
        "as"
      ],
      [
        "ot",
        "h"
      ],
      [
        "Ġk",
        "erry"
      ],
      [
        "Ġserv",
        "ices"
      ],
      [
        "lo",
        "y"
      ],
      [
        "Ġs",
        "im"
      ],
      [
        "on",
        "y"
      ],
      [
        "Ġm",
        "ain"
      ],
      [
        "Ġsh",
        "ot"
      ],
      [
        "Ġus",
        "ers"
      ],
      [
        "Ġrec",
        "ent"
      ],
      [
        "Ġtr",
        "ans"
      ],
      [
        "p",
        "r"
      ],
      [
        "Ġ",
        "ur"
      ],
      [
        "Ġ",
        "vers"
      ],
      [
        "Ġm",
        "uch"
      ],
      [
        "Ġl",
        "ower"
      ],
      [
        "as",
        "ter"
      ],
      [
        "Ġy",
        "our"
      ],
      [
        "Ġinit",
        "ial"
      ],
      [
        "Ġwire",
        "less"
      ],
      [
        "b",
        "y"
      ],
      [
        "Ġ",
        "est"
      ],
      [
        "Ġf",
        "am"
      ],
      [
        "Ġm",
        "os"
      ],
      [
        "Ġh",
        "our"
      ],
      [
        "Ġre",
        "st"
      ],
      [
        "il",
        "y"
      ],
      [
        "Ġu",
        "k"
      ],
      [
        "iz",
        "e"
      ],
      [
        "Ġham",
        "m"
      ],
      [
        "p",
        "ort"
      ],
      [
        "Ġl",
        "oo"
      ],
      [
        "Ġr",
        "ise"
      ],
      [
        "Ġk",
        "ey"
      ],
      [
        "Ġwh",
        "ere"
      ],
      [
        "it",
        "es"
      ],
      [
        "Ġl",
        "ow"
      ],
      [
        "Ġe",
        "ight"
      ],
      [
        "im",
        "in"
      ],
      [
        "Ġint",
        "el"
      ],
      [
        "Ġib",
        "m"
      ],
      [
        "Ġfren",
        "ch"
      ],
      [
        "l",
        "l"
      ],
      [
        "u",
        "mp"
      ],
      [
        "Ġb",
        "et"
      ],
      [
        "Ġto",
        "ok"
      ],
      [
        "Ġaustral",
        "ian"
      ],
      [
        "Ġchamp",
        "ion"
      ],
      [
        "Ġfinanc",
        "ial"
      ],
      [
        "g",
        "l"
      ],
      [
        "in",
        "k"
      ],
      [
        "Ġs",
        "en"
      ],
      [
        "Ġs",
        "ol"
      ],
      [
        "id",
        "n"
      ],
      [
        "Ġsm",
        "all"
      ],
      [
        "re",
        "d"
      ],
      [
        "en",
        "n"
      ],
      [
        "at",
        "her"
      ],
      [
        "Ġst",
        "ep"
      ],
      [
        "Ġsp",
        "orts"
      ],
      [
        "Ġcr",
        "ash"
      ],
      [
        "Ġtit",
        "le"
      ],
      [
        "Ġgree",
        "k"
      ],
      [
        "b",
        "al"
      ],
      [
        "id",
        "ence"
      ],
      [
        "Ġad",
        "d"
      ],
      [
        "Ġcont",
        "ract"
      ],
      [
        "Ġem",
        "b"
      ],
      [
        "Ġfight",
        "ing"
      ],
      [
        "Ġcamp",
        "a"
      ],
      [
        ";",
        "..."
      ],
      [
        "u",
        "ed"
      ],
      [
        "our",
        "n"
      ],
      [
        "iv",
        "ing"
      ],
      [
        "Ġath",
        "let"
      ],
      [
        "Ġgoo",
        "d"
      ],
      [
        "Ġsch",
        "ool"
      ],
      [
        "re",
        "m"
      ],
      [
        "Ġm",
        "art"
      ],
      [
        "ot",
        "t"
      ],
      [
        "Ġreg",
        "ul"
      ],
      [
        "Ġant",
        "i"
      ],
      [
        "Ġstre",
        "et"
      ],
      [
        "Ġoppos",
        "ition"
      ],
      [
        "e",
        "es"
      ],
      [
        "Ġm",
        "or"
      ],
      [
        "Ġv",
        "o"
      ],
      [
        "ect",
        "ion"
      ],
      [
        "Ġwee",
        "ks"
      ],
      [
        "Ġset",
        "tle"
      ],
      [
        "Ġcall",
        "ed"
      ],
      [
        "Ġprot",
        "est"
      ],
      [
        "ene",
        "z"
      ],
      [
        "Ġgymn",
        "ast"
      ],
      [
        "h",
        "d"
      ],
      [
        "o",
        "on"
      ],
      [
        "u",
        "it"
      ],
      [
        "et",
        "her"
      ],
      [
        "Ġus",
        "ed"
      ],
      [
        "Ġfour",
        "th"
      ],
      [
        "Ġtro",
        "ops"
      ],
      [
        "Ġcompet",
        "ition"
      ],
      [
        "w",
        "ays"
      ],
      [
        "Ġt",
        "or"
      ],
      [
        "re",
        "am"
      ],
      [
        "Ġc",
        "are"
      ],
      [
        "el",
        "f"
      ],
      [
        "ul",
        "ts"
      ],
      [
        "Ġj",
        "ourn"
      ],
      [
        "Ġv",
        "ide"
      ],
      [
        "Ġun",
        "ion"
      ],
      [
        "Ġameric",
        "ans"
      ],
      [
        "Ġmilit",
        "ants"
      ],
      [
        "Ġh",
        "eld"
      ],
      [
        "Ġe",
        "mp"
      ],
      [
        "Ġbrit",
        "ain"
      ],
      [
        "Ġcampa",
        "ign"
      ],
      [
        "w",
        "a"
      ],
      [
        "Ġag",
        "ree"
      ],
      [
        "Ġcomm",
        "ission"
      ],
      [
        "Ġlit",
        "tle"
      ],
      [
        "p",
        "ar"
      ],
      [
        "Ġw",
        "atch"
      ],
      [
        "Ġp",
        "ull"
      ],
      [
        "Ġm",
        "c"
      ],
      [
        "Ġwith",
        "out"
      ],
      [
        "Ġisrael",
        "i"
      ],
      [
        "Ġta",
        "x"
      ],
      [
        "g",
        "ing"
      ],
      [
        "i",
        "ver"
      ],
      [
        "o",
        "v"
      ],
      [
        "Ġh",
        "ous"
      ],
      [
        "Ġg",
        "ive"
      ],
      [
        "Ġl",
        "ate"
      ],
      [
        "Ġdep",
        "art"
      ],
      [
        "Ġcharg",
        "es"
      ],
      [
        "Ġpal",
        "estin"
      ],
      [
        "l",
        "ier"
      ],
      [
        "Ġc",
        "y"
      ],
      [
        "Ġm",
        "ass"
      ],
      [
        "ad",
        "a"
      ],
      [
        "Ġse",
        "ver"
      ],
      [
        "iz",
        "ed"
      ],
      [
        "Ġli",
        "k"
      ],
      [
        "Ġdem",
        "oc"
      ],
      [
        "Ġcost",
        "s"
      ],
      [
        "m",
        "ing"
      ],
      [
        "Ġa",
        "uth"
      ],
      [
        "Ġh",
        "um"
      ],
      [
        "id",
        "er"
      ],
      [
        "if",
        "ic"
      ],
      [
        "Ġmar",
        "k"
      ],
      [
        "Ġdis",
        "co"
      ],
      [
        "Ġpolit",
        "ical"
      ],
      [
        "i",
        "ers"
      ],
      [
        "l",
        "ines"
      ],
      [
        "Ġy",
        "an"
      ],
      [
        "ug",
        "g"
      ],
      [
        "Ġeng",
        "ine"
      ],
      [
        "Ġpos",
        "s"
      ],
      [
        "Ġkore",
        "a"
      ],
      [
        "Ġsuc",
        "cess"
      ],
      [
        "Ġcon",
        "n"
      ],
      [
        "Ġjourn",
        "al"
      ],
      [
        "v",
        "ing"
      ],
      [
        "Ġto",
        "ky"
      ],
      [
        "Ġv",
        "enez"
      ],
      [
        "Ġev",
        "ent"
      ],
      [
        "Ġfo",
        "ot"
      ],
      [
        "Ġvers",
        "ion"
      ],
      [
        "Ġtoky",
        "o"
      ],
      [
        "Ġvenez",
        "uel"
      ],
      [
        "f",
        "act"
      ],
      [
        "l",
        "am"
      ],
      [
        "n",
        "ess"
      ],
      [
        "Ġun",
        "ivers"
      ],
      [
        "Ġscient",
        "ists"
      ],
      [
        "ag",
        "es"
      ],
      [
        "Ġcomp",
        "let"
      ],
      [
        "Ġph",
        "il"
      ],
      [
        "Ġtri",
        "al"
      ],
      [
        "Ġeurope",
        "an"
      ],
      [
        "Ġbag",
        "hd"
      ],
      [
        "Ġglo",
        "bal"
      ],
      [
        "Ġbaghd",
        "ad"
      ],
      [
        "Ġbr",
        "on"
      ],
      [
        "Ġtra",
        "de"
      ],
      [
        "Ġhur",
        "rican"
      ],
      [
        "Ġfranc",
        "isco"
      ],
      [
        "Ġr",
        "ally"
      ],
      [
        "Ġlead",
        "ing"
      ],
      [
        "Ġman",
        "age"
      ],
      [
        "Ġprof",
        "ile"
      ],
      [
        "Ġauth",
        "or"
      ],
      [
        "i",
        "j"
      ],
      [
        "j",
        "ect"
      ],
      [
        "Ġfor",
        "ces"
      ],
      [
        "ers",
        "on"
      ],
      [
        "ri",
        "es"
      ],
      [
        "Ġac",
        "ross"
      ],
      [
        "Ġju",
        "mp"
      ],
      [
        "Ġstud",
        "y"
      ],
      [
        "Ġexpl",
        "os"
      ],
      [
        "e",
        "mp"
      ],
      [
        "Ġ",
        "es"
      ],
      [
        "Ġt",
        "rack"
      ],
      [
        "un",
        "g"
      ],
      [
        "Ġr",
        "ight"
      ],
      [
        "Ġde",
        "ath"
      ],
      [
        "Ġprod",
        "uct"
      ],
      [
        "Ġshi",
        "ite"
      ],
      [
        "Ġcon",
        "d"
      ],
      [
        "Ġeng",
        "land"
      ],
      [
        "e",
        "x"
      ],
      [
        "id",
        "ed"
      ],
      [
        "Ġqu",
        "est"
      ],
      [
        "Ġwin",
        "ning"
      ],
      [
        "Ġdepart",
        "ment"
      ],
      [
        "Ġm",
        "a"
      ],
      [
        "Ġh",
        "p"
      ],
      [
        "Ġv",
        "ol"
      ],
      [
        "Ġmak",
        "ing"
      ],
      [
        "Ġfore",
        "ign"
      ],
      [
        "Ġvide",
        "o"
      ],
      [
        "s",
        "o"
      ],
      [
        "Ġo",
        "s"
      ],
      [
        "Ġb",
        "ase"
      ],
      [
        "Ġw",
        "ater"
      ],
      [
        "Ġd",
        "en"
      ],
      [
        "Ġis",
        "lam"
      ],
      [
        "end",
        "ed"
      ],
      [
        "Ġme",
        "ter"
      ],
      [
        "Ġsystem",
        "s"
      ],
      [
        "Ġclaim",
        "s"
      ],
      [
        "g",
        "an"
      ],
      [
        "re",
        "t"
      ],
      [
        "Ġc",
        "enter"
      ],
      [
        "Ġb",
        "er"
      ],
      [
        "Ġl",
        "ight"
      ],
      [
        "her",
        "n"
      ],
      [
        "av",
        "ing"
      ],
      [
        "ath",
        "on"
      ],
      [
        "Ġs",
        "n"
      ],
      [
        "ra",
        "ft"
      ],
      [
        "ch",
        "er"
      ],
      [
        "Ġres",
        "ults"
      ],
      [
        "Ġar",
        "t"
      ],
      [
        "Ġquot",
        "e"
      ],
      [
        "Ġcanad",
        "a"
      ],
      [
        "Ġtak",
        "es"
      ],
      [
        "Ġdig",
        "ital"
      ],
      [
        "h",
        "old"
      ],
      [
        "i",
        "or"
      ],
      [
        "Ġf",
        "ar"
      ],
      [
        "id",
        "a"
      ],
      [
        "am",
        "ent"
      ],
      [
        "vent",
        "ion"
      ],
      [
        "Ġviol",
        "ence"
      ],
      [
        "Ġa",
        "mp"
      ],
      [
        "Ġth",
        "ous"
      ],
      [
        "le",
        "x"
      ],
      [
        "Ġj",
        "e"
      ],
      [
        "Ġdis",
        "c"
      ],
      [
        "Ġbu",
        "ild"
      ],
      [
        "Ġir",
        "an"
      ],
      [
        "Ġge",
        "or"
      ],
      [
        "Ġbron",
        "ze"
      ],
      [
        "a",
        "i"
      ],
      [
        "er",
        "gy"
      ],
      [
        "Ġm",
        "at"
      ],
      [
        "Ġe",
        "as"
      ],
      [
        "Ġsh",
        "ort"
      ],
      [
        "Ġso",
        "x"
      ],
      [
        "Ġse",
        "ven"
      ],
      [
        "Ġmon",
        "ey"
      ],
      [
        "t",
        "ain"
      ],
      [
        "Ġw",
        "ell"
      ],
      [
        "Ġd",
        "ire"
      ],
      [
        "ut",
        "hern"
      ],
      [
        "Ġsh",
        "ip"
      ],
      [
        "res",
        "h"
      ],
      [
        "Ġso",
        "uthern"
      ],
      [
        "um",
        "b"
      ],
      [
        "Ġcr",
        "is"
      ],
      [
        "Ġfi",
        "eld"
      ],
      [
        "Ġhurrican",
        "e"
      ],
      [
        "k",
        "er"
      ],
      [
        "o",
        "ff"
      ],
      [
        "Ġc",
        "oll"
      ],
      [
        "Ġm",
        "er"
      ],
      [
        "Ġpro",
        "m"
      ],
      [
        "Ġpro",
        "cess"
      ],
      [
        "Ġal",
        "so"
      ],
      [
        "Ġop",
        "t"
      ],
      [
        "Ġapp",
        "lic"
      ],
      [
        "Ġfore",
        "cast"
      ],
      [
        "s",
        "et"
      ],
      [
        "u",
        "le"
      ],
      [
        "Ġa",
        "way"
      ],
      [
        "Ġf",
        "resh"
      ],
      [
        "as",
        "ts"
      ],
      [
        "Ġex",
        "ch"
      ],
      [
        "Ġcl",
        "ose"
      ],
      [
        "Ġmar",
        "athon"
      ],
      [
        "Ġbl",
        "ock"
      ],
      [
        "Ġair",
        "ways"
      ],
      [
        "Ġear",
        "lier"
      ],
      [
        "Ġkill",
        "ing"
      ],
      [
        "t",
        "ada"
      ],
      [
        "Ġm",
        "atch"
      ],
      [
        "Ġv",
        "ote"
      ],
      [
        "end",
        "s"
      ],
      [
        "Ġexp",
        "er"
      ],
      [
        "Ġla",
        "ws"
      ],
      [
        "Ġam",
        "id"
      ],
      [
        "Ġresearch",
        "ers"
      ],
      [
        "Ġlin",
        "ux"
      ],
      [
        "Ġgr",
        "and"
      ],
      [
        "Ġjud",
        "ge"
      ],
      [
        "Ġsil",
        "ver"
      ],
      [
        "a",
        "ult"
      ],
      [
        "o",
        "unt"
      ],
      [
        "Ġl",
        "ost"
      ],
      [
        "Ġen",
        "ergy"
      ],
      [
        "ester",
        "n"
      ],
      [
        "Ġtra",
        "ding"
      ],
      [
        "Ġnas",
        "a"
      ],
      [
        "Ġvis",
        "it"
      ],
      [
        "Ġmanage",
        "ment"
      ],
      [
        "Ġa",
        "im"
      ],
      [
        "Ġc",
        "ur"
      ],
      [
        "Ġp",
        "il"
      ],
      [
        "Ġg",
        "ets"
      ],
      [
        "Ġre",
        "ce"
      ],
      [
        "ver",
        "t"
      ],
      [
        "Ġch",
        "ang"
      ],
      [
        "Ġr",
        "ange"
      ],
      [
        "Ġpro",
        "ble"
      ],
      [
        "Ġres",
        "p"
      ],
      [
        "Ġang",
        "el"
      ],
      [
        "Ġsour",
        "ce"
      ],
      [
        "Ġfoll",
        "owing"
      ],
      [
        "Ġcalif",
        "orn"
      ],
      [
        "b",
        "ack"
      ],
      [
        "re",
        "l"
      ],
      [
        "Ġl",
        "ed"
      ],
      [
        "Ġv",
        "al"
      ],
      [
        "Ġpl",
        "ace"
      ],
      [
        "Ġbl",
        "ue"
      ],
      [
        "ire",
        "d"
      ],
      [
        "Ġjo",
        "b"
      ],
      [
        "Ġdes",
        "ign"
      ],
      [
        "Ġimp",
        "ro"
      ],
      [
        "Ġsu",
        "ch"
      ],
      [
        "Ġtak",
        "ing"
      ],
      [
        "Ġsever",
        "al"
      ],
      [
        "Ġdire",
        "ct"
      ],
      [
        "o",
        "id"
      ],
      [
        "in",
        "ed"
      ],
      [
        "Ġh",
        "ot"
      ],
      [
        "Ġpro",
        "pos"
      ],
      [
        "oc",
        "i"
      ],
      [
        "Ġass",
        "oci"
      ],
      [
        "Ġjapan",
        "ese"
      ],
      [
        "Ġcustom",
        "ers"
      ],
      [
        "Ġthous",
        "ands"
      ],
      [
        "Ġcris",
        "is"
      ],
      [
        "b",
        "and"
      ],
      [
        "d",
        "a"
      ],
      [
        "e",
        "f"
      ],
      [
        "m",
        "ost"
      ],
      [
        "Ġm",
        "al"
      ],
      [
        "Ġh",
        "ard"
      ],
      [
        "Ġwith",
        "d"
      ],
      [
        "Ġwh",
        "ite"
      ],
      [
        "all",
        "en"
      ],
      [
        "Ġcl",
        "ass"
      ],
      [
        "ric",
        "a"
      ],
      [
        "Ġtec",
        "h"
      ],
      [
        "Ġbec",
        "ome"
      ],
      [
        "Ġnum",
        "ber"
      ],
      [
        "Ġlab",
        "or"
      ],
      [
        "Ġgymnast",
        "ics"
      ],
      [
        "b",
        "ed"
      ],
      [
        "c",
        "ing"
      ],
      [
        "Ġc",
        "ell"
      ],
      [
        "Ġp",
        "ush"
      ],
      [
        "Ġn",
        "ations"
      ],
      [
        "Ġhe",
        "av"
      ],
      [
        "Ġag",
        "ency"
      ],
      [
        "Ġcr",
        "it"
      ],
      [
        "Ġcorp",
        "or"
      ],
      [
        "Ġplay",
        "ers"
      ],
      [
        "Ġger",
        "m"
      ],
      [
        "Ġalle",
        "ged"
      ],
      [
        "Ġsum",
        "mer"
      ],
      [
        "Ġexch",
        "ange"
      ],
      [
        "Ġcaliforn",
        "ia"
      ],
      [
        "Ġs",
        "ame"
      ],
      [
        "Ġth",
        "ough"
      ],
      [
        "en",
        "ed"
      ],
      [
        "ut",
        "s"
      ],
      [
        "ow",
        "ed"
      ],
      [
        "qu",
        "e"
      ],
      [
        "ard",
        "s"
      ],
      [
        "Ġper",
        "form"
      ],
      [
        "Ġor",
        "der"
      ],
      [
        "Ġban",
        "gl"
      ],
      [
        "Ġlead",
        "ers"
      ],
      [
        "Ġdec",
        "ision"
      ],
      [
        "Ġplay",
        "er"
      ],
      [
        "Ġcut",
        "s"
      ],
      [
        "Ġshar",
        "p"
      ],
      [
        "Ġprog",
        "ram"
      ],
      [
        "Ġarrest",
        "ed"
      ],
      [
        "i",
        "w"
      ],
      [
        "er",
        "ation"
      ],
      [
        "Ġb",
        "ird"
      ],
      [
        "Ġw",
        "i"
      ],
      [
        "Ġm",
        "ight"
      ],
      [
        "Ġl",
        "ife"
      ],
      [
        "Ġcon",
        "vention"
      ],
      [
        "rac",
        "y"
      ],
      [
        "Ġameric",
        "a"
      ],
      [
        "Ġoper",
        "ating"
      ],
      [
        "Ġhum",
        "an"
      ],
      [
        "Ġb",
        "al"
      ],
      [
        "Ġb",
        "ur"
      ],
      [
        "Ġw",
        "ound"
      ],
      [
        "Ġh",
        "ug"
      ],
      [
        "Ġj",
        "ones"
      ],
      [
        "Ġbe",
        "h"
      ],
      [
        "Ġpro",
        "s"
      ],
      [
        "Ġmed",
        "ia"
      ],
      [
        "ke",
        "es"
      ],
      [
        "Ġair",
        "lines"
      ],
      [
        "Ġbeg",
        "in"
      ],
      [
        "Ġdom",
        "in"
      ],
      [
        "ades",
        "h"
      ],
      [
        "Ġyan",
        "kees"
      ],
      [
        "Ġbangl",
        "adesh"
      ],
      [
        "Ġp",
        "itch"
      ],
      [
        "Ġl",
        "et"
      ],
      [
        "ve",
        "il"
      ],
      [
        "Ġch",
        "allen"
      ],
      [
        "Ġser",
        "ies"
      ],
      [
        "Ġarm",
        "y"
      ],
      [
        "Ġc",
        "el"
      ],
      [
        "Ġb",
        "oth"
      ],
      [
        "Ġp",
        "an"
      ],
      [
        "Ġp",
        "ort"
      ],
      [
        "Ġn",
        "am"
      ],
      [
        "ent",
        "ial"
      ],
      [
        "Ġj",
        "un"
      ],
      [
        "Ġun",
        "veil"
      ],
      [
        "Ġrec",
        "all"
      ],
      [
        "Ġsup",
        "er"
      ],
      [
        "Ġpr",
        "ison"
      ],
      [
        "Ġreb",
        "el"
      ],
      [
        "Ġhol",
        "y"
      ],
      [
        "Ġbat",
        "tle"
      ],
      [
        "Ġstra",
        "ight"
      ],
      [
        "Ġlik",
        "ely"
      ],
      [
        "d",
        "own"
      ],
      [
        "g",
        "o"
      ],
      [
        "g",
        "ers"
      ],
      [
        "n",
        "ers"
      ],
      [
        "Ġs",
        "ent"
      ],
      [
        "al",
        "e"
      ],
      [
        "Ġre",
        "qu"
      ],
      [
        "ut",
        "es"
      ],
      [
        "Ġaf",
        "rica"
      ],
      [
        "Ġacc",
        "used"
      ],
      [
        "Ġsw",
        "eep"
      ],
      [
        "Ġretail",
        "er"
      ],
      [
        "Ġfut",
        "ure"
      ],
      [
        "Ġdemoc",
        "r"
      ],
      [
        "c",
        "ri"
      ],
      [
        "d",
        "ed"
      ],
      [
        "i",
        "et"
      ],
      [
        "w",
        "e"
      ],
      [
        "in",
        "o"
      ],
      [
        "Ġh",
        "its"
      ],
      [
        "Ġl",
        "and"
      ],
      [
        "Ġwill",
        "iam"
      ],
      [
        "Ġmed",
        "als"
      ],
      [
        "Ġconf",
        "ir"
      ],
      [
        "Ġinf",
        "l"
      ],
      [
        "Ġcre",
        "d"
      ],
      [
        "Ġever",
        "y"
      ],
      [
        "Ġchampions",
        "hip"
      ],
      [
        "Ġhour",
        "s"
      ],
      [
        "Ġemp",
        "loy"
      ],
      [
        "y",
        "le"
      ],
      [
        "Ġc",
        "le"
      ],
      [
        "Ġf",
        "uel"
      ],
      [
        "Ġb",
        "est"
      ],
      [
        "id",
        "es"
      ],
      [
        "Ġr",
        "an"
      ],
      [
        "ap",
        "er"
      ],
      [
        "Ġhe",
        "w"
      ],
      [
        "Ġse",
        "pt"
      ],
      [
        "are",
        "n"
      ],
      [
        "Ġres",
        "er"
      ],
      [
        "Ġinter",
        "est"
      ],
      [
        "Ġnetw",
        "orks"
      ],
      [
        "Ġdoub",
        "le"
      ],
      [
        "c",
        "k"
      ],
      [
        "in",
        "als"
      ],
      [
        "Ġd",
        "oc"
      ],
      [
        "Ġl",
        "oc"
      ],
      [
        "ec",
        "h"
      ],
      [
        "Ġe",
        "y"
      ],
      [
        "Ġr",
        "y"
      ],
      [
        "Ġal",
        "most"
      ],
      [
        "ish",
        "ing"
      ],
      [
        "Ġsc",
        "ore"
      ],
      [
        "ost",
        "on"
      ],
      [
        "Ġatt",
        "emp"
      ],
      [
        "Ġrun",
        "ning"
      ],
      [
        "Ġinf",
        "orm"
      ],
      [
        "Ġact",
        "iv"
      ],
      [
        "Ġbar",
        "rel"
      ],
      [
        "Ġcent",
        "ral"
      ],
      [
        "Ġleg",
        "al"
      ],
      [
        "Ġangel",
        "es"
      ],
      [
        "Ġf",
        "re"
      ],
      [
        "Ġf",
        "ast"
      ],
      [
        "Ġw",
        "ant"
      ],
      [
        "Ġh",
        "und"
      ],
      [
        "Ġto",
        "urn"
      ],
      [
        "Ġd",
        "on"
      ],
      [
        "Ġn",
        "uc"
      ],
      [
        "il",
        "le"
      ],
      [
        "ver",
        "ed"
      ],
      [
        "Ġle",
        "ave"
      ],
      [
        "Ġshow",
        "ed"
      ],
      [
        "Ġger",
        "man"
      ],
      [
        "Ġriv",
        "al"
      ],
      [
        "Ġbet",
        "ter"
      ],
      [
        "d",
        "le"
      ],
      [
        "q",
        "tada"
      ],
      [
        "y",
        "ing"
      ],
      [
        "Ġb",
        "oston"
      ],
      [
        "it",
        "ions"
      ],
      [
        "Ġd",
        "ue"
      ],
      [
        "Ġl",
        "ess"
      ],
      [
        "as",
        "es"
      ],
      [
        "ce",
        "pt"
      ],
      [
        "Ġus",
        "ing"
      ],
      [
        "ap",
        "p"
      ],
      [
        "Ġser",
        "ver"
      ],
      [
        "rac",
        "le"
      ],
      [
        "Ġor",
        "gan"
      ],
      [
        "Ġacc",
        "ess"
      ],
      [
        "Ġfe",
        "at"
      ],
      [
        "ont",
        "o"
      ],
      [
        "Ġappe",
        "al"
      ],
      [
        "Ġhist",
        "ory"
      ],
      [
        "Ġnuc",
        "lear"
      ],
      [
        "i",
        "ence"
      ],
      [
        "an",
        "n"
      ],
      [
        "Ġat",
        "l"
      ],
      [
        "Ġy",
        "oun"
      ],
      [
        "em",
        "ber"
      ],
      [
        "Ġpol",
        "l"
      ],
      [
        "Ġfe",
        "w"
      ],
      [
        "Ġins",
        "ur"
      ],
      [
        "Ġhom",
        "es"
      ],
      [
        "Ġchar",
        "ley"
      ],
      [
        "Ġproduc",
        "ts"
      ],
      [
        "Ġtor",
        "onto"
      ],
      [
        "iw",
        "an"
      ],
      [
        "a",
        "x"
      ],
      [
        "b",
        "c"
      ],
      [
        "Ġan",
        "aly"
      ],
      [
        "Ġch",
        "e"
      ],
      [
        "Ġwh",
        "ether"
      ],
      [
        "ens",
        "ion"
      ],
      [
        "Ġro",
        "b"
      ],
      [
        "Ġbo",
        "x"
      ],
      [
        "Ġta",
        "iwan"
      ],
      [
        "Ġexecut",
        "ive"
      ],
      [
        "a",
        "ff"
      ],
      [
        "d",
        "ers"
      ],
      [
        "f",
        "i"
      ],
      [
        "in",
        "ing"
      ],
      [
        "Ġm",
        "ac"
      ],
      [
        "Ġto",
        "o"
      ],
      [
        "ic",
        "ations"
      ],
      [
        "ain",
        "ed"
      ],
      [
        "ip",
        "p"
      ],
      [
        "Ġfr",
        "ance"
      ],
      [
        "Ġgo",
        "ing"
      ],
      [
        "Ġjo",
        "bs"
      ],
      [
        "Ġgre",
        "at"
      ],
      [
        "Ġrul",
        "es"
      ],
      [
        "i",
        "ke"
      ],
      [
        "t",
        "ed"
      ],
      [
        "Ġt",
        "v"
      ],
      [
        "Ġm",
        "ail"
      ],
      [
        "Ġto",
        "ol"
      ],
      [
        "ic",
        "a"
      ],
      [
        "Ġaf",
        "rican"
      ],
      [
        "Ġse",
        "en"
      ],
      [
        "Ġme",
        "ters"
      ],
      [
        "Ġquarter",
        "ly"
      ],
      [
        "az",
        "a"
      ],
      [
        "ward",
        "s"
      ],
      [
        "min",
        "ist"
      ],
      [
        "Ġty",
        "ph"
      ],
      [
        "Ġtim",
        "es"
      ],
      [
        "Ġsoc",
        "cer"
      ],
      [
        "p",
        "al"
      ],
      [
        "Ġt",
        "enn"
      ],
      [
        "Ġf",
        "ood"
      ],
      [
        "iv",
        "ed"
      ],
      [
        "Ġad",
        "minist"
      ],
      [
        "Ġmilit",
        "ia"
      ],
      [
        "Ġdel",
        "ay"
      ],
      [
        "Ġdeb",
        "ut"
      ],
      [
        "Ġhop",
        "es"
      ],
      [
        "Ġunivers",
        "ity"
      ],
      [
        "Ġwilliam",
        "s"
      ],
      [
        "Ġtourn",
        "ament"
      ],
      [
        "r",
        "is"
      ],
      [
        "u",
        "ce"
      ],
      [
        "Ġ",
        "ve"
      ],
      [
        "Ġa",
        "ut"
      ],
      [
        "or",
        "ing"
      ],
      [
        "Ġd",
        "am"
      ],
      [
        "Ġd",
        "ream"
      ],
      [
        "Ġne",
        "g"
      ],
      [
        "Ġpl",
        "ot"
      ],
      [
        "oo",
        "ds"
      ],
      [
        "Ġout",
        "l"
      ],
      [
        "Ġar",
        "ri"
      ],
      [
        "Ġpre",
        "v"
      ],
      [
        "Ġtyph",
        "oon"
      ],
      [
        "c",
        "al"
      ],
      [
        "Ġa",
        "ra"
      ],
      [
        "Ġf",
        "ra"
      ],
      [
        "an",
        "a"
      ],
      [
        "Ġh",
        "o"
      ],
      [
        "Ġne",
        "pal"
      ],
      [
        "Ġk",
        "idn"
      ],
      [
        "Ġcon",
        "v"
      ],
      [
        "os",
        "p"
      ],
      [
        "Ġout",
        "s"
      ],
      [
        "Ġen",
        "v"
      ],
      [
        "Ġbl",
        "ack"
      ],
      [
        "Ġacc",
        "ount"
      ],
      [
        "Ġcomm",
        "itt"
      ],
      [
        "Ġstr",
        "ugg"
      ],
      [
        "Ġelect",
        "ron"
      ],
      [
        "Ġgian",
        "ts"
      ],
      [
        "Ġwork",
        "ers"
      ],
      [
        "Ġheav",
        "y"
      ],
      [
        "Ġgerm",
        "any"
      ],
      [
        "g",
        "ra"
      ],
      [
        "y",
        "a"
      ],
      [
        "Ġs",
        "ite"
      ],
      [
        "Ġf",
        "is"
      ],
      [
        "Ġf",
        "act"
      ],
      [
        "Ġp",
        "erson"
      ],
      [
        "Ġm",
        "ur"
      ],
      [
        "Ġh",
        "ar"
      ],
      [
        "Ġst",
        "op"
      ],
      [
        "Ġsay",
        "ing"
      ],
      [
        "Ġspr",
        "int"
      ],
      [
        "c",
        "ow"
      ],
      [
        "d",
        "y"
      ],
      [
        "re",
        "w"
      ],
      [
        "Ġc",
        "lear"
      ],
      [
        "us",
        "es"
      ],
      [
        "Ġit",
        "al"
      ],
      [
        "Ġadv",
        "anc"
      ],
      [
        "Ġstore",
        "s"
      ],
      [
        "Ġhous",
        "e"
      ],
      [
        ".",
        "'"
      ],
      [
        "Ġs",
        "qu"
      ],
      [
        "Ġf",
        "ile"
      ],
      [
        "Ġo",
        "racle"
      ],
      [
        "Ġm",
        "ess"
      ],
      [
        "ra",
        "p"
      ],
      [
        "Ġfor",
        "m"
      ],
      [
        "Ġch",
        "ave"
      ],
      [
        "ess",
        "ion"
      ],
      [
        "Ġsec",
        "ret"
      ],
      [
        "Ġair",
        "line"
      ],
      [
        "Ġend",
        "ed"
      ],
      [
        "Ġev",
        "idence"
      ],
      [
        "Ġtro",
        "ub"
      ],
      [
        "Ġmot",
        "or"
      ],
      [
        "Ġmos",
        "cow"
      ],
      [
        "Ġinform",
        "ation"
      ],
      [
        "Ġchave",
        "z"
      ],
      [
        "h",
        "am"
      ],
      [
        "l",
        "er"
      ],
      [
        "Ġa",
        "wa"
      ],
      [
        "Ġp",
        "ot"
      ],
      [
        "at",
        "s"
      ],
      [
        "at",
        "ely"
      ],
      [
        "Ġl",
        "ar"
      ],
      [
        "Ġfor",
        "ce"
      ],
      [
        "Ġch",
        "air"
      ],
      [
        "and",
        "er"
      ],
      [
        "ak",
        "er"
      ],
      [
        "op",
        "ing"
      ],
      [
        "Ġar",
        "g"
      ],
      [
        "Ġind",
        "ian"
      ],
      [
        "Ġfl",
        "or"
      ],
      [
        "Ġdo",
        "es"
      ],
      [
        "Ġcall",
        "s"
      ],
      [
        "ok",
        "es"
      ],
      [
        "Ġtel",
        "ev"
      ],
      [
        "Ġtry",
        "ing"
      ],
      [
        "Ġanaly",
        "st"
      ],
      [
        "Ġt",
        "re"
      ],
      [
        "Ġs",
        "ize"
      ],
      [
        "Ġc",
        "e"
      ],
      [
        "Ġp",
        "i"
      ],
      [
        "Ġre",
        "j"
      ],
      [
        "Ġch",
        "ild"
      ],
      [
        "Ġpro",
        "p"
      ],
      [
        "Ġis",
        "land"
      ],
      [
        "Ġmar",
        "s"
      ],
      [
        "Ġint",
        "ell"
      ],
      [
        "Ġwar",
        "ned"
      ],
      [
        "Ġspr",
        "in"
      ],
      [
        "Ġchip",
        "s"
      ],
      [
        "Ġincre",
        "ase"
      ],
      [
        "Ġrepublic",
        "an"
      ],
      [
        "Ġb",
        "all"
      ],
      [
        "en",
        "ing"
      ],
      [
        "Ġm",
        "ort"
      ],
      [
        "Ġg",
        "ains"
      ],
      [
        "Ġsp",
        "ort"
      ],
      [
        "Ġbr",
        "ing"
      ],
      [
        "Ġear",
        "th"
      ],
      [
        "Ġplan",
        "et"
      ],
      [
        "Ġsw",
        "im"
      ],
      [
        "Ġact",
        "ion"
      ],
      [
        "Ġbeh",
        "ind"
      ],
      [
        "Ġc",
        "ash"
      ],
      [
        "Ġw",
        "estern"
      ],
      [
        "Ġg",
        "un"
      ],
      [
        "Ġl",
        "ist"
      ],
      [
        "Ġsa",
        "f"
      ],
      [
        "Ġoff",
        "ice"
      ],
      [
        "Ġfin",
        "d"
      ],
      [
        "Ġrec",
        "over"
      ],
      [
        "lo",
        "ad"
      ],
      [
        "Ġsecur",
        "ities"
      ],
      [
        "Ġcharg",
        "ed"
      ],
      [
        "Ġcontin",
        "ue"
      ],
      [
        "Ġmor",
        "ning"
      ],
      [
        "Ġpalestin",
        "ian"
      ],
      [
        "Ġatl",
        "ant"
      ],
      [
        "Ġital",
        "ian"
      ],
      [
        "Ġflor",
        "ida"
      ],
      [
        "Ġg",
        "aza"
      ],
      [
        "ig",
        "er"
      ],
      [
        "ve",
        "y"
      ],
      [
        "Ġun",
        "t"
      ],
      [
        "Ġle",
        "vel"
      ],
      [
        "ap",
        "e"
      ],
      [
        "Ġcl",
        "im"
      ],
      [
        "Ġpost",
        "ed"
      ],
      [
        "Ġbat",
        "ter"
      ],
      [
        "Ġipo",
        "d"
      ],
      [
        "Ġq",
        "a"
      ],
      [
        "Ġbroad",
        "band"
      ],
      [
        "Ġagree",
        "ment"
      ],
      [
        "Ġposs",
        "ible"
      ],
      [
        "Ġvenezuel",
        "a"
      ],
      [
        "Ġauthor",
        "ities"
      ],
      [
        "Ġcel",
        "eb"
      ],
      [
        "Ġcred",
        "it"
      ],
      [
        "n",
        "ey"
      ],
      [
        "y",
        "al"
      ],
      [
        "Ġthe",
        "n"
      ],
      [
        "Ġbe",
        "ij"
      ],
      [
        "Ġcom",
        "mer"
      ],
      [
        "Ġun",
        "it"
      ],
      [
        "Ġro",
        "w"
      ],
      [
        "Ġad",
        "vert"
      ],
      [
        "Ġweek",
        "end"
      ],
      [
        "Ġdef",
        "e"
      ],
      [
        "Ġmak",
        "es"
      ],
      [
        "Ġconf",
        "lic"
      ],
      [
        "pr",
        "ise"
      ],
      [
        "Ġbeij",
        "ing"
      ],
      [
        "n",
        "y"
      ],
      [
        "Ġf",
        "ig"
      ],
      [
        "Ġb",
        "ri"
      ],
      [
        "Ġm",
        "is"
      ],
      [
        "Ġh",
        "osp"
      ],
      [
        "Ġre",
        "ven"
      ],
      [
        "Ġco",
        "un"
      ],
      [
        "ri",
        "b"
      ],
      [
        "Ġcol",
        "or"
      ],
      [
        "Ġrul",
        "ing"
      ],
      [
        "Ġhear",
        "t"
      ],
      [
        "Ġmanag",
        "er"
      ],
      [
        "Ġspe",
        "ed"
      ],
      [
        "Ġfoot",
        "ball"
      ],
      [
        "Ġchair",
        "man"
      ],
      [
        "f",
        "ord"
      ],
      [
        "t",
        "o"
      ],
      [
        "u",
        "j"
      ],
      [
        "Ġt",
        "ur"
      ],
      [
        "Ġf",
        "av"
      ],
      [
        "Ġp",
        "ub"
      ],
      [
        "Ġto",
        "m"
      ],
      [
        "as",
        "ing"
      ],
      [
        "ir",
        "on"
      ],
      [
        "Ġsp",
        "ending"
      ],
      [
        "if",
        "ied"
      ],
      [
        "Ġfir",
        "ms"
      ],
      [
        "Ġte",
        "x"
      ],
      [
        "ash",
        "es"
      ],
      [
        "Ġpresident",
        "ial"
      ],
      [
        "Ġdel",
        "iver"
      ],
      [
        "Ġsold",
        "iers"
      ],
      [
        "Ġinj",
        "ured"
      ],
      [
        "Ġconcer",
        "ns"
      ],
      [
        "rem",
        "e"
      ],
      [
        "v",
        "al"
      ],
      [
        "er",
        "ing"
      ],
      [
        "re",
        "ds"
      ],
      [
        "Ġc",
        "ame"
      ],
      [
        "Ġb",
        "ene"
      ],
      [
        "an",
        "k"
      ],
      [
        "Ġin",
        "ning"
      ],
      [
        "Ġto",
        "wn"
      ],
      [
        "ak",
        "es"
      ],
      [
        "Ġse",
        "par"
      ],
      [
        "Ġfin",
        "ish"
      ],
      [
        "Ġlt",
        "d"
      ],
      [
        "Ġsc",
        "and"
      ],
      [
        "Ġref",
        "er"
      ],
      [
        "Ġshar",
        "on"
      ],
      [
        "Ġdrug",
        "s"
      ],
      [
        "Ġpri",
        "v"
      ],
      [
        "Ġpub",
        "l"
      ],
      [
        "Ġw",
        "a"
      ],
      [
        "Ġp",
        "le"
      ],
      [
        "Ġh",
        "ung"
      ],
      [
        "ver",
        "age"
      ],
      [
        "Ġv",
        "ot"
      ],
      [
        "Ġco",
        "up"
      ],
      [
        "Ġdef",
        "ense"
      ],
      [
        "Ġbank",
        "rupt"
      ],
      [
        "Ġterror",
        "ism"
      ],
      [
        "Ġyoun",
        "g"
      ],
      [
        "in",
        "ts"
      ],
      [
        "re",
        "ady"
      ],
      [
        "Ġh",
        "all"
      ],
      [
        "Ġd",
        "id"
      ],
      [
        "Ġl",
        "ook"
      ],
      [
        "Ġon",
        "ce"
      ],
      [
        "ut",
        "ch"
      ],
      [
        "Ġch",
        "ange"
      ],
      [
        "Ġy",
        "et"
      ],
      [
        "Ġsp",
        "okes"
      ],
      [
        "Ġal",
        "i"
      ],
      [
        "Ġmar",
        "ch"
      ],
      [
        "Ġbl",
        "ast"
      ],
      [
        "Ġfl",
        "u"
      ],
      [
        "Ġset",
        "t"
      ],
      [
        "Ġprof",
        "its"
      ],
      [
        "Ġmarket",
        "s"
      ],
      [
        "Ġeff",
        "ect"
      ],
      [
        "Ġest",
        "im"
      ],
      [
        "Ġcare",
        "er"
      ],
      [
        "Ġbase",
        "ball"
      ],
      [
        "Ġperform",
        "ance"
      ],
      [
        "Ġhund",
        "reds"
      ],
      [
        "Ġcommitt",
        "ee"
      ],
      [
        "n",
        "am"
      ],
      [
        "Ġa",
        "st"
      ],
      [
        "Ġf",
        "un"
      ],
      [
        "Ġst",
        "aff"
      ],
      [
        "Ġe",
        "mer"
      ],
      [
        "ir",
        "c"
      ],
      [
        "Ġsh",
        "ut"
      ],
      [
        "Ġdo",
        "z"
      ],
      [
        "Ġinv",
        "ol"
      ],
      [
        "Ġsl",
        "ow"
      ],
      [
        "Ġplan",
        "ned"
      ],
      [
        "Ġafghan",
        "istan"
      ],
      [
        "Ġintell",
        "ig"
      ],
      [
        "Ġbene",
        "f"
      ],
      [
        "s",
        "h"
      ],
      [
        "t",
        "ime"
      ],
      [
        "an",
        "e"
      ],
      [
        "Ġm",
        "ult"
      ],
      [
        "Ġg",
        "ot"
      ],
      [
        "Ġl",
        "im"
      ],
      [
        "Ġst",
        "ad"
      ],
      [
        "Ġpro",
        "be"
      ],
      [
        "os",
        "s"
      ],
      [
        "ens",
        "ive"
      ],
      [
        "Ġdis",
        "p"
      ],
      [
        "ther",
        "n"
      ],
      [
        "Ġnor",
        "thern"
      ],
      [
        "Ġtenn",
        "is"
      ],
      [
        "w",
        "ide"
      ],
      [
        "Ġc",
        "row"
      ],
      [
        "Ġf",
        "oc"
      ],
      [
        "Ġb",
        "ay"
      ],
      [
        "Ġb",
        "ir"
      ],
      [
        "Ġg",
        "ave"
      ],
      [
        "Ġr",
        "is"
      ],
      [
        "th",
        "ers"
      ],
      [
        "Ġal",
        "ready"
      ],
      [
        "ap",
        "ore"
      ],
      [
        "Ġdes",
        "k"
      ],
      [
        "Ġext",
        "ra"
      ],
      [
        "Ġsing",
        "apore"
      ],
      [
        "Ġadminist",
        "ration"
      ],
      [
        "m",
        "ar"
      ],
      [
        "o",
        "om"
      ],
      [
        "Ġa",
        "ud"
      ],
      [
        "er",
        "ence"
      ],
      [
        "Ġs",
        "k"
      ],
      [
        "Ġth",
        "ose"
      ],
      [
        "Ġo",
        "b"
      ],
      [
        "Ġp",
        "ract"
      ],
      [
        "Ġm",
        "y"
      ],
      [
        "Ġm",
        "ag"
      ],
      [
        "ic",
        "on"
      ],
      [
        "Ġr",
        "ich"
      ],
      [
        "Ġco",
        "py"
      ],
      [
        "Ġcl",
        "ub"
      ],
      [
        "Ġexp",
        "ect"
      ],
      [
        "ash",
        "ed"
      ],
      [
        "Ġplan",
        "e"
      ],
      [
        "Ġbel",
        "ie"
      ],
      [
        "Ġinvestig",
        "ation"
      ],
      [
        "Ġintellig",
        "ence"
      ],
      [
        "g",
        "ian"
      ],
      [
        "Ġc",
        "al"
      ],
      [
        "Ġthe",
        "se"
      ],
      [
        "Ġf",
        "ears"
      ],
      [
        "Ġp",
        "ick"
      ],
      [
        "Ġd",
        "oping"
      ],
      [
        "ur",
        "al"
      ],
      [
        "Ġcom",
        "b"
      ],
      [
        "ag",
        "ing"
      ],
      [
        "Ġrel",
        "ay"
      ],
      [
        "Ġmiss",
        "ion"
      ],
      [
        "Ġpress",
        "ure"
      ],
      [
        "Ġlaunch",
        "ed"
      ],
      [
        "Ġfail",
        "ed"
      ],
      [
        "Ġphil",
        "ipp"
      ],
      [
        "Ġcur",
        "ren"
      ],
      [
        "Ġry",
        "der"
      ],
      [
        "Ġfra",
        "ud"
      ],
      [
        "Ġtelev",
        "ision"
      ],
      [
        "Ġunt",
        "il"
      ],
      [
        "u",
        "an"
      ],
      [
        "Ġc",
        "isco"
      ],
      [
        "Ġp",
        "ow"
      ],
      [
        "or",
        "ies"
      ],
      [
        "Ġm",
        "om"
      ],
      [
        "Ġto",
        "ld"
      ],
      [
        "Ġre",
        "ady"
      ],
      [
        "Ġit",
        "aly"
      ],
      [
        "Ġas",
        "ked"
      ],
      [
        "ond",
        "uct"
      ],
      [
        "Ġcont",
        "ent"
      ],
      [
        "Ġfl",
        "at"
      ],
      [
        "ber",
        "g"
      ],
      [
        "Ġtra",
        "vel"
      ],
      [
        "Ġam",
        "ong"
      ],
      [
        "Ġfinal",
        "ly"
      ],
      [
        "Ġrad",
        "ical"
      ],
      [
        "Ġbra",
        "z"
      ],
      [
        "Ġtex",
        "as"
      ],
      [
        "Ġstad",
        "ium"
      ],
      [
        "s",
        "s"
      ],
      [
        "y",
        "c"
      ],
      [
        "Ġo",
        "ur"
      ],
      [
        "Ġw",
        "ent"
      ],
      [
        "or",
        "ters"
      ],
      [
        "Ġup",
        "gra"
      ],
      [
        "ip",
        "s"
      ],
      [
        "Ġmo",
        "d"
      ],
      [
        "Ġte",
        "en"
      ],
      [
        "Ġpol",
        "ic"
      ],
      [
        "Ġgroup",
        "s"
      ],
      [
        "Ġterror",
        "ist"
      ],
      [
        "Ġbeg",
        "an"
      ],
      [
        "Ġsem",
        "if"
      ],
      [
        "Ġmem",
        "bers"
      ],
      [
        "Ġloo",
        "king"
      ],
      [
        "Ġconn",
        "ect"
      ],
      [
        "Ġwithd",
        "raw"
      ],
      [
        "Ġf",
        "ly"
      ],
      [
        "ro",
        "d"
      ],
      [
        "ul",
        "ation"
      ],
      [
        "Ġk",
        "h"
      ],
      [
        "Ġk",
        "o"
      ],
      [
        "Ġv",
        "en"
      ],
      [
        "Ġsp",
        "ain"
      ],
      [
        "ines",
        "e"
      ],
      [
        "Ġeu",
        "ro"
      ],
      [
        "Ġstri",
        "p"
      ],
      [
        "Ġref",
        "ug"
      ],
      [
        "Ġshar",
        "ing"
      ],
      [
        "Ġprov",
        "ide"
      ],
      [
        "Ġav",
        "oid"
      ],
      [
        "Ġfund",
        "s"
      ],
      [
        "Ġhosp",
        "ital"
      ],
      [
        "Ġto",
        "ward"
      ],
      [
        "Ġch",
        "inese"
      ],
      [
        "Ġsp",
        "an"
      ],
      [
        "Ġsp",
        "am"
      ],
      [
        "Ġro",
        "c"
      ],
      [
        "Ġse",
        "at"
      ],
      [
        "Ġmon",
        "t"
      ],
      [
        "Ġsur",
        "vey"
      ],
      [
        "Ġget",
        "ting"
      ],
      [
        "Ġacqu",
        "is"
      ],
      [
        "Ġpil",
        "ots"
      ],
      [
        "Ġmur",
        "der"
      ],
      [
        "Ġdesk",
        "t"
      ],
      [
        "Ġbraz",
        "il"
      ],
      [
        "c",
        "c"
      ],
      [
        "e",
        "ing"
      ],
      [
        "f",
        "or"
      ],
      [
        "g",
        "ress"
      ],
      [
        "n",
        "a"
      ],
      [
        "Ġ",
        "ille"
      ],
      [
        "Ġa",
        "ri"
      ],
      [
        "Ġc",
        "ro"
      ],
      [
        "Ġf",
        "if"
      ],
      [
        "Ġd",
        "iv"
      ],
      [
        "Ġst",
        "orm"
      ],
      [
        "ol",
        "a"
      ],
      [
        "am",
        "a"
      ],
      [
        "Ġy",
        "uk"
      ],
      [
        "Ġmin",
        "utes"
      ],
      [
        "Ġli",
        "ft"
      ],
      [
        "Ġdown",
        "load"
      ],
      [
        "Ġfac",
        "es"
      ],
      [
        "Ġsen",
        "ior"
      ],
      [
        "Ġregul",
        "ators"
      ],
      [
        "Ġapplic",
        "ations"
      ],
      [
        "Ġille",
        "g"
      ],
      [
        "b",
        "r"
      ],
      [
        "o",
        "y"
      ],
      [
        "p",
        "an"
      ],
      [
        "er",
        "a"
      ],
      [
        "Ġc",
        "irc"
      ],
      [
        "Ġf",
        "ur"
      ],
      [
        "Ġb",
        "ry"
      ],
      [
        "Ġm",
        "ut"
      ],
      [
        "Ġst",
        "ake"
      ],
      [
        "Ġne",
        "ver"
      ],
      [
        "Ġr",
        "ate"
      ],
      [
        "Ġy",
        "ah"
      ],
      [
        "Ġoff",
        "ers"
      ],
      [
        "ke",
        "y"
      ],
      [
        "Ġfl",
        "a"
      ],
      [
        "Ġter",
        "m"
      ],
      [
        "Ġrun",
        "s"
      ],
      [
        "Ġcol",
        "le"
      ],
      [
        "Ġdevelop",
        "ment"
      ],
      [
        "Ġhop",
        "e"
      ],
      [
        "Ġdav",
        "id"
      ],
      [
        "Ġcommun",
        "ications"
      ],
      [
        "Ġquest",
        "ion"
      ],
      [
        "Ġimpro",
        "ve"
      ],
      [
        "Ġpot",
        "ential"
      ],
      [
        "Ġyuk",
        "os"
      ],
      [
        "Ġyah",
        "oo"
      ],
      [
        "f",
        "l"
      ],
      [
        "g",
        "th"
      ],
      [
        "o",
        "ve"
      ],
      [
        "Ġs",
        "om"
      ],
      [
        "Ġw",
        "ants"
      ],
      [
        "il",
        "i"
      ],
      [
        "ol",
        "es"
      ],
      [
        "Ġj",
        "av"
      ],
      [
        "Ġpre",
        "m"
      ],
      [
        "Ġann",
        "ual"
      ],
      [
        "Ġeff",
        "orts"
      ],
      [
        "Ġfil",
        "ed"
      ],
      [
        "Ġsour",
        "ces"
      ],
      [
        "Ġav",
        "ail"
      ],
      [
        "Ġsub",
        "s"
      ],
      [
        "Ġmeet",
        "ing"
      ],
      [
        "Ġcub",
        "s"
      ],
      [
        "Ġceleb",
        "r"
      ],
      [
        "l",
        "im"
      ],
      [
        "u",
        "fact"
      ],
      [
        "Ġ",
        "et"
      ],
      [
        "Ġt",
        "ell"
      ],
      [
        "Ġs",
        "on"
      ],
      [
        "Ġf",
        "er"
      ],
      [
        "Ġw",
        "it"
      ],
      [
        "it",
        "ive"
      ],
      [
        "Ġn",
        "ort"
      ],
      [
        "ot",
        "i"
      ],
      [
        "Ġch",
        "ance"
      ],
      [
        "Ġwith",
        "in"
      ],
      [
        "Ġmo",
        "unt"
      ],
      [
        "Ġgro",
        "und"
      ],
      [
        "iz",
        "ation"
      ],
      [
        "Ġsusp",
        "ected"
      ],
      [
        "Ġturn",
        "ed"
      ],
      [
        "Ġjun",
        "e"
      ],
      [
        "Ġoutl",
        "ook"
      ],
      [
        "Ġprev",
        "ious"
      ],
      [
        "Ġenv",
        "iron"
      ],
      [
        "Ġfif",
        "th"
      ],
      [
        "t",
        "t"
      ],
      [
        "v",
        "et"
      ],
      [
        "Ġc",
        "am"
      ],
      [
        "Ġb",
        "ad"
      ],
      [
        "Ġb",
        "ond"
      ],
      [
        "Ġh",
        "ands"
      ],
      [
        "Ġre",
        "ad"
      ],
      [
        "us",
        "ing"
      ],
      [
        "Ġqu",
        "alif"
      ],
      [
        "Ġph",
        "ones"
      ],
      [
        "Ġatt",
        "orn"
      ],
      [
        "Ġbo",
        "ard"
      ],
      [
        "Ġsy",
        "d"
      ],
      [
        "Ġhelp",
        "ed"
      ],
      [
        "Ġeff",
        "ort"
      ],
      [
        "Ġequ",
        "ip"
      ],
      [
        "Ġreser",
        "ve"
      ],
      [
        "Ġattorn",
        "ey"
      ],
      [
        "Ġ",
        "rom"
      ],
      [
        "Ġs",
        "el"
      ],
      [
        "Ġs",
        "ant"
      ],
      [
        "Ġp",
        "en"
      ],
      [
        "or",
        "th"
      ],
      [
        "Ġm",
        "ill"
      ],
      [
        "it",
        "z"
      ],
      [
        "ar",
        "s"
      ],
      [
        "ic",
        "onduct"
      ],
      [
        "ter",
        "ed"
      ],
      [
        "am",
        "s"
      ],
      [
        "Ġr",
        "ights"
      ],
      [
        "Ġsh",
        "o"
      ],
      [
        "Ġk",
        "ar"
      ],
      [
        "Ġv",
        "ill"
      ],
      [
        "Ġcom",
        "e"
      ],
      [
        "ag",
        "ed"
      ],
      [
        "Ġse",
        "x"
      ],
      [
        "Ġrep",
        "l"
      ],
      [
        "Ġexp",
        "lo"
      ],
      [
        "Ġen",
        "c"
      ],
      [
        "Ġen",
        "ough"
      ],
      [
        "Ġbl",
        "oom"
      ],
      [
        "Ġban",
        "ks"
      ],
      [
        "Ġpre",
        "p"
      ],
      [
        "Ġprod",
        "uction"
      ],
      [
        "Ġfire",
        "d"
      ],
      [
        "Ġmid",
        "dle"
      ],
      [
        "da",
        "q"
      ],
      [
        "Ġneg",
        "oti"
      ],
      [
        "Ġsyd",
        "ney"
      ],
      [
        "b",
        "ab"
      ],
      [
        "d",
        "ict"
      ],
      [
        "r",
        "ight"
      ],
      [
        "Ġ",
        "ent"
      ],
      [
        "Ġo",
        "bs"
      ],
      [
        "Ġb",
        "en"
      ],
      [
        "Ġw",
        "rap"
      ],
      [
        "Ġm",
        "u"
      ],
      [
        "ic",
        "ip"
      ],
      [
        "Ġd",
        "iff"
      ],
      [
        "Ġl",
        "ater"
      ],
      [
        "Ġe",
        "ast"
      ],
      [
        "Ġr",
        "ises"
      ],
      [
        "Ġcl",
        "in"
      ],
      [
        "ab",
        "ility"
      ],
      [
        "av",
        "es"
      ],
      [
        "Ġlead",
        "s"
      ],
      [
        "Ġman",
        "ufact"
      ],
      [
        "one",
        "y"
      ],
      [
        "Ġsat",
        "ell"
      ],
      [
        "Ġsal",
        "e"
      ],
      [
        "Ġdel",
        "ays"
      ],
      [
        "Ġtr",
        "uck"
      ],
      [
        "Ġsupp",
        "ly"
      ],
      [
        "Ġsem",
        "iconduct"
      ],
      [
        "Ġaccount",
        "ing"
      ],
      [
        "Ġanalyst",
        "s"
      ],
      [
        "Ġscand",
        "al"
      ],
      [
        "Ġbankrupt",
        "cy"
      ],
      [
        "Ġf",
        "le"
      ],
      [
        "Ġp",
        "m"
      ],
      [
        "Ġr",
        "ates"
      ],
      [
        "Ġsh",
        "op"
      ],
      [
        "Ġsp",
        "ot"
      ],
      [
        "Ġwor",
        "king"
      ],
      [
        "Ġint",
        "rod"
      ],
      [
        "Ġdis",
        "m"
      ],
      [
        "Ġwe",
        "ap"
      ],
      [
        "Ġinvest",
        "ment"
      ],
      [
        "Ġcap",
        "t"
      ],
      [
        "Ġgrow",
        "ing"
      ],
      [
        "Ġstart",
        "ing"
      ],
      [
        "Ġacqu",
        "ire"
      ],
      [
        "Ġrev",
        "iew"
      ],
      [
        "Ġreach",
        "ed"
      ],
      [
        "Ġpass",
        "en"
      ],
      [
        "Ġspec",
        "ial"
      ],
      [
        "Ġproble",
        "ms"
      ],
      [
        "Ġcorpor",
        "ate"
      ],
      [
        "Ġdemocr",
        "atic"
      ],
      [
        "Ġconflic",
        "t"
      ],
      [
        "Ġbri",
        "ef"
      ],
      [
        "Ġwit",
        "ness"
      ],
      [
        "m",
        "w"
      ],
      [
        "Ġf",
        "ri"
      ],
      [
        "Ġb",
        "ud"
      ],
      [
        "Ġm",
        "ust"
      ],
      [
        "ar",
        "ing"
      ],
      [
        "ar",
        "ian"
      ],
      [
        "Ġd",
        "ra"
      ],
      [
        "Ġd",
        "ip"
      ],
      [
        "Ġl",
        "ay"
      ],
      [
        "Ġn",
        "iger"
      ],
      [
        "ur",
        "ch"
      ],
      [
        "id",
        "ing"
      ],
      [
        "ol",
        "f"
      ],
      [
        "Ġk",
        "ong"
      ],
      [
        "Ġpro",
        "ject"
      ],
      [
        "Ġco",
        "ast"
      ],
      [
        "Ġro",
        "ad"
      ],
      [
        "Ġwor",
        "th"
      ],
      [
        "Ġint",
        "eg"
      ],
      [
        "Ġdis",
        "ap"
      ],
      [
        "Ġwe",
        "ight"
      ],
      [
        "Ġdel",
        "eg"
      ],
      [
        "Ġstud",
        "ents"
      ],
      [
        "Ġjournal",
        "ist"
      ],
      [
        "Ġlaws",
        "uit"
      ],
      [
        "Ġpros",
        "ecut"
      ],
      [
        "Ġawa",
        "ited"
      ],
      [
        "Ġspokes",
        "man"
      ],
      [
        "g",
        "in"
      ],
      [
        "n",
        "etw"
      ],
      [
        "in",
        "i"
      ],
      [
        "Ġs",
        "ites"
      ],
      [
        "Ġc",
        "it"
      ],
      [
        "Ġc",
        "iting"
      ],
      [
        "Ġb",
        "it"
      ],
      [
        "Ġw",
        "ild"
      ],
      [
        "Ġp",
        "ip"
      ],
      [
        "at",
        "t"
      ],
      [
        "Ġre",
        "ve"
      ],
      [
        "Ġn",
        "ec"
      ],
      [
        "ec",
        "om"
      ],
      [
        "ent",
        "ion"
      ],
      [
        "Ġe",
        "ach"
      ],
      [
        "Ġr",
        "ule"
      ],
      [
        "Ġas",
        "ia"
      ],
      [
        "Ġthat",
        "cher"
      ],
      [
        "Ġmo",
        "v"
      ],
      [
        "Ġfin",
        "als"
      ],
      [
        "ib",
        "ility"
      ],
      [
        "Ġannoun",
        "ce"
      ],
      [
        "Ġpar",
        "k"
      ],
      [
        "Ġhold",
        "ings"
      ],
      [
        "Ġcontro",
        "vers"
      ],
      [
        "Ġadvanc",
        "ed"
      ],
      [
        "Ġacquis",
        "ition"
      ],
      [
        "Ġnort",
        "el"
      ],
      [
        "e",
        "w"
      ],
      [
        "p",
        "s"
      ],
      [
        "Ġa",
        "uction"
      ],
      [
        "Ġc",
        "iv"
      ],
      [
        "Ġf",
        "ans"
      ],
      [
        "al",
        "ed"
      ],
      [
        "Ġh",
        "ong"
      ],
      [
        "ic",
        "ket"
      ],
      [
        "Ġd",
        "ie"
      ],
      [
        "Ġch",
        "ain"
      ],
      [
        "Ġcom",
        "es"
      ],
      [
        "ap",
        "s"
      ],
      [
        "Ġra",
        "in"
      ],
      [
        "Ġab",
        "u"
      ],
      [
        "Ġfr",
        "ont"
      ],
      [
        "Ġgo",
        "es"
      ],
      [
        "ical",
        "ly"
      ],
      [
        "Ġcons",
        "ecut"
      ],
      [
        "Ġmus",
        "lim"
      ],
      [
        "Ġpar",
        "is"
      ],
      [
        "Ġpo",
        "int"
      ],
      [
        "Ġbat",
        "t"
      ],
      [
        "Ġjohn",
        "son"
      ],
      [
        "Ġsign",
        "ed"
      ],
      [
        "Ġsusp",
        "ects"
      ],
      [
        "Ġadv",
        "ance"
      ],
      [
        "Ġrad",
        "cl"
      ],
      [
        "iff",
        "e"
      ],
      [
        "Ġreal",
        "netw"
      ],
      [
        "Ġpop",
        "ular"
      ],
      [
        "Ġdev",
        "ices"
      ],
      [
        "Ġislam",
        "ic"
      ],
      [
        "Ġchild",
        "ren"
      ],
      [
        "Ġatlant",
        "a"
      ],
      [
        "Ġequip",
        "ment"
      ],
      [
        "Ġconsecut",
        "ive"
      ],
      [
        "Ġradcl",
        "iffe"
      ],
      [
        "b",
        "i"
      ],
      [
        "b",
        "it"
      ],
      [
        "h",
        "a"
      ],
      [
        "h",
        "i"
      ],
      [
        "h",
        "orn"
      ],
      [
        "m",
        "en"
      ],
      [
        "Ġs",
        "ide"
      ],
      [
        "Ġo",
        "thers"
      ],
      [
        "it",
        "or"
      ],
      [
        "Ġd",
        "utch"
      ],
      [
        "Ġn",
        "ine"
      ],
      [
        "Ġn",
        "ame"
      ],
      [
        "ac",
        "ed"
      ],
      [
        "Ġaf",
        "f"
      ],
      [
        "end",
        "um"
      ],
      [
        "um",
        "e"
      ],
      [
        "Ġare",
        "a"
      ],
      [
        "hn",
        "ya"
      ],
      [
        "Ġgre",
        "en"
      ],
      [
        "Ġbo",
        "dy"
      ],
      [
        "Ġopen",
        "ing"
      ],
      [
        "Ġgu",
        "ine"
      ],
      [
        "Ġjust",
        "ice"
      ],
      [
        "ual",
        "ly"
      ],
      [
        "Ġconf",
        "erence"
      ],
      [
        "Ġkn",
        "own"
      ],
      [
        "Ġrad",
        "io"
      ],
      [
        "Ġchec",
        "hnya"
      ],
      [
        "Ġsecret",
        "ary"
      ],
      [
        "Ġrefer",
        "endum"
      ],
      [
        "Ġbry",
        "ant"
      ],
      [
        "Ġsemiconduct",
        "or"
      ],
      [
        "Ġrealnetw",
        "orks"
      ],
      [
        "b",
        "by"
      ],
      [
        "c",
        "ape"
      ],
      [
        "p",
        "on"
      ],
      [
        "w",
        "est"
      ],
      [
        "at",
        "ory"
      ],
      [
        "Ġd",
        "ied"
      ],
      [
        "Ġst",
        "ay"
      ],
      [
        "Ġch",
        "o"
      ],
      [
        "Ġr",
        "ising"
      ],
      [
        "est",
        "yle"
      ],
      [
        "Ġk",
        "m"
      ],
      [
        "ag",
        "er"
      ],
      [
        "Ġso",
        "on"
      ],
      [
        "Ġover",
        "time"
      ],
      [
        "Ġad",
        "m"
      ],
      [
        "Ġsc",
        "ience"
      ],
      [
        "ep",
        "t"
      ],
      [
        "Ġsign",
        "s"
      ],
      [
        "Ġcontin",
        "ued"
      ],
      [
        "Ġsell",
        "ing"
      ],
      [
        "Ġvir",
        "us"
      ],
      [
        "Ġfam",
        "ily"
      ],
      [
        "Ġathlet",
        "es"
      ],
      [
        "aren",
        "t"
      ],
      [
        "fi",
        "eld"
      ],
      [
        "Ġavail",
        "able"
      ],
      [
        "Ġguine",
        "a"
      ],
      [
        "c",
        "on"
      ],
      [
        "g",
        "a"
      ],
      [
        "h",
        "el"
      ],
      [
        "w",
        "ood"
      ],
      [
        "x",
        "ic"
      ],
      [
        "in",
        "h"
      ],
      [
        "Ġo",
        "ct"
      ],
      [
        "Ġb",
        "ell"
      ],
      [
        "Ġb",
        "ord"
      ],
      [
        "Ġp",
        "et"
      ],
      [
        "ed",
        "a"
      ],
      [
        "Ġh",
        "ack"
      ],
      [
        "Ġto",
        "ur"
      ],
      [
        "Ġto",
        "ugh"
      ],
      [
        "Ġg",
        "ives"
      ],
      [
        "ur",
        "ies"
      ],
      [
        "ent",
        "ed"
      ],
      [
        "Ġv",
        "iew"
      ],
      [
        "Ġac",
        "cept"
      ],
      [
        "ab",
        "ul"
      ],
      [
        "iv",
        "en"
      ],
      [
        "iv",
        "id"
      ],
      [
        "Ġgo",
        "al"
      ],
      [
        "Ġwar",
        "ning"
      ],
      [
        "Ġbu",
        "il"
      ],
      [
        "Ġpart",
        "ners"
      ],
      [
        "Ġreb",
        "ound"
      ],
      [
        "Ġsu",
        "ff"
      ],
      [
        "Ġmiss",
        "ing"
      ],
      [
        "Ġwr",
        "ong"
      ],
      [
        "Ġwound",
        "ed"
      ],
      [
        "Ġhug",
        "o"
      ],
      [
        "Ġenviron",
        "ment"
      ],
      [
        "Ġbloom",
        "berg"
      ],
      [
        "Ġciv",
        "il"
      ],
      [
        "b",
        "a"
      ],
      [
        "g",
        "et"
      ],
      [
        "m",
        "and"
      ],
      [
        "n",
        "et"
      ],
      [
        "Ġf",
        "igh"
      ],
      [
        "Ġf",
        "ish"
      ],
      [
        "Ġp",
        "ent"
      ],
      [
        "Ġn",
        "at"
      ],
      [
        "Ġst",
        "ation"
      ],
      [
        "ap",
        "ped"
      ],
      [
        "Ġexp",
        "orts"
      ],
      [
        "Ġapp",
        "ear"
      ],
      [
        "Ġind",
        "ivid"
      ],
      [
        "Ġcons",
        "ider"
      ],
      [
        "Ġperson",
        "al"
      ],
      [
        "Ġcopy",
        "right"
      ],
      [
        "Ġweap",
        "ons"
      ],
      [
        "mand",
        "u"
      ],
      [
        "k",
        "o"
      ],
      [
        "Ġc",
        "ross"
      ],
      [
        "Ġo",
        "h"
      ],
      [
        "Ġh",
        "a"
      ],
      [
        "Ġh",
        "y"
      ],
      [
        "Ġg",
        "ain"
      ],
      [
        "Ġg",
        "iving"
      ],
      [
        "Ġre",
        "ne"
      ],
      [
        "Ġan",
        "c"
      ],
      [
        "Ġcom",
        "ing"
      ],
      [
        "Ġco",
        "al"
      ],
      [
        "ri",
        "er"
      ],
      [
        "Ġro",
        "d"
      ],
      [
        "Ġro",
        "oney"
      ],
      [
        "ere",
        "m"
      ],
      [
        "Ġres",
        "ult"
      ],
      [
        "Ġbl",
        "ood"
      ],
      [
        "Ġdis",
        "pl"
      ],
      [
        "Ġfl",
        "ag"
      ],
      [
        "Ġlos",
        "e"
      ],
      [
        "Ġbec",
        "om"
      ],
      [
        "Ġgen",
        "eration"
      ],
      [
        "Ġpo",
        "or"
      ],
      [
        "Ġpower",
        "ful"
      ],
      [
        "Ġconsum",
        "ers"
      ],
      [
        "Ġkore",
        "an"
      ],
      [
        "Ġlaw",
        "y"
      ],
      [
        "Ġconcer",
        "n"
      ],
      [
        "Ġriv",
        "als"
      ],
      [
        "Ġcomplet",
        "e"
      ],
      [
        "Ġexper",
        "ts"
      ],
      [
        "Ġthough",
        "t"
      ],
      [
        "Ġrequ",
        "est"
      ],
      [
        "Ġconfir",
        "med"
      ],
      [
        "Ġemploy",
        "ees"
      ],
      [
        "Ġloc",
        "al"
      ],
      [
        "Ġattemp",
        "t"
      ],
      [
        "Ġfre",
        "estyle"
      ],
      [
        "Ġlar",
        "ge"
      ],
      [
        "Ġmu",
        "qtada"
      ],
      [
        "Ġdisap",
        "po"
      ],
      [
        "c",
        "ial"
      ],
      [
        "Ġb",
        "a"
      ],
      [
        "Ġb",
        "ol"
      ],
      [
        "Ġp",
        "ound"
      ],
      [
        "ill",
        "s"
      ],
      [
        "Ġr",
        "ang"
      ],
      [
        "Ġde",
        "ter"
      ],
      [
        "os",
        "ed"
      ],
      [
        "Ġcomp",
        "uters"
      ],
      [
        "Ġfl",
        "ight"
      ],
      [
        "Ġbo",
        "eing"
      ],
      [
        "Ġdec",
        "ided"
      ],
      [
        "Ġbec",
        "ame"
      ],
      [
        "Ġsch",
        "ed"
      ],
      [
        "Ġpo",
        "ints"
      ],
      [
        "Ġvi",
        "et"
      ],
      [
        "Ġclaim",
        "ed"
      ],
      [
        "Ġtel",
        "ecom"
      ],
      [
        "Ġsudan",
        "ese"
      ],
      [
        "Ġiss",
        "ues"
      ],
      [
        "Ġcrit",
        "ic"
      ],
      [
        "Ġsharp",
        "ly"
      ],
      [
        "Ġchallen",
        "ge"
      ],
      [
        "Ġouts",
        "ide"
      ],
      [
        "Ġqa",
        "eda"
      ],
      [
        "Ġreven",
        "ue"
      ],
      [
        "Ġdeskt",
        "op"
      ],
      [
        "Ġjav",
        "a"
      ],
      [
        "h",
        "en"
      ],
      [
        "k",
        "ia"
      ],
      [
        "p",
        "ost"
      ],
      [
        "Ġs",
        "end"
      ],
      [
        "Ġc",
        "atch"
      ],
      [
        "en",
        "c"
      ],
      [
        "Ġm",
        "ix"
      ],
      [
        "Ġd",
        "ow"
      ],
      [
        "Ġn",
        "y"
      ],
      [
        "Ġsh",
        "ows"
      ],
      [
        "Ġk",
        "ath"
      ],
      [
        "Ġco",
        "ol"
      ],
      [
        "Ġab",
        "b"
      ],
      [
        "Ġad",
        "s"
      ],
      [
        "urs",
        "e"
      ],
      [
        "Ġwar",
        "ner"
      ],
      [
        "Ġdec",
        "l"
      ],
      [
        "Ġbro",
        "ught"
      ],
      [
        "Ġbusiness",
        "es"
      ],
      [
        "Ġrem",
        "ain"
      ],
      [
        "ator",
        "ial"
      ],
      [
        "Ġshare",
        "hold"
      ],
      [
        "bo",
        "ard"
      ],
      [
        "Ġiss",
        "ue"
      ],
      [
        "Ġsprin",
        "ters"
      ],
      [
        "Ġpubl",
        "ished"
      ],
      [
        "Ġsemif",
        "inals"
      ],
      [
        "Ġviet",
        "nam"
      ],
      [
        "r",
        "ing"
      ],
      [
        "Ġt",
        "reat"
      ],
      [
        "Ġs",
        "ug"
      ],
      [
        "Ġc",
        "p"
      ],
      [
        "Ġc",
        "rack"
      ],
      [
        "or",
        "ic"
      ],
      [
        "Ġst",
        "un"
      ],
      [
        "Ġj",
        "ail"
      ],
      [
        "Ġk",
        "abul"
      ],
      [
        "Ġde",
        "ep"
      ],
      [
        "Ġfin",
        "ance"
      ],
      [
        "Ġab",
        "ove"
      ],
      [
        "Ġser",
        "ious"
      ],
      [
        "Ġte",
        "mp"
      ],
      [
        "Ġmic",
        "ro"
      ],
      [
        "Ġlong",
        "horn"
      ],
      [
        "Ġequ",
        "atorial"
      ],
      [
        "Ġchang",
        "es"
      ],
      [
        "Ġnam",
        "ed"
      ],
      [
        "Ġdelay",
        "ed"
      ],
      [
        "Ġaut",
        "om"
      ],
      [
        "Ġpi",
        "racy"
      ],
      [
        "Ġpriv",
        "ate"
      ],
      [
        "b",
        "ur"
      ],
      [
        "d",
        "es"
      ],
      [
        "Ġc",
        "and"
      ],
      [
        "Ġc",
        "arter"
      ],
      [
        "Ġp",
        "atch"
      ],
      [
        "Ġm",
        "ist"
      ],
      [
        "Ġn",
        "in"
      ],
      [
        "ut",
        "ed"
      ],
      [
        "Ġv",
        "ac"
      ],
      [
        "Ġal",
        "ong"
      ],
      [
        "ist",
        "ry"
      ],
      [
        "Ġar",
        "ch"
      ],
      [
        "Ġbl",
        "ow"
      ],
      [
        "Ġfl",
        "ights"
      ],
      [
        "Ġbro",
        "ke"
      ],
      [
        "Ġlos",
        "ing"
      ],
      [
        "Ġpo",
        "ol"
      ],
      [
        "Ġtak",
        "en"
      ],
      [
        "Ġshi",
        "ft"
      ],
      [
        "Ġtel",
        "ep"
      ],
      [
        "Ġever",
        "ton"
      ],
      [
        "Ġfall",
        "s"
      ],
      [
        "Ġhost",
        "age"
      ],
      [
        "Ġstand",
        "ards"
      ],
      [
        "Ġfut",
        "ures"
      ],
      [
        "Ġdisco",
        "vered"
      ],
      [
        "Ġbuild",
        "ing"
      ],
      [
        "Ġblock",
        "ade"
      ],
      [
        "Ġunveil",
        "ed"
      ],
      [
        "Ġtre",
        "as"
      ],
      [
        "Ġprop",
        "ert"
      ],
      [
        "Ġupgra",
        "de"
      ],
      [
        "Ġfur",
        "ther"
      ],
      [
        "Ġsatell",
        "ite"
      ],
      [
        "g",
        "age"
      ],
      [
        "t",
        "a"
      ],
      [
        "Ġth",
        "in"
      ],
      [
        "re",
        "ad"
      ],
      [
        "ic",
        "ks"
      ],
      [
        "Ġd",
        "idn"
      ],
      [
        "il",
        "ities"
      ],
      [
        "Ġst",
        "ren"
      ],
      [
        "ir",
        "l"
      ],
      [
        "Ġj",
        "er"
      ],
      [
        "Ġj",
        "an"
      ],
      [
        "Ġsa",
        "b"
      ],
      [
        "Ġcl",
        "ashes"
      ],
      [
        "Ġse",
        "vent"
      ],
      [
        "Ġfin",
        "ds"
      ],
      [
        "Ġmed",
        "ical"
      ],
      [
        "Ġhigh",
        "s"
      ],
      [
        "iz",
        "ing"
      ],
      [
        "Ġset",
        "s"
      ],
      [
        "Ġwar",
        "ns"
      ]
    ]
  }
}