{
  "version": "1.0",
  "truncation": null,
  "padding": null,
  "added_tokens": [
    {
      "id": 0,
      "content": "[UNK]",
      "single_word": false,
      "lstrip": false,
      "rstrip": false,
      "normalized": false,
      "special": true
    }
  ],
  "normalizer": null,
  "pre_tokenizer": {
    "type": "Whitespace"
  },
  "post_processor": null,
  "decoder": null,
  "model": {
    "type": "BPE",
    "dropout": null,
    "unk_token": "[UNK]",
    "continuing_subword_prefix": null,
    "end_of_word_suffix": null,
    "fuse_unk": false,
    "byte_fallback": false,
    "ignore_merges": false,
    "vocab": {
      "[UNK]": 0,
      "!": 1,
      "'": 2,
      ",": 3,
      ".": 4,
      ":": 5,
      ";": 6,
      "?": 7,
      "_": 8,
      "a": 9,
      "b": 10,
      "c": 11,
      "d": 12,
      "e": 13,
      "f": 14,
      "g": 15,
      "h": 16,
      "i": 17,
      "j": 18,
      "k": 19,
      "l": 20,
      "m": 21,
      "n": 22,
      "o": 23,
      "p": 24,
      "q": 25,
      "r": 26,
      "s": 27,
      "t": 28,
      "u": 29,
      "v": 30,
      "w": 31,
      "x": 32,
      "y": 33,
      "z": 34,
      "in": 35,
      "th": 36,
      "re": 37,
      "an": 38,
      "on": 39,
      "ti": 40,
      "en": 41,
      "al": 42,
      "er": 43,
      "the": 44,
      "or": 45,
      "is": 46,
      "as": 47,
      "es": 48,
      "ed": 49,
      "of": 50,
      "at": 51,
      "and": 52,
      "ar": 53,
      "ic": 54,
      "ro": 55,
      "tion": 56,
      "to": 57,
      "ing": 58,
      "ent": 59,
      "st": 60,
      "it": 61,
      "ac": 62,
      "le": 63,
      "co": 64,
      "ve": 65,
      "us": 66,
      "ly": 67,
      "de": 68,
      "ation": 69,
      "ul": 70,
      "di": 71,
      "ec": 72,
      "lo": 73,
      "ur": 74,
      "ce": 75,
      "wi": 76,
      "ch": 77,
      "res": 78,
      "un": 79,
      "be": 80,
      "mp": 81,
      "for": 82,
      "se": 83,
      "si": 84,
      "with": 85,
      "pro": 86,
      "mo": 87,
      "tr": 88,
      "me": 89,
      "ma": 90,
      "ter": 91,
      "pa": 92,
      "are": 93,
      "id": 94,
      "su": 95,
      "ad": 96,
      "li": 97,
      "we": 98,
      "con": 99,
      "tic": 100,
      "ho": 101,
      "ab": 102,
      "ag": 103,
      "ap": 104,
      "ment": 105,
      "il": 106,
      "ver": 107,
      "po": 108,
      "he": 109,
      "ical": 110,
      "no": 111,
      "ol": 112,
      "per": 113,
      "dis": 114,
      "ir": 115,
      "ut": 116,
      "ity": 117,
      "ig": 118,
      "ex": 119,
      "cl": 120,
      "um": 121,
      "ated": 122,
      "so": 123,
      "ll": 124,
      "am": 125,
      "ts": 126,
      "ne": 127,
      "sp": 128,
      "gen": 129,
      "by": 130,
      "ate": 131,
      "that": 132,
      "ase": 133,
      "tive": 134,
      "pati": 135,
      "uc": 136,
      "qu": 137,
      "ort": 138,
      "ri": 139,
      "ff": 140,
      "ents": 141,
      "ha": 142,
      "mal": 143,
      "io": 144,
      "sy": 145,
      "ear": 146,
      "ther": 147,
      "hy": 148,
      "te": 149,
      "der": 150,
      "can": 151,
      "comp": 152,
      "ren": 153,
      "mm": 154,
      "ant": 155,
      "rom": 156,
      "sis": 157,
      "wh": 158,
      "em": 159,
      "red": 160,
      "was": 161,
      "ess": 162,
      "pres": 163,
      "ci": 164,
      "have": 165,
      "ular": 166,
      "pl": 167,
      "ary": 168,
      "log": 169,
      "has": 170,
      "inf": 171,
      "from": 172,
      "od": 173,
      "pre": 174,
      "ure": 175,
      "oc": 176,
      "ra": 177,
      "om": 178,
      "patients": 179,
      "ten": 180,
      "ted": 181,
      "ia": 182,
      "been": 183,
      "ine": 184,
      "inc": 185,
      "one": 186,
      "igh": 187,
      "ca": 188,
      "ty": 189,
      "dise": 190,
      "tor": 191,
      "ence": 192,
      "ge": 193,
      "ud": 194,
      "fe": 195,
      "ug": 196,
      "med": 197,
      "iz": 198,
      "use": 199,
      "ph": 200,
      "imp": 201,
      "par": 202,
      "pe": 203,
      "ich": 204,
      "tre": 205,
      "ion": 206,
      "cy": 207,
      "ally": 208,
      "cer": 209,
      "age": 210,
      "this": 211,
      "ations": 212,
      "ast": 213,
      "man": 214,
      "cell": 215,
      "year": 216,
      "tho": 217,
      "which": 218,
      "str": 219,
      "fic": 220,
      "all": 221,
      "tis": 222,
      "comm": 223,
      "sur": 224,
      "low": 225,
      "rec": 226,
      "est": 227,
      "were": 228,
      "disease": 229,
      "ms": 230,
      "ases": 231,
      "fac": 232,
      "most": 233,
      "ins": 234,
      "ial": 235,
      "ies": 236,
      "port": 237,
      "val": 238,
      "ous": 239,
      "ta": 240,
      "end": 241,
      "sion": 242,
      "car": 243,
      "up": 244,
      "ay": 245,
      "gn": 246,
      "fo": 247,
      "ib": 248,
      "ong": 249,
      "ans": 250,
      "vi": 251,
      "bo": 252,
      "ke": 253,
      "soci": 254,
      "treat": 255,
      "tions": 256,
      "ob": 257,
      "op": 258,
      "duc": 259,
      "ffec": 260,
      "cur": 261,
      "able": 262,
      "out": 263,
      "incre": 264,
      "mat": 265,
      "bet": 266,
      "des": 267,
      "incl": 268,
      "gr": 269,
      "ven": 270,
      "tro": 271,
      "report": 272,
      "ance": 273,
      "ative": 274,
      "lop": 275,
      "such": 276,
      "os": 277,
      "high": 278,
      "heal": 279,
      "lec": 280,
      "mon": 281,
      "treatment": 282,
      "ugh": 283,
      "und": 284,
      "velop": 285,
      "clin": 286,
      "common": 287,
      "develop": 288,
      "ory": 289,
      "used": 290,
      "ased": 291,
      "cor": 292,
      "cancer": 293,
      "ris": 294,
      "wor": 295,
      "spec": 296,
      "unc": 297,
      "these": 298,
      "reg": 299,
      "ting": 300,
      "health": 301,
      "ld": 302,
      "lic": 303,
      "min": 304,
      "not": 305,
      "sub": 306,
      "ser": 307,
      "et": 308,
      "form": 309,
      "inter": 310,
      "ble": 311,
      "present": 312,
      "anti": 313,
      "wn": 314,
      "var": 315,
      "rel": 316,
      "af": 317,
      "diff": 318,
      "ved": 319,
      "associ": 320,
      "its": 321,
      "inv": 322,
      "ach": 323,
      "du": 324,
      "logical": 325,
      "tu": 326,
      "more": 327,
      "other": 328,
      "ep": 329,
      "there": 330,
      "stem": 331,
      "sho": 332,
      "inal": 333,
      "enti": 334,
      "ang": 335,
      "acter": 336,
      "vid": 337,
      "diag": 338,
      "ious": 339,
      "diagno": 340,
      "ized": 341,
      "over": 342,
      "gro": 343,
      "ech": 344,
      "tra": 345,
      "clinical": 346,
      "ber": 347,
      "cri": 348,
      "infec": 349,
      "ass": 350,
      "fi": 351,
      "may": 352,
      "sa": 353,
      "mic": 354,
      "rent": 355,
      "resp": 356,
      "tal": 357,
      "includ": 358,
      "les": 359,
      "udi": 360,
      "func": 361,
      "pul": 362,
      "ding": 363,
      "dia": 364,
      "system": 365,
      "therap": 366,
      "ties": 367,
      "pri": 368,
      "ific": 369,
      "acti": 370,
      "factor": 371,
      "br": 372,
      "vir": 373,
      "studi": 374,
      "tum": 375,
      "lu": 376,
      "ual": 377,
      "cess": 378,
      "his": 379,
      "mul": 380,
      "years": 381,
      "ates": 382,
      "also": 383,
      "dur": 384,
      "patient": 385,
      "ers": 386,
      "associated": 387,
      "ors": 388,
      "cent": 389,
      "howe": 390,
      "however": 391,
      "surg": 392,
      "old": 393,
      "im": 394,
      "bio": 395,
      "under": 396,
      "resul": 397,
      "my": 398,
      "reported": 399,
      "sive": 400,
      "ined": 401,
      "prote": 402,
      "syn": 403,
      "requ": 404,
      "trans": 405,
      "cre": 406,
      "phy": 407,
      "risk": 408,
      "ces": 409,
      "ility": 410,
      "their": 411,
      "trac": 412,
      "do": 413,
      "ight": 414,
      "char": 415,
      "appro": 416,
      "tional": 417,
      "coun": 418,
      "gener": 419,
      "ital": 420,
      "order": 421,
      "sign": 422,
      "effec": 423,
      "cells": 424,
      "but": 425,
      "dr": 426,
      "ill": 427,
      "studies": 428,
      "main": 429,
      "imm": 430,
      "sed": 431,
      "after": 432,
      "ality": 433,
      "loc": 434,
      "well": 435,
      "vas": 436,
      "wo": 437,
      "stud": 438,
      "dro": 439,
      "ane": 440,
      "sec": 441,
      "pr": 442,
      "import": 443,
      "struc": 444,
      "than": 445,
      "occur": 446,
      "cr": 447,
      "uro": 448,
      "fir": 449,
      "com": 450,
      "na": 451,
      "org": 452,
      "diffe": 453,
      "met": 454,
      "ron": 455,
      "cases": 456,
      "during": 457,
      "kno": 458,
      "ign": 459,
      "cular": 460,
      "logy": 461,
      "ite": 462,
      "non": 463,
      "ild": 464,
      "ute": 465,
      "ide": 466,
      "nor": 467,
      "ard": 468,
      "ater": 469,
      "who": 470,
      "cep": 471,
      "mar": 472,
      "immun": 473,
      "ls": 474,
      "gene": 475,
      "study": 476,
      "ced": 477,
      "thy": 478,
      "including": 479,
      "due": 480,
      "patho": 481,
      "lar": 482,
      "ating": 483,
      "hosp": 484,
      "character": 485,
      "dy": 486,
      "ss": 487,
      "ino": 488,
      "ween": 489,
      "sti": 490,
      "between": 491,
      "care": 492,
      "au": 493,
      "peri": 494,
      "though": 495,
      "num": 496,
      "ric": 497,
      "world": 498,
      "hum": 499,
      "wide": 500,
      "if": 501,
      "lam": 502,
      "hyper": 503,
      "type": 504,
      "lead": 505,
      "ves": 506,
      "disorder": 507,
      "many": 508,
      "vascular": 509,
      "ile": 510,
      "def": 511,
      "therapy": 512,
      "tissu": 513,
      "dio": 514,
      "some": 515,
      "ently": 516,
      "ish": 517,
      "important": 518,
      "respon": 519,
      "ip": 520,
      "fol": 521,
      "child": 522,
      "aly": 523,
      "case": 524,
      "vity": 525,
      "produc": 526,
      "fer": 527,
      "thro": 528,
      "ail": 529,
      "organ": 530,
      "ie": 531,
      "mpto": 532,
      "very": 533,
      "mor": 534,
      "kin": 535,
      "long": 536,
      "vis": 537,
      "ple": 538,
      "jor": 539,
      "plas": 540,
      "cause": 541,
      "ments": 542,
      "grap": 543,
      "mit": 544,
      "chron": 545,
      "av": 546,
      "first": 547,
      "major": 548,
      "invol": 549,
      "tim": 550,
      "col": 551,
      "pain": 552,
      "ability": 553,
      "act": 554,
      "comple": 555,
      "sever": 556,
      "ery": 557,
      "side": 558,
      "inflam": 559,
      "bl": 560,
      "prog": 561,
      "int": 562,
      "ung": 563,
      "multi": 564,
      "ree": 565,
      "two": 566,
      "cont": 567,
      "had": 568,
      "using": 569,
      "cle": 570,
      "tial": 571,
      "bec": 572,
      "popul": 573,
      "factors": 574,
      "pec": 575,
      "betes": 576,
      "diabetes": 577,
      "cop": 578,
      "mil": 579,
      "ath": 580,
      "rare": 581,
      "sequ": 582,
      "sh": 583,
      "here": 584,
      "known": 585,
      "dition": 586,
      "ural": 587,
      "pos": 588,
      "normal": 589,
      "ving": 590,
      "ack": 591,
      "descri": 592,
      "our": 593,
      "blo": 594,
      "tech": 595,
      "ens": 596,
      "ox": 597,
      "ist": 598,
      "both": 599,
      "among": 600,
      "chronic": 601,
      "affec": 602,
      "drug": 603,
      "typ": 604,
      "function": 605,
      "ond": 606,
      "partic": 607,
      "prev": 608,
      "el": 609,
      "blood": 610,
      "beca": 611,
      "follow": 612,
      "fore": 613,
      "into": 614,
      "contro": 615,
      "sympto": 616,
      "incid": 617,
      "development": 618,
      "they": 619,
      "jec": 620,
      "neuro": 621,
      "ily": 622,
      "related": 623,
      "diseases": 624,
      "sin": 625,
      "only": 626,
      "leve": 627,
      "wom": 628,
      "mi": 629,
      "increased": 630,
      "ures": 631,
      "ature": 632,
      "ace": 633,
      "ions": 634,
      "cul": 635,
      "fr": 636,
      "sup": 637,
      "mag": 638,
      "ft": 639,
      "number": 640,
      "uld": 641,
      "men": 642,
      "ination": 643,
      "micro": 644,
      "signific": 645,
      "ays": 646,
      "because": 647,
      "ful": 648,
      "several": 649,
      "time": 650,
      "post": 651,
      "ness": 652,
      "osis": 653,
      "atory": 654,
      "ste": 655,
      "complic": 656,
      "new": 657,
      "mus": 658,
      "ually": 659,
      "medical": 660,
      "although": 661,
      "go": 662,
      "bed": 663,
      "life": 664,
      "fied": 665,
      "da": 666,
      "cal": 667,
      "la": 668,
      "tumor": 669,
      "king": 670,
      "protein": 671,
      "ately": 672,
      "ture": 673,
      "formation": 674,
      "ini": 675,
      "ner": 676,
      "ind": 677,
      "infection": 678,
      "drome": 679,
      "syndrome": 680,
      "based": 681,
      "male": 682,
      "preval": 683,
      "population": 684,
      "iv": 685,
      "indi": 686,
      "thod": 687,
      "ants": 688,
      "nec": 689,
      "ili": 690,
      "process": 691,
      "chem": 692,
      "tain": 693,
      "ization": 694,
      "her": 695,
      "rain": 696,
      "stand": 697,
      "diagnosis": 698,
      "tern": 699,
      "hospital": 700,
      "significant": 701,
      "oral": 702,
      "tical": 703,
      "iqu": 704,
      "iter": 705,
      "human": 706,
      "valu": 707,
      "sure": 708,
      "mort": 709,
      "show": 710,
      "tissue": 711,
      "surgery": 712,
      "por": 713,
      "uses": 714,
      "tes": 715,
      "incidence": 716,
      "dat": 717,
      "ational": 718,
      "when": 719,
      "group": 720,
      "ury": 721,
      "prim": 722,
      "ism": 723,
      "matic": 724,
      "pend": 725,
      "mis": 726,
      "identi": 727,
      "cho": 728,
      "tory": 729,
      "ody": 730,
      "bre": 731,
      "lig": 732,
      "grow": 733,
      "characterized": 734,
      "death": 735,
      "mental": 736,
      "perfor": 737,
      "asing": 738,
      "mortality": 739,
      "less": 740,
      "dom": 741,
      "acute": 742,
      "about": 743,
      "different": 744,
      "often": 745,
      "impro": 746,
      "body": 747,
      "pu": 748,
      "frequ": 749,
      "centr": 750,
      "psy": 751,
      "art": 752,
      "gl": 753,
      "like": 754,
      "imal": 755,
      "ks": 756,
      "large": 757,
      "vic": 758,
      "symptoms": 759,
      "vari": 760,
      "arter": 761,
      "method": 762,
      "children": 763,
      "rate": 764,
      "tec": 765,
      "echan": 766,
      "ically": 767,
      "primary": 768,
      "adul": 769,
      "trib": 770,
      "adv": 771,
      "mechan": 772,
      "genes": 773,
      "lymp": 774,
      "progres": 775,
      "rest": 776,
      "countr": 777,
      "phys": 778,
      "part": 779,
      "tran": 780,
      "mem": 781,
      "posi": 782,
      "bone": 783,
      "come": 784,
      "inj": 785,
      "resear": 786,
      "various": 787,
      "research": 788,
      "sing": 789,
      "gu": 790,
      "ior": 791,
      "app": 792,
      "lion": 793,
      "through": 794,
      "poten": 795,
      "medic": 796,
      "individ": 797,
      "ency": 798,
      "reduc": 799,
      "ited": 800,
      "ici": 801,
      "ev": 802,
      "ges": 803,
      "ben": 804,
      "ude": 805,
      "women": 806,
      "ew": 807,
      "proble": 808,
      "surgical": 809,
      "second": 810,
      "prevalence": 811,
      "ange": 812,
      "early": 813,
      "individual": 814,
      "found": 815,
      "history": 816,
      "specific": 817,
      "term": 818,
      "molec": 819,
      "ds": 820,
      "loss": 821,
      "increasing": 822,
      "ain": 823,
      "vere": 824,
      "poly": 825,
      "set": 826,
      "depend": 827,
      "renal": 828,
      "graphy": 829,
      "since": 830,
      "matory": 831,
      "techn": 832,
      "inflammatory": 833,
      "oid": 834,
      "xim": 835,
      "usion": 836,
      "data": 837,
      "ons": 838,
      "recent": 839,
      "gra": 840,
      "sol": 841,
      "sible": 842,
      "experi": 843,
      "cogn": 844,
      "tics": 845,
      "analy": 846,
      "left": 847,
      "previous": 848,
      "severe": 849,
      "mu": 850,
      "cardio": 851,
      "lin": 852,
      "fam": 853,
      "perio": 854,
      "glo": 855,
      "medi": 856,
      "described": 857,
      "month": 858,
      "view": 859,
      "liver": 860,
      "ound": 861,
      "asis": 862,
      "pression": 863,
      "ano": 864,
      "erg": 865,
      "countries": 866,
      "role": 867,
      "exam": 868,
      "malign": 869,
      "tumors": 870,
      "ak": 871,
      "where": 872,
      "right": 873,
      "proced": 874,
      "gi": 875,
      "acc": 876,
      "ople": 877,
      "abol": 878,
      "auto": 879,
      "current": 880,
      "ses": 881,
      "tomy": 882,
      "tric": 883,
      "cis": 884,
      "while": 885,
      "people": 886,
      "smal": 887,
      "requi": 888,
      "mac": 889,
      "pan": 890,
      "yo": 891,
      "anges": 892,
      "inte": 893,
      "usually": 894,
      "disorders": 895,
      "rence": 896,
      "presented": 897,
      "effects": 898,
      "bal": 899,
      "fib": 900,
      "fig": 901,
      "asi": 902,
      "within": 903,
      "include": 904,
      "air": 905,
      "gre": 906,
      "aneous": 907,
      "brain": 908,
      "mass": 909,
      "elec": 910,
      "abl": 911,
      "increase": 912,
      "oper": 913,
      "metabol": 914,
      "immune": 915,
      "any": 916,
      "mater": 917,
      "ii": 918,
      "oph": 919,
      "tures": 920,
      "bacter": 921,
      "results": 922,
      "small": 923,
      "imag": 924,
      "carc": 925,
      "tur": 926,
      "conside": 927,
      "considered": 928,
      "fail": 929,
      "activity": 930,
      "ef": 931,
      "sen": 932,
      "obes": 933,
      "techniqu": 934,
      "ished": 935,
      "isms": 936,
      "multiple": 937,
      "den": 938,
      "stic": 939,
      "ulation": 940,
      "control": 941,
      "million": 942,
      "accor": 943,
      "hypo": 944,
      "ulin": 945,
      "sug": 946,
      "approxim": 947,
      "mes": 948,
      "dent": 949,
      "del": 950,
      "limit": 951,
      "cyto": 952,
      "hib": 953,
      "inding": 954,
      "lant": 955,
      "temp": 956,
      "meas": 957,
      "shown": 958,
      "diagnosed": 959,
      "lower": 960,
      "cc": 961,
      "eu": 962,
      "three": 963,
      "need": 964,
      "mple": 965,
      "evalu": 966,
      "ution": 967,
      "abdom": 968,
      "endo": 969,
      "result": 970,
      "viron": 971,
      "genetic": 972,
      "environ": 973,
      "resist": 974,
      "vement": 975,
      "approximately": 976,
      "estim": 977,
      "pho": 978,
      "developed": 979,
      "vers": 980,
      "types": 981,
      "complications": 982,
      "manage": 983,
      "ancy": 984,
      "logic": 985,
      "ities": 986,
      "virus": 987,
      "cap": 988,
      "general": 989,
      "growth": 990,
      "period": 991,
      "emo": 992,
      "flu": 993,
      "caused": 994,
      "theli": 995,
      "ze": 996,
      "without": 997,
      "fication": 998,
      "radi": 999,
      "causes": 1000,
      "particular": 1001,
      "tension": 1002,
      "pred": 1003,
      "metast": 1004,
      "worldwide": 1005,
      "evid": 1006,
      "enz": 1007,
      "ages": 1008,
      "differen": 1009,
      "leading": 1010,
      "physical": 1011,
      "acid": 1012,
      "oscop": 1013,
      "pat": 1014,
      "tri": 1015,
      "work": 1016,
      "complex": 1017,
      "led": 1018,
      "according": 1019,
      "bid": 1020,
      "ceptor": 1021,
      "defined": 1022,
      "atic": 1023,
      "vation": 1024,
      "state": 1025,
      "those": 1026,
      "ret": 1027,
      "action": 1028,
      "ological": 1029,
      "skin": 1030,
      "ucle": 1031,
      "performed": 1032,
      "stro": 1033,
      "being": 1034,
      "proteins": 1035,
      "intra": 1036,
      "lip": 1037,
      "contin": 1038,
      "lung": 1039,
      "changes": 1040,
      "ey": 1041,
      "tig": 1042,
      "weight": 1043,
      "detec": 1044,
      "survi": 1045,
      "induc": 1046,
      "ct": 1047,
      "receptor": 1048,
      "til": 1049,
      "decre": 1050,
      "rect": 1051,
      "management": 1052,
      "comb": 1053,
      "genic": 1054,
      "inoma": 1055,
      "ress": 1056,
      "potential": 1057,
      "heart": 1058,
      "omic": 1059,
      "dys": 1060,
      "transp": 1061,
      "mark": 1062,
      "active": 1063,
      "thyro": 1064,
      "fur": 1065,
      "commonly": 1066,
      "intest": 1067,
      "line": 1068,
      "liter": 1069,
      "cardi": 1070,
      "eth": 1071,
      "sel": 1072,
      "termin": 1073,
      "cs": 1074,
      "ateral": 1075,
      "following": 1076,
      "ele": 1077,
      "tox": 1078,
      "suc": 1079,
      "few": 1080,
      "sto": 1081,
      "obser": 1082,
      "levels": 1083,
      "path": 1084,
      "response": 1085,
      "showed": 1086,
      "injury": 1087,
      "breast": 1088,
      "eric": 1089,
      "quality": 1090,
      "plic": 1091,
      "ot": 1092,
      "tar": 1093,
      "imaging": 1094,
      "veal": 1095,
      "central": 1096,
      "ially": 1097,
      "addition": 1098,
      "local": 1099,
      "indic": 1100,
      "sit": 1101,
      "ditions": 1102,
      "approach": 1103,
      "failure": 1104,
      "abs": 1105,
      "muscle": 1106,
      "animal": 1107,
      "verse": 1108,
      "ocy": 1109,
      "conditions": 1110,
      "region": 1111,
      "functional": 1112,
      "avail": 1113,
      "uted": 1114,
      "insulin": 1115,
      "material": 1116,
      "ht": 1117,
      "she": 1118,
      "defic": 1119,
      "total": 1120,
      "lesions": 1121,
      "effective": 1122,
      "further": 1123,
      "head": 1124,
      "national": 1125,
      "condition": 1126,
      "lympho": 1127,
      "level": 1128,
      "cardiovascular": 1129,
      "reveal": 1130,
      "provid": 1131,
      "demon": 1132,
      "demonstr": 1133,
      "face": 1134,
      "infections": 1135,
      "pathy": 1136,
      "clo": 1137,
      "ening": 1138,
      "therefore": 1139,
      "months": 1140,
      "cat": 1141,
      "lab": 1142,
      "morbid": 1143,
      "examination": 1144,
      "each": 1145,
      "chemical": 1146,
      "evidence": 1147,
      "tensive": 1148,
      "obesity": 1149,
      "ati": 1150,
      "ns": 1151,
      "influ": 1152,
      "review": 1153,
      "espec": 1154,
      "icul": 1155,
      "family": 1156,
      "bro": 1157,
      "ology": 1158,
      "eng": 1159,
      "gram": 1160,
      "especially": 1161,
      "estimated": 1162,
      "tent": 1163,
      "ning": 1164,
      "physi": 1165,
      "way": 1166,
      "ared": 1167,
      "individuals": 1168,
      "occurs": 1169,
      "literature": 1170,
      "ster": 1171,
      "bar": 1172,
      "gly": 1173,
      "mia": 1174,
      "iat": 1175,
      "ps": 1176,
      "range": 1177,
      "sts": 1178,
      "astro": 1179,
      "recently": 1180,
      "monary": 1181,
      "assi": 1182,
      "coron": 1183,
      "success": 1184,
      "pub": 1185,
      "assess": 1186,
      "immuno": 1187,
      "even": 1188,
      "glu": 1189,
      "cir": 1190,
      "pregn": 1191,
      "abdominal": 1192,
      "intestinal": 1193,
      "vit": 1194,
      "day": 1195,
      "yl": 1196,
      "trau": 1197,
      "targe": 1198,
      "bur": 1199,
      "pers": 1200,
      "pressure": 1201,
      "thyroid": 1202,
      "morbidity": 1203,
      "dist": 1204,
      "treated": 1205,
      "ances": 1206,
      "tract": 1207,
      "methods": 1208,
      "mage": 1209,
      "eff": 1210,
      "rap": 1211,
      "inhib": 1212,
      "try": 1213,
      "vention": 1214,
      "angio": 1215,
      "adults": 1216,
      "suff": 1217,
      "abnormal": 1218,
      "mid": 1219,
      "accoun": 1220,
      "proper": 1221,
      "graph": 1222,
      "ences": 1223,
      "drugs": 1224,
      "gas": 1225,
      "sci": 1226,
      "could": 1227,
      "ome": 1228,
      "orig": 1229,
      "isol": 1230,
      "mod": 1231,
      "tained": 1232,
      "ax": 1233,
      "dna": 1234,
      "species": 1235,
      "cad": 1236,
      "zed": 1237,
      "expo": 1238,
      "gluco": 1239,
      "information": 1240,
      "continu": 1241,
      "ded": 1242,
      "cv": 1243,
      "las": 1244,
      "eral": 1245,
      "difficul": 1246,
      "recogn": 1247,
      "hip": 1248,
      "cut": 1249,
      "itis": 1250,
      "iety": 1251,
      "survival": 1252,
      "female": 1253,
      "genesis": 1254,
      "mains": 1255,
      "wee": 1256,
      "higher": 1257,
      "ina": 1258,
      "artery": 1259,
      "jo": 1260,
      "carcinoma": 1261,
      "test": 1262,
      "inves": 1263,
      "hor": 1264,
      "ules": 1265,
      "initi": 1266,
      "stage": 1267,
      "mation": 1268,
      "sal": 1269,
      "hydro": 1270,
      "place": 1271,
      "recur": 1272,
      "histo": 1273,
      "standard": 1274,
      "investig": 1275,
      "mer": 1276,
      "lap": 1277,
      "will": 1278,
      "establ": 1279,
      "subjec": 1280,
      "complete": 1281,
      "gest": 1282,
      "esthe": 1283,
      "therapeu": 1284,
      "cm": 1285,
      "fat": 1286,
      "systems": 1287,
      "mut": 1288,
      "pal": 1289,
      "selec": 1290,
      "bi": 1291,
      "ju": 1292,
      "classi": 1293,
      "thus": 1294,
      "chemo": 1295,
      "uni": 1296,
      "emia": 1297,
      "revealed": 1298,
      "membr": 1299,
      "mas": 1300,
      "stimul": 1301,
      "analysis": 1302,
      "public": 1303,
      "poor": 1304,
      "nucle": 1305,
      "pen": 1306,
      "terior": 1307,
      "hypertension": 1308,
      "thelial": 1309,
      "coronary": 1310,
      "nal": 1311,
      "cere": 1312,
      "ids": 1313,
      "developing": 1314,
      "phen": 1315,
      "foc": 1316,
      "molecular": 1317,
      "cardiac": 1318,
      "oste": 1319,
      "rates": 1320,
      "ring": 1321,
      "resistance": 1322,
      "bil": 1323,
      "atively": 1324,
      "pulmonary": 1325,
      "identified": 1326,
      "vent": 1327,
      "states": 1328,
      "single": 1329,
      "metabolic": 1330,
      "commun": 1331,
      "gastro": 1332,
      "vated": 1333,
      "throm": 1334,
      "presence": 1335,
      "ired": 1336,
      "back": 1337,
      "actions": 1338,
      "modi": 1339,
      "ateg": 1340,
      "stress": 1341,
      "contrib": 1342,
      "available": 1343,
      "atures": 1344,
      "last": 1345,
      "cellular": 1346,
      "aris": 1347,
      "desp": 1348,
      "despite": 1349,
      "hiv": 1350,
      "past": 1351,
      "ney": 1352,
      "onal": 1353,
      "pancre": 1354,
      "rele": 1355,
      "systemic": 1356,
      "prof": 1357,
      "characteris": 1358,
      "inflammation": 1359,
      "consis": 1360,
      "ines": 1361,
      "still": 1362,
      "iatric": 1363,
      "labor": 1364,
      "phosp": 1365,
      "cd": 1366,
      "ger": 1367,
      "cler": 1368,
      "nam": 1369,
      "beha": 1370,
      "dental": 1371,
      "before": 1372,
      "resulting": 1373,
      "widely": 1374,
      "sens": 1375,
      "neo": 1376,
      "frequently": 1377,
      "comes": 1378,
      "cro": 1379,
      "kid": 1380,
      "four": 1381,
      "therapeutic": 1382,
      "rapid": 1383,
      ",,": 1384,
      "emp": 1385,
      "play": 1386,
      "eti": 1387,
      "nas": 1388,
      "pt": 1389,
      "rh": 1390,
      "involved": 1391,
      "insti": 1392,
      "class": 1393,
      "ports": 1394,
      "sider": 1395,
      "compon": 1396,
      "problem": 1397,
      "kidney": 1398,
      "amo": 1399,
      "smo": 1400,
      "compared": 1401,
      "ocar": 1402,
      "vide": 1403,
      "biological": 1404,
      "mg": 1405,
      "ands": 1406,
      "social": 1407,
      "synthe": 1408,
      "sugges": 1409,
      "enzy": 1410,
      "ither": 1411,
      "pur": 1412,
      "consider": 1413,
      "malignant": 1414,
      "stroke": 1415,
      "ived": 1416,
      "ption": 1417,
      "toxic": 1418,
      "ics": 1419,
      "chall": 1420,
      "regul": 1421,
      "epi": 1422,
      "oxy": 1423,
      "mission": 1424,
      "atten": 1425,
      "samp": 1426,
      "respir": 1427,
      "oscopic": 1428,
      "fy": 1429,
      "nat": 1430,
      "tration": 1431,
      "trial": 1432,
      "neg": 1433,
      "glucose": 1434,
      "collec": 1435,
      "tissues": 1436,
      "anced": 1437,
      "radio": 1438,
      "bility": 1439,
      "finding": 1440,
      "thir": 1441,
      "tomo": 1442,
      "become": 1443,
      "secondary": 1444,
      "water": 1445,
      "stat": 1446,
      "united": 1447,
      "ferred": 1448,
      "ward": 1449,
      "agents": 1450,
      "para": 1451,
      "positive": 1452,
      "bon": 1453,
      "sex": 1454,
      "conduc": 1455,
      "oles": 1456,
      "association": 1457,
      "psycho": 1458,
      "defici": 1459,
      "bor": 1460,
      "manif": 1461,
      "problems": 1462,
      "position": 1463,
      "oth": 1464,
      "vol": 1465,
      "determin": 1466,
      "food": 1467,
      "visual": 1468,
      "eld": 1469,
      "eye": 1470,
      "thor": 1471,
      "mb": 1472,
      "ped": 1473,
      "appear": 1474,
      "cutaneous": 1475,
      "production": 1476,
      "remo": 1477,
      "mel": 1478,
      "invasi": 1479,
      "field": 1480,
      "vices": 1481,
      "remains": 1482,
      "upper": 1483,
      "minis": 1484,
      "self": 1485,
      "diagnostic": 1486,
      "origin": 1487,
      "ect": 1488,
      "oxid": 1489,
      "predic": 1490,
      "sep": 1491,
      "neur": 1492,
      "should": 1493,
      "short": 1494,
      "direct": 1495,
      "sensi": 1496,
      "limited": 1497,
      "demonstrated": 1498,
      "dm": 1499,
      "either": 1500,
      "features": 1501,
      "observed": 1502,
      "ell": 1503,
      "aged": 1504,
      "applic": 1505,
      "progressive": 1506,
      "dependent": 1507,
      "differenti": 1508,
      "allow": 1509,
      "respiratory": 1510,
      "nu": 1511,
      "sus": 1512,
      "site": 1513,
      "inary": 1514,
      "read": 1515,
      "retro": 1516,
      "reports": 1517,
      ".,": 1518,
      "structure": 1519,
      "invasive": 1520,
      "ga": 1521,
      "then": 1522,
      "arm": 1523,
      "spinal": 1524,
      "days": 1525,
      "ists": 1526,
      "ick": 1527,
      "effect": 1528,
      "mechanisms": 1529,
      "erior": 1530,
      "techno": 1531,
      "eding": 1532,
      "particip": 1533,
      "versity": 1534,
      "ref": 1535,
      "them": 1536,
      "ator": 1537,
      "americ": 1538,
      "sch": 1539,
      "ton": 1540,
      "procedure": 1541,
      "fibro": 1542,
      "grad": 1543,
      "uk": 1544,
      "ditional": 1545,
      "vo": 1546,
      "simil": 1547,
      "previously": 1548,
      "similar": 1549,
      "extrac": 1550,
      "signal": 1551,
      "practi": 1552,
      "ential": 1553,
      "particularly": 1554,
      "tively": 1555,
      "techniques": 1556,
      "uter": 1557,
      "emer": 1558,
      "bral": 1559,
      "concer": 1560,
      "now": 1561,
      "expression": 1562,
      "ann": 1563,
      "cades": 1564,
      "itus": 1565,
      "extre": 1566,
      "induced": 1567,
      "rece": 1568,
      "struction": 1569,
      "support": 1570,
      "damage": 1571,
      "pti": 1572,
      "young": 1573,
      "ore": 1574,
      "scre": 1575,
      "arch": 1576,
      "sta": 1577,
      "area": 1578,
      "serum": 1579,
      "transplant": 1580,
      "membrane": 1581,
      "behavi": 1582,
      "rna": 1583,
      "ters": 1584,
      "highly": 1585,
      "mitted": 1586,
      "ler": 1587,
      "aging": 1588,
      "ck": 1589,
      "medicine": 1590,
      "properties": 1591,
      "cour": 1592,
      "light": 1593,
      "anterior": 1594,
      "tivity": 1595,
      "understand": 1596,
      "affected": 1597,
      "improve": 1598,
      "interest": 1599,
      "taining": 1600,
      "areas": 1601,
      "know": 1602,
      "inhibit": 1603,
      "onset": 1604,
      "consequ": 1605,
      "surface": 1606,
      "trauma": 1607,
      "size": 1608,
      "provide": 1609,
      "variety": 1610,
      "bir": 1611,
      "thal": 1612,
      "ked": 1613,
      "lat": 1614,
      "ways": 1615,
      "intro": 1616,
      "cies": 1617,
      "decades": 1618,
      "exer": 1619,
      "generally": 1620,
      "progno": 1621,
      "procedures": 1622,
      "sour": 1623,
      "ventric": 1624,
      "achie": 1625,
      "ae": 1626,
      "amp": 1627,
      "hal": 1628,
      "pic": 1629,
      "doc": 1630,
      "colon": 1631,
      "asy": 1632,
      "aring": 1633,
      "table": 1634,
      "included": 1635,
      "prevent": 1636,
      "itation": 1637,
      "adminis": 1638,
      "genital": 1639,
      "presents": 1640,
      "critical": 1641,
      "times": 1642,
      "deaths": 1643,
      "depart": 1644,
      "safe": 1645,
      "inant": 1646,
      "tered": 1647,
      "currently": 1648,
      "figure": 1649,
      "emergen": 1650,
      "intrac": 1651,
      "successful": 1652,
      "made": 1653,
      "obtained": 1654,
      "muco": 1655,
      "acy": 1656,
      "lled": 1657,
      "generation": 1658,
      "ice": 1659,
      "unt": 1660,
      "mell": 1661,
      "venous": 1662,
      "epide": 1663,
      "reduced": 1664,
      "pregnancy": 1665,
      "fusion": 1666,
      "ru": 1667,
      "dem": 1668,
      "motor": 1669,
      "tomography": 1670,
      "tural": 1671,
      "mainly": 1672,
      "free": 1673,
      "lying": 1674,
      "aden": 1675,
      "glob": 1676,
      "established": 1677,
      "sle": 1678,
      "ument": 1679,
      "ergy": 1680,
      "nutri": 1681,
      "equ": 1682,
      "cons": 1683,
      "concentr": 1684,
      "viral": 1685,
      "ker": 1686,
      "lack": 1687,
      "least": 1688,
      "benign": 1689,
      "criter": 1690,
      "gastrointestinal": 1691,
      "manifest": 1692,
      "zo": 1693,
      "contr": 1694,
      "nerve": 1695,
      "dysfunction": 1696,
      "again": 1697,
      "amin": 1698,
      "key": 1699,
      "gastric": 1700,
      "laboratory": 1701,
      "introduc": 1702,
      "neoplas": 1703,
      "structures": 1704,
      "technique": 1705,
      "third": 1706,
      "lifer": 1707,
      "zation": 1708,
      "pattern": 1709,
      "periph": 1710,
      "adult": 1711,
      "rup": 1712,
      "tero": 1713,
      "electro": 1714,
      "department": 1715,
      "ori": 1716,
      "exposure": 1717,
      "difficult": 1718,
      "vision": 1719,
      "euro": 1720,
      "ition": 1721,
      "pi": 1722,
      "resid": 1723,
      "prolifer": 1724,
      "essential": 1725,
      "plac": 1726,
      "pepti": 1727,
      "lesion": 1728,
      "great": 1729,
      "criteria": 1730,
      "ani": 1731,
      "exp": 1732,
      "lapar": 1733,
      "ints": 1734,
      "subsequ": 1735,
      "chemotherapy": 1736,
      "compla": 1737,
      "take": 1738,
      "samples": 1739,
      "expec": 1740,
      "functions": 1741,
      "groups": 1742,
      "sites": 1743,
      "scal": 1744,
      "bas": 1745,
      "econ": 1746,
      "sia": 1747,
      "exa": 1748,
      "ize": 1749,
      "vities": 1750,
      "evaluation": 1751,
      "practice": 1752,
      "coma": 1753,
      "seen": 1754,
      "agg": 1755,
      "oma": 1756,
      "issu": 1757,
      "program": 1758,
      "outcomes": 1759,
      "ade": 1760,
      "illary": 1761,
      "possible": 1762,
      "frac": 1763,
      "measure": 1764,
      "findings": 1765,
      "deficiency": 1766,
      "europe": 1767,
      "pel": 1768,
      "cancers": 1769,
      "followed": 1770,
      "processes": 1771,
      "uce": 1772,
      "esoph": 1773,
      "university": 1774,
      "disco": 1775,
      "rial": 1776,
      "relatively": 1777,
      "require": 1778,
      "knowled": 1779,
      "sof": 1780,
      "taneous": 1781,
      "intr": 1782,
      "against": 1783,
      "hand": 1784,
      "integr": 1785,
      "environmental": 1786,
      "radiation": 1787,
      "wall": 1788,
      "design": 1789,
      "humans": 1790,
      "operative": 1791,
      "mellitus": 1792,
      "example": 1793,
      "wa": 1794,
      "indu": 1795,
      "diet": 1796,
      "resec": 1797,
      "woman": 1798,
      "negative": 1799,
      "call": 1800,
      "ischem": 1801,
      "teeth": 1802,
      "pathological": 1803,
      "thrombo": 1804,
      "inde": 1805,
      "implant": 1806,
      "kele": 1807,
      "cing": 1808,
      "chest": 1809,
      "adverse": 1810,
      "commend": 1811,
      "natural": 1812,
      "reas": 1813,
      "recommend": 1814,
      "tooth": 1815,
      "fever": 1816,
      "ible": 1817,
      "same": 1818,
      "bacterial": 1819,
      "ultr": 1820,
      "moder": 1821,
      "phil": 1822,
      "serious": 1823,
      "electr": 1824,
      "oxygen": 1825,
      "peripheral": 1826,
      "bes": 1827,
      "gs": 1828,
      "around": 1829,
      "forms": 1830,
      "subst": 1831,
      "clerosis": 1832,
      "transcri": 1833,
      "posterior": 1834,
      "ive": 1835,
      "pne": 1836,
      "ub": 1837,
      "hel": 1838,
      "activation": 1839,
      "neck": 1840,
      "adi": 1841,
      "referred": 1842,
      "ably": 1843,
      "physiological": 1844,
      "rhe": 1845,
      "als": 1846,
      "deli": 1847,
      "prostate": 1848,
      "increases": 1849,
      "clear": 1850,
      "nerv": 1851,
      "combination": 1852,
      "attention": 1853,
      "depression": 1854,
      "males": 1855,
      "responsible": 1856,
      "ocardi": 1857,
      "scop": 1858,
      "numer": 1859,
      "typically": 1860,
      "cise": 1861,
      "environment": 1862,
      "weeks": 1863,
      "soft": 1864,
      "vical": 1865,
      "energy": 1866,
      "atom": 1867,
      "accum": 1868,
      "hemat": 1869,
      "activities": 1870,
      "secre": 1871,
      "leads": 1872,
      "grade": 1873,
      "suggested": 1874,
      "status": 1875,
      "birth": 1876,
      "knowledge": 1877,
      "bac": 1878,
      "enh": 1879,
      "pla": 1880,
      "outcome": 1881,
      "ators": 1882,
      "ocular": 1883,
      "strateg": 1884,
      "dynam": 1885,
      "benef": 1886,
      "decreased": 1887,
      "model": 1888,
      "confir": 1889,
      "stric": 1890,
      "located": 1891,
      "fl": 1892,
      "pair": 1893,
      "near": 1894,
      "reduce": 1895,
      "certain": 1896,
      "cervical": 1897,
      "ultras": 1898,
      "represent": 1899,
      "urinary": 1900,
      "prior": 1901,
      "global": 1902,
      "emergency": 1903,
      "diabe": 1904,
      "involvement": 1905,
      "initial": 1906,
      "necess": 1907,
      "progression": 1908,
      "materials": 1909,
      "conducted": 1910,
      "pd": 1911,
      "along": 1912,
      "hepati": 1913,
      "healthy": 1914,
      "affects": 1915,
      "placement": 1916,
      "nervous": 1917,
      "don": 1918,
      "gens": 1919,
      "elder": 1920,
      "mr": 1921,
      "ining": 1922,
      "inten": 1923,
      "ised": 1924,
      "fort": 1925,
      "majority": 1926,
      "affect": 1927,
      "challen": 1928,
      "course": 1929,
      "lation": 1930,
      "dies": 1931,
      "impair": 1932,
      "relations": 1933,
      "prognosis": 1934,
      "alysis": 1935,
      "advanced": 1936,
      "ry": 1937,
      "utes": 1938,
      "events": 1939,
      "recognized": 1940,
      "ellular": 1941,
      "hepatitis": 1942,
      "itive": 1943,
      "india": 1944,
      "tool": 1945,
      "lear": 1946,
      "impact": 1947,
      "appropri": 1948,
      "acqu": 1949,
      "conven": 1950,
      "extensive": 1951,
      "ray": 1952,
      "surve": 1953,
      "ventricular": 1954,
      "elderly": 1955,
      "jap": 1956,
      "root": 1957,
      "ides": 1958,
      "organization": 1959,
      "restor": 1960,
      "molecules": 1961,
      "oti": 1962,
      "sar": 1963,
      "ue": 1964,
      "consu": 1965,
      "spon": 1966,
      "illness": 1967,
      "phosph": 1968,
      "japan": 1969,
      "sw": 1970,
      "uth": 1971,
      "chro": 1972,
      "phase": 1973,
      "dose": 1974,
      "plasma": 1975,
      "hab": 1976,
      "hemo": 1977,
      "ritis": 1978,
      "phal": 1979,
      "phar": 1980,
      "cept": 1981,
      "regions": 1982,
      "ather": 1983,
      "bu": 1984,
      "cas": 1985,
      "eg": 1986,
      "sk": 1987,
      "reli": 1988,
      "logies": 1989,
      "organisms": 1990,
      "cognitive": 1991,
      "animals": 1992,
      "onic": 1993,
      "cost": 1994,
      "urs": 1995,
      "proto": 1996,
      "frequent": 1997,
      "far": 1998,
      "protec": 1999,
      "magne": 2000,
      "graphic": 2001,
      "mig": 2002,
      "promo": 2003,
      "guide": 2004,
      "receptors": 2005,
      "resection": 2006,
      "affecting": 2007,
      "ana": 2008,
      "importance": 2009,
      "aria": 2010,
      "formed": 2011,
      "prevention": 2012,
      "infected": 2013,
      "location": 2014,
      "reduction": 2015,
      "binding": 2016,
      "ran": 2017,
      "ise": 2018,
      "change": 2019,
      "posed": 2020,
      "excl": 2021,
      "pathogenesis": 2022,
      "lines": 2023,
      "characteristics": 2024,
      "base": 2025,
      "har": 2026,
      "pical": 2027,
      "hetero": 2028,
      "que": 2029,
      "center": 2030,
      "icient": 2031,
      "diabetic": 2032,
      "bili": 2033,
      "went": 2034,
      "vel": 2035,
      "uries": 2036,
      "hemor": 2037,
      "sleep": 2038,
      "called": 2039,
      "enter": 2040,
      "open": 2041,
      "isolated": 2042,
      "understanding": 2043,
      "document": 2044,
      "relationship": 2045,
      "pharmac": 2046,
      "lit": 2047,
      "later": 2048,
      "tially": 2049,
      "mode": 2050,
      "patic": 2051,
      "super": 2052,
      "ques": 2053,
      "otherap": 2054,
      "products": 2055,
      "bacteria": 2056,
      "joint": 2057,
      "cerebral": 2058,
      "every": 2059,
      "rine": 2060,
      "via": 2061,
      "remain": 2062,
      "let": 2063,
      "perative": 2064,
      "odon": 2065,
      "bodies": 2066,
      "respec": 2067,
      "required": 2068,
      "anal": 2069,
      "tosis": 2070,
      "stra": 2071,
      "host": 2072,
      "compound": 2073,
      "significantly": 2074,
      "flow": 2075,
      "kg": 2076,
      "tle": 2077,
      "hepatic": 2078,
      "older": 2079,
      "olution": 2080,
      "calci": 2081,
      "target": 2082,
      "sco": 2083,
      "congenital": 2084,
      "given": 2085,
      "subjects": 2086,
      "numerous": 2087,
      "cus": 2088,
      "coll": 2089,
      "mean": 2090,
      "cles": 2091,
      "complication": 2092,
      "recurrent": 2093,
      "max": 2094,
      "home": 2095,
      "omas": 2096,
      "spective": 2097,
      "underlying": 2098,
      "enced": 2099,
      "leuk": 2100,
      "adder": 2101,
      "admitted": 2102,
      "living": 2103,
      "rectal": 2104,
      "afric": 2105,
      "retinal": 2106,
      "elevated": 2107,
      "vacc": 2108,
      "itary": 2109,
      "vered": 2110,
      "perit": 2111,
      "bleeding": 2112,
      "appropriate": 2113,
      "hemorrh": 2114,
      "lum": 2115,
      "artic": 2116,
      "lex": 2117,
      "distrib": 2118,
      "compos": 2119,
      "dysp": 2120,
      "growing": 2121,
      "dra": 2122,
      "ling": 2123,
      "vant": 2124,
      "usa": 2125,
      "studied": 2126,
      "bladder": 2127,
      "daily": 2128,
      "identify": 2129,
      "keletal": 2130,
      "tute": 2131,
      "metal": 2132,
      "lipo": 2133,
      "ext": 2134,
      "clinically": 2135,
      "absence": 2136,
      "fil": 2137,
      "mri": 2138,
      "tb": 2139,
      "hood": 2140,
      "persis": 2141,
      "somal": 2142,
      "cyst": 2143,
      "wel": 2144,
      "consti": 2145,
      "genome": 2146,
      "aneury": 2147,
      "classified": 2148,
      "economic": 2149,
      "magnetic": 2150,
      "hes": 2151,
      "ni": 2152,
      "itor": 2153,
      "strong": 2154,
      "publ": 2155,
      "ml": 2156,
      "mio": 2157,
      "ectomy": 2158,
      "late": 2159,
      "ral": 2160,
      "rad": 2161,
      "ites": 2162,
      "beg": 2163,
      "experience": 2164,
      "fluid": 2165,
      "contrast": 2166,
      "kore": 2167,
      "injec": 2168,
      "tili": 2169,
      "ene": 2170,
      "alco": 2171,
      "controlled": 2172,
      "vice": 2173,
      "alter": 2174,
      "mely": 2175,
      "pose": 2176,
      "computed": 2177,
      "tak": 2178,
      "regulation": 2179,
      "undergo": 2180,
      "myocardi": 2181,
      "improved": 2182,
      "injuries": 2183,
      "famili": 2184,
      "bri": 2185,
      "bloc": 2186,
      "fund": 2187,
      "ones": 2188,
      "limb": 2189,
      "involving": 2190,
      "mechanical": 2191,
      "abnormalities": 2192,
      "alcoho": 2193,
      "cp": 2194,
      "access": 2195,
      "moreover": 2196,
      "approved": 2197,
      "presentation": 2198,
      "member": 2199,
      "macro": 2200,
      "temper": 2201,
      "scienti": 2202,
      "chromo": 2203,
      "otherapy": 2204,
      "scan": 2205,
      "tious": 2206,
      "adoles": 2207,
      "corne": 2208,
      "primar": 2209,
      "distinc": 2210,
      "bial": 2211,
      "nano": 2212,
      "tuber": 2213,
      "structural": 2214,
      "published": 2215,
      "aw": 2216,
      "land": 2217,
      "accur": 2218,
      "posto": 2219,
      "detection": 2220,
      "sensitivity": 2221,
      "best": 2222,
      "ats": 2223,
      "connec": 2224,
      "furthermore": 2225,
      "institu": 2226,
      "epithelial": 2227,
      "epidemio": 2228,
      "aneurys": 2229,
      "primarily": 2230,
      "ured": 2231,
      "anesthe": 2232,
      "altern": 2233,
      "neph": 2234,
      "welling": 2235,
      "greater": 2236,
      "periodon": 2237,
      "assessment": 2238,
      "burden": 2239,
      "conventional": 2240,
      "lateral": 2241,
      "kines": 2242,
      "describe": 2243,
      "ium": 2244,
      "aryn": 2245,
      "gran": 2246,
      "includes": 2247,
      "screening": 2248,
      "ian": 2249,
      "atal": 2250,
      "special": 2251,
      "thyl": 2252,
      "defec": 2253,
      "advant": 2254,
      "put": 2255,
      "arth": 2256,
      "dle": 2257,
      "repe": 2258,
      "row": 2259,
      "net": 2260,
      "canal": 2261,
      "tail": 2262,
      "cision": 2263,
      "socie": 2264,
      "infectious": 2265,
      "good": 2266,
      "steroid": 2267,
      "compris": 2268,
      "ficial": 2269,
      "photo": 2270,
      "bp": 2271,
      "rand": 2272,
      "almost": 2273,
      "stability": 2274,
      "plan": 2275,
      "services": 2276,
      "five": 2277,
      "would": 2278,
      "icians": 2279,
      "suggest": 2280,
      "delivery": 2281,
      "pig": 2282,
      "ancies": 2283,
      "atin": 2284,
      "arding": 2285,
      "morpho": 2286,
      "supple": 2287,
      "gland": 2288,
      "collected": 2289,
      "technology": 2290,
      "lay": 2291,
      "repair": 2292,
      "fact": 2293,
      "better": 2294,
      "portion": 2295,
      "mone": 2296,
      "necro": 2297,
      "setting": 2298,
      "etiology": 2299,
      "hd": 2300,
      "otic": 2301,
      "thre": 2302,
      "malaria": 2303,
      "occl": 2304,
      "ocrine": 2305,
      "overall": 2306,
      "mechanism": 2307,
      "laparoscopic": 2308,
      "ai": 2309,
      "adju": 2310,
      "interven": 2311,
      "transi": 2312,
      "junc": 2313,
      "anatom": 2314,
      "iting": 2315,
      "cade": 2316,
      "psych": 2317,
      "synthesis": 2318,
      "reach": 2319,
      "loy": 2320,
      "ression": 2321,
      "seg": 2322,
      "trig": 2323,
      "tub": 2324,
      "postoperative": 2325,
      "acro": 2326,
      "weak": 2327,
      "autoimmune": 2328,
      "rang": 2329,
      "rogen": 2330,
      "six": 2331,
      "emerg": 2332,
      "organs": 2333,
      "lymph": 2334,
      "verte": 2335,
      "obstruction": 2336,
      "blas": 2337,
      "fract": 2338,
      "much": 2339,
      "metastatic": 2340,
      "random": 2341,
      "fin": 2342,
      "ging": 2343,
      "intervention": 2344,
      "spontaneous": 2345,
      "py": 2346,
      "vary": 2347,
      "causing": 2348,
      "treatments": 2349,
      "involves": 2350,
      "balance": 2351,
      "close": 2352,
      "mutations": 2353,
      "components": 2354,
      "american": 2355,
      "administration": 2356,
      "peritone": 2357,
      "mand": 2358,
      "ank": 2359,
      "off": 2360,
      "ago": 2361,
      "lymphoma": 2362,
      "component": 2363,
      "hr": 2364,
      "whe": 2365,
      "ulcer": 2366,
      "effic": 2367,
      "fracture": 2368,
      "vag": 2369,
      "wes": 2370,
      "see": 2371,
      "lied": 2372,
      "cathe": 2373,
      "cavity": 2374,
      "duration": 2375,
      "cry": 2376,
      "pancreatic": 2377,
      "trials": 2378,
      "..": 2379,
      "another": 2380,
      "aspec": 2381,
      "regard": 2382,
      "bilateral": 2383,
      "transplantation": 2384,
      "ues": 2385,
      "quate": 2386,
      "mix": 2387,
      "hs": 2388,
      "reaction": 2389,
      "star": 2390,
      "ula": 2391,
      "amino": 2392,
      "plate": 2393,
      "pathology": 2394,
      "neurological": 2395,
      "ique": 2396,
      "concern": 2397,
      "fractures": 2398,
      "reco": 2399,
      "pap": 2400,
      "verage": 2401,
      "point": 2402,
      "white": 2403,
      "plays": 2404,
      "regarding": 2405,
      "performan": 2406,
      "metastasis": 2407,
      "situ": 2408,
      "middle": 2409,
      "exercise": 2410,
      "half": 2411,
      "unique": 2412,
      "likely": 2413,
      "mediated": 2414,
      "turb": 2415,
      "ema": 2416,
      "vul": 2417,
      "xy": 2418,
      "accomp": 2419,
      "reson": 2420,
      "recor": 2421,
      "traditional": 2422,
      "communic": 2423,
      "pediatric": 2424,
      "participants": 2425,
      "fung": 2426,
      "pass": 2427,
      "wer": 2428,
      "accep": 2429,
      "exis": 2430,
      "expres": 2431,
      "frequency": 2432,
      "event": 2433,
      "thorac": 2434,
      "index": 2435,
      "atheros": 2436,
      "dens": 2437,
      "squ": 2438,
      "stren": 2439,
      "quanti": 2440,
      "presenting": 2441,
      "epis": 2442,
      "provided": 2443,
      "toward": 2444,
      "unit": 2445,
      "adap": 2446,
      "internal": 2447,
      "fix": 2448,
      "occurring": 2449,
      "prevalent": 2450,
      "delay": 2451,
      "respectively": 2452,
      "western": 2453,
      "resonance": 2454,
      "bv": 2455,
      "bol": 2456,
      "ressive": 2457,
      "add": 2458,
      "mentation": 2459,
      "exten": 2460,
      "derived": 2461,
      "mice": 2462,
      "lipid": 2463,
      "glyce": 2464,
      "necessary": 2465,
      "gree": 2466,
      "nic": 2467,
      "swelling": 2468,
      "containing": 2469,
      "sional": 2470,
      "performance": 2471,
      "va": 2472,
      "yet": 2473,
      "att": 2474,
      "rout": 2475,
      "step": 2476,
      "uncommon": 2477,
      "rarely": 2478,
      "streng": 2479,
      "uble": 2480,
      "proposed": 2481,
      "hepat": 2482,
      "disability": 2483,
      "carri": 2484,
      "gue": 2485,
      "suffer": 2486,
      "source": 2487,
      "aor": 2488,
      "fast": 2489,
      "pv": 2490,
      "pes": 2491,
      "encing": 2492,
      "arc": 2493,
      "endocrine": 2494,
      "underwent": 2495,
      "signs": 2496,
      "organic": 2497,
      "tests": 2498,
      "routine": 2499,
      "conser": 2500,
      "clinic": 2501,
      "international": 2502,
      "antibio": 2503,
      "occurrence": 2504,
      "thought": 2505,
      "responses": 2506,
      "childhood": 2507,
      "endothelial": 2508,
      "kne": 2509,
      "nature": 2510,
      "wal": 2511,
      "agent": 2512,
      "influenz": 2513,
      "leng": 2514,
      "objec": 2515,
      "muscles": 2516,
      "enzyme": 2517,
      "tubercul": 2518,
      "rs": 2519,
      "tation": 2520,
      "zing": 2521,
      "movement": 2522,
      "mentary": 2523,
      "increasingly": 2524,
      "solid": 2525,
      "myocardial": 2526,
      "threat": 2527,
      "mber": 2528,
      "real": 2529,
      "populations": 2530,
      "malignancy": 2531,
      "osteo": 2532,
      "impairment": 2533,
      "efficacy": 2534,
      "dri": 2535,
      "nit": 2536,
      "pcr": 2537,
      "represents": 2538,
      "unknown": 2539,
      "monitor": 2540,
      "minimal": 2541,
      "viruses": 2542,
      "cross": 2543,
      "smoking": 2544,
      "proliferation": 2545,
      "accumulation": 2546,
      "hn": 2547,
      "lor": 2548,
      "stable": 2549,
      "loid": 2550,
      "beli": 2551,
      "spe": 2552,
      "izing": 2553,
      "microbial": 2554,
      "anomal": 2555,
      "expected": 2556,
      "pelvic": 2557,
      "confirmed": 2558,
      "adolesc": 2559,
      "strength": 2560,
      "bs": 2561,
      "cin": 2562,
      "utili": 2563,
      "ache": 2564,
      "cystic": 2565,
      "ageal": 2566,
      "mening": 2567,
      "resistant": 2568,
      "models": 2569,
      "ato": 2570,
      "attrib": 2571,
      "agen": 2572,
      "arterial": 2573,
      "whereas": 2574,
      "pathic": 2575,
      "defects": 2576,
      "kine": 2577,
      "intensive": 2578,
      "how": 2579,
      "percent": 2580,
      "interactions": 2581,
      "sequence": 2582,
      "psychological": 2583,
      "acquired": 2584,
      "md": 2585,
      "abo": 2586,
      "spine": 2587,
      "tors": 2588,
      "initially": 2589,
      "amount": 2590,
      "applications": 2591,
      "esophageal": 2592,
      "distinct": 2593,
      "ono": 2594,
      "onia": 2595,
      "colo": 2596,
      "until": 2597,
      "prolong": 2598,
      "meter": 2599,
      "having": 2600,
      "series": 2601,
      "advances": 2602,
      "manifestations": 2603,
      "compounds": 2604,
      "lif": 2605,
      "abili": 2606,
      "extra": 2607,
      "ference": 2608,
      "antibodies": 2609,
      "community": 2610,
      "mild": 2611,
      "reactions": 2612,
      "edema": 2613,
      "round": 2614,
      "acity": 2615,
      "hout": 2616,
      "omen": 2617,
      "generative": 2618,
      "predom": 2619,
      "circul": 2620,
      "differentiation": 2621,
      "introduced": 2622,
      "scale": 2623,
      "influenza": 2624,
      "actic": 2625,
      "did": 2626,
      "terms": 2627,
      "space": 2628,
      "spectr": 2629,
      "transmission": 2630,
      "severity": 2631,
      "must": 2632,
      "requires": 2633,
      "oscopy": 2634,
      "safety": 2635,
      "subsequent": 2636,
      "guidelines": 2637,
      "temperature": 2638,
      "catheter": 2639,
      "coag": 2640,
      "decade": 2641,
      "dimen": 2642,
      "chor": 2643,
      "simple": 2644,
      "surge": 2645,
      "section": 2646,
      "decrease": 2647,
      "approaches": 2648,
      "provides": 2649,
      "week": 2650,
      "hormone": 2651,
      "classification": 2652,
      "hemorrhage": 2653,
      "length": 2654,
      "aired": 2655,
      "pp": 2656,
      "rit": 2657,
      "chy": 2658,
      "impaired": 2659,
      "sample": 2660,
      "enzymes": 2661,
      "received": 2662,
      "peptide": 2663,
      "arthritis": 2664,
      "society": 2665,
      "skeletal": 2666,
      "anne": 2667,
      "chol": 2668,
      "make": 2669,
      "novel": 2670,
      "extern": 2671,
      "detected": 2672,
      "broad": 2673,
      "accounts": 2674,
      "recurrence": 2675,
      "dementi": 2676,
      "stre": 2677,
      "separ": 2678,
      "facial": 2679,
      "veness": 2680,
      "prin": 2681,
      "plasty": 2682,
      "shap": 2683,
      "metastases": 2684,
      "toxicity": 2685,
      "dynamic": 2686,
      "aortic": 2687,
      "ume": 2688,
      "err": 2689,
      "decl": 2690,
      "nod": 2691,
      "ughout": 2692,
      "mye": 2693,
      "throughout": 2694,
      "identification": 2695,
      "iii": 2696,
      "rapidly": 2697,
      "documented": 2698,
      "date": 2699,
      "nia": 2700,
      "pack": 2701,
      "sor": 2702,
      "ros": 2703,
      "degree": 2704,
      "genous": 2705,
      "bowel": 2706,
      "produced": 2707,
      "turn": 2708,
      "phenomen": 2709,
      "signaling": 2710,
      "behavior": 2711,
      "ultrasound": 2712,
      "korea": 2713,
      "external": 2714,
      "toma": 2715,
      "commit": 2716,
      "bron": 2717,
      "auth": 2718,
      "potentially": 2719,
      "challenge": 2720,
      "fill": 2721,
      "rho": 2722,
      "rich": 2723,
      "zy": 2724,
      "leg": 2725,
      "devices": 2726,
      "divid": 2727,
      "resour": 2728,
      "regular": 2729,
      "varian": 2730,
      "metabolism": 2731,
      "vitamin": 2732,
      "nutrition": 2733,
      "concentration": 2734,
      "survey": 2735,
      "dementia": 2736,
      "authors": 2737,
      "ka": 2738,
      "osi": 2739,
      "pto": 2740,
      "determ": 2741,
      "perform": 2742,
      "duce": 2743,
      "therapies": 2744,
      "defini": 2745,
      "possi": 2746,
      "markers": 2747,
      "histological": 2748,
      "suscep": 2749,
      "pneum": 2750,
      "whether": 2751,
      "determine": 2752,
      "uary": 2753,
      "load": 2754,
      "additional": 2755,
      "adhes": 2756,
      "tically": 2757,
      "cord": 2758,
      "healthcare": 2759,
      "copd": 2760,
      "applied": 2761,
      "persons": 2762,
      "volume": 2763,
      "aggressive": 2764,
      "strategies": 2765,
      "fas": 2766,
      "might": 2767,
      "ovarian": 2768,
      "slow": 2769,
      "attemp": 2770,
      "pros": 2771,
      "homo": 2772,
      "activ": 2773,
      "does": 2774,
      "down": 2775,
      "tility": 2776,
      "influence": 2777,
      "corneal": 2778,
      "knee": 2779,
      "basis": 2780,
      "ust": 2781,
      "sions": 2782,
      "tumo": 2783,
      "cessive": 2784,
      "contact": 2785,
      "account": 2786,
      "release": 2787,
      "application": 2788,
      "achieve": 2789,
      "placed": 2790,
      "transcription": 2791,
      "fall": 2792,
      "hcv": 2793,
      "phic": 2794,
      "linked": 2795,
      "nearly": 2796,
      "migr": 2797,
      "taken": 2798,
      "scientific": 2799,
      "aim": 2800,
      "toler": 2801,
      "detail": 2802,
      "person": 2803,
      "determined": 2804,
      "radical": 2805,
      "alternative": 2806,
      "pit": 2807,
      "costs": 2808,
      "ull": 2809,
      "mptomatic": 2810,
      "airway": 2811,
      "ischemic": 2812,
      "recommended": 2813,
      "pse": 2814,
      "prob": 2815,
      "spread": 2816,
      "rati": 2817,
      "upon": 2818,
      "value": 2819,
      "contribute": 2820,
      "extremely": 2821,
      "asp": 2822,
      "distal": 2823,
      "developmental": 2824,
      "cytokines": 2825,
      "testing": 2826,
      "nephro": 2827,
      "density": 2828,
      "categ": 2829,
      "gf": 2830,
      "len": 2831,
      "mption": 2832,
      "disturb": 2833,
      "omy": 2834,
      "polymer": 2835,
      "pathway": 2836,
      "sensory": 2837,
      "employ": 2838,
      "considerable": 2839,
      "asymptomatic": 2840,
      "substanti": 2841,
      "benefits": 2842,
      "across": 2843,
      "tuberculosis": 2844,
      "ba": 2845,
      "denti": 2846,
      "sul": 2847,
      "direc": 2848,
      "mam": 2849,
      "paren": 2850,
      "discus": 2851,
      "recru": 2852,
      "issue": 2853,
      "interventions": 2854,
      "pseud": 2855,
      "orb": 2856,
      "sels": 2857,
      "making": 2858,
      "polar": 2859,
      "suppres": 2860,
      "capacity": 2861,
      "ocytes": 2862,
      "glyco": 2863,
      "peritoneal": 2864,
      "thoracic": 2865,
      "nf": 2866,
      "thick": 2867,
      "asia": 2868,
      "edi": 2869,
      "conf": 2870,
      "neural": 2871,
      "vessels": 2872,
      "colle": 2873,
      "headache": 2874,
      "profes": 2875,
      "cup": 2876,
      "enco": 2877,
      "search": 2878,
      "excessive": 2879,
      "spor": 2880,
      "continuous": 2881,
      "dos": 2882,
      "fem": 2883,
      "ival": 2884,
      "tt": 2885,
      "usual": 2886,
      "degenerative": 2887,
      "sig": 2888,
      "iran": 2889,
      "infarc": 2890,
      "mono": 2891,
      "rise": 2892,
      "antibody": 2893,
      "biopsy": 2894,
      "transfer": 2895,
      "domain": 2896,
      "indicated": 2897,
      "selected": 2898,
      "bile": 2899,
      "fa": 2900,
      "restric": 2901,
      "asth": 2902,
      "educ": 2903,
      "stages": 2904,
      "channe": 2905,
      "amy": 2906,
      "cytes": 2907,
      "training": 2908,
      "cruc": 2909,
      "improvement": 2910,
      "malignancies": 2911,
      "directly": 2912,
      "reflec": 2913,
      "statis": 2914,
      "spectrum": 2915,
      "bra": 2916,
      "eas": 2917,
      "ologic": 2918,
      "rhy": 2919,
      "recon": 2920,
      "reproduc": 2921,
      "anemia": 2922,
      "eno": 2923,
      "truc": 2924,
      "means": 2925,
      "hours": 2926,
      "cysts": 2927,
      "endoscopic": 2928,
      "epid": 2929,
      "choice": 2930,
      "memory": 2931,
      "ophthal": 2932,
      "accepted": 2933,
      "cand": 2934,
      "fs": 2935,
      "assis": 2936,
      "meters": 2937,
      "maintain": 2938,
      "pheno": 2939,
      "institute": 2940,
      "melano": 2941,
      "granul": 2942,
      "lifes": 2943,
      "princi": 2944,
      "rhyth": 2945,
      "flex": 2946,
      "tas": 2947,
      "simul": 2948,
      "genomic": 2949,
      "females": 2950,
      "pathways": 2951,
      "scopy": 2952,
      "strains": 2953,
      "distribution": 2954,
      "alcohol": 2955,
      "suscepti": 2956,
      "fav": 2957,
      "kes": 2958,
      "replacement": 2959,
      "onco": 2960,
      "projec": 2961,
      "methyl": 2962,
      "infil": 2963,
      "cvd": 2964,
      "ito": 2965,
      "mir": 2966,
      "thesis": 2967,
      "choles": 2968,
      "admission": 2969,
      "useful": 2970,
      "typical": 2971,
      "circ": 2972,
      "sepsis": 2973,
      "rhea": 2974,
      "divided": 2975,
      "dg": 2976,
      "reactive": 2977,
      "acts": 2978,
      "uria": 2979,
      "sud": 2980,
      "hearing": 2981,
      "neu": 2982,
      "activated": 2983,
      "variable": 2984,
      "evaluated": 2985,
      "sexual": 2986,
      "recovery": 2987,
      "predominant": 2988,
      "war": 2989,
      "alities": 2990,
      "vein": 2991,
      "seiz": 2992,
      "contrac": 2993,
      "pop": 2994,
      "encephal": 2995,
      "mostly": 2996,
      "tains": 2997,
      "ergic": 2998,
      "traumatic": 2999
    },
    "merges": [
      [
        "i",
        "n"
      ],
      [
        "t",
        "h"
      ],
      [
        "r",
        "e"
      ],
      [
        "a",
        "n"
      ],
      [
        "o",
        "n"
      ],
      [
        "t",
        "i"
      ],
      [
        "e",
        "n"
      ],
      [
        "a",
        "l"
      ],
      [
        "e",
        "r"
      ],
      [
        "th",
        "e"
      ],
      [
        "o",
        "r"
      ],
      [
        "i",
        "s"
      ],
      [
        "a",
        "s"
      ],
      [
        "e",
        "s"
      ],
      [
        "e",
        "d"
      ],
      [
        "o",
        "f"
      ],
      [
        "a",
        "t"
      ],
      [
        "an",
        "d"
      ],
      [
        "a",
        "r"
      ],
      [
        "i",
        "c"
      ],
      [
        "r",
        "o"
      ],
      [
        "ti",
        "on"
      ],
      [
        "t",
        "o"
      ],
      [
        "in",
        "g"
      ],
      [
        "en",
        "t"
      ],
      [
        "s",
        "t"
      ],
      [
        "i",
        "t"
      ],
      [
        "a",
        "c"
      ],
      [
        "l",
        "e"
      ],
      [
        "c",
        "o"
      ],
      [
        "v",
        "e"
      ],
      [
        "u",
        "s"
      ],
      [
        "l",
        "y"
      ],
      [
        "d",
        "e"
      ],
      [
        "a",
        "tion"
      ],
      [
        "u",
        "l"
      ],
      [
        "d",
        "i"
      ],
      [
        "e",
        "c"
      ],
      [
        "l",
        "o"
      ],
      [
        "u",
        "r"
      ],
      [
        "c",
        "e"
      ],
      [
        "w",
        "i"
      ],
      [
        "c",
        "h"
      ],
      [
        "re",
        "s"
      ],
      [
        "u",
        "n"
      ],
      [
        "b",
        "e"
      ],
      [
        "m",
        "p"
      ],
      [
        "f",
        "or"
      ],
      [
        "s",
        "e"
      ],
      [
        "s",
        "i"
      ],
      [
        "wi",
        "th"
      ],
      [
        "p",
        "ro"
      ],
      [
        "m",
        "o"
      ],
      [
        "t",
        "r"
      ],
      [
        "m",
        "e"
      ],
      [
        "m",
        "a"
      ],
      [
        "t",
        "er"
      ],
      [
        "p",
        "a"
      ],
      [
        "a",
        "re"
      ],
      [
        "i",
        "d"
      ],
      [
        "s",
        "u"
      ],
      [
        "a",
        "d"
      ],
      [
        "l",
        "i"
      ],
      [
        "w",
        "e"
      ],
      [
        "c",
        "on"
      ],
      [
        "ti",
        "c"
      ],
      [
        "h",
        "o"
      ],
      [
        "a",
        "b"
      ],
      [
        "a",
        "g"
      ],
      [
        "a",
        "p"
      ],
      [
        "m",
        "ent"
      ],
      [
        "i",
        "l"
      ],
      [
        "v",
        "er"
      ],
      [
        "p",
        "o"
      ],
      [
        "h",
        "e"
      ],
      [
        "ic",
        "al"
      ],
      [
        "n",
        "o"
      ],
      [
        "o",
        "l"
      ],
      [
        "p",
        "er"
      ],
      [
        "d",
        "is"
      ],
      [
        "i",
        "r"
      ],
      [
        "u",
        "t"
      ],
      [
        "it",
        "y"
      ],
      [
        "i",
        "g"
      ],
      [
        "e",
        "x"
      ],
      [
        "c",
        "l"
      ],
      [
        "u",
        "m"
      ],
      [
        "at",
        "ed"
      ],
      [
        "s",
        "o"
      ],
      [
        "l",
        "l"
      ],
      [
        "a",
        "m"
      ],
      [
        "t",
        "s"
      ],
      [
        "n",
        "e"
      ],
      [
        "s",
        "p"
      ],
      [
        "g",
        "en"
      ],
      [
        "b",
        "y"
      ],
      [
        "at",
        "e"
      ],
      [
        "th",
        "at"
      ],
      [
        "as",
        "e"
      ],
      [
        "ti",
        "ve"
      ],
      [
        "pa",
        "ti"
      ],
      [
        "u",
        "c"
      ],
      [
        "q",
        "u"
      ],
      [
        "or",
        "t"
      ],
      [
        "r",
        "i"
      ],
      [
        "f",
        "f"
      ],
      [
        "ent",
        "s"
      ],
      [
        "h",
        "a"
      ],
      [
        "m",
        "al"
      ],
      [
        "i",
        "o"
      ],
      [
        "s",
        "y"
      ],
      [
        "e",
        "ar"
      ],
      [
        "th",
        "er"
      ],
      [
        "h",
        "y"
      ],
      [
        "t",
        "e"
      ],
      [
        "d",
        "er"
      ],
      [
        "c",
        "an"
      ],
      [
        "co",
        "mp"
      ],
      [
        "re",
        "n"
      ],
      [
        "m",
        "m"
      ],
      [
        "an",
        "t"
      ],
      [
        "ro",
        "m"
      ],
      [
        "s",
        "is"
      ],
      [
        "w",
        "h"
      ],
      [
        "e",
        "m"
      ],
      [
        "re",
        "d"
      ],
      [
        "w",
        "as"
      ],
      [
        "es",
        "s"
      ],
      [
        "p",
        "res"
      ],
      [
        "c",
        "i"
      ],
      [
        "ha",
        "ve"
      ],
      [
        "ul",
        "ar"
      ],
      [
        "p",
        "l"
      ],
      [
        "ar",
        "y"
      ],
      [
        "lo",
        "g"
      ],
      [
        "h",
        "as"
      ],
      [
        "in",
        "f"
      ],
      [
        "f",
        "rom"
      ],
      [
        "o",
        "d"
      ],
      [
        "p",
        "re"
      ],
      [
        "u",
        "re"
      ],
      [
        "o",
        "c"
      ],
      [
        "r",
        "a"
      ],
      [
        "o",
        "m"
      ],
      [
        "pati",
        "ents"
      ],
      [
        "t",
        "en"
      ],
      [
        "t",
        "ed"
      ],
      [
        "i",
        "a"
      ],
      [
        "be",
        "en"
      ],
      [
        "in",
        "e"
      ],
      [
        "in",
        "c"
      ],
      [
        "on",
        "e"
      ],
      [
        "ig",
        "h"
      ],
      [
        "c",
        "a"
      ],
      [
        "t",
        "y"
      ],
      [
        "dis",
        "e"
      ],
      [
        "t",
        "or"
      ],
      [
        "en",
        "ce"
      ],
      [
        "g",
        "e"
      ],
      [
        "u",
        "d"
      ],
      [
        "f",
        "e"
      ],
      [
        "u",
        "g"
      ],
      [
        "m",
        "ed"
      ],
      [
        "i",
        "z"
      ],
      [
        "us",
        "e"
      ],
      [
        "p",
        "h"
      ],
      [
        "i",
        "mp"
      ],
      [
        "p",
        "ar"
      ],
      [
        "p",
        "e"
      ],
      [
        "ic",
        "h"
      ],
      [
        "t",
        "re"
      ],
      [
        "i",
        "on"
      ],
      [
        "c",
        "y"
      ],
      [
        "al",
        "ly"
      ],
      [
        "c",
        "er"
      ],
      [
        "ag",
        "e"
      ],
      [
        "th",
        "is"
      ],
      [
        "ation",
        "s"
      ],
      [
        "as",
        "t"
      ],
      [
        "m",
        "an"
      ],
      [
        "ce",
        "ll"
      ],
      [
        "y",
        "ear"
      ],
      [
        "th",
        "o"
      ],
      [
        "wh",
        "ich"
      ],
      [
        "st",
        "r"
      ],
      [
        "f",
        "ic"
      ],
      [
        "al",
        "l"
      ],
      [
        "ti",
        "s"
      ],
      [
        "co",
        "mm"
      ],
      [
        "s",
        "ur"
      ],
      [
        "lo",
        "w"
      ],
      [
        "re",
        "c"
      ],
      [
        "es",
        "t"
      ],
      [
        "we",
        "re"
      ],
      [
        "dise",
        "ase"
      ],
      [
        "m",
        "s"
      ],
      [
        "as",
        "es"
      ],
      [
        "f",
        "ac"
      ],
      [
        "mo",
        "st"
      ],
      [
        "in",
        "s"
      ],
      [
        "i",
        "al"
      ],
      [
        "i",
        "es"
      ],
      [
        "p",
        "ort"
      ],
      [
        "v",
        "al"
      ],
      [
        "o",
        "us"
      ],
      [
        "t",
        "a"
      ],
      [
        "en",
        "d"
      ],
      [
        "si",
        "on"
      ],
      [
        "c",
        "ar"
      ],
      [
        "u",
        "p"
      ],
      [
        "a",
        "y"
      ],
      [
        "g",
        "n"
      ],
      [
        "f",
        "o"
      ],
      [
        "i",
        "b"
      ],
      [
        "on",
        "g"
      ],
      [
        "an",
        "s"
      ],
      [
        "v",
        "i"
      ],
      [
        "b",
        "o"
      ],
      [
        "k",
        "e"
      ],
      [
        "so",
        "ci"
      ],
      [
        "tre",
        "at"
      ],
      [
        "tion",
        "s"
      ],
      [
        "o",
        "b"
      ],
      [
        "o",
        "p"
      ],
      [
        "d",
        "uc"
      ],
      [
        "ff",
        "ec"
      ],
      [
        "c",
        "ur"
      ],
      [
        "ab",
        "le"
      ],
      [
        "o",
        "ut"
      ],
      [
        "inc",
        "re"
      ],
      [
        "m",
        "at"
      ],
      [
        "be",
        "t"
      ],
      [
        "d",
        "es"
      ],
      [
        "in",
        "cl"
      ],
      [
        "g",
        "r"
      ],
      [
        "v",
        "en"
      ],
      [
        "t",
        "ro"
      ],
      [
        "re",
        "port"
      ],
      [
        "an",
        "ce"
      ],
      [
        "a",
        "tive"
      ],
      [
        "lo",
        "p"
      ],
      [
        "su",
        "ch"
      ],
      [
        "o",
        "s"
      ],
      [
        "h",
        "igh"
      ],
      [
        "he",
        "al"
      ],
      [
        "le",
        "c"
      ],
      [
        "m",
        "on"
      ],
      [
        "treat",
        "ment"
      ],
      [
        "ug",
        "h"
      ],
      [
        "un",
        "d"
      ],
      [
        "ve",
        "lop"
      ],
      [
        "cl",
        "in"
      ],
      [
        "comm",
        "on"
      ],
      [
        "de",
        "velop"
      ],
      [
        "or",
        "y"
      ],
      [
        "us",
        "ed"
      ],
      [
        "as",
        "ed"
      ],
      [
        "c",
        "or"
      ],
      [
        "can",
        "cer"
      ],
      [
        "r",
        "is"
      ],
      [
        "w",
        "or"
      ],
      [
        "sp",
        "ec"
      ],
      [
        "un",
        "c"
      ],
      [
        "the",
        "se"
      ],
      [
        "re",
        "g"
      ],
      [
        "t",
        "ing"
      ],
      [
        "heal",
        "th"
      ],
      [
        "l",
        "d"
      ],
      [
        "l",
        "ic"
      ],
      [
        "m",
        "in"
      ],
      [
        "no",
        "t"
      ],
      [
        "su",
        "b"
      ],
      [
        "s",
        "er"
      ],
      [
        "e",
        "t"
      ],
      [
        "for",
        "m"
      ],
      [
        "in",
        "ter"
      ],
      [
        "b",
        "le"
      ],
      [
        "pres",
        "ent"
      ],
      [
        "an",
        "ti"
      ],
      [
        "w",
        "n"
      ],
      [
        "v",
        "ar"
      ],
      [
        "re",
        "l"
      ],
      [
        "a",
        "f"
      ],
      [
        "di",
        "ff"
      ],
      [
        "v",
        "ed"
      ],
      [
        "as",
        "soci"
      ],
      [
        "it",
        "s"
      ],
      [
        "in",
        "v"
      ],
      [
        "ac",
        "h"
      ],
      [
        "d",
        "u"
      ],
      [
        "log",
        "ical"
      ],
      [
        "t",
        "u"
      ],
      [
        "mo",
        "re"
      ],
      [
        "o",
        "ther"
      ],
      [
        "e",
        "p"
      ],
      [
        "the",
        "re"
      ],
      [
        "st",
        "em"
      ],
      [
        "s",
        "ho"
      ],
      [
        "in",
        "al"
      ],
      [
        "en",
        "ti"
      ],
      [
        "an",
        "g"
      ],
      [
        "ac",
        "ter"
      ],
      [
        "v",
        "id"
      ],
      [
        "di",
        "ag"
      ],
      [
        "io",
        "us"
      ],
      [
        "diag",
        "no"
      ],
      [
        "iz",
        "ed"
      ],
      [
        "o",
        "ver"
      ],
      [
        "g",
        "ro"
      ],
      [
        "ec",
        "h"
      ],
      [
        "tr",
        "a"
      ],
      [
        "clin",
        "ical"
      ],
      [
        "b",
        "er"
      ],
      [
        "c",
        "ri"
      ],
      [
        "inf",
        "ec"
      ],
      [
        "as",
        "s"
      ],
      [
        "f",
        "i"
      ],
      [
        "ma",
        "y"
      ],
      [
        "s",
        "a"
      ],
      [
        "m",
        "ic"
      ],
      [
        "ren",
        "t"
      ],
      [
        "res",
        "p"
      ],
      [
        "t",
        "al"
      ],
      [
        "incl",
        "ud"
      ],
      [
        "l",
        "es"
      ],
      [
        "u",
        "di"
      ],
      [
        "f",
        "unc"
      ],
      [
        "p",
        "ul"
      ],
      [
        "d",
        "ing"
      ],
      [
        "di",
        "a"
      ],
      [
        "sy",
        "stem"
      ],
      [
        "ther",
        "ap"
      ],
      [
        "ti",
        "es"
      ],
      [
        "p",
        "ri"
      ],
      [
        "i",
        "fic"
      ],
      [
        "ac",
        "ti"
      ],
      [
        "fac",
        "tor"
      ],
      [
        "b",
        "r"
      ],
      [
        "v",
        "ir"
      ],
      [
        "st",
        "udi"
      ],
      [
        "t",
        "um"
      ],
      [
        "l",
        "u"
      ],
      [
        "u",
        "al"
      ],
      [
        "c",
        "ess"
      ],
      [
        "h",
        "is"
      ],
      [
        "m",
        "ul"
      ],
      [
        "year",
        "s"
      ],
      [
        "at",
        "es"
      ],
      [
        "al",
        "so"
      ],
      [
        "d",
        "ur"
      ],
      [
        "pati",
        "ent"
      ],
      [
        "er",
        "s"
      ],
      [
        "associ",
        "ated"
      ],
      [
        "or",
        "s"
      ],
      [
        "c",
        "ent"
      ],
      [
        "ho",
        "we"
      ],
      [
        "howe",
        "ver"
      ],
      [
        "sur",
        "g"
      ],
      [
        "ol",
        "d"
      ],
      [
        "i",
        "m"
      ],
      [
        "b",
        "io"
      ],
      [
        "un",
        "der"
      ],
      [
        "res",
        "ul"
      ],
      [
        "m",
        "y"
      ],
      [
        "report",
        "ed"
      ],
      [
        "si",
        "ve"
      ],
      [
        "in",
        "ed"
      ],
      [
        "pro",
        "te"
      ],
      [
        "sy",
        "n"
      ],
      [
        "re",
        "qu"
      ],
      [
        "tr",
        "ans"
      ],
      [
        "c",
        "re"
      ],
      [
        "p",
        "hy"
      ],
      [
        "ris",
        "k"
      ],
      [
        "c",
        "es"
      ],
      [
        "il",
        "ity"
      ],
      [
        "the",
        "ir"
      ],
      [
        "tr",
        "ac"
      ],
      [
        "d",
        "o"
      ],
      [
        "igh",
        "t"
      ],
      [
        "ch",
        "ar"
      ],
      [
        "ap",
        "pro"
      ],
      [
        "tion",
        "al"
      ],
      [
        "co",
        "un"
      ],
      [
        "gen",
        "er"
      ],
      [
        "it",
        "al"
      ],
      [
        "or",
        "der"
      ],
      [
        "si",
        "gn"
      ],
      [
        "e",
        "ffec"
      ],
      [
        "cell",
        "s"
      ],
      [
        "b",
        "ut"
      ],
      [
        "d",
        "r"
      ],
      [
        "il",
        "l"
      ],
      [
        "studi",
        "es"
      ],
      [
        "ma",
        "in"
      ],
      [
        "i",
        "mm"
      ],
      [
        "s",
        "ed"
      ],
      [
        "af",
        "ter"
      ],
      [
        "al",
        "ity"
      ],
      [
        "lo",
        "c"
      ],
      [
        "we",
        "ll"
      ],
      [
        "v",
        "as"
      ],
      [
        "w",
        "o"
      ],
      [
        "st",
        "ud"
      ],
      [
        "d",
        "ro"
      ],
      [
        "an",
        "e"
      ],
      [
        "s",
        "ec"
      ],
      [
        "p",
        "r"
      ],
      [
        "imp",
        "ort"
      ],
      [
        "str",
        "uc"
      ],
      [
        "th",
        "an"
      ],
      [
        "oc",
        "cur"
      ],
      [
        "c",
        "r"
      ],
      [
        "u",
        "ro"
      ],
      [
        "f",
        "ir"
      ],
      [
        "co",
        "m"
      ],
      [
        "n",
        "a"
      ],
      [
        "or",
        "g"
      ],
      [
        "diff",
        "e"
      ],
      [
        "me",
        "t"
      ],
      [
        "r",
        "on"
      ],
      [
        "c",
        "ases"
      ],
      [
        "dur",
        "ing"
      ],
      [
        "k",
        "no"
      ],
      [
        "ig",
        "n"
      ],
      [
        "c",
        "ular"
      ],
      [
        "log",
        "y"
      ],
      [
        "it",
        "e"
      ],
      [
        "n",
        "on"
      ],
      [
        "il",
        "d"
      ],
      [
        "ut",
        "e"
      ],
      [
        "i",
        "de"
      ],
      [
        "n",
        "or"
      ],
      [
        "ar",
        "d"
      ],
      [
        "at",
        "er"
      ],
      [
        "w",
        "ho"
      ],
      [
        "ce",
        "p"
      ],
      [
        "m",
        "ar"
      ],
      [
        "imm",
        "un"
      ],
      [
        "l",
        "s"
      ],
      [
        "gen",
        "e"
      ],
      [
        "stud",
        "y"
      ],
      [
        "c",
        "ed"
      ],
      [
        "th",
        "y"
      ],
      [
        "includ",
        "ing"
      ],
      [
        "du",
        "e"
      ],
      [
        "pa",
        "tho"
      ],
      [
        "l",
        "ar"
      ],
      [
        "at",
        "ing"
      ],
      [
        "ho",
        "sp"
      ],
      [
        "char",
        "acter"
      ],
      [
        "d",
        "y"
      ],
      [
        "s",
        "s"
      ],
      [
        "in",
        "o"
      ],
      [
        "we",
        "en"
      ],
      [
        "s",
        "ti"
      ],
      [
        "bet",
        "ween"
      ],
      [
        "c",
        "are"
      ],
      [
        "a",
        "u"
      ],
      [
        "per",
        "i"
      ],
      [
        "tho",
        "ugh"
      ],
      [
        "n",
        "um"
      ],
      [
        "r",
        "ic"
      ],
      [
        "wor",
        "ld"
      ],
      [
        "h",
        "um"
      ],
      [
        "wi",
        "de"
      ],
      [
        "i",
        "f"
      ],
      [
        "l",
        "am"
      ],
      [
        "hy",
        "per"
      ],
      [
        "ty",
        "pe"
      ],
      [
        "le",
        "ad"
      ],
      [
        "v",
        "es"
      ],
      [
        "dis",
        "order"
      ],
      [
        "man",
        "y"
      ],
      [
        "vas",
        "cular"
      ],
      [
        "i",
        "le"
      ],
      [
        "de",
        "f"
      ],
      [
        "therap",
        "y"
      ],
      [
        "tis",
        "su"
      ],
      [
        "di",
        "o"
      ],
      [
        "so",
        "me"
      ],
      [
        "ent",
        "ly"
      ],
      [
        "is",
        "h"
      ],
      [
        "import",
        "ant"
      ],
      [
        "resp",
        "on"
      ],
      [
        "i",
        "p"
      ],
      [
        "f",
        "ol"
      ],
      [
        "ch",
        "ild"
      ],
      [
        "al",
        "y"
      ],
      [
        "c",
        "ase"
      ],
      [
        "v",
        "ity"
      ],
      [
        "pro",
        "duc"
      ],
      [
        "f",
        "er"
      ],
      [
        "th",
        "ro"
      ],
      [
        "a",
        "il"
      ],
      [
        "org",
        "an"
      ],
      [
        "i",
        "e"
      ],
      [
        "mp",
        "to"
      ],
      [
        "ver",
        "y"
      ],
      [
        "m",
        "or"
      ],
      [
        "k",
        "in"
      ],
      [
        "l",
        "ong"
      ],
      [
        "v",
        "is"
      ],
      [
        "p",
        "le"
      ],
      [
        "j",
        "or"
      ],
      [
        "pl",
        "as"
      ],
      [
        "ca",
        "use"
      ],
      [
        "ment",
        "s"
      ],
      [
        "gr",
        "ap"
      ],
      [
        "m",
        "it"
      ],
      [
        "ch",
        "ron"
      ],
      [
        "a",
        "v"
      ],
      [
        "fir",
        "st"
      ],
      [
        "ma",
        "jor"
      ],
      [
        "inv",
        "ol"
      ],
      [
        "ti",
        "m"
      ],
      [
        "co",
        "l"
      ],
      [
        "pa",
        "in"
      ],
      [
        "ab",
        "ility"
      ],
      [
        "ac",
        "t"
      ],
      [
        "comp",
        "le"
      ],
      [
        "se",
        "ver"
      ],
      [
        "er",
        "y"
      ],
      [
        "si",
        "de"
      ],
      [
        "inf",
        "lam"
      ],
      [
        "b",
        "l"
      ],
      [
        "pro",
        "g"
      ],
      [
        "in",
        "t"
      ],
      [
        "un",
        "g"
      ],
      [
        "mul",
        "ti"
      ],
      [
        "re",
        "e"
      ],
      [
        "t",
        "wo"
      ],
      [
        "con",
        "t"
      ],
      [
        "h",
        "ad"
      ],
      [
        "us",
        "ing"
      ],
      [
        "c",
        "le"
      ],
      [
        "ti",
        "al"
      ],
      [
        "b",
        "ec"
      ],
      [
        "po",
        "pul"
      ],
      [
        "factor",
        "s"
      ],
      [
        "p",
        "ec"
      ],
      [
        "bet",
        "es"
      ],
      [
        "dia",
        "betes"
      ],
      [
        "co",
        "p"
      ],
      [
        "m",
        "il"
      ],
      [
        "a",
        "th"
      ],
      [
        "r",
        "are"
      ],
      [
        "se",
        "qu"
      ],
      [
        "s",
        "h"
      ],
      [
        "he",
        "re"
      ],
      [
        "kno",
        "wn"
      ],
      [
        "di",
        "tion"
      ],
      [
        "ur",
        "al"
      ],
      [
        "po",
        "s"
      ],
      [
        "nor",
        "mal"
      ],
      [
        "v",
        "ing"
      ],
      [
        "ac",
        "k"
      ],
      [
        "des",
        "cri"
      ],
      [
        "o",
        "ur"
      ],
      [
        "b",
        "lo"
      ],
      [
        "t",
        "ech"
      ],
      [
        "en",
        "s"
      ],
      [
        "o",
        "x"
      ],
      [
        "is",
        "t"
      ],
      [
        "bo",
        "th"
      ],
      [
        "am",
        "ong"
      ],
      [
        "chron",
        "ic"
      ],
      [
        "a",
        "ffec"
      ],
      [
        "dr",
        "ug"
      ],
      [
        "ty",
        "p"
      ],
      [
        "func",
        "tion"
      ],
      [
        "on",
        "d"
      ],
      [
        "par",
        "tic"
      ],
      [
        "pre",
        "v"
      ],
      [
        "e",
        "l"
      ],
      [
        "blo",
        "od"
      ],
      [
        "bec",
        "a"
      ],
      [
        "fol",
        "low"
      ],
      [
        "fo",
        "re"
      ],
      [
        "in",
        "to"
      ],
      [
        "con",
        "tro"
      ],
      [
        "sy",
        "mpto"
      ],
      [
        "inc",
        "id"
      ],
      [
        "develop",
        "ment"
      ],
      [
        "the",
        "y"
      ],
      [
        "j",
        "ec"
      ],
      [
        "ne",
        "uro"
      ],
      [
        "i",
        "ly"
      ],
      [
        "rel",
        "ated"
      ],
      [
        "dise",
        "ases"
      ],
      [
        "s",
        "in"
      ],
      [
        "on",
        "ly"
      ],
      [
        "le",
        "ve"
      ],
      [
        "w",
        "om"
      ],
      [
        "m",
        "i"
      ],
      [
        "incre",
        "ased"
      ],
      [
        "u",
        "res"
      ],
      [
        "at",
        "ure"
      ],
      [
        "ac",
        "e"
      ],
      [
        "ion",
        "s"
      ],
      [
        "c",
        "ul"
      ],
      [
        "f",
        "r"
      ],
      [
        "su",
        "p"
      ],
      [
        "ma",
        "g"
      ],
      [
        "f",
        "t"
      ],
      [
        "num",
        "ber"
      ],
      [
        "ul",
        "d"
      ],
      [
        "m",
        "en"
      ],
      [
        "in",
        "ation"
      ],
      [
        "mic",
        "ro"
      ],
      [
        "sign",
        "ific"
      ],
      [
        "ay",
        "s"
      ],
      [
        "beca",
        "use"
      ],
      [
        "f",
        "ul"
      ],
      [
        "sever",
        "al"
      ],
      [
        "ti",
        "me"
      ],
      [
        "po",
        "st"
      ],
      [
        "n",
        "ess"
      ],
      [
        "o",
        "sis"
      ],
      [
        "at",
        "ory"
      ],
      [
        "st",
        "e"
      ],
      [
        "comp",
        "lic"
      ],
      [
        "ne",
        "w"
      ],
      [
        "m",
        "us"
      ],
      [
        "u",
        "ally"
      ],
      [
        "med",
        "ical"
      ],
      [
        "al",
        "though"
      ],
      [
        "g",
        "o"
      ],
      [
        "b",
        "ed"
      ],
      [
        "li",
        "fe"
      ],
      [
        "fi",
        "ed"
      ],
      [
        "d",
        "a"
      ],
      [
        "c",
        "al"
      ],
      [
        "l",
        "a"
      ],
      [
        "tum",
        "or"
      ],
      [
        "k",
        "ing"
      ],
      [
        "prote",
        "in"
      ],
      [
        "ate",
        "ly"
      ],
      [
        "t",
        "ure"
      ],
      [
        "form",
        "ation"
      ],
      [
        "in",
        "i"
      ],
      [
        "n",
        "er"
      ],
      [
        "in",
        "d"
      ],
      [
        "infec",
        "tion"
      ],
      [
        "dro",
        "me"
      ],
      [
        "syn",
        "drome"
      ],
      [
        "b",
        "ased"
      ],
      [
        "mal",
        "e"
      ],
      [
        "pre",
        "val"
      ],
      [
        "popul",
        "ation"
      ],
      [
        "i",
        "v"
      ],
      [
        "in",
        "di"
      ],
      [
        "th",
        "od"
      ],
      [
        "an",
        "ts"
      ],
      [
        "n",
        "ec"
      ],
      [
        "i",
        "li"
      ],
      [
        "pro",
        "cess"
      ],
      [
        "ch",
        "em"
      ],
      [
        "ta",
        "in"
      ],
      [
        "iz",
        "ation"
      ],
      [
        "h",
        "er"
      ],
      [
        "ra",
        "in"
      ],
      [
        "st",
        "and"
      ],
      [
        "diagno",
        "sis"
      ],
      [
        "ter",
        "n"
      ],
      [
        "hosp",
        "ital"
      ],
      [
        "signific",
        "ant"
      ],
      [
        "or",
        "al"
      ],
      [
        "tic",
        "al"
      ],
      [
        "i",
        "qu"
      ],
      [
        "it",
        "er"
      ],
      [
        "hum",
        "an"
      ],
      [
        "val",
        "u"
      ],
      [
        "su",
        "re"
      ],
      [
        "m",
        "ort"
      ],
      [
        "sho",
        "w"
      ],
      [
        "tissu",
        "e"
      ],
      [
        "surg",
        "ery"
      ],
      [
        "p",
        "or"
      ],
      [
        "us",
        "es"
      ],
      [
        "t",
        "es"
      ],
      [
        "incid",
        "ence"
      ],
      [
        "d",
        "at"
      ],
      [
        "ation",
        "al"
      ],
      [
        "wh",
        "en"
      ],
      [
        "gro",
        "up"
      ],
      [
        "ur",
        "y"
      ],
      [
        "pri",
        "m"
      ],
      [
        "is",
        "m"
      ],
      [
        "ma",
        "tic"
      ],
      [
        "p",
        "end"
      ],
      [
        "m",
        "is"
      ],
      [
        "id",
        "enti"
      ],
      [
        "ch",
        "o"
      ],
      [
        "tor",
        "y"
      ],
      [
        "od",
        "y"
      ],
      [
        "b",
        "re"
      ],
      [
        "li",
        "g"
      ],
      [
        "gro",
        "w"
      ],
      [
        "character",
        "ized"
      ],
      [
        "de",
        "ath"
      ],
      [
        "ment",
        "al"
      ],
      [
        "per",
        "for"
      ],
      [
        "as",
        "ing"
      ],
      [
        "mort",
        "ality"
      ],
      [
        "l",
        "ess"
      ],
      [
        "d",
        "om"
      ],
      [
        "ac",
        "ute"
      ],
      [
        "ab",
        "out"
      ],
      [
        "diffe",
        "rent"
      ],
      [
        "of",
        "ten"
      ],
      [
        "imp",
        "ro"
      ],
      [
        "b",
        "ody"
      ],
      [
        "p",
        "u"
      ],
      [
        "f",
        "requ"
      ],
      [
        "cent",
        "r"
      ],
      [
        "p",
        "sy"
      ],
      [
        "ar",
        "t"
      ],
      [
        "g",
        "l"
      ],
      [
        "li",
        "ke"
      ],
      [
        "i",
        "mal"
      ],
      [
        "k",
        "s"
      ],
      [
        "lar",
        "ge"
      ],
      [
        "v",
        "ic"
      ],
      [
        "sympto",
        "ms"
      ],
      [
        "var",
        "i"
      ],
      [
        "ar",
        "ter"
      ],
      [
        "me",
        "thod"
      ],
      [
        "child",
        "ren"
      ],
      [
        "r",
        "ate"
      ],
      [
        "t",
        "ec"
      ],
      [
        "ech",
        "an"
      ],
      [
        "ical",
        "ly"
      ],
      [
        "prim",
        "ary"
      ],
      [
        "ad",
        "ul"
      ],
      [
        "tr",
        "ib"
      ],
      [
        "ad",
        "v"
      ],
      [
        "m",
        "echan"
      ],
      [
        "gen",
        "es"
      ],
      [
        "ly",
        "mp"
      ],
      [
        "prog",
        "res"
      ],
      [
        "re",
        "st"
      ],
      [
        "coun",
        "tr"
      ],
      [
        "phy",
        "s"
      ],
      [
        "par",
        "t"
      ],
      [
        "tr",
        "an"
      ],
      [
        "me",
        "m"
      ],
      [
        "po",
        "si"
      ],
      [
        "b",
        "one"
      ],
      [
        "co",
        "me"
      ],
      [
        "in",
        "j"
      ],
      [
        "res",
        "ear"
      ],
      [
        "var",
        "ious"
      ],
      [
        "resear",
        "ch"
      ],
      [
        "s",
        "ing"
      ],
      [
        "g",
        "u"
      ],
      [
        "i",
        "or"
      ],
      [
        "ap",
        "p"
      ],
      [
        "li",
        "on"
      ],
      [
        "thro",
        "ugh"
      ],
      [
        "po",
        "ten"
      ],
      [
        "med",
        "ic"
      ],
      [
        "indi",
        "vid"
      ],
      [
        "en",
        "cy"
      ],
      [
        "red",
        "uc"
      ],
      [
        "it",
        "ed"
      ],
      [
        "ic",
        "i"
      ],
      [
        "e",
        "v"
      ],
      [
        "g",
        "es"
      ],
      [
        "b",
        "en"
      ],
      [
        "u",
        "de"
      ],
      [
        "wom",
        "en"
      ],
      [
        "e",
        "w"
      ],
      [
        "pro",
        "ble"
      ],
      [
        "surg",
        "ical"
      ],
      [
        "sec",
        "ond"
      ],
      [
        "preval",
        "ence"
      ],
      [
        "an",
        "ge"
      ],
      [
        "ear",
        "ly"
      ],
      [
        "individ",
        "ual"
      ],
      [
        "fo",
        "und"
      ],
      [
        "his",
        "tory"
      ],
      [
        "spec",
        "ific"
      ],
      [
        "ter",
        "m"
      ],
      [
        "mo",
        "lec"
      ],
      [
        "d",
        "s"
      ],
      [
        "lo",
        "ss"
      ],
      [
        "incre",
        "asing"
      ],
      [
        "a",
        "in"
      ],
      [
        "ve",
        "re"
      ],
      [
        "po",
        "ly"
      ],
      [
        "se",
        "t"
      ],
      [
        "de",
        "pend"
      ],
      [
        "ren",
        "al"
      ],
      [
        "grap",
        "hy"
      ],
      [
        "sin",
        "ce"
      ],
      [
        "mat",
        "ory"
      ],
      [
        "tech",
        "n"
      ],
      [
        "inflam",
        "matory"
      ],
      [
        "o",
        "id"
      ],
      [
        "x",
        "im"
      ],
      [
        "us",
        "ion"
      ],
      [
        "dat",
        "a"
      ],
      [
        "on",
        "s"
      ],
      [
        "rec",
        "ent"
      ],
      [
        "g",
        "ra"
      ],
      [
        "s",
        "ol"
      ],
      [
        "si",
        "ble"
      ],
      [
        "ex",
        "peri"
      ],
      [
        "co",
        "gn"
      ],
      [
        "tic",
        "s"
      ],
      [
        "an",
        "aly"
      ],
      [
        "le",
        "ft"
      ],
      [
        "prev",
        "ious"
      ],
      [
        "se",
        "vere"
      ],
      [
        "m",
        "u"
      ],
      [
        "car",
        "dio"
      ],
      [
        "l",
        "in"
      ],
      [
        "f",
        "am"
      ],
      [
        "per",
        "io"
      ],
      [
        "g",
        "lo"
      ],
      [
        "med",
        "i"
      ],
      [
        "descri",
        "bed"
      ],
      [
        "mon",
        "th"
      ],
      [
        "vi",
        "ew"
      ],
      [
        "li",
        "ver"
      ],
      [
        "o",
        "und"
      ],
      [
        "as",
        "is"
      ],
      [
        "pres",
        "sion"
      ],
      [
        "an",
        "o"
      ],
      [
        "er",
        "g"
      ],
      [
        "countr",
        "ies"
      ],
      [
        "ro",
        "le"
      ],
      [
        "ex",
        "am"
      ],
      [
        "mal",
        "ign"
      ],
      [
        "tum",
        "ors"
      ],
      [
        "a",
        "k"
      ],
      [
        "w",
        "here"
      ],
      [
        "r",
        "ight"
      ],
      [
        "pro",
        "ced"
      ],
      [
        "g",
        "i"
      ],
      [
        "ac",
        "c"
      ],
      [
        "op",
        "le"
      ],
      [
        "ab",
        "ol"
      ],
      [
        "au",
        "to"
      ],
      [
        "cur",
        "rent"
      ],
      [
        "s",
        "es"
      ],
      [
        "to",
        "my"
      ],
      [
        "tr",
        "ic"
      ],
      [
        "c",
        "is"
      ],
      [
        "wh",
        "ile"
      ],
      [
        "pe",
        "ople"
      ],
      [
        "s",
        "mal"
      ],
      [
        "requ",
        "i"
      ],
      [
        "m",
        "ac"
      ],
      [
        "p",
        "an"
      ],
      [
        "y",
        "o"
      ],
      [
        "ang",
        "es"
      ],
      [
        "in",
        "te"
      ],
      [
        "us",
        "ually"
      ],
      [
        "disorder",
        "s"
      ],
      [
        "ren",
        "ce"
      ],
      [
        "present",
        "ed"
      ],
      [
        "effec",
        "ts"
      ],
      [
        "b",
        "al"
      ],
      [
        "f",
        "ib"
      ],
      [
        "f",
        "ig"
      ],
      [
        "as",
        "i"
      ],
      [
        "with",
        "in"
      ],
      [
        "incl",
        "ude"
      ],
      [
        "a",
        "ir"
      ],
      [
        "g",
        "re"
      ],
      [
        "ane",
        "ous"
      ],
      [
        "b",
        "rain"
      ],
      [
        "m",
        "ass"
      ],
      [
        "e",
        "lec"
      ],
      [
        "ab",
        "l"
      ],
      [
        "incre",
        "ase"
      ],
      [
        "o",
        "per"
      ],
      [
        "met",
        "abol"
      ],
      [
        "immun",
        "e"
      ],
      [
        "an",
        "y"
      ],
      [
        "mat",
        "er"
      ],
      [
        "i",
        "i"
      ],
      [
        "o",
        "ph"
      ],
      [
        "tu",
        "res"
      ],
      [
        "b",
        "acter"
      ],
      [
        "resul",
        "ts"
      ],
      [
        "smal",
        "l"
      ],
      [
        "i",
        "mag"
      ],
      [
        "car",
        "c"
      ],
      [
        "t",
        "ur"
      ],
      [
        "con",
        "side"
      ],
      [
        "conside",
        "red"
      ],
      [
        "f",
        "ail"
      ],
      [
        "acti",
        "vity"
      ],
      [
        "e",
        "f"
      ],
      [
        "s",
        "en"
      ],
      [
        "ob",
        "es"
      ],
      [
        "techn",
        "iqu"
      ],
      [
        "ish",
        "ed"
      ],
      [
        "is",
        "ms"
      ],
      [
        "multi",
        "ple"
      ],
      [
        "d",
        "en"
      ],
      [
        "s",
        "tic"
      ],
      [
        "ul",
        "ation"
      ],
      [
        "contro",
        "l"
      ],
      [
        "mil",
        "lion"
      ],
      [
        "ac",
        "cor"
      ],
      [
        "hy",
        "po"
      ],
      [
        "ul",
        "in"
      ],
      [
        "su",
        "g"
      ],
      [
        "appro",
        "xim"
      ],
      [
        "m",
        "es"
      ],
      [
        "d",
        "ent"
      ],
      [
        "de",
        "l"
      ],
      [
        "li",
        "mit"
      ],
      [
        "cy",
        "to"
      ],
      [
        "h",
        "ib"
      ],
      [
        "in",
        "ding"
      ],
      [
        "l",
        "ant"
      ],
      [
        "te",
        "mp"
      ],
      [
        "me",
        "as"
      ],
      [
        "sho",
        "wn"
      ],
      [
        "diagno",
        "sed"
      ],
      [
        "low",
        "er"
      ],
      [
        "c",
        "c"
      ],
      [
        "e",
        "u"
      ],
      [
        "th",
        "ree"
      ],
      [
        "ne",
        "ed"
      ],
      [
        "mp",
        "le"
      ],
      [
        "e",
        "valu"
      ],
      [
        "u",
        "tion"
      ],
      [
        "ab",
        "dom"
      ],
      [
        "end",
        "o"
      ],
      [
        "resul",
        "t"
      ],
      [
        "vir",
        "on"
      ],
      [
        "gene",
        "tic"
      ],
      [
        "en",
        "viron"
      ],
      [
        "res",
        "ist"
      ],
      [
        "ve",
        "ment"
      ],
      [
        "approxim",
        "ately"
      ],
      [
        "es",
        "tim"
      ],
      [
        "p",
        "ho"
      ],
      [
        "develop",
        "ed"
      ],
      [
        "ver",
        "s"
      ],
      [
        "typ",
        "es"
      ],
      [
        "complic",
        "ations"
      ],
      [
        "man",
        "age"
      ],
      [
        "an",
        "cy"
      ],
      [
        "log",
        "ic"
      ],
      [
        "i",
        "ties"
      ],
      [
        "vir",
        "us"
      ],
      [
        "c",
        "ap"
      ],
      [
        "gener",
        "al"
      ],
      [
        "grow",
        "th"
      ],
      [
        "perio",
        "d"
      ],
      [
        "e",
        "mo"
      ],
      [
        "f",
        "lu"
      ],
      [
        "ca",
        "used"
      ],
      [
        "the",
        "li"
      ],
      [
        "z",
        "e"
      ],
      [
        "with",
        "out"
      ],
      [
        "fic",
        "ation"
      ],
      [
        "ra",
        "di"
      ],
      [
        "ca",
        "uses"
      ],
      [
        "partic",
        "ular"
      ],
      [
        "ten",
        "sion"
      ],
      [
        "p",
        "red"
      ],
      [
        "met",
        "ast"
      ],
      [
        "world",
        "wide"
      ],
      [
        "e",
        "vid"
      ],
      [
        "en",
        "z"
      ],
      [
        "ag",
        "es"
      ],
      [
        "diffe",
        "ren"
      ],
      [
        "lead",
        "ing"
      ],
      [
        "phys",
        "ical"
      ],
      [
        "ac",
        "id"
      ],
      [
        "os",
        "cop"
      ],
      [
        "p",
        "at"
      ],
      [
        "tr",
        "i"
      ],
      [
        "wor",
        "k"
      ],
      [
        "comple",
        "x"
      ],
      [
        "l",
        "ed"
      ],
      [
        "accor",
        "ding"
      ],
      [
        "b",
        "id"
      ],
      [
        "cep",
        "tor"
      ],
      [
        "def",
        "ined"
      ],
      [
        "a",
        "tic"
      ],
      [
        "v",
        "ation"
      ],
      [
        "st",
        "ate"
      ],
      [
        "tho",
        "se"
      ],
      [
        "re",
        "t"
      ],
      [
        "ac",
        "tion"
      ],
      [
        "o",
        "logical"
      ],
      [
        "s",
        "kin"
      ],
      [
        "uc",
        "le"
      ],
      [
        "perfor",
        "med"
      ],
      [
        "st",
        "ro"
      ],
      [
        "be",
        "ing"
      ],
      [
        "prote",
        "ins"
      ],
      [
        "in",
        "tra"
      ],
      [
        "li",
        "p"
      ],
      [
        "cont",
        "in"
      ],
      [
        "l",
        "ung"
      ],
      [
        "ch",
        "anges"
      ],
      [
        "e",
        "y"
      ],
      [
        "ti",
        "g"
      ],
      [
        "we",
        "ight"
      ],
      [
        "de",
        "tec"
      ],
      [
        "sur",
        "vi"
      ],
      [
        "in",
        "duc"
      ],
      [
        "c",
        "t"
      ],
      [
        "re",
        "ceptor"
      ],
      [
        "ti",
        "l"
      ],
      [
        "de",
        "cre"
      ],
      [
        "rec",
        "t"
      ],
      [
        "manage",
        "ment"
      ],
      [
        "com",
        "b"
      ],
      [
        "gen",
        "ic"
      ],
      [
        "ino",
        "ma"
      ],
      [
        "res",
        "s"
      ],
      [
        "poten",
        "tial"
      ],
      [
        "he",
        "art"
      ],
      [
        "om",
        "ic"
      ],
      [
        "dy",
        "s"
      ],
      [
        "tran",
        "sp"
      ],
      [
        "mar",
        "k"
      ],
      [
        "ac",
        "tive"
      ],
      [
        "thy",
        "ro"
      ],
      [
        "f",
        "ur"
      ],
      [
        "common",
        "ly"
      ],
      [
        "int",
        "est"
      ],
      [
        "l",
        "ine"
      ],
      [
        "l",
        "iter"
      ],
      [
        "car",
        "di"
      ],
      [
        "e",
        "th"
      ],
      [
        "se",
        "l"
      ],
      [
        "ter",
        "min"
      ],
      [
        "c",
        "s"
      ],
      [
        "ater",
        "al"
      ],
      [
        "follow",
        "ing"
      ],
      [
        "e",
        "le"
      ],
      [
        "to",
        "x"
      ],
      [
        "su",
        "c"
      ],
      [
        "fe",
        "w"
      ],
      [
        "s",
        "to"
      ],
      [
        "ob",
        "ser"
      ],
      [
        "leve",
        "ls"
      ],
      [
        "pa",
        "th"
      ],
      [
        "respon",
        "se"
      ],
      [
        "show",
        "ed"
      ],
      [
        "inj",
        "ury"
      ],
      [
        "bre",
        "ast"
      ],
      [
        "er",
        "ic"
      ],
      [
        "qu",
        "ality"
      ],
      [
        "pl",
        "ic"
      ],
      [
        "o",
        "t"
      ],
      [
        "t",
        "ar"
      ],
      [
        "imag",
        "ing"
      ],
      [
        "ve",
        "al"
      ],
      [
        "centr",
        "al"
      ],
      [
        "i",
        "ally"
      ],
      [
        "ad",
        "dition"
      ],
      [
        "loc",
        "al"
      ],
      [
        "ind",
        "ic"
      ],
      [
        "s",
        "it"
      ],
      [
        "di",
        "tions"
      ],
      [
        "appro",
        "ach"
      ],
      [
        "fail",
        "ure"
      ],
      [
        "ab",
        "s"
      ],
      [
        "mus",
        "cle"
      ],
      [
        "an",
        "imal"
      ],
      [
        "ver",
        "se"
      ],
      [
        "oc",
        "y"
      ],
      [
        "con",
        "ditions"
      ],
      [
        "reg",
        "ion"
      ],
      [
        "func",
        "tional"
      ],
      [
        "av",
        "ail"
      ],
      [
        "ut",
        "ed"
      ],
      [
        "ins",
        "ulin"
      ],
      [
        "mater",
        "ial"
      ],
      [
        "h",
        "t"
      ],
      [
        "s",
        "he"
      ],
      [
        "de",
        "fic"
      ],
      [
        "to",
        "tal"
      ],
      [
        "les",
        "ions"
      ],
      [
        "effec",
        "tive"
      ],
      [
        "fur",
        "ther"
      ],
      [
        "he",
        "ad"
      ],
      [
        "n",
        "ational"
      ],
      [
        "con",
        "dition"
      ],
      [
        "lymp",
        "ho"
      ],
      [
        "leve",
        "l"
      ],
      [
        "cardio",
        "vascular"
      ],
      [
        "re",
        "veal"
      ],
      [
        "pro",
        "vid"
      ],
      [
        "de",
        "mon"
      ],
      [
        "demon",
        "str"
      ],
      [
        "fac",
        "e"
      ],
      [
        "infec",
        "tions"
      ],
      [
        "pa",
        "thy"
      ],
      [
        "c",
        "lo"
      ],
      [
        "en",
        "ing"
      ],
      [
        "there",
        "fore"
      ],
      [
        "month",
        "s"
      ],
      [
        "c",
        "at"
      ],
      [
        "l",
        "ab"
      ],
      [
        "mor",
        "bid"
      ],
      [
        "exam",
        "ination"
      ],
      [
        "e",
        "ach"
      ],
      [
        "chem",
        "ical"
      ],
      [
        "evid",
        "ence"
      ],
      [
        "ten",
        "sive"
      ],
      [
        "obes",
        "ity"
      ],
      [
        "a",
        "ti"
      ],
      [
        "n",
        "s"
      ],
      [
        "inf",
        "lu"
      ],
      [
        "re",
        "view"
      ],
      [
        "es",
        "pec"
      ],
      [
        "ic",
        "ul"
      ],
      [
        "fam",
        "ily"
      ],
      [
        "b",
        "ro"
      ],
      [
        "o",
        "logy"
      ],
      [
        "en",
        "g"
      ],
      [
        "gr",
        "am"
      ],
      [
        "espec",
        "ially"
      ],
      [
        "estim",
        "ated"
      ],
      [
        "t",
        "ent"
      ],
      [
        "n",
        "ing"
      ],
      [
        "phy",
        "si"
      ],
      [
        "w",
        "ay"
      ],
      [
        "are",
        "d"
      ],
      [
        "individual",
        "s"
      ],
      [
        "occur",
        "s"
      ],
      [
        "liter",
        "ature"
      ],
      [
        "st",
        "er"
      ],
      [
        "b",
        "ar"
      ],
      [
        "g",
        "ly"
      ],
      [
        "m",
        "ia"
      ],
      [
        "i",
        "at"
      ],
      [
        "p",
        "s"
      ],
      [
        "r",
        "ange"
      ],
      [
        "st",
        "s"
      ],
      [
        "ast",
        "ro"
      ],
      [
        "rec",
        "ently"
      ],
      [
        "mon",
        "ary"
      ],
      [
        "as",
        "si"
      ],
      [
        "cor",
        "on"
      ],
      [
        "suc",
        "cess"
      ],
      [
        "pu",
        "b"
      ],
      [
        "ass",
        "ess"
      ],
      [
        "immun",
        "o"
      ],
      [
        "e",
        "ven"
      ],
      [
        "g",
        "lu"
      ],
      [
        "c",
        "ir"
      ],
      [
        "pre",
        "gn"
      ],
      [
        "abdom",
        "inal"
      ],
      [
        "intest",
        "inal"
      ],
      [
        "v",
        "it"
      ],
      [
        "d",
        "ay"
      ],
      [
        "y",
        "l"
      ],
      [
        "tra",
        "u"
      ],
      [
        "tar",
        "ge"
      ],
      [
        "b",
        "ur"
      ],
      [
        "per",
        "s"
      ],
      [
        "pres",
        "sure"
      ],
      [
        "thyro",
        "id"
      ],
      [
        "morbid",
        "ity"
      ],
      [
        "dis",
        "t"
      ],
      [
        "tre",
        "ated"
      ],
      [
        "an",
        "ces"
      ],
      [
        "trac",
        "t"
      ],
      [
        "method",
        "s"
      ],
      [
        "ma",
        "ge"
      ],
      [
        "e",
        "ff"
      ],
      [
        "r",
        "ap"
      ],
      [
        "in",
        "hib"
      ],
      [
        "tr",
        "y"
      ],
      [
        "ven",
        "tion"
      ],
      [
        "ang",
        "io"
      ],
      [
        "adul",
        "ts"
      ],
      [
        "su",
        "ff"
      ],
      [
        "ab",
        "normal"
      ],
      [
        "m",
        "id"
      ],
      [
        "ac",
        "coun"
      ],
      [
        "pro",
        "per"
      ],
      [
        "grap",
        "h"
      ],
      [
        "en",
        "ces"
      ],
      [
        "drug",
        "s"
      ],
      [
        "g",
        "as"
      ],
      [
        "s",
        "ci"
      ],
      [
        "co",
        "uld"
      ],
      [
        "o",
        "me"
      ],
      [
        "or",
        "ig"
      ],
      [
        "is",
        "ol"
      ],
      [
        "mo",
        "d"
      ],
      [
        "ta",
        "ined"
      ],
      [
        "a",
        "x"
      ],
      [
        "d",
        "na"
      ],
      [
        "spec",
        "ies"
      ],
      [
        "c",
        "ad"
      ],
      [
        "z",
        "ed"
      ],
      [
        "ex",
        "po"
      ],
      [
        "glu",
        "co"
      ],
      [
        "in",
        "formation"
      ],
      [
        "contin",
        "u"
      ],
      [
        "d",
        "ed"
      ],
      [
        "c",
        "v"
      ],
      [
        "l",
        "as"
      ],
      [
        "er",
        "al"
      ],
      [
        "diff",
        "icul"
      ],
      [
        "re",
        "cogn"
      ],
      [
        "h",
        "ip"
      ],
      [
        "c",
        "ut"
      ],
      [
        "i",
        "tis"
      ],
      [
        "ie",
        "ty"
      ],
      [
        "survi",
        "val"
      ],
      [
        "fe",
        "male"
      ],
      [
        "genes",
        "is"
      ],
      [
        "ma",
        "ins"
      ],
      [
        "we",
        "e"
      ],
      [
        "high",
        "er"
      ],
      [
        "in",
        "a"
      ],
      [
        "arter",
        "y"
      ],
      [
        "j",
        "o"
      ],
      [
        "carc",
        "inoma"
      ],
      [
        "t",
        "est"
      ],
      [
        "inv",
        "es"
      ],
      [
        "h",
        "or"
      ],
      [
        "ul",
        "es"
      ],
      [
        "ini",
        "ti"
      ],
      [
        "st",
        "age"
      ],
      [
        "m",
        "ation"
      ],
      [
        "s",
        "al"
      ],
      [
        "hy",
        "dro"
      ],
      [
        "pl",
        "ace"
      ],
      [
        "rec",
        "ur"
      ],
      [
        "his",
        "to"
      ],
      [
        "stand",
        "ard"
      ],
      [
        "inves",
        "tig"
      ],
      [
        "m",
        "er"
      ],
      [
        "l",
        "ap"
      ],
      [
        "wi",
        "ll"
      ],
      [
        "est",
        "abl"
      ],
      [
        "sub",
        "jec"
      ],
      [
        "comple",
        "te"
      ],
      [
        "g",
        "est"
      ],
      [
        "es",
        "the"
      ],
      [
        "therap",
        "eu"
      ],
      [
        "c",
        "m"
      ],
      [
        "f",
        "at"
      ],
      [
        "system",
        "s"
      ],
      [
        "m",
        "ut"
      ],
      [
        "p",
        "al"
      ],
      [
        "se",
        "lec"
      ],
      [
        "b",
        "i"
      ],
      [
        "j",
        "u"
      ],
      [
        "cl",
        "assi"
      ],
      [
        "th",
        "us"
      ],
      [
        "ch",
        "emo"
      ],
      [
        "un",
        "i"
      ],
      [
        "em",
        "ia"
      ],
      [
        "reveal",
        "ed"
      ],
      [
        "mem",
        "br"
      ],
      [
        "m",
        "as"
      ],
      [
        "sti",
        "mul"
      ],
      [
        "analy",
        "sis"
      ],
      [
        "pub",
        "lic"
      ],
      [
        "po",
        "or"
      ],
      [
        "n",
        "ucle"
      ],
      [
        "p",
        "en"
      ],
      [
        "ter",
        "ior"
      ],
      [
        "hyper",
        "tension"
      ],
      [
        "theli",
        "al"
      ],
      [
        "coron",
        "ary"
      ],
      [
        "n",
        "al"
      ],
      [
        "ce",
        "re"
      ],
      [
        "id",
        "s"
      ],
      [
        "develop",
        "ing"
      ],
      [
        "ph",
        "en"
      ],
      [
        "f",
        "oc"
      ],
      [
        "molec",
        "ular"
      ],
      [
        "cardi",
        "ac"
      ],
      [
        "o",
        "ste"
      ],
      [
        "r",
        "ates"
      ],
      [
        "r",
        "ing"
      ],
      [
        "resist",
        "ance"
      ],
      [
        "b",
        "il"
      ],
      [
        "ative",
        "ly"
      ],
      [
        "pul",
        "monary"
      ],
      [
        "identi",
        "fied"
      ],
      [
        "v",
        "ent"
      ],
      [
        "st",
        "ates"
      ],
      [
        "sing",
        "le"
      ],
      [
        "metabol",
        "ic"
      ],
      [
        "comm",
        "un"
      ],
      [
        "g",
        "astro"
      ],
      [
        "v",
        "ated"
      ],
      [
        "th",
        "rom"
      ],
      [
        "pres",
        "ence"
      ],
      [
        "i",
        "red"
      ],
      [
        "b",
        "ack"
      ],
      [
        "ac",
        "tions"
      ],
      [
        "mo",
        "di"
      ],
      [
        "ate",
        "g"
      ],
      [
        "st",
        "ress"
      ],
      [
        "con",
        "trib"
      ],
      [
        "avail",
        "able"
      ],
      [
        "at",
        "ures"
      ],
      [
        "l",
        "ast"
      ],
      [
        "cell",
        "ular"
      ],
      [
        "ar",
        "is"
      ],
      [
        "des",
        "p"
      ],
      [
        "desp",
        "ite"
      ],
      [
        "h",
        "iv"
      ],
      [
        "p",
        "ast"
      ],
      [
        "ne",
        "y"
      ],
      [
        "on",
        "al"
      ],
      [
        "pan",
        "cre"
      ],
      [
        "re",
        "le"
      ],
      [
        "system",
        "ic"
      ],
      [
        "pr",
        "of"
      ],
      [
        "character",
        "is"
      ],
      [
        "inflam",
        "mation"
      ],
      [
        "con",
        "sis"
      ],
      [
        "in",
        "es"
      ],
      [
        "sti",
        "ll"
      ],
      [
        "iat",
        "ric"
      ],
      [
        "lab",
        "or"
      ],
      [
        "p",
        "hosp"
      ],
      [
        "c",
        "d"
      ],
      [
        "g",
        "er"
      ],
      [
        "cl",
        "er"
      ],
      [
        "n",
        "am"
      ],
      [
        "be",
        "ha"
      ],
      [
        "dent",
        "al"
      ],
      [
        "be",
        "fore"
      ],
      [
        "resul",
        "ting"
      ],
      [
        "wide",
        "ly"
      ],
      [
        "s",
        "ens"
      ],
      [
        "ne",
        "o"
      ],
      [
        "frequ",
        "ently"
      ],
      [
        "com",
        "es"
      ],
      [
        "c",
        "ro"
      ],
      [
        "k",
        "id"
      ],
      [
        "fo",
        "ur"
      ],
      [
        "therapeu",
        "tic"
      ],
      [
        "rap",
        "id"
      ],
      [
        ",",
        ","
      ],
      [
        "e",
        "mp"
      ],
      [
        "pl",
        "ay"
      ],
      [
        "e",
        "ti"
      ],
      [
        "n",
        "as"
      ],
      [
        "p",
        "t"
      ],
      [
        "r",
        "h"
      ],
      [
        "invol",
        "ved"
      ],
      [
        "ins",
        "ti"
      ],
      [
        "cl",
        "ass"
      ],
      [
        "por",
        "ts"
      ],
      [
        "si",
        "der"
      ],
      [
        "comp",
        "on"
      ],
      [
        "proble",
        "m"
      ],
      [
        "kid",
        "ney"
      ],
      [
        "a",
        "mo"
      ],
      [
        "s",
        "mo"
      ],
      [
        "comp",
        "ared"
      ],
      [
        "oc",
        "ar"
      ],
      [
        "vi",
        "de"
      ],
      [
        "bio",
        "logical"
      ],
      [
        "m",
        "g"
      ],
      [
        "and",
        "s"
      ],
      [
        "soci",
        "al"
      ],
      [
        "syn",
        "the"
      ],
      [
        "sug",
        "ges"
      ],
      [
        "enz",
        "y"
      ],
      [
        "i",
        "ther"
      ],
      [
        "p",
        "ur"
      ],
      [
        "con",
        "sider"
      ],
      [
        "malign",
        "ant"
      ],
      [
        "stro",
        "ke"
      ],
      [
        "i",
        "ved"
      ],
      [
        "p",
        "tion"
      ],
      [
        "tox",
        "ic"
      ],
      [
        "ic",
        "s"
      ],
      [
        "ch",
        "all"
      ],
      [
        "reg",
        "ul"
      ],
      [
        "ep",
        "i"
      ],
      [
        "ox",
        "y"
      ],
      [
        "mis",
        "sion"
      ],
      [
        "at",
        "ten"
      ],
      [
        "sa",
        "mp"
      ],
      [
        "resp",
        "ir"
      ],
      [
        "oscop",
        "ic"
      ],
      [
        "f",
        "y"
      ],
      [
        "n",
        "at"
      ],
      [
        "tr",
        "ation"
      ],
      [
        "tr",
        "ial"
      ],
      [
        "ne",
        "g"
      ],
      [
        "gluco",
        "se"
      ],
      [
        "col",
        "lec"
      ],
      [
        "tissu",
        "es"
      ],
      [
        "an",
        "ced"
      ],
      [
        "ra",
        "dio"
      ],
      [
        "b",
        "ility"
      ],
      [
        "f",
        "inding"
      ],
      [
        "th",
        "ir"
      ],
      [
        "to",
        "mo"
      ],
      [
        "be",
        "come"
      ],
      [
        "second",
        "ary"
      ],
      [
        "w",
        "ater"
      ],
      [
        "st",
        "at"
      ],
      [
        "un",
        "ited"
      ],
      [
        "fer",
        "red"
      ],
      [
        "w",
        "ard"
      ],
      [
        "ag",
        "ents"
      ],
      [
        "par",
        "a"
      ],
      [
        "posi",
        "tive"
      ],
      [
        "b",
        "on"
      ],
      [
        "se",
        "x"
      ],
      [
        "con",
        "duc"
      ],
      [
        "ol",
        "es"
      ],
      [
        "associ",
        "ation"
      ],
      [
        "psy",
        "cho"
      ],
      [
        "defic",
        "i"
      ],
      [
        "b",
        "or"
      ],
      [
        "man",
        "if"
      ],
      [
        "proble",
        "ms"
      ],
      [
        "posi",
        "tion"
      ],
      [
        "o",
        "th"
      ],
      [
        "v",
        "ol"
      ],
      [
        "de",
        "termin"
      ],
      [
        "fo",
        "od"
      ],
      [
        "vis",
        "ual"
      ],
      [
        "e",
        "ld"
      ],
      [
        "ey",
        "e"
      ],
      [
        "th",
        "or"
      ],
      [
        "m",
        "b"
      ],
      [
        "p",
        "ed"
      ],
      [
        "app",
        "ear"
      ],
      [
        "cut",
        "aneous"
      ],
      [
        "produc",
        "tion"
      ],
      [
        "re",
        "mo"
      ],
      [
        "me",
        "l"
      ],
      [
        "inv",
        "asi"
      ],
      [
        "fi",
        "eld"
      ],
      [
        "vic",
        "es"
      ],
      [
        "re",
        "mains"
      ],
      [
        "up",
        "per"
      ],
      [
        "min",
        "is"
      ],
      [
        "sel",
        "f"
      ],
      [
        "diagno",
        "stic"
      ],
      [
        "orig",
        "in"
      ],
      [
        "ec",
        "t"
      ],
      [
        "ox",
        "id"
      ],
      [
        "pred",
        "ic"
      ],
      [
        "se",
        "p"
      ],
      [
        "ne",
        "ur"
      ],
      [
        "sho",
        "uld"
      ],
      [
        "sh",
        "ort"
      ],
      [
        "di",
        "rect"
      ],
      [
        "sen",
        "si"
      ],
      [
        "limit",
        "ed"
      ],
      [
        "demonstr",
        "ated"
      ],
      [
        "d",
        "m"
      ],
      [
        "e",
        "ither"
      ],
      [
        "fe",
        "atures"
      ],
      [
        "obser",
        "ved"
      ],
      [
        "e",
        "ll"
      ],
      [
        "ag",
        "ed"
      ],
      [
        "ap",
        "plic"
      ],
      [
        "progres",
        "sive"
      ],
      [
        "depend",
        "ent"
      ],
      [
        "differen",
        "ti"
      ],
      [
        "al",
        "low"
      ],
      [
        "respir",
        "atory"
      ],
      [
        "n",
        "u"
      ],
      [
        "s",
        "us"
      ],
      [
        "s",
        "ite"
      ],
      [
        "in",
        "ary"
      ],
      [
        "re",
        "ad"
      ],
      [
        "re",
        "tro"
      ],
      [
        "re",
        "ports"
      ],
      [
        ".",
        ","
      ],
      [
        "struc",
        "ture"
      ],
      [
        "invasi",
        "ve"
      ],
      [
        "g",
        "a"
      ],
      [
        "th",
        "en"
      ],
      [
        "ar",
        "m"
      ],
      [
        "sp",
        "inal"
      ],
      [
        "d",
        "ays"
      ],
      [
        "is",
        "ts"
      ],
      [
        "ic",
        "k"
      ],
      [
        "effec",
        "t"
      ],
      [
        "mechan",
        "isms"
      ],
      [
        "er",
        "ior"
      ],
      [
        "tech",
        "no"
      ],
      [
        "ed",
        "ing"
      ],
      [
        "partic",
        "ip"
      ],
      [
        "vers",
        "ity"
      ],
      [
        "re",
        "f"
      ],
      [
        "the",
        "m"
      ],
      [
        "at",
        "or"
      ],
      [
        "am",
        "eric"
      ],
      [
        "s",
        "ch"
      ],
      [
        "t",
        "on"
      ],
      [
        "proced",
        "ure"
      ],
      [
        "fib",
        "ro"
      ],
      [
        "gr",
        "ad"
      ],
      [
        "u",
        "k"
      ],
      [
        "di",
        "tional"
      ],
      [
        "v",
        "o"
      ],
      [
        "si",
        "mil"
      ],
      [
        "previous",
        "ly"
      ],
      [
        "simil",
        "ar"
      ],
      [
        "ex",
        "trac"
      ],
      [
        "sign",
        "al"
      ],
      [
        "pr",
        "acti"
      ],
      [
        "enti",
        "al"
      ],
      [
        "particular",
        "ly"
      ],
      [
        "tive",
        "ly"
      ],
      [
        "techniqu",
        "es"
      ],
      [
        "u",
        "ter"
      ],
      [
        "em",
        "er"
      ],
      [
        "br",
        "al"
      ],
      [
        "con",
        "cer"
      ],
      [
        "no",
        "w"
      ],
      [
        "ex",
        "pression"
      ],
      [
        "an",
        "n"
      ],
      [
        "cad",
        "es"
      ],
      [
        "it",
        "us"
      ],
      [
        "ex",
        "tre"
      ],
      [
        "induc",
        "ed"
      ],
      [
        "re",
        "ce"
      ],
      [
        "struc",
        "tion"
      ],
      [
        "sup",
        "port"
      ],
      [
        "da",
        "mage"
      ],
      [
        "p",
        "ti"
      ],
      [
        "yo",
        "ung"
      ],
      [
        "o",
        "re"
      ],
      [
        "s",
        "cre"
      ],
      [
        "ar",
        "ch"
      ],
      [
        "st",
        "a"
      ],
      [
        "are",
        "a"
      ],
      [
        "ser",
        "um"
      ],
      [
        "transp",
        "lant"
      ],
      [
        "membr",
        "ane"
      ],
      [
        "beha",
        "vi"
      ],
      [
        "r",
        "na"
      ],
      [
        "ter",
        "s"
      ],
      [
        "high",
        "ly"
      ],
      [
        "mit",
        "ted"
      ],
      [
        "l",
        "er"
      ],
      [
        "ag",
        "ing"
      ],
      [
        "c",
        "k"
      ],
      [
        "medic",
        "ine"
      ],
      [
        "proper",
        "ties"
      ],
      [
        "co",
        "ur"
      ],
      [
        "lig",
        "ht"
      ],
      [
        "an",
        "terior"
      ],
      [
        "ti",
        "vity"
      ],
      [
        "under",
        "stand"
      ],
      [
        "affec",
        "ted"
      ],
      [
        "impro",
        "ve"
      ],
      [
        "inte",
        "rest"
      ],
      [
        "tain",
        "ing"
      ],
      [
        "are",
        "as"
      ],
      [
        "kno",
        "w"
      ],
      [
        "inhib",
        "it"
      ],
      [
        "on",
        "set"
      ],
      [
        "con",
        "sequ"
      ],
      [
        "sur",
        "face"
      ],
      [
        "trau",
        "ma"
      ],
      [
        "si",
        "ze"
      ],
      [
        "pro",
        "vide"
      ],
      [
        "var",
        "iety"
      ],
      [
        "b",
        "ir"
      ],
      [
        "th",
        "al"
      ],
      [
        "k",
        "ed"
      ],
      [
        "l",
        "at"
      ],
      [
        "w",
        "ays"
      ],
      [
        "in",
        "tro"
      ],
      [
        "ci",
        "es"
      ],
      [
        "de",
        "cades"
      ],
      [
        "ex",
        "er"
      ],
      [
        "gener",
        "ally"
      ],
      [
        "prog",
        "no"
      ],
      [
        "proced",
        "ures"
      ],
      [
        "so",
        "ur"
      ],
      [
        "vent",
        "ric"
      ],
      [
        "ach",
        "ie"
      ],
      [
        "a",
        "e"
      ],
      [
        "a",
        "mp"
      ],
      [
        "h",
        "al"
      ],
      [
        "p",
        "ic"
      ],
      [
        "d",
        "oc"
      ],
      [
        "col",
        "on"
      ],
      [
        "as",
        "y"
      ],
      [
        "ar",
        "ing"
      ],
      [
        "t",
        "able"
      ],
      [
        "includ",
        "ed"
      ],
      [
        "prev",
        "ent"
      ],
      [
        "it",
        "ation"
      ],
      [
        "ad",
        "minis"
      ],
      [
        "gen",
        "ital"
      ],
      [
        "pres",
        "ents"
      ],
      [
        "cri",
        "tical"
      ],
      [
        "tim",
        "es"
      ],
      [
        "death",
        "s"
      ],
      [
        "de",
        "part"
      ],
      [
        "sa",
        "fe"
      ],
      [
        "in",
        "ant"
      ],
      [
        "te",
        "red"
      ],
      [
        "current",
        "ly"
      ],
      [
        "fig",
        "ure"
      ],
      [
        "emer",
        "gen"
      ],
      [
        "in",
        "trac"
      ],
      [
        "success",
        "ful"
      ],
      [
        "ma",
        "de"
      ],
      [
        "ob",
        "tained"
      ],
      [
        "mu",
        "co"
      ],
      [
        "ac",
        "y"
      ],
      [
        "ll",
        "ed"
      ],
      [
        "gener",
        "ation"
      ],
      [
        "ic",
        "e"
      ],
      [
        "un",
        "t"
      ],
      [
        "me",
        "ll"
      ],
      [
        "ven",
        "ous"
      ],
      [
        "ep",
        "ide"
      ],
      [
        "reduc",
        "ed"
      ],
      [
        "pregn",
        "ancy"
      ],
      [
        "f",
        "usion"
      ],
      [
        "r",
        "u"
      ],
      [
        "de",
        "m"
      ],
      [
        "mo",
        "tor"
      ],
      [
        "tomo",
        "graphy"
      ],
      [
        "t",
        "ural"
      ],
      [
        "main",
        "ly"
      ],
      [
        "f",
        "ree"
      ],
      [
        "ly",
        "ing"
      ],
      [
        "ad",
        "en"
      ],
      [
        "glo",
        "b"
      ],
      [
        "establ",
        "ished"
      ],
      [
        "s",
        "le"
      ],
      [
        "u",
        "ment"
      ],
      [
        "erg",
        "y"
      ],
      [
        "nu",
        "tri"
      ],
      [
        "e",
        "qu"
      ],
      [
        "con",
        "s"
      ],
      [
        "con",
        "centr"
      ],
      [
        "vir",
        "al"
      ],
      [
        "k",
        "er"
      ],
      [
        "l",
        "ack"
      ],
      [
        "le",
        "ast"
      ],
      [
        "ben",
        "ign"
      ],
      [
        "cr",
        "iter"
      ],
      [
        "gastro",
        "intestinal"
      ],
      [
        "manif",
        "est"
      ],
      [
        "z",
        "o"
      ],
      [
        "con",
        "tr"
      ],
      [
        "ner",
        "ve"
      ],
      [
        "dys",
        "function"
      ],
      [
        "ag",
        "ain"
      ],
      [
        "am",
        "in"
      ],
      [
        "ke",
        "y"
      ],
      [
        "gas",
        "tric"
      ],
      [
        "labor",
        "atory"
      ],
      [
        "intro",
        "duc"
      ],
      [
        "neo",
        "plas"
      ],
      [
        "struc",
        "tures"
      ],
      [
        "techniqu",
        "e"
      ],
      [
        "thir",
        "d"
      ],
      [
        "li",
        "fer"
      ],
      [
        "z",
        "ation"
      ],
      [
        "pat",
        "tern"
      ],
      [
        "peri",
        "ph"
      ],
      [
        "adul",
        "t"
      ],
      [
        "r",
        "up"
      ],
      [
        "ter",
        "o"
      ],
      [
        "elec",
        "tro"
      ],
      [
        "depart",
        "ment"
      ],
      [
        "or",
        "i"
      ],
      [
        "expo",
        "sure"
      ],
      [
        "difficul",
        "t"
      ],
      [
        "vis",
        "ion"
      ],
      [
        "e",
        "uro"
      ],
      [
        "i",
        "tion"
      ],
      [
        "p",
        "i"
      ],
      [
        "res",
        "id"
      ],
      [
        "pro",
        "lifer"
      ],
      [
        "ess",
        "ential"
      ],
      [
        "pl",
        "ac"
      ],
      [
        "pe",
        "pti"
      ],
      [
        "les",
        "ion"
      ],
      [
        "gre",
        "at"
      ],
      [
        "criter",
        "ia"
      ],
      [
        "an",
        "i"
      ],
      [
        "ex",
        "p"
      ],
      [
        "lap",
        "ar"
      ],
      [
        "in",
        "ts"
      ],
      [
        "sub",
        "sequ"
      ],
      [
        "chemo",
        "therapy"
      ],
      [
        "comp",
        "la"
      ],
      [
        "ta",
        "ke"
      ],
      [
        "samp",
        "les"
      ],
      [
        "ex",
        "pec"
      ],
      [
        "func",
        "tions"
      ],
      [
        "group",
        "s"
      ],
      [
        "sit",
        "es"
      ],
      [
        "s",
        "cal"
      ],
      [
        "b",
        "as"
      ],
      [
        "ec",
        "on"
      ],
      [
        "si",
        "a"
      ],
      [
        "ex",
        "a"
      ],
      [
        "iz",
        "e"
      ],
      [
        "vi",
        "ties"
      ],
      [
        "evalu",
        "ation"
      ],
      [
        "practi",
        "ce"
      ],
      [
        "co",
        "ma"
      ],
      [
        "se",
        "en"
      ],
      [
        "ag",
        "g"
      ],
      [
        "o",
        "ma"
      ],
      [
        "is",
        "su"
      ],
      [
        "pro",
        "gram"
      ],
      [
        "out",
        "comes"
      ],
      [
        "a",
        "de"
      ],
      [
        "ill",
        "ary"
      ],
      [
        "pos",
        "sible"
      ],
      [
        "fr",
        "ac"
      ],
      [
        "meas",
        "ure"
      ],
      [
        "finding",
        "s"
      ],
      [
        "defici",
        "ency"
      ],
      [
        "euro",
        "pe"
      ],
      [
        "pe",
        "l"
      ],
      [
        "cancer",
        "s"
      ],
      [
        "follow",
        "ed"
      ],
      [
        "process",
        "es"
      ],
      [
        "u",
        "ce"
      ],
      [
        "es",
        "oph"
      ],
      [
        "uni",
        "versity"
      ],
      [
        "dis",
        "co"
      ],
      [
        "ri",
        "al"
      ],
      [
        "rel",
        "atively"
      ],
      [
        "requi",
        "re"
      ],
      [
        "know",
        "led"
      ],
      [
        "s",
        "of"
      ],
      [
        "t",
        "aneous"
      ],
      [
        "in",
        "tr"
      ],
      [
        "again",
        "st"
      ],
      [
        "h",
        "and"
      ],
      [
        "inte",
        "gr"
      ],
      [
        "environ",
        "mental"
      ],
      [
        "radi",
        "ation"
      ],
      [
        "w",
        "all"
      ],
      [
        "des",
        "ign"
      ],
      [
        "hum",
        "ans"
      ],
      [
        "oper",
        "ative"
      ],
      [
        "mell",
        "itus"
      ],
      [
        "exa",
        "mple"
      ],
      [
        "w",
        "a"
      ],
      [
        "in",
        "du"
      ],
      [
        "di",
        "et"
      ],
      [
        "res",
        "ec"
      ],
      [
        "wom",
        "an"
      ],
      [
        "neg",
        "ative"
      ],
      [
        "c",
        "all"
      ],
      [
        "is",
        "chem"
      ],
      [
        "te",
        "eth"
      ],
      [
        "patho",
        "logical"
      ],
      [
        "throm",
        "bo"
      ],
      [
        "in",
        "de"
      ],
      [
        "imp",
        "lant"
      ],
      [
        "ke",
        "le"
      ],
      [
        "c",
        "ing"
      ],
      [
        "ch",
        "est"
      ],
      [
        "ad",
        "verse"
      ],
      [
        "comm",
        "end"
      ],
      [
        "nat",
        "ural"
      ],
      [
        "re",
        "as"
      ],
      [
        "re",
        "commend"
      ],
      [
        "to",
        "oth"
      ],
      [
        "fe",
        "ver"
      ],
      [
        "ib",
        "le"
      ],
      [
        "sa",
        "me"
      ],
      [
        "bacter",
        "ial"
      ],
      [
        "ul",
        "tr"
      ],
      [
        "mo",
        "der"
      ],
      [
        "ph",
        "il"
      ],
      [
        "ser",
        "ious"
      ],
      [
        "elec",
        "tr"
      ],
      [
        "oxy",
        "gen"
      ],
      [
        "periph",
        "eral"
      ],
      [
        "b",
        "es"
      ],
      [
        "g",
        "s"
      ],
      [
        "ar",
        "ound"
      ],
      [
        "for",
        "ms"
      ],
      [
        "sub",
        "st"
      ],
      [
        "cler",
        "osis"
      ],
      [
        "trans",
        "cri"
      ],
      [
        "post",
        "erior"
      ],
      [
        "i",
        "ve"
      ],
      [
        "p",
        "ne"
      ],
      [
        "u",
        "b"
      ],
      [
        "he",
        "l"
      ],
      [
        "acti",
        "vation"
      ],
      [
        "nec",
        "k"
      ],
      [
        "a",
        "di"
      ],
      [
        "re",
        "ferred"
      ],
      [
        "ab",
        "ly"
      ],
      [
        "physi",
        "ological"
      ],
      [
        "r",
        "he"
      ],
      [
        "al",
        "s"
      ],
      [
        "de",
        "li"
      ],
      [
        "pro",
        "state"
      ],
      [
        "incre",
        "ases"
      ],
      [
        "cle",
        "ar"
      ],
      [
        "ner",
        "v"
      ],
      [
        "comb",
        "ination"
      ],
      [
        "atten",
        "tion"
      ],
      [
        "de",
        "pression"
      ],
      [
        "mal",
        "es"
      ],
      [
        "respon",
        "sible"
      ],
      [
        "ocar",
        "di"
      ],
      [
        "s",
        "cop"
      ],
      [
        "num",
        "er"
      ],
      [
        "typ",
        "ically"
      ],
      [
        "cis",
        "e"
      ],
      [
        "environ",
        "ment"
      ],
      [
        "wee",
        "ks"
      ],
      [
        "sof",
        "t"
      ],
      [
        "v",
        "ical"
      ],
      [
        "en",
        "ergy"
      ],
      [
        "at",
        "om"
      ],
      [
        "acc",
        "um"
      ],
      [
        "he",
        "mat"
      ],
      [
        "acti",
        "vities"
      ],
      [
        "sec",
        "re"
      ],
      [
        "lead",
        "s"
      ],
      [
        "gra",
        "de"
      ],
      [
        "sugges",
        "ted"
      ],
      [
        "stat",
        "us"
      ],
      [
        "bir",
        "th"
      ],
      [
        "knowled",
        "ge"
      ],
      [
        "b",
        "ac"
      ],
      [
        "en",
        "h"
      ],
      [
        "pl",
        "a"
      ],
      [
        "out",
        "come"
      ],
      [
        "at",
        "ors"
      ],
      [
        "oc",
        "ular"
      ],
      [
        "str",
        "ateg"
      ],
      [
        "dy",
        "nam"
      ],
      [
        "ben",
        "ef"
      ],
      [
        "decre",
        "ased"
      ],
      [
        "mo",
        "del"
      ],
      [
        "con",
        "fir"
      ],
      [
        "str",
        "ic"
      ],
      [
        "loc",
        "ated"
      ],
      [
        "f",
        "l"
      ],
      [
        "pa",
        "ir"
      ],
      [
        "ne",
        "ar"
      ],
      [
        "red",
        "uce"
      ],
      [
        "cer",
        "tain"
      ],
      [
        "cer",
        "vical"
      ],
      [
        "ultr",
        "as"
      ],
      [
        "re",
        "present"
      ],
      [
        "ur",
        "inary"
      ],
      [
        "pri",
        "or"
      ],
      [
        "glo",
        "bal"
      ],
      [
        "emergen",
        "cy"
      ],
      [
        "dia",
        "be"
      ],
      [
        "invol",
        "vement"
      ],
      [
        "ini",
        "tial"
      ],
      [
        "nec",
        "ess"
      ],
      [
        "progres",
        "sion"
      ],
      [
        "material",
        "s"
      ],
      [
        "conduc",
        "ted"
      ],
      [
        "p",
        "d"
      ],
      [
        "al",
        "ong"
      ],
      [
        "he",
        "pati"
      ],
      [
        "health",
        "y"
      ],
      [
        "affec",
        "ts"
      ],
      [
        "place",
        "ment"
      ],
      [
        "nerv",
        "ous"
      ],
      [
        "d",
        "on"
      ],
      [
        "gen",
        "s"
      ],
      [
        "el",
        "der"
      ],
      [
        "m",
        "r"
      ],
      [
        "in",
        "ing"
      ],
      [
        "in",
        "ten"
      ],
      [
        "is",
        "ed"
      ],
      [
        "for",
        "t"
      ],
      [
        "major",
        "ity"
      ],
      [
        "affec",
        "t"
      ],
      [
        "chall",
        "en"
      ],
      [
        "cour",
        "se"
      ],
      [
        "l",
        "ation"
      ],
      [
        "di",
        "es"
      ],
      [
        "imp",
        "air"
      ],
      [
        "rel",
        "ations"
      ],
      [
        "progno",
        "sis"
      ],
      [
        "aly",
        "sis"
      ],
      [
        "adv",
        "anced"
      ],
      [
        "r",
        "y"
      ],
      [
        "ut",
        "es"
      ],
      [
        "ev",
        "ents"
      ],
      [
        "recogn",
        "ized"
      ],
      [
        "ell",
        "ular"
      ],
      [
        "hepati",
        "tis"
      ],
      [
        "i",
        "tive"
      ],
      [
        "in",
        "dia"
      ],
      [
        "to",
        "ol"
      ],
      [
        "le",
        "ar"
      ],
      [
        "imp",
        "act"
      ],
      [
        "appro",
        "pri"
      ],
      [
        "ac",
        "qu"
      ],
      [
        "con",
        "ven"
      ],
      [
        "ex",
        "tensive"
      ],
      [
        "ra",
        "y"
      ],
      [
        "sur",
        "ve"
      ],
      [
        "ventric",
        "ular"
      ],
      [
        "elder",
        "ly"
      ],
      [
        "j",
        "ap"
      ],
      [
        "ro",
        "ot"
      ],
      [
        "id",
        "es"
      ],
      [
        "organ",
        "ization"
      ],
      [
        "rest",
        "or"
      ],
      [
        "molec",
        "ules"
      ],
      [
        "o",
        "ti"
      ],
      [
        "s",
        "ar"
      ],
      [
        "u",
        "e"
      ],
      [
        "con",
        "su"
      ],
      [
        "sp",
        "on"
      ],
      [
        "ill",
        "ness"
      ],
      [
        "phosp",
        "h"
      ],
      [
        "jap",
        "an"
      ],
      [
        "s",
        "w"
      ],
      [
        "u",
        "th"
      ],
      [
        "ch",
        "ro"
      ],
      [
        "ph",
        "ase"
      ],
      [
        "do",
        "se"
      ],
      [
        "plas",
        "ma"
      ],
      [
        "h",
        "ab"
      ],
      [
        "he",
        "mo"
      ],
      [
        "ri",
        "tis"
      ],
      [
        "ph",
        "al"
      ],
      [
        "ph",
        "ar"
      ],
      [
        "cep",
        "t"
      ],
      [
        "reg",
        "ions"
      ],
      [
        "a",
        "ther"
      ],
      [
        "b",
        "u"
      ],
      [
        "c",
        "as"
      ],
      [
        "e",
        "g"
      ],
      [
        "s",
        "k"
      ],
      [
        "re",
        "li"
      ],
      [
        "log",
        "ies"
      ],
      [
        "organ",
        "isms"
      ],
      [
        "cogn",
        "itive"
      ],
      [
        "animal",
        "s"
      ],
      [
        "on",
        "ic"
      ],
      [
        "co",
        "st"
      ],
      [
        "ur",
        "s"
      ],
      [
        "pro",
        "to"
      ],
      [
        "frequ",
        "ent"
      ],
      [
        "f",
        "ar"
      ],
      [
        "pro",
        "tec"
      ],
      [
        "mag",
        "ne"
      ],
      [
        "graph",
        "ic"
      ],
      [
        "m",
        "ig"
      ],
      [
        "pro",
        "mo"
      ],
      [
        "gu",
        "ide"
      ],
      [
        "receptor",
        "s"
      ],
      [
        "resec",
        "tion"
      ],
      [
        "affec",
        "ting"
      ],
      [
        "an",
        "a"
      ],
      [
        "import",
        "ance"
      ],
      [
        "ar",
        "ia"
      ],
      [
        "for",
        "med"
      ],
      [
        "pre",
        "vention"
      ],
      [
        "infec",
        "ted"
      ],
      [
        "loc",
        "ation"
      ],
      [
        "reduc",
        "tion"
      ],
      [
        "b",
        "inding"
      ],
      [
        "r",
        "an"
      ],
      [
        "is",
        "e"
      ],
      [
        "ch",
        "ange"
      ],
      [
        "po",
        "sed"
      ],
      [
        "ex",
        "cl"
      ],
      [
        "patho",
        "genesis"
      ],
      [
        "lin",
        "es"
      ],
      [
        "characteris",
        "tics"
      ],
      [
        "b",
        "ase"
      ],
      [
        "h",
        "ar"
      ],
      [
        "p",
        "ical"
      ],
      [
        "he",
        "tero"
      ],
      [
        "qu",
        "e"
      ],
      [
        "cent",
        "er"
      ],
      [
        "ici",
        "ent"
      ],
      [
        "diabe",
        "tic"
      ],
      [
        "b",
        "ili"
      ],
      [
        "w",
        "ent"
      ],
      [
        "ve",
        "l"
      ],
      [
        "ur",
        "ies"
      ],
      [
        "he",
        "mor"
      ],
      [
        "sle",
        "ep"
      ],
      [
        "call",
        "ed"
      ],
      [
        "ent",
        "er"
      ],
      [
        "op",
        "en"
      ],
      [
        "isol",
        "ated"
      ],
      [
        "understand",
        "ing"
      ],
      [
        "doc",
        "ument"
      ],
      [
        "relations",
        "hip"
      ],
      [
        "phar",
        "mac"
      ],
      [
        "l",
        "it"
      ],
      [
        "l",
        "ater"
      ],
      [
        "ti",
        "ally"
      ],
      [
        "mo",
        "de"
      ],
      [
        "pa",
        "tic"
      ],
      [
        "su",
        "per"
      ],
      [
        "qu",
        "es"
      ],
      [
        "other",
        "ap"
      ],
      [
        "produc",
        "ts"
      ],
      [
        "bacter",
        "ia"
      ],
      [
        "jo",
        "int"
      ],
      [
        "cere",
        "bral"
      ],
      [
        "e",
        "very"
      ],
      [
        "r",
        "ine"
      ],
      [
        "v",
        "ia"
      ],
      [
        "re",
        "main"
      ],
      [
        "le",
        "t"
      ],
      [
        "per",
        "ative"
      ],
      [
        "od",
        "on"
      ],
      [
        "bo",
        "dies"
      ],
      [
        "resp",
        "ec"
      ],
      [
        "requi",
        "red"
      ],
      [
        "an",
        "al"
      ],
      [
        "to",
        "sis"
      ],
      [
        "st",
        "ra"
      ],
      [
        "ho",
        "st"
      ],
      [
        "comp",
        "ound"
      ],
      [
        "significant",
        "ly"
      ],
      [
        "f",
        "low"
      ],
      [
        "k",
        "g"
      ],
      [
        "t",
        "le"
      ],
      [
        "he",
        "patic"
      ],
      [
        "ol",
        "der"
      ],
      [
        "ol",
        "ution"
      ],
      [
        "cal",
        "ci"
      ],
      [
        "targe",
        "t"
      ],
      [
        "s",
        "co"
      ],
      [
        "con",
        "genital"
      ],
      [
        "gi",
        "ven"
      ],
      [
        "subjec",
        "ts"
      ],
      [
        "numer",
        "ous"
      ],
      [
        "c",
        "us"
      ],
      [
        "co",
        "ll"
      ],
      [
        "me",
        "an"
      ],
      [
        "cl",
        "es"
      ],
      [
        "complic",
        "ation"
      ],
      [
        "recur",
        "rent"
      ],
      [
        "ma",
        "x"
      ],
      [
        "ho",
        "me"
      ],
      [
        "om",
        "as"
      ],
      [
        "spec",
        "tive"
      ],
      [
        "under",
        "lying"
      ],
      [
        "en",
        "ced"
      ],
      [
        "le",
        "uk"
      ],
      [
        "ad",
        "der"
      ],
      [
        "ad",
        "mitted"
      ],
      [
        "li",
        "ving"
      ],
      [
        "rec",
        "tal"
      ],
      [
        "af",
        "ric"
      ],
      [
        "ret",
        "inal"
      ],
      [
        "ele",
        "vated"
      ],
      [
        "v",
        "acc"
      ],
      [
        "it",
        "ary"
      ],
      [
        "ve",
        "red"
      ],
      [
        "per",
        "it"
      ],
      [
        "ble",
        "eding"
      ],
      [
        "appropri",
        "ate"
      ],
      [
        "hemor",
        "rh"
      ],
      [
        "l",
        "um"
      ],
      [
        "ar",
        "tic"
      ],
      [
        "le",
        "x"
      ],
      [
        "dis",
        "trib"
      ],
      [
        "comp",
        "os"
      ],
      [
        "dy",
        "sp"
      ],
      [
        "grow",
        "ing"
      ],
      [
        "d",
        "ra"
      ],
      [
        "l",
        "ing"
      ],
      [
        "v",
        "ant"
      ],
      [
        "us",
        "a"
      ],
      [
        "studi",
        "ed"
      ],
      [
        "bl",
        "adder"
      ],
      [
        "da",
        "ily"
      ],
      [
        "identi",
        "fy"
      ],
      [
        "kele",
        "tal"
      ],
      [
        "t",
        "ute"
      ],
      [
        "me",
        "tal"
      ],
      [
        "li",
        "po"
      ],
      [
        "ex",
        "t"
      ],
      [
        "clinical",
        "ly"
      ],
      [
        "abs",
        "ence"
      ],
      [
        "f",
        "il"
      ],
      [
        "m",
        "ri"
      ],
      [
        "t",
        "b"
      ],
      [
        "ho",
        "od"
      ],
      [
        "per",
        "sis"
      ],
      [
        "so",
        "mal"
      ],
      [
        "cy",
        "st"
      ],
      [
        "we",
        "l"
      ],
      [
        "con",
        "sti"
      ],
      [
        "gen",
        "ome"
      ],
      [
        "ane",
        "ury"
      ],
      [
        "classi",
        "fied"
      ],
      [
        "econ",
        "omic"
      ],
      [
        "magne",
        "tic"
      ],
      [
        "h",
        "es"
      ],
      [
        "n",
        "i"
      ],
      [
        "it",
        "or"
      ],
      [
        "str",
        "ong"
      ],
      [
        "pu",
        "bl"
      ],
      [
        "m",
        "l"
      ],
      [
        "m",
        "io"
      ],
      [
        "ec",
        "tomy"
      ],
      [
        "l",
        "ate"
      ],
      [
        "r",
        "al"
      ],
      [
        "r",
        "ad"
      ],
      [
        "it",
        "es"
      ],
      [
        "be",
        "g"
      ],
      [
        "experi",
        "ence"
      ],
      [
        "flu",
        "id"
      ],
      [
        "contr",
        "ast"
      ],
      [
        "k",
        "ore"
      ],
      [
        "in",
        "jec"
      ],
      [
        "ti",
        "li"
      ],
      [
        "en",
        "e"
      ],
      [
        "al",
        "co"
      ],
      [
        "contro",
        "lled"
      ],
      [
        "vic",
        "e"
      ],
      [
        "al",
        "ter"
      ],
      [
        "me",
        "ly"
      ],
      [
        "po",
        "se"
      ],
      [
        "comp",
        "uted"
      ],
      [
        "ta",
        "k"
      ],
      [
        "reg",
        "ulation"
      ],
      [
        "under",
        "go"
      ],
      [
        "my",
        "ocardi"
      ],
      [
        "impro",
        "ved"
      ],
      [
        "inj",
        "uries"
      ],
      [
        "fam",
        "ili"
      ],
      [
        "b",
        "ri"
      ],
      [
        "b",
        "loc"
      ],
      [
        "f",
        "und"
      ],
      [
        "on",
        "es"
      ],
      [
        "li",
        "mb"
      ],
      [
        "invol",
        "ving"
      ],
      [
        "mechan",
        "ical"
      ],
      [
        "abnormal",
        "ities"
      ],
      [
        "alco",
        "ho"
      ],
      [
        "c",
        "p"
      ],
      [
        "ac",
        "cess"
      ],
      [
        "more",
        "over"
      ],
      [
        "appro",
        "ved"
      ],
      [
        "present",
        "ation"
      ],
      [
        "mem",
        "ber"
      ],
      [
        "mac",
        "ro"
      ],
      [
        "temp",
        "er"
      ],
      [
        "sci",
        "enti"
      ],
      [
        "chro",
        "mo"
      ],
      [
        "otherap",
        "y"
      ],
      [
        "s",
        "can"
      ],
      [
        "ti",
        "ous"
      ],
      [
        "ad",
        "oles"
      ],
      [
        "cor",
        "ne"
      ],
      [
        "pri",
        "mar"
      ],
      [
        "dist",
        "inc"
      ],
      [
        "b",
        "ial"
      ],
      [
        "n",
        "ano"
      ],
      [
        "tu",
        "ber"
      ],
      [
        "struc",
        "tural"
      ],
      [
        "publ",
        "ished"
      ],
      [
        "a",
        "w"
      ],
      [
        "l",
        "and"
      ],
      [
        "ac",
        "cur"
      ],
      [
        "pos",
        "to"
      ],
      [
        "detec",
        "tion"
      ],
      [
        "sensi",
        "tivity"
      ],
      [
        "b",
        "est"
      ],
      [
        "at",
        "s"
      ],
      [
        "con",
        "nec"
      ],
      [
        "further",
        "more"
      ],
      [
        "insti",
        "tu"
      ],
      [
        "epi",
        "thelial"
      ],
      [
        "epide",
        "mio"
      ],
      [
        "aneury",
        "s"
      ],
      [
        "primar",
        "ily"
      ],
      [
        "u",
        "red"
      ],
      [
        "an",
        "esthe"
      ],
      [
        "al",
        "tern"
      ],
      [
        "ne",
        "ph"
      ],
      [
        "well",
        "ing"
      ],
      [
        "gre",
        "ater"
      ],
      [
        "period",
        "on"
      ],
      [
        "assess",
        "ment"
      ],
      [
        "bur",
        "den"
      ],
      [
        "conven",
        "tional"
      ],
      [
        "l",
        "ateral"
      ],
      [
        "kin",
        "es"
      ],
      [
        "descri",
        "be"
      ],
      [
        "i",
        "um"
      ],
      [
        "ary",
        "n"
      ],
      [
        "gr",
        "an"
      ],
      [
        "includ",
        "es"
      ],
      [
        "scre",
        "ening"
      ],
      [
        "i",
        "an"
      ],
      [
        "at",
        "al"
      ],
      [
        "spec",
        "ial"
      ],
      [
        "thy",
        "l"
      ],
      [
        "def",
        "ec"
      ],
      [
        "adv",
        "ant"
      ],
      [
        "p",
        "ut"
      ],
      [
        "ar",
        "th"
      ],
      [
        "d",
        "le"
      ],
      [
        "re",
        "pe"
      ],
      [
        "ro",
        "w"
      ],
      [
        "ne",
        "t"
      ],
      [
        "can",
        "al"
      ],
      [
        "ta",
        "il"
      ],
      [
        "cis",
        "ion"
      ],
      [
        "soci",
        "e"
      ],
      [
        "infec",
        "tious"
      ],
      [
        "go",
        "od"
      ],
      [
        "ster",
        "oid"
      ],
      [
        "comp",
        "ris"
      ],
      [
        "fic",
        "ial"
      ],
      [
        "pho",
        "to"
      ],
      [
        "b",
        "p"
      ],
      [
        "r",
        "and"
      ],
      [
        "al",
        "most"
      ],
      [
        "st",
        "ability"
      ],
      [
        "pl",
        "an"
      ],
      [
        "ser",
        "vices"
      ],
      [
        "fi",
        "ve"
      ],
      [
        "wo",
        "uld"
      ],
      [
        "ici",
        "ans"
      ],
      [
        "sug",
        "gest"
      ],
      [
        "deli",
        "very"
      ],
      [
        "p",
        "ig"
      ],
      [
        "an",
        "cies"
      ],
      [
        "at",
        "in"
      ],
      [
        "ar",
        "ding"
      ],
      [
        "mor",
        "pho"
      ],
      [
        "sup",
        "ple"
      ],
      [
        "gl",
        "and"
      ],
      [
        "collec",
        "ted"
      ],
      [
        "techno",
        "logy"
      ],
      [
        "l",
        "ay"
      ],
      [
        "re",
        "pair"
      ],
      [
        "fac",
        "t"
      ],
      [
        "bet",
        "ter"
      ],
      [
        "por",
        "tion"
      ],
      [
        "m",
        "one"
      ],
      [
        "nec",
        "ro"
      ],
      [
        "set",
        "ting"
      ],
      [
        "eti",
        "ology"
      ],
      [
        "h",
        "d"
      ],
      [
        "o",
        "tic"
      ],
      [
        "th",
        "re"
      ],
      [
        "mal",
        "aria"
      ],
      [
        "oc",
        "cl"
      ],
      [
        "oc",
        "rine"
      ],
      [
        "over",
        "all"
      ],
      [
        "mechan",
        "ism"
      ],
      [
        "lapar",
        "oscopic"
      ],
      [
        "a",
        "i"
      ],
      [
        "ad",
        "ju"
      ],
      [
        "inter",
        "ven"
      ],
      [
        "tran",
        "si"
      ],
      [
        "j",
        "unc"
      ],
      [
        "an",
        "atom"
      ],
      [
        "it",
        "ing"
      ],
      [
        "ca",
        "de"
      ],
      [
        "psy",
        "ch"
      ],
      [
        "synthe",
        "sis"
      ],
      [
        "re",
        "ach"
      ],
      [
        "lo",
        "y"
      ],
      [
        "res",
        "sion"
      ],
      [
        "se",
        "g"
      ],
      [
        "tr",
        "ig"
      ],
      [
        "tu",
        "b"
      ],
      [
        "posto",
        "perative"
      ],
      [
        "ac",
        "ro"
      ],
      [
        "we",
        "ak"
      ],
      [
        "auto",
        "immune"
      ],
      [
        "r",
        "ang"
      ],
      [
        "ro",
        "gen"
      ],
      [
        "si",
        "x"
      ],
      [
        "em",
        "erg"
      ],
      [
        "org",
        "ans"
      ],
      [
        "lymp",
        "h"
      ],
      [
        "ver",
        "te"
      ],
      [
        "ob",
        "struction"
      ],
      [
        "bl",
        "as"
      ],
      [
        "fr",
        "act"
      ],
      [
        "mu",
        "ch"
      ],
      [
        "metast",
        "atic"
      ],
      [
        "rand",
        "om"
      ],
      [
        "f",
        "in"
      ],
      [
        "g",
        "ing"
      ],
      [
        "inter",
        "vention"
      ],
      [
        "spon",
        "taneous"
      ],
      [
        "p",
        "y"
      ],
      [
        "v",
        "ary"
      ],
      [
        "ca",
        "using"
      ],
      [
        "treatment",
        "s"
      ],
      [
        "invol",
        "ves"
      ],
      [
        "bal",
        "ance"
      ],
      [
        "clo",
        "se"
      ],
      [
        "mut",
        "ations"
      ],
      [
        "compon",
        "ents"
      ],
      [
        "americ",
        "an"
      ],
      [
        "adminis",
        "tration"
      ],
      [
        "perit",
        "one"
      ],
      [
        "m",
        "and"
      ],
      [
        "an",
        "k"
      ],
      [
        "of",
        "f"
      ],
      [
        "ag",
        "o"
      ],
      [
        "lympho",
        "ma"
      ],
      [
        "compon",
        "ent"
      ],
      [
        "h",
        "r"
      ],
      [
        "w",
        "he"
      ],
      [
        "ul",
        "cer"
      ],
      [
        "eff",
        "ic"
      ],
      [
        "fract",
        "ure"
      ],
      [
        "v",
        "ag"
      ],
      [
        "w",
        "es"
      ],
      [
        "se",
        "e"
      ],
      [
        "li",
        "ed"
      ],
      [
        "ca",
        "the"
      ],
      [
        "ca",
        "vity"
      ],
      [
        "dur",
        "ation"
      ],
      [
        "cr",
        "y"
      ],
      [
        "pancre",
        "atic"
      ],
      [
        "trial",
        "s"
      ],
      [
        ".",
        "."
      ],
      [
        "an",
        "other"
      ],
      [
        "as",
        "pec"
      ],
      [
        "reg",
        "ard"
      ],
      [
        "bil",
        "ateral"
      ],
      [
        "transplant",
        "ation"
      ],
      [
        "u",
        "es"
      ],
      [
        "qu",
        "ate"
      ],
      [
        "mi",
        "x"
      ],
      [
        "h",
        "s"
      ],
      [
        "re",
        "action"
      ],
      [
        "st",
        "ar"
      ],
      [
        "ul",
        "a"
      ],
      [
        "am",
        "ino"
      ],
      [
        "pl",
        "ate"
      ],
      [
        "patho",
        "logy"
      ],
      [
        "neuro",
        "logical"
      ],
      [
        "iqu",
        "e"
      ],
      [
        "concer",
        "n"
      ],
      [
        "frac",
        "tures"
      ],
      [
        "re",
        "co"
      ],
      [
        "pa",
        "p"
      ],
      [
        "ver",
        "age"
      ],
      [
        "po",
        "int"
      ],
      [
        "wh",
        "ite"
      ],
      [
        "pl",
        "ays"
      ],
      [
        "reg",
        "arding"
      ],
      [
        "perfor",
        "man"
      ],
      [
        "metast",
        "asis"
      ],
      [
        "sit",
        "u"
      ],
      [
        "mid",
        "dle"
      ],
      [
        "exer",
        "cise"
      ],
      [
        "hal",
        "f"
      ],
      [
        "un",
        "ique"
      ],
      [
        "like",
        "ly"
      ],
      [
        "medi",
        "ated"
      ],
      [
        "tur",
        "b"
      ],
      [
        "e",
        "ma"
      ],
      [
        "v",
        "ul"
      ],
      [
        "x",
        "y"
      ],
      [
        "ac",
        "comp"
      ],
      [
        "res",
        "on"
      ],
      [
        "rec",
        "or"
      ],
      [
        "tra",
        "ditional"
      ],
      [
        "commun",
        "ic"
      ],
      [
        "ped",
        "iatric"
      ],
      [
        "particip",
        "ants"
      ],
      [
        "f",
        "ung"
      ],
      [
        "p",
        "ass"
      ],
      [
        "w",
        "er"
      ],
      [
        "ac",
        "cep"
      ],
      [
        "ex",
        "is"
      ],
      [
        "ex",
        "pres"
      ],
      [
        "frequ",
        "ency"
      ],
      [
        "ev",
        "ent"
      ],
      [
        "thor",
        "ac"
      ],
      [
        "inde",
        "x"
      ],
      [
        "ather",
        "os"
      ],
      [
        "d",
        "ens"
      ],
      [
        "s",
        "qu"
      ],
      [
        "st",
        "ren"
      ],
      [
        "qu",
        "anti"
      ],
      [
        "present",
        "ing"
      ],
      [
        "ep",
        "is"
      ],
      [
        "provid",
        "ed"
      ],
      [
        "to",
        "ward"
      ],
      [
        "un",
        "it"
      ],
      [
        "ad",
        "ap"
      ],
      [
        "inter",
        "nal"
      ],
      [
        "fi",
        "x"
      ],
      [
        "occur",
        "ring"
      ],
      [
        "preval",
        "ent"
      ],
      [
        "del",
        "ay"
      ],
      [
        "respec",
        "tively"
      ],
      [
        "wes",
        "tern"
      ],
      [
        "reson",
        "ance"
      ],
      [
        "b",
        "v"
      ],
      [
        "b",
        "ol"
      ],
      [
        "res",
        "sive"
      ],
      [
        "ad",
        "d"
      ],
      [
        "ment",
        "ation"
      ],
      [
        "ex",
        "ten"
      ],
      [
        "der",
        "ived"
      ],
      [
        "mic",
        "e"
      ],
      [
        "lip",
        "id"
      ],
      [
        "gly",
        "ce"
      ],
      [
        "necess",
        "ary"
      ],
      [
        "g",
        "ree"
      ],
      [
        "n",
        "ic"
      ],
      [
        "s",
        "welling"
      ],
      [
        "con",
        "taining"
      ],
      [
        "sion",
        "al"
      ],
      [
        "performan",
        "ce"
      ],
      [
        "v",
        "a"
      ],
      [
        "y",
        "et"
      ],
      [
        "at",
        "t"
      ],
      [
        "ro",
        "ut"
      ],
      [
        "st",
        "ep"
      ],
      [
        "un",
        "common"
      ],
      [
        "rare",
        "ly"
      ],
      [
        "stren",
        "g"
      ],
      [
        "u",
        "ble"
      ],
      [
        "pro",
        "posed"
      ],
      [
        "he",
        "pat"
      ],
      [
        "dis",
        "ability"
      ],
      [
        "car",
        "ri"
      ],
      [
        "gu",
        "e"
      ],
      [
        "suff",
        "er"
      ],
      [
        "sour",
        "ce"
      ],
      [
        "a",
        "or"
      ],
      [
        "f",
        "ast"
      ],
      [
        "p",
        "v"
      ],
      [
        "p",
        "es"
      ],
      [
        "en",
        "cing"
      ],
      [
        "ar",
        "c"
      ],
      [
        "end",
        "ocrine"
      ],
      [
        "under",
        "went"
      ],
      [
        "sign",
        "s"
      ],
      [
        "organ",
        "ic"
      ],
      [
        "tes",
        "ts"
      ],
      [
        "rout",
        "ine"
      ],
      [
        "con",
        "ser"
      ],
      [
        "clin",
        "ic"
      ],
      [
        "inter",
        "national"
      ],
      [
        "anti",
        "bio"
      ],
      [
        "occur",
        "rence"
      ],
      [
        "though",
        "t"
      ],
      [
        "respon",
        "ses"
      ],
      [
        "child",
        "hood"
      ],
      [
        "endo",
        "thelial"
      ],
      [
        "k",
        "ne"
      ],
      [
        "n",
        "ature"
      ],
      [
        "w",
        "al"
      ],
      [
        "ag",
        "ent"
      ],
      [
        "influ",
        "enz"
      ],
      [
        "l",
        "eng"
      ],
      [
        "ob",
        "jec"
      ],
      [
        "mus",
        "cles"
      ],
      [
        "enzy",
        "me"
      ],
      [
        "tuber",
        "cul"
      ],
      [
        "r",
        "s"
      ],
      [
        "t",
        "ation"
      ],
      [
        "z",
        "ing"
      ],
      [
        "mo",
        "vement"
      ],
      [
        "ment",
        "ary"
      ],
      [
        "increasing",
        "ly"
      ],
      [
        "sol",
        "id"
      ],
      [
        "myocardi",
        "al"
      ],
      [
        "thre",
        "at"
      ],
      [
        "m",
        "ber"
      ],
      [
        "re",
        "al"
      ],
      [
        "popul",
        "ations"
      ],
      [
        "malign",
        "ancy"
      ],
      [
        "oste",
        "o"
      ],
      [
        "impair",
        "ment"
      ],
      [
        "effic",
        "acy"
      ],
      [
        "d",
        "ri"
      ],
      [
        "n",
        "it"
      ],
      [
        "p",
        "cr"
      ],
      [
        "re",
        "presents"
      ],
      [
        "un",
        "known"
      ],
      [
        "mon",
        "itor"
      ],
      [
        "min",
        "imal"
      ],
      [
        "vir",
        "uses"
      ],
      [
        "cro",
        "ss"
      ],
      [
        "smo",
        "king"
      ],
      [
        "prolifer",
        "ation"
      ],
      [
        "accum",
        "ulation"
      ],
      [
        "h",
        "n"
      ],
      [
        "l",
        "or"
      ],
      [
        "st",
        "able"
      ],
      [
        "lo",
        "id"
      ],
      [
        "be",
        "li"
      ],
      [
        "sp",
        "e"
      ],
      [
        "iz",
        "ing"
      ],
      [
        "micro",
        "bial"
      ],
      [
        "ano",
        "mal"
      ],
      [
        "expec",
        "ted"
      ],
      [
        "pel",
        "vic"
      ],
      [
        "confir",
        "med"
      ],
      [
        "adoles",
        "c"
      ],
      [
        "streng",
        "th"
      ],
      [
        "b",
        "s"
      ],
      [
        "c",
        "in"
      ],
      [
        "u",
        "tili"
      ],
      [
        "ac",
        "he"
      ],
      [
        "cy",
        "stic"
      ],
      [
        "age",
        "al"
      ],
      [
        "men",
        "ing"
      ],
      [
        "resist",
        "ant"
      ],
      [
        "mode",
        "ls"
      ],
      [
        "at",
        "o"
      ],
      [
        "at",
        "trib"
      ],
      [
        "ag",
        "en"
      ],
      [
        "arter",
        "ial"
      ],
      [
        "where",
        "as"
      ],
      [
        "path",
        "ic"
      ],
      [
        "defec",
        "ts"
      ],
      [
        "k",
        "ine"
      ],
      [
        "in",
        "tensive"
      ],
      [
        "ho",
        "w"
      ],
      [
        "per",
        "cent"
      ],
      [
        "inter",
        "actions"
      ],
      [
        "sequ",
        "ence"
      ],
      [
        "psycho",
        "logical"
      ],
      [
        "acqu",
        "ired"
      ],
      [
        "m",
        "d"
      ],
      [
        "ab",
        "o"
      ],
      [
        "sp",
        "ine"
      ],
      [
        "tor",
        "s"
      ],
      [
        "initi",
        "ally"
      ],
      [
        "amo",
        "unt"
      ],
      [
        "applic",
        "ations"
      ],
      [
        "esoph",
        "ageal"
      ],
      [
        "distinc",
        "t"
      ],
      [
        "on",
        "o"
      ],
      [
        "on",
        "ia"
      ],
      [
        "co",
        "lo"
      ],
      [
        "un",
        "til"
      ],
      [
        "pro",
        "long"
      ],
      [
        "me",
        "ter"
      ],
      [
        "ha",
        "ving"
      ],
      [
        "ser",
        "ies"
      ],
      [
        "adv",
        "ances"
      ],
      [
        "manifest",
        "ations"
      ],
      [
        "compound",
        "s"
      ],
      [
        "li",
        "f"
      ],
      [
        "ab",
        "ili"
      ],
      [
        "ex",
        "tra"
      ],
      [
        "fe",
        "rence"
      ],
      [
        "anti",
        "bodies"
      ],
      [
        "commun",
        "ity"
      ],
      [
        "m",
        "ild"
      ],
      [
        "re",
        "actions"
      ],
      [
        "ed",
        "ema"
      ],
      [
        "ro",
        "und"
      ],
      [
        "ac",
        "ity"
      ],
      [
        "ho",
        "ut"
      ],
      [
        "om",
        "en"
      ],
      [
        "gener",
        "ative"
      ],
      [
        "pred",
        "om"
      ],
      [
        "cir",
        "cul"
      ],
      [
        "differenti",
        "ation"
      ],
      [
        "introduc",
        "ed"
      ],
      [
        "scal",
        "e"
      ],
      [
        "influenz",
        "a"
      ],
      [
        "ac",
        "tic"
      ],
      [
        "di",
        "d"
      ],
      [
        "ter",
        "ms"
      ],
      [
        "sp",
        "ace"
      ],
      [
        "spec",
        "tr"
      ],
      [
        "trans",
        "mission"
      ],
      [
        "sever",
        "ity"
      ],
      [
        "mu",
        "st"
      ],
      [
        "requi",
        "res"
      ],
      [
        "oscop",
        "y"
      ],
      [
        "safe",
        "ty"
      ],
      [
        "subsequ",
        "ent"
      ],
      [
        "guide",
        "lines"
      ],
      [
        "temper",
        "ature"
      ],
      [
        "cathe",
        "ter"
      ],
      [
        "co",
        "ag"
      ],
      [
        "de",
        "cade"
      ],
      [
        "di",
        "men"
      ],
      [
        "ch",
        "or"
      ],
      [
        "si",
        "mple"
      ],
      [
        "sur",
        "ge"
      ],
      [
        "sec",
        "tion"
      ],
      [
        "decre",
        "ase"
      ],
      [
        "approach",
        "es"
      ],
      [
        "provid",
        "es"
      ],
      [
        "wee",
        "k"
      ],
      [
        "hor",
        "mone"
      ],
      [
        "classi",
        "fication"
      ],
      [
        "hemorrh",
        "age"
      ],
      [
        "leng",
        "th"
      ],
      [
        "a",
        "ired"
      ],
      [
        "p",
        "p"
      ],
      [
        "r",
        "it"
      ],
      [
        "ch",
        "y"
      ],
      [
        "imp",
        "aired"
      ],
      [
        "sa",
        "mple"
      ],
      [
        "enzy",
        "mes"
      ],
      [
        "rece",
        "ived"
      ],
      [
        "pepti",
        "de"
      ],
      [
        "arth",
        "ritis"
      ],
      [
        "socie",
        "ty"
      ],
      [
        "s",
        "keletal"
      ],
      [
        "an",
        "ne"
      ],
      [
        "ch",
        "ol"
      ],
      [
        "ma",
        "ke"
      ],
      [
        "no",
        "vel"
      ],
      [
        "ex",
        "tern"
      ],
      [
        "detec",
        "ted"
      ],
      [
        "bro",
        "ad"
      ],
      [
        "accoun",
        "ts"
      ],
      [
        "recur",
        "rence"
      ],
      [
        "dem",
        "enti"
      ],
      [
        "st",
        "re"
      ],
      [
        "se",
        "par"
      ],
      [
        "fac",
        "ial"
      ],
      [
        "ven",
        "ess"
      ],
      [
        "pr",
        "in"
      ],
      [
        "plas",
        "ty"
      ],
      [
        "sh",
        "ap"
      ],
      [
        "metast",
        "ases"
      ],
      [
        "toxic",
        "ity"
      ],
      [
        "dynam",
        "ic"
      ],
      [
        "aor",
        "tic"
      ],
      [
        "u",
        "me"
      ],
      [
        "er",
        "r"
      ],
      [
        "de",
        "cl"
      ],
      [
        "no",
        "d"
      ],
      [
        "ug",
        "hout"
      ],
      [
        "my",
        "e"
      ],
      [
        "thro",
        "ughout"
      ],
      [
        "identi",
        "fication"
      ],
      [
        "ii",
        "i"
      ],
      [
        "rapid",
        "ly"
      ],
      [
        "document",
        "ed"
      ],
      [
        "d",
        "ate"
      ],
      [
        "n",
        "ia"
      ],
      [
        "p",
        "ack"
      ],
      [
        "s",
        "or"
      ],
      [
        "ro",
        "s"
      ],
      [
        "de",
        "gree"
      ],
      [
        "gen",
        "ous"
      ],
      [
        "bo",
        "wel"
      ],
      [
        "produc",
        "ed"
      ],
      [
        "tur",
        "n"
      ],
      [
        "phen",
        "omen"
      ],
      [
        "signal",
        "ing"
      ],
      [
        "behavi",
        "or"
      ],
      [
        "ultras",
        "ound"
      ],
      [
        "kore",
        "a"
      ],
      [
        "extern",
        "al"
      ],
      [
        "to",
        "ma"
      ],
      [
        "comm",
        "it"
      ],
      [
        "br",
        "on"
      ],
      [
        "au",
        "th"
      ],
      [
        "poten",
        "tially"
      ],
      [
        "challen",
        "ge"
      ],
      [
        "f",
        "ill"
      ],
      [
        "r",
        "ho"
      ],
      [
        "r",
        "ich"
      ],
      [
        "z",
        "y"
      ],
      [
        "le",
        "g"
      ],
      [
        "de",
        "vices"
      ],
      [
        "di",
        "vid"
      ],
      [
        "res",
        "our"
      ],
      [
        "reg",
        "ular"
      ],
      [
        "vari",
        "an"
      ],
      [
        "metabol",
        "ism"
      ],
      [
        "vit",
        "amin"
      ],
      [
        "nutri",
        "tion"
      ],
      [
        "concentr",
        "ation"
      ],
      [
        "surve",
        "y"
      ],
      [
        "dementi",
        "a"
      ],
      [
        "auth",
        "ors"
      ],
      [
        "k",
        "a"
      ],
      [
        "o",
        "si"
      ],
      [
        "p",
        "to"
      ],
      [
        "de",
        "term"
      ],
      [
        "per",
        "form"
      ],
      [
        "du",
        "ce"
      ],
      [
        "therap",
        "ies"
      ],
      [
        "def",
        "ini"
      ],
      [
        "pos",
        "si"
      ],
      [
        "mark",
        "ers"
      ],
      [
        "histo",
        "logical"
      ],
      [
        "sus",
        "cep"
      ],
      [
        "pne",
        "um"
      ],
      [
        "whe",
        "ther"
      ],
      [
        "determ",
        "ine"
      ],
      [
        "u",
        "ary"
      ],
      [
        "lo",
        "ad"
      ],
      [
        "ad",
        "ditional"
      ],
      [
        "ad",
        "hes"
      ],
      [
        "tic",
        "ally"
      ],
      [
        "cor",
        "d"
      ],
      [
        "health",
        "care"
      ],
      [
        "cop",
        "d"
      ],
      [
        "app",
        "lied"
      ],
      [
        "pers",
        "ons"
      ],
      [
        "vol",
        "ume"
      ],
      [
        "agg",
        "ressive"
      ],
      [
        "strateg",
        "ies"
      ],
      [
        "f",
        "as"
      ],
      [
        "m",
        "ight"
      ],
      [
        "o",
        "varian"
      ],
      [
        "s",
        "low"
      ],
      [
        "at",
        "temp"
      ],
      [
        "pro",
        "s"
      ],
      [
        "ho",
        "mo"
      ],
      [
        "acti",
        "v"
      ],
      [
        "do",
        "es"
      ],
      [
        "do",
        "wn"
      ],
      [
        "til",
        "ity"
      ],
      [
        "influ",
        "ence"
      ],
      [
        "corne",
        "al"
      ],
      [
        "kne",
        "e"
      ],
      [
        "b",
        "asis"
      ],
      [
        "u",
        "st"
      ],
      [
        "sion",
        "s"
      ],
      [
        "tu",
        "mo"
      ],
      [
        "ces",
        "sive"
      ],
      [
        "cont",
        "act"
      ],
      [
        "accoun",
        "t"
      ],
      [
        "rele",
        "ase"
      ],
      [
        "applic",
        "ation"
      ],
      [
        "achie",
        "ve"
      ],
      [
        "plac",
        "ed"
      ],
      [
        "transcri",
        "ption"
      ],
      [
        "f",
        "all"
      ],
      [
        "h",
        "cv"
      ],
      [
        "ph",
        "ic"
      ],
      [
        "lin",
        "ked"
      ],
      [
        "near",
        "ly"
      ],
      [
        "mig",
        "r"
      ],
      [
        "tak",
        "en"
      ],
      [
        "scienti",
        "fic"
      ],
      [
        "a",
        "im"
      ],
      [
        "to",
        "ler"
      ],
      [
        "de",
        "tail"
      ],
      [
        "pers",
        "on"
      ],
      [
        "determin",
        "ed"
      ],
      [
        "rad",
        "ical"
      ],
      [
        "altern",
        "ative"
      ],
      [
        "p",
        "it"
      ],
      [
        "co",
        "sts"
      ],
      [
        "ul",
        "l"
      ],
      [
        "mpto",
        "matic"
      ],
      [
        "air",
        "way"
      ],
      [
        "ischem",
        "ic"
      ],
      [
        "recommend",
        "ed"
      ],
      [
        "p",
        "se"
      ],
      [
        "pro",
        "b"
      ],
      [
        "sp",
        "read"
      ],
      [
        "ra",
        "ti"
      ],
      [
        "up",
        "on"
      ],
      [
        "valu",
        "e"
      ],
      [
        "contrib",
        "ute"
      ],
      [
        "extre",
        "mely"
      ],
      [
        "as",
        "p"
      ],
      [
        "dis",
        "tal"
      ],
      [
        "development",
        "al"
      ],
      [
        "cyto",
        "kines"
      ],
      [
        "test",
        "ing"
      ],
      [
        "neph",
        "ro"
      ],
      [
        "dens",
        "ity"
      ],
      [
        "c",
        "ateg"
      ],
      [
        "g",
        "f"
      ],
      [
        "l",
        "en"
      ],
      [
        "mp",
        "tion"
      ],
      [
        "dis",
        "turb"
      ],
      [
        "om",
        "y"
      ],
      [
        "poly",
        "mer"
      ],
      [
        "path",
        "way"
      ],
      [
        "sens",
        "ory"
      ],
      [
        "emp",
        "loy"
      ],
      [
        "consider",
        "able"
      ],
      [
        "asy",
        "mptomatic"
      ],
      [
        "subst",
        "anti"
      ],
      [
        "benef",
        "its"
      ],
      [
        "acro",
        "ss"
      ],
      [
        "tubercul",
        "osis"
      ],
      [
        "b",
        "a"
      ],
      [
        "d",
        "enti"
      ],
      [
        "s",
        "ul"
      ],
      [
        "di",
        "rec"
      ],
      [
        "ma",
        "m"
      ],
      [
        "pa",
        "ren"
      ],
      [
        "dis",
        "cus"
      ],
      [
        "rec",
        "ru"
      ],
      [
        "issu",
        "e"
      ],
      [
        "interven",
        "tions"
      ],
      [
        "pse",
        "ud"
      ],
      [
        "or",
        "b"
      ],
      [
        "se",
        "ls"
      ],
      [
        "ma",
        "king"
      ],
      [
        "po",
        "lar"
      ],
      [
        "sup",
        "pres"
      ],
      [
        "cap",
        "acity"
      ],
      [
        "ocy",
        "tes"
      ],
      [
        "gly",
        "co"
      ],
      [
        "peritone",
        "al"
      ],
      [
        "thorac",
        "ic"
      ],
      [
        "n",
        "f"
      ],
      [
        "th",
        "ick"
      ],
      [
        "as",
        "ia"
      ],
      [
        "ed",
        "i"
      ],
      [
        "con",
        "f"
      ],
      [
        "ne",
        "ural"
      ],
      [
        "ves",
        "sels"
      ],
      [
        "col",
        "le"
      ],
      [
        "head",
        "ache"
      ],
      [
        "prof",
        "es"
      ],
      [
        "c",
        "up"
      ],
      [
        "en",
        "co"
      ],
      [
        "se",
        "arch"
      ],
      [
        "ex",
        "cessive"
      ],
      [
        "sp",
        "or"
      ],
      [
        "continu",
        "ous"
      ],
      [
        "d",
        "os"
      ],
      [
        "f",
        "em"
      ],
      [
        "i",
        "val"
      ],
      [
        "t",
        "t"
      ],
      [
        "us",
        "ual"
      ],
      [
        "de",
        "generative"
      ],
      [
        "si",
        "g"
      ],
      [
        "ir",
        "an"
      ],
      [
        "inf",
        "arc"
      ],
      [
        "mon",
        "o"
      ],
      [
        "ris",
        "e"
      ],
      [
        "anti",
        "body"
      ],
      [
        "bio",
        "psy"
      ],
      [
        "trans",
        "fer"
      ],
      [
        "do",
        "main"
      ],
      [
        "indic",
        "ated"
      ],
      [
        "selec",
        "ted"
      ],
      [
        "b",
        "ile"
      ],
      [
        "f",
        "a"
      ],
      [
        "re",
        "stric"
      ],
      [
        "as",
        "th"
      ],
      [
        "ed",
        "uc"
      ],
      [
        "st",
        "ages"
      ],
      [
        "ch",
        "anne"
      ],
      [
        "am",
        "y"
      ],
      [
        "cy",
        "tes"
      ],
      [
        "tra",
        "ining"
      ],
      [
        "cr",
        "uc"
      ],
      [
        "impro",
        "vement"
      ],
      [
        "malign",
        "ancies"
      ],
      [
        "direct",
        "ly"
      ],
      [
        "ref",
        "lec"
      ],
      [
        "sta",
        "tis"
      ],
      [
        "spectr",
        "um"
      ],
      [
        "b",
        "ra"
      ],
      [
        "e",
        "as"
      ],
      [
        "o",
        "logic"
      ],
      [
        "r",
        "hy"
      ],
      [
        "re",
        "con"
      ],
      [
        "re",
        "produc"
      ],
      [
        "an",
        "emia"
      ],
      [
        "en",
        "o"
      ],
      [
        "tr",
        "uc"
      ],
      [
        "me",
        "ans"
      ],
      [
        "ho",
        "urs"
      ],
      [
        "cy",
        "sts"
      ],
      [
        "end",
        "oscopic"
      ],
      [
        "ep",
        "id"
      ],
      [
        "cho",
        "ice"
      ],
      [
        "mem",
        "ory"
      ],
      [
        "oph",
        "thal"
      ],
      [
        "accep",
        "ted"
      ],
      [
        "c",
        "and"
      ],
      [
        "f",
        "s"
      ],
      [
        "as",
        "sis"
      ],
      [
        "me",
        "ters"
      ],
      [
        "main",
        "tain"
      ],
      [
        "phen",
        "o"
      ],
      [
        "insti",
        "tute"
      ],
      [
        "mel",
        "ano"
      ],
      [
        "gran",
        "ul"
      ],
      [
        "lif",
        "es"
      ],
      [
        "prin",
        "ci"
      ],
      [
        "rhy",
        "th"
      ],
      [
        "f",
        "lex"
      ],
      [
        "t",
        "as"
      ],
      [
        "si",
        "mul"
      ],
      [
        "gen",
        "omic"
      ],
      [
        "fe",
        "males"
      ],
      [
        "path",
        "ways"
      ],
      [
        "scop",
        "y"
      ],
      [
        "stra",
        "ins"
      ],
      [
        "distrib",
        "ution"
      ],
      [
        "alcoho",
        "l"
      ],
      [
        "suscep",
        "ti"
      ],
      [
        "f",
        "av"
      ],
      [
        "k",
        "es"
      ],
      [
        "re",
        "placement"
      ],
      [
        "on",
        "co"
      ],
      [
        "pro",
        "jec"
      ],
      [
        "me",
        "thyl"
      ],
      [
        "inf",
        "il"
      ],
      [
        "cv",
        "d"
      ],
      [
        "i",
        "to"
      ],
      [
        "m",
        "ir"
      ],
      [
        "the",
        "sis"
      ],
      [
        "ch",
        "oles"
      ],
      [
        "ad",
        "mission"
      ],
      [
        "use",
        "ful"
      ],
      [
        "typ",
        "ical"
      ],
      [
        "cir",
        "c"
      ],
      [
        "sep",
        "sis"
      ],
      [
        "rhe",
        "a"
      ],
      [
        "divid",
        "ed"
      ],
      [
        "d",
        "g"
      ],
      [
        "re",
        "active"
      ],
      [
        "ac",
        "ts"
      ],
      [
        "ur",
        "ia"
      ],
      [
        "su",
        "d"
      ],
      [
        "he",
        "aring"
      ],
      [
        "ne",
        "u"
      ],
      [
        "acti",
        "vated"
      ],
      [
        "vari",
        "able"
      ],
      [
        "evalu",
        "ated"
      ],
      [
        "sex",
        "ual"
      ],
      [
        "reco",
        "very"
      ],
      [
        "predom",
        "inant"
      ],
      [
        "w",
        "ar"
      ],
      [
        "al",
        "ities"
      ],
      [
        "ve",
        "in"
      ],
      [
        "se",
        "iz"
      ],
      [
        "con",
        "trac"
      ],
      [
        "po",
        "p"
      ],
      [
        "ence",
        "phal"
      ],
      [
        "most",
        "ly"
      ],
      [
        "ta",
        "ins"
      ],
      [
        "erg",
        "ic"
      ],
      [
        "trau",
        "matic"
      ]
    ]
  }
}