{
  "version": "1.0",
  "truncation": null,
  "padding": null,
  "added_tokens": [
    {
      "id": 0,
      "content": "[UNK]",
      "single_word": false,
      "lstrip": false,
      "rstrip": false,
      "normalized": false,
      "special": true
    },
    {
      "id": 1,
      "content": "[PAD]",
      "single_word": false,
      "lstrip": false,
      "rstrip": false,
      "normalized": false,
      "special": true
    },
    {
      "id": 2,
      "content": "[CLS]",
      "single_word": false,
      "lstrip": false,
      "rstrip": false,
      "normalized": false,
      "special": true
    },
    {
      "id": 3,
      "content": "[SEP]",
      "single_word": false,
      "lstrip": false,
      "rstrip": false,
      "normalized": false,
      "special": true
    }
  ],
  "normalizer": null,
  "pre_tokenizer": {
    "type": "ByteLevel",
    "add_prefix_space": true,
    "trim_offsets": true,
    "use_regex": true
  },
  "post_processor": null,
  "decoder": null,
  "model": {
    "type": "BPE",
    "dropout": null,
    "unk_token": "[UNK]",
    "continuing_subword_prefix": null,
    "end_of_word_suffix": null,
    "fuse_unk": false,
    "byte_fallback": false,
    "ignore_merges": false,
    "vocab": {
      "[UNK]": 0,
      "[PAD]": 1,
      "[CLS]": 2,
      "[SEP]": 3,
      "!": 4,
      "'": 5,
      ",": 6,
      "-": 7,
      ".": 8,
      ":": 9,
      ";": 10,
      "?": 11,
      "a": 12,
      "b": 13,
      "c": 14,
      "d": 15,
      "e": 16,
      "f": 17,
      "g": 18,
      "h": 19,
      "i": 20,
      "j": 21,
      "k": 22,
      "l": 23,
      "m": 24,
      "n": 25,
      "o": 26,
      "p": 27,
      "q": 28,
      "r": 29,
      "s": 30,
      "t": 31,
      "u": 32,
      "v": 33,
      "w": 34,
      "x": 35,
      "y": 36,
      "z": 37,
      "Ġ": 38,
      "Ġt": 39,
      "Ġa": 40,
      "he": 41,
      "Ġs": 42,
      "Ġw": 43,
      "Ġm": 44,
      "ou": 45,
      "Ġi": 46,
      "Ġh": 47,
      "nd": 48,
      "Ġb": 49,
      "Ġf": 50,
      "re": 51,
      "at": 52,
      "Ġth": 53,
      "Ġthe": 54,
      "Ġl": 55,
      "Ġand": 56,
      "is": 57,
      "Ġo": 58,
      "er": 59,
      "ll": 60,
      "or": 61,
      "Ġn": 62,
      "in": 63,
      "Ġd": 64,
      "Ġhe": 65,
      "Ġg": 66,
      "Ġc": 67,
      "ro": 68,
      "es": 69,
      "Ġto": 70,
      "th": 71,
      "Ġe": 72,
      "ar": 73,
      "st": 74,
      "an": 75,
      "ve": 76,
      "Ġno": 77,
      "Ġp": 78,
      "Ġwi": 79,
      "Ġbe": 80,
      "Ġy": 81,
      "Ġmy": 82,
      "Ġyou": 83,
      "on": 84,
      "im": 85,
      "le": 86,
      "Ġwh": 87,
      "nt": 88,
      "us": 89,
      "Ġhis": 90,
      "ee": 91,
      "me": 92,
      "ld": 93,
      "ir": 94,
      "Ġin": 95,
      "'d": 96,
      "Ġhim": 97,
      "Ġthat": 98,
      "ing": 99,
      "Ġsh": 100,
      "'s": 101,
      "Ġk": 102,
      "ur": 103,
      "Ġfor": 104,
      "Ġof": 105,
      "Ġgo": 106,
      "her": 107,
      "Ġwe": 108,
      "it": 109,
      "ra": 110,
      "Ġma": 111,
      "Ġha": 112,
      "ut": 113,
      "Ġwith": 114,
      "ie": 115,
      "et": 116,
      "ow": 117,
      "our": 118,
      "Ġme": 119,
      "se": 120,
      "ce": 121,
      "Ġco": 122,
      "Ġso": 123,
      "Ġli": 124,
      "Ġu": 125,
      "all": 126,
      "ea": 127,
      "Ġthy": 128,
      "Ġkn": 129,
      "Ġthis": 130,
      "ke": 131,
      "Ġbut": 132,
      "Ġthou": 133,
      "Ġon": 134,
      "Ġis": 135,
      "Ġro": 136,
      "gh": 137,
      "Ġas": 138,
      "Ġour": 139,
      "ath": 140,
      "ter": 141,
      "Ġit": 142,
      "od": 143,
      "ather": 144,
      "mp": 145,
      "Ġst": 146,
      "Ġher": 147,
      "Ġre": 148,
      "Ġnot": 149,
      "Ġan": 150,
      "Ġwill": 151,
      "Ġla": 152,
      "Ġfather": 153,
      "ru": 154,
      "al": 155,
      "ear": 156,
      "Ġam": 157,
      "ould": 158,
      "ght": 159,
      "Ġwhat": 160,
      "ore": 161,
      "ous": 162,
      "ay": 163,
      "as": 164,
      "Ġman": 165,
      "ly": 166,
      "Ġshall": 167,
      "Ġlet": 168,
      "ire": 169,
      "Ġsir": 170,
      "ius": 171,
      "ck": 172,
      "Ġdo": 173,
      "Ġfa": 174,
      "Ġat": 175,
      "ron": 176,
      "id": 177,
      "Ġsee": 178,
      "Ġrome": 179,
      "ed": 180,
      "Ġwho": 181,
      "Ġthee": 182,
      "urn": 183,
      "Ġby": 184,
      "Ġshe": 185,
      "rie": 186,
      "ver": 187,
      "Ġde": 188,
      "ad": 189,
      "Ġwo": 190,
      "ain": 191,
      "ill": 192,
      "fu": 193,
      "Ġyour": 194,
      "Ġun": 195,
      "ock": 196,
      "Ġra": 197,
      "Ġcome": 198,
      "Ġlu": 199,
      "Ġif": 200,
      "ord": 201,
      "ies": 202,
      "Ġthey": 203,
      "em": 204,
      "Ġfire": 205,
      "fe": 206,
      "ch": 207,
      "Ġemp": 208,
      "ast": 209,
      "il": 210,
      "Ġwas": 211,
      "Ġgood": 212,
      "Ġta": 213,
      "ate": 214,
      "ri": 215,
      "tis": 216,
      "ell": 217,
      "ig": 218,
      "Ġhath": 219,
      "ble": 220,
      "Ġfro": 221,
      "ive": 222,
      "Ġr": 223,
      "Ġsp": 224,
      "Ġhave": 225,
      "Ġthan": 226,
      "Ġlo": 227,
      "Ġcur": 228,
      "Ġsw": 229,
      "eed": 230,
      "ven": 231,
      "row": 232,
      "Ġ'": 233,
      "nter": 234,
      "Ġtheir": 235,
      "Ġmast": 236,
      "Ġthere": 237,
      "Ġtru": 238,
      "Ġmaster": 239,
      "Ġknock": 240,
      "Ġall": 241,
      "ful": 242,
      "ent": 243,
      "ves": 244,
      "um": 245,
      "Ġfrom": 246,
      "Ġtit": 247,
      "Ġor": 248,
      "qu": 249,
      "un": 250,
      "pon": 251,
      "Ġmake": 252,
      "lf": 253,
      "mes": 254,
      "nds": 255,
      "res": 256,
      "Ġknow": 257,
      "fore": 258,
      "ine": 259,
      "Ġfrie": 260,
      "Ġmi": 261,
      "ther": 262,
      "Ġhand": 263,
      "Ġwould": 264,
      "Ġhere": 265,
      "Ġever": 266,
      "Ġdea": 267,
      "Ġgoth": 268,
      "Ġen": 269,
      "Ġshould": 270,
      "one": 271,
      "ps": 272,
      "Ġgive": 273,
      "Ġnow": 274,
      "Ġsat": 275,
      "ure": 276,
      "Ġmar": 277,
      "Ġay": 278,
      "Ġcon": 279,
      "hi": 280,
      "Ġare": 281,
      "ress": 282,
      "eror": 283,
      "Ġex": 284,
      "man": 285,
      "Ġcurtis": 286,
      "Ġfriends": 287,
      "Ġnoble": 288,
      "Ġemperor": 289,
      "Ġus": 290,
      "Ġwhy": 291,
      "Ġv": 292,
      "Ġbre": 293,
      "Ġal": 294,
      "Ġaw": 295,
      "en": 296,
      "Ġlive": 297,
      "Ġluc": 298,
      "Ġunc": 299,
      "Ġwhi": 300,
      "Ġper": 301,
      "Ġpro": 302,
      "ia": 303,
      "pp": 304,
      "cus": 305,
      "Ġupon": 306,
      "Ġspea": 307,
      "ks": 308,
      "bs": 309,
      "Ġchi": 310,
      "Ġwere": 311,
      "Ġuncle": 312,
      "Ġspeak": 313,
      "Ġson": 314,
      "Ġwor": 315,
      "Ġbro": 316,
      "Ġenter": 317,
      "Ġsta": 318,
      "Ġlucius": 319,
      "rou": 320,
      "Ġhow": 321,
      "Ġcomes": 322,
      "Ġlav": 323,
      "Ġlife": 324,
      "inia": 325,
      "Ġdeath": 326,
      "Ġsaturn": 327,
      "Ġcan": 328,
      "Ġsou": 329,
      "Ġsis": 330,
      "Ġwell": 331,
      "Ġgra": 332,
      "ious": 333,
      "ang": 334,
      "self": 335,
      "io": 336,
      "ears": 337,
      "Ġlavinia": 338,
      "ust": 339,
      "Ġmay": 340,
      "Ġbrother": 341,
      "ight": 342,
      "Ġsister": 343,
      "ses": 344,
      "Ġdead": 345,
      "Ġear": 346,
      "Ġou": 347,
      "Ġfo": 348,
      "Ġne": 349,
      "Ġnor": 350,
      "Ġgre": 351,
      "Ġtake": 352,
      "ry": 353,
      "Ġsl": 354,
      "lie": 355,
      "Ġbo": 356,
      "Ġgreat": 357,
      "lo": 358,
      "Ġtoo": 359,
      "Ġturn": 360,
      "Ġold": 361,
      "ide": 362,
      "Ġwar": 363,
      "Ġlord": 364,
      "ess": 365,
      "arb": 366,
      "Ġenem": 367,
      "Ġsay": 368,
      "Ġbeg": 369,
      "Ġaway": 370,
      "Ġsc": 371,
      "lt": 372,
      "Ġtw": 373,
      "Ġface": 374,
      "Ġearth": 375,
      "Ġfie": 376,
      "Ġqu": 377,
      "Ġhea": 378,
      "ty": 379,
      "Ġmore": 380,
      "Ġthem": 381,
      "Ġlike": 382,
      "ot": 383,
      "Ġfir": 384,
      "ish": 385,
      "'ll": 386,
      "Ġbur": 387,
      "Ġthen": 388,
      "Ġlea": 389,
      "Ġple": 390,
      "rong": 391,
      "Ġdes": 392,
      "Ġwhich": 393,
      "Ġwhe": 394,
      "Ġbeast": 395,
      "nto": 396,
      "Ġtitus": 397,
      "Ġchild": 398,
      "Ġhang": 399,
      "Ġmind": 400,
      "ial": 401,
      "Ġsor": 402,
      "Ġtill": 403,
      "Ġstand": 404,
      "Ġtears": 405,
      "Ġaem": 406,
      "Ġmany": 407,
      "Ġswee": 408,
      "Ġburial": 409,
      "Ġwoman": 410,
      "ges": 411,
      "Ġfirst": 412,
      "Ġsweet": 413,
      "Ġaemil": 414,
      "Ġmat": 415,
      "Ġexe": 416,
      "Ġsight": 417,
      "Ġar": 418,
      "Ġdev": 419,
      "Ġbrothers": 420,
      "Ġsent": 421,
      "Ġbeing": 422,
      "Ġaemilius": 423,
      "ment": 424,
      "pe": 425,
      "Ġad": 426,
      "Ġpi": 427,
      "ion": 428,
      "Ġsa": 429,
      "om": 430,
      "Ġtri": 431,
      "est": 432,
      "Ġey": 433,
      "Ġgod": 434,
      "ist": 435,
      "Ġblo": 436,
      "Ġgrie": 437,
      "Ġpra": 438,
      "Ġtam": 439,
      "Ġbefore": 440,
      "Ġprou": 441,
      "Ġgrief": 442,
      "les": 443,
      "Ġba": 444,
      "Ġout": 445,
      "lp": 446,
      "ms": 447,
      "unt": 448,
      "Ġtrib": 449,
      "ise": 450,
      "Ġob": 451,
      "Ġlast": 452,
      "Ġblood": 453,
      "Ġproud": 454,
      "Ġhelp": 455,
      "tle": 456,
      "Ġ,": 457,
      "Ġaa": 458,
      "ndly": 459,
      "Ġrep": 460,
      "Ġtell": 461,
      "Ġwife": 462,
      "Ġkis": 463,
      "Ġkill": 464,
      "co": 465,
      "ok": 466,
      "Ġj": 467,
      "Ġword": 468,
      "Ġthrow": 469,
      "Ġlit": 470,
      "erv": 471,
      "Ġwarm": 472,
      "Ġtribun": 473,
      "are": 474,
      "ice": 475,
      "Ġlim": 476,
      "Ġdeed": 477,
      "vey": 478,
      "Ġwithal": 479,
      "Ġexeunt": 480,
      "Ġmyself": 481,
      "eep": 482,
      "Ġmad": 483,
      "Ġmarcus": 484,
      "der": 485,
      "hed": 486,
      "Ġthese": 487,
      "Ġhear": 488,
      "Ġunto": 489,
      "Ġtwo": 490,
      "Ġaaron": 491,
      "Ġwrong": 492,
      "ree": 493,
      "Ġhead": 494,
      "Ġlov": 495,
      "Ġlook": 496,
      "Ġworst": 497,
      "Ġfou": 498,
      "Ġenemies": 499,
      "ness": 500,
      "Ġgent": 501,
      "Ġpre": 502,
      "Ġconvey": 503,
      "Ġlimbs": 504,
      "Ġforth": 505,
      "Ġlittle": 506,
      "dges": 507,
      "Ġbear": 508,
      "Ġtrue": 509,
      "old": 510,
      "Ġhor": 511,
      "Ġsaturnine": 512,
      "rel": 513,
      "Ġfare": 514,
      "Ġgentle": 515,
      "Ġquar": 516,
      "well": 517,
      "Ġheaven": 518,
      "Ġdevil": 519,
      "Ġtherefore": 520,
      "Ġquarrel": 521,
      "Ġfarewell": 522,
      "Ġgoths": 523,
      "Ġmatter": 524,
      "Ġcold": 525,
      "very": 526,
      "for": 527,
      "Ġbeen": 528,
      "Ġho": 529,
      "Ġdone": 530,
      "Ġwit": 531,
      "el": 532,
      "Ġlips": 533,
      "li": 534,
      "te": 535,
      "Ġfi": 536,
      "Ġthank": 537,
      "Ġtr": 538,
      "Ġhum": 539,
      "Ġimp": 540,
      "Ġmo": 541,
      "Ġbelie": 542,
      "ors": 543,
      "ite": 544,
      "Ġlust": 545,
      "isf": 546,
      "ers": 547,
      "Ġwea": 548,
      "rif": 549,
      "Ġpile": 550,
      "Ġsu": 551,
      "Ġbarb": 552,
      "Ġsac": 553,
      "Ġban": 554,
      "Ġpo": 555,
      "roni": 556,
      "Ġcons": 557,
      "ha": 558,
      "mb": 559,
      "Ġmou": 560,
      "Ġmour": 561,
      "Ġhate": 562,
      "Ġcall": 563,
      "Ġhad": 564,
      "Ġkna": 565,
      "'?": 566,
      "ct": 567,
      "the": 568,
      "Ġah": 569,
      "Ġside": 570,
      "Ġmeed": 571,
      "Ġmist": 572,
      "Ġfall": 573,
      "ance": 574,
      "Ġany": 575,
      "rum": 576,
      "Ġwhose": 577,
      "Ġwood": 578,
      "ith": 579,
      "per": 580,
      "Ġtig": 581,
      "Ġau": 582,
      "ora": 583,
      "arous": 584,
      "ant": 585,
      "Ġwel": 586,
      "Ġhast": 587,
      "igure": 588,
      "Ġaf": 589,
      "ort": 590,
      "Ġdow": 591,
      "Ġdear": 592,
      "Ġgat": 593,
      "Ġgate": 594,
      "Ġbet": 595,
      "Ġsome": 596,
      "Ġrece": 597,
      "Ġwoe": 598,
      "Ġexit": 599,
      "Ġsla": 600,
      "Ġsacrif": 601,
      "Ġmourn": 602,
      "lain": 603,
      "ming": 604,
      "Ġtro": 605,
      "Ġandroni": 606,
      "Ġnoth": 607,
      "Ġsirs": 608,
      "Ġraven": 609,
      "Ġsword": 610,
      "Ġtitles": 611,
      "Ġperha": 612,
      "Ġarms": 613,
      "Ġtamora": 614,
      "Ġdown": 615,
      "ng": 616,
      "Ġfl": 617,
      "Ġfell": 618,
      "Ġnay": 619,
      "Ġdid": 620,
      "Ġgrow": 621,
      "Ġgone": 622,
      "Ġrelie": 623,
      "Ġwrongs": 624,
      "Ġweapon": 625,
      "Ġmouth": 626,
      "op": 627,
      "ue": 628,
      "Ġapp": 629,
      "Ġsure": 630,
      "inus": 631,
      "ans": 632,
      "Ġwipe": 633,
      "Ġbell": 634,
      "Ġroman": 635,
      "mpt": 636,
      "Ġdoom": 637,
      "Ġatte": 638,
      "Ġswear": 639,
      "Ġknown": 640,
      "Ġtiger": 641,
      "Ġmut": 642,
      "Ġbon": 643,
      "Ġfru": 644,
      "ished": 645,
      "ink": 646,
      "ard": 647,
      "ient": 648,
      "Ġmeans": 649,
      "Ġlives": 650,
      "Ġlad": 651,
      "Ġrap": 652,
      "Ġalarb": 653,
      "Ġgrac": 654,
      "Ġnew": 655,
      "Ġeye": 656,
      "Ġafter": 657,
      "Ġgates": 658,
      "Ġperhaps": 659,
      "lks": 660,
      "of": 661,
      "Ġmust": 662,
      "Ġinter": 663,
      "Ġdet": 664,
      "Ġvill": 665,
      "Ġwhere": 666,
      "Ġbase": 667,
      "Ġloving": 668,
      "Ġbarbarous": 669,
      "Ġbetter": 670,
      "ult": 671,
      "Ġag": 672,
      "Ġbid": 673,
      "Ġthine": 674,
      "Ġgl": 675,
      "Ġstay": 676,
      "Ġbreast": 677,
      "Ġperfor": 678,
      "Ġwhen": 679,
      "Ġpraise": 680,
      "Ġfoul": 681,
      "Ġmistress": 682,
      "Ġreceive": 683,
      "Ġslave": 684,
      "Ġattempt": 685,
      "Ġbones": 686,
      "Ġtal": 687,
      "Ġsun": 688,
      "Ġserv": 689,
      "Ġfet": 690,
      "ong": 691,
      "Ġwithin": 692,
      "sed": 693,
      "Ġlaw": 694,
      "Ġmight": 695,
      "Ġfolks": 696,
      "Ġsorrow": 697,
      "Ġkisses": 698,
      "come": 699,
      "Ġtribunes": 700,
      "Ġwitness": 701,
      "Ġnothing": 702,
      "Ġravenous": 703,
      "Ġfruit": 704,
      "Ġdetest": 705,
      "ren": 706,
      "ory": 707,
      "Ġnear": 708,
      "raw": 709,
      "ets": 710,
      "Ġmasters": 711,
      "Ġworth": 712,
      "Ġsoundly": 713,
      "Ġgrave": 714,
      "Ġbeastly": 715,
      "Ġalarbus": 716,
      "Ġvillain": 717,
      "hold": 718,
      "Ġinc": 719,
      "ourish": 720,
      "Ġmutius": 721,
      "Ġglad": 722,
      "ough": 723,
      "Ġempress": 724,
      "Ġsoul": 725,
      "Ġpledges": 726,
      "Ġbrou": 727,
      "Ġhew": 728,
      "ither": 729,
      "Ġone": 730,
      "Ġwelcome": 731,
      "Ġladder": 732,
      "Ġgracious": 733,
      "ring": 734,
      "Ġhi": 735,
      "Ġshow": 736,
      "mpets": 737,
      "aten": 738,
      "Ġsaturninus": 739,
      "Ġsorry": 740,
      "Ġlawful": 741,
      "nce": 742,
      "Ġtruth": 743,
      "Ġandronicus": 744,
      "Ġpit": 745,
      "ony": 746,
      "Ġhorses": 747,
      "Ġbrought": 748,
      "Ġtrumpets": 749,
      "Ġthyself": 750,
      "eel": 751,
      "Ġsoon": 752,
      "Ġpr": 753,
      "Ġwre": 754,
      "Ġwret": 755,
      "Ġvery": 756,
      "Ġve": 757,
      "Ġnd": 758,
      "Ġim": 759,
      "Ġ.": 760,
      "Ġer": 761,
      "Ġow": 762,
      "ds": 763,
      "Ġcry": 764,
      "Ġbir": 765,
      "ison": 766,
      "Ġtha": 767,
      "Ġfr": 768,
      "Ġgr": 769,
      "Ġent": 770,
      "Ġprison": 771,
      "Ġbirds": 772,
      "Ġere": 773,
      "oke": 774,
      "Ġte": 775,
      "Ġru": 776,
      "athe": 777,
      "Ġled": 778,
      "eas": 779,
      "som": 780,
      "Ġmu": 781,
      "Ġhou": 782,
      "Ġcle": 783,
      "Ġpe": 784,
      "app": 785,
      "ic": 786,
      "Ġven": 787,
      "Ġfu": 788,
      "int": 789,
      "Ġshad": 790,
      "ters": 791,
      "vest": 792,
      "ge": 793,
      "Ġsm": 794,
      "Ġsig": 795,
      "Ġsen": 796,
      "Ġwou": 797,
      "Ġwer": 798,
      "Ġwee": 799,
      "Ġmur": 800,
      "Ġint": 801,
      "Ġble": 802,
      "Ġna": 803,
      "Ġda": 804,
      "met": 805,
      "urb": 806,
      "Ġwelf": 807,
      "Ġhal": 808,
      "ows": 809,
      "Ġres": 810,
      "Ġunapp": 811,
      "Ġbosom": 812,
      "Ġlusty": 813,
      "Ġpoint": 814,
      "'re": 815,
      "Ġweep": 816,
      "Ġmone": 817,
      "Ġice": 818,
      "Ġdist": 819,
      "Ġheel": 820,
      "Ġince": 821,
      "Ġup": 822,
      "Ġrequ": 823,
      "Ġdost": 824,
      "Ġsheath": 825,
      "Ġdemet": 826,
      "Ġwhile": 827,
      "Ġtook": 828,
      "Ġpray": 829,
      "Ġgriefs": 830,
      "Ġhumb": 831,
      "Ġmurd": 832,
      "ni": 833,
      "vion": 834,
      "Ġtre": 835,
      "Ġoath": 836,
      "ved": 837,
      "vent": 838,
      "Ġfort": 839,
      "Ġcomp": 840,
      "Ġsteel": 841,
      "Ġfaith": 842,
      "Ġwhom": 843,
      "Ġraise": 844,
      "riors": 845,
      "Ġfrost": 846,
      "thers": 847,
      "Ġdeaf": 848,
      "Ġprod": 849,
      "Ġcanst": 850,
      "Ġenemy": 851,
      "Ġpip": 852,
      "Ġknaves": 853,
      "Ġclean": 854,
      "Ġshadows": 855,
      "Ġsmoke": 856,
      "Ġdam": 857,
      "Ġwelfare": 858,
      "Ġmoney": 859,
      "Ġincen": 860,
      "ab": 861,
      "act": 862,
      "bt": 863,
      "ft": 864,
      "gs": 865,
      "nc": 866,
      "rius": 867,
      "Ġsk": 868,
      "Ġmort": 869,
      "Ġbod": 870,
      "Ġfear": 871,
      "Ġdou": 872,
      "Ġdisf": 873,
      "Ġcat": 874,
      "Ġpure": 875,
      "Ġbef": 876,
      "Ġhalf": 877,
      "sel": 878,
      "Ġsold": 879,
      "Ġstone": 880,
      "Ġang": 881,
      "Ġletters": 882,
      "Ġunk": 883,
      "Ġva": 884,
      "Ġbegin": 885,
      "Ġscore": 886,
      "Ġobli": 887,
      "Ġimpat": 888,
      "Ġimper": 889,
      "anted": 890,
      "Ġrun": 891,
      "Ġunappeas": 892,
      "Ġhumbly": 893,
      "Ġdamn": 894,
      "bat": 895,
      "last": 896,
      "mi": 897,
      "rous": 898,
      "xe": 899,
      "Ġtum": 900,
      "Ġser": 901,
      "Ġfun": 902,
      "Ġthir": 903,
      "iss": 904,
      "Ġop": 905,
      "orous": 906,
      "Ġdig": 907,
      "Ġca": 908,
      "Ġpu": 909,
      "Ġwilt": 910,
      "een": 911,
      "Ġmeth": 912,
      "Ġsoft": 913,
      "Ġlight": 914,
      "Ġonce": 915,
      "Ġstra": 916,
      "Ġred": 917,
      "Ġmanes": 918,
      "Ġdoth": 919,
      "fume": 920,
      "Ġrav": 921,
      "Ġrite": 922,
      "Ġtrun": 923,
      "Ġmayst": 924,
      "Ġslide": 925,
      "Ġboth": 926,
      "Ġgreater": 927,
      "Ġlords": 928,
      "Ġfiend": 929,
      "Ġeyes": 930,
      "Ġrepro": 931,
      "Ġju": 932,
      "like": 933,
      "Ġtrim": 934,
      "Ġbelieve": 935,
      "Ġbelievest": 936,
      "Ġhateful": 937,
      "Ġreceived": 938,
      "Ġfrat": 939,
      "Ġgranted": 940,
      "Ġmuch": 941,
      "Ġdisturb": 942,
      "Ġrequite": 943,
      "Ġsheathing": 944,
      "Ġtreble": 945,
      "Ġfaithful": 946,
      "Ġprodig": 947,
      "Ġincense": 948,
      "Ġsky": 949,
      "Ġbody": 950,
      "bus": 951,
      "bab": 952,
      "ding": 953,
      "ep": 954,
      "iers": 955,
      "ling": 956,
      "so": 957,
      "Ġtall": 958,
      "Ġac": 959,
      "Ġwin": 960,
      "ounc": 961,
      "Ġhot": 962,
      "Ġburn": 963,
      "Ġfeed": 964,
      "Ġfigure": 965,
      "ater": 966,
      "ators": 967,
      "Ġthre": 968,
      "lla": 969,
      "Ġcl": 970,
      "Ġpow": 971,
      "Ġpill": 972,
      "Ġpres": 973,
      "Ġyea": 974,
      "Ġinh": 975,
      "Ġshut": 976,
      "Ġaside": 977,
      "Ġstri": 978,
      "Ġrem": 979,
      "Ġamiss": 980,
      "Ġamorous": 981,
      "Ġrave": 982,
      "Ġempe": 983,
      "Ġtitle": 984,
      "Ġsatisf": 985,
      "Ġalas": 986,
      "Ġsons": 987,
      "Ġwarriors": 988,
      "Ġearthy": 989,
      "Ġqueen": 990,
      "Ġheav": 991,
      "Ġpleas": 992,
      "Ġadvent": 993,
      "Ġlasts": 994,
      "Ġtribune": 995,
      "Ġhumour": 996,
      "Ġmoor": 997,
      "Ġsuf": 998,
      "Ġconsum": 999,
      "Ġaught": 1000,
      "Ġtrot": 1001,
      "Ġappro": 1002,
      "Ġsigni": 1003,
      "Ġweeps": 1004,
      "Ġinte": 1005,
      "Ġhalter": 1006,
      "Ġweeping": 1007,
      "Ġdemetrius": 1008,
      "Ġcomplain": 1009,
      "Ġmortal": 1010,
      "Ġdoubt": 1011,
      "Ġunki": 1012,
      "Ġoblivion": 1013,
      "Ġimperious": 1014,
      "Ġthirty": 1015,
      "Ġtrunk": 1016,
      "ey": 1017,
      "low": 1018,
      "ne": 1019,
      "pling": 1020,
      "ze": 1021,
      "Ġtar": 1022,
      "Ġtee": 1023,
      "Ġtree": 1024,
      "Ġwall": 1025,
      "Ġway": 1026,
      "Ġweed": 1027,
      "oud": 1028,
      "Ġhar": 1029,
      "Ġothers": 1030,
      "Ġnat": 1031,
      "inks": 1032,
      "Ġdro": 1033,
      "Ġcit": 1034,
      "Ġcea": 1035,
      "Ġcas": 1036,
      "Ġeven": 1037,
      "Ġemb": 1038,
      "stain": 1039,
      "Ġpa": 1040,
      "Ġpron": 1041,
      "let": 1042,
      "Ġkather": 1043,
      "Ġgoes": 1044,
      "Ġweather": 1045,
      "Ġmaid": 1046,
      "Ġkne": 1047,
      "Ġass": 1048,
      "Ġasle": 1049,
      "Ġstrong": 1050,
      "Ġrec": 1051,
      "Ġlay": 1052,
      "rup": 1053,
      "Ġdog": 1054,
      "ider": 1055,
      "Ġrail": 1056,
      "Ġtames": 1057,
      "Ġrit": 1058,
      "une": 1059,
      "Ġperfume": 1060,
      "Ġtooth": 1061,
      "Ġtwain": 1062,
      "Ġdesp": 1063,
      "Ġmatch": 1064,
      "Ġkiss": 1065,
      "Ġthrown": 1066,
      "Ġholla": 1067,
      "Ġfellow": 1068,
      "Ġwert": 1069,
      "Ġname": 1070,
      "action": 1071,
      "Ġangel": 1072,
      "lasting": 1073,
      "Ġfuner": 1074,
      "baby": 1075,
      "Ġtaller": 1076,
      "Ġpillow": 1077,
      "Ġsignif": 1078,
      "bst": 1079,
      "cock": 1080,
      "fer": 1081,
      "kn": 1082,
      "less": 1083,
      "Ġab": 1084,
      "Ġaim": 1085,
      "Ġsin": 1086,
      "Ġwater": 1087,
      "Ġmon": 1088,
      "Ġfit": 1089,
      "Ġfles": 1090,
      "rest": 1091,
      "Ġothe": 1092,
      "llo": 1093,
      "Ġnou": 1094,
      "Ġdut": 1095,
      "Ġdraw": 1096,
      "Ġgrum": 1097,
      "Ġclo": 1098,
      "Ġtomb": 1099,
      "Ġtong": 1100,
      "Ġpear": 1101,
      "Ġpot": 1102,
      "Ġpard": 1103,
      "eem": 1104,
      "Ġshr": 1105,
      "Ġshore": 1106,
      "Ġgover": 1107,
      "Ġrope": 1108,
      "Ġstop": 1109,
      "Ġanc": 1110,
      "Ġano": 1111,
      "Ġseek": 1112,
      "Ġwoo": 1113,
      "Ġring": 1114,
      "Ġcurst": 1115,
      "quin": 1116,
      "Ġchiron": 1117,
      "Ġstabs": 1118,
      "Ġfood": 1119,
      "tyr": 1120,
      "Ġleast": 1121,
      "Ġleading": 1122,
      "Ġdesper": 1123,
      "Ġhears": 1124,
      "Ġsubst": 1125,
      "Ġbanish": 1126,
      "Ġsacrific": 1127,
      "Ġswords": 1128,
      "Ġweapons": 1129,
      "Ġbelly": 1130,
      "Ġaglet": 1131,
      "Ġpities": 1132,
      "Ġima": 1133,
      "Ġown": 1134,
      "Ġvenice": 1135,
      "Ġsenators": 1136,
      "Ġsoldiers": 1137,
      "Ġimpatient": 1138,
      "bation": 1139,
      "Ġtumult": 1140,
      "Ġserve": 1141,
      "Ġdigress": 1142,
      "Ġtrimming": 1143,
      "Ġfratrum": 1144,
      "Ġprodigies": 1145,
      "some": 1146,
      "Ġwinter": 1147,
      "Ġburning": 1148,
      "Ġthread": 1149,
      "Ġpreserv": 1150,
      "Ġinhum": 1151,
      "Ġsuffer": 1152,
      "Ġapproved": 1153,
      "Ġteeth": 1154,
      "Ġcease": 1155,
      "Ġembra": 1156,
      "Ġpronounc": 1157,
      "Ġknew": 1158,
      "Ġrites": 1159,
      "Ġpearl": 1160,
      "bb": 1161,
      "eth": 1162,
      "lar": 1163,
      "sio": 1164,
      "Ġaxe": 1165,
      "atly": 1166,
      "orn": 1167,
      "Ġdrow": 1168,
      "Ġheal": 1169,
      "Ġche": 1170,
      "Ġput": 1171,
      "Ġpie": 1172,
      "Ġyouth": 1173,
      "irt": 1174,
      "Ġwear": 1175,
      "Ġhas": 1176,
      "Ġmen": 1177,
      "Ġsobs": 1178,
      "Ġroder": 1179,
      "Ġrobb": 1180,
      "Ġreven": 1181,
      "Ġamong": 1182,
      "Ġambus": 1183,
      "Ġshed": 1184,
      "ils": 1185,
      "igo": 1186,
      "Ġthanks": 1187,
      "Ġlopp": 1188,
      "Ġcurse": 1189,
      "Ġshoulder": 1190,
      "Ġmarch": 1191,
      "Ġuse": 1192,
      "Ġalo": 1193,
      "Ġproper": 1194,
      "ppet": 1195,
      "Ġdeadly": 1196,
      "Ġthemsel": 1197,
      "Ġkills": 1198,
      "Ġmade": 1199,
      "Ġprey": 1200,
      "Ġprese": 1201,
      "Ġbanished": 1202,
      "Ġwoefu": 1203,
      "Ġmourning": 1204,
      "Ġgrown": 1205,
      "Ġrelief": 1206,
      "Ġsorrows": 1207,
      "Ġpeop": 1208,
      "Ġbleed": 1209,
      "Ġresc": 1210,
      "Ġfortune": 1211,
      "Ġdisfigure": 1212,
      "Ġmethinks": 1213,
      "Ġstraight": 1214,
      "Ġclim": 1215,
      "Ġremain": 1216,
      "Ġunkindly": 1217,
      "Ġharms": 1218,
      "Ġkatherine": 1219,
      "Ġasleep": 1220,
      "idering": 1221,
      "Ġdespis": 1222,
      "Ġfuneral": 1223,
      "Ġsince": 1224,
      "Ġflesh": 1225,
      "Ġgovern": 1226,
      "hies": 1227,
      "mis": 1228,
      "tri": 1229,
      "ument": 1230,
      "Ġset": 1231,
      "ount": 1232,
      "Ġinto": 1233,
      "nded": 1234,
      "Ġbal": 1235,
      "Ġbast": 1236,
      "Ġblow": 1237,
      "Ġfree": 1238,
      "Ġloud": 1239,
      "Ġnourish": 1240,
      "Ġdin": 1241,
      "Ġget": 1242,
      "Ġtofore": 1243,
      "ars": 1244,
      "Ġbeco": 1245,
      "Ġshirt": 1246,
      "Ġgold": 1247,
      "rails": 1248,
      "sequ": 1249,
      "Ġthough": 1250,
      "Ġours": 1251,
      "cks": 1252,
      "Ġfam": 1253,
      "Ġunh": 1254,
      "Ġray": 1255,
      "Ġspa": 1256,
      "Ġlove": 1257,
      "ums": 1258,
      "Ġfriend": 1259,
      "Ġeverlasting": 1260,
      "Ġmarry": 1261,
      "Ġmartyr": 1262,
      "Ġvow": 1263,
      "Ġvain": 1264,
      "Ġawhi": 1265,
      "Ġprove": 1266,
      "Ġsound": 1267,
      "Ġturned": 1268,
      "Ġscath": 1269,
      "Ġbeasts": 1270,
      "Ġadorn": 1271,
      "Ġbags": 1272,
      "Ġrepa": 1273,
      "Ġtells": 1274,
      "Ġjust": 1275,
      "Ġfind": 1276,
      "Ġfalls": 1277,
      "Ġwoodcock": 1278,
      "Ġsacrifice": 1279,
      "Ġmournful": 1280,
      "Ġtrop": 1281,
      "Ġflatly": 1282,
      "Ġromans": 1283,
      "Ġperforce": 1284,
      "Ġtalk": 1285,
      "Ġfetch": 1286,
      "Ġdetested": 1287,
      "Ġfull": 1288,
      "Ġbefall": 1289,
      "Ġvau": 1290,
      "Ġpuppet": 1291,
      "Ġredeem": 1292,
      "Ġjudges": 1293,
      "Ġstripling": 1294,
      "Ġheavy": 1295,
      "Ġinterest": 1296,
      "Ġtarquin": 1297,
      "Ġnature": 1298,
      "Ġdrops": 1299,
      "Ġciting": 1300,
      "Ġcassio": 1301,
      "rupter": 1302,
      "Ġsignifies": 1303,
      "Ġduties": 1304,
      "Ġgrumio": 1305,
      "Ġclosed": 1306,
      "Ġtongue": 1307,
      "Ġpardon": 1308,
      "Ġshrink": 1309,
      "Ġanother": 1310,
      "Ġimage": 1311,
      "Ġinhuman": 1312,
      "Ġembrace": 1313,
      "Ġdrown": 1314,
      "Ġputs": 1315,
      "Ġreveng": 1316,
      "Ġambush": 1317,
      "Ġwoefull": 1318,
      "Ġclimb": 1319,
      "ceed": 1320,
      "eks": 1321,
      "ect": 1322,
      "get": 1323,
      "ner": 1324,
      "ned": 1325,
      "tty": 1326,
      "zen": 1327,
      "Ġtas": 1328,
      "Ġtest": 1329,
      "Ġsire": 1330,
      "out": 1331,
      "Ġbra": 1332,
      "Ġlie": 1333,
      "Ġdies": 1334,
      "Ġdeep": 1335,
      "Ġcast": 1336,
      "Ġtold": 1337,
      "Ġyet": 1338,
      "Ġyoung": 1339,
      "Ġwhither": 1340,
      "ings": 1341,
      "Ġoffe": 1342,
      "Ġmelt": 1343,
      "Ġcost": 1344,
      "Ġcoming": 1345,
      "Ġliv": 1346,
      "Ġroof": 1347,
      "Ġstr": 1348,
      "Ġstory": 1349,
      "Ġunj": 1350,
      "Ġthereat": 1351,
      "Ġwouldst": 1352,
      "Ġbrethe": 1353,
      "Ġbreathe": 1354,
      "Ġpromis": 1355,
      "Ġfoot": 1356,
      "Ġneck": 1357,
      "Ġslain": 1358,
      "Ġboy": 1359,
      "Ġboot": 1360,
      "Ġscars": 1361,
      "Ġobsequ": 1362,
      "Ġlastly": 1363,
      "Ġheart": 1364,
      "Ġheads": 1365,
      "Ġgrowing": 1366,
      "Ġrelieves": 1367,
      "ardy": 1368,
      "Ġbasely": 1369,
      "Ġsung": 1370,
      "Ġentrails": 1371,
      "minded": 1372,
      "Ġravished": 1373,
      "Ġreprobation": 1374,
      "Ġacc": 1375,
      "Ġsatisfaction": 1376,
      "Ġpale": 1377,
      "knock": 1378,
      "Ġothello": 1379,
      "Ġnought": 1380,
      "Ġancient": 1381,
      "Ġdesperate": 1382,
      "larums": 1383,
      "Ġpiece": 1384,
      "Ġroderigo": 1385,
      "Ġaloof": 1386,
      "Ġthemselves": 1387,
      "Ġpeople": 1388,
      "Ġrescue": 1389,
      "Ġbecomes": 1390,
      "Ġfamish": 1391,
      "Ġawhile": 1392,
      "Ġvaunter": 1393,
      "ase": 1394,
      "able": 1395,
      "ched": 1396,
      "dem": 1397,
      "fty": 1398,
      "ile": 1399,
      "ject": 1400,
      "mit": 1401,
      "nate": 1402,
      "with": 1403,
      "Ġtire": 1404,
      "Ġmine": 1405,
      "Ġfears": 1406,
      "Ġthus": 1407,
      "Ġthree": 1408,
      "Ġthink": 1409,
      "Ġll": 1410,
      "Ġdie": 1411,
      "Ġtoget": 1412,
      "Ġeaten": 1413,
      "anc": 1414,
      "Ġnone": 1415,
      "Ġplain": 1416,
      "use": 1417,
      "rah": 1418,
      "owed": 1419,
      "Ġlament": 1420,
      "Ġfast": 1421,
      "Ġspare": 1422,
      "Ġcont": 1423,
      "Ġproceed": 1424,
      "Ġbegu": 1425,
      "Ġscold": 1426,
      "Ġreport": 1427,
      "Ġhorn": 1428,
      "Ġfifty": 1429,
      "Ġconsidering": 1430,
      "Ġaud": 1431,
      "Ġperform": 1432,
      "Ġworthy": 1433,
      "Ġworthless": 1434,
      "Ġhigh": 1435,
      "Ġtend": 1436,
      "Ġways": 1437,
      "Ġrecount": 1438,
      "Ġabout": 1439,
      "Ġmonument": 1440,
      "Ġsubstance": 1441,
      "Ġsacrificing": 1442,
      "Ġweary": 1443,
      "Ġpresent": 1444,
      "Ġremaineth": 1445,
      "tricks": 1446,
      "Ġbalc": 1447,
      "Ġfreeze": 1448,
      "Ġdinner": 1449,
      "Ġunhall": 1450,
      "Ġspake": 1451,
      "Ġrepair": 1452,
      "Ġtask": 1453,
      "Ġboots": 1454,
      "knocking": 1455,
      "sir": 1456,
      "Ġsust": 1457,
      "Ġbring": 1458,
      "Ġlear": 1459,
      "Ġlong": 1460,
      "Ġdis": 1461,
      "vely": 1462,
      "Ġbehold": 1463,
      "Ġcozen": 1464,
      "Ġknee": 1465,
      "Ġfault": 1466,
      "Ġluce": 1467,
      "Ġmild": 1468,
      "Ġdeare": 1469,
      "Ġenough": 1470,
      "Ġenmit": 1471,
      "Ġbreth": 1472,
      "Ġleave": 1473,
      "Ġleaves": 1474,
      "Ġplease": 1475,
      "Ġdesir": 1476,
      "Ġhanging": 1477,
      "Ġsave": 1478,
      "Ġobject": 1479,
      "Ġjad": 1480,
      "Ġwords": 1481,
      "Ġpretty": 1482,
      "Ġquarrelsome": 1483,
      "Ġtran": 1484,
      "Ġpoor": 1485,
      "Ġtales": 1486,
      "Ġservant": 1487,
      "Ġinche": 1488,
      "Ġincar": 1489,
      "Ġvex": 1490,
      "Ġhouse": 1491,
      "Ġwound": 1492,
      "Ġcause": 1493,
      "Ġbanishment": 1494,
      "Ġcheeks": 1495,
      "Ġblowing": 1496,
      "Ġtrophies": 1497,
      "Ġunjust": 1498,
      "Ġbretheren": 1499,
      "Ġaccur": 1500,
      "Ġtired": 1501,
      "Ġtogether": 1502,
      "Ġaudit": 1503,
      "Ġlearn": 1504,
      "deep": 1505,
      "Ġtim": 1506,
      "Ġhon": 1507,
      "Ġhither": 1508,
      "Ġdum": 1509,
      "Ġdanc": 1510,
      "Ġhence": 1511,
      "Ġbehe": 1512,
      "Ġbeaten": 1513,
      "Ġins": 1514,
      "Ġthought": 1515,
      "Ġspraw": 1516,
      "Ġalth": 1517,
      "Ġdesdem": 1518,
      "Ġart": 1519,
      "Ġfought": 1520,
      "Ġheavens": 1521,
      "Ġknavery": 1522,
      "Ġflourish": 1523,
      "Ġinterrupter": 1524,
      "Ġwherein": 1525,
      "Ġwretched": 1526,
      "Ġemperess": 1527,
      "Ġbastardy": 1528,
      "Ġbravely": 1529,
      "Ġoffence": 1530,
      "Ġcontent": 1531,
      "Ġproceedings": 1532,
      "Ġscolding": 1533,
      "Ġhighness": 1534,
      "Ġpresently": 1535,
      "Ġbalcony": 1536,
      "sirrah": 1537,
      "Ġfaults": 1538,
      "Ġdearer": 1539,
      "Ġenmity": 1540,
      "Ġjades": 1541,
      "Ġinches": 1542,
      "Ġlat": 1543,
      "Ġoat": 1544,
      "lled": 1545,
      "Ġhein": 1546,
      "Ġshal": 1547,
      "Ġread": 1548,
      "aded": 1549,
      "Ġlux": 1550,
      "ange": 1551,
      "Ġdeeds": 1552,
      "Ġmost": 1553,
      "Ġappare": 1554,
      "Ġagain": 1555,
      "Ġfetter": 1556,
      "Ġsorrowful": 1557,
      "Ġdetestable": 1558,
      "Ġvillains": 1559,
      "Ġthaw": 1560,
      "Ġtestim": 1561,
      "Ġobsequious": 1562,
      "Ġbeguile": 1563,
      "Ġlucent": 1564,
      "Ġmildly": 1565,
      "Ġdesirous": 1566,
      "Ġtranio": 1567,
      "Ġincarnate": 1568,
      "Ġhousehold": 1569,
      "Ġauditory": 1570,
      "Ġdumb": 1571,
      "Ġsprawl": 1572,
      "ndsire": 1573,
      "Ġforthwith": 1574,
      "Ġnews": 1575,
      "Ġservice": 1576,
      "Ġshowers": 1577,
      "Ġstrange": 1578,
      "Ġunhallowed": 1579,
      "Ġdisea": 1580,
      "Ġbrethren": 1581,
      "Ġaccursed": 1582,
      "Ġtime": 1583,
      "Ġhonour": 1584,
      "Ġalthough": 1585,
      "Ġdesdemon": 1586,
      "Ġready": 1587,
      "nance": 1588,
      "Ġbio": 1589,
      "ello": 1590,
      "Ġwrongful": 1591,
      "Ġbeheaded": 1592,
      "Ġinsat": 1593,
      "Ġlatin": 1594,
      "Ġoats": 1595,
      "Ġheinous": 1596,
      "Ġluxur": 1597,
      "Ġlucentio": 1598,
      "iate": 1599,
      "ndello": 1600,
      "leges": 1601,
      "Ġgrandsire": 1602,
      "Ġtestimony": 1603,
      "Ġdiseases": 1604,
      "Ġapparelled": 1605,
      "Ġes": 1606,
      "Ġbiondello": 1607,
      "Ġdevo": 1608,
      "Ġinsatiate": 1609,
      "Ġluxurious": 1610,
      "Ġpity": 1611,
      "Ġdevoid": 1612,
      "Ġhat": 1613,
      "Ġshalt": 1614,
      "Ġtor": 1615,
      "Ġdire": 1616,
      "Ġfeel": 1617,
      "Ġcom": 1618,
      "Ġtorment": 1619,
      "Ġle": 1620,
      "Ġtorments": 1621,
      "ence": 1622,
      "Ġwretch": 1623,
      "cra": 1624,
      "Ġexecra": 1625,
      "Ġsentence": 1626,
      "Ġexecrable": 1627,
      "Ġyo": 1628,
      "Ġdireful": 1629,
      "Ġur": 1630,
      "Ġng": 1631,
      "Ġope": 1632,
      "Ġwoes": 1633,
      "Ġse": 1634,
      "Ġ;": 1635,
      "Ġ!": 1636,
      "Ġld": 1637,
      "Ġet": 1638,
      "Ġsi": 1639,
      "Ġhy": 1640,
      "Ġome": 1641,
      "Ġ?": 1642,
      "Ġut": 1643,
      "Ġed": 1644,
      "Ġee": 1645,
      "fort": 1646,
      "Ġcomfort": 1647,
      "Ġter": 1648,
      "Ġther": 1649,
      "Ġem": 1650,
      "Ġkno": 1651,
      "Ġrom": 1652,
      "Ġbreed": 1653,
      "Ġir": 1654,
      "Ġing": 1655,
      "Ġrs": 1656,
      "Ġbreeder": 1657,
      "Ġill": 1658,
      "Ġnt": 1659,
      "Ġprisoner": 1660,
      "Ġith": 1661,
      "Ġthi": 1662,
      "Ġast": 1663,
      "Ġie": 1664,
      "Ġbu": 1665,
      "Ġch": 1666,
      "Ġave": 1667,
      "Ġbr": 1668,
      "Ġod": 1669,
      "Ġot": 1670,
      "Ġgh": 1671,
      "Ġce": 1672,
      "Ġea": 1673,
      "Ġwil": 1674,
      "Ġhan": 1675,
      "Ġood": 1676,
      "Ġather": 1677,
      "Ġmis": 1678,
      "Ġoth": 1679,
      "Ġell": 1680,
      "Ġuld": 1681,
      "Ġurn": 1682,
      "Ġath": 1683,
      "Ġwa": 1684,
      "Ġmp": 1685,
      "Ġive": 1686,
      "Ġfe": 1687,
      "Ġfathe": 1688,
      "Ġtho": 1689,
      "Ġore": 1690,
      "Ġds": 1691,
      "Ġsha": 1692,
      "Ġke": 1693,
      "chance": 1694,
      "Ġous": 1695,
      "Ġti": 1696,
      "Ġht": 1697,
      "Ġfat": 1698,
      "Ġwha": 1699,
      "Ġshou": 1700,
      "Ġhall": 1701,
      "Ġrn": 1702,
      "Ġandronic": 1703,
      "Ġght": 1704,
      "Ġould": 1705,
      "Ġss": 1706,
      "Ġster": 1707,
      "Ġfath": 1708,
      "Ġdi": 1709,
      "Ġhee": 1710,
      "Ġeve": 1711,
      "Ġul": 1712,
      "Ġemper": 1713,
      "Ġspoke": 1714,
      "Ġcurt": 1715,
      "Ġproudest": 1716,
      "Ġmischance": 1717,
      "Ġri": 1718,
      "Ġess": 1719,
      "Ġius": 1720,
      "Ġly": 1721,
      "Ġom": 1722,
      "Ġgi": 1723,
      "Ġck": 1724,
      "Ġev": 1725,
      "Ġeed": 1726,
      "Ġead": 1727,
      "Ġry": 1728,
      "de": 1729,
      "Ġrie": 1730,
      "Ġake": 1731,
      "Ġil": 1732,
      "Ġock": 1733,
      "Ġns": 1734,
      "Ġny": 1735,
      "Ġhey": 1736,
      "Ġel": 1737,
      "Ġnob": 1738,
      "Ġsho": 1739,
      "Ġmas": 1740,
      "Ġhav": 1741,
      "Ġrow": 1742,
      "Ġwom": 1743,
      "Ġluci": 1744,
      "Ġful": 1745,
      "Ġandronici": 1746,
      "Ġver": 1747,
      "Ġers": 1748,
      "Ġtis": 1749,
      "Ġain": 1750,
      "Ġmes": 1751,
      "Ġies": 1752,
      "Ġist": 1753,
      "Ġnc": 1754,
      "Ġhen": 1755,
      "Ġcu": 1756,
      "Ġep": 1757,
      "Ġbea": 1758,
      "Ġine": 1759,
      "Ġki": 1760,
      "Ġgoo": 1761,
      "ilius": 1762,
      "Ġrt": 1763,
      "Ġrth": 1764,
      "Ġmaste": 1765,
      "Ġslow": 1766,
      "Ġfarew": 1767,
      "ai": 1768,
      "Ġ-": 1769,
      "Ġves": 1770,
      "Ġnds": 1771,
      "Ġest": 1772,
      "Ġts": 1773,
      "Ġav": 1774,
      "Ġwn": 1775,
      "Ġire": 1776,
      "Ġfore": 1777,
      "Ġfri": 1778,
      "Ġthei": 1779,
      "Ġlf": 1780,
      "Ġomes": 1781,
      "Ġnce": 1782,
      "Ġnter": 1783,
      "Ġge": 1784,
      "Ġeir": 1785,
      "Ġeath": 1786,
      "Ġnock": 1787,
      "Ġperor": 1788,
      "Ġunt": 1789,
      "Ġught": 1790,
      "Ġate": 1791,
      "Ġife": 1792,
      "Ġrd": 1793,
      "Ġrst": 1794,
      "Ġswe": 1795,
      "Ġfrien": 1796,
      "Ġlavin": 1797,
      "Ġars": 1798,
      "Ġress": 1799,
      "Ġknoc": 1800,
      "Ġmperor": 1801,
      "Ġgiv": 1802,
      "fo": 1803,
      "iou": 1804,
      "Ġty": 1805,
      "Ġtle": 1806,
      "Ġtter": 1807,
      "Ġaven": 1808,
      "Ġsad": 1809,
      "Ġia": 1810,
      "Ġig": 1811,
      "Ġile": 1812,
      "Ġike": 1813,
      "Ġious": 1814,
      "Ġhould": 1815,
      "Ġbs": 1816,
      "Ġoble": 1817,
      "Ġder": 1818,
      "Ġheir": 1819,
      "Ġends": 1820,
      "Ġpp": 1821,
      "Ġps": 1822,
      "Ġpon": 1823,
      "Ġbei": 1824,
      "Ġbein": 1825,
      "Ġgot": 1826,
      "Ġron": 1827,
      "Ġlain": 1828,
      "Ġaturn": 1829,
      "Ġdeat": 1830,
      "Ġspe": 1831,
      "Ġvinia": 1832,
      "Ġbrothe": 1833,
      "Ġsaturni": 1834,
      "Ġsaturnin": 1835,
      "Ġears": 1836,
      "Ġoud": 1837,
      "Ġaemili": 1838,
      "Ġlitt": 1839,
      "Ġwoul": 1840,
      "Ġiends": 1841,
      "Ġshoul": 1842,
      "Ġempero": 1843,
      "Ġcurti": 1844,
      "Ġriends": 1845,
      "Ġnobl": 1846,
      "Ġavinia": 1847,
      "barous": 1848,
      "Ġ:": 1849,
      "Ġx": 1850,
      "Ġeror": 1851,
      "Ġxe": 1852,
      "Ġtu": 1853,
      "Ġtes": 1854,
      "Ġtus": 1855,
      "Ġtea": 1856,
      "Ġtear": 1857,
      "Ġae": 1858,
      "Ġak": 1859,
      "Ġses": 1860,
      "Ġmb": 1861,
      "Ġmilius": 1862,
      "Ġid": 1863,
      "Ġind": 1864,
      "Ġild": 1865,
      "Ġial": 1866,
      "Ġight": 1867,
      "Ġide": 1868,
      "Ġthr": 1869,
      "Ġthes": 1870,
      "Ġls": 1871,
      "Ġok": 1872,
      "Ġol": 1873,
      "Ġoo": 1874,
      "Ġnes": 1875,
      "Ġnem": 1876,
      "Ġnia": 1877,
      "Ġdee": 1878,
      "Ġcus": 1879,
      "Ġeast": 1880,
      "Ġelf": 1881,
      "Ġefore": 1882,
      "Ġelie": 1883,
      "Ġbel": 1884,
      "Ġbeas": 1885,
      "Ġye": 1886,
      "Ġyself": 1887,
      "men": 1888,
      "Ġmak": 1889,
      "Ġlif": 1890,
      "Ġlius": 1891,
      "Ġue": 1892,
      "Ġum": 1893,
      "Ġust": 1894,
      "Ġong": 1895,
      "Ġons": 1896,
      "Ġrothers": 1897,
      "Ġitus": 1898,
      "Ġrel": 1899,
      "Ġreat": 1900,
      "Ġtak": 1901,
      "Ġtand": 1902,
      "Ġror": 1903,
      "Ġrous": 1904,
      "Ġtrump": 1905,
      "Ġord": 1906,
      "Ġorth": 1907,
      "Ġsatu": 1908,
      "Ġsatur": 1909,
      "Ġuncl": 1910,
      "Ġbrot": 1911,
      "Ġsist": 1912,
      "Ġeart": 1913,
      "Ġought": 1914,
      "Ġgrea": 1915,
      "Ġfirs": 1916,
      "Ġsorr": 1917,
      "Ġaemi": 1918,
      "Ġexeun": 1919,
      "Ġweap": 1920,
      "Ġbarba": 1921,
      "Ġbarbar": 1922,
      "ronicus": 1923,
      "Ġrecei": 1924,
      "Ġhild": 1925,
      "icing": 1926,
      "Ġurial": 1927,
      "Ġnto": 1928,
      "Ġeak": 1929,
      "Ġwoma": 1930,
      "Ġluciu": 1931,
      "Ġister": 1932,
      "Ġncle": 1933,
      "dge": 1934,
      "icus": 1935,
      "Ġndly": 1936,
      "Ġerv": 1937,
      "Ġtur": 1938,
      "Ġtly": 1939,
      "Ġtil": 1940,
      "Ġttle": 1941,
      "Ġtel": 1942,
      "Ġap": 1943,
      "Ġace": 1944,
      "Ġaron": 1945,
      "Ġwr": 1946,
      "Ġwro": 1947,
      "Ġwron": 1948,
      "Ġwful": 1949,
      "Ġms": 1950,
      "Ġmor": 1951,
      "Ġmin": 1952,
      "Ġmies": 1953,
      "Ġio": 1954,
      "Ġise": 1955,
      "Ġhs": 1956,
      "Ġbi": 1957,
      "Ġbl": 1958,
      "Ġbus": 1959,
      "Ġths": 1960,
      "Ġthing": 1961,
      "Ġlor": 1962,
      "Ġllow": 1963,
      "Ġost": 1964,
      "Ġoman": 1965,
      "Ġook": 1966,
      "Ġnk": 1967,
      "Ġnour": 1968,
      "Ġnous": 1969,
      "Ġness": 1970,
      "Ġntle": 1971,
      "Ġngs": 1972,
      "Ġdy": 1973,
      "Ġdly": 1974,
      "Ġdges": 1975,
      "Ġhed": 1976,
      "Ġhem": 1977,
      "Ġga": 1978,
      "Ġgs": 1979,
      "Ġges": 1980,
      "Ġgen": 1981,
      "Ġcius": 1982,
      "Ġef": 1983,
      "Ġeg": 1984,
      "Ġend": 1985,
      "Ġeat": 1986,
      "Ġeing": 1987,
      "Ġeet": 1988,
      "Ġece": 1989,
      "Ġpea": 1990,
      "Ġmys": 1991,
      "Ġks": 1992,
      "Ġment": 1993,
      "Ġsom": 1994,
      "Ġlik": 1995,
      "Ġud": 1996,
      "Ġure": 1997,
      "Ġish": 1998,
      "Ġittle": 1999,
      "Ġstan": 2000,
      "Ġrefore": 2001,
      "Ġrewell": 2002,
      "Ġlas": 2003,
      "Ġfac": 2004,
      "ived": 2005,
      "Ġrv": 2006,
      "Ġrtis": 2007,
      "Ġrcus": 2008,
      "Ġrms": 2009,
      "Ġrrel": 2010,
      "Ġrds": 2011,
      "Ġroud": 2012,
      "Ġtherefor": 2013,
      "Ġtitl": 2014,
      "Ġtitu": 2015,
      "Ġorst": 2016,
      "unes": 2017,
      "Ġherefore": 2018,
      "Ġeverl": 2019,
      "Ġene": 2020,
      "Ġmarc": 2021,
      "Ġmarr": 2022,
      "Ġarewell": 2023,
      "Ġvil": 2024,
      "Ġala": 2025,
      "Ġawa": 2026,
      "Ġperf": 2027,
      "Ġbroth": 2028,
      "Ġlavi": 2029,
      "Ġsoun": 2030,
      "Ġoul": 2031,
      "Ġouth": 2032,
      "Ġenemie": 2033,
      "Ġsco": 2034,
      "Ġqua": 2035,
      "Ġheave": 2036,
      "Ġburia": 2037,
      "Ġarm": 2038,
      "Ġarcus": 2039,
      "Ġdevi": 2040,
      "Ġbloo": 2041,
      "Ġtribu": 2042,
      "Ġaaro": 2043,
      "Ġlimb": 2044,
      "Ġgentl": 2045,
      "Ġwitn": 2046,
      "rifice": 2047,
      "rificing": 2048,
      "Ġbanis": 2049,
      "haps": 2050,
      "Ġflour": 2051,
      "Ġmuti": 2052,
      "Ġinterrup": 2053,
      "Ġhich": 2054,
      "Ġimbs": 2055,
      "Ġery": 2056,
      "Ġente": 2057,
      "Ġentle": 2058,
      "ici": 2059,
      "Ġupo": 2060,
      "Ġdisfig": 2061,
      "Ġreprobat": 2062,
      "Ġstrip": 2063,
      "Ġsatisfact": 2064,
      "Ġlls": 2065,
      "Ġese": 2066,
      "Ġetter": 2067,
      "Ġsigh": 2068,
      "Ġemilius": 2069,
      "Ġchil": 2070,
      "Ġoths": 2071,
      "Ġurnine": 2072,
      "Ġrial": 2073,
      "Ġilius": 2074,
      "Ġrown": 2075,
      "Ġfarewe": 2076,
      "Ġlavini": 2077,
      "Ġaturnine": 2078,
      "Ġlittl": 2079,
      "Ġxeunt": 2080,
      "Ġnemies": 2081,
      "ba": 2082,
      "ci": 2083,
      "cing": 2084,
      "cius": 2085,
      "cious": 2086,
      "com": 2087,
      "dg": 2088,
      "fies": 2089,
      "figure": 2090,
      "faction": 2091,
      "ho": 2092,
      "lai": 2093,
      "min": 2094,
      "na": 2095,
      "si": 2096,
      "ti": 2097,
      "ul": 2098,
      "uile": 2099,
      "Ġq": 2100,
      "Ġvey": 2101,
      "Ġrum": 2102,
      "Ġtay": 2103,
      "Ġted": 2104,
      "Ġties": 2105,
      "Ġtress": 2106,
      "Ġten": 2107,
      "Ġtion": 2108,
      "Ġtles": 2109,
      "Ġtness": 2110,
      "Ġters": 2111,
      "Ġtory": 2112,
      "Ġant": 2113,
      "Ġapon": 2114,
      "Ġaps": 2115,
      "Ġaise": 2116,
      "Ġsid": 2117,
      "Ġsed": 2118,
      "Ġsters": 2119,
      "Ġws": 2120,
      "Ġwher": 2121,
      "Ġmee": 2122,
      "Ġming": 2123,
      "Ġmora": 2124,
      "Ġich": 2125,
      "Ġient": 2126,
      "Ġives": 2127,
      "Ġips": 2128,
      "Ġicus": 2129,
      "Ġhu": 2130,
      "Ġhing": 2131,
      "Ġhit": 2132,
      "Ġhrow": 2133,
      "Ġhold": 2134,
      "Ġhough": 2135,
      "Ġbar": 2136,
      "Ġbas": 2137,
      "Ġbarous": 2138,
      "Ġbunes": 2139,
      "Ġfar": 2140,
      "Ġfter": 2141,
      "Ġfal": 2142,
      "Ġfig": 2143,
      "Ġfel": 2144,
      "ation": 2145,
      "Ġthin": 2146,
      "Ġthro": 2147,
      "Ġthal": 2148,
      "Ġlt": 2149,
      "Ġles": 2150,
      "Ġlus": 2151,
      "Ġlow": 2152,
      "Ġlks": 2153,
      "Ġllo": 2154,
      "Ġlarb": 2155,
      "Ġllain": 2156,
      "Ġlcome": 2157,
      "Ġoor": 2158,
      "Ġove": 2159,
      "Ġora": 2160,
      "Ġose": 2161,
      "Ġother": 2162,
      "Ġobs": 2163,
      "Ġoom": 2164,
      "Ġolks": 2165,
      "Ġoof": 2166,
      "Ġnh": 2167,
      "Ġnus": 2168,
      "Ġnea": 2169,
      "Ġned": 2170,
      "Ġnine": 2171,
      "Ġnvey": 2172,
      "Ġninus": 2173,
      "Ġnough": 2174,
      "Ġnicus": 2175,
      "Ġdr": 2176,
      "Ġdu": 2177,
      "Ġdon": 2178,
      "Ġding": 2179,
      "Ġdder": 2180,
      "Ġdronicus": 2181,
      "Ġhel": 2182,
      "Ġgro": 2183,
      "Ġgri": 2184,
      "Ġgure": 2185,
      "Ġci": 2186,
      "Ġct": 2187,
      "Ġcal": 2188,
      "Ġcious": 2189,
      "Ġtoge": 2190,
      "thren": 2191,
      "Ġew": 2192,
      "Ġein": 2193,
      "Ġeas": 2194,
      "Ġeful": 2195,
      "Ġequ": 2196,
      "Ġeen": 2197,
      "Ġelp": 2198,
      "Ġedges": 2199,
      "Ġehold": 2200,
      "Ġevent": 2201,
      "Ġeep": 2202,
      "arrel": 2203,
      "Ġpil": 2204,
      "Ġpare": 2205,
      "Ġpets": 2206,
      "Ġwif": 2207,
      "Ġwip": 2208,
      "Ġbee": 2209,
      "Ġbefor": 2210,
      "Ġbeli": 2211,
      "Ġmyse": 2212,
      "imony": 2213,
      "Ġwhit": 2214,
      "Ġink": 2215,
      "Ġinus": 2216,
      "Ġinia": 2217,
      "Ġhaps": 2218,
      "Ġhalt": 2219,
      "Ġwitha": 2220,
      "Ġwithi": 2221,
      "ien": 2222,
      "Ġmea": 2223,
      "Ġcol": 2224,
      "Ġlip": 2225,
      "Ġund": 2226,
      "Ġuth": 2227,
      "Ġuit": 2228,
      "Ġugh": 2229,
      "Ġult": 2230,
      "Ġundly": 2231,
      "Ġumb": 2232,
      "Ġumpets": 2233,
      "Ġucius": 2234,
      "Ġuarrel": 2235,
      "Ġthys": 2236,
      "Ġthysel": 2237,
      "Ġthoug": 2238,
      "Ġony": 2239,
      "Ġones": 2240,
      "Ġongs": 2241,
      "Ġiss": 2242,
      "Ġison": 2243,
      "Ġisses": 2244,
      "Ġished": 2245,
      "Ġrop": 2246,
      "Ġrong": 2247,
      "Ġroni": 2248,
      "Ġourn": 2249,
      "Ġither": 2250,
      "Ġitles": 2251,
      "Ġsto": 2252,
      "Ġsts": 2253,
      "Ġstly": 2254,
      "Ġstress": 2255,
      "Ġhers": 2256,
      "Ġree": 2257,
      "Ġren": 2258,
      "Ġreli": 2259,
      "Ġank": 2260,
      "Ġans": 2261,
      "Ġance": 2262,
      "Ġanot": 2263,
      "Ġlave": 2264,
      "Ġamb": 2265,
      "Ġamo": 2266,
      "Ġdoo": 2267,
      "Ġatt": 2268,
      "Ġates": 2269,
      "Ġaten": 2270,
      "Ġwhos": 2271,
      "Ġdem": 2272,
      "Ġune": 2273,
      "Ġunes": 2274,
      "Ġrai": 2275,
      "Ġracious": 2276,
      "Ġempre": 2277,
      "Ġempres": 2278,
      "Ġrm": 2279,
      "Ġrrow": 2280,
      "Ġrses": 2281,
      "Ġrry": 2282,
      "Ġrish": 2283,
      "Ġrfor": 2284,
      "Ġrison": 2285,
      "Ġrbarous": 2286,
      "Ġrhaps": 2287,
      "Ġloo": 2288,
      "Ġlood": 2289,
      "Ġcurs": 2290,
      "Ġswo": 2291,
      "Ġswea": 2292,
      "Ġ'?": 2293,
      "Ġtherefo": 2294,
      "Ġtrum": 2295,
      "Ġors": 2296,
      "Ġort": 2297,
      "Ġory": 2298,
      "Ġorrow": 2299,
      "Ġorses": 2300,
      "Ġords": 2301,
      "ineth": 2302,
      "Ġeverlast": 2303,
      "Ġenou": 2304,
      "Ġence": 2305,
      "Ġconve": 2306,
      "Ġexi": 2307,
      "Ġvi": 2308,
      "Ġbrea": 2309,
      "Ġbret": 2310,
      "Ġbreas": 2311,
      "Ġalar": 2312,
      "Ġawh": 2313,
      "Ġwors": 2314,
      "Ġwort": 2315,
      "Ġsiste": 2316,
      "Ġgrands": 2317,
      "Ġound": 2318,
      "Ġough": 2319,
      "Ġfoo": 2320,
      "Ġturnine": 2321,
      "Ġwarri": 2322,
      "Ġburi": 2323,
      "Ġlead": 2324,
      "Ġpledge": 2325,
      "Ġdesi": 2326,
      "Ġbeastl": 2327,
      "Ġmatt": 2328,
      "Ġmatte": 2329,
      "Ġexeu": 2330,
      "Ġarth": 2331,
      "Ġarrel": 2332,
      "Ġarbus": 2333,
      "Ġarbarous": 2334,
      "Ġadder": 2335,
      "Ġprai": 2336,
      "Ġprais": 2337,
      "Ġtamo": 2338,
      "Ġtamor": 2339,
      "Ġkisse": 2340,
      "Ġlovi": 2341,
      "Ġforthw": 2342,
      "Ġhorse": 2343,
      "Ġquarr": 2344,
      "Ġquarre": 2345,
      "Ġhose": 2346,
      "Ġwitne": 2347,
      "isfaction": 2348,
      "Ġsacr": 2349,
      "Ġbani": 2350,
      "Ġconsider": 2351,
      "Ġmout": 2352,
      "Ġknav": 2353,
      "Ġknave": 2354,
      "ction": 2355,
      "theren": 2356,
      "Ġmistr": 2357,
      "Ġmistre": 2358,
      "Ġmistres": 2359,
      "Ġwoodco": 2360,
      "Ġtige": 2361,
      "Ġwelco": 2362,
      "Ġafte": 2363,
      "Ġbette": 2364,
      "Ġslav": 2365,
      "Ġsacrifi": 2366,
      "Ġnothi": 2367,
      "Ġnothin": 2368,
      "Ġraveno": 2369,
      "Ġravenou": 2370,
      "Ġperhap": 2371,
      "Ġattemp": 2372,
      "Ġladd": 2373,
      "Ġalarbu": 2374,
      "Ġgraci": 2375,
      "Ġgracio": 2376,
      "Ġgraciou": 2377,
      "Ġlawfu": 2378,
      "Ġdetestab": 2379,
      "Ġpris": 2380,
      "Ġwretc": 2381,
      "Ġved": 2382,
      "Ġndronicus": 2383,
      "Ġows": 2384,
      "Ġowing": 2385,
      "Ġbird": 2386,
      "Ġgran": 2387,
      "Ġerefore": 2388,
      "Ġtempt": 2389,
      "Ġrue": 2390,
      "Ġruth": 2391,
      "Ġrumpets": 2392,
      "Ġvenous": 2393,
      "Ġsenat": 2394,
      "Ġweet": 2395,
      "Ġdemetri": 2396,
      "Ġbefo": 2397,
      "selves": 2398,
      "Ġsoldi": 2399,
      "Ġvaunt": 2400,
      "Ġobliv": 2401,
      "Ġstrai": 2402,
      "Ġravis": 2403,
      "Ġacious": 2404,
      "Ġsatisfa": 2405,
      "Ġunkind": 2406,
      "Ġrecou": 2407,
      "kno": 2408,
      "Ġmonu": 2409,
      "Ġchee": 2410,
      "Ġsoundl": 2411,
      "demon": 2412,
      "Ġunhallow": 2413,
      "Ġapparell": 2414,
      "Ġbiond": 2415,
      "Ġinsati": 2416,
      "Ġurtis": 2417,
      "Ġurish": 2418,
      "Ġself": 2419,
      "Ġets": 2420,
      "Ġthers": 2421,
      "Ġemies": 2422,
      "Ġroma": 2423,
      "Ġillain": 2424,
      "Ġithal": 2425,
      "Ġaster": 2426,
      "Ġasters": 2427,
      "Ġiend": 2428,
      "Ġeaven": 2429,
      "Ġurning": 2430,
      "Ġurninus": 2431,
      "Ġmpt": 2432,
      "Ġmpress": 2433,
      "Ġmpets": 2434,
      "Ġrnine": 2435,
      "Ġrninus": 2436,
      "Ġrious": 2437,
      "Ġevil": 2438,
      "Ġrief": 2439,
      "Ġistress": 2440,
      "Ġrthy": 2441,
      "Ġfarewel": 2442,
      "Ġavenous": 2443,
      "Ġiger": 2444,
      "Ġigure": 2445,
      "Ġaturninus": 2446,
      "Ġsaturninu": 2447,
      "Ġaemiliu": 2448,
      "Ġxit": 2449,
      "Ġtrumpet": 2450,
      "Ġweapo": 2451,
      "Ġbarbaro": 2452,
      "Ġbarbarou": 2453,
      "Ġreceiv": 2454,
      "Ġpeak": 2455,
      "Ġwitnes": 2456,
      "Ġlarbus": 2457,
      "Ġronicus": 2458,
      "air": 2459,
      "by": 2460,
      "bunes": 2461,
      "cur": 2462,
      "cue": 2463,
      "count": 2464,
      "don": 2465,
      "hie": 2466,
      "indly": 2467,
      "ifies": 2468,
      "je": 2469,
      "nat": 2470,
      "nan": 2471,
      "nanc": 2472,
      "pter": 2473,
      "rin": 2474,
      "rink": 2475,
      "sire": 2476,
      "tr": 2477,
      "ving": 2478,
      "wl": 2479,
      "Ġvest": 2480,
      "Ġurb": 2481,
      "Ġriors": 2482,
      "Ġze": 2483,
      "Ġzen": 2484,
      "Ġndsire": 2485,
      "Ġrifice": 2486,
      "Ġrificing": 2487,
      "Ġtin": 2488,
      "Ġtir": 2489,
      "Ġtra": 2490,
      "Ġtius": 2491,
      "Ġtain": 2492,
      "Ġtch": 2493,
      "Ġture": 2494,
      "Ġtio": 2495,
      "Ġtrong": 2496,
      "Ġtte": 2497,
      "Ġteel": 2498,
      "Ġtters": 2499,
      "Ġturb": 2500,
      "Ġtrails": 2501,
      "Ġtardy": 2502,
      "Ġtched": 2503,
      "Ġtisfaction": 2504,
      "Ġax": 2505,
      "Ġaar": 2506,
      "Ġale": 2507,
      "Ġame": 2508,
      "Ġair": 2509,
      "Ġase": 2510,
      "Ġater": 2511,
      "Ġaru": 2512,
      "Ġaid": 2513,
      "Ġable": 2514,
      "Ġaves": 2515,
      "Ġalf": 2516,
      "Ġabs": 2517,
      "Ġaight": 2518,
      "Ġament": 2519,
      "Ġavery": 2520,
      "Ġaith": 2521,
      "Ġails": 2522,
      "Ġause": 2523,
      "Ġavely": 2524,
      "Ġaineth": 2525,
      "Ġaction": 2526,
      "headed": 2527,
      "Ġsle": 2528,
      "Ġsus": 2529,
      "Ġsur": 2530,
      "Ġsea": 2531,
      "Ġsum": 2532,
      "Ġsses": 2533,
      "Ġsel": 2534,
      "Ġssio": 2535,
      "Ġsidering": 2536,
      "Ġschance": 2537,
      "Ġsfigure": 2538,
      "Ġsfaction": 2539,
      "Ġsdemon": 2540,
      "Ġwl": 2541,
      "Ġwat": 2542,
      "Ġwing": 2543,
      "Ġwain": 2544,
      "Ġwate": 2545,
      "Ġwers": 2546,
      "Ġmn": 2547,
      "Ġmus": 2548,
      "Ġmit": 2549,
      "Ġmet": 2550,
      "Ġmil": 2551,
      "Ġmig": 2552,
      "Ġmbs": 2553,
      "Ġmish": 2554,
      "Ġmpe": 2555,
      "Ġmper": 2556,
      "Ġmming": 2557,
      "Ġmong": 2558,
      "Ġmony": 2559,
      "Ġmiss": 2560,
      "Ġmorous": 2561,
      "Ġmselves": 2562,
      "ought": 2563,
      "Ġip": 2564,
      "Ġiv": 2565,
      "Ġion": 2566,
      "Ġime": 2567,
      "Ġiron": 2568,
      "Ġiate": 2569,
      "Ġilt": 2570,
      "Ġipe": 2571,
      "Ġindly": 2572,
      "Ġider": 2573,
      "Ġiors": 2574,
      "Ġiers": 2575,
      "Ġimb": 2576,
      "Ġivion": 2577,
      "Ġived": 2578,
      "Ġirous": 2579,
      "Ġipling": 2580,
      "Ġinded": 2581,
      "Ġicks": 2582,
      "Ġici": 2583,
      "Ġicing": 2584,
      "Ġhre": 2585,
      "Ġhin": 2586,
      "Ġhus": 2587,
      "Ġhir": 2588,
      "Ġhut": 2589,
      "Ġhore": 2590,
      "Ġhous": 2591,
      "Ġhig": 2592,
      "Ġhful": 2593,
      "Ġhine": 2594,
      "Ġhment": 2595,
      "Ġhom": 2596,
      "Ġhree": 2597,
      "Ġhness": 2598,
      "Ġhance": 2599,
      "Ġhith": 2600,
      "Ġhink": 2601,
      "Ġhren": 2602,
      "Ġhinks": 2603,
      "Ġhless": 2604,
      "Ġhirt": 2605,
      "Ġhwith": 2606,
      "Ġhrink": 2607,
      "Ġbb": 2608,
      "Ġbt": 2609,
      "Ġbst": 2610,
      "Ġbly": 2611,
      "Ġbri": 2612,
      "Ġbone": 2613,
      "Ġbion": 2614,
      "Ġbli": 2615,
      "Ġbsequ": 2616,
      "Ġbout": 2617,
      "Ġbject": 2618,
      "Ġbation": 2619,
      "Ġfs": 2620,
      "Ġfre": 2621,
      "Ġfer": 2622,
      "Ġfle": 2623,
      "Ġfee": 2624,
      "Ġfra": 2625,
      "Ġfea": 2626,
      "Ġfas": 2627,
      "Ġfies": 2628,
      "Ġffe": 2629,
      "Ġflo": 2630,
      "Ġfice": 2631,
      "Ġfence": 2632,
      "red": 2633,
      "atrum": 2634,
      "atiate": 2635,
      "Ġthu": 2636,
      "Ġthful": 2637,
      "Ġthren": 2638,
      "Ġthinks": 2639,
      "Ġthless": 2640,
      "Ġthwith": 2641,
      "Ġthello": 2642,
      "Ġlk": 2643,
      "Ġlp": 2644,
      "Ġlou": 2645,
      "Ġler": 2646,
      "Ġlth": 2647,
      "Ġlar": 2648,
      "Ġlon": 2649,
      "Ġlle": 2650,
      "Ġlly": 2651,
      "Ġleed": 2652,
      "Ġlves": 2653,
      "Ġless": 2654,
      "Ġleep": 2655,
      "Ġlder": 2656,
      "Ġlourish": 2657,
      "Ġlding": 2658,
      "Ġlatly": 2659,
      "Ġlowed": 2660,
      "Ġandr": 2661,
      "Ġandro": 2662,
      "Ġandron": 2663,
      "Ġandsire": 2664,
      "Ġoa": 2665,
      "Ġoy": 2666,
      "Ġoes": 2667,
      "Ġoon": 2668,
      "Ġont": 2669,
      "Ġoke": 2670,
      "Ġomp": 2671,
      "Ġops": 2672,
      "Ġoot": 2673,
      "Ġoder": 2674,
      "Ġomb": 2675,
      "Ġoper": 2676,
      "Ġoming": 2677,
      "Ġosom": 2678,
      "Ġoint": 2679,
      "Ġoved": 2680,
      "Ġolla": 2681,
      "Ġoceed": 2682,
      "Ġoget": 2683,
      "Ġozen": 2684,
      "Ġondello": 2685,
      "Ġoving": 2686,
      "eral": 2687,
      "erate": 2688,
      "orou": 2689,
      "Ġner": 2690,
      "Ġnst": 2691,
      "Ġnee": 2692,
      "Ġnse": 2693,
      "Ġnate": 2694,
      "Ġnks": 2695,
      "Ġnio": 2696,
      "Ġnish": 2697,
      "Ġnte": 2698,
      "Ġnance": 2699,
      "Ġnished": 2700,
      "Ġnapp": 2701,
      "Ġnge": 2702,
      "Ġnounc": 2703,
      "Ġnators": 2704,
      "Ġnument": 2705,
      "Ġnmit": 2706,
      "Ġnici": 2707,
      "Ġnifies": 2708,
      "Ġdst": 2709,
      "Ġdir": 2710,
      "Ġdit": 2711,
      "Ġdra": 2712,
      "Ġded": 2713,
      "Ġdise": 2714,
      "Ġdroni": 2715,
      "Ġdvent": 2716,
      "Ġdiers": 2717,
      "Ġdcock": 2718,
      "Ġdeem": 2719,
      "Ġdorn": 2720,
      "Ġhes": 2721,
      "Ġhese": 2722,
      "Ġheath": 2723,
      "Ġhello": 2724,
      "Ġheeks": 2725,
      "Ġger": 2726,
      "Ġgon": 2727,
      "Ġging": 2728,
      "Ġgru": 2729,
      "Ġgain": 2730,
      "Ġgies": 2731,
      "Ġgful": 2732,
      "Ġgress": 2733,
      "Ġgel": 2734,
      "Ġgue": 2735,
      "Ġgni": 2736,
      "Ġglet": 2737,
      "Ġguile": 2738,
      "Ġcath": 2739,
      "Ġceed": 2740,
      "Ġcen": 2741,
      "Ġcks": 2742,
      "Ġched": 2743,
      "Ġcli": 2744,
      "Ġcient": 2745,
      "Ġceas": 2746,
      "Ġcount": 2747,
      "Ġcars": 2748,
      "Ġcrifice": 2749,
      "Ġcrificing": 2750,
      "Ġccur": 2751,
      "roved": 2752,
      "robation": 2753,
      "Ġtof": 2754,
      "Ġtog": 2755,
      "Ġtol": 2756,
      "Ġtom": 2757,
      "Ġton": 2758,
      "Ġtop": 2759,
      "Ġtofor": 2760,
      "Ġtone": 2761,
      "Ġtofo": 2762,
      "Ġek": 2763,
      "Ġeth": 2764,
      "Ġeather": 2765,
      "Ġely": 2766,
      "Ġeck": 2767,
      "Ġeem": 2768,
      "Ġeble": 2769,
      "Ġeive": 2770,
      "Ġeves": 2771,
      "Ġether": 2772,
      "Ġeress": 2773,
      "Ġeks": 2774,
      "Ġelt": 2775,
      "Ġeges": 2776,
      "Ġeunt": 2777,
      "Ġeco": 2778,
      "Ġewell": 2779,
      "Ġeel": 2780,
      "Ġect": 2781,
      "Ġeans": 2782,
      "Ġeren": 2783,
      "Ġeds": 2784,
      "Ġeathe": 2785,
      "Ġevest": 2786,
      "Ġemet": 2787,
      "Ġeding": 2788,
      "Ġeater": 2789,
      "Ġeze": 2790,
      "Ġello": 2791,
      "Ġeeth": 2792,
      "Ġeeks": 2793,
      "Ġetty": 2794,
      "Ġease": 2795,
      "Ġelled": 2796,
      "Ġeaded": 2797,
      "Ġeived": 2798,
      "Ġethren": 2799,
      "Ġetheren": 2800,
      "Ġecount": 2801,
      "Ġeheaded": 2802,
      "arnate": 2803,
      "sta": 2804,
      "anio": 2805,
      "vel": 2806,
      "Ġnon": 2807,
      "Ġpl": 2808,
      "Ġpt": 2809,
      "Ġpis": 2810,
      "Ġpar": 2811,
      "Ġping": 2812,
      "Ġpur": 2813,
      "Ġpet": 2814,
      "Ġpter": 2815,
      "Ġpal": 2816,
      "Ġpri": 2817,
      "Ġpress": 2818,
      "Ġport": 2819,
      "Ġpeas": 2820,
      "Ġpling": 2821,
      "Ġphies": 2822,
      "Ġplai": 2823,
      "Ġbec": 2824,
      "Ġbeh": 2825,
      "Ġbeate": 2826,
      "Ġbecome": 2827,
      "Ġbecom": 2828,
      "Ġbeho": 2829,
      "Ġys": 2830,
      "Ġyes": 2831,
      "Ġmysel": 2832,
      "Ġyoun": 2833,
      "Ġyout": 2834,
      "imming": 2835,
      "leg": 2836,
      "lege": 2837,
      "Ġwhil": 2838,
      "ntly": 2839,
      "irous": 2840,
      "Ġinous": 2841,
      "Ġinch": 2842,
      "Ġinks": 2843,
      "Ġings": 2844,
      "Ġineth": 2845,
      "Ġinner": 2846,
      "Ġshu": 2847,
      "Ġshor": 2848,
      "Ġshri": 2849,
      "Ġka": 2850,
      "Ġky": 2851,
      "Ġkat": 2852,
      "Ġking": 2853,
      "Ġkath": 2854,
      "Ġkil": 2855,
      "Ġkathe": 2856,
      "urious": 2857,
      "Ġform": 2858,
      "Ġforce": 2859,
      "Ġoff": 2860,
      "Ġoft": 2861,
      "Ġofore": 2862,
      "Ġgoe": 2863,
      "Ġgol": 2864,
      "Ġgov": 2865,
      "Ġwed": 2866,
      "Ġweat": 2867,
      "Ġweath": 2868,
      "Ġweathe": 2869,
      "rai": 2870,
      "Ġmage": 2871,
      "Ġmaineth": 2872,
      "Ġhaw": 2873,
      "Ġmean": 2874,
      "seq": 2875,
      "sehold": 2876,
      "sently": 2877,
      "Ġcos": 2878,
      "Ġcoz": 2879,
      "Ġcore": 2880,
      "Ġcock": 2881,
      "Ġcomi": 2882,
      "Ġcoze": 2883,
      "Ġsob": 2884,
      "Ġsof": 2885,
      "Ġsol": 2886,
      "Ġsoo": 2887,
      "Ġligh": 2888,
      "Ġlivion": 2889,
      "Ġull": 2890,
      "Ġuin": 2891,
      "Ġume": 2892,
      "Ġuman": 2893,
      "Ġuious": 2894,
      "Ġument": 2895,
      "Ġums": 2896,
      "Ġuite": 2897,
      "Ġubt": 2898,
      "Ġueen": 2899,
      "Ġuppet": 2900,
      "Ġuile": 2901,
      "allowed": 2902,
      "Ġonc": 2903,
      "Ġoner": 2904,
      "Ġonour": 2905,
      "Ġonvey": 2906,
      "Ġonounc": 2907,
      "Ġonument": 2908,
      "Ġonicus": 2909,
      "Ġonici": 2910,
      "Ġischance": 2911,
      "Ġisfigure": 2912,
      "Ġisfaction": 2913,
      "Ġrod": 2914,
      "Ġroo": 2915,
      "Ġrot": 2916,
      "Ġrost": 2917,
      "Ġrove": 2918,
      "Ġrops": 2919,
      "Ġroper": 2920,
      "Ġroved": 2921,
      "Ġrobation": 2922,
      "Ġromis": 2923,
      "Ġrode": 2924,
      "Ġasi": 2925,
      "Ġask": 2926,
      "Ġases": 2927,
      "Ġasid": 2928,
      "Ġourish": 2929,
      "Ġite": 2930,
      "Ġity": 2931,
      "Ġitle": 2932,
      "Ġities": 2933,
      "Ġitness": 2934,
      "Ġitory": 2935,
      "Ġste": 2936,
      "Ġsty": 2937,
      "Ġstor": 2938,
      "Ġstro": 2939,
      "Ġston": 2940,
      "Ġstee": 2941,
      "Ġstron": 2942,
      "Ġsted": 2943,
      "Ġstain": 2944,
      "Ġstance": 2945,
      "Ġsturb": 2946,
      "Ġstardy": 2947,
      "Ġstimony": 2948,
      "Ġherine": 2949,
      "Ġreq": 2950,
      "Ġrer": 2951,
      "Ġrev": 2952,
      "Ġrey": 2953,
      "Ġrein": 2954,
      "Ġrest": 2955,
      "Ġreve": 2956,
      "Ġreast": 2957,
      "Ġreble": 2958,
      "Ġreco": 2959,
      "Ġreathe": 2960,
      "Ġreater": 2961,
      "Ġretty": 2962,
      "Ġrethren": 2963,
      "Ġretheren": 2964,
      "Ġresently": 2965,
      "Ġnother": 2966,
      "Ġanst": 2967,
      "Ġanks": 2968,
      "Ġanished": 2969,
      "Ġange": 2970,
      "Ġlam": 2971,
      "Ġlame": 2972,
      "Ġlamen": 2973,
      "Ġami": 2974,
      "Ġamn": 2975,
      "Ġames": 2976,
      "Ġamon": 2977,
      "Ġamish": 2978,
      "Ġamorou": 2979,
      "Ġmane": 2980,
      "Ġmans": 2981,
      "Ġlett": 2982,
      "Ġletter": 2983,
      "Ġlette": 2984,
      "Ġsirous": 2985,
      "Ġsirrah": 2986,
      "Ġdot": 2987,
      "Ġfai": 2988,
      "Ġfau": 2989,
      "Ġfait": 2990,
      "Ġfami": 2991,
      "Ġfaul": 2992,
      "Ġfaction": 2993,
      "Ġats": 2994,
      "Ġathe": 2995,
      "Ġatin": 2996,
      "Ġatter": 2997,
      "Ġatly": 2998,
      "Ġatch": 2999,
      "Ġature": 3000,
      "Ġation": 3001,
      "Ġators": 3002,
      "Ġatrum": 3003,
      "Ġatiate": 3004,
      "Ġatisfaction": 3005,
      "Ġshea": 3006,
      "Ġsheat": 3007,
      "Ġdeme": 3008,
      "ade": 3009,
      "aineth": 3010,
      "fum": 3011,
      "Ġuna": 3012,
      "Ġung": 3013,
      "Ġunha": 3014,
      "Ġuneral": 3015,
      "Ġrah": 3016,
      "Ġral": 3017,
      "Ġrais": 3018,
      "Ġrace": 3019,
      "Ġraight": 3020,
      "Ġrandsire": 3021,
      "Ġifty": 3022,
      "Ġifice": 3023,
      "Ġificing": 3024,
      "Ġempr": 3025,
      "Ġempt": 3026,
      "Ġtale": 3027,
      "Ġtame": 3028,
      "Ġtable": 3029,
      "Ġtabs": 3030,
      "igies": 3031,
      "Ġfros": 3032,
      "Ġrl": 3033,
      "Ġrin": 3034,
      "Ġrve": 3035,
      "Ġrse": 3036,
      "Ġrius": 3037,
      "Ġrch": 3038,
      "Ġrate": 3039,
      "Ġrine": 3040,
      "Ġrty": 3041,
      "Ġrink": 3042,
      "Ġrsed": 3043,
      "Ġrriors": 3044,
      "Ġranted": 3045,
      "Ġrfume": 3046,
      "Ġrbus": 3047,
      "Ġrlasting": 3048,
      "Ġrquin": 3049,
      "Ġrtyr": 3050,
      "Ġrrupter": 3051,
      "Ġrned": 3052,
      "Ġrnate": 3053,
      "Ġrrah": 3054,
      "Ġrange": 3055,
      "Ġrought": 3056,
      "Ġratrum": 3057,
      "Ġranio": 3058,
      "Ġrimming": 3059,
      "Ġspr": 3060,
      "Ġspis": 3061,
      "Ġspar": 3062,
      "Ġsperate": 3063,
      "Ġlop": 3064,
      "Ġloof": 3065,
      "Ġlosed": 3066,
      "Ġcursed": 3067,
      "Ġswor": 3068,
      "Ġtherea": 3069,
      "Ġtheref": 3070,
      "Ġtheren": 3071,
      "Ġknocking": 3072,
      "Ġalls": 3073,
      "Ġaller": 3074,
      "Ġallowed": 3075,
      "ently": 3076,
      "uman": 3077,
      "Ġorm": 3078,
      "Ġorn": 3079,
      "Ġorce": 3080,
      "Ġorous": 3081,
      "Ġorry": 3082,
      "qui": 3083,
      "quious": 3084,
      "pons": 3085,
      "Ġmio": 3086,
      "Ġmigh": 3087,
      "Ġwoulds": 3088,
      "Ġheren": 3089,
      "Ġhereat": 3090,
      "Ġherein": 3091,
      "Ġeng": 3092,
      "Ġenm": 3093,
      "Ġeno": 3094,
      "Ġenice": 3095,
      "Ġenators": 3096,
      "Ġshoulde": 3097,
      "Ġnown": 3098,
      "Ġsati": 3099,
      "Ġsatis": 3100,
      "Ġsatiate": 3101,
      "Ġmarty": 3102,
      "Ġayst": 3103,
      "Ġconv": 3104,
      "Ġcony": 3105,
      "Ġarer": 3106,
      "Ġarelled": 3107,
      "Ġush": 3108,
      "Ġvo": 3109,
      "Ġving": 3110,
      "Ġvion": 3111,
      "Ġvice": 3112,
      "Ġvant": 3113,
      "Ġbree": 3114,
      "Ġbreat": 3115,
      "Ġbreath": 3116,
      "Ġbrether": 3117,
      "Ġalt": 3118,
      "Ġalter": 3119,
      "Ġawl": 3120,
      "Ġawful": 3121,
      "Ġwhic": 3122,
      "Ġwhith": 3123,
      "Ġperate": 3124,
      "Ġperious": 3125,
      "Ġperfo": 3126,
      "Ġperfum": 3127,
      "Ġproc": 3128,
      "Ġproce": 3129,
      "Ġprope": 3130,
      "Ġproved": 3131,
      "Ġpromi": 3132,
      "Ġprobation": 3133,
      "ppe": 3134,
      "Ġchiro": 3135,
      "Ġsoner": 3136,
      "Ġstab": 3137,
      "Ġstable": 3138,
      "Ġhowers": 3139,
      "Ġgrav": 3140,
      "Ġmays": 3141,
      "Ġdeadl": 3142,
      "Ġearl": 3143,
      "Ġeary": 3144,
      "Ġount": 3145,
      "Ġoundly": 3146,
      "Ġoung": 3147,
      "Ġoubt": 3148,
      "Ġounc": 3149,
      "Ġousehold": 3150,
      "Ġfol": 3151,
      "Ġnec": 3152,
      "Ġney": 3153,
      "Ġneth": 3154,
      "Ġslo": 3155,
      "Ġslid": 3156,
      "Ġboo": 3157,
      "Ġbos": 3158,
      "Ġbot": 3159,
      "Ġboso": 3160,
      "Ġtoot": 3161,
      "Ġturne": 3162,
      "Ġturninus": 3163,
      "Ġolding": 3164,
      "Ġwarr": 3165,
      "Ġenemi": 3166,
      "Ġbegi": 3167,
      "Ġscat": 3168,
      "Ġscor": 3169,
      "Ġscar": 3170,
      "lts": 3171,
      "Ġtwa": 3172,
      "Ġtwai": 3173,
      "Ġfien": 3174,
      "Ġque": 3175,
      "Ġquin": 3176,
      "Ġquee": 3177,
      "Ġquious": 3178,
      "Ġquite": 3179,
      "Ġthems": 3180,
      "Ġthemse": 3181,
      "Ġleas": 3182,
      "Ġleav": 3183,
      "Ġlease": 3184,
      "Ġplea": 3185,
      "Ġpledg": 3186,
      "Ġdest": 3187,
      "Ġdesde": 3188,
      "Ġhangi": 3189,
      "Ġhangin": 3190,
      "Ġminded": 3191,
      "Ġsorro": 3192,
      "Ġmatc": 3193,
      "Ġarl": 3194,
      "Ġarn": 3195,
      "Ġarous": 3196,
      "Ġarch": 3197,
      "Ġarry": 3198,
      "Ġarriors": 3199,
      "Ġarquin": 3200,
      "Ġartyr": 3201,
      "Ġarnate": 3202,
      "Ġardon": 3203,
      "Ġsently": 3204,
      "Ġade": 3205,
      "Ġads": 3206,
      "Ġadv": 3207,
      "Ġady": 3208,
      "Ġades": 3209,
      "Ġadve": 3210,
      "Ġading": 3211,
      "Ġadly": 3212,
      "Ġaded": 3213,
      "Ġadven": 3214,
      "Ġadows": 3215,
      "Ġsav": 3216,
      "Ġtripling": 3217,
      "Ġtricks": 3218,
      "estable": 3219,
      "Ġprawl": 3220,
      "Ġbag": 3221,
      "Ġbaby": 3222,
      "Ġobb": 3223,
      "Ġobl": 3224,
      "Ġobation": 3225,
      "Ġobje": 3226,
      "Ġobseq": 3227,
      "Ġlastl": 3228,
      "Ġlasting": 3229,
      "Ġrepo": 3230,
      "Ġrepr": 3231,
      "Ġja": 3232,
      "Ġjus": 3233,
      "Ġject": 3234,
      "arelled": 3235,
      "Ġwrongf": 3236,
      "Ġwrongfu": 3237,
      "Ġlovin": 3238,
      "Ġfoug": 3239,
      "Ġfough": 3240,
      "Ġhors": 3241,
      "Ġquarrelsom": 3242,
      "Ġquarrelso": 3243,
      "force": 3244,
      "Ġhol": 3245,
      "lik": 3246,
      "Ġfift": 3247,
      "Ġficing": 3248,
      "Ġtrut": 3249,
      "Ġtrius": 3250,
      "Ġhumo": 3251,
      "Ġhumou": 3252,
      "Ġhuman": 3253,
      "Ġimpe": 3254,
      "Ġmoo": 3255,
      "Ġmos": 3256,
      "Ġbeliev": 3257,
      "Ġbelieves": 3258,
      "Ġsacri": 3259,
      "Ġpoi": 3260,
      "Ġpoo": 3261,
      "Ġconsi": 3262,
      "Ġconsu": 3263,
      "Ġconsid": 3264,
      "Ġconside": 3265,
      "Ġhatefu": 3266,
      "Ġhadows": 3267,
      "Ġknaver": 3268,
      "Ġwoodc": 3269,
      "perate": 3270,
      "Ġaug": 3271,
      "Ġaugh": 3272,
      "Ġaults": 3273,
      "Ġwelc": 3274,
      "Ġwelcom": 3275,
      "Ġaft": 3276,
      "Ġdows": 3277,
      "Ġbett": 3278,
      "Ġwoeful": 3279,
      "Ġslai": 3280,
      "Ġmournf": 3281,
      "Ġmournin": 3282,
      "Ġmournfu": 3283,
      "Ġfla": 3284,
      "Ġflou": 3285,
      "Ġflat": 3286,
      "Ġfello": 3287,
      "Ġgrowi": 3288,
      "Ġgrowin": 3289,
      "Ġreliev": 3290,
      "Ġrelieve": 3291,
      "Ġappa": 3292,
      "Ġappar": 3293,
      "Ġappeas": 3294,
      "Ġfrui": 3295,
      "Ġladde": 3296,
      "Ġinterru": 3297,
      "Ġdetes": 3298,
      "Ġvilla": 3299,
      "Ġvillai": 3300,
      "Ġwherei": 3301,
      "Ġagle": 3302,
      "Ġagai": 3303,
      "Ġgla": 3304,
      "Ġperforc": 3305,
      "Ġserva": 3306,
      "Ġservi": 3307,
      "Ġservan": 3308,
      "Ġservic": 3309,
      "Ġfetc": 3310,
      "Ġfett": 3311,
      "Ġfette": 3312,
      "Ġlawf": 3313,
      "Ġsorrowf": 3314,
      "Ġsorrowfu": 3315,
      "Ġdeteste": 3316,
      "Ġworthles": 3317,
      "Ġinca": 3318,
      "Ġbroug": 3319,
      "Ġbrough": 3320,
      "Ġoney": 3321,
      "Ġhile": 3322,
      "Ġhiron": 3323,
      "Ġshowe": 3324,
      "Ġshower": 3325,
      "Ġpiti": 3326,
      "Ġvent": 3327,
      "Ġvely": 3328,
      "Ġnded": 3329,
      "Ġndello": 3330,
      "Ġimming": 3331,
      "Ġern": 3332,
      "Ġert": 3333,
      "Ġerve": 3334,
      "Ġering": 3335,
      "Ġeral": 3336,
      "Ġerate": 3337,
      "Ġerine": 3338,
      "Ġerious": 3339,
      "Ġerfume": 3340,
      "Ġerlasting": 3341,
      "Ġerrupter": 3342,
      "Ġerhaps": 3343,
      "Ġerforce": 3344,
      "Ġowed": 3345,
      "Ġowful": 3346,
      "Ġgrant": 3347,
      "Ġentr": 3348,
      "Ġently": 3349,
      "Ġentio": 3350,
      "Ġentrai": 3351,
      "Ġereat": 3352,
      "Ġerein": 3353,
      "Ġerest": 3354,
      "Ġteful": 3355,
      "Ġterest": 3356,
      "Ġruit": 3357,
      "Ġrupter": 3358,
      "Ġledges": 3359,
      "Ġhought": 3360,
      "Ġclea": 3361,
      "Ġpeo": 3362,
      "Ġperess": 3363,
      "Ġveng": 3364,
      "Ġveni": 3365,
      "Ġfume": 3366,
      "Ġshado": 3367,
      "Ġshadow": 3368,
      "Ġsmok": 3369,
      "Ġsign": 3370,
      "Ġsena": 3371,
      "Ġwoun": 3372,
      "Ġblee": 3373,
      "Ġnam": 3374,
      "Ġnavery": 3375,
      "Ġwelfa": 3376,
      "Ġwelfar": 3377,
      "Ġreserv": 3378,
      "Ġunappe": 3379,
      "Ġunappea": 3380,
      "Ġweepi": 3381,
      "Ġweepin": 3382,
      "Ġdistu": 3383,
      "Ġdistur": 3384,
      "Ġupter": 3385,
      "Ġrequi": 3386,
      "Ġrequit": 3387,
      "Ġsheathi": 3388,
      "Ġsheathin": 3389,
      "Ġdemetr": 3390,
      "Ġhumbl": 3391,
      "Ġtreb": 3392,
      "Ġfortu": 3393,
      "Ġfortun": 3394,
      "Ġcompl": 3395,
      "Ġcomplai": 3396,
      "Ġfaithfu": 3397,
      "Ġprodi": 3398,
      "Ġincens": 3399,
      "Ġmorta": 3400,
      "Ġdoub": 3401,
      "Ġdisfi": 3402,
      "Ġbefa": 3403,
      "Ġbefal": 3404,
      "Ġsoldie": 3405,
      "Ġanging": 3406,
      "Ġunkin": 3407,
      "Ġvai": 3408,
      "Ġvaun": 3409,
      "Ġimpati": 3410,
      "Ġimpatie": 3411,
      "Ġimpatien": 3412,
      "Ġimperi": 3413,
      "Ġimperiou": 3414,
      "Ġrunk": 3415,
      "mind": 3416,
      "Ġtumu": 3417,
      "Ġtumul": 3418,
      "Ġfune": 3419,
      "Ġople": 3420,
      "Ġophies": 3421,
      "Ġdigr": 3422,
      "Ġdigies": 3423,
      "Ġdigres": 3424,
      "Ġcaus": 3425,
      "Ġpup": 3426,
      "Ġpuppe": 3427,
      "Ġmethi": 3428,
      "Ġmethin": 3429,
      "Ġmethink": 3430,
      "Ġstraig": 3431,
      "Ġrede": 3432,
      "Ġredee": 3433,
      "Ġravish": 3434,
      "Ġreprob": 3435,
      "Ġreproba": 3436,
      "Ġjud": 3437,
      "Ġjudge": 3438,
      "Ġjudg": 3439,
      "Ġtrimm": 3440,
      "Ġtrimmi": 3441,
      "Ġtrimmin": 3442,
      "Ġfratr": 3443,
      "Ġfratru": 3444,
      "Ġprodigi": 3445,
      "Ġprodigie": 3446,
      "Ġtalle": 3447,
      "Ġacrifice": 3448,
      "Ġacrificing": 3449,
      "Ġwinte": 3450,
      "Ġburni": 3451,
      "Ġburnin": 3452,
      "Ġthrea": 3453,
      "Ġpreser": 3454,
      "Ġinhu": 3455,
      "Ġrema": 3456,
      "Ġremai": 3457,
      "Ġempere": 3458,
      "Ġemperes": 3459,
      "Ġsuffe": 3460,
      "Ġapprov": 3461,
      "Ġintere": 3462,
      "Ġtarq": 3463,
      "Ġtarqui": 3464,
      "Ġteet": 3465,
      "Ġharm": 3466,
      "Ġnatu": 3467,
      "Ġnatur": 3468,
      "Ġdrop": 3469,
      "Ġciti": 3470,
      "Ġcitin": 3471,
      "Ġcassi": 3472,
      "Ġeveng": 3473,
      "Ġembr": 3474,
      "Ġpair": 3475,
      "Ġpake": 3476,
      "Ġpronou": 3477,
      "Ġkatheri": 3478,
      "Ġassio": 3479,
      "Ġaslee": 3480,
      "Ġrails": 3481,
      "Ġdespi": 3482,
      "Ġfunera": 3483,
      "Ġsignifi": 3484,
      "Ġsignifie": 3485,
      "Ġabo": 3486,
      "Ġaby": 3487,
      "Ġabou": 3488,
      "Ġsinc": 3489,
      "Ġmonum": 3490,
      "Ġothell": 3491,
      "Ġnoug": 3492,
      "Ġduti": 3493,
      "Ġdutie": 3494,
      "Ġgrumi": 3495,
      "Ġclos": 3496,
      "Ġclose": 3497,
      "Ġtongu": 3498,
      "Ġpardo": 3499,
      "Ġshrin": 3500,
      "Ġancien": 3501,
      "Ġanoth": 3502,
      "Ġdespera": 3503,
      "Ġdesperat": 3504,
      "Ġsubsta": 3505,
      "Ġsubstan": 3506,
      "Ġsubstanc": 3507,
      "Ġbanishm": 3508,
      "Ġbanishme": 3509,
      "Ġbanishmen": 3510,
      "Ġsacrifici": 3511,
      "Ġsacrificin": 3512,
      "Ġimag": 3513,
      "Ġinhuma": 3514,
      "Ġembrac": 3515,
      "larum": 3516,
      "Ġches": 3517,
      "Ġpiec": 3518,
      "Ġroderig": 3519,
      "Ġusehold": 3520,
      "Ġaloo": 3521,
      "Ġthemselv": 3522,
      "Ġthemselve": 3523,
      "Ġpresen": 3524,
      "Ġpeopl": 3525,
      "Ġrescu": 3526,
      "Ġremaine": 3527,
      "Ġremainet": 3528,
      "trick": 3529,
      "Ġbalco": 3530,
      "Ġbasta": 3531,
      "Ġbastar": 3532,
      "Ġbastard": 3533,
      "Ġblowi": 3534,
      "Ġblowin": 3535,
      "Ġfreez": 3536,
      "Ġdinn": 3537,
      "Ġdinne": 3538,
      "Ġunhal": 3539,
      "Ġrepai": 3540,
      "Ġtrophi": 3541,
      "Ġtrophie": 3542,
      "Ġtesti": 3543,
      "Ġtested": 3544,
      "Ġtestable": 3545,
      "Ġbrace": 3546,
      "Ġbravel": 3547,
      "Ġlieve": 3548,
      "Ġlieves": 3549,
      "Ġlievest": 3550,
      "Ġoffen": 3551,
      "Ġoffenc": 3552,
      "Ġstrang": 3553,
      "Ġunju": 3554,
      "Ġbrethere": 3555,
      "Ġobsequi": 3556,
      "Ġobsequio": 3557,
      "Ġobsequiou": 3558,
      "Ġaccu": 3559,
      "knockin": 3560,
      "Ġlla": 3561,
      "Ġller": 3562,
      "Ġconten": 3563,
      "Ġproceedin": 3564,
      "Ġproceeding": 3565,
      "Ġbegui": 3566,
      "Ġbeguil": 3567,
      "Ġscoldi": 3568,
      "Ġscoldin": 3569,
      "Ġhighne": 3570,
      "Ġpresentl": 3571,
      "Ġbalcon": 3572,
      "Ġunhallo": 3573,
      "sirr": 3574,
      "Ġdiseas": 3575,
      "Ġlucen": 3576,
      "Ġmildl": 3577,
      "Ġbrethre": 3578,
      "Ġdesirou": 3579,
      "Ġjade": 3580,
      "Ġtrani": 3581,
      "Ġincarna": 3582,
      "Ġincarnat": 3583,
      "Ġhouseho": 3584,
      "Ġaccurs": 3585,
      "Ġaccurse": 3586,
      "Ġaudito": 3587,
      "Ġauditor": 3588,
      "Ġtimony": 3589,
      "Ġhono": 3590,
      "Ġhonou": 3591,
      "Ġbehea": 3592,
      "Ġbeheade": 3593,
      "Ġinsa": 3594,
      "Ġaltho": 3595,
      "Ġdesdemo": 3596,
      "Ġlati": 3597,
      "Ġheinou": 3598,
      "Ġluxu": 3599,
      "Ġapparel": 3600,
      "Ġtestimo": 3601,
      "Ġtestimon": 3602,
      "Ġlucenti": 3603,
      "Ġdisease": 3604,
      "Ġinsatia": 3605,
      "Ġluxuri": 3606,
      "Ġluxurio": 3607,
      "Ġluxuriou": 3608,
      "Ġesh": 3609,
      "Ġeserv": 3610,
      "Ġesdemon": 3611,
      "Ġescue": 3612,
      "Ġesirous": 3613,
      "Ġesently": 3614,
      "Ġesperate": 3615,
      "Ġdevoi": 3616,
      "Ġtorm": 3617,
      "Ġtorme": 3618,
      "Ġtormen": 3619,
      "Ġcomf": 3620,
      "Ġcomin": 3621,
      "Ġcomfo": 3622,
      "Ġlean": 3623,
      "Ġurd": 3624,
      "Ġurs": 3625,
      "Ġurst": 3626,
      "Ġurse": 3627,
      "Ġurious": 3628,
      "Ġursed": 3629,
      "Ġnging": 3630,
      "Ġngful": 3631,
      "Ġngel": 3632,
      "Ġngue": 3633,
      "Ġsehold": 3634,
      "Ġsequious": 3635,
      "Ġldst": 3636,
      "Ġldly": 3637,
      "Ġldiers": 3638,
      "Ġetch": 3639,
      "Ġetters": 3640,
      "Ġetched": 3641,
      "Ġetestable": 3642,
      "Ġhyself": 3643,
      "Ġuts": 3644,
      "Ġutius": 3645,
      "Ġuties": 3646,
      "Ġedeem": 3647,
      "Ġeek": 3648,
      "Ġeeps": 3649,
      "Ġeeze": 3650,
      "Ġterrupter": 3651,
      "Ġtherine": 3652,
      "Ġemy": 3653,
      "Ġemon": 3654,
      "Ġemselves": 3655,
      "Ġemaineth": 3656,
      "Ġbreede": 3657,
      "Ġirs": 3658,
      "Ġirt": 3659,
      "Ġirst": 3660,
      "Ġirty": 3661,
      "Ġntly": 3662,
      "Ġnted": 3663,
      "Ġntent": 3664,
      "Ġithful": 3665,
      "Ġasts": 3666,
      "Ġastly": 3667,
      "Ġastardy": 3668,
      "Ġief": 3669,
      "Ġieve": 3670,
      "Ġiece": 3671,
      "Ġieves": 3672,
      "Ġievest": 3673,
      "Ġchance": 3674,
      "Ġbrin": 3675,
      "Ġody": 3676,
      "Ġodigies": 3677,
      "Ġghness": 3678,
      "Ġceived": 3679,
      "Ġeaf": 3680,
      "Ġeave": 3681,
      "Ġeapons": 3682,
      "Ġhank": 3683,
      "Ġhanks": 3684,
      "Ġoodcock": 3685,
      "Ġatherine": 3686,
      "Ġothing": 3687,
      "Ġells": 3688,
      "Ġellow": 3689,
      "Ġuldst": 3690,
      "Ġurned": 3691,
      "Ġurnful": 3692,
      "Ġdsire": 3693,
      "Ġhallowed": 3694,
      "Ġrning": 3695,
      "Ġandronicu": 3696,
      "Ġoulder": 3697,
      "Ġouldst": 3698,
      "Ġripling": 3699,
      "Ġribunes": 3700,
      "Ġcking": 3701,
      "Ġeeds": 3702,
      "Ġeedings": 3703,
      "Ġeads": 3704,
      "Ġeading": 3705,
      "Ġeadly": 3706,
      "Ġriend": 3707,
      "Ġils": 3708,
      "Ġocking": 3709,
      "Ġnsum": 3710,
      "Ġnsidering": 3711,
      "Ġnsatiate": 3712,
      "Ġelves": 3713,
      "Ġelcome": 3714,
      "Ġelsome": 3715,
      "Ġrows": 3716,
      "Ġrowing": 3717,
      "Ġrowful": 3718,
      "Ġvern": 3719,
      "Ġverlasting": 3720,
      "Ġains": 3721,
      "Ġisturb": 3722,
      "Ġncarnate": 3723,
      "Ġeping": 3724,
      "Ġeport": 3725,
      "Ġepair": 3726,
      "Ġeprobation": 3727,
      "Ġkindly": 3728,
      "Ġrtal": 3729,
      "Ġrtune": 3730,
      "Ġrthless": 3731,
      "Ġrthwith": 3732,
      "Ġested": 3733,
      "Ġestable": 3734,
      "Ġestimony": 3735,
      "Ġavy": 3736,
      "Ġireful": 3737,
      "Ġlfare": 3738,
      "Ġnterrupter": 3739,
      "Ġeathing": 3740,
      "Ġateful": 3741,
      "Ġrdon": 3742,
      "Ġtyr": 3743,
      "Ġavens": 3744,
      "Ġigress": 3745,
      "Ġhoulder": 3746,
      "Ġdering": 3747,
      "Ġderigo": 3748,
      "Ġppet": 3749,
      "Ġppeas": 3750,
      "Ġpproved": 3751,
      "Ġpparelled": 3752,
      "Ġpons": 3753,
      "Ġronici": 3754,
      "Ġlains": 3755,
      "Ġoudest": 3756,
      "Ġxurious": 3757,
      "Ġmbly": 3758,
      "Ġildly": 3759,
      "Ġooth": 3760,
      "Ġnemy": 3761,
      "Ġeasts": 3762,
      "Ġelfare": 3763,
      "Ġelief": 3764,
      "Ġelieve": 3765,
      "Ġelieves": 3766,
      "Ġelievest": 3767,
      "Ġumio": 3768,
      "Ġumult": 3769,
      "Ġusty": 3770,
      "Ġongue": 3771,
      "Ġonsum": 3772,
      "Ġonsidering": 3773,
      "Ġrelsome": 3774,
      "Ġtrumpe": 3775,
      "Ġorthy": 3776,
      "Ġorthless": 3777,
      "Ġorthwith": 3778,
      "Ġervice": 3779,
      "Ġervant": 3780,
      "Ġiondello": 3781,
      "Ġbush": 3782,
      "Ġllowed": 3783,
      "Ġnkindly": 3784,
      "Ġnouri": 3785,
      "Ġnouris": 3786,
      "Ġefall": 3787,
      "Ġegin": 3788,
      "Ġeguile": 3789,
      "Ġeceive": 3790,
      "Ġeceived": 3791,
      "Ġishment": 3792,
      "Ġrvice": 3793,
      "Ġrvant": 3794,
      "Ġrrelsome": 3795,
      "Ġroudest": 3796,
      "Ġeverla": 3797,
      "Ġeverlas": 3798,
      "Ġmarcu": 3799,
      "Ġscol": 3800,
      "Ġbanishe": 3801,
      "Ġflouri": 3802,
      "Ġflouris": 3803,
      "Ġmutiu": 3804,
      "Ġinterrupt": 3805,
      "Ġinterrupte": 3806,
      "Ġdisfigu": 3807,
      "Ġdisfigur": 3808,
      "Ġreprobati": 3809,
      "Ġreprobatio": 3810,
      "Ġstripl": 3811,
      "Ġstripli": 3812,
      "Ġsatisfacti": 3813,
      "Ġsatisfactio": 3814,
      "Ġrumio": 3815,
      "Ġanted": 3816,
      "Ġapons": 3817,
      "Ġhithe": 3818,
      "Ġfigur": 3819,
      "Ġlesh": 3820,
      "Ġlowing": 3821,
      "Ġllains": 3822,
      "Ġnhallowed": 3823,
      "Ġnhuman": 3824,
      "Ġction": 3825,
      "Ġtogeth": 3826,
      "Ġeinous": 3827,
      "Ġeases": 3828,
      "Ġequious": 3829,
      "Ġequite": 3830,
      "Ġevents": 3831,
      "Ġparelled": 3832,
      "Ġwhithe": 3833,
      "Ġhalte": 3834,
      "Ġults": 3835,
      "Ġumbly": 3836,
      "Ġuarrelsome": 3837,
      "Ġisoner": 3838,
      "Ġrophies": 3839,
      "Ġrongs": 3840,
      "Ġourning": 3841,
      "Ġournful": 3842,
      "Ġreeze": 3843,
      "Ġanothe": 3844,
      "Ġambu": 3845,
      "Ġattem": 3846,
      "Ġdemon": 3847,
      "Ġrrows": 3848,
      "Ġrrowful": 3849,
      "Ġrform": 3850,
      "Ġrforce": 3851,
      "Ġrisoner": 3852,
      "Ġortal": 3853,
      "Ġortune": 3854,
      "Ġorrows": 3855,
      "Ġorrowful": 3856,
      "Ġeverlasti": 3857,
      "Ġeverlastin": 3858,
      "Ġenoug": 3859,
      "Ġawhil": 3860,
      "Ġgrandsi": 3861,
      "Ġgrandsir": 3862,
      "Ġwarrio": 3863,
      "Ġleadin": 3864,
      "Ġdesiro": 3865,
      "Ġarthy": 3866,
      "Ġarrelsome": 3867,
      "Ġforthwit": 3868,
      "Ġconsiderin": 3869,
      "Ġwoodcoc": 3870,
      "Ġdetestabl": 3871,
      "Ġpriso": 3872,
      "Ġwretche": 3873,
      "Ġgrante": 3874,
      "Ġsenato": 3875,
      "Ġsenator": 3876,
      "Ġdemetriu": 3877,
      "Ġsoldier": 3878,
      "Ġvaunte": 3879,
      "Ġoblivi": 3880,
      "Ġoblivio": 3881,
      "Ġstraigh": 3882,
      "Ġravishe": 3883,
      "Ġsatisfac": 3884,
      "Ġunkindl": 3885,
      "Ġrecoun": 3886,
      "knoc": 3887,
      "Ġmonumen": 3888,
      "Ġcheek": 3889,
      "Ġunhallowe": 3890,
      "Ġapparelle": 3891,
      "Ġbiondel": 3892,
      "Ġinsatiat": 3893,
      "Ġillains": 3894,
      "Ġeavens": 3895,
      "Ġriefs": 3896,
      "Ġttempt": 3897,
      "Ġarums": 3898,
      "Ġaithful": 3899,
      "Ġsleep": 3900,
      "Ġseases": 3901,
      "Ġselves": 3902,
      "Ġmity": 3903,
      "Ġmetrius": 3904,
      "Ġmperess": 3905,
      "Ġmperious": 3906,
      "Ġidering": 3907,
      "Ġhread": 3908,
      "Ġhirty": 3909,
      "Ġbstance": 3910,
      "Ġblivion": 3911,
      "Ġbsequious": 3912,
      "Ġffence": 3913,
      "Ġlthough": 3914,
      "Ġlarums": 3915,
      "Ġlled": 3916,
      "Ġontent": 3917,
      "Ġomplain": 3918,
      "Ġoots": 3919,
      "Ġoderigo": 3920,
      "Ġoceedings": 3921,
      "Ġogether": 3922,
      "Ġnishment": 3923,
      "Ġnterest": 3924,
      "Ġnappeas": 3925,
      "Ġnmity": 3926,
      "Ġditory": 3927,
      "Ġdronici": 3928,
      "Ġheathing": 3929,
      "Ġgnifies": 3930,
      "Ġceedings": 3931,
      "Ġcense": 3932,
      "Ġccursed": 3933,
      "Ġecomes": 3934,
      "Ġemetrius": 3935,
      "Ġedings": 3936,
      "Ġbehol": 3937
    },
    "merges": [
      [
        "Ġ",
        "t"
      ],
      [
        "Ġ",
        "a"
      ],
      [
        "h",
        "e"
      ],
      [
        "Ġ",
        "s"
      ],
      [
        "Ġ",
        "w"
      ],
      [
        "Ġ",
        "m"
      ],
      [
        "o",
        "u"
      ],
      [
        "Ġ",
        "i"
      ],
      [
        "Ġ",
        "h"
      ],
      [
        "n",
        "d"
      ],
      [
        "Ġ",
        "b"
      ],
      [
        "Ġ",
        "f"
      ],
      [
        "r",
        "e"
      ],
      [
        "a",
        "t"
      ],
      [
        "Ġt",
        "h"
      ],
      [
        "Ġt",
        "he"
      ],
      [
        "Ġ",
        "l"
      ],
      [
        "Ġa",
        "nd"
      ],
      [
        "i",
        "s"
      ],
      [
        "Ġ",
        "o"
      ],
      [
        "e",
        "r"
      ],
      [
        "l",
        "l"
      ],
      [
        "o",
        "r"
      ],
      [
        "Ġ",
        "n"
      ],
      [
        "i",
        "n"
      ],
      [
        "Ġ",
        "d"
      ],
      [
        "Ġ",
        "he"
      ],
      [
        "Ġ",
        "g"
      ],
      [
        "Ġ",
        "c"
      ],
      [
        "r",
        "o"
      ],
      [
        "e",
        "s"
      ],
      [
        "Ġt",
        "o"
      ],
      [
        "t",
        "h"
      ],
      [
        "Ġ",
        "e"
      ],
      [
        "a",
        "r"
      ],
      [
        "s",
        "t"
      ],
      [
        "a",
        "n"
      ],
      [
        "v",
        "e"
      ],
      [
        "Ġn",
        "o"
      ],
      [
        "Ġ",
        "p"
      ],
      [
        "Ġw",
        "i"
      ],
      [
        "Ġb",
        "e"
      ],
      [
        "Ġ",
        "y"
      ],
      [
        "Ġm",
        "y"
      ],
      [
        "Ġy",
        "ou"
      ],
      [
        "o",
        "n"
      ],
      [
        "i",
        "m"
      ],
      [
        "l",
        "e"
      ],
      [
        "Ġw",
        "h"
      ],
      [
        "n",
        "t"
      ],
      [
        "u",
        "s"
      ],
      [
        "Ġh",
        "is"
      ],
      [
        "e",
        "e"
      ],
      [
        "m",
        "e"
      ],
      [
        "l",
        "d"
      ],
      [
        "i",
        "r"
      ],
      [
        "Ġi",
        "n"
      ],
      [
        "'",
        "d"
      ],
      [
        "Ġh",
        "im"
      ],
      [
        "Ġth",
        "at"
      ],
      [
        "in",
        "g"
      ],
      [
        "Ġs",
        "h"
      ],
      [
        "'",
        "s"
      ],
      [
        "Ġ",
        "k"
      ],
      [
        "u",
        "r"
      ],
      [
        "Ġf",
        "or"
      ],
      [
        "Ġo",
        "f"
      ],
      [
        "Ġg",
        "o"
      ],
      [
        "he",
        "r"
      ],
      [
        "Ġw",
        "e"
      ],
      [
        "i",
        "t"
      ],
      [
        "r",
        "a"
      ],
      [
        "Ġm",
        "a"
      ],
      [
        "Ġh",
        "a"
      ],
      [
        "u",
        "t"
      ],
      [
        "Ġwi",
        "th"
      ],
      [
        "i",
        "e"
      ],
      [
        "e",
        "t"
      ],
      [
        "o",
        "w"
      ],
      [
        "ou",
        "r"
      ],
      [
        "Ġm",
        "e"
      ],
      [
        "s",
        "e"
      ],
      [
        "c",
        "e"
      ],
      [
        "Ġc",
        "o"
      ],
      [
        "Ġs",
        "o"
      ],
      [
        "Ġl",
        "i"
      ],
      [
        "Ġ",
        "u"
      ],
      [
        "a",
        "ll"
      ],
      [
        "e",
        "a"
      ],
      [
        "Ġth",
        "y"
      ],
      [
        "Ġk",
        "n"
      ],
      [
        "Ġth",
        "is"
      ],
      [
        "k",
        "e"
      ],
      [
        "Ġb",
        "ut"
      ],
      [
        "Ġth",
        "ou"
      ],
      [
        "Ġo",
        "n"
      ],
      [
        "Ġi",
        "s"
      ],
      [
        "Ġ",
        "ro"
      ],
      [
        "g",
        "h"
      ],
      [
        "Ġa",
        "s"
      ],
      [
        "Ġ",
        "our"
      ],
      [
        "at",
        "h"
      ],
      [
        "t",
        "er"
      ],
      [
        "Ġi",
        "t"
      ],
      [
        "o",
        "d"
      ],
      [
        "at",
        "her"
      ],
      [
        "m",
        "p"
      ],
      [
        "Ġs",
        "t"
      ],
      [
        "Ġhe",
        "r"
      ],
      [
        "Ġ",
        "re"
      ],
      [
        "Ġno",
        "t"
      ],
      [
        "Ġa",
        "n"
      ],
      [
        "Ġwi",
        "ll"
      ],
      [
        "Ġl",
        "a"
      ],
      [
        "Ġf",
        "ather"
      ],
      [
        "r",
        "u"
      ],
      [
        "a",
        "l"
      ],
      [
        "e",
        "ar"
      ],
      [
        "Ġa",
        "m"
      ],
      [
        "ou",
        "ld"
      ],
      [
        "gh",
        "t"
      ],
      [
        "Ġwh",
        "at"
      ],
      [
        "o",
        "re"
      ],
      [
        "ou",
        "s"
      ],
      [
        "a",
        "y"
      ],
      [
        "a",
        "s"
      ],
      [
        "Ġm",
        "an"
      ],
      [
        "l",
        "y"
      ],
      [
        "Ġsh",
        "all"
      ],
      [
        "Ġl",
        "et"
      ],
      [
        "i",
        "re"
      ],
      [
        "Ġs",
        "ir"
      ],
      [
        "i",
        "us"
      ],
      [
        "c",
        "k"
      ],
      [
        "Ġd",
        "o"
      ],
      [
        "Ġf",
        "a"
      ],
      [
        "Ġa",
        "t"
      ],
      [
        "ro",
        "n"
      ],
      [
        "i",
        "d"
      ],
      [
        "Ġs",
        "ee"
      ],
      [
        "Ġro",
        "me"
      ],
      [
        "e",
        "d"
      ],
      [
        "Ġwh",
        "o"
      ],
      [
        "Ġthe",
        "e"
      ],
      [
        "ur",
        "n"
      ],
      [
        "Ġb",
        "y"
      ],
      [
        "Ġs",
        "he"
      ],
      [
        "r",
        "ie"
      ],
      [
        "v",
        "er"
      ],
      [
        "Ġd",
        "e"
      ],
      [
        "a",
        "d"
      ],
      [
        "Ġw",
        "o"
      ],
      [
        "a",
        "in"
      ],
      [
        "i",
        "ll"
      ],
      [
        "f",
        "u"
      ],
      [
        "Ġyou",
        "r"
      ],
      [
        "Ġu",
        "n"
      ],
      [
        "o",
        "ck"
      ],
      [
        "Ġ",
        "ra"
      ],
      [
        "Ġco",
        "me"
      ],
      [
        "Ġl",
        "u"
      ],
      [
        "Ġi",
        "f"
      ],
      [
        "or",
        "d"
      ],
      [
        "i",
        "es"
      ],
      [
        "Ġthe",
        "y"
      ],
      [
        "e",
        "m"
      ],
      [
        "Ġf",
        "ire"
      ],
      [
        "f",
        "e"
      ],
      [
        "c",
        "h"
      ],
      [
        "Ġe",
        "mp"
      ],
      [
        "a",
        "st"
      ],
      [
        "i",
        "l"
      ],
      [
        "Ġw",
        "as"
      ],
      [
        "Ġgo",
        "od"
      ],
      [
        "Ġt",
        "a"
      ],
      [
        "at",
        "e"
      ],
      [
        "r",
        "i"
      ],
      [
        "t",
        "is"
      ],
      [
        "e",
        "ll"
      ],
      [
        "i",
        "g"
      ],
      [
        "Ġh",
        "ath"
      ],
      [
        "b",
        "le"
      ],
      [
        "Ġf",
        "ro"
      ],
      [
        "i",
        "ve"
      ],
      [
        "Ġ",
        "r"
      ],
      [
        "Ġs",
        "p"
      ],
      [
        "Ġha",
        "ve"
      ],
      [
        "Ġth",
        "an"
      ],
      [
        "Ġl",
        "o"
      ],
      [
        "Ġc",
        "ur"
      ],
      [
        "Ġs",
        "w"
      ],
      [
        "ee",
        "d"
      ],
      [
        "ve",
        "n"
      ],
      [
        "ro",
        "w"
      ],
      [
        "Ġ",
        "'"
      ],
      [
        "nt",
        "er"
      ],
      [
        "Ġthe",
        "ir"
      ],
      [
        "Ġma",
        "st"
      ],
      [
        "Ġthe",
        "re"
      ],
      [
        "Ġt",
        "ru"
      ],
      [
        "Ġmast",
        "er"
      ],
      [
        "Ġkn",
        "ock"
      ],
      [
        "Ġa",
        "ll"
      ],
      [
        "fu",
        "l"
      ],
      [
        "e",
        "nt"
      ],
      [
        "v",
        "es"
      ],
      [
        "u",
        "m"
      ],
      [
        "Ġfro",
        "m"
      ],
      [
        "Ġt",
        "it"
      ],
      [
        "Ġo",
        "r"
      ],
      [
        "q",
        "u"
      ],
      [
        "u",
        "n"
      ],
      [
        "p",
        "on"
      ],
      [
        "Ġma",
        "ke"
      ],
      [
        "l",
        "f"
      ],
      [
        "m",
        "es"
      ],
      [
        "nd",
        "s"
      ],
      [
        "re",
        "s"
      ],
      [
        "Ġkn",
        "ow"
      ],
      [
        "f",
        "ore"
      ],
      [
        "in",
        "e"
      ],
      [
        "Ġf",
        "rie"
      ],
      [
        "Ġm",
        "i"
      ],
      [
        "t",
        "her"
      ],
      [
        "Ġha",
        "nd"
      ],
      [
        "Ġw",
        "ould"
      ],
      [
        "Ġhe",
        "re"
      ],
      [
        "Ġe",
        "ver"
      ],
      [
        "Ġd",
        "ea"
      ],
      [
        "Ġgo",
        "th"
      ],
      [
        "Ġe",
        "n"
      ],
      [
        "Ġsh",
        "ould"
      ],
      [
        "on",
        "e"
      ],
      [
        "p",
        "s"
      ],
      [
        "Ġg",
        "ive"
      ],
      [
        "Ġno",
        "w"
      ],
      [
        "Ġs",
        "at"
      ],
      [
        "u",
        "re"
      ],
      [
        "Ġm",
        "ar"
      ],
      [
        "Ġa",
        "y"
      ],
      [
        "Ġc",
        "on"
      ],
      [
        "h",
        "i"
      ],
      [
        "Ġa",
        "re"
      ],
      [
        "res",
        "s"
      ],
      [
        "er",
        "or"
      ],
      [
        "Ġe",
        "x"
      ],
      [
        "m",
        "an"
      ],
      [
        "Ġcur",
        "tis"
      ],
      [
        "Ġfrie",
        "nds"
      ],
      [
        "Ġno",
        "ble"
      ],
      [
        "Ġemp",
        "eror"
      ],
      [
        "Ġ",
        "us"
      ],
      [
        "Ġwh",
        "y"
      ],
      [
        "Ġ",
        "v"
      ],
      [
        "Ġb",
        "re"
      ],
      [
        "Ġa",
        "l"
      ],
      [
        "Ġa",
        "w"
      ],
      [
        "e",
        "n"
      ],
      [
        "Ġli",
        "ve"
      ],
      [
        "Ġlu",
        "c"
      ],
      [
        "Ġun",
        "c"
      ],
      [
        "Ġwh",
        "i"
      ],
      [
        "Ġp",
        "er"
      ],
      [
        "Ġp",
        "ro"
      ],
      [
        "i",
        "a"
      ],
      [
        "p",
        "p"
      ],
      [
        "c",
        "us"
      ],
      [
        "Ġu",
        "pon"
      ],
      [
        "Ġsp",
        "ea"
      ],
      [
        "k",
        "s"
      ],
      [
        "b",
        "s"
      ],
      [
        "Ġc",
        "hi"
      ],
      [
        "Ġwe",
        "re"
      ],
      [
        "Ġunc",
        "le"
      ],
      [
        "Ġspea",
        "k"
      ],
      [
        "Ġs",
        "on"
      ],
      [
        "Ġw",
        "or"
      ],
      [
        "Ġb",
        "ro"
      ],
      [
        "Ġe",
        "nter"
      ],
      [
        "Ġst",
        "a"
      ],
      [
        "Ġluc",
        "ius"
      ],
      [
        "r",
        "ou"
      ],
      [
        "Ġh",
        "ow"
      ],
      [
        "Ġco",
        "mes"
      ],
      [
        "Ġla",
        "v"
      ],
      [
        "Ġli",
        "fe"
      ],
      [
        "in",
        "ia"
      ],
      [
        "Ġde",
        "ath"
      ],
      [
        "Ġsat",
        "urn"
      ],
      [
        "Ġc",
        "an"
      ],
      [
        "Ġs",
        "ou"
      ],
      [
        "Ġs",
        "is"
      ],
      [
        "Ġwe",
        "ll"
      ],
      [
        "Ġg",
        "ra"
      ],
      [
        "i",
        "ous"
      ],
      [
        "an",
        "g"
      ],
      [
        "se",
        "lf"
      ],
      [
        "i",
        "o"
      ],
      [
        "ear",
        "s"
      ],
      [
        "Ġlav",
        "inia"
      ],
      [
        "u",
        "st"
      ],
      [
        "Ġma",
        "y"
      ],
      [
        "Ġbro",
        "ther"
      ],
      [
        "i",
        "ght"
      ],
      [
        "Ġsis",
        "ter"
      ],
      [
        "s",
        "es"
      ],
      [
        "Ġdea",
        "d"
      ],
      [
        "Ġe",
        "ar"
      ],
      [
        "Ġ",
        "ou"
      ],
      [
        "Ġf",
        "o"
      ],
      [
        "Ġn",
        "e"
      ],
      [
        "Ġn",
        "or"
      ],
      [
        "Ġg",
        "re"
      ],
      [
        "Ġta",
        "ke"
      ],
      [
        "r",
        "y"
      ],
      [
        "Ġs",
        "l"
      ],
      [
        "l",
        "ie"
      ],
      [
        "Ġb",
        "o"
      ],
      [
        "Ġgre",
        "at"
      ],
      [
        "l",
        "o"
      ],
      [
        "Ġto",
        "o"
      ],
      [
        "Ġt",
        "urn"
      ],
      [
        "Ġo",
        "ld"
      ],
      [
        "id",
        "e"
      ],
      [
        "Ġw",
        "ar"
      ],
      [
        "Ġl",
        "ord"
      ],
      [
        "es",
        "s"
      ],
      [
        "ar",
        "b"
      ],
      [
        "Ġen",
        "em"
      ],
      [
        "Ġs",
        "ay"
      ],
      [
        "Ġbe",
        "g"
      ],
      [
        "Ġaw",
        "ay"
      ],
      [
        "Ġs",
        "c"
      ],
      [
        "l",
        "t"
      ],
      [
        "Ġt",
        "w"
      ],
      [
        "Ġfa",
        "ce"
      ],
      [
        "Ġear",
        "th"
      ],
      [
        "Ġf",
        "ie"
      ],
      [
        "Ġ",
        "qu"
      ],
      [
        "Ġhe",
        "a"
      ],
      [
        "t",
        "y"
      ],
      [
        "Ġm",
        "ore"
      ],
      [
        "Ġthe",
        "m"
      ],
      [
        "Ġli",
        "ke"
      ],
      [
        "o",
        "t"
      ],
      [
        "Ġf",
        "ir"
      ],
      [
        "is",
        "h"
      ],
      [
        "'",
        "ll"
      ],
      [
        "Ġb",
        "ur"
      ],
      [
        "Ġthe",
        "n"
      ],
      [
        "Ġl",
        "ea"
      ],
      [
        "Ġp",
        "le"
      ],
      [
        "ron",
        "g"
      ],
      [
        "Ġd",
        "es"
      ],
      [
        "Ġwhi",
        "ch"
      ],
      [
        "Ġw",
        "he"
      ],
      [
        "Ġbe",
        "ast"
      ],
      [
        "nt",
        "o"
      ],
      [
        "Ġtit",
        "us"
      ],
      [
        "Ġchi",
        "ld"
      ],
      [
        "Ġh",
        "ang"
      ],
      [
        "Ġmi",
        "nd"
      ],
      [
        "i",
        "al"
      ],
      [
        "Ġs",
        "or"
      ],
      [
        "Ġt",
        "ill"
      ],
      [
        "Ġsta",
        "nd"
      ],
      [
        "Ġt",
        "ears"
      ],
      [
        "Ġa",
        "em"
      ],
      [
        "Ġman",
        "y"
      ],
      [
        "Ġsw",
        "ee"
      ],
      [
        "Ġbur",
        "ial"
      ],
      [
        "Ġwo",
        "man"
      ],
      [
        "g",
        "es"
      ],
      [
        "Ġfir",
        "st"
      ],
      [
        "Ġswee",
        "t"
      ],
      [
        "Ġaem",
        "il"
      ],
      [
        "Ġm",
        "at"
      ],
      [
        "Ġex",
        "e"
      ],
      [
        "Ġs",
        "ight"
      ],
      [
        "Ġa",
        "r"
      ],
      [
        "Ġde",
        "v"
      ],
      [
        "Ġbrother",
        "s"
      ],
      [
        "Ġs",
        "ent"
      ],
      [
        "Ġbe",
        "ing"
      ],
      [
        "Ġaemil",
        "ius"
      ],
      [
        "me",
        "nt"
      ],
      [
        "p",
        "e"
      ],
      [
        "Ġa",
        "d"
      ],
      [
        "Ġp",
        "i"
      ],
      [
        "i",
        "on"
      ],
      [
        "Ġs",
        "a"
      ],
      [
        "o",
        "m"
      ],
      [
        "Ġt",
        "ri"
      ],
      [
        "es",
        "t"
      ],
      [
        "Ġe",
        "y"
      ],
      [
        "Ġgo",
        "d"
      ],
      [
        "is",
        "t"
      ],
      [
        "Ġb",
        "lo"
      ],
      [
        "Ġg",
        "rie"
      ],
      [
        "Ġp",
        "ra"
      ],
      [
        "Ġta",
        "m"
      ],
      [
        "Ġbe",
        "fore"
      ],
      [
        "Ġp",
        "rou"
      ],
      [
        "Ġgrie",
        "f"
      ],
      [
        "l",
        "es"
      ],
      [
        "Ġb",
        "a"
      ],
      [
        "Ġou",
        "t"
      ],
      [
        "l",
        "p"
      ],
      [
        "m",
        "s"
      ],
      [
        "u",
        "nt"
      ],
      [
        "Ġtri",
        "b"
      ],
      [
        "is",
        "e"
      ],
      [
        "Ġo",
        "b"
      ],
      [
        "Ġla",
        "st"
      ],
      [
        "Ġblo",
        "od"
      ],
      [
        "Ġprou",
        "d"
      ],
      [
        "Ġhe",
        "lp"
      ],
      [
        "t",
        "le"
      ],
      [
        "Ġ",
        ","
      ],
      [
        "Ġa",
        "a"
      ],
      [
        "nd",
        "ly"
      ],
      [
        "Ġre",
        "p"
      ],
      [
        "Ġt",
        "ell"
      ],
      [
        "Ġwi",
        "fe"
      ],
      [
        "Ġk",
        "is"
      ],
      [
        "Ġk",
        "ill"
      ],
      [
        "c",
        "o"
      ],
      [
        "o",
        "k"
      ],
      [
        "Ġ",
        "j"
      ],
      [
        "Ġw",
        "ord"
      ],
      [
        "Ġth",
        "row"
      ],
      [
        "Ġl",
        "it"
      ],
      [
        "er",
        "v"
      ],
      [
        "Ġwar",
        "m"
      ],
      [
        "Ġtrib",
        "un"
      ],
      [
        "a",
        "re"
      ],
      [
        "i",
        "ce"
      ],
      [
        "Ġl",
        "im"
      ],
      [
        "Ġd",
        "eed"
      ],
      [
        "ve",
        "y"
      ],
      [
        "Ġwith",
        "al"
      ],
      [
        "Ġexe",
        "unt"
      ],
      [
        "Ġmy",
        "self"
      ],
      [
        "ee",
        "p"
      ],
      [
        "Ġma",
        "d"
      ],
      [
        "Ġmar",
        "cus"
      ],
      [
        "d",
        "er"
      ],
      [
        "he",
        "d"
      ],
      [
        "Ġthe",
        "se"
      ],
      [
        "Ġhe",
        "ar"
      ],
      [
        "Ġu",
        "nto"
      ],
      [
        "Ġtw",
        "o"
      ],
      [
        "Ġaa",
        "ron"
      ],
      [
        "Ġw",
        "rong"
      ],
      [
        "re",
        "e"
      ],
      [
        "Ġhe",
        "ad"
      ],
      [
        "Ġlo",
        "v"
      ],
      [
        "Ġlo",
        "ok"
      ],
      [
        "Ġwor",
        "st"
      ],
      [
        "Ġf",
        "ou"
      ],
      [
        "Ġenem",
        "ies"
      ],
      [
        "n",
        "ess"
      ],
      [
        "Ġg",
        "ent"
      ],
      [
        "Ġp",
        "re"
      ],
      [
        "Ġcon",
        "vey"
      ],
      [
        "Ġlim",
        "bs"
      ],
      [
        "Ġfor",
        "th"
      ],
      [
        "Ġlit",
        "tle"
      ],
      [
        "d",
        "ges"
      ],
      [
        "Ġbe",
        "ar"
      ],
      [
        "Ġtru",
        "e"
      ],
      [
        "o",
        "ld"
      ],
      [
        "Ġh",
        "or"
      ],
      [
        "Ġsaturn",
        "ine"
      ],
      [
        "re",
        "l"
      ],
      [
        "Ġfa",
        "re"
      ],
      [
        "Ġgent",
        "le"
      ],
      [
        "Ġqu",
        "ar"
      ],
      [
        "w",
        "ell"
      ],
      [
        "Ġhea",
        "ven"
      ],
      [
        "Ġdev",
        "il"
      ],
      [
        "Ġthere",
        "fore"
      ],
      [
        "Ġquar",
        "rel"
      ],
      [
        "Ġfare",
        "well"
      ],
      [
        "Ġgoth",
        "s"
      ],
      [
        "Ġmat",
        "ter"
      ],
      [
        "Ġco",
        "ld"
      ],
      [
        "ver",
        "y"
      ],
      [
        "f",
        "or"
      ],
      [
        "Ġbe",
        "en"
      ],
      [
        "Ġh",
        "o"
      ],
      [
        "Ġd",
        "one"
      ],
      [
        "Ġwi",
        "t"
      ],
      [
        "e",
        "l"
      ],
      [
        "Ġli",
        "ps"
      ],
      [
        "l",
        "i"
      ],
      [
        "t",
        "e"
      ],
      [
        "Ġf",
        "i"
      ],
      [
        "Ġthan",
        "k"
      ],
      [
        "Ġt",
        "r"
      ],
      [
        "Ġh",
        "um"
      ],
      [
        "Ġi",
        "mp"
      ],
      [
        "Ġm",
        "o"
      ],
      [
        "Ġbe",
        "lie"
      ],
      [
        "or",
        "s"
      ],
      [
        "it",
        "e"
      ],
      [
        "Ġlu",
        "st"
      ],
      [
        "is",
        "f"
      ],
      [
        "er",
        "s"
      ],
      [
        "Ġwe",
        "a"
      ],
      [
        "ri",
        "f"
      ],
      [
        "Ġpi",
        "le"
      ],
      [
        "Ġs",
        "u"
      ],
      [
        "Ġb",
        "arb"
      ],
      [
        "Ġsa",
        "c"
      ],
      [
        "Ġb",
        "an"
      ],
      [
        "Ġp",
        "o"
      ],
      [
        "ron",
        "i"
      ],
      [
        "Ġcon",
        "s"
      ],
      [
        "h",
        "a"
      ],
      [
        "m",
        "b"
      ],
      [
        "Ġm",
        "ou"
      ],
      [
        "Ġm",
        "our"
      ],
      [
        "Ġh",
        "ate"
      ],
      [
        "Ġc",
        "all"
      ],
      [
        "Ġha",
        "d"
      ],
      [
        "Ġkn",
        "a"
      ],
      [
        "'",
        "?"
      ],
      [
        "c",
        "t"
      ],
      [
        "t",
        "he"
      ],
      [
        "Ġa",
        "h"
      ],
      [
        "Ġs",
        "ide"
      ],
      [
        "Ġm",
        "eed"
      ],
      [
        "Ġm",
        "ist"
      ],
      [
        "Ġf",
        "all"
      ],
      [
        "an",
        "ce"
      ],
      [
        "Ġan",
        "y"
      ],
      [
        "ru",
        "m"
      ],
      [
        "Ġwho",
        "se"
      ],
      [
        "Ġwo",
        "od"
      ],
      [
        "i",
        "th"
      ],
      [
        "p",
        "er"
      ],
      [
        "Ġt",
        "ig"
      ],
      [
        "Ġa",
        "u"
      ],
      [
        "or",
        "a"
      ],
      [
        "ar",
        "ous"
      ],
      [
        "an",
        "t"
      ],
      [
        "Ġwe",
        "l"
      ],
      [
        "Ġha",
        "st"
      ],
      [
        "ig",
        "ure"
      ],
      [
        "Ġa",
        "f"
      ],
      [
        "or",
        "t"
      ],
      [
        "Ġd",
        "ow"
      ],
      [
        "Ġd",
        "ear"
      ],
      [
        "Ġg",
        "at"
      ],
      [
        "Ġg",
        "ate"
      ],
      [
        "Ġbe",
        "t"
      ],
      [
        "Ġso",
        "me"
      ],
      [
        "Ġre",
        "ce"
      ],
      [
        "Ġwo",
        "e"
      ],
      [
        "Ġex",
        "it"
      ],
      [
        "Ġsl",
        "a"
      ],
      [
        "Ġsac",
        "rif"
      ],
      [
        "Ġmour",
        "n"
      ],
      [
        "l",
        "ain"
      ],
      [
        "m",
        "ing"
      ],
      [
        "Ġt",
        "ro"
      ],
      [
        "Ġand",
        "roni"
      ],
      [
        "Ġno",
        "th"
      ],
      [
        "Ġsir",
        "s"
      ],
      [
        "Ġra",
        "ven"
      ],
      [
        "Ġsw",
        "ord"
      ],
      [
        "Ġtit",
        "les"
      ],
      [
        "Ġper",
        "ha"
      ],
      [
        "Ġar",
        "ms"
      ],
      [
        "Ġtam",
        "ora"
      ],
      [
        "Ġdow",
        "n"
      ],
      [
        "n",
        "g"
      ],
      [
        "Ġf",
        "l"
      ],
      [
        "Ġf",
        "ell"
      ],
      [
        "Ġn",
        "ay"
      ],
      [
        "Ġd",
        "id"
      ],
      [
        "Ġg",
        "row"
      ],
      [
        "Ġg",
        "one"
      ],
      [
        "Ġre",
        "lie"
      ],
      [
        "Ġwrong",
        "s"
      ],
      [
        "Ġwea",
        "pon"
      ],
      [
        "Ġmou",
        "th"
      ],
      [
        "o",
        "p"
      ],
      [
        "u",
        "e"
      ],
      [
        "Ġa",
        "pp"
      ],
      [
        "Ġs",
        "ure"
      ],
      [
        "in",
        "us"
      ],
      [
        "an",
        "s"
      ],
      [
        "Ġwi",
        "pe"
      ],
      [
        "Ġbe",
        "ll"
      ],
      [
        "Ġro",
        "man"
      ],
      [
        "mp",
        "t"
      ],
      [
        "Ġdo",
        "om"
      ],
      [
        "Ġat",
        "te"
      ],
      [
        "Ġsw",
        "ear"
      ],
      [
        "Ġknow",
        "n"
      ],
      [
        "Ġtig",
        "er"
      ],
      [
        "Ġm",
        "ut"
      ],
      [
        "Ġb",
        "on"
      ],
      [
        "Ġf",
        "ru"
      ],
      [
        "is",
        "hed"
      ],
      [
        "in",
        "k"
      ],
      [
        "ar",
        "d"
      ],
      [
        "ie",
        "nt"
      ],
      [
        "Ġme",
        "ans"
      ],
      [
        "Ġli",
        "ves"
      ],
      [
        "Ġla",
        "d"
      ],
      [
        "Ġra",
        "p"
      ],
      [
        "Ġal",
        "arb"
      ],
      [
        "Ġgra",
        "c"
      ],
      [
        "Ġne",
        "w"
      ],
      [
        "Ġey",
        "e"
      ],
      [
        "Ġaf",
        "ter"
      ],
      [
        "Ġgat",
        "es"
      ],
      [
        "Ġperha",
        "ps"
      ],
      [
        "l",
        "ks"
      ],
      [
        "o",
        "f"
      ],
      [
        "Ġm",
        "ust"
      ],
      [
        "Ġi",
        "nter"
      ],
      [
        "Ġd",
        "et"
      ],
      [
        "Ġv",
        "ill"
      ],
      [
        "Ġwhe",
        "re"
      ],
      [
        "Ġba",
        "se"
      ],
      [
        "Ġlov",
        "ing"
      ],
      [
        "Ġbarb",
        "arous"
      ],
      [
        "Ġbet",
        "ter"
      ],
      [
        "u",
        "lt"
      ],
      [
        "Ġa",
        "g"
      ],
      [
        "Ġb",
        "id"
      ],
      [
        "Ġth",
        "ine"
      ],
      [
        "Ġg",
        "l"
      ],
      [
        "Ġst",
        "ay"
      ],
      [
        "Ġbre",
        "ast"
      ],
      [
        "Ġper",
        "for"
      ],
      [
        "Ġwhe",
        "n"
      ],
      [
        "Ġpra",
        "ise"
      ],
      [
        "Ġfou",
        "l"
      ],
      [
        "Ġmist",
        "ress"
      ],
      [
        "Ġrece",
        "ive"
      ],
      [
        "Ġsla",
        "ve"
      ],
      [
        "Ġatte",
        "mpt"
      ],
      [
        "Ġbon",
        "es"
      ],
      [
        "Ġt",
        "al"
      ],
      [
        "Ġs",
        "un"
      ],
      [
        "Ġs",
        "erv"
      ],
      [
        "Ġf",
        "et"
      ],
      [
        "on",
        "g"
      ],
      [
        "Ġwith",
        "in"
      ],
      [
        "se",
        "d"
      ],
      [
        "Ġla",
        "w"
      ],
      [
        "Ġmi",
        "ght"
      ],
      [
        "Ġfo",
        "lks"
      ],
      [
        "Ġsor",
        "row"
      ],
      [
        "Ġkis",
        "ses"
      ],
      [
        "co",
        "me"
      ],
      [
        "Ġtribun",
        "es"
      ],
      [
        "Ġwit",
        "ness"
      ],
      [
        "Ġnoth",
        "ing"
      ],
      [
        "Ġraven",
        "ous"
      ],
      [
        "Ġfru",
        "it"
      ],
      [
        "Ġdet",
        "est"
      ],
      [
        "re",
        "n"
      ],
      [
        "or",
        "y"
      ],
      [
        "Ġn",
        "ear"
      ],
      [
        "ra",
        "w"
      ],
      [
        "et",
        "s"
      ],
      [
        "Ġmaster",
        "s"
      ],
      [
        "Ġwor",
        "th"
      ],
      [
        "Ġsou",
        "ndly"
      ],
      [
        "Ġgra",
        "ve"
      ],
      [
        "Ġbeast",
        "ly"
      ],
      [
        "Ġalarb",
        "us"
      ],
      [
        "Ġvill",
        "ain"
      ],
      [
        "h",
        "old"
      ],
      [
        "Ġin",
        "c"
      ],
      [
        "our",
        "ish"
      ],
      [
        "Ġmut",
        "ius"
      ],
      [
        "Ġgl",
        "ad"
      ],
      [
        "ou",
        "gh"
      ],
      [
        "Ġemp",
        "ress"
      ],
      [
        "Ġsou",
        "l"
      ],
      [
        "Ġple",
        "dges"
      ],
      [
        "Ġb",
        "rou"
      ],
      [
        "Ġhe",
        "w"
      ],
      [
        "it",
        "her"
      ],
      [
        "Ġon",
        "e"
      ],
      [
        "Ġwel",
        "come"
      ],
      [
        "Ġlad",
        "der"
      ],
      [
        "Ġgrac",
        "ious"
      ],
      [
        "r",
        "ing"
      ],
      [
        "Ġh",
        "i"
      ],
      [
        "Ġsh",
        "ow"
      ],
      [
        "mp",
        "ets"
      ],
      [
        "ate",
        "n"
      ],
      [
        "Ġsaturn",
        "inus"
      ],
      [
        "Ġsor",
        "ry"
      ],
      [
        "Ġlaw",
        "ful"
      ],
      [
        "n",
        "ce"
      ],
      [
        "Ġtru",
        "th"
      ],
      [
        "Ġandroni",
        "cus"
      ],
      [
        "Ġp",
        "it"
      ],
      [
        "on",
        "y"
      ],
      [
        "Ġhor",
        "ses"
      ],
      [
        "Ġbrou",
        "ght"
      ],
      [
        "Ġtru",
        "mpets"
      ],
      [
        "Ġthy",
        "self"
      ],
      [
        "ee",
        "l"
      ],
      [
        "Ġso",
        "on"
      ],
      [
        "Ġp",
        "r"
      ],
      [
        "Ġw",
        "re"
      ],
      [
        "Ġwre",
        "t"
      ],
      [
        "Ġ",
        "very"
      ],
      [
        "Ġ",
        "ve"
      ],
      [
        "Ġ",
        "nd"
      ],
      [
        "Ġi",
        "m"
      ],
      [
        "Ġ",
        "."
      ],
      [
        "Ġ",
        "er"
      ],
      [
        "Ġo",
        "w"
      ],
      [
        "d",
        "s"
      ],
      [
        "Ġc",
        "ry"
      ],
      [
        "Ġb",
        "ir"
      ],
      [
        "is",
        "on"
      ],
      [
        "Ġth",
        "a"
      ],
      [
        "Ġf",
        "r"
      ],
      [
        "Ġg",
        "r"
      ],
      [
        "Ġe",
        "nt"
      ],
      [
        "Ġpr",
        "ison"
      ],
      [
        "Ġbir",
        "ds"
      ],
      [
        "Ġe",
        "re"
      ],
      [
        "o",
        "ke"
      ],
      [
        "Ġt",
        "e"
      ],
      [
        "Ġ",
        "ru"
      ],
      [
        "at",
        "he"
      ],
      [
        "Ġl",
        "ed"
      ],
      [
        "ea",
        "s"
      ],
      [
        "s",
        "om"
      ],
      [
        "Ġm",
        "u"
      ],
      [
        "Ġh",
        "ou"
      ],
      [
        "Ġc",
        "le"
      ],
      [
        "Ġp",
        "e"
      ],
      [
        "a",
        "pp"
      ],
      [
        "i",
        "c"
      ],
      [
        "Ġ",
        "ven"
      ],
      [
        "Ġf",
        "u"
      ],
      [
        "in",
        "t"
      ],
      [
        "Ġsh",
        "ad"
      ],
      [
        "ter",
        "s"
      ],
      [
        "ves",
        "t"
      ],
      [
        "g",
        "e"
      ],
      [
        "Ġs",
        "m"
      ],
      [
        "Ġs",
        "ig"
      ],
      [
        "Ġs",
        "en"
      ],
      [
        "Ġw",
        "ou"
      ],
      [
        "Ġw",
        "er"
      ],
      [
        "Ġw",
        "ee"
      ],
      [
        "Ġm",
        "ur"
      ],
      [
        "Ġi",
        "nt"
      ],
      [
        "Ġb",
        "le"
      ],
      [
        "Ġn",
        "a"
      ],
      [
        "Ġd",
        "a"
      ],
      [
        "me",
        "t"
      ],
      [
        "ur",
        "b"
      ],
      [
        "Ġwe",
        "lf"
      ],
      [
        "Ġha",
        "l"
      ],
      [
        "ow",
        "s"
      ],
      [
        "Ġre",
        "s"
      ],
      [
        "Ġun",
        "app"
      ],
      [
        "Ġbo",
        "som"
      ],
      [
        "Ġlust",
        "y"
      ],
      [
        "Ġpo",
        "int"
      ],
      [
        "'",
        "re"
      ],
      [
        "Ġw",
        "eep"
      ],
      [
        "Ġm",
        "one"
      ],
      [
        "Ġi",
        "ce"
      ],
      [
        "Ġd",
        "ist"
      ],
      [
        "Ġhe",
        "el"
      ],
      [
        "Ġin",
        "ce"
      ],
      [
        "Ġu",
        "p"
      ],
      [
        "Ġre",
        "qu"
      ],
      [
        "Ġdo",
        "st"
      ],
      [
        "Ġshe",
        "ath"
      ],
      [
        "Ġde",
        "met"
      ],
      [
        "Ġwhi",
        "le"
      ],
      [
        "Ġtoo",
        "k"
      ],
      [
        "Ġpra",
        "y"
      ],
      [
        "Ġgrief",
        "s"
      ],
      [
        "Ġhum",
        "b"
      ],
      [
        "Ġmur",
        "d"
      ],
      [
        "n",
        "i"
      ],
      [
        "v",
        "ion"
      ],
      [
        "Ġt",
        "re"
      ],
      [
        "Ġo",
        "ath"
      ],
      [
        "ve",
        "d"
      ],
      [
        "ve",
        "nt"
      ],
      [
        "Ġfor",
        "t"
      ],
      [
        "Ġco",
        "mp"
      ],
      [
        "Ġst",
        "eel"
      ],
      [
        "Ġfa",
        "ith"
      ],
      [
        "Ġwho",
        "m"
      ],
      [
        "Ġra",
        "ise"
      ],
      [
        "ri",
        "ors"
      ],
      [
        "Ġfro",
        "st"
      ],
      [
        "ther",
        "s"
      ],
      [
        "Ġdea",
        "f"
      ],
      [
        "Ġpro",
        "d"
      ],
      [
        "Ġcan",
        "st"
      ],
      [
        "Ġenem",
        "y"
      ],
      [
        "Ġpi",
        "p"
      ],
      [
        "Ġkna",
        "ves"
      ],
      [
        "Ġcle",
        "an"
      ],
      [
        "Ġshad",
        "ows"
      ],
      [
        "Ġsm",
        "oke"
      ],
      [
        "Ġda",
        "m"
      ],
      [
        "Ġwelf",
        "are"
      ],
      [
        "Ġmone",
        "y"
      ],
      [
        "Ġince",
        "n"
      ],
      [
        "a",
        "b"
      ],
      [
        "a",
        "ct"
      ],
      [
        "b",
        "t"
      ],
      [
        "f",
        "t"
      ],
      [
        "g",
        "s"
      ],
      [
        "n",
        "c"
      ],
      [
        "r",
        "ius"
      ],
      [
        "Ġs",
        "k"
      ],
      [
        "Ġm",
        "ort"
      ],
      [
        "Ġb",
        "od"
      ],
      [
        "Ġf",
        "ear"
      ],
      [
        "Ġd",
        "ou"
      ],
      [
        "Ġd",
        "isf"
      ],
      [
        "Ġc",
        "at"
      ],
      [
        "Ġp",
        "ure"
      ],
      [
        "Ġbe",
        "f"
      ],
      [
        "Ġha",
        "lf"
      ],
      [
        "se",
        "l"
      ],
      [
        "Ġso",
        "ld"
      ],
      [
        "Ġst",
        "one"
      ],
      [
        "Ġan",
        "g"
      ],
      [
        "Ġlet",
        "ters"
      ],
      [
        "Ġun",
        "k"
      ],
      [
        "Ġv",
        "a"
      ],
      [
        "Ġbeg",
        "in"
      ],
      [
        "Ġsc",
        "ore"
      ],
      [
        "Ġob",
        "li"
      ],
      [
        "Ġimp",
        "at"
      ],
      [
        "Ġimp",
        "er"
      ],
      [
        "ant",
        "ed"
      ],
      [
        "Ġru",
        "n"
      ],
      [
        "Ġunapp",
        "eas"
      ],
      [
        "Ġhumb",
        "ly"
      ],
      [
        "Ġdam",
        "n"
      ],
      [
        "b",
        "at"
      ],
      [
        "l",
        "ast"
      ],
      [
        "m",
        "i"
      ],
      [
        "r",
        "ous"
      ],
      [
        "x",
        "e"
      ],
      [
        "Ġt",
        "um"
      ],
      [
        "Ġs",
        "er"
      ],
      [
        "Ġf",
        "un"
      ],
      [
        "Ġth",
        "ir"
      ],
      [
        "is",
        "s"
      ],
      [
        "Ġo",
        "p"
      ],
      [
        "or",
        "ous"
      ],
      [
        "Ġd",
        "ig"
      ],
      [
        "Ġc",
        "a"
      ],
      [
        "Ġp",
        "u"
      ],
      [
        "Ġwi",
        "lt"
      ],
      [
        "ee",
        "n"
      ],
      [
        "Ġme",
        "th"
      ],
      [
        "Ġso",
        "ft"
      ],
      [
        "Ġli",
        "ght"
      ],
      [
        "Ġon",
        "ce"
      ],
      [
        "Ġst",
        "ra"
      ],
      [
        "Ġre",
        "d"
      ],
      [
        "Ġman",
        "es"
      ],
      [
        "Ġdo",
        "th"
      ],
      [
        "fu",
        "me"
      ],
      [
        "Ġra",
        "v"
      ],
      [
        "Ġr",
        "ite"
      ],
      [
        "Ġtru",
        "n"
      ],
      [
        "Ġmay",
        "st"
      ],
      [
        "Ġsl",
        "ide"
      ],
      [
        "Ġbo",
        "th"
      ],
      [
        "Ġgreat",
        "er"
      ],
      [
        "Ġlord",
        "s"
      ],
      [
        "Ġfie",
        "nd"
      ],
      [
        "Ġey",
        "es"
      ],
      [
        "Ġrep",
        "ro"
      ],
      [
        "Ġj",
        "u"
      ],
      [
        "li",
        "ke"
      ],
      [
        "Ġtr",
        "im"
      ],
      [
        "Ġbelie",
        "ve"
      ],
      [
        "Ġbelie",
        "vest"
      ],
      [
        "Ġhate",
        "ful"
      ],
      [
        "Ġreceive",
        "d"
      ],
      [
        "Ġfr",
        "at"
      ],
      [
        "Ġgr",
        "anted"
      ],
      [
        "Ġmu",
        "ch"
      ],
      [
        "Ġdist",
        "urb"
      ],
      [
        "Ġrequ",
        "ite"
      ],
      [
        "Ġsheath",
        "ing"
      ],
      [
        "Ġtre",
        "ble"
      ],
      [
        "Ġfaith",
        "ful"
      ],
      [
        "Ġprod",
        "ig"
      ],
      [
        "Ġincen",
        "se"
      ],
      [
        "Ġsk",
        "y"
      ],
      [
        "Ġbod",
        "y"
      ],
      [
        "b",
        "us"
      ],
      [
        "b",
        "ab"
      ],
      [
        "d",
        "ing"
      ],
      [
        "e",
        "p"
      ],
      [
        "i",
        "ers"
      ],
      [
        "l",
        "ing"
      ],
      [
        "s",
        "o"
      ],
      [
        "Ġt",
        "all"
      ],
      [
        "Ġa",
        "c"
      ],
      [
        "Ġw",
        "in"
      ],
      [
        "ou",
        "nc"
      ],
      [
        "Ġh",
        "ot"
      ],
      [
        "Ġb",
        "urn"
      ],
      [
        "Ġf",
        "eed"
      ],
      [
        "Ġf",
        "igure"
      ],
      [
        "at",
        "er"
      ],
      [
        "at",
        "ors"
      ],
      [
        "Ġth",
        "re"
      ],
      [
        "ll",
        "a"
      ],
      [
        "Ġc",
        "l"
      ],
      [
        "Ġp",
        "ow"
      ],
      [
        "Ġp",
        "ill"
      ],
      [
        "Ġp",
        "res"
      ],
      [
        "Ġy",
        "ea"
      ],
      [
        "Ġin",
        "h"
      ],
      [
        "Ġsh",
        "ut"
      ],
      [
        "Ġas",
        "ide"
      ],
      [
        "Ġst",
        "ri"
      ],
      [
        "Ġre",
        "m"
      ],
      [
        "Ġam",
        "iss"
      ],
      [
        "Ġam",
        "orous"
      ],
      [
        "Ġra",
        "ve"
      ],
      [
        "Ġemp",
        "e"
      ],
      [
        "Ġtit",
        "le"
      ],
      [
        "Ġsat",
        "isf"
      ],
      [
        "Ġal",
        "as"
      ],
      [
        "Ġson",
        "s"
      ],
      [
        "Ġwar",
        "riors"
      ],
      [
        "Ġearth",
        "y"
      ],
      [
        "Ġqu",
        "een"
      ],
      [
        "Ġhea",
        "v"
      ],
      [
        "Ġple",
        "as"
      ],
      [
        "Ġad",
        "vent"
      ],
      [
        "Ġlast",
        "s"
      ],
      [
        "Ġtribun",
        "e"
      ],
      [
        "Ġhum",
        "our"
      ],
      [
        "Ġmo",
        "or"
      ],
      [
        "Ġsu",
        "f"
      ],
      [
        "Ġcons",
        "um"
      ],
      [
        "Ġau",
        "ght"
      ],
      [
        "Ġtro",
        "t"
      ],
      [
        "Ġapp",
        "ro"
      ],
      [
        "Ġsig",
        "ni"
      ],
      [
        "Ġwee",
        "ps"
      ],
      [
        "Ġint",
        "e"
      ],
      [
        "Ġhal",
        "ter"
      ],
      [
        "Ġweep",
        "ing"
      ],
      [
        "Ġdemet",
        "rius"
      ],
      [
        "Ġcomp",
        "lain"
      ],
      [
        "Ġmort",
        "al"
      ],
      [
        "Ġdou",
        "bt"
      ],
      [
        "Ġunk",
        "i"
      ],
      [
        "Ġobli",
        "vion"
      ],
      [
        "Ġimper",
        "ious"
      ],
      [
        "Ġthir",
        "ty"
      ],
      [
        "Ġtrun",
        "k"
      ],
      [
        "e",
        "y"
      ],
      [
        "l",
        "ow"
      ],
      [
        "n",
        "e"
      ],
      [
        "p",
        "ling"
      ],
      [
        "z",
        "e"
      ],
      [
        "Ġt",
        "ar"
      ],
      [
        "Ġt",
        "ee"
      ],
      [
        "Ġt",
        "ree"
      ],
      [
        "Ġw",
        "all"
      ],
      [
        "Ġw",
        "ay"
      ],
      [
        "Ġw",
        "eed"
      ],
      [
        "ou",
        "d"
      ],
      [
        "Ġh",
        "ar"
      ],
      [
        "Ġo",
        "thers"
      ],
      [
        "Ġn",
        "at"
      ],
      [
        "in",
        "ks"
      ],
      [
        "Ġd",
        "ro"
      ],
      [
        "Ġc",
        "it"
      ],
      [
        "Ġc",
        "ea"
      ],
      [
        "Ġc",
        "as"
      ],
      [
        "Ġe",
        "ven"
      ],
      [
        "Ġe",
        "mb"
      ],
      [
        "st",
        "ain"
      ],
      [
        "Ġp",
        "a"
      ],
      [
        "Ġp",
        "ron"
      ],
      [
        "le",
        "t"
      ],
      [
        "Ġk",
        "ather"
      ],
      [
        "Ġgo",
        "es"
      ],
      [
        "Ġwe",
        "ather"
      ],
      [
        "Ġma",
        "id"
      ],
      [
        "Ġkn",
        "e"
      ],
      [
        "Ġas",
        "s"
      ],
      [
        "Ġas",
        "le"
      ],
      [
        "Ġst",
        "rong"
      ],
      [
        "Ġre",
        "c"
      ],
      [
        "Ġla",
        "y"
      ],
      [
        "ru",
        "p"
      ],
      [
        "Ġdo",
        "g"
      ],
      [
        "id",
        "er"
      ],
      [
        "Ġra",
        "il"
      ],
      [
        "Ġta",
        "mes"
      ],
      [
        "Ġr",
        "it"
      ],
      [
        "un",
        "e"
      ],
      [
        "Ġper",
        "fume"
      ],
      [
        "Ġtoo",
        "th"
      ],
      [
        "Ġtw",
        "ain"
      ],
      [
        "Ġdes",
        "p"
      ],
      [
        "Ġmat",
        "ch"
      ],
      [
        "Ġkis",
        "s"
      ],
      [
        "Ġthrow",
        "n"
      ],
      [
        "Ġho",
        "lla"
      ],
      [
        "Ġfell",
        "ow"
      ],
      [
        "Ġwer",
        "t"
      ],
      [
        "Ġna",
        "me"
      ],
      [
        "act",
        "ion"
      ],
      [
        "Ġang",
        "el"
      ],
      [
        "last",
        "ing"
      ],
      [
        "Ġfun",
        "er"
      ],
      [
        "bab",
        "y"
      ],
      [
        "Ġtall",
        "er"
      ],
      [
        "Ġpill",
        "ow"
      ],
      [
        "Ġsigni",
        "f"
      ],
      [
        "b",
        "st"
      ],
      [
        "c",
        "ock"
      ],
      [
        "f",
        "er"
      ],
      [
        "k",
        "n"
      ],
      [
        "l",
        "ess"
      ],
      [
        "Ġa",
        "b"
      ],
      [
        "Ġa",
        "im"
      ],
      [
        "Ġs",
        "in"
      ],
      [
        "Ġw",
        "ater"
      ],
      [
        "Ġm",
        "on"
      ],
      [
        "Ġf",
        "it"
      ],
      [
        "Ġf",
        "les"
      ],
      [
        "re",
        "st"
      ],
      [
        "Ġo",
        "the"
      ],
      [
        "ll",
        "o"
      ],
      [
        "Ġn",
        "ou"
      ],
      [
        "Ġd",
        "ut"
      ],
      [
        "Ġd",
        "raw"
      ],
      [
        "Ġg",
        "rum"
      ],
      [
        "Ġc",
        "lo"
      ],
      [
        "Ġto",
        "mb"
      ],
      [
        "Ġto",
        "ng"
      ],
      [
        "Ġp",
        "ear"
      ],
      [
        "Ġp",
        "ot"
      ],
      [
        "Ġp",
        "ard"
      ],
      [
        "ee",
        "m"
      ],
      [
        "Ġsh",
        "r"
      ],
      [
        "Ġsh",
        "ore"
      ],
      [
        "Ġgo",
        "ver"
      ],
      [
        "Ġro",
        "pe"
      ],
      [
        "Ġst",
        "op"
      ],
      [
        "Ġan",
        "c"
      ],
      [
        "Ġan",
        "o"
      ],
      [
        "Ġsee",
        "k"
      ],
      [
        "Ġwo",
        "o"
      ],
      [
        "Ġr",
        "ing"
      ],
      [
        "Ġcur",
        "st"
      ],
      [
        "qu",
        "in"
      ],
      [
        "Ġchi",
        "ron"
      ],
      [
        "Ġsta",
        "bs"
      ],
      [
        "Ġfo",
        "od"
      ],
      [
        "ty",
        "r"
      ],
      [
        "Ġlea",
        "st"
      ],
      [
        "Ġlea",
        "ding"
      ],
      [
        "Ġdes",
        "per"
      ],
      [
        "Ġhear",
        "s"
      ],
      [
        "Ġsu",
        "bst"
      ],
      [
        "Ġban",
        "ish"
      ],
      [
        "Ġsacrif",
        "ic"
      ],
      [
        "Ġsword",
        "s"
      ],
      [
        "Ġweapon",
        "s"
      ],
      [
        "Ġbell",
        "y"
      ],
      [
        "Ġag",
        "let"
      ],
      [
        "Ġpit",
        "ies"
      ],
      [
        "Ġim",
        "a"
      ],
      [
        "Ġow",
        "n"
      ],
      [
        "Ġven",
        "ice"
      ],
      [
        "Ġsen",
        "ators"
      ],
      [
        "Ġsold",
        "iers"
      ],
      [
        "Ġimpat",
        "ient"
      ],
      [
        "bat",
        "ion"
      ],
      [
        "Ġtum",
        "ult"
      ],
      [
        "Ġser",
        "ve"
      ],
      [
        "Ġdig",
        "ress"
      ],
      [
        "Ġtrim",
        "ming"
      ],
      [
        "Ġfrat",
        "rum"
      ],
      [
        "Ġprodig",
        "ies"
      ],
      [
        "so",
        "me"
      ],
      [
        "Ġwin",
        "ter"
      ],
      [
        "Ġburn",
        "ing"
      ],
      [
        "Ġthre",
        "ad"
      ],
      [
        "Ġpres",
        "erv"
      ],
      [
        "Ġinh",
        "um"
      ],
      [
        "Ġsuf",
        "fer"
      ],
      [
        "Ġappro",
        "ved"
      ],
      [
        "Ġtee",
        "th"
      ],
      [
        "Ġcea",
        "se"
      ],
      [
        "Ġemb",
        "ra"
      ],
      [
        "Ġpron",
        "ounc"
      ],
      [
        "Ġkne",
        "w"
      ],
      [
        "Ġrit",
        "es"
      ],
      [
        "Ġpear",
        "l"
      ],
      [
        "b",
        "b"
      ],
      [
        "e",
        "th"
      ],
      [
        "l",
        "ar"
      ],
      [
        "s",
        "io"
      ],
      [
        "Ġa",
        "xe"
      ],
      [
        "at",
        "ly"
      ],
      [
        "or",
        "n"
      ],
      [
        "Ġd",
        "row"
      ],
      [
        "Ġhe",
        "al"
      ],
      [
        "Ġc",
        "he"
      ],
      [
        "Ġp",
        "ut"
      ],
      [
        "Ġp",
        "ie"
      ],
      [
        "Ġyou",
        "th"
      ],
      [
        "ir",
        "t"
      ],
      [
        "Ġwe",
        "ar"
      ],
      [
        "Ġha",
        "s"
      ],
      [
        "Ġme",
        "n"
      ],
      [
        "Ġso",
        "bs"
      ],
      [
        "Ġro",
        "der"
      ],
      [
        "Ġro",
        "bb"
      ],
      [
        "Ġre",
        "ven"
      ],
      [
        "Ġam",
        "ong"
      ],
      [
        "Ġam",
        "bus"
      ],
      [
        "Ġshe",
        "d"
      ],
      [
        "il",
        "s"
      ],
      [
        "ig",
        "o"
      ],
      [
        "Ġthan",
        "ks"
      ],
      [
        "Ġlo",
        "pp"
      ],
      [
        "Ġcur",
        "se"
      ],
      [
        "Ġshould",
        "er"
      ],
      [
        "Ġmar",
        "ch"
      ],
      [
        "Ġus",
        "e"
      ],
      [
        "Ġal",
        "o"
      ],
      [
        "Ġpro",
        "per"
      ],
      [
        "pp",
        "et"
      ],
      [
        "Ġdead",
        "ly"
      ],
      [
        "Ġthem",
        "sel"
      ],
      [
        "Ġkill",
        "s"
      ],
      [
        "Ġmad",
        "e"
      ],
      [
        "Ġpre",
        "y"
      ],
      [
        "Ġpre",
        "se"
      ],
      [
        "Ġban",
        "ished"
      ],
      [
        "Ġwoe",
        "fu"
      ],
      [
        "Ġmourn",
        "ing"
      ],
      [
        "Ġgrow",
        "n"
      ],
      [
        "Ġrelie",
        "f"
      ],
      [
        "Ġsorrow",
        "s"
      ],
      [
        "Ġpe",
        "op"
      ],
      [
        "Ġble",
        "ed"
      ],
      [
        "Ġres",
        "c"
      ],
      [
        "Ġfort",
        "une"
      ],
      [
        "Ġdisf",
        "igure"
      ],
      [
        "Ġmeth",
        "inks"
      ],
      [
        "Ġstra",
        "ight"
      ],
      [
        "Ġcl",
        "im"
      ],
      [
        "Ġrem",
        "ain"
      ],
      [
        "Ġunki",
        "ndly"
      ],
      [
        "Ġhar",
        "ms"
      ],
      [
        "Ġkather",
        "ine"
      ],
      [
        "Ġasle",
        "ep"
      ],
      [
        "ider",
        "ing"
      ],
      [
        "Ġdesp",
        "is"
      ],
      [
        "Ġfuner",
        "al"
      ],
      [
        "Ġsin",
        "ce"
      ],
      [
        "Ġfles",
        "h"
      ],
      [
        "Ġgover",
        "n"
      ],
      [
        "h",
        "ies"
      ],
      [
        "m",
        "is"
      ],
      [
        "t",
        "ri"
      ],
      [
        "u",
        "ment"
      ],
      [
        "Ġs",
        "et"
      ],
      [
        "ou",
        "nt"
      ],
      [
        "Ġi",
        "nto"
      ],
      [
        "nd",
        "ed"
      ],
      [
        "Ġb",
        "al"
      ],
      [
        "Ġb",
        "ast"
      ],
      [
        "Ġb",
        "low"
      ],
      [
        "Ġf",
        "ree"
      ],
      [
        "Ġl",
        "oud"
      ],
      [
        "Ġn",
        "ourish"
      ],
      [
        "Ġd",
        "in"
      ],
      [
        "Ġg",
        "et"
      ],
      [
        "Ġto",
        "fore"
      ],
      [
        "ar",
        "s"
      ],
      [
        "Ġbe",
        "co"
      ],
      [
        "Ġsh",
        "irt"
      ],
      [
        "Ġgo",
        "ld"
      ],
      [
        "ra",
        "ils"
      ],
      [
        "se",
        "qu"
      ],
      [
        "Ġthou",
        "gh"
      ],
      [
        "Ġour",
        "s"
      ],
      [
        "ck",
        "s"
      ],
      [
        "Ġfa",
        "m"
      ],
      [
        "Ġun",
        "h"
      ],
      [
        "Ġra",
        "y"
      ],
      [
        "Ġsp",
        "a"
      ],
      [
        "Ġlo",
        "ve"
      ],
      [
        "um",
        "s"
      ],
      [
        "Ġfrie",
        "nd"
      ],
      [
        "Ġever",
        "lasting"
      ],
      [
        "Ġmar",
        "ry"
      ],
      [
        "Ġmar",
        "tyr"
      ],
      [
        "Ġv",
        "ow"
      ],
      [
        "Ġv",
        "ain"
      ],
      [
        "Ġaw",
        "hi"
      ],
      [
        "Ġpro",
        "ve"
      ],
      [
        "Ġsou",
        "nd"
      ],
      [
        "Ġturn",
        "ed"
      ],
      [
        "Ġsc",
        "ath"
      ],
      [
        "Ġbeast",
        "s"
      ],
      [
        "Ġad",
        "orn"
      ],
      [
        "Ġba",
        "gs"
      ],
      [
        "Ġrep",
        "a"
      ],
      [
        "Ġtell",
        "s"
      ],
      [
        "Ġj",
        "ust"
      ],
      [
        "Ġfi",
        "nd"
      ],
      [
        "Ġfall",
        "s"
      ],
      [
        "Ġwood",
        "cock"
      ],
      [
        "Ġsacrif",
        "ice"
      ],
      [
        "Ġmourn",
        "ful"
      ],
      [
        "Ġtro",
        "p"
      ],
      [
        "Ġfl",
        "atly"
      ],
      [
        "Ġroman",
        "s"
      ],
      [
        "Ġperfor",
        "ce"
      ],
      [
        "Ġtal",
        "k"
      ],
      [
        "Ġfet",
        "ch"
      ],
      [
        "Ġdetest",
        "ed"
      ],
      [
        "Ġfu",
        "ll"
      ],
      [
        "Ġbef",
        "all"
      ],
      [
        "Ġva",
        "u"
      ],
      [
        "Ġpu",
        "ppet"
      ],
      [
        "Ġred",
        "eem"
      ],
      [
        "Ġju",
        "dges"
      ],
      [
        "Ġstri",
        "pling"
      ],
      [
        "Ġheav",
        "y"
      ],
      [
        "Ġinte",
        "rest"
      ],
      [
        "Ġtar",
        "quin"
      ],
      [
        "Ġnat",
        "ure"
      ],
      [
        "Ġdro",
        "ps"
      ],
      [
        "Ġcit",
        "ing"
      ],
      [
        "Ġcas",
        "sio"
      ],
      [
        "rup",
        "ter"
      ],
      [
        "Ġsignif",
        "ies"
      ],
      [
        "Ġdut",
        "ies"
      ],
      [
        "Ġgrum",
        "io"
      ],
      [
        "Ġclo",
        "sed"
      ],
      [
        "Ġtong",
        "ue"
      ],
      [
        "Ġpard",
        "on"
      ],
      [
        "Ġshr",
        "ink"
      ],
      [
        "Ġano",
        "ther"
      ],
      [
        "Ġima",
        "ge"
      ],
      [
        "Ġinhum",
        "an"
      ],
      [
        "Ġembra",
        "ce"
      ],
      [
        "Ġdrow",
        "n"
      ],
      [
        "Ġput",
        "s"
      ],
      [
        "Ġreven",
        "g"
      ],
      [
        "Ġambus",
        "h"
      ],
      [
        "Ġwoefu",
        "ll"
      ],
      [
        "Ġclim",
        "b"
      ],
      [
        "c",
        "eed"
      ],
      [
        "e",
        "ks"
      ],
      [
        "e",
        "ct"
      ],
      [
        "g",
        "et"
      ],
      [
        "n",
        "er"
      ],
      [
        "n",
        "ed"
      ],
      [
        "t",
        "ty"
      ],
      [
        "z",
        "en"
      ],
      [
        "Ġt",
        "as"
      ],
      [
        "Ġt",
        "est"
      ],
      [
        "Ġs",
        "ire"
      ],
      [
        "ou",
        "t"
      ],
      [
        "Ġb",
        "ra"
      ],
      [
        "Ġl",
        "ie"
      ],
      [
        "Ġd",
        "ies"
      ],
      [
        "Ġd",
        "eep"
      ],
      [
        "Ġc",
        "ast"
      ],
      [
        "Ġto",
        "ld"
      ],
      [
        "Ġy",
        "et"
      ],
      [
        "Ġyou",
        "ng"
      ],
      [
        "Ġwh",
        "ither"
      ],
      [
        "ing",
        "s"
      ],
      [
        "Ġof",
        "fe"
      ],
      [
        "Ġme",
        "lt"
      ],
      [
        "Ġco",
        "st"
      ],
      [
        "Ġco",
        "ming"
      ],
      [
        "Ġli",
        "v"
      ],
      [
        "Ġro",
        "of"
      ],
      [
        "Ġst",
        "r"
      ],
      [
        "Ġst",
        "ory"
      ],
      [
        "Ġun",
        "j"
      ],
      [
        "Ġthere",
        "at"
      ],
      [
        "Ġwould",
        "st"
      ],
      [
        "Ġbre",
        "the"
      ],
      [
        "Ġbre",
        "athe"
      ],
      [
        "Ġpro",
        "mis"
      ],
      [
        "Ġfo",
        "ot"
      ],
      [
        "Ġne",
        "ck"
      ],
      [
        "Ġsl",
        "ain"
      ],
      [
        "Ġbo",
        "y"
      ],
      [
        "Ġbo",
        "ot"
      ],
      [
        "Ġsc",
        "ars"
      ],
      [
        "Ġob",
        "sequ"
      ],
      [
        "Ġlast",
        "ly"
      ],
      [
        "Ġhear",
        "t"
      ],
      [
        "Ġhead",
        "s"
      ],
      [
        "Ġgrow",
        "ing"
      ],
      [
        "Ġrelie",
        "ves"
      ],
      [
        "ard",
        "y"
      ],
      [
        "Ġbase",
        "ly"
      ],
      [
        "Ġsun",
        "g"
      ],
      [
        "Ġent",
        "rails"
      ],
      [
        "mi",
        "nded"
      ],
      [
        "Ġrav",
        "ished"
      ],
      [
        "Ġrepro",
        "bation"
      ],
      [
        "Ġac",
        "c"
      ],
      [
        "Ġsatisf",
        "action"
      ],
      [
        "Ġpa",
        "le"
      ],
      [
        "kn",
        "ock"
      ],
      [
        "Ġothe",
        "llo"
      ],
      [
        "Ġnou",
        "ght"
      ],
      [
        "Ġanc",
        "ient"
      ],
      [
        "Ġdesper",
        "ate"
      ],
      [
        "lar",
        "ums"
      ],
      [
        "Ġpie",
        "ce"
      ],
      [
        "Ġroder",
        "igo"
      ],
      [
        "Ġalo",
        "of"
      ],
      [
        "Ġthemsel",
        "ves"
      ],
      [
        "Ġpeop",
        "le"
      ],
      [
        "Ġresc",
        "ue"
      ],
      [
        "Ġbeco",
        "mes"
      ],
      [
        "Ġfam",
        "ish"
      ],
      [
        "Ġawhi",
        "le"
      ],
      [
        "Ġvau",
        "nter"
      ],
      [
        "a",
        "se"
      ],
      [
        "a",
        "ble"
      ],
      [
        "c",
        "hed"
      ],
      [
        "d",
        "em"
      ],
      [
        "f",
        "ty"
      ],
      [
        "i",
        "le"
      ],
      [
        "j",
        "ect"
      ],
      [
        "m",
        "it"
      ],
      [
        "n",
        "ate"
      ],
      [
        "w",
        "ith"
      ],
      [
        "Ġt",
        "ire"
      ],
      [
        "Ġm",
        "ine"
      ],
      [
        "Ġf",
        "ears"
      ],
      [
        "Ġth",
        "us"
      ],
      [
        "Ġth",
        "ree"
      ],
      [
        "Ġth",
        "ink"
      ],
      [
        "Ġl",
        "l"
      ],
      [
        "Ġd",
        "ie"
      ],
      [
        "Ġto",
        "get"
      ],
      [
        "Ġe",
        "aten"
      ],
      [
        "an",
        "c"
      ],
      [
        "Ġno",
        "ne"
      ],
      [
        "Ġp",
        "lain"
      ],
      [
        "us",
        "e"
      ],
      [
        "ra",
        "h"
      ],
      [
        "ow",
        "ed"
      ],
      [
        "Ġla",
        "ment"
      ],
      [
        "Ġfa",
        "st"
      ],
      [
        "Ġsp",
        "are"
      ],
      [
        "Ġcon",
        "t"
      ],
      [
        "Ġpro",
        "ceed"
      ],
      [
        "Ġbeg",
        "u"
      ],
      [
        "Ġsc",
        "old"
      ],
      [
        "Ġrep",
        "ort"
      ],
      [
        "Ġhor",
        "n"
      ],
      [
        "Ġfi",
        "fty"
      ],
      [
        "Ġcons",
        "idering"
      ],
      [
        "Ġau",
        "d"
      ],
      [
        "Ġperfor",
        "m"
      ],
      [
        "Ġworth",
        "y"
      ],
      [
        "Ġworth",
        "less"
      ],
      [
        "Ġhi",
        "gh"
      ],
      [
        "Ġte",
        "nd"
      ],
      [
        "Ġway",
        "s"
      ],
      [
        "Ġrec",
        "ount"
      ],
      [
        "Ġab",
        "out"
      ],
      [
        "Ġmon",
        "ument"
      ],
      [
        "Ġsubst",
        "ance"
      ],
      [
        "Ġsacrific",
        "ing"
      ],
      [
        "Ġwear",
        "y"
      ],
      [
        "Ġprese",
        "nt"
      ],
      [
        "Ġremain",
        "eth"
      ],
      [
        "tri",
        "cks"
      ],
      [
        "Ġbal",
        "c"
      ],
      [
        "Ġfree",
        "ze"
      ],
      [
        "Ġdin",
        "ner"
      ],
      [
        "Ġunh",
        "all"
      ],
      [
        "Ġspa",
        "ke"
      ],
      [
        "Ġrepa",
        "ir"
      ],
      [
        "Ġtas",
        "k"
      ],
      [
        "Ġboot",
        "s"
      ],
      [
        "knock",
        "ing"
      ],
      [
        "s",
        "ir"
      ],
      [
        "Ġs",
        "ust"
      ],
      [
        "Ġb",
        "ring"
      ],
      [
        "Ġl",
        "ear"
      ],
      [
        "Ġl",
        "ong"
      ],
      [
        "Ġd",
        "is"
      ],
      [
        "ve",
        "ly"
      ],
      [
        "Ġbe",
        "hold"
      ],
      [
        "Ġco",
        "zen"
      ],
      [
        "Ġkn",
        "ee"
      ],
      [
        "Ġfa",
        "ult"
      ],
      [
        "Ġlu",
        "ce"
      ],
      [
        "Ġmi",
        "ld"
      ],
      [
        "Ġdea",
        "re"
      ],
      [
        "Ġen",
        "ough"
      ],
      [
        "Ġen",
        "mit"
      ],
      [
        "Ġbre",
        "th"
      ],
      [
        "Ġlea",
        "ve"
      ],
      [
        "Ġlea",
        "ves"
      ],
      [
        "Ġple",
        "ase"
      ],
      [
        "Ġdes",
        "ir"
      ],
      [
        "Ġhang",
        "ing"
      ],
      [
        "Ġsa",
        "ve"
      ],
      [
        "Ġob",
        "ject"
      ],
      [
        "Ġj",
        "ad"
      ],
      [
        "Ġword",
        "s"
      ],
      [
        "Ġpre",
        "tty"
      ],
      [
        "Ġquarrel",
        "some"
      ],
      [
        "Ġtr",
        "an"
      ],
      [
        "Ġpo",
        "or"
      ],
      [
        "Ġtal",
        "es"
      ],
      [
        "Ġserv",
        "ant"
      ],
      [
        "Ġinc",
        "he"
      ],
      [
        "Ġinc",
        "ar"
      ],
      [
        "Ġve",
        "x"
      ],
      [
        "Ġhou",
        "se"
      ],
      [
        "Ġwou",
        "nd"
      ],
      [
        "Ġca",
        "use"
      ],
      [
        "Ġbanish",
        "ment"
      ],
      [
        "Ġche",
        "eks"
      ],
      [
        "Ġblow",
        "ing"
      ],
      [
        "Ġtrop",
        "hies"
      ],
      [
        "Ġunj",
        "ust"
      ],
      [
        "Ġbrethe",
        "ren"
      ],
      [
        "Ġacc",
        "ur"
      ],
      [
        "Ġtire",
        "d"
      ],
      [
        "Ġtoget",
        "her"
      ],
      [
        "Ġaud",
        "it"
      ],
      [
        "Ġlear",
        "n"
      ],
      [
        "d",
        "eep"
      ],
      [
        "Ġt",
        "im"
      ],
      [
        "Ġh",
        "on"
      ],
      [
        "Ġh",
        "ither"
      ],
      [
        "Ġd",
        "um"
      ],
      [
        "Ġd",
        "anc"
      ],
      [
        "Ġhe",
        "nce"
      ],
      [
        "Ġbe",
        "he"
      ],
      [
        "Ġbe",
        "aten"
      ],
      [
        "Ġin",
        "s"
      ],
      [
        "Ġthou",
        "ght"
      ],
      [
        "Ġsp",
        "raw"
      ],
      [
        "Ġal",
        "th"
      ],
      [
        "Ġdes",
        "dem"
      ],
      [
        "Ġar",
        "t"
      ],
      [
        "Ġfou",
        "ght"
      ],
      [
        "Ġheaven",
        "s"
      ],
      [
        "Ġkna",
        "very"
      ],
      [
        "Ġfl",
        "ourish"
      ],
      [
        "Ġinter",
        "rupter"
      ],
      [
        "Ġwhere",
        "in"
      ],
      [
        "Ġwret",
        "ched"
      ],
      [
        "Ġempe",
        "ress"
      ],
      [
        "Ġbast",
        "ardy"
      ],
      [
        "Ġbra",
        "vely"
      ],
      [
        "Ġoffe",
        "nce"
      ],
      [
        "Ġcont",
        "ent"
      ],
      [
        "Ġproceed",
        "ings"
      ],
      [
        "Ġscold",
        "ing"
      ],
      [
        "Ġhigh",
        "ness"
      ],
      [
        "Ġpresent",
        "ly"
      ],
      [
        "Ġbalc",
        "ony"
      ],
      [
        "sir",
        "rah"
      ],
      [
        "Ġfault",
        "s"
      ],
      [
        "Ġdeare",
        "r"
      ],
      [
        "Ġenmit",
        "y"
      ],
      [
        "Ġjad",
        "es"
      ],
      [
        "Ġinche",
        "s"
      ],
      [
        "Ġl",
        "at"
      ],
      [
        "Ġo",
        "at"
      ],
      [
        "ll",
        "ed"
      ],
      [
        "Ġhe",
        "in"
      ],
      [
        "Ġsh",
        "al"
      ],
      [
        "Ġre",
        "ad"
      ],
      [
        "ad",
        "ed"
      ],
      [
        "Ġlu",
        "x"
      ],
      [
        "ang",
        "e"
      ],
      [
        "Ġdeed",
        "s"
      ],
      [
        "Ġmo",
        "st"
      ],
      [
        "Ġapp",
        "are"
      ],
      [
        "Ġag",
        "ain"
      ],
      [
        "Ġfet",
        "ter"
      ],
      [
        "Ġsorrow",
        "ful"
      ],
      [
        "Ġdetest",
        "able"
      ],
      [
        "Ġvillain",
        "s"
      ],
      [
        "Ġtha",
        "w"
      ],
      [
        "Ġtest",
        "im"
      ],
      [
        "Ġobsequ",
        "ious"
      ],
      [
        "Ġbegu",
        "ile"
      ],
      [
        "Ġluce",
        "nt"
      ],
      [
        "Ġmild",
        "ly"
      ],
      [
        "Ġdesir",
        "ous"
      ],
      [
        "Ġtran",
        "io"
      ],
      [
        "Ġincar",
        "nate"
      ],
      [
        "Ġhouse",
        "hold"
      ],
      [
        "Ġaudit",
        "ory"
      ],
      [
        "Ġdum",
        "b"
      ],
      [
        "Ġspraw",
        "l"
      ],
      [
        "nds",
        "ire"
      ],
      [
        "Ġforth",
        "with"
      ],
      [
        "Ġnew",
        "s"
      ],
      [
        "Ġserv",
        "ice"
      ],
      [
        "Ġshow",
        "ers"
      ],
      [
        "Ġstr",
        "ange"
      ],
      [
        "Ġunhall",
        "owed"
      ],
      [
        "Ġdis",
        "ea"
      ],
      [
        "Ġbreth",
        "ren"
      ],
      [
        "Ġaccur",
        "sed"
      ],
      [
        "Ġtim",
        "e"
      ],
      [
        "Ġhon",
        "our"
      ],
      [
        "Ġalth",
        "ough"
      ],
      [
        "Ġdesdem",
        "on"
      ],
      [
        "Ġread",
        "y"
      ],
      [
        "n",
        "ance"
      ],
      [
        "Ġb",
        "io"
      ],
      [
        "ell",
        "o"
      ],
      [
        "Ġwrong",
        "ful"
      ],
      [
        "Ġbehe",
        "aded"
      ],
      [
        "Ġins",
        "at"
      ],
      [
        "Ġlat",
        "in"
      ],
      [
        "Ġoat",
        "s"
      ],
      [
        "Ġhein",
        "ous"
      ],
      [
        "Ġlux",
        "ur"
      ],
      [
        "Ġlucent",
        "io"
      ],
      [
        "i",
        "ate"
      ],
      [
        "nd",
        "ello"
      ],
      [
        "le",
        "ges"
      ],
      [
        "Ġgra",
        "ndsire"
      ],
      [
        "Ġtestim",
        "ony"
      ],
      [
        "Ġdisea",
        "ses"
      ],
      [
        "Ġappare",
        "lled"
      ],
      [
        "Ġ",
        "es"
      ],
      [
        "Ġbio",
        "ndello"
      ],
      [
        "Ġdev",
        "o"
      ],
      [
        "Ġinsat",
        "iate"
      ],
      [
        "Ġluxur",
        "ious"
      ],
      [
        "Ġpit",
        "y"
      ],
      [
        "Ġdevo",
        "id"
      ],
      [
        "Ġh",
        "at"
      ],
      [
        "Ġshal",
        "t"
      ],
      [
        "Ġt",
        "or"
      ],
      [
        "Ġd",
        "ire"
      ],
      [
        "Ġf",
        "eel"
      ],
      [
        "Ġco",
        "m"
      ],
      [
        "Ġtor",
        "ment"
      ],
      [
        "Ġl",
        "e"
      ],
      [
        "Ġtorment",
        "s"
      ],
      [
        "en",
        "ce"
      ],
      [
        "Ġwret",
        "ch"
      ],
      [
        "c",
        "ra"
      ],
      [
        "Ġexe",
        "cra"
      ],
      [
        "Ġsent",
        "ence"
      ],
      [
        "Ġexecra",
        "ble"
      ],
      [
        "Ġy",
        "o"
      ],
      [
        "Ġdire",
        "ful"
      ],
      [
        "Ġ",
        "ur"
      ],
      [
        "Ġn",
        "g"
      ],
      [
        "Ġo",
        "pe"
      ],
      [
        "Ġwo",
        "es"
      ],
      [
        "Ġs",
        "e"
      ],
      [
        "Ġ",
        ";"
      ],
      [
        "Ġ",
        "!"
      ],
      [
        "Ġl",
        "d"
      ],
      [
        "Ġe",
        "t"
      ],
      [
        "Ġs",
        "i"
      ],
      [
        "Ġh",
        "y"
      ],
      [
        "Ġo",
        "me"
      ],
      [
        "Ġ",
        "?"
      ],
      [
        "Ġ",
        "ut"
      ],
      [
        "Ġe",
        "d"
      ],
      [
        "Ġe",
        "e"
      ],
      [
        "for",
        "t"
      ],
      [
        "Ġcom",
        "fort"
      ],
      [
        "Ġt",
        "er"
      ],
      [
        "Ġthe",
        "r"
      ],
      [
        "Ġe",
        "m"
      ],
      [
        "Ġkn",
        "o"
      ],
      [
        "Ġro",
        "m"
      ],
      [
        "Ġbre",
        "ed"
      ],
      [
        "Ġi",
        "r"
      ],
      [
        "Ġin",
        "g"
      ],
      [
        "Ġr",
        "s"
      ],
      [
        "Ġbreed",
        "er"
      ],
      [
        "Ġi",
        "ll"
      ],
      [
        "Ġn",
        "t"
      ],
      [
        "Ġprison",
        "er"
      ],
      [
        "Ġi",
        "th"
      ],
      [
        "Ġth",
        "i"
      ],
      [
        "Ġa",
        "st"
      ],
      [
        "Ġi",
        "e"
      ],
      [
        "Ġb",
        "u"
      ],
      [
        "Ġc",
        "h"
      ],
      [
        "Ġa",
        "ve"
      ],
      [
        "Ġb",
        "r"
      ],
      [
        "Ġo",
        "d"
      ],
      [
        "Ġo",
        "t"
      ],
      [
        "Ġg",
        "h"
      ],
      [
        "Ġc",
        "e"
      ],
      [
        "Ġe",
        "a"
      ],
      [
        "Ġwi",
        "l"
      ],
      [
        "Ġh",
        "an"
      ],
      [
        "Ġo",
        "od"
      ],
      [
        "Ġat",
        "her"
      ],
      [
        "Ġm",
        "is"
      ],
      [
        "Ġo",
        "th"
      ],
      [
        "Ġe",
        "ll"
      ],
      [
        "Ġu",
        "ld"
      ],
      [
        "Ġ",
        "urn"
      ],
      [
        "Ġa",
        "th"
      ],
      [
        "Ġw",
        "a"
      ],
      [
        "Ġm",
        "p"
      ],
      [
        "Ġi",
        "ve"
      ],
      [
        "Ġf",
        "e"
      ],
      [
        "Ġf",
        "athe"
      ],
      [
        "Ġth",
        "o"
      ],
      [
        "Ġo",
        "re"
      ],
      [
        "Ġd",
        "s"
      ],
      [
        "Ġsh",
        "a"
      ],
      [
        "Ġk",
        "e"
      ],
      [
        "ch",
        "ance"
      ],
      [
        "Ġ",
        "ous"
      ],
      [
        "Ġt",
        "i"
      ],
      [
        "Ġh",
        "t"
      ],
      [
        "Ġf",
        "at"
      ],
      [
        "Ġwh",
        "a"
      ],
      [
        "Ġsh",
        "ou"
      ],
      [
        "Ġha",
        "ll"
      ],
      [
        "Ġr",
        "n"
      ],
      [
        "Ġandroni",
        "c"
      ],
      [
        "Ġgh",
        "t"
      ],
      [
        "Ġ",
        "ould"
      ],
      [
        "Ġs",
        "s"
      ],
      [
        "Ġs",
        "ter"
      ],
      [
        "Ġf",
        "ath"
      ],
      [
        "Ġd",
        "i"
      ],
      [
        "Ġhe",
        "e"
      ],
      [
        "Ġe",
        "ve"
      ],
      [
        "Ġu",
        "l"
      ],
      [
        "Ġemp",
        "er"
      ],
      [
        "Ġsp",
        "oke"
      ],
      [
        "Ġcur",
        "t"
      ],
      [
        "Ġproud",
        "est"
      ],
      [
        "Ġmis",
        "chance"
      ],
      [
        "Ġ",
        "ri"
      ],
      [
        "Ġ",
        "ess"
      ],
      [
        "Ġi",
        "us"
      ],
      [
        "Ġl",
        "y"
      ],
      [
        "Ġo",
        "m"
      ],
      [
        "Ġg",
        "i"
      ],
      [
        "Ġc",
        "k"
      ],
      [
        "Ġe",
        "v"
      ],
      [
        "Ġe",
        "ed"
      ],
      [
        "Ġe",
        "ad"
      ],
      [
        "Ġr",
        "y"
      ],
      [
        "d",
        "e"
      ],
      [
        "Ġ",
        "rie"
      ],
      [
        "Ġa",
        "ke"
      ],
      [
        "Ġi",
        "l"
      ],
      [
        "Ġo",
        "ck"
      ],
      [
        "Ġn",
        "s"
      ],
      [
        "Ġn",
        "y"
      ],
      [
        "Ġhe",
        "y"
      ],
      [
        "Ġe",
        "l"
      ],
      [
        "Ġno",
        "b"
      ],
      [
        "Ġsh",
        "o"
      ],
      [
        "Ġma",
        "s"
      ],
      [
        "Ġha",
        "v"
      ],
      [
        "Ġro",
        "w"
      ],
      [
        "Ġwo",
        "m"
      ],
      [
        "Ġluc",
        "i"
      ],
      [
        "Ġfu",
        "l"
      ],
      [
        "Ġandronic",
        "i"
      ],
      [
        "Ġ",
        "ver"
      ],
      [
        "Ġ",
        "ers"
      ],
      [
        "Ġt",
        "is"
      ],
      [
        "Ġa",
        "in"
      ],
      [
        "Ġm",
        "es"
      ],
      [
        "Ġi",
        "es"
      ],
      [
        "Ġi",
        "st"
      ],
      [
        "Ġn",
        "c"
      ],
      [
        "Ġhe",
        "n"
      ],
      [
        "Ġc",
        "u"
      ],
      [
        "Ġe",
        "p"
      ],
      [
        "Ġbe",
        "a"
      ],
      [
        "Ġin",
        "e"
      ],
      [
        "Ġk",
        "i"
      ],
      [
        "Ġgo",
        "o"
      ],
      [
        "il",
        "ius"
      ],
      [
        "Ġr",
        "t"
      ],
      [
        "Ġr",
        "th"
      ],
      [
        "Ġmast",
        "e"
      ],
      [
        "Ġsl",
        "ow"
      ],
      [
        "Ġfare",
        "w"
      ],
      [
        "a",
        "i"
      ],
      [
        "Ġ",
        "-"
      ],
      [
        "Ġ",
        "ves"
      ],
      [
        "Ġ",
        "nds"
      ],
      [
        "Ġ",
        "est"
      ],
      [
        "Ġt",
        "s"
      ],
      [
        "Ġa",
        "v"
      ],
      [
        "Ġw",
        "n"
      ],
      [
        "Ġi",
        "re"
      ],
      [
        "Ġf",
        "ore"
      ],
      [
        "Ġf",
        "ri"
      ],
      [
        "Ġthe",
        "i"
      ],
      [
        "Ġl",
        "f"
      ],
      [
        "Ġo",
        "mes"
      ],
      [
        "Ġn",
        "ce"
      ],
      [
        "Ġn",
        "ter"
      ],
      [
        "Ġg",
        "e"
      ],
      [
        "Ġe",
        "ir"
      ],
      [
        "Ġe",
        "ath"
      ],
      [
        "Ġno",
        "ck"
      ],
      [
        "Ġp",
        "eror"
      ],
      [
        "Ġu",
        "nt"
      ],
      [
        "Ġu",
        "ght"
      ],
      [
        "Ġat",
        "e"
      ],
      [
        "Ġif",
        "e"
      ],
      [
        "Ġr",
        "d"
      ],
      [
        "Ġr",
        "st"
      ],
      [
        "Ġsw",
        "e"
      ],
      [
        "Ġfrie",
        "n"
      ],
      [
        "Ġlav",
        "in"
      ],
      [
        "Ġar",
        "s"
      ],
      [
        "Ġres",
        "s"
      ],
      [
        "Ġkno",
        "c"
      ],
      [
        "Ġmp",
        "eror"
      ],
      [
        "Ġgi",
        "v"
      ],
      [
        "f",
        "o"
      ],
      [
        "i",
        "ou"
      ],
      [
        "Ġt",
        "y"
      ],
      [
        "Ġt",
        "le"
      ],
      [
        "Ġt",
        "ter"
      ],
      [
        "Ġa",
        "ven"
      ],
      [
        "Ġs",
        "ad"
      ],
      [
        "Ġi",
        "a"
      ],
      [
        "Ġi",
        "g"
      ],
      [
        "Ġi",
        "le"
      ],
      [
        "Ġi",
        "ke"
      ],
      [
        "Ġi",
        "ous"
      ],
      [
        "Ġh",
        "ould"
      ],
      [
        "Ġb",
        "s"
      ],
      [
        "Ġo",
        "ble"
      ],
      [
        "Ġd",
        "er"
      ],
      [
        "Ġhe",
        "ir"
      ],
      [
        "Ġe",
        "nds"
      ],
      [
        "Ġp",
        "p"
      ],
      [
        "Ġp",
        "s"
      ],
      [
        "Ġp",
        "on"
      ],
      [
        "Ġbe",
        "i"
      ],
      [
        "Ġbe",
        "in"
      ],
      [
        "Ġgo",
        "t"
      ],
      [
        "Ġro",
        "n"
      ],
      [
        "Ġla",
        "in"
      ],
      [
        "Ġat",
        "urn"
      ],
      [
        "Ġde",
        "at"
      ],
      [
        "Ġsp",
        "e"
      ],
      [
        "Ġv",
        "inia"
      ],
      [
        "Ġbro",
        "the"
      ],
      [
        "Ġsaturn",
        "i"
      ],
      [
        "Ġsaturn",
        "in"
      ],
      [
        "Ġear",
        "s"
      ],
      [
        "Ġou",
        "d"
      ],
      [
        "Ġaemil",
        "i"
      ],
      [
        "Ġlit",
        "t"
      ],
      [
        "Ġwou",
        "l"
      ],
      [
        "Ġie",
        "nds"
      ],
      [
        "Ġshou",
        "l"
      ],
      [
        "Ġemper",
        "o"
      ],
      [
        "Ġcurt",
        "i"
      ],
      [
        "Ġrie",
        "nds"
      ],
      [
        "Ġnob",
        "l"
      ],
      [
        "Ġav",
        "inia"
      ],
      [
        "b",
        "arous"
      ],
      [
        "Ġ",
        ":"
      ],
      [
        "Ġ",
        "x"
      ],
      [
        "Ġ",
        "eror"
      ],
      [
        "Ġ",
        "xe"
      ],
      [
        "Ġt",
        "u"
      ],
      [
        "Ġt",
        "es"
      ],
      [
        "Ġt",
        "us"
      ],
      [
        "Ġt",
        "ea"
      ],
      [
        "Ġt",
        "ear"
      ],
      [
        "Ġa",
        "e"
      ],
      [
        "Ġa",
        "k"
      ],
      [
        "Ġs",
        "es"
      ],
      [
        "Ġm",
        "b"
      ],
      [
        "Ġm",
        "ilius"
      ],
      [
        "Ġi",
        "d"
      ],
      [
        "Ġi",
        "nd"
      ],
      [
        "Ġi",
        "ld"
      ],
      [
        "Ġi",
        "al"
      ],
      [
        "Ġi",
        "ght"
      ],
      [
        "Ġi",
        "de"
      ],
      [
        "Ġth",
        "r"
      ],
      [
        "Ġthe",
        "s"
      ],
      [
        "Ġl",
        "s"
      ],
      [
        "Ġo",
        "k"
      ],
      [
        "Ġo",
        "l"
      ],
      [
        "Ġo",
        "o"
      ],
      [
        "Ġn",
        "es"
      ],
      [
        "Ġn",
        "em"
      ],
      [
        "Ġn",
        "ia"
      ],
      [
        "Ġd",
        "ee"
      ],
      [
        "Ġc",
        "us"
      ],
      [
        "Ġe",
        "ast"
      ],
      [
        "Ġe",
        "lf"
      ],
      [
        "Ġe",
        "fore"
      ],
      [
        "Ġe",
        "lie"
      ],
      [
        "Ġbe",
        "l"
      ],
      [
        "Ġbe",
        "as"
      ],
      [
        "Ġy",
        "e"
      ],
      [
        "Ġy",
        "self"
      ],
      [
        "me",
        "n"
      ],
      [
        "Ġma",
        "k"
      ],
      [
        "Ġli",
        "f"
      ],
      [
        "Ġli",
        "us"
      ],
      [
        "Ġu",
        "e"
      ],
      [
        "Ġu",
        "m"
      ],
      [
        "Ġu",
        "st"
      ],
      [
        "Ġon",
        "g"
      ],
      [
        "Ġon",
        "s"
      ],
      [
        "Ġro",
        "thers"
      ],
      [
        "Ġit",
        "us"
      ],
      [
        "Ġre",
        "l"
      ],
      [
        "Ġre",
        "at"
      ],
      [
        "Ġta",
        "k"
      ],
      [
        "Ġta",
        "nd"
      ],
      [
        "Ġr",
        "or"
      ],
      [
        "Ġr",
        "ous"
      ],
      [
        "Ġtru",
        "mp"
      ],
      [
        "Ġor",
        "d"
      ],
      [
        "Ġor",
        "th"
      ],
      [
        "Ġsat",
        "u"
      ],
      [
        "Ġsat",
        "ur"
      ],
      [
        "Ġunc",
        "l"
      ],
      [
        "Ġbro",
        "t"
      ],
      [
        "Ġsis",
        "t"
      ],
      [
        "Ġear",
        "t"
      ],
      [
        "Ġou",
        "ght"
      ],
      [
        "Ġgre",
        "a"
      ],
      [
        "Ġfir",
        "s"
      ],
      [
        "Ġsor",
        "r"
      ],
      [
        "Ġaem",
        "i"
      ],
      [
        "Ġexe",
        "un"
      ],
      [
        "Ġwea",
        "p"
      ],
      [
        "Ġbarb",
        "a"
      ],
      [
        "Ġbarb",
        "ar"
      ],
      [
        "roni",
        "cus"
      ],
      [
        "Ġrece",
        "i"
      ],
      [
        "Ġhi",
        "ld"
      ],
      [
        "ic",
        "ing"
      ],
      [
        "Ġur",
        "ial"
      ],
      [
        "Ġnt",
        "o"
      ],
      [
        "Ġea",
        "k"
      ],
      [
        "Ġwom",
        "a"
      ],
      [
        "Ġluci",
        "u"
      ],
      [
        "Ġist",
        "er"
      ],
      [
        "Ġnc",
        "le"
      ],
      [
        "d",
        "ge"
      ],
      [
        "i",
        "cus"
      ],
      [
        "Ġ",
        "ndly"
      ],
      [
        "Ġ",
        "erv"
      ],
      [
        "Ġt",
        "ur"
      ],
      [
        "Ġt",
        "ly"
      ],
      [
        "Ġt",
        "il"
      ],
      [
        "Ġt",
        "tle"
      ],
      [
        "Ġt",
        "el"
      ],
      [
        "Ġa",
        "p"
      ],
      [
        "Ġa",
        "ce"
      ],
      [
        "Ġa",
        "ron"
      ],
      [
        "Ġw",
        "r"
      ],
      [
        "Ġw",
        "ro"
      ],
      [
        "Ġw",
        "ron"
      ],
      [
        "Ġw",
        "ful"
      ],
      [
        "Ġm",
        "s"
      ],
      [
        "Ġm",
        "or"
      ],
      [
        "Ġm",
        "in"
      ],
      [
        "Ġm",
        "ies"
      ],
      [
        "Ġi",
        "o"
      ],
      [
        "Ġi",
        "se"
      ],
      [
        "Ġh",
        "s"
      ],
      [
        "Ġb",
        "i"
      ],
      [
        "Ġb",
        "l"
      ],
      [
        "Ġb",
        "us"
      ],
      [
        "Ġth",
        "s"
      ],
      [
        "Ġth",
        "ing"
      ],
      [
        "Ġl",
        "or"
      ],
      [
        "Ġl",
        "low"
      ],
      [
        "Ġo",
        "st"
      ],
      [
        "Ġo",
        "man"
      ],
      [
        "Ġo",
        "ok"
      ],
      [
        "Ġn",
        "k"
      ],
      [
        "Ġn",
        "our"
      ],
      [
        "Ġn",
        "ous"
      ],
      [
        "Ġn",
        "ess"
      ],
      [
        "Ġn",
        "tle"
      ],
      [
        "Ġn",
        "gs"
      ],
      [
        "Ġd",
        "y"
      ],
      [
        "Ġd",
        "ly"
      ],
      [
        "Ġd",
        "ges"
      ],
      [
        "Ġhe",
        "d"
      ],
      [
        "Ġhe",
        "m"
      ],
      [
        "Ġg",
        "a"
      ],
      [
        "Ġg",
        "s"
      ],
      [
        "Ġg",
        "es"
      ],
      [
        "Ġg",
        "en"
      ],
      [
        "Ġc",
        "ius"
      ],
      [
        "Ġe",
        "f"
      ],
      [
        "Ġe",
        "g"
      ],
      [
        "Ġe",
        "nd"
      ],
      [
        "Ġe",
        "at"
      ],
      [
        "Ġe",
        "ing"
      ],
      [
        "Ġe",
        "et"
      ],
      [
        "Ġe",
        "ce"
      ],
      [
        "Ġp",
        "ea"
      ],
      [
        "Ġmy",
        "s"
      ],
      [
        "Ġk",
        "s"
      ],
      [
        "Ġme",
        "nt"
      ],
      [
        "Ġso",
        "m"
      ],
      [
        "Ġli",
        "k"
      ],
      [
        "Ġu",
        "d"
      ],
      [
        "Ġu",
        "re"
      ],
      [
        "Ġis",
        "h"
      ],
      [
        "Ġit",
        "tle"
      ],
      [
        "Ġst",
        "an"
      ],
      [
        "Ġre",
        "fore"
      ],
      [
        "Ġre",
        "well"
      ],
      [
        "Ġla",
        "s"
      ],
      [
        "Ġfa",
        "c"
      ],
      [
        "ive",
        "d"
      ],
      [
        "Ġr",
        "v"
      ],
      [
        "Ġr",
        "tis"
      ],
      [
        "Ġr",
        "cus"
      ],
      [
        "Ġr",
        "ms"
      ],
      [
        "Ġr",
        "rel"
      ],
      [
        "Ġr",
        "ds"
      ],
      [
        "Ġr",
        "oud"
      ],
      [
        "Ġthere",
        "for"
      ],
      [
        "Ġtit",
        "l"
      ],
      [
        "Ġtit",
        "u"
      ],
      [
        "Ġor",
        "st"
      ],
      [
        "un",
        "es"
      ],
      [
        "Ġhere",
        "fore"
      ],
      [
        "Ġever",
        "l"
      ],
      [
        "Ġen",
        "e"
      ],
      [
        "Ġmar",
        "c"
      ],
      [
        "Ġmar",
        "r"
      ],
      [
        "Ġare",
        "well"
      ],
      [
        "Ġv",
        "il"
      ],
      [
        "Ġal",
        "a"
      ],
      [
        "Ġaw",
        "a"
      ],
      [
        "Ġper",
        "f"
      ],
      [
        "Ġbro",
        "th"
      ],
      [
        "Ġlav",
        "i"
      ],
      [
        "Ġsou",
        "n"
      ],
      [
        "Ġou",
        "l"
      ],
      [
        "Ġou",
        "th"
      ],
      [
        "Ġenem",
        "ie"
      ],
      [
        "Ġsc",
        "o"
      ],
      [
        "Ġqu",
        "a"
      ],
      [
        "Ġhea",
        "ve"
      ],
      [
        "Ġbur",
        "ia"
      ],
      [
        "Ġar",
        "m"
      ],
      [
        "Ġar",
        "cus"
      ],
      [
        "Ġdev",
        "i"
      ],
      [
        "Ġblo",
        "o"
      ],
      [
        "Ġtrib",
        "u"
      ],
      [
        "Ġaa",
        "ro"
      ],
      [
        "Ġlim",
        "b"
      ],
      [
        "Ġgent",
        "l"
      ],
      [
        "Ġwit",
        "n"
      ],
      [
        "rif",
        "ice"
      ],
      [
        "rif",
        "icing"
      ],
      [
        "Ġban",
        "is"
      ],
      [
        "ha",
        "ps"
      ],
      [
        "Ġfl",
        "our"
      ],
      [
        "Ġmut",
        "i"
      ],
      [
        "Ġinter",
        "rup"
      ],
      [
        "Ġhi",
        "ch"
      ],
      [
        "Ġim",
        "bs"
      ],
      [
        "Ġer",
        "y"
      ],
      [
        "Ġent",
        "e"
      ],
      [
        "Ġent",
        "le"
      ],
      [
        "ic",
        "i"
      ],
      [
        "Ġup",
        "o"
      ],
      [
        "Ġdisf",
        "ig"
      ],
      [
        "Ġrepro",
        "bat"
      ],
      [
        "Ġstri",
        "p"
      ],
      [
        "Ġsatisf",
        "act"
      ],
      [
        "Ġll",
        "s"
      ],
      [
        "Ġes",
        "e"
      ],
      [
        "Ġet",
        "ter"
      ],
      [
        "Ġsi",
        "gh"
      ],
      [
        "Ġem",
        "ilius"
      ],
      [
        "Ġch",
        "il"
      ],
      [
        "Ġoth",
        "s"
      ],
      [
        "Ġurn",
        "ine"
      ],
      [
        "Ġri",
        "al"
      ],
      [
        "Ġil",
        "ius"
      ],
      [
        "Ġrow",
        "n"
      ],
      [
        "Ġfarew",
        "e"
      ],
      [
        "Ġlavin",
        "i"
      ],
      [
        "Ġaturn",
        "ine"
      ],
      [
        "Ġlitt",
        "l"
      ],
      [
        "Ġxe",
        "unt"
      ],
      [
        "Ġnem",
        "ies"
      ],
      [
        "b",
        "a"
      ],
      [
        "c",
        "i"
      ],
      [
        "c",
        "ing"
      ],
      [
        "c",
        "ius"
      ],
      [
        "c",
        "ious"
      ],
      [
        "c",
        "om"
      ],
      [
        "d",
        "g"
      ],
      [
        "f",
        "ies"
      ],
      [
        "f",
        "igure"
      ],
      [
        "f",
        "action"
      ],
      [
        "h",
        "o"
      ],
      [
        "l",
        "ai"
      ],
      [
        "m",
        "in"
      ],
      [
        "n",
        "a"
      ],
      [
        "s",
        "i"
      ],
      [
        "t",
        "i"
      ],
      [
        "u",
        "l"
      ],
      [
        "u",
        "ile"
      ],
      [
        "Ġ",
        "q"
      ],
      [
        "Ġ",
        "vey"
      ],
      [
        "Ġ",
        "rum"
      ],
      [
        "Ġt",
        "ay"
      ],
      [
        "Ġt",
        "ed"
      ],
      [
        "Ġt",
        "ies"
      ],
      [
        "Ġt",
        "ress"
      ],
      [
        "Ġt",
        "en"
      ],
      [
        "Ġt",
        "ion"
      ],
      [
        "Ġt",
        "les"
      ],
      [
        "Ġt",
        "ness"
      ],
      [
        "Ġt",
        "ers"
      ],
      [
        "Ġt",
        "ory"
      ],
      [
        "Ġa",
        "nt"
      ],
      [
        "Ġa",
        "pon"
      ],
      [
        "Ġa",
        "ps"
      ],
      [
        "Ġa",
        "ise"
      ],
      [
        "Ġs",
        "id"
      ],
      [
        "Ġs",
        "ed"
      ],
      [
        "Ġs",
        "ters"
      ],
      [
        "Ġw",
        "s"
      ],
      [
        "Ġw",
        "her"
      ],
      [
        "Ġm",
        "ee"
      ],
      [
        "Ġm",
        "ing"
      ],
      [
        "Ġm",
        "ora"
      ],
      [
        "Ġi",
        "ch"
      ],
      [
        "Ġi",
        "ent"
      ],
      [
        "Ġi",
        "ves"
      ],
      [
        "Ġi",
        "ps"
      ],
      [
        "Ġi",
        "cus"
      ],
      [
        "Ġh",
        "u"
      ],
      [
        "Ġh",
        "ing"
      ],
      [
        "Ġh",
        "it"
      ],
      [
        "Ġh",
        "row"
      ],
      [
        "Ġh",
        "old"
      ],
      [
        "Ġh",
        "ough"
      ],
      [
        "Ġb",
        "ar"
      ],
      [
        "Ġb",
        "as"
      ],
      [
        "Ġb",
        "arous"
      ],
      [
        "Ġb",
        "unes"
      ],
      [
        "Ġf",
        "ar"
      ],
      [
        "Ġf",
        "ter"
      ],
      [
        "Ġf",
        "al"
      ],
      [
        "Ġf",
        "ig"
      ],
      [
        "Ġf",
        "el"
      ],
      [
        "at",
        "ion"
      ],
      [
        "Ġth",
        "in"
      ],
      [
        "Ġth",
        "ro"
      ],
      [
        "Ġth",
        "al"
      ],
      [
        "Ġl",
        "t"
      ],
      [
        "Ġl",
        "es"
      ],
      [
        "Ġl",
        "us"
      ],
      [
        "Ġl",
        "ow"
      ],
      [
        "Ġl",
        "ks"
      ],
      [
        "Ġl",
        "lo"
      ],
      [
        "Ġl",
        "arb"
      ],
      [
        "Ġl",
        "lain"
      ],
      [
        "Ġl",
        "come"
      ],
      [
        "Ġo",
        "or"
      ],
      [
        "Ġo",
        "ve"
      ],
      [
        "Ġo",
        "ra"
      ],
      [
        "Ġo",
        "se"
      ],
      [
        "Ġo",
        "ther"
      ],
      [
        "Ġo",
        "bs"
      ],
      [
        "Ġo",
        "om"
      ],
      [
        "Ġo",
        "lks"
      ],
      [
        "Ġo",
        "of"
      ],
      [
        "Ġn",
        "h"
      ],
      [
        "Ġn",
        "us"
      ],
      [
        "Ġn",
        "ea"
      ],
      [
        "Ġn",
        "ed"
      ],
      [
        "Ġn",
        "ine"
      ],
      [
        "Ġn",
        "vey"
      ],
      [
        "Ġn",
        "inus"
      ],
      [
        "Ġn",
        "ough"
      ],
      [
        "Ġn",
        "icus"
      ],
      [
        "Ġd",
        "r"
      ],
      [
        "Ġd",
        "u"
      ],
      [
        "Ġd",
        "on"
      ],
      [
        "Ġd",
        "ing"
      ],
      [
        "Ġd",
        "der"
      ],
      [
        "Ġd",
        "ronicus"
      ],
      [
        "Ġhe",
        "l"
      ],
      [
        "Ġg",
        "ro"
      ],
      [
        "Ġg",
        "ri"
      ],
      [
        "Ġg",
        "ure"
      ],
      [
        "Ġc",
        "i"
      ],
      [
        "Ġc",
        "t"
      ],
      [
        "Ġc",
        "al"
      ],
      [
        "Ġc",
        "ious"
      ],
      [
        "Ġto",
        "ge"
      ],
      [
        "th",
        "ren"
      ],
      [
        "Ġe",
        "w"
      ],
      [
        "Ġe",
        "in"
      ],
      [
        "Ġe",
        "as"
      ],
      [
        "Ġe",
        "ful"
      ],
      [
        "Ġe",
        "qu"
      ],
      [
        "Ġe",
        "en"
      ],
      [
        "Ġe",
        "lp"
      ],
      [
        "Ġe",
        "dges"
      ],
      [
        "Ġe",
        "hold"
      ],
      [
        "Ġe",
        "vent"
      ],
      [
        "Ġe",
        "ep"
      ],
      [
        "ar",
        "rel"
      ],
      [
        "Ġp",
        "il"
      ],
      [
        "Ġp",
        "are"
      ],
      [
        "Ġp",
        "ets"
      ],
      [
        "Ġwi",
        "f"
      ],
      [
        "Ġwi",
        "p"
      ],
      [
        "Ġbe",
        "e"
      ],
      [
        "Ġbe",
        "for"
      ],
      [
        "Ġbe",
        "li"
      ],
      [
        "Ġmy",
        "se"
      ],
      [
        "im",
        "ony"
      ],
      [
        "Ġwh",
        "it"
      ],
      [
        "Ġin",
        "k"
      ],
      [
        "Ġin",
        "us"
      ],
      [
        "Ġin",
        "ia"
      ],
      [
        "Ġha",
        "ps"
      ],
      [
        "Ġha",
        "lt"
      ],
      [
        "Ġwith",
        "a"
      ],
      [
        "Ġwith",
        "i"
      ],
      [
        "ie",
        "n"
      ],
      [
        "Ġme",
        "a"
      ],
      [
        "Ġco",
        "l"
      ],
      [
        "Ġli",
        "p"
      ],
      [
        "Ġu",
        "nd"
      ],
      [
        "Ġu",
        "th"
      ],
      [
        "Ġu",
        "it"
      ],
      [
        "Ġu",
        "gh"
      ],
      [
        "Ġu",
        "lt"
      ],
      [
        "Ġu",
        "ndly"
      ],
      [
        "Ġu",
        "mb"
      ],
      [
        "Ġu",
        "mpets"
      ],
      [
        "Ġu",
        "cius"
      ],
      [
        "Ġu",
        "arrel"
      ],
      [
        "Ġthy",
        "s"
      ],
      [
        "Ġthy",
        "sel"
      ],
      [
        "Ġthou",
        "g"
      ],
      [
        "Ġon",
        "y"
      ],
      [
        "Ġon",
        "es"
      ],
      [
        "Ġon",
        "gs"
      ],
      [
        "Ġis",
        "s"
      ],
      [
        "Ġis",
        "on"
      ],
      [
        "Ġis",
        "ses"
      ],
      [
        "Ġis",
        "hed"
      ],
      [
        "Ġro",
        "p"
      ],
      [
        "Ġro",
        "ng"
      ],
      [
        "Ġro",
        "ni"
      ],
      [
        "Ġour",
        "n"
      ],
      [
        "Ġit",
        "her"
      ],
      [
        "Ġit",
        "les"
      ],
      [
        "Ġst",
        "o"
      ],
      [
        "Ġst",
        "s"
      ],
      [
        "Ġst",
        "ly"
      ],
      [
        "Ġst",
        "ress"
      ],
      [
        "Ġher",
        "s"
      ],
      [
        "Ġre",
        "e"
      ],
      [
        "Ġre",
        "n"
      ],
      [
        "Ġre",
        "li"
      ],
      [
        "Ġan",
        "k"
      ],
      [
        "Ġan",
        "s"
      ],
      [
        "Ġan",
        "ce"
      ],
      [
        "Ġan",
        "ot"
      ],
      [
        "Ġla",
        "ve"
      ],
      [
        "Ġam",
        "b"
      ],
      [
        "Ġam",
        "o"
      ],
      [
        "Ġdo",
        "o"
      ],
      [
        "Ġat",
        "t"
      ],
      [
        "Ġat",
        "es"
      ],
      [
        "Ġat",
        "en"
      ],
      [
        "Ġwho",
        "s"
      ],
      [
        "Ġde",
        "m"
      ],
      [
        "Ġun",
        "e"
      ],
      [
        "Ġun",
        "es"
      ],
      [
        "Ġra",
        "i"
      ],
      [
        "Ġra",
        "cious"
      ],
      [
        "Ġemp",
        "re"
      ],
      [
        "Ġemp",
        "res"
      ],
      [
        "Ġr",
        "m"
      ],
      [
        "Ġr",
        "row"
      ],
      [
        "Ġr",
        "ses"
      ],
      [
        "Ġr",
        "ry"
      ],
      [
        "Ġr",
        "ish"
      ],
      [
        "Ġr",
        "for"
      ],
      [
        "Ġr",
        "ison"
      ],
      [
        "Ġr",
        "barous"
      ],
      [
        "Ġr",
        "haps"
      ],
      [
        "Ġlo",
        "o"
      ],
      [
        "Ġlo",
        "od"
      ],
      [
        "Ġcur",
        "s"
      ],
      [
        "Ġsw",
        "o"
      ],
      [
        "Ġsw",
        "ea"
      ],
      [
        "Ġ'",
        "?"
      ],
      [
        "Ġthere",
        "fo"
      ],
      [
        "Ġtru",
        "m"
      ],
      [
        "Ġor",
        "s"
      ],
      [
        "Ġor",
        "t"
      ],
      [
        "Ġor",
        "y"
      ],
      [
        "Ġor",
        "row"
      ],
      [
        "Ġor",
        "ses"
      ],
      [
        "Ġor",
        "ds"
      ],
      [
        "ine",
        "th"
      ],
      [
        "Ġever",
        "last"
      ],
      [
        "Ġen",
        "ou"
      ],
      [
        "Ġen",
        "ce"
      ],
      [
        "Ġcon",
        "ve"
      ],
      [
        "Ġex",
        "i"
      ],
      [
        "Ġv",
        "i"
      ],
      [
        "Ġbre",
        "a"
      ],
      [
        "Ġbre",
        "t"
      ],
      [
        "Ġbre",
        "as"
      ],
      [
        "Ġal",
        "ar"
      ],
      [
        "Ġaw",
        "h"
      ],
      [
        "Ġwor",
        "s"
      ],
      [
        "Ġwor",
        "t"
      ],
      [
        "Ġsis",
        "te"
      ],
      [
        "Ġgra",
        "nds"
      ],
      [
        "Ġou",
        "nd"
      ],
      [
        "Ġou",
        "gh"
      ],
      [
        "Ġfo",
        "o"
      ],
      [
        "Ġturn",
        "ine"
      ],
      [
        "Ġwar",
        "ri"
      ],
      [
        "Ġbur",
        "i"
      ],
      [
        "Ġlea",
        "d"
      ],
      [
        "Ġple",
        "dge"
      ],
      [
        "Ġdes",
        "i"
      ],
      [
        "Ġbeast",
        "l"
      ],
      [
        "Ġmat",
        "t"
      ],
      [
        "Ġmat",
        "te"
      ],
      [
        "Ġexe",
        "u"
      ],
      [
        "Ġar",
        "th"
      ],
      [
        "Ġar",
        "rel"
      ],
      [
        "Ġar",
        "bus"
      ],
      [
        "Ġar",
        "barous"
      ],
      [
        "Ġad",
        "der"
      ],
      [
        "Ġpra",
        "i"
      ],
      [
        "Ġpra",
        "is"
      ],
      [
        "Ġtam",
        "o"
      ],
      [
        "Ġtam",
        "or"
      ],
      [
        "Ġkis",
        "se"
      ],
      [
        "Ġlov",
        "i"
      ],
      [
        "Ġforth",
        "w"
      ],
      [
        "Ġhor",
        "se"
      ],
      [
        "Ġquar",
        "r"
      ],
      [
        "Ġquar",
        "re"
      ],
      [
        "Ġho",
        "se"
      ],
      [
        "Ġwit",
        "ne"
      ],
      [
        "isf",
        "action"
      ],
      [
        "Ġsac",
        "r"
      ],
      [
        "Ġban",
        "i"
      ],
      [
        "Ġcons",
        "ider"
      ],
      [
        "Ġmou",
        "t"
      ],
      [
        "Ġkna",
        "v"
      ],
      [
        "Ġkna",
        "ve"
      ],
      [
        "ct",
        "ion"
      ],
      [
        "the",
        "ren"
      ],
      [
        "Ġmist",
        "r"
      ],
      [
        "Ġmist",
        "re"
      ],
      [
        "Ġmist",
        "res"
      ],
      [
        "Ġwood",
        "co"
      ],
      [
        "Ġtig",
        "e"
      ],
      [
        "Ġwel",
        "co"
      ],
      [
        "Ġaf",
        "te"
      ],
      [
        "Ġbet",
        "te"
      ],
      [
        "Ġsla",
        "v"
      ],
      [
        "Ġsacrif",
        "i"
      ],
      [
        "Ġnoth",
        "i"
      ],
      [
        "Ġnoth",
        "in"
      ],
      [
        "Ġraven",
        "o"
      ],
      [
        "Ġraven",
        "ou"
      ],
      [
        "Ġperha",
        "p"
      ],
      [
        "Ġatte",
        "mp"
      ],
      [
        "Ġlad",
        "d"
      ],
      [
        "Ġalarb",
        "u"
      ],
      [
        "Ġgrac",
        "i"
      ],
      [
        "Ġgrac",
        "io"
      ],
      [
        "Ġgrac",
        "iou"
      ],
      [
        "Ġlaw",
        "fu"
      ],
      [
        "Ġdetest",
        "ab"
      ],
      [
        "Ġpr",
        "is"
      ],
      [
        "Ġwret",
        "c"
      ],
      [
        "Ġve",
        "d"
      ],
      [
        "Ġnd",
        "ronicus"
      ],
      [
        "Ġow",
        "s"
      ],
      [
        "Ġow",
        "ing"
      ],
      [
        "Ġbir",
        "d"
      ],
      [
        "Ġgr",
        "an"
      ],
      [
        "Ġere",
        "fore"
      ],
      [
        "Ġte",
        "mpt"
      ],
      [
        "Ġru",
        "e"
      ],
      [
        "Ġru",
        "th"
      ],
      [
        "Ġru",
        "mpets"
      ],
      [
        "Ġven",
        "ous"
      ],
      [
        "Ġsen",
        "at"
      ],
      [
        "Ġwee",
        "t"
      ],
      [
        "Ġdemet",
        "ri"
      ],
      [
        "Ġbef",
        "o"
      ],
      [
        "sel",
        "ves"
      ],
      [
        "Ġsold",
        "i"
      ],
      [
        "Ġva",
        "unt"
      ],
      [
        "Ġobli",
        "v"
      ],
      [
        "Ġstra",
        "i"
      ],
      [
        "Ġrav",
        "is"
      ],
      [
        "Ġac",
        "ious"
      ],
      [
        "Ġsatisf",
        "a"
      ],
      [
        "Ġunki",
        "nd"
      ],
      [
        "Ġrec",
        "ou"
      ],
      [
        "kn",
        "o"
      ],
      [
        "Ġmon",
        "u"
      ],
      [
        "Ġche",
        "e"
      ],
      [
        "Ġsound",
        "l"
      ],
      [
        "dem",
        "on"
      ],
      [
        "Ġunhall",
        "ow"
      ],
      [
        "Ġappare",
        "ll"
      ],
      [
        "Ġbio",
        "nd"
      ],
      [
        "Ġinsat",
        "i"
      ],
      [
        "Ġur",
        "tis"
      ],
      [
        "Ġur",
        "ish"
      ],
      [
        "Ġse",
        "lf"
      ],
      [
        "Ġet",
        "s"
      ],
      [
        "Ġther",
        "s"
      ],
      [
        "Ġem",
        "ies"
      ],
      [
        "Ġrom",
        "a"
      ],
      [
        "Ġill",
        "ain"
      ],
      [
        "Ġith",
        "al"
      ],
      [
        "Ġast",
        "er"
      ],
      [
        "Ġast",
        "ers"
      ],
      [
        "Ġie",
        "nd"
      ],
      [
        "Ġea",
        "ven"
      ],
      [
        "Ġurn",
        "ing"
      ],
      [
        "Ġurn",
        "inus"
      ],
      [
        "Ġmp",
        "t"
      ],
      [
        "Ġmp",
        "ress"
      ],
      [
        "Ġmp",
        "ets"
      ],
      [
        "Ġrn",
        "ine"
      ],
      [
        "Ġrn",
        "inus"
      ],
      [
        "Ġri",
        "ous"
      ],
      [
        "Ġev",
        "il"
      ],
      [
        "Ġrie",
        "f"
      ],
      [
        "Ġist",
        "ress"
      ],
      [
        "Ġrth",
        "y"
      ],
      [
        "Ġfarew",
        "el"
      ],
      [
        "Ġaven",
        "ous"
      ],
      [
        "Ġig",
        "er"
      ],
      [
        "Ġig",
        "ure"
      ],
      [
        "Ġaturn",
        "inus"
      ],
      [
        "Ġsaturnin",
        "u"
      ],
      [
        "Ġaemili",
        "u"
      ],
      [
        "Ġx",
        "it"
      ],
      [
        "Ġtrump",
        "et"
      ],
      [
        "Ġweap",
        "o"
      ],
      [
        "Ġbarba",
        "ro"
      ],
      [
        "Ġbarbar",
        "ou"
      ],
      [
        "Ġrecei",
        "v"
      ],
      [
        "Ġpea",
        "k"
      ],
      [
        "Ġwitn",
        "es"
      ],
      [
        "Ġlarb",
        "us"
      ],
      [
        "Ġroni",
        "cus"
      ],
      [
        "a",
        "ir"
      ],
      [
        "b",
        "y"
      ],
      [
        "b",
        "unes"
      ],
      [
        "c",
        "ur"
      ],
      [
        "c",
        "ue"
      ],
      [
        "c",
        "ount"
      ],
      [
        "d",
        "on"
      ],
      [
        "h",
        "ie"
      ],
      [
        "i",
        "ndly"
      ],
      [
        "i",
        "fies"
      ],
      [
        "j",
        "e"
      ],
      [
        "n",
        "at"
      ],
      [
        "n",
        "an"
      ],
      [
        "n",
        "anc"
      ],
      [
        "p",
        "ter"
      ],
      [
        "r",
        "in"
      ],
      [
        "r",
        "ink"
      ],
      [
        "s",
        "ire"
      ],
      [
        "t",
        "r"
      ],
      [
        "v",
        "ing"
      ],
      [
        "w",
        "l"
      ],
      [
        "Ġ",
        "vest"
      ],
      [
        "Ġ",
        "urb"
      ],
      [
        "Ġ",
        "riors"
      ],
      [
        "Ġ",
        "ze"
      ],
      [
        "Ġ",
        "zen"
      ],
      [
        "Ġ",
        "ndsire"
      ],
      [
        "Ġ",
        "rifice"
      ],
      [
        "Ġ",
        "rificing"
      ],
      [
        "Ġt",
        "in"
      ],
      [
        "Ġt",
        "ir"
      ],
      [
        "Ġt",
        "ra"
      ],
      [
        "Ġt",
        "ius"
      ],
      [
        "Ġt",
        "ain"
      ],
      [
        "Ġt",
        "ch"
      ],
      [
        "Ġt",
        "ure"
      ],
      [
        "Ġt",
        "io"
      ],
      [
        "Ġt",
        "rong"
      ],
      [
        "Ġt",
        "te"
      ],
      [
        "Ġt",
        "eel"
      ],
      [
        "Ġt",
        "ters"
      ],
      [
        "Ġt",
        "urb"
      ],
      [
        "Ġt",
        "rails"
      ],
      [
        "Ġt",
        "ardy"
      ],
      [
        "Ġt",
        "ched"
      ],
      [
        "Ġt",
        "isfaction"
      ],
      [
        "Ġa",
        "x"
      ],
      [
        "Ġa",
        "ar"
      ],
      [
        "Ġa",
        "le"
      ],
      [
        "Ġa",
        "me"
      ],
      [
        "Ġa",
        "ir"
      ],
      [
        "Ġa",
        "se"
      ],
      [
        "Ġa",
        "ter"
      ],
      [
        "Ġa",
        "ru"
      ],
      [
        "Ġa",
        "id"
      ],
      [
        "Ġa",
        "ble"
      ],
      [
        "Ġa",
        "ves"
      ],
      [
        "Ġa",
        "lf"
      ],
      [
        "Ġa",
        "bs"
      ],
      [
        "Ġa",
        "ight"
      ],
      [
        "Ġa",
        "ment"
      ],
      [
        "Ġa",
        "very"
      ],
      [
        "Ġa",
        "ith"
      ],
      [
        "Ġa",
        "ils"
      ],
      [
        "Ġa",
        "use"
      ],
      [
        "Ġa",
        "vely"
      ],
      [
        "Ġa",
        "ineth"
      ],
      [
        "Ġa",
        "ction"
      ],
      [
        "he",
        "aded"
      ],
      [
        "Ġs",
        "le"
      ],
      [
        "Ġs",
        "us"
      ],
      [
        "Ġs",
        "ur"
      ],
      [
        "Ġs",
        "ea"
      ],
      [
        "Ġs",
        "um"
      ],
      [
        "Ġs",
        "ses"
      ],
      [
        "Ġs",
        "el"
      ],
      [
        "Ġs",
        "sio"
      ],
      [
        "Ġs",
        "idering"
      ],
      [
        "Ġs",
        "chance"
      ],
      [
        "Ġs",
        "figure"
      ],
      [
        "Ġs",
        "faction"
      ],
      [
        "Ġs",
        "demon"
      ],
      [
        "Ġw",
        "l"
      ],
      [
        "Ġw",
        "at"
      ],
      [
        "Ġw",
        "ing"
      ],
      [
        "Ġw",
        "ain"
      ],
      [
        "Ġw",
        "ate"
      ],
      [
        "Ġw",
        "ers"
      ],
      [
        "Ġm",
        "n"
      ],
      [
        "Ġm",
        "us"
      ],
      [
        "Ġm",
        "it"
      ],
      [
        "Ġm",
        "et"
      ],
      [
        "Ġm",
        "il"
      ],
      [
        "Ġm",
        "ig"
      ],
      [
        "Ġm",
        "bs"
      ],
      [
        "Ġm",
        "ish"
      ],
      [
        "Ġm",
        "pe"
      ],
      [
        "Ġm",
        "per"
      ],
      [
        "Ġm",
        "ming"
      ],
      [
        "Ġm",
        "ong"
      ],
      [
        "Ġm",
        "ony"
      ],
      [
        "Ġm",
        "iss"
      ],
      [
        "Ġm",
        "orous"
      ],
      [
        "Ġm",
        "selves"
      ],
      [
        "ou",
        "ght"
      ],
      [
        "Ġi",
        "p"
      ],
      [
        "Ġi",
        "v"
      ],
      [
        "Ġi",
        "on"
      ],
      [
        "Ġi",
        "me"
      ],
      [
        "Ġi",
        "ron"
      ],
      [
        "Ġi",
        "ate"
      ],
      [
        "Ġi",
        "lt"
      ],
      [
        "Ġi",
        "pe"
      ],
      [
        "Ġi",
        "ndly"
      ],
      [
        "Ġi",
        "der"
      ],
      [
        "Ġi",
        "ors"
      ],
      [
        "Ġi",
        "ers"
      ],
      [
        "Ġi",
        "mb"
      ],
      [
        "Ġi",
        "vion"
      ],
      [
        "Ġi",
        "ved"
      ],
      [
        "Ġi",
        "rous"
      ],
      [
        "Ġi",
        "pling"
      ],
      [
        "Ġi",
        "nded"
      ],
      [
        "Ġi",
        "cks"
      ],
      [
        "Ġi",
        "ci"
      ],
      [
        "Ġi",
        "cing"
      ],
      [
        "Ġh",
        "re"
      ],
      [
        "Ġh",
        "in"
      ],
      [
        "Ġh",
        "us"
      ],
      [
        "Ġh",
        "ir"
      ],
      [
        "Ġh",
        "ut"
      ],
      [
        "Ġh",
        "ore"
      ],
      [
        "Ġh",
        "ous"
      ],
      [
        "Ġh",
        "ig"
      ],
      [
        "Ġh",
        "ful"
      ],
      [
        "Ġh",
        "ine"
      ],
      [
        "Ġh",
        "ment"
      ],
      [
        "Ġh",
        "om"
      ],
      [
        "Ġh",
        "ree"
      ],
      [
        "Ġh",
        "ness"
      ],
      [
        "Ġh",
        "ance"
      ],
      [
        "Ġh",
        "ith"
      ],
      [
        "Ġh",
        "ink"
      ],
      [
        "Ġh",
        "ren"
      ],
      [
        "Ġh",
        "inks"
      ],
      [
        "Ġh",
        "less"
      ],
      [
        "Ġh",
        "irt"
      ],
      [
        "Ġh",
        "with"
      ],
      [
        "Ġh",
        "rink"
      ],
      [
        "Ġb",
        "b"
      ],
      [
        "Ġb",
        "t"
      ],
      [
        "Ġb",
        "st"
      ],
      [
        "Ġb",
        "ly"
      ],
      [
        "Ġb",
        "ri"
      ],
      [
        "Ġb",
        "one"
      ],
      [
        "Ġb",
        "ion"
      ],
      [
        "Ġb",
        "li"
      ],
      [
        "Ġb",
        "sequ"
      ],
      [
        "Ġb",
        "out"
      ],
      [
        "Ġb",
        "ject"
      ],
      [
        "Ġb",
        "ation"
      ],
      [
        "Ġf",
        "s"
      ],
      [
        "Ġf",
        "re"
      ],
      [
[...]
